{
  "version": "1.0",
  "truncation": null,
  "padding": null,
  "added_tokens": [
    {
      "id": 0,
      "content": "<unk>",
      "single_word": false,
      "lstrip": false,
      "rstrip": false,
      "normalized": false,
      "special": true
    }
  ],
  "normalizer": {
    "type": "NFKC"
  },
  "pre_tokenizer": {
    "type": "Metaspace",
    "replacement": "▁",
    "prepend_scheme": "never",
    "split": true
  },
  "post_processor": null,
  "decoder": {
    "type": "Metaspace",
    "replacement": "▁",
    "prepend_scheme": "never",
    "split": true
  },
  "model": {
    "type": "BPE",
    "dropout": null,
    "unk_token": "<unk>",
    "continuing_subword_prefix": null,
    "end_of_word_suffix": null,
    "fuse_unk": false,
    "byte_fallback": false,
    "ignore_merges": false,
    "vocab": {
      "<unk>": 0,
      "\n": 1,
      "!": 2,
      "\"": 3,
      "#": 4,
      "$": 5,
      "%": 6,
      "&": 7,
      "'": 8,
      "(": 9,
      ")": 10,
      "*": 11,
      "+": 12,
      ",": 13,
      "-": 14,
      ".": 15,
      "/": 16,
      "0": 17,
      "1": 18,
      "2": 19,
      "3": 20,
      "4": 21,
      "5": 22,
      "6": 23,
      "7": 24,
      "8": 25,
      "9": 26,
      ":": 27,
      ";": 28,
      "<": 29,
      "=": 30,
      ">": 31,
      "?": 32,
      "A": 33,
      "B": 34,
      "C": 35,
      "D": 36,
      "E": 37,
      "F": 38,
      "G": 39,
      "H": 40,
      "I": 41,
      "J": 42,
      "K": 43,
      "L": 44,
      "M": 45,
      "N": 46,
      "O": 47,
      "P": 48,
      "Q": 49,
      "R": 50,
      "S": 51,
      "T": 52,
      "U": 53,
      "V": 54,
      "W": 55,
      "X": 56,
      "Y": 57,
      "Z": 58,
      "[": 59,
      "\\": 60,
      "]": 61,
      "^": 62,
      "_": 63,
      "`": 64,
      "a": 65,
      "b": 66,
      "c": 67,
      "d": 68,
      "e": 69,
      "f": 70,
      "g": 71,
      "h": 72,
      "i": 73,
      "j": 74,
      "k": 75,
      "l": 76,
      "m": 77,
      "n": 78,
      "o": 79,
      "p": 80,
      "q": 81,
      "r": 82,
      "s": 83,
      "t": 84,
      "u": 85,
      "v": 86,
      "w": 87,
      "x": 88,
      "y": 89,
      "z": 90,
      "{": 91,
      "|": 92,
      "}": 93,
      "~": 94,
      "°": 95,
      "·": 96,
      "Ö": 97,
      "ß": 98,
      "á": 99,
      "â": 100,
      "æ": 101,
      "ç": 102,
      "è": 103,
      "é": 104,
      "í": 105,
      "ñ": 106,
      "ö": 107,
      "ü": 108,
      "ā": 109,
      "ī": 110,
      "İ": 111,
      "Ś": 112,
      "ś": 113,
      "ţ": 114,
      "ū": 115,
      "ș": 116,
      "ə": 117,
      "ɦ": 118,
      "ɪ": 119,
      "ɾ": 120,
      "ʊ": 121,
      "ʼ": 122,
      "ˈ": 123,
      "ː": 124,
      "́": 125,
      "ί": 126,
      "α": 127,
      "δ": 128,
      "θ": 129,
      "ν": 130,
      "ο": 131,
      "π": 132,
      "ς": 133,
      "ό": 134,
      "ँ": 135,
      "ं": 136,
      "ः": 137,
      "अ": 138,
      "आ": 139,
      "इ": 140,
      "ई": 141,
      "उ": 142,
      "ऊ": 143,
      "ऋ": 144,
      "ऍ": 145,
      "ए": 146,
      "ऐ": 147,
      "ऑ": 148,
      "ओ": 149,
      "औ": 150,
      "क": 151,
      "ख": 152,
      "ग": 153,
      "घ": 154,
      "ङ": 155,
      "च": 156,
      "छ": 157,
      "ज": 158,
      "झ": 159,
      "ञ": 160,
      "ट": 161,
      "ठ": 162,
      "ड": 163,
      "ढ": 164,
      "ण": 165,
      "त": 166,
      "थ": 167,
      "द": 168,
      "ध": 169,
      "न": 170,
      "प": 171,
      "फ": 172,
      "ब": 173,
      "भ": 174,
      "म": 175,
      "य": 176,
      "र": 177,
      "ल": 178,
      "ळ": 179,
      "व": 180,
      "श": 181,
      "ष": 182,
      "स": 183,
      "ह": 184,
      "़": 185,
      "ा": 186,
      "ि": 187,
      "ी": 188,
      "ु": 189,
      "ू": 190,
      "ृ": 191,
      "े": 192,
      "ै": 193,
      "ॉ": 194,
      "ॊ": 195,
      "ो": 196,
      "ौ": 197,
      "्": 198,
      "।": 199,
      "०": 200,
      "१": 201,
      "२": 202,
      "३": 203,
      "४": 204,
      "५": 205,
      "६": 206,
      "७": 207,
      "८": 208,
      "९": 209,
      "॰": 210,
      "ঁ": 211,
      "ং": 212,
      "ঃ": 213,
      "অ": 214,
      "আ": 215,
      "ই": 216,
      "ঈ": 217,
      "উ": 218,
      "ঊ": 219,
      "ঋ": 220,
      "এ": 221,
      "ঐ": 222,
      "ও": 223,
      "ঔ": 224,
      "ক": 225,
      "খ": 226,
      "গ": 227,
      "ঘ": 228,
      "ঙ": 229,
      "চ": 230,
      "ছ": 231,
      "জ": 232,
      "ঝ": 233,
      "ঞ": 234,
      "ট": 235,
      "ঠ": 236,
      "ড": 237,
      "ঢ": 238,
      "ণ": 239,
      "ত": 240,
      "থ": 241,
      "দ": 242,
      "ধ": 243,
      "ন": 244,
      "প": 245,
      "ফ": 246,
      "ব": 247,
      "ভ": 248,
      "ম": 249,
      "য": 250,
      "র": 251,
      "ল": 252,
      "শ": 253,
      "ষ": 254,
      "স": 255,
      "হ": 256,
      "়": 257,
      "া": 258,
      "ি": 259,
      "ী": 260,
      "ু": 261,
      "ূ": 262,
      "ৃ": 263,
      "ে": 264,
      "ৈ": 265,
      "ো": 266,
      "ৌ": 267,
      "্": 268,
      "ৎ": 269,
      "০": 270,
      "১": 271,
      "২": 272,
      "৩": 273,
      "৪": 274,
      "৫": 275,
      "৬": 276,
      "৭": 277,
      "৮": 278,
      "৯": 279,
      "ం": 280,
      "ః": 281,
      "అ": 282,
      "ఆ": 283,
      "ఇ": 284,
      "ఈ": 285,
      "ఉ": 286,
      "ఋ": 287,
      "ఎ": 288,
      "ఏ": 289,
      "ఐ": 290,
      "ఒ": 291,
      "ఓ": 292,
      "ఔ": 293,
      "క": 294,
      "ఖ": 295,
      "గ": 296,
      "ఘ": 297,
      "చ": 298,
      "ఛ": 299,
      "జ": 300,
      "ఞ": 301,
      "ట": 302,
      "ఠ": 303,
      "డ": 304,
      "ఢ": 305,
      "ణ": 306,
      "త": 307,
      "థ": 308,
      "ద": 309,
      "ధ": 310,
      "న": 311,
      "ప": 312,
      "ఫ": 313,
      "బ": 314,
      "భ": 315,
      "మ": 316,
      "య": 317,
      "ర": 318,
      "ల": 319,
      "ళ": 320,
      "వ": 321,
      "శ": 322,
      "ష": 323,
      "స": 324,
      "హ": 325,
      "ా": 326,
      "ి": 327,
      "ీ": 328,
      "ు": 329,
      "ూ": 330,
      "ృ": 331,
      "ె": 332,
      "ే": 333,
      "ై": 334,
      "ొ": 335,
      "ో": 336,
      "ౌ": 337,
      "్": 338,
      "ṅ": 339,
      "ṇ": 340,
      "Ṛ": 341,
      "ṣ": 342,
      "ṭ": 343,
      "Ἰ": 344,
      "‌": 345,
      "‍": 346,
      "‎": 347,
      "–": 348,
      "—": 349,
      "‘": 350,
      "’": 351,
      "“": 352,
      "”": 353,
      "†": 354,
      "•": 355,
      "′": 356,
      "‹": 357,
      "›": 358,
      "⁡": 359,
      "₹": 360,
      "↑": 361,
      "−": 362,
      "▁": 363,
      "﻿": 364,
      "](": 365,
      "./": 366,
      "](./": 367,
      "▁[": 368,
      "▁\"": 369,
      "\")": 370,
      "nd": 371,
      "ia": 372,
      "te": 373,
      "on": 374,
      "in": 375,
      "ti": 376,
      "re": 377,
      "th": 378,
      "ndia": 379,
      "or": 380,
      "er": 381,
      "ার": 382,
      "20": 383,
      "ar": 384,
      "India": 385,
      "an": 386,
      "al": 387,
      "en": 388,
      "▁*": 389,
      "ed": 390,
      "ार": 391,
      "of": 392,
      "es": 393,
      "▁क": 394,
      "ci": 395,
      "tion": 396,
      "্র": 397,
      "is": 398,
      "ভার": 399,
      "য়": 400,
      "ভারত": 401,
      "te_": 402,
      "्र": 403,
      "్ర": 404,
      "//": 405,
      "om": 406,
      "it": 407,
      "ht": 408,
      "#ci": 409,
      "#cite_": 410,
      "\")\n": 411,
      "भार": 412,
      "the": 413,
      "भारत": 414,
      "▁a": 415,
      "▁(": 416,
      "tp": 417,
      "http": 418,
      "://": 419,
      "ార": 420,
      "▁of": 421,
      "▁स": 422,
      "ের": 423,
      "্য": 424,
      "▁the": 425,
      "ic": 426,
      "19": 427,
      "ou": 428,
      "g/": 429,
      "as": 430,
      "no": 431,
      "id": 432,
      "ch": 433,
      "201": 434,
      "](http": 435,
      "la": 436,
      "le": 437,
      "▁म": 438,
      "▁India": 439,
      "्य": 440,
      "oo": 441,
      "▁\n": 442,
      "ాల": 443,
      "200": 444,
      "s://": 445,
      "](./India": 446,
      "▁স": 447,
      "-1": 448,
      "OT": 449,
      ".or": 450,
      "్య": 451,
      "ac": 452,
      "tr": 453,
      "iv": 454,
      "ik": 455,
      "ww": 456,
      ".org/": 457,
      "তি": 458,
      "रा": 459,
      "-0": 460,
      "▁प": 461,
      "ref": 462,
      "com": 463,
      "\\(": 464,
      "\\)": 465,
      "](./ভারত": 466,
      "ন্": 467,
      "ad": 468,
      "note": 469,
      "భార": 470,
      "▁p": 471,
      "#cite_ref": 472,
      "#cite_note": 473,
      "భారత": 474,
      "lo": 475,
      "స్": 476,
      "](https://": 477,
      "র্": 478,
      "దే": 479,
      "am": 480,
      "বি": 481,
      "[[": 482,
      "we": 483,
      "▁in": 484,
      "▁and": 485,
      "ent": 486,
      "దేశ": 487,
      "▁s": 488,
      "ing": 489,
      "▁1": 490,
      "um": 491,
      "at": 492,
      "▁ప": 493,
      "▁প": 494,
      "im": 495,
      "us": 496,
      "ation": 497,
      "ge": 498,
      "ें": 499,
      "సా": 500,
      "red": 501,
      "ान": 502,
      "#cite_ref-": 503,
      "#cite_note-": 504,
      "wik": 505,
      "edia": 506,
      "lin": 507,
      "▁A": 508,
      "▁के": 509,
      "र्": 510,
      "ান": 511,
      "▁S": 512,
      "](./भारत": 513,
      "న్": 514,
      "b/": 515,
      "▁ह": 516,
      "\"),": 517,
      "▁C": 518,
      "ook": 519,
      "ec": 520,
      "्त": 521,
      "**": 522,
      "ర్": 523,
      "fi": 524,
      "ক্": 525,
      "ons": 526,
      "link": 527,
      "=1": 528,
      "edit": 529,
      "of_": 530,
      "_of_": 531,
      "▁[↑": 532,
      "▁P": 533,
      "ur": 534,
      "action": 535,
      "action=": 536,
      ").": 537,
      "action=edit": 538,
      "ter": 539,
      "&red": 540,
      "?action=edit": 541,
      "link=1": 542,
      "&redlink=1": 543,
      "?action=edit&redlink=1": 544,
      "78": 545,
      "IS": 546,
      ")\n": 547,
      "il": 548,
      "00": 549,
      "ig": 550,
      "he": 551,
      "ov": 552,
      "ist": 553,
      "ang": 554,
      "▁b": 555,
      "▁c": 556,
      "లు": 557,
      "স্": 558,
      "िक": 559,
      "ীয়": 560,
      "et": 561,
      "రా": 562,
      "या": 563,
      "ol": 564,
      "BN": 565,
      "ISBN": 566,
      "▁में": 567,
      "▁f": 568,
      "to": 569,
      "enti": 570,
      "ीय": 571,
      "21": 572,
      "াল": 573,
      "িক": 574,
      "jp": 575,
      "▁अ": 576,
      "భారతదేశ": 577,
      ".jp": 578,
      ".శ": 579,
      ".శ.": 580,
      "లో": 581,
      ".\n": 582,
      "identi": 583,
      "and": 584,
      "up": 585,
      "fier": 586,
      "identifier": 587,
      "సా.శ.": 588,
      "res": 589,
      "\\(identifier": 590,
      "\\(identifier\\)": 591,
      "দ্": 592,
      "ip": 593,
      "▁m": 594,
      "FO": 595,
      "রা": 596,
      "▁অ": 597,
      "NOT": 598,
      "ra": 599,
      "OTNOT": 600,
      "FOOTNOT": 601,
      "FOOTNOTE": 602,
      "▁**": 603,
      "arch": 604,
      "▁w": 605,
      "ত্র": 606,
      "త్ర": 607,
      "978": 608,
      "w.": 609,
      "),": 610,
      "em": 611,
      "বা": 612,
      "ों": 613,
      "www.": 614,
      "▁క": 615,
      "▁M": 616,
      "ial": 617,
      "▁ম": 618,
      "ce": 619,
      "वि": 620,
      "-0)": 621,
      "ना": 622,
      "india": 623,
      "ాలు": 624,
      "రి": 625,
      "25": 626,
      "▁_": 627,
      "క్": 628,
      "▁T": 629,
      "▁২": 630,
      ".com": 631,
      "▁ज": 632,
      "ంద": 633,
      "g)": 634,
      "▁ক": 635,
      "्ष": 636,
      "▁R": 637,
      "our": 638,
      "book": 639,
      "ని": 640,
      "▁వ": 641,
      "_क": 642,
      ".g": 643,
      "ाल": 644,
      "ate": 645,
      "ion": 646,
      "▁है": 647,
      "▁d": 648,
      "tic": 649,
      "ive": 650,
      "▁201": 651,
      ".com/": 652,
      "টি": 653,
      "সা": 654,
      "ul": 655,
      "10": 656,
      "▁द": 657,
      "ers": 658,
      "▁উ": 659,
      "হা": 660,
      "23": 661,
      "ind": 662,
      "त्र": 663,
      "▁B": 664,
      "▁\"ভারত": 665,
      "দ্ধ": 666,
      "ల్": 667,
      "राज": 668,
      "·**": 669,
      "▁**·**": 670,
      "▁D": 671,
      "न्": 672,
      "ro": 673,
      "es/": 674,
      "books": 675,
      "ेश": 676,
      "భారతదేశం": 677,
      "comm": 678,
      "िया": 679,
      "age": 680,
      "▁ত": 681,
      ".wik": 682,
      "In": 683,
      "ంగ": 684,
      ".org/wik": 685,
      "26": 686,
      "]](./India": 687,
      "ক্ষ": 688,
      "40": 689,
      "el": 690,
      "ment": 691,
      "और": 692,
      "▁to": 693,
      "ipedia": 694,
      "](./India#cite_ref-": 695,
      "]](./India#cite_note-": 696,
      "--": 697,
      "web": 698,
      "▁এ": 699,
      "px": 700,
      "▁స": 701,
      "▁ब": 702,
      "archive": 703,
      "ir": 704,
      "▁की": 705,
      "▁भारत": 706,
      ".s": 707,
      "ंग": 708,
      "ৃতি": 709,
      "imedia": 710,
      "op": 711,
      "▁మ": 712,
      "28": 713,
      "load": 714,
      "ারি": 715,
      "ের_": 716,
      "▁प्र": 717,
      "IT": 718,
      "్రా": 719,
      "upload": 720,
      ".wikimedia": 721,
      ".wikimedia.org/wik": 722,
      "ला": 723,
      "](//": 724,
      "ity": 725,
      "ipedia/": 726,
      "upload.wikimedia.org/wik": 727,
      "](//upload.wikimedia.org/wik": 728,
      "](//upload.wikimedia.org/wikipedia/": 729,
      "▁त": 730,
      "ons/": 731,
      "![": 732,
      "्व": 733,
      "thum": 734,
      "भा": 735,
      "▁न": 736,
      "ER": 737,
      "▁से": 738,
      "ভা": 739,
      "thumb/": 740,
      ".sv": 741,
      "px-": 742,
      "▁প্র": 743,
      "commons/": 744,
      "](//upload.wikimedia.org/wikipedia/commons/": 745,
      "ీయ": 746,
      "archive.org/": 747,
      "কা": 748,
      "un": 749,
      "](//upload.wikimedia.org/wikipedia/commons/thumb/": 750,
      "24": 751,
      ".in": 752,
      "EF": 753,
      "ITER": 754,
      "েশ": 755,
      "▁और": 756,
      "ండ": 757,
      "ITEREF": 758,
      ".p": 759,
      "ha": 760,
      "ew": 761,
      "▁ও": 762,
      "▁19": 763,
      "▁l": 764,
      "▁ব": 765,
      "▁২০": 766,
      "▁ন": 767,
      "angu": 768,
      "ay": 769,
      "▁का": 770,
      "_स": 771,
      "▁ভারত": 772,
      "▁[\"": 773,
      "11": 774,
      "ev": 775,
      "al_": 776,
      "web.": 777,
      "జ్య": 778,
      "তা": 779,
      "](https://web.": 780,
      "/http": 781,
      "web/": 782,
      "archive.org/web/": 783,
      "](https://web.archive.org/web/": 784,
      "50": 785,
      "▁H": 786,
      "st": 787,
      "ता": 788,
      "ak": 789,
      "Un": 790,
      "▁చ": 791,
      "▁জ": 792,
      "्ट": 793,
      "pec": 794,
      "ly": 795,
      "▁E": 796,
      "ub": 797,
      "తా": 798,
      "sia": 799,
      "ము": 800,
      "s_": 801,
      "నా": 802,
      "য়ে": 803,
      "▁N": 804,
      ")।": 805,
      "తి": 806,
      "్ట": 807,
      "30": 808,
      "▁আ": 809,
      "▁হ": 810,
      "দ্ধৃতি": 811,
      "](./S": 812,
      "ag": 813,
      "ন্দ": 814,
      "ep": 815,
      "▁G": 816,
      "▁\"S": 817,
      "▁•": 818,
      "্ব": 819,
      "কে": 820,
      "29": 821,
      "tu": 822,
      "ld": 823,
      "_India": 824,
      "#C": 825,
      "▁20": 826,
      "sh": 827,
      "త్": 828,
      "াত": 829,
      "▁\"भारत": 830,
      "_A": 831,
      "సి": 832,
      "tri": 833,
      "▁200": 834,
      "\")|": 835,
      "ory": 836,
      "#CITEREF": 837,
      "pecial": 838,
      "\").": 839,
      "▁([": 840,
      "](http://": 841,
      "-8": 842,
      "स्त": 843,
      "राज्य": 844,
      "_S": 845,
      "The": 846,
      "-3": 847,
      "িয়": 848,
      "্চ": 849,
      "▁[↑](./India#cite_ref-": 850,
      "▁व": 851,
      "क्ष": 852,
      "ित": 853,
      "ারিখ": 854,
      "▁বি": 855,
      ".jpg)": 856,
      "न्द": 857,
      "pecial:": 858,
      "_\\(identifier\\)": 859,
      "▁\\(identifier\\)": 860,
      "▁\\(identifier\\)\")": 861,
      "▁সং": 862,
      "▁তারিখ": 863,
      "ి.": 864,
      "ులు": 865,
      "ress": 866,
      "ourc": 867,
      "s/": 868,
      "▁h": 869,
      "ary": 870,
      "978-0": 871,
      "outh": 872,
      "22": 873,
      "▁आ": 874,
      "▁শ": 875,
      "యా": 876,
      "–సా.శ.": 877,
      "▁రా": 878,
      "ap": 879,
      "িত": 880,
      "প্র": 881,
      "ষ্": 882,
      "18": 883,
      "▁(సా.శ.": 884,
      "पु": 885,
      "षा": 886,
      "ern": 887,
      "_of_India": 888,
      "-5": 889,
      "cal": 890,
      "ति": 891,
      "্যা": 892,
      "0%": 893,
      "orld": 894,
      "লে": 895,
      "for": 896,
      ".gov": 897,
      "od": 898,
      "ास": 899,
      "লা": 900,
      "▁అ": 901,
      "ources/": 902,
      "ిక": 903,
      "▁দ": 904,
      "ex": 905,
      "-4": 906,
      "##": 907,
      "]](./ভারত": 908,
      "েম": 909,
      "rom": 910,
      "▁ప్ర": 911,
      "oun": 912,
      "rit": 913,
      "తం": 914,
      "a_": 915,
      "Book": 916,
      "mp": 917,
      "17": 918,
      "▁on": 919,
      "▁L": 920,
      "ted": 921,
      "13": 922,
      "Sources/": 923,
      "pecial:Book": 924,
      "pecial:BookSources/": 925,
      ".in/": 926,
      "ber": 927,
      "ిన": 928,
      "జ్యం": 929,
      "स्": 930,
      "199": 931,
      "anguage": 932,
      "িল": 933,
      "▁\"ভারতের": 934,
      "calf": 935,
      "n_": 936,
      "▁re": 937,
      "ঙ্": 938,
      "](./ভারতের_": 939,
      "्रे": 940,
      "etcalf": 941,
      "![](//upload.wikimedia.org/wikipedia/commons/thumb/": 942,
      "కు": 943,
      "జా": 944,
      "ivers": 945,
      "য্য": 946,
      "হায্য": 947,
      "ంచ": 948,
      "ab": 949,
      "।[[": 950,
      "সাহায্য": 951,
      "▁J": 952,
      "e_": 953,
      "भाषा": 954,
      "15": 955,
      "](./భారతదేశం": 956,
      "▁F": 957,
      "▁को": 958,
      "▁n": 959,
      "मा": 960,
      "ish": 961,
      "con": 962,
      "id=": 963,
      "ৃত": 964,
      "27": 965,
      "▁3": 966,
      "]](./भारत": 967,
      "था": 968,
      "ট্র": 969,
      "ను": 970,
      "పూ": 971,
      "](./ISBN": 972,
      "▁\"ISBN": 973,
      "](./ISBN_\\(identifier\\)": 974,
      "hi": 975,
      "ভাষ": 976,
      "▁g": 977,
      "▁ग": 978,
      "htm": 979,
      "gle": 980,
      "ప్ర": 981,
      "భా": 982,
      "14": 983,
      "ची": 984,
      "री": 985,
      "গ্র": 986,
      "▁|": 987,
      "▁[আ": 988,
      "_in": 989,
      "ational": 990,
      "_\\(": 991,
      "ri": 992,
      "।\n": 993,
      "▁th": 994,
      "60": 995,
      "ens": 996,
      "▁or": 997,
      "থা": 998,
      "প্": 999,
      "বই": 1000,
      "ద్": 1001,
      "ింద": 1002,
      "देश": 1003,
      "মা": 1004,
      "▁उ": 1005,
      "▁पर": 1006,
      "-7": 1007,
      "রি": 1008,
      "▁by": 1009,
      "E0%": 1010,
      "▁W": 1011,
      "err": 1012,
      "os": 1013,
      "উদ্ধৃতি": 1014,
      "▁ए": 1015,
      "ভাষা": 1016,
      "li": 1017,
      "oogle": 1018,
      "▁O": 1019,
      "ष्ट": 1020,
      "ाद": 1021,
      "লি": 1022,
      ".htm": 1023,
      "▁ఉ": 1024,
      "](./India#CITEREF": 1025,
      "▁১": 1026,
      "iversity": 1027,
      ".[[": 1028,
      "▁\\(": 1029,
      "ड़": 1030,
      "▁ఆ": 1031,
      "▁[↑](./ভারত": 1032,
      "/http://": 1033,
      "?id=": 1034,
      "রে": 1035,
      "_के": 1036,
      ".google": 1037,
      ".com/books": 1038,
      "books.google": 1039,
      "books.google.com/books": 1040,
      "থে": 1041,
      "▁श": 1042,
      "books.google.com/books?id=": 1043,
      "Metcalf": 1044,
      "▁K": 1045,
      "try": 1046,
      "ort": 1047,
      "---": 1048,
      "-2": 1049,
      "-9": 1050,
      "▁[S": 1051,
      "%E0%": 1052,
      "AA": 1053,
      "_म": 1054,
      "মি": 1055,
      "మా": 1056,
      "est": 1057,
      "ष्ट्र": 1058,
      "oc": 1059,
      "▁India\")\n": 1060,
      ":বই": 1061,
      "రు": 1062,
      "▁సా": 1063,
      "భారతీయ": 1064,
      "ast": 1065,
      "▁p.": 1066,
      "ূল": 1067,
      "▁থে": 1068,
      "▁सं": 1069,
      "বিশ": 1070,
      "রাজ": 1071,
      "विश": 1072,
      "▁থেকে": 1073,
      "▁from": 1074,
      "har": 1075,
      "వా": 1076,
      "লী": 1077,
      "List": 1078,
      "সং": 1079,
      "ff": 1080,
      "log": 1081,
      "av": 1082,
      "▁ర": 1083,
      "uc": 1084,
      "ने": 1085,
      "না": 1086,
      "▁[म": 1087,
      "ain": 1088,
      "lation": 1089,
      "▁Indian": 1090,
      "16": 1091,
      "వి": 1092,
      "ud": 1093,
      "िल": 1094,
      "েষ": 1095,
      "](./भारत#cite_ref-": 1096,
      "]](./India#cite_note-FOOTNOTE": 1097,
      "]](./भारत#cite_note-": 1098,
      "late": 1099,
      "og": 1100,
      "का": 1101,
      "art": 1102,
      "ష్ట": 1103,
      "ార్": 1104,
      "978-1": 1105,
      "పూ.": 1106,
      "]](./ভারত#cite_note-": 1107,
      "47": 1108,
      "lag": 1109,
      "ith": 1110,
      "ेत्र": 1111,
      "▁২০০": 1112,
      "%E0%A": 1113,
      ".svg": 1114,
      ".jpg)](./": 1115,
      "error": 1116,
      "प्र": 1117,
      "যু": 1118,
      "▁I": 1119,
      "▁is": 1120,
      "స్థ": 1121,
      "రిత్ర": 1122,
      "క్ష": 1123,
      ".jpg/": 1124,
      "_P": 1125,
      "▁for": 1126,
      "'s": 1127,
      ")[[": 1128,
      "PA": 1129,
      "सा": 1130,
      "▁ल": 1131,
      "_के_": 1132,
      "istory": 1133,
      "br": 1134,
      "म्": 1135,
      "ঙ্গ": 1136,
      "Ch": 1137,
      "_and": 1138,
      ".pn": 1139,
      "ম্": 1140,
      "িন": 1141,
      "▁इ": 1142,
      "्या": 1143,
      "న్న": 1144,
      "Har": 1145,
      "ৈলী": 1146,
      "tim": 1147,
      "ore": 1148,
      "▁Un": 1149,
      "](https://books.google.com/books?id=": 1150,
      ".n": 1151,
      "हि": 1152,
      "ी](./": 1153,
      "কার": 1154,
      "কৃত": 1155,
      "](https://www.": 1156,
      "p.": 1157,
      "&p": 1158,
      "/0": 1159,
      "](https://web.archive.org/web/201": 1160,
      "िय": 1161,
      "ত্": 1162,
      ".png)": 1163,
      "ুটি": 1164,
      "ৎস": 1165,
      "land": 1166,
      ".svg/": 1167,
      "सं": 1168,
      "ন্ত্র": 1169,
      "-6": 1170,
      "ot": 1171,
      ".svg.png)": 1172,
      "▁[ISBN": 1173,
      "▁Re": 1174,
      "▁4": 1175,
      "inal": 1176,
      "▁[A": 1177,
      "ve": 1178,
      "\"))\n": 1179,
      "▁Asia": 1180,
      ":উদ্ধৃতি": 1181,
      "त्त": 1182,
      "▁र": 1183,
      "aj": 1184,
      "ensus": 1185,
      "g=": 1186,
      "ज़": 1187,
      "টেম": 1188,
      "గా": 1189,
      "Flag": 1190,
      "▁[ISBN](./ISBN_\\(identifier\\)": 1191,
      "70": 1192,
      "und": 1193,
      "ut": 1194,
      "ంట": 1195,
      "కి": 1196,
      "বিশেষ": 1197,
      "\")_": 1198,
      "▁The": 1199,
      "temp": 1200,
      "ড়": 1201,
      "_M": 1202,
      "ం:": 1203,
      "మ్రా": 1204,
      "▁t": 1205,
      "ష్ట్ర": 1206,
      "ubl": 1207,
      "&pg=": 1208,
      "ow": 1209,
      "ys": 1210,
      "▁In": 1211,
      "ষ্ট্র": 1212,
      ":বইয়": 1213,
      "বিশেষ:বইয়": 1214,
      "ulation": 1215,
      "ంత": 1216,
      "_D": 1217,
      "ear": 1218,
      "48": 1219,
      "ডি": 1220,
      "হের": 1221,
      "र्व": 1222,
      "ীয়_": 1223,
      "ंड": 1224,
      "ত্রুটি": 1225,
      "সাহায্য:উদ্ধৃতি": 1226,
      "2.": 1227,
      "35": 1228,
      "titu": 1229,
      "opulation": 1230,
      "िस": 1231,
      "এস": 1232,
      "పు": 1233,
      "%2": 1234,
      "ong": 1235,
      "-10": 1236,
      "राष्ट्र": 1237,
      "▁_[": 1238,
      "tern": 1239,
      "ance": 1240,
      "▁న": 1241,
      "चि": 1242,
      "ी_": 1243,
      "গু": 1244,
      "all": 1245,
      "দেশ": 1246,
      "িয়া": 1247,
      "▁তারিখে": 1248,
      "&pg=PA": 1249,
      "మి": 1250,
      "ాన": 1251,
      "ana": 1252,
      "-19": 1253,
      "ss": 1254,
      "ma": 1255,
      "se": 1256,
      "ইভ": 1257,
      "র্কা": 1258,
      "ন্দ্র": 1259,
      "র্কাইভ": 1260,
      "df": 1261,
      "ug": 1262,
      "পি": 1263,
      "▁सा": 1264,
      "्षेत्र": 1265,
      "▁है।": 1266,
      "র্কাইভকৃত": 1267,
      "పా": 1268,
      "భాష": 1269,
      "2011": 1270,
      "▁pp.": 1271,
      "_p": 1272,
      "ঞ্চ": 1273,
      "▁राज्य": 1274,
      "overn": 1275,
      "▁be": 1276,
      "मन": 1277,
      "▁`": 1278,
      "রাষ্ট্র": 1279,
      "▁\"M": 1280,
      "o-": 1281,
      "ले": 1282,
      "সি": 1283,
      "పాల": 1284,
      "▁త": 1285,
      "esh": 1286,
      "స్త్ర": 1287,
      "tein": 1288,
      "ies": 1289,
      "▁\"C": 1290,
      "ism": 1291,
      "hic": 1292,
      "जा": 1293,
      "पा": 1294,
      "▁भाषा": 1295,
      "umm": 1296,
      "লেট": 1297,
      "প্লেট": 1298,
      "টেমপ্লেট": 1299,
      "tate": 1300,
      "ile": 1301,
      "స్తా": 1302,
      "emp": 1303,
      "এন": 1304,
      "ছে": 1305,
      "▁[ম": 1306,
      "▁\"म": 1307,
      "250": 1308,
      "](http://www.": 1309,
      "ans": 1310,
      ".html": 1311,
      "▁Press": 1312,
      "ধান": 1313,
      "▁हैं": 1314,
      "ts": 1315,
      "](./C": 1316,
      "36": 1317,
      "లీ": 1318,
      "ాయ": 1319,
      "▁ఇ": 1320,
      "▁దేశ": 1321,
      "▁भ": 1322,
      "▁य": 1323,
      "▁orig": 1324,
      "pecial:BookSources/978-0": 1325,
      "1.": 1326,
      "38": 1327,
      "54": 1328,
      "inis": 1329,
      "ther": 1330,
      "▁ই": 1331,
      "▁as": 1332,
      "णी": 1333,
      "ার্": 1334,
      "/https://": 1335,
      "▁সংগ্র": 1336,
      "6%": 1337,
      "oi": 1338,
      "ूची": 1339,
      "▁वि": 1340,
      "▁[↑](./ভারত#cite_ref-": 1341,
      "ank": 1342,
      "మ్రాజ్యం": 1343,
      "▁r": 1344,
      "ase": 1345,
      "90": 1346,
      "▁e": 1347,
      "▁[↑](./India#cite_ref-FOOTNOTE": 1348,
      "गर": 1349,
      "পা": 1350,
      "▁সংগ্রহের": 1351,
      "ass": 1352,
      "ef": 1353,
      "▁[M": 1354,
      "▁original": 1355,
      "pr": 1356,
      "దేశ్": 1357,
      "overnment": 1358,
      "artic": 1359,
      "ইএস": 1360,
      "জাত": 1361,
      "▁[↑](./भारत#cite_ref-": 1362,
      "িকা": 1363,
      "▁University": 1364,
      "](./M": 1365,
      "onstitu": 1366,
      "77": 1367,
      "ం](./": 1368,
      "ীন": 1369,
      "2018": 1370,
      "▁\"B": 1371,
      "lop": 1372,
      "Ind": 1373,
      "y_": 1374,
      "_in_India": 1375,
      "ेला": 1376,
      "▁no": 1377,
      "\"))": 1378,
      "2006": 1379,
      "ంబ": 1380,
      "టి": 1381,
      "ence": 1382,
      "/c": 1383,
      "हा": 1384,
      "সম": 1385,
      "▁ভাষা": 1386,
      "istan": 1387,
      "▁\"P": 1388,
      "বে": 1389,
      "▁সা": 1390,
      "স্ত": 1391,
      "80": 1392,
      "ంలో": 1393,
      "Harv": 1394,
      "స్తాన్": 1395,
      "s,": 1396,
      "ata": 1397,
      "▁[B": 1398,
      "कार": 1399,
      "क्त": 1400,
      "पर": 1401,
      "](./B": 1402,
      "▁कर": 1403,
      "▁২০১": 1404,
      "ages": 1405,
      "ত্ত": 1406,
      "au": 1407,
      "ard": 1408,
      "Indian": 1409,
      "india.gov": 1410,
      "errors": 1411,
      "िर": 1412,
      "ोल": 1413,
      "rch": 1414,
      "గు": 1415,
      "డు": 1416,
      "నే": 1417,
      "్చ": 1418,
      "ame": 1419,
      "56": 1420,
      "कि": 1421,
      "मी": 1422,
      "ian": 1423,
      "ন্ত": 1424,
      ".pdf": 1425,
      ".pdf)": 1426,
      "ess": 1427,
      "](./P": 1428,
      "మూ": 1429,
      "▁[C": 1430,
      "్రీ": 1431,
      "র্থ": 1432,
      "జాత": 1433,
      "▁\"A": 1434,
      "iss": 1435,
      "ill": 1436,
      "ountri": 1437,
      "▁[ভারত": 1438,
      "তিক": 1439,
      "हिन्द": 1440,
      "ke": 1441,
      "కా": 1442,
      "లా": 1443,
      "ంగా": 1444,
      "ct": 1445,
      "ंध": 1446,
      "ेष": 1447,
      "ওয়ে": 1448,
      "ভূ": 1449,
      "ুর": 1450,
      "▁বা": 1451,
      "](./म": 1452,
      "orth": 1453,
      "conom": 1454,
      "74": 1455,
      "▁V": 1456,
      "ाना": 1457,
      "%2C": 1458,
      "_s": 1459,
      "▁with": 1460,
      "_b": 1461,
      "డ్": 1462,
      "ిల్": 1463,
      "eral": 1464,
      "2004": 1465,
      "34": 1466,
      "per": 1467,
      "द्": 1468,
      "▁क्षेत्र": 1469,
      "্রা": 1470,
      "র্ব": 1471,
      "ক্ত": 1472,
      "ंग्रे": 1473,
      "ঞ্চল": 1474,
      "lig": 1475,
      "_N": 1476,
      "ition": 1477,
      "▁&": 1478,
      "ublic": 1479,
      "fn": 1480,
      "_B": 1481,
      "वा": 1482,
      "জা": 1483,
      "ধ্য": 1484,
      "ন্ড": 1485,
      "र्म": 1486,
      "39": 1487,
      "ite": 1488,
      "లి": 1489,
      "▁జ": 1490,
      "धान": 1491,
      "ोत": 1492,
      "তে": 1493,
      "▁अन": 1494,
      "▁ভারতের": 1495,
      "eved": 1496,
      "%E0%A6%": 1497,
      "ইএসবি": 1498,
      "59": 1499,
      "ture": 1500,
      "ire": 1501,
      "ue": 1502,
      "ust": 1503,
      "भि": 1504,
      "श्": 1505,
      "से": 1506,
      "ived": 1507,
      "▁উপ": 1508,
      "्रेणी": 1509,
      "ణా": 1510,
      "ధిక": 1511,
      "trieved": 1512,
      "▁Retrieved": 1513,
      "జాతీయ": 1514,
      "i_": 1515,
      "_শ": 1516,
      "নি": 1517,
      "▁গ": 1518,
      "▁উদ্ধৃতি": 1519,
      "▁ने": 1520,
      "Flag_of_": 1521,
      "120": 1522,
      "श्रेणी": 1523,
      "దక్ష": 1524,
      "వం": 1525,
      "▁8": 1526,
      "्रा": 1527,
      "▁ప్రా": 1528,
      "▁వి": 1529,
      "▁సం": 1530,
      "▁చరిత్ర": 1531,
      "ওয়েব": 1532,
      "hm": 1533,
      "7.": 1534,
      "ical": 1535,
      "#cite_ref-1": 1536,
      "#cite_note-1": 1537,
      "indu": 1538,
      "ford": 1539,
      "cre": 1540,
      "1)": 1541,
      "5.": 1542,
      "its": 1543,
      "धार": 1544,
      "স্থা": 1545,
      "विशेष": 1546,
      "ach": 1547,
      "gr": 1548,
      "end": 1549,
      "\\.": 1550,
      "new": 1551,
      "ingh": 1552,
      "▁language": 1553,
      "-p": 1554,
      "ib": 1555,
      "డి": 1556,
      "▁[2": 1557,
      "র্ম": 1558,
      "▁নি": 1559,
      "রাজ্য": 1560,
      "श्रेणी:": 1561,
      "ati": 1562,
      "anguages": 1563,
      "Stein": 1564,
      "3.": 1565,
      "QB": 1566,
      "=`": 1567,
      "ited": 1568,
      "ृत": 1569,
      "ইএসবিএন": 1570,
      "omm": 1571,
      ",_": 1572,
      "3)": 1573,
      "ంధ": 1574,
      "స్త": 1575,
      "సియా": 1576,
      "▁రాజ్యం": 1577,
      "▁సామ్రాజ్యం": 1578,
      "xford": 1579,
      "ी\")": 1580,
      "ीय_": 1581,
      "ক্ষা": 1582,
      "AJ": 1583,
      "ark": 1584,
      "▁\"T": 1585,
      "QBAJ": 1586,
      "ँच": 1587,
      "ंद": 1588,
      "ंत्र": 1589,
      "ूल": 1590,
      "ेल": 1591,
      "▁\"अ": 1592,
      "ine": 1593,
      "▁ति": 1594,
      "িল্": 1595,
      "▁एक": 1596,
      "▁[P": 1597,
      "/http://www.": 1598,
      "దీ": 1599,
      "▁బ": 1600,
      "▁are": 1601,
      "ండి": 1602,
      "ountries": 1603,
      "దక్షి": 1604,
      "▁Ch": 1605,
      ".nic": 1606,
      "_T": 1607,
      "के": 1608,
      "দী": 1609,
      "▁पु": 1610,
      "্বর": 1611,
      "विशेष:": 1612,
      "12": 1613,
      "▁ex": 1614,
      "\").\n": 1615,
      "rchived": 1616,
      "▁\"D": 1617,
      "6.": 1618,
      "▁[![](//upload.wikimedia.org/wikipedia/commons/thumb/": 1619,
      "ord": 1620,
      "%20": 1621,
      "..": 1622,
      "১৯": 1623,
      "తర": 1624,
      "](./D": 1625,
      "-1)": 1626,
      "57": 1627,
      "ann": 1628,
      "000": 1629,
      "स्तान": 1630,
      "▁[আর্কাইভকৃত": 1631,
      "টেমপ্লেট:": 1632,
      "250px-": 1633,
      "PD": 1634,
      "▁was": 1635,
      "sher": 1636,
      "▁,": 1637,
      "AAQBAJ": 1638,
      "_చ": 1639,
      "िण": 1640,
      "ोग": 1641,
      "শা": 1642,
      "হি": 1643,
      "ట్": 1644,
      "ది": 1645,
      "ిత": 1646,
      "▁[अ": 1647,
      "times": 1648,
      "onstitution": 1649,
      "▁[1": 1650,
      "cy": 1651,
      "icial": 1652,
      "▁সর": 1653,
      "▁মূল": 1654,
      "/p": 1655,
      "](./T": 1656,
      "▁\"E": 1657,
      "cl": 1658,
      "eng": 1659,
      "▁\"మ": 1660,
      "ింది.": 1661,
      "world": 1662,
      "০০": 1663,
      "ক্তি": 1664,
      "য়েছে": 1665,
      "ood": 1666,
      "_C": 1667,
      "ult": 1668,
      "ीप": 1669,
      "িত্র": 1670,
      "](./List": 1671,
      "▁\"List": 1672,
      "▁\"ভারতীয়": 1673,
      "▁प्रदेश": 1674,
      "श्रेणी:Harv": 1675,
      "▁an": 1676,
      "-d": 1677,
      "language": 1678,
      "దస్త్ర": 1679,
      "▁ఎ": 1680,
      "▁(సా.శ.పూ.": 1681,
      "దస్త్రం:": 1682,
      "a/": 1683,
      "nt": 1684,
      "s.": 1685,
      "गमन": 1686,
      "थि": 1687,
      "▁\"स": 1688,
      "ারা": 1689,
      "क्षिण": 1690,
      "fr": 1691,
      "2009": 1692,
      "37": 1693,
      "46": 1694,
      "port": 1695,
      "द्य": 1696,
      "नी": 1697,
      "यु": 1698,
      "ी_स": 1699,
      "কি": 1700,
      "বং": 1701,
      "ভি": 1702,
      "out": 1703,
      "](./ভারতীয়_": 1704,
      "▁तिथि": 1705,
      "erv": 1706,
      "eve": 1707,
      "ధ్య": 1708,
      "▁18": 1709,
      "ంద్ర": 1710,
      "▁2014": 1711,
      "ून": 1712,
      "বী": 1713,
      "ুন": 1714,
      "▁\"G": 1715,
      "▁এক": 1716,
      "PDF": 1717,
      "](./A": 1718,
      "2010": 1719,
      "▁[D": 1720,
      "fe": 1721,
      "ange": 1722,
      "oli": 1723,
      "▁2011": 1724,
      "amil": 1725,
      ".nic.in/": 1726,
      "ll": 1727,
      "নে": 1728,
      "▁ख": 1729,
      "▁१": 1730,
      "▁ফ": 1731,
      "▁(PDF": 1732,
      "▁উৎস": 1733,
      "▁तिथि:": 1734,
      "ైన": 1735,
      "▁v": 1736,
      "](./మ": 1737,
      "▁పే": 1738,
      "rap": 1739,
      "elhi": 1740,
      "](./List_of_": 1741,
      "](./E": 1742,
      ")|": 1743,
      "_.": 1744,
      "other": 1745,
      "IC": 1746,
      "_R": 1747,
      "get": 1748,
      "ction": 1749,
      "▁র": 1750,
      "▁भारतीय": 1751,
      "▁জন": 1752,
      "ah": 1753,
      "_Asia": 1754,
      "MetcalfMetcalf": 1755,
      "-s": 1756,
      "▁[978-0": 1757,
      "ome": 1758,
      "na": 1759,
      "जन": 1760,
      "ढ़": 1761,
      "धिक": 1762,
      "মান": 1763,
      "ట్ట": 1764,
      "శా": 1765,
      "](./G": 1766,
      "▁[మ": 1767,
      "▁[भारत": 1768,
      "ন্ধ": 1769,
      "▁अभि": 1770,
      "▁देश": 1771,
      "▁শৈলী": 1772,
      "ద్ధ": 1773,
      "▁अभिगमन": 1774,
      "IN": 1775,
      "ica": 1776,
      "_1": 1777,
      "tral": 1778,
      "tem": 1779,
      "धर्म": 1780,
      "्री": 1781,
      "्रोत": 1782,
      "▁সাল": 1783,
      "\\)\")": 1784,
      "▁जन": 1785,
      "▁করে": 1786,
      "40px-": 1787,
      "▁तथा": 1788,
      "▁\"भारतीय": 1789,
      "সমূ": 1790,
      "evelop": 1791,
      "8/": 1792,
      "▁10": 1793,
      "](https://web.archive.org/web/20": 1794,
      "\"](https://web.archive.org/web/201": 1795,
      "-b": 1796,
      "rad": 1797,
      "హింద": 1798,
      "ించ": 1799,
      "▁ఒ": 1800,
      "▁గ": 1801,
      "▁భాష": 1802,
      "ాల్": 1803,
      ".jpg": 1804,
      "###": 1805,
      "_m": 1806,
      "_](https://books.google.com/books?id=": 1807,
      "ती": 1808,
      "त्": 1809,
      "बर": 1810,
      "ে_": 1811,
      "▁च": 1812,
      "▁\"क": 1813,
      "স্ট": 1814,
      "ালিকা": 1815,
      "udd": 1816,
      ".svg/40px-": 1817,
      "▁9": 1818,
      "▁–": 1819,
      "row": 1820,
      "-m": 1821,
      "ational_": 1822,
      "indi": 1823,
      "qu": 1824,
      "हर": 1825,
      "ूर्व": 1826,
      "्ल": 1827,
      "▁\"N": 1828,
      "▁পৃ": 1829,
      "ম্প": 1830,
      "র্থন": 1831,
      "AAQBAJ&pg=PA": 1832,
      "58": 1833,
      "_G": 1834,
      "gen": 1835,
      "▁199": 1836,
      "]](./భారతదేశం": 1837,
      "census": 1838,
      "ty": 1839,
      "కో": 1840,
      "చ్చ": 1841,
      "జీ": 1842,
      "ేంద్ర": 1843,
      "▁భారతదేశం": 1844,
      "ంగ్": 1845,
      "oh": 1846,
      "मान": 1847,
      "वं": 1848,
      "▁7": 1849,
      "िका": 1850,
      "स्तक": 1851,
      "पुस्तक": 1852,
      "ৈলী_": 1853,
      "_শৈলী_": 1854,
      "विशेष:पुस्तक": 1855,
      "्रोत/": 1856,
      "_E": 1857,
      "iti": 1858,
      "49": 1859,
      "▁[N": 1860,
      "1/": 1861,
      "2)": 1862,
      "▁[स": 1863,
      "্রি": 1864,
      "▁at": 1865,
      "▁স্": 1866,
      "বাহ": 1867,
      "▁जा": 1868,
      "1998": 1869,
      "राष्ट्रीय": 1870,
      "▁`|": 1871,
      "স্তান": 1872,
      "द्ध": 1873,
      "ँचा": 1874,
      "%28": 1875,
      "ese": 1876,
      "ummit": 1877,
      "కృ": 1878,
      "త్య": 1879,
      "బ్": 1880,
      "మీ": 1881,
      "](./N": 1882,
      ").\n": 1883,
      "రాష్ట్ర": 1884,
      "▁History": 1885,
      "tin": 1886,
      "दी": 1887,
      "रकार": 1888,
      "हार": 1889,
      "ধর্ম": 1890,
      "ীতি": 1891,
      "োল": 1892,
      "](./स": 1893,
      "সাম": 1894,
      "पुर": 1895,
      "েম্বর": 1896,
      "|---": 1897,
      "▁[![": 1898,
      "ob": 1899,
      "/https://www.": 1900,
      "lia": 1901,
      "ure": 1902,
      "matic": 1903,
      "ions": 1904,
      "উৎস": 1905,
      "▁য": 1906,
      "](./क": 1907,
      "](./বিশেষ:বইয়": 1908,
      "▁[क": 1909,
      "▁\"ब": 1910,
      "▁\"বিশেষ:বইয়": 1911,
      "ের_উৎস": 1912,
      "▁[আইএসবিএন": 1913,
      "विश्व": 1914,
      "▁इस": 1915,
      "लेख": 1916,
      "](./বিশেষ:বইয়ের_উৎস": 1917,
      "▁\"বিশেষ:বইয়ের": 1918,
      "%29": 1919,
      "5)": 1920,
      "ంక": 1921,
      "ప్": 1922,
      "యు": 1923,
      "్యా": 1924,
      "తంత్ర": 1925,
      "](./భారతదేశం#cite_ref-": 1926,
      "]](./భారతదేశం#cite_note-": 1927,
      "onom": 1928,
      "als": 1929,
      "10.": 1930,
      "196": 1931,
      "ath": 1932,
      "gl": 1933,
      "▁we": 1934,
      "▁চ": 1935,
      "▁ত্রুটি": 1936,
      "](./ম": 1937,
      "](./সাহায্য:উদ্ধৃতি": 1938,
      "▁\"ম": 1939,
      "▁\"সাহায্য:উদ্ধৃতি": 1940,
      "▁मेला": 1941,
      "▁এবং": 1942,
      "▁([সাহায্য": 1943,
      "▁বিশ": 1944,
      "ত্রুটি#": 1945,
      "चित्र": 1946,
      "hich": 1947,
      "_শৈলী_ত্রুটি#": 1948,
      "](./সাহায্য:উদ্ধৃতি_শৈলী_ত্রুটি#": 1949,
      "▁([সাহায্য](./সাহায্য:উদ্ধৃতি_শৈলী_ত্রুটি#": 1950,
      "par": 1951,
      "DP": 1952,
      "▁6": 1953,
      "nolog": 1954,
      "ountry": 1955,
      ".jpg/250px-": 1956,
      "_స": 1957,
      "गु": 1958,
      "জি": 1959,
      "জ্য": 1960,
      "తము": 1961,
      "ాన్": 1962,
      "▁राज": 1963,
      "रालेख": 1964,
      "▁অন": 1965,
      "ంది.": 1966,
      "হাস": 1967,
      "▁১৯": 1968,
      "ిల్లీ": 1969,
      "దక్షిణ": 1970,
      "সমূহ": 1971,
      "33": 1972,
      "▁\"The": 1973,
      "▁which": 1974,
      "india/": 1975,
      "india.gov.in/": 1976,
      "▁26": 1977,
      "▁con": 1978,
      "evelopment": 1979,
      "▁tr": 1980,
      "▁temp": 1981,
      "pecial:BookSources/978-1": 1982,
      "idge": 1983,
      "late_": 1984,
      "_ভাষা": 1985,
      "ond": 1986,
      "िव": 1987,
      "জন": 1988,
      "ঞ্": 1989,
      "ৈতিক": 1990,
      "▁\"प": 1991,
      "▁India's": 1992,
      "▁हु": 1993,
      "_की_स": 1994,
      "Incre": 1995,
      "▁वर्": 1996,
      "_में": 1997,
      "साँचा": 1998,
      "গুলি": 1999,
      "dit": 2000,
      "bot": 2001,
      "▁[_": 2002,
      "umb": 2003,
      "thor": 2004,
      "▁En": 2005,
      "ధాన": 2006,
      "బె": 2007,
      "వే": 2008,
      "శ్": 2009,
      "ారు": 2010,
      ".jpg)](./దస్త్రం:": 2011,
      "_অ": 2012,
      "_স": 2013,
      "rou": 2014,
      "ध्य": 2015,
      "्च": 2016,
      "বস্থা": 2017,
      "োগ": 2018,
      "](./अ": 2019,
      "▁\"R": 2020,
      "▁स्": 2021,
      "र्थ": 2022,
      "স্থ": 2023,
      "▁\"ভারতে": 2024,
      "United": 2025,
      "स्क": 2026,
      "▁২০০৭": 2027,
      "▁भी": 2028,
      "▁পৃ.": 2029,
      "रालेखित": 2030,
      "_d": 2031,
      "albot": 2032,
      "olitic": 2033,
      "](./R": 2034,
      "ograp": 2035,
      "\"](https://www.": 2036,
      "ज्": 2037,
      "मु": 2038,
      "2008": 2039,
      "তিহাস": 2040,
      "▁হয়": 2041,
      "▁[G": 2042,
      "hel": 2043,
      "RIC": 2044,
      "gion": 2045,
      "జి": 2046,
      "దు": 2047,
      "మ్": 2048,
      "ష్": 2049,
      "్యవ": 2050,
      "▁రాజ": 2051,
      "_చరిత్ర": 2052,
      "▁South": 2053,
      "akistan": 2054,
      "▁has": 2055,
      "_भारत": 2056,
      "थान": 2057,
      "हास": 2058,
      "।[[১": 2059,
      "Asher": 2060,
      "PP": 2061,
      "ight": 2062,
      "▁template": 2063,
      "gh": 2064,
      "{{": 2065,
      "▁5": 2066,
      "age/": 2067,
      "_%28": 2068,
      "hy": 2069,
      "uk": 2070,
      "}}": 2071,
      "▁that": 2072,
      "द्र": 2073,
      "िट": 2074,
      "िश": 2075,
      "রণ": 2076,
      "ায়": 2077,
      "](./ब": 2078,
      "▁[ब": 2079,
      "2003": 2080,
      "2005": 2081,
      "2007": 2082,
      "▁সম": 2083,
      "](./ভারতে_": 2084,
      "ember": 2085,
      "bridge": 2086,
      "tates": 2087,
      "`:": 2088,
      "ost": 2089,
      "sland": 2090,
      "ఢిల్లీ": 2091,
      "పంచ": 2092,
      "శం": 2093,
      "\")}}": 2094,
      "ారి": 2095,
      "territ": 2096,
      "మూస": 2097,
      "▁రాజ్యం|": 2098,
      "{{[": 2099,
      "\")}}`:": 2100,
      "iew": 2101,
      "2014": 2102,
      "\"\n": 2103,
      "-l": 2104,
      "▁2": 2105,
      "riti": 2106,
      "সে": 2107,
      "](./भारत_में": 2108,
      "ile:": 2109,
      "▁[K": 2110,
      "World": 2111,
      "▁[T": 2112,
      "▁[Archived": 2113,
      "ai": 2114,
      "ambridge": 2115,
      "](./Special:BookSources/978-0": 2116,
      "▁\"Special:BookSources/978-0": 2117,
      "फ़": 2118,
      "ीन": 2119,
      "ইন": 2120,
      "টার": 2121,
      "িম": 2122,
      "▁খ": 2123,
      "▁অঞ্চল": 2124,
      "_का": 2125,
      "]](./ভারত#cite_note-1": 2126,
      "▁[↑](./ভারত#cite_ref-1": 2127,
      "িনী": 2128,
      "त्तर": 2129,
      "▁हैं।": 2130,
      "ত্তর": 2131,
      "ail": 2132,
      "వు": 2133,
      "▁[R": 2134,
      "▁\"క": 2135,
      "▁\"భారతీయ": 2136,
      "emb": 2137,
      "▁కా": 2138,
      "▁ch": 2139,
      "help": 2140,
      "4)": 2141,
      "yson": 2142,
      "in-": 2143,
      "over": 2144,
      "RICS": 2145,
      "मिल": 2146,
      "शिया": 2147,
      "ुस": 2148,
      "▁যু": 2149,
      "arg": 2150,
      "▁सूची": 2151,
      "ের](./": 2152,
      "▁14": 2153,
      "▁हि": 2154,
      "ild": 2155,
      "epend": 2156,
      "▁দেশ": 2157,
      "6)": 2158,
      "ansk": 2159,
      "[![](//upload.wikimedia.org/wikipedia/commons/thumb/": 2160,
      "ashm": 2161,
      "india-": 2162,
      "ashmir": 2163,
      "121": 2164,
      "mb": 2165,
      "ign": 2166,
      "▁2007": 2167,
      "ritish": 2168,
      "olog": 2169,
      "pe": 2170,
      "रु": 2171,
      "ूर": 2172,
      "జన": 2173,
      "టు": 2174,
      "టె": 2175,
      "▁[క": 2176,
      "▁सरकार": 2177,
      "ক্ষি": 2178,
      "▁చె": 2179,
      "▁জাত": 2180,
      "నాయ": 2181,
      "–సా.శ.పూ.": 2182,
      "▁ఆర్": 2183,
      "పాలిత": 2184,
      "ंग्रेज़": 2185,
      "ేంద్రపాలిత": 2186,
      "▁[আইএসবিএন](./ISBN_\\(identifier\\)": 2187,
      "Increase": 2188,
      "econom": 2189,
      "article": 2190,
      "ission": 2191,
      "ous": 2192,
      "anskrit": 2193,
      "ations": 2194,
      "ork": 2195,
      "les/": 2196,
      "कर": 2197,
      "ते": 2198,
      "पाल": 2199,
      "ूच": 2200,
      "জ্": 2201,
      "\")।": 2202,
      "▁सम": 2203,
      "্যান": 2204,
      "দ্বী": 2205,
      "শাস": 2206,
      "দ্বীপ": 2207,
      "4/": 2208,
      "87": 2209,
      "Edit": 2210,
      "Singh": 2211,
      "jec": 2212,
      "▁25": 2213,
      "Dw": 2214,
      "air": 2215,
      "ms": 2216,
      "aste": 2217,
      "lection": 2218,
      "9.": 2219,
      "bn": 2220,
      "ఖ్య": 2221,
      "గో": 2222,
      "తో": 2223,
      "దా": 2224,
      "బి": 2225,
      "హి": 2226,
      "▁[the": 2227,
      "er,": 2228,
      "ant": 2229,
      "స్కృ": 2230,
      "outh_Asia": 2231,
      "brary": 2232,
      "▁ప్రాంత": 2233,
      "yan": 2234,
      "हु": 2235,
      "ैद": 2236,
      "ोक": 2237,
      "চ্চ": 2238,
      "চীন": 2239,
      "▁घ": 2240,
      "▁।": 2241,
      "▁[प": 2242,
      "▁\"আ": 2243,
      "্যবস্থা": 2244,
      "▁পরি": 2245,
      "ানা": 2246,
      "ালয়": 2247,
      "▁মধ্য": 2248,
      "▁तक": 2249,
      "▁২০০৮": 2250,
      "किस्तान": 2251,
      "▁বিশ্ব": 2252,
      "ক্ষিণ": 2253,
      "▁জাতীয়": 2254,
      "gan": 2255,
      "File:": 2256,
      "alth": 2257,
      "_and_S": 2258,
      "▁k": 2259,
      "▁un": 2260,
      "▁its": 2261,
      "▁16": 2262,
      "indus": 2263,
      "ulke": 2264,
      "MetcalfMetcalf2006": 2265,
      "सम": 2266,
      "्ड": 2267,
      "বর্": 2268,
      "মে": 2269,
      "▁fi": 2270,
      "▁![](//upload.wikimedia.org/wikipedia/commons/thumb/": 2271,
      "▁\"H": 2272,
      "usin": 2273,
      "](./भारतीय_": 2274,
      "▁না": 2275,
      "▁সরকার": 2276,
      "জ্ঞ": 2277,
      "▁Comm": 2278,
      "43": 2279,
      "▁errors": 2280,
      "entre": 2281,
      "▁([help": 2282,
      "_ప": 2283,
      "హా": 2284,
      "▁ను": 2285,
      "](./H": 2286,
      "▁[E": 2287,
      "▁India\")": 2288,
      "▁17": 2289,
      "emplate": 2290,
      "▁చరిత్ర\")\n": 2291,
      "్యవస్థ": 2292,
      "_the": 2293,
      "_प्र": 2294,
      "lim": 2295,
      "কৃতি": 2296,
      "গণ": 2297,
      "দি": 2298,
      "পূ": 2299,
      "▁ডি": 2300,
      "ina": 2301,
      "▁(২": 2302,
      "র্ক": 2303,
      "▁পর": 2304,
      "ों_की_स": 2305,
      "ক্ষণ": 2306,
      "▁`{{[": 2307,
      "श्चि": 2308,
      "িল্প": 2309,
      "tinent": 2310,
      "8.": 2311,
      "Oxford": 2312,
      "_L": 2313,
      "ck": 2314,
      "mund": 2315,
      "▁U": 2316,
      "rav": 2317,
      "ated": 2318,
      "led": 2319,
      "▁\"K": 2320,
      "▁sub": 2321,
      "▁New": 2322,
      "-521": 2323,
      "odern": 2324,
      "inistry": 2325,
      "liament": 2326,
      "ओं": 2327,
      "ीं": 2328,
      "ूप": 2329,
      "চিত্র": 2330,
      "লো": 2331,
      "](./प": 2332,
      "act": 2333,
      "ন্ন": 2334,
      "usic": 2335,
      "▁An": 2336,
      "▁এই": 2337,
      "mpire": 2338,
      "মিটার": 2339,
      "]](./भारत#cite_note-FOOTNOTE": 2340,
      "RC": 2341,
      "othermund": 2342,
      "9)": 2343,
      "fn_": 2344,
      "hp": 2345,
      "డా": 2346,
      "బడ": 2347,
      "మే": 2348,
      "రణ": 2349,
      "▁te": 2350,
      "▁error": 2351,
      "▁జాతీయ": 2352,
      "arget": 2353,
      "isation": 2354,
      "now": 2355,
      "▁Sfn": 2356,
      "▁కూ": 2357,
      "ాలు,": 2358,
      "ాలు](./": 2359,
      "▁రాష్ట్ర": 2360,
      "కిస్తాన్": 2361,
      "template_": 2362,
      "▁target": 2363,
      "_and_Sfn_": 2364,
      "▁error:": 2365,
      "template_errors": 2366,
      "▁target:": 2367,
      "_and_Sfn_template_errors": 2368,
      "les": 2369,
      "tation": 2370,
      "anc": 2371,
      "](https://d": 2372,
      "continent": 2373,
      "51": 2374,
      "year": 2375,
      "गण": 2376,
      "रब": 2377,
      "वन": 2378,
      "्स": 2379,
      "ংশ": 2380,
      "ংলা": 2381,
      "ীল": 2382,
      "▁৩": 2383,
      "▁[স": 2384,
      "▁किया": 2385,
      "नाम": 2386,
      "্যান্ড": 2387,
      "মাণ": 2388,
      "_के_राज्य": 2389,
      "120px-": 2390,
      "Stein1998": 2391,
      "ंदिर": 2392,
      "चित्र:": 2393,
      "Singh2009": 2394,
      "▁([help](./": 2395,
      "y,": 2396,
      "ographic": 2397,
      "are": 2398,
      "duc": 2399,
      "pp": 2400,
      "▁CITEREF": 2401,
      "▁World": 2402,
      "IA": 2403,
      "igh": 2404,
      "/A": 2405,
      "Page/": 2406,
      "iz": 2407,
      "▁[978-1": 2408,
      "▁pro": 2409,
      "EditPage/": 2410,
      "जी": 2411,
      "ष्": 2412,
      "ক্র": 2413,
      "গর": 2414,
      "টা": 2415,
      "পু": 2416,
      "▁ha": 2417,
      "▁রাষ্ট্র": 2418,
      "▁ad": 2419,
      "ক্স": 2420,
      "▁languages": 2421,
      "▁একটি": 2422,
      "ज्ञ": 2423,
      "জ্ঞান": 2424,
      "▁errors\"))\n": 2425,
      "62": 2426,
      "_c": 2427,
      "వర్": 2428,
      "ి.\n": 2429,
      "▁ఈ": 2430,
      "▁భారత": 2431,
      "▁లో": 2432,
      "త్రి": 2433,
      "ulture": 2434,
      "](./India#cite_ref-FOOTNOTE": 2435,
      "100": 2436,
      "aman": 2437,
      "illion": 2438,
      "alay": 2439,
      "ice": 2440,
      "urop": 2441,
      "f/": 2442,
      "ंजा": 2443,
      "ख्या": 2444,
      "दक्षिण": 2445,
      "ेख": 2446,
      "োর্": 2447,
      "০-": 2448,
      "▁pr": 2449,
      "न्न": 2450,
      "्वीप": 2451,
      "▁ভারতীয়": 2452,
      "▁2021": 2453,
      "चीन": 2454,
      "▁खाना": 2455,
      "র্থনৈতিক": 2456,
      "▁ত্রুটি\"))\n": 2457,
      "ों_की_सूची": 2458,
      "ंजाब": 2459,
      "5/": 2460,
      "▁15": 2461,
      "---|---": 2462,
      "author": 2463,
      "conomic": 2464,
      "C&pg=PA": 2465,
      "▁\"Indian": 2466,
      "ound": 2467,
      ".;": 2468,
      "JP": 2469,
      "national": 2470,
      "210": 2471,
      "/d": 2472,
      "_క": 2473,
      "बसे": 2474,
      "ुल": 2475,
      "ం\")": 2476,
      "తు": 2477,
      "పతి": 2478,
      "▁ని": 2479,
      "▁\"భారతదేశం": 2480,
      "any": 2481,
      "్రి": 2482,
      "▁sfn": 2483,
      "ेंद्र": 2484,
      "న్ని": 2485,
      "ర్వ": 2486,
      "▁অব": 2487,
      "▁কে": 2488,
      "230": 2489,
      "▁2019": 2490,
      "ులు](./": 2491,
      "▁गया": 2492,
      "▁this": 2493,
      "మిళ": 2494,
      "▁राज्यों": 2495,
      "▁ভাষা\")\n": 2496,
      "me": 2497,
      "s-": 2498,
      "ali": 2499,
      "omb": 2500,
      "conomy": 2501,
      ".html)": 2502,
      "eop": 2503,
      "](./K": 2504,
      "▁Hindu": 2505,
      "1,": 2506,
      "lass": 2507,
      "चल": 2508,
      "बंध": 2509,
      "ैन": 2510,
      "তম": 2511,
      "সেম্বর": 2512,
      "](./আ": 2513,
      "▁[প": 2514,
      "](./ভারত#cite_ref-": 2515,
      "▁हो": 2516,
      "old": 2517,
      "বাংলা": 2518,
      "▁ভারতে": 2519,
      "▁হয়েছে": 2520,
      "fficial": 2521,
      "হিন্দ": 2522,
      "ম্পর্ক": 2523,
      "साँचा:": 2524,
      "▁ডিসেম্বর": 2525,
      "▁কেন্দ্র": 2526,
      "ran": 2527,
      "ta": 2528,
      "\")**": 2529,
      "ofindia": 2530,
      "uring": 2531,
      "4%": 2532,
      "low": 2533,
      "_F": 2534,
      "iver": 2535,
      ".php": 2536,
      "_మ": 2537,
      "_భాష": 2538,
      "ద్ర": 2539,
      "ఫ్": 2540,
      "▁స్": 2541,
      "▁స్థ": 2542,
      "▁[స": 2543,
      "▁\"అ": 2544,
      "\"):": 2545,
      "ack": 2546,
      "ames": 2547,
      "న్నాయ": 2548,
      "une": 2549,
      "\").[[": 2550,
      "▁రై": 2551,
      "pril": 2552,
      "వంశం": 2553,
      "హిందూ": 2554,
      "330": 2555,
      "_ম": 2556,
      "mer": 2557,
      "ब्": 2558,
      "२०": 2559,
      "টে": 2560,
      "পতি": 2561,
      "▁[L": 2562,
      "ालय": 2563,
      "▁नि": 2564,
      "न्द्र": 2565,
      "্যাক": 2566,
      "▁[मूल": 2567,
      "%E0%A6%B": 2568,
      "▁पुरालेखित": 2569,
      "▁সালে": 2570,
      "▁पुरालेखित।": 2571,
      "yn": 2572,
      "radesh": 2573,
      ".svg/40px-Flag_of_": 2574,
      "bal": 2575,
      "20px-": 2576,
      "ritann": 2577,
      ".svg/20px-": 2578,
      "off": 2579,
      "entur": 2580,
      "जरा": 2581,
      "ेव": 2582,
      "বর": 2583,
      "শ্র": 2584,
      "ীক": 2585,
      "ীত": 2586,
      "▁24": 2587,
      "omp": 2588,
      "▁सबसे": 2589,
      "ide": 2590,
      "বাধ": 2591,
      "েশিন": 2592,
      "কেন্দ্র": 2593,
      "स्था": 2594,
      "स्थान": 2595,
      "ियों": 2596,
      "क्ति": 2597,
      "্রাজ্য": 2598,
      "ওয়েব্যাক": 2599,
      "Increase2": 2600,
      "44": 2601,
      "](https://web.archive.org/web/200": 2602,
      "DwAAQBAJ&pg=PA": 2603,
      "GDP": 2604,
      "on-": 2605,
      "ined": 2606,
      "197": 2607,
      "ffair": 2608,
      "&s": 2609,
      "9/": 2610,
      "బా": 2611,
      "భూ": 2612,
      "య్య": 2613,
      "ర్య": 2614,
      "▁ల": 2615,
      "](./క": 2616,
      "▁\"ప": 2617,
      "▁\"స": 2618,
      "cies": 2619,
      "uman": 2620,
      "imes": 2621,
      "▁[↑](./భారతదేశం#cite_ref-": 2622,
      "త్త": 2623,
      "▁ప్రదేశ్": 2624,
      "ప్రదేశ్": 2625,
      "AARC": 2626,
      "ligion": 2627,
      "news/": 2628,
      "▁నుండి": 2629,
      "2012": 2630,
      "ural": 2631,
      "68": 2632,
      "टन": 2633,
      "प्त": 2634,
      "िन": 2635,
      "ोर": 2636,
      "ণী": 2637,
      "যোগ": 2638,
      "শ্চ": 2639,
      "](./টেমপ্লেট:": 2640,
      "▁\"টেমপ্লেট:": 2641,
      "্যারা": 2642,
      "▁India:": 2643,
      "▁প্যারা": 2644,
      "বাদ": 2645,
      "▁जिस": 2646,
      "কারী": 2647,
      "জাতীয়": 2648,
      "▁were": 2649,
      "ुसार": 2650,
      "▁প্যারামিটার": 2651,
      "2/": 2652,
      "mar": 2653,
      "uary": 2654,
      "▁2010": 2655,
      "▁Ind": 2656,
      "▁le": 2657,
      "tes": 2658,
      "\")_.": 2659,
      "roup": 2660,
      "rip": 2661,
      "ement": 2662,
      "Flag_of_India": 2663,
      "Indo-": 2664,
      "ya": 2665,
      "ree": 2666,
      "epublic": 2667,
      "ee": 2668,
      "ere": 2669,
      "uj": 2670,
      "च्च": 2671,
      "ण्ड": 2672,
      "শন": 2673,
      "শি": 2674,
      "সভা": 2675,
      "▁রাজ্য": 2676,
      "▁[ক": 2677,
      "ানি": 2678,
      "](./भारत#CITEREF": 2679,
      "িকে": 2680,
      "▁प्रा": 2681,
      "▁প্রধান": 2682,
      "_सं": 2683,
      "সংখ": 2684,
      "▁Asian": 2685,
      "▁साथ": 2686,
      "ভূমি": 2687,
      "](./भारत_में_": 2688,
      "শ্চিম": 2689,
      "ho": 2690,
      "▁st": 2691,
      "31": 2692,
      "i/": 2693,
      "ణి": 2694,
      "తమిళ": 2695,
      "మె": 2696,
      "మైన": 2697,
      "హార": 2698,
      "▁[అ": 2699,
      "▁[ప": 2700,
      "▁\"L": 2701,
      "▁\"ఇ": 2702,
      "▁\"బ": 2703,
      "▁\"భారత": 2704,
      "lad": 2705,
      "రాజ": 2706,
      "▁కాల": 2707,
      "▁మొ": 2708,
      "నాగ": 2709,
      "త్తర": 2710,
      "▁అధిక": 2711,
      "Stein2010": 2712,
      "శ్మీ": 2713,
      "మూస:": 2714,
      "Talbot": 2715,
      "▁dis": 2716,
      "AsherTalbot": 2717,
      "7%": 2718,
      "7)": 2719,
      "_ও": 2720,
      "_উদ্ধৃতি": 2721,
      "आई": 2722,
      "ख्य": 2723,
      "णा": 2724,
      "दा": 2725,
      "উত্তর": 2726,
      "ণি": 2727,
      "ুট": 2728,
      "▁था": 2729,
      "▁[H": 2730,
      "▁[অ": 2731,
      "▁\"श्रेणी:Harv": 2732,
      "ারণ": 2733,
      "▁সে": 2734,
      "याल": 2735,
      "▁করা": 2736,
      "uly": 2737,
      "्वर": 2738,
      "▁আর্কাইভকৃত": 2739,
      "▁হি": 2740,
      "▁आधार": 2741,
      "▁संघ": 2742,
      "पाकिस्तान": 2743,
      "▁উদ্ধৃতি\")}}`:": 2744,
      "श्रेणी:Harv_and_Sfn_template_errors": 2745,
      "▁([help](./श्रेणी:Harv_and_Sfn_template_errors": 2746,
      "▁([help](./श्रेणी:Harv_and_Sfn_template_errors?action=edit&redlink=1": 2747,
      "/s": 2748,
      "1947": 2749,
      "iksh": 2750,
      "▁April": 2751,
      "ikshit": 2752,
      "▁Y": 2753,
      "arliament": 2754,
      "▁India\"": 2755,
      ".gov.in/": 2756,
      "india.gov.in": 2757,
      "1_": 2758,
      "uch": 2759,
      "▁ed": 2760,
      "▁la": 2761,
      "▁21": 2762,
      "](./L": 2763,
      "](./Indian_": 2764,
      "\\)\")\n": 2765,
      ".jpg)](./File:": 2766,
      "ystem": 2767,
      "4.": 2768,
      "7/": 2769,
      "asia": 2770,
      "lear": 2771,
      "▁per": 2772,
      "ature": 2773,
      "Intern": 2774,
      "Kulke": 2775,
      "_আ": 2776,
      "_ব": 2777,
      "i-": 2778,
      "ores": 2779,
      "की": 2780,
      "तंत्र": 2781,
      "तमिल": 2782,
      "वरी": 2783,
      "ेर": 2784,
      "्ला": 2785,
      "্ম": 2786,
      "▁धर्म": 2787,
      "▁विश्व": 2788,
      "](./उ": 2789,
      "▁\"उ": 2790,
      "▁सि": 2791,
      "▁countries": 2792,
      "ाली": 2793,
      "▁আগ": 2794,
      "▁[মূল": 2795,
      "▁সাম": 2796,
      "श्मी": 2797,
      "युक्त": 2798,
      "-in-": 2799,
      "eth": 2800,
      "చే": 2801,
      "ైనా": 2802,
      "▁శ": 2803,
      "](./ఇ": 2804,
      "](./బ": 2805,
      "](./స": 2806,
      "▁[ఇ": 2807,
      "▁\"జ": 2808,
      "భారత_": 2809,
      "లో](./": 2810,
      "రిజ": 2811,
      "క్కు": 2812,
      "ourt": 2813,
      "ండ్": 2814,
      "స్కృతి": 2815,
      "JPG": 2816,
      ",000": 2817,
      "Rothermund": 2818,
      "Wik": 2819,
      "co": 2820,
      "eg": 2821,
      "entral": 2822,
      "98": 2823,
      "inister": 2824,
      "-w": 2825,
      "-re": 2826,
      "5_": 2827,
      "hal": 2828,
      "▁territ": 2829,
      "aint": 2830,
      "%2C_": 2831,
      "2_": 2832,
      "tor": 2833,
      "ंब": 2834,
      "गढ़": 2835,
      "ज्य": 2836,
      "म्रा": 2837,
      "ांग": 2838,
      "জানা": 2839,
      "োট": 2840,
      "▁রাজ": 2841,
      "▁[उ": 2842,
      "▁[ব": 2843,
      "cient": 2844,
      "য়া": 2845,
      "▁India,": 2846,
      "▁अधिक": 2847,
      "▁है।\n": 2848,
      "▁বৃ": 2849,
      "तिहास": 2850,
      "▁উৎস/0": 2851,
      "](./বিশেষ:বইয়ের_উৎস/0": 2852,
      "स्कृत": 2853,
      "▁हिन्द": 2854,
      "শাসিত": 2855,
      "eople": 2856,
      "ari": 2857,
      "eneral": 2858,
      "ower": 2859,
      "glish": 2860,
      "Dyson": 2861,
      "iter": 2862,
      "eration": 2863,
      "ick": 2864,
      "isher": 2865,
      "▁(PDF)": 2866,
      "69": 2867,
      "rst": 2868,
      "▁22": 2869,
      "▁[W": 2870,
      "▁cons": 2871,
      "formatic": 2872,
      "▁region": 2873,
      "▁Commission": 2874,
      "urope": 2875,
      "▁Th": 2876,
      "rojec": 2877,
      "uclear": 2878,
      "ities": 2879,
      "পাল": 2880,
      "রিক": 2881,
      "ীর": 2882,
      "ఆసియా": 2883,
      "▁[ই": 2884,
      "▁[జ": 2885,
      "▁[బ": 2886,
      "▁\"ব": 2887,
      "्रिट": 2888,
      "▁मु": 2889,
      "▁పా": 2890,
      "line": 2891,
      "▁অজানা": 2892,
      "▁কো": 2893,
      "▁వా": 2894,
      "▁তালিকা": 2895,
      "▁बाद": 2896,
      "्वार": 2897,
      "ండు": 2898,
      "▁చూ": 2899,
      "త్వ": 2900,
      "িয়ান": 2901,
      "ప్రధాన": 2902,
      "ड़ा": 2903,
      "िल्ल": 2904,
      "ongress": 2905,
      "জাতন্ত্র": 2906,
      "...": 2907,
      "▁१९": 2908,
      "ঞ্জ": 2909,
      "slands": 2910,
      "▁have": 2911,
      "330px-": 2912,
      "म्राज्य": 2913,
      "65": 2914,
      "ibrary": 2915,
      "▁28": 2916,
      "comp": 2917,
      "ama": 2918,
      "ats": 2919,
      "▁Population": 2920,
      "KulkeRothermund": 2921,
      "61": 2922,
      "ote": 2923,
      "▁off": 2924,
      "ter_": 2925,
      "ritannica": 2926,
      "CO": 2927,
      "rd": 2928,
      "▁-": 2929,
      "_Indian_": 2930,
      "harat": 2931,
      "times.com/": 2932,
      "tal": 2933,
      "\")[[": 2934,
      "ime": 2935,
      "-26": 2936,
      "64": 2937,
      "_और": 2938,
      "_पर": 2939,
      "aw": 2940,
      "एं": 2941,
      "वर्": 2942,
      "सी": 2943,
      "দের": 2944,
      "ল্": 2945,
      "](./ব": 2946,
      "▁[3": 2947,
      "▁[F": 2948,
      "▁\"ক": 2949,
      "ince": 2950,
      "India_": 2951,
      "▁कार": 2952,
      "▁मान": 2953,
      "्यटन": 2954,
      "▁সঙ্গ": 2955,
      "▁part": 2956,
      "▁Constitution": 2957,
      "▁২১": 2958,
      "প্রা": 2959,
      "माण": 2960,
      "ishing": 2961,
      "▁शास": 2962,
      "▁यह": 2963,
      "▁[ভারতের": 2964,
      "▁[ভারতীয়": 2965,
      "কিস্তান": 2966,
      "▁([সাহায্য](./সাহায্য:উদ্ধৃতি_শৈলী_ত্রুটি#par": 2967,
      "▁(২০০": 2968,
      "ज्ञान": 2969,
      "_ও_": 2970,
      "2-0)": 2971,
      "dom": 2972,
      "man": 2973,
      "▁[_A": 2974,
      ".svg.png)](./": 2975,
      "ledge": 2976,
      "Dyson2018": 2977,
      "-20": 2978,
      "tive": 2979,
      "etail": 2980,
      ":S": 2981,
      "e/": 2982,
      "iod": 2983,
      "-17": 2984,
      "▁de": 2985,
      "_సా": 2986,
      "countries": 2987,
      "iff": 2988,
      "ంప": 2989,
      "గణ": 2990,
      "దిన": 2991,
      "నై": 2992,
      "రీ": 2993,
      "ోర్": 2994,
      "](./జ": 2995,
      "▁\"చ": 2996,
      "citation": 2997,
      "resid": 2998,
      "▁క్రీ": 2999,
      "క్‌": 3000,
      "నికి": 3001,
      "ల్ల": 3002,
      "ంగీ": 3003,
      "నాభా": 3004,
      "aper": 3005,
      "జాబి": 3006,
      "▁తే": 3007,
      "శాస్త్ర": 3008,
      "▁భాష\")\n": 3009,
      "బెంగ": 3010,
      "జాబితా": 3011,
      "-g": 3012,
      "05": 3013,
      "_भाषा": 3014,
      "oin": 3015,
      "तर": 3016,
      "भी": 3017,
      "शास": 3018,
      "ाट": 3019,
      "ত্য": 3020,
      "তালিকা": 3021,
      "দা": 3022,
      "েল": 3023,
      "েস": 3024,
      "▁थ": 3025,
      "](./विशेष:पुस्तक": 3026,
      "▁\"विशेष:पुस्तक": 3027,
      "▁स्रोत/": 3028,
      "▁पा": 3029,
      "](./भारत_के_": 3030,
      "b/b": 3031,
      "ियाँ": 3032,
      "लाई": 3033,
      "কাশ": 3034,
      "_स्रोत/": 3035,
      "লেখ": 3036,
      "-2)": 3037,
      "▁लि": 3038,
      "_के_आ": 3039,
      ".html)।": 3040,
      "श्चिम": 3041,
      "ांग्ला": 3042,
      "](./विशेष:पुस्तक_स्रोत/": 3043,
      ".\"\n": 3044,
      "if": 3045,
      "ution": 3046,
      "▁27": 3047,
      "lobal": 3048,
      "▁Pr": 3049,
      "index": 3050,
      "argest": 3051,
      "cess": 3052,
      "▁23": 3053,
      "▁year": 3054,
      "University": 3055,
      ".jpg/120px-": 3056,
      "73": 3057,
      "88": 3058,
      "cat": 3059,
      "eu": 3060,
      "oth": 3061,
      "▁$": 3062,
      "▁[[": 3063,
      "▁\"F": 3064,
      "ten": 3065,
      "ories": 3066,
      "▁Dec": 3067,
      "10.10": 3068,
      "i,": 3069,
      "itation": 3070,
      "1950": 3071,
      "▁Pro": 3072,
      "▁**[": 3073,
      "▁Oxford": 3074,
      "▁[Archived](https://web.archive.org/web/20": 3075,
      "gy": 3076,
      "pib": 3077,
      "ंप": 3078,
      "উপ": 3079,
      "পরি": 3080,
      "ফোর্": 3081,
      "▁৪": 3082,
      "▁৫": 3083,
      "on_": 3084,
      "্রু": 3085,
      "▁[↑](./भारत": 3086,
      "anges": 3087,
      "▁class": 3088,
      "▁जु": 3089,
      "▁है,": 3090,
      "ेश्वर": 3091,
      "ंगा": 3092,
      "▁২০২": 3093,
      "eptem": 3094,
      "▁সংস্": 3095,
      "▁उप": 3096,
      "যুক্ত": 3097,
      "म्ब": 3098,
      "▁यु": 3099,
      "ার্ক": 3100,
      "](./List_of_countries": 3101,
      "त्प": 3102,
      "गुजरा": 3103,
      "ूचना": 3104,
      "_प्रदेश": 3105,
      "▁আর্কাইভকৃত।": 3106,
      "eptember": 3107,
      "_n": 3108,
      "fter": 3109,
      "has": 3110,
      "uis": 3111,
      "tent": 3112,
      "ision": 3113,
      "imf": 3114,
      "▁National": 3115,
      "engal": 3116,
      "53": 3117,
      "tt": 3118,
      "▁![": 3119,
      "cience": 3120,
      "ocial": 3121,
      ".jpg)\n": 3122,
      "nologue": 3123,
      "ం?action=edit&redlink=1": 3124,
      "చల్": 3125,
      "యన్": 3126,
      "వులు": 3127,
      "షు": 3128,
      "ూర్": 3129,
      "](./ప": 3130,
      "](./భారతీయ": 3131,
      "▁[భారతీయ": 3132,
      "ారం": 3133,
      "ార్ట": 3134,
      "ాలయ": 3135,
      "ument": 3136,
      "▁_The": 3137,
      "క్క": 3138,
      "▁వ్యవస్థ": 3139,
      "▁సి": 3140,
      "▁ము": 3141,
      "ండో": 3142,
      "ముంబ": 3143,
      "సిన": 3144,
      "ినల్": 3145,
      "▁north": 3146,
      "ద్ద": 3147,
      "▁ఉన్న": 3148,
      "▁ఉన్నాయ": 3149,
      "పాకిస్తాన్": 3150,
      "ంధీ": 3151,
      "▁ఒక": 3152,
      "▁ఒరిజ": 3153,
      "ార్టీ": 3154,
      "▁ఒరిజినల్": 3155,
      ".india": 3156,
      "▁13": 3157,
      "ipur": 3158,
      "-40": 3159,
      "Comb": 3160,
      "ID": 3161,
      "_ই": 3162,
      "hr": 3163,
      "lang": 3164,
      "काल": 3165,
      "बाद": 3166,
      "में": 3167,
      "रे": 3168,
      "रक्ष": 3169,
      "वाद": 3170,
      "ाष्ट्र": 3171,
      "ागर": 3172,
      "ोर्": 3173,
      "এফ": 3174,
      "দক্ষিণ": 3175,
      "েক্ষা": 3176,
      "▁\"স": 3177,
      "one": 3178,
      "▁1.": 3179,
      "ক্ট": 3180,
      "िक्ष": 3181,
      "▁কা": 3182,
      "_की_": 3183,
      "▁Development": 3184,
      "ক্ষম": 3185,
      "elig": 3186,
      "▁বৈ": 3187,
      "क्षेत्र": 3188,
      "▁শিল্প": 3189,
      "_मेला": 3190,
      "नेमा": 3191,
      "যুক্তি": 3192,
      "টেমপ্লেট:বই": 3193,
      "धार_पर": 3194,
      "द्योग": 3195,
      "▁2014.\n": 3196,
      "हाराष्ट्र": 3197,
      "▁মধ্যে": 3198,
      "পূর্ব": 3199,
      "्रिटिश": 3200,
      "_के_आधार_पर": 3201,
      "Combined": 3202,
      "_के_आधार_पर_भारत": 3203,
      "91": 3204,
      "pa": 3205,
      "ofile": 3206,
      "rab": 3207,
      "▁2016": 3208,
      "▁July": 3209,
      "embly": 3210,
      "usiness": 3211,
      "▁30": 3212,
      "](./F": 3213,
      "▁\"O": 3214,
      "▁government": 3215,
      ")](./": 3216,
      "67": 3217,
      "_H": 3218,
      "wood": 3219,
      "olper": 3220,
      "olpert": 3221,
      "\"](http://www.": 3222,
      "5-0)": 3223,
      "UN": 3224,
      "ban": 3225,
      "190": 3226,
      "ateg": 3227,
      "](./Special:BookSources/978-1": 3228,
      "▁\"Special:BookSources/978-1": 3229,
      "berg": 3230,
      "ortal": 3231,
      "logo": 3232,
      "ram": 3233,
      "ली": 3234,
      "व्य": 3235,
      "আই": 3236,
      "চে": 3237,
      "োবর": 3238,
      "▁ra": 3239,
      "▁राष्ट्रीय": 3240,
      "](./ক": 3241,
      "▁\"ই": 3242,
      "য়ু": 3243,
      "▁स्व": 3244,
      "▁मंदिर": 3245,
      "▁Cambridge": 3246,
      "files/": 3247,
      "▁दक्षिण": 3248,
      "iron": 3249,
      "ayan": 3250,
      "▁Empire": 3251,
      "ষ্ট": 3252,
      "ঙ্ক": 3253,
      "রেজি": 3254,
      ".jpg)](./चित्र:": 3255,
      ".jpg/330px-": 3256,
      "▁ইতিহাস": 3257,
      "▁২০১১": 3258,
      "outledge": 3259,
      "▁রয়েছে": 3260,
      "বাহিনী": 3261,
      "▁पुरालेखित।.": 3262,
      "বাধীন": 3263,
      "▁আগস্ট": 3264,
      "▁जुलाई": 3265,
      ".indiatimes.com/": 3266,
      "_के_आधार_पर_भारत_के_राज्य": 3267,
      "c/c": 3268,
      "tain": 3269,
      "term": 3270,
      "▁centur": 3271,
      "Oj": 3272,
      "t-": 3273,
      "జ్": 3274,
      "వరి": 3275,
      "శ్చ": 3276,
      "ిన్న": 3277,
      "ెల": 3278,
      "▁[భారత": 3279,
      "▁\"భారతదేశ": 3280,
      "్రె": 3281,
      "▁Ass": 3282,
      "anglad": 3283,
      "నిస్తాన్": 3284,
      "▁మధ్య": 3285,
      ".gov/": 3286,
      "](./భారతదేశంలో": 3287,
      "స్థాన్": 3288,
      "-107": 3289,
      "_by_": 3290,
      "దీ:": 3291,
      "▁పేజీ": 3292,
      "also": 3293,
      "మ్మూ": 3294,
      "▁\"భారతదేశంలో": 3295,
      "▁చూసిన": 3296,
      "▁తేదీ:": 3297,
      "శ్చి": 3298,
      "angladesh": 3299,
      "▁పేజీని": 3300,
      "-23": 3301,
      "99": 3302,
      ":[": 3303,
      "▁2006": 3304,
      "-19-5": 3305,
      "oi.org/": 3306,
      "▁(PDF).": 3307,
      "](https://doi.org/": 3308,
      "-c": 3309,
      "-f": 3310,
      "0.": 3311,
      "clop": 3312,
      "ren": 3313,
      "▁Act": 3314,
      "▁Pradesh": 3315,
      "▁Metcalf": 3316,
      "cyclop": 3317,
      "censusindia.gov.in/": 3318,
      "]:": 3319,
      "know": 3320,
      "wart": 3321,
      "zberg": 3322,
      "तेल": 3323,
      "न\")": 3324,
      "র্য": 3325,
      "শনা": 3326,
      "▁ar": 3327,
      "▁नाम": 3328,
      "▁[জ": 3329,
      "religion": 3330,
      "chwart": 3331,
      "](./ভারত#CITEREF": 3332,
      "বিজ্ঞান": 3333,
      "▁अप": 3334,
      "नाग": 3335,
      "▁কর": 3336,
      "ক্ষে": 3337,
      "ভাগ": 3338,
      "▁প্রা": 3339,
      "▁প্রতি": 3340,
      "েশন": 3341,
      "▁জুন": 3342,
      "s_C": 3343,
      "▁2024": 3344,
      "▁विक": 3345,
      "time": 3346,
      "▁रूप": 3347,
      "পাকিস্তান": 3348,
      "▁[↑](./भारत#cite_ref-FOOTNOTE": 3349,
      "ক্তকারী": 3350,
      "▁[भारतीय": 3351,
      "▁देशों": 3352,
      "গুলির": 3353,
      "_का_": 3354,
      "চিত্র:": 3355,
      "বাংলাদেশ": 3356,
      "শনাক্তকারী": 3357,
      "chwartzberg": 3358,
      ".as": 3359,
      "3/": 3360,
      "En": 3361,
      "cto": 3362,
      "rgan": 3363,
      "ual": 3364,
      "viron": 3365,
      "▁\"J": 3366,
      "tiv": 3367,
      "▁Sh": 3368,
      "▁world": 3369,
      "-80": 3370,
      "▁June": 3371,
      "▁Octo": 3372,
      "harma": 3373,
      "vironment": 3374,
      "▁October": 3375,
      "76": 3376,
      "8)": 3377,
      "ties": 3378,
      "2017": 3379,
      "lam": 3380,
      "▁2023": 3381,
      "▁subcontinent": 3382,
      "National_": 3383,
      "ni": 3384,
      "▁Aug": 3385,
      "▁Census": 3386,
      "oll": 3387,
      "akh": 3388,
      "▁\"South": 3389,
      "%2F": 3390,
      "eshow": 3391,
      "emple": 3392,
      "resident": 3393,
      "▁August": 3394,
      "_W": 3395,
      "ater": 3396,
      "▁us": 3397,
      "](./J": 3398,
      "▁[J": 3399,
      "▁pla": 3400,
      "loc": 3401,
      "-এ": 3402,
      ".|": 3403,
      "/artic": 3404,
      "TR": 3405,
      "oci": 3406,
      "ंक": 3407,
      "एशिया": 3408,
      "धी": 3409,
      "वस्था": 3410,
      "ोन": 3411,
      "ইল": 3412,
      "তন্ত্র": 3413,
      "দ্য": 3414,
      "নীতি": 3415,
      "বল": 3416,
      "সদ": 3417,
      "–1": 3418,
      "▁ভ": 3419,
      "▁[০-": 3420,
      "▁\"অ": 3421,
      "ार्": 3422,
      "▁कि": 3423,
      "য়ন": 3424,
      "ash": 3425,
      "ool": 3426,
      "▁पूर्व": 3427,
      "বিধান": 3428,
      "ালা": 3429,
      "▁মে": 3430,
      "ंगाल": 3431,
      "▁तट": 3432,
      "▁न्या": 3433,
      "▁ব্যবস্থা": 3434,
      "▁হল": 3435,
      "ষ্ঠ": 3436,
      "▁एवं": 3437,
      "▁Press.": 3438,
      "ন্তর্": 3439,
      "हिन्दी": 3440,
      "economic": 3441,
      "industry": 3442,
      "▁নাম": 3443,
      "श्मीर": 3444,
      "censusindia.gov.in/2011": 3445,
      "0/": 3446,
      "c=": 3447,
      "yy": 3448,
      "కై": 3449,
      "మం": 3450,
      "శ్రీ": 3451,
      "షన్": 3452,
      "హ్": 3453,
      "ెలు": 3454,
      "▁also": 3455,
      "](./అ": 3456,
      "▁పరి": 3457,
      "ాలు\n": 3458,
      "రియా": 3459,
      "▁మార్": 3460,
      "ప్రపంచ": 3461,
      "▁సంస్కృతి": 3462,
      "▁రాజవంశం": 3463,
      "rojection": 3464,
      "81": 3465,
      "2019": 3466,
      "ade": 3467,
      "andard": 3468,
      "_Press": 3469,
      "Citation": 3470,
      "dis": 3471,
      "ron": 3472,
      "▁[t": 3473,
      "▁population": 3474,
      "eport": 3475,
      "▁\\(identifier\\)\"):[": 3476,
      "1994": 3477,
      ".fr": 3478,
      "45": 3479,
      "500": 3480,
      "hat": 3481,
      "oor": 3482,
      "▁29": 3483,
      "▁\"Ch": 3484,
      "▁their": 3485,
      "▁into": 3486,
      "▁sec": 3487,
      "▁system": 3488,
      "andhi": 3489,
      "ummit\")\n": 3490,
      "uropean": 3491,
      "-le": 3492,
      "32": 3493,
      "_ब": 3494,
      "_ভারত": 3495,
      "ton": 3496,
      "अन": 3497,
      "एस": 3498,
      "चे": 3499,
      "टक": 3500,
      "सद": 3501,
      "ीस": 3502,
      "ेस": 3503,
      "কারি": 3504,
      "বন": 3505,
      "মন": 3506,
      "লচ্চ": 3507,
      "হু": 3508,
      "েলা": 3509,
      "১৭": 3510,
      "▁ড": 3511,
      "▁it": 3512,
      "](./স": 3513,
      "▁[सं": 3514,
      "▁\"द": 3515,
      "▁\"প": 3516,
      "ার্চ": 3517,
      "▁केंद्र": 3518,
      "nored": 3519,
      "chnolog": 3520,
      "ley": 3521,
      "বিত": 3522,
      "ween": 3523,
      "्तर": 3524,
      "ignored": 3525,
      "etween": 3526,
      "▁মেশিন": 3527,
      "विधान": 3528,
      "ाला": 3529,
      "भाग": 3530,
      "%E0%A4%": 3531,
      "संख्या": 3532,
      "▁भू": 3533,
      "ameter_": 3534,
      "▁अनुसार": 3535,
      "%E0%A6%A": 3536,
      "▁উপেক্ষা": 3537,
      "▁নির্": 3538,
      "▁উৎস/": 3539,
      "udden": 3540,
      "](./বিশেষ:বইয়ের_উৎস/": 3541,
      "▁स्थ": 3542,
      "▁first": 3543,
      "▁([সাহায্য](./সাহায্য:উদ্ধৃতি_শৈলী_ত্রুটি#parameter_": 3544,
      "লচ্চিত্র": 3545,
      "▁([সাহায্য](./সাহায্য:উদ্ধৃতি_শৈলী_ত্রুটি#parameter_ignored": 3546,
      "\"](http://": 3547,
      "2-": 3548,
      "CE": 3549,
      "detail": 3550,
      "ry": 3551,
      "son": 3552,
      "ymb": 3553,
      "umber": 3554,
      "olk": 3555,
      "▁2018": 3556,
      "ohn": 3557,
      "ology": 3558,
      "4/4": 3559,
      ".JPG": 3560,
      "4-7": 3561,
      "6_": 3562,
      "jab": 3563,
      "rish": 3564,
      "ert": 3565,
      "estern": 3566,
      "▁India.": 3567,
      "olic": 3568,
      "▁during": 3569,
      "_Delhi": 3570,
      "-19-8": 3571,
      "Indus": 3572,
      "ategory": 3573,
      "_language": 3574,
      "etr": 3575,
      "leshow": 3576,
      "\");": 3577,
      "ise": 3578,
      "here": 3579,
      "](//upload.wikimedia.org/wikipedia/commons/thumb/b/b": 3580,
      "▁been": 3581,
      "leshow/": 3582,
      "ne": 3583,
      "ok": 3584,
      "2001": 3585,
      "acy": 3586,
      "_of_the": 3587,
      "url": 3588,
      "118": 3589,
      "▁K.": 3590,
      "▁form": 3591,
      "3-0)": 3592,
      "a\")\n": 3593,
      "athe": 3594,
      "एँ": 3595,
      "गो": 3596,
      "लि": 3597,
      "ील": 3598,
      "ोड़": 3599,
      "ংরেজি": 3600,
      "ণা": 3601,
      "দিল্": 3602,
      "ধিক": 3603,
      "পে": 3604,
      "মিল": 3605,
      "রু": 3606,
      "হিত": 3607,
      "ুম": 3608,
      "৯৭": 3609,
      "ం\"),": 3610,
      "ఆఫ్": 3611,
      "కత": 3612,
      "క్య": 3613,
      "దాయ": 3614,
      "రే": 3615,
      "లంక": 3616,
      "వీ": 3617,
      "షి": 3618,
      "సు": 3619,
      "▁ఏ": 3620,
      "](./ই": 3621,
      "](./చ": 3622,
      "▁[न": 3623,
      "▁[చ": 3624,
      "ार्ट": 3625,
      "idd": 3626,
      "▁मूल": 3627,
      "▁সম্পর্ক": 3628,
      "adu": 3629,
      "adition": 3630,
      "స్సా": 3631,
      "▁పార్టీ": 3632,
      "▁Archived": 3633,
      "న్‌": 3634,
      "ాలు\")\n": 3635,
      "▁जो": 3636,
      "▁వచ్చ": 3637,
      "টিশ": 3638,
      "▁এর": 3639,
      "▁बहु": 3640,
      "▁सेना": 3641,
      "▁1950": 3642,
      "ముద్ర": 3643,
      "ন্দোল": 3644,
      "-81": 3645,
      "▁শতা": 3646,
      "লাই": 3647,
      "▁गण": 3648,
      "ड़ी": 3649,
      "म्बर": 3650,
      "గాంధీ": 3651,
      "▁Press\").": 3652,
      "▁ইউ": 3653,
      "నేపాల": 3654,
      "▁పేరు": 3655,
      "धिकार": 3656,
      "▁చెయ్య": 3657,
      "▁కూడా": 3658,
      "ంగీతం": 3659,
      "ముంబై": 3660,
      "శ్చిమ": 3661,
      "▁మార్గ": 3662,
      "হিত্য": 3663,
      "ন্দোলন": 3664,
      "▁చెయ్యబడ": 3665,
      "_K": 3666,
      "cms": 3667,
      "oy": 3668,
      "sha": 3669,
      "▁comp": 3670,
      "▁India_": 3671,
      "2000": 3672,
      "ird": 3673,
      "4-0)": 3674,
      "72": 3675,
      "▁[v": 3676,
      "▁[Ch": 3677,
      "71": 3678,
      "▁al": 3679,
      "▁es": 3680,
      "](./Ch": 3681,
      "▁[d": 3682,
      "ins": 3683,
      "▁September": 3684,
      "olly": 3685,
      "form": 3686,
      "uddh": 3687,
      "ollywood": 3688,
      "_at": 3689,
      "▁all": 3690,
      "2023": 3691,
      "▁2009": 3692,
      "60px-": 3693,
      "ose": 3694,
      "▁not": 3695,
      "AsherTalbot2008": 3696,
      "bi": 3697,
      "ces": 3698,
      "तिक": 3699,
      "दू": 3700,
      "श्री": 3701,
      "ीत": 3702,
      "ेट": 3703,
      "এশ": 3704,
      "গত": 3705,
      "চার": 3706,
      "▁ভূ": 3707,
      "](./প": 3708,
      "▁[e": 3709,
      "▁*[": 3710,
      "ics": 3711,
      "▁मा": 3712,
      "বিক": 3713,
      "▁পা": 3714,
      "ানু": 3715,
      "▁মা": 3716,
      "नाथ": 3717,
      "_क्षेत्र": 3718,
      "▁বর্": 3719,
      "▁एशिया": 3720,
      "%E0%A7%": 3721,
      "▁भाषा\")\n": 3722,
      "জাতীয়_": 3723,
      "▁[আর্কাইভকৃত](https://web.archive.org/web/201": 3724,
      "্রিটিশ": 3725,
      "ুটবল": 3726,
      "गुजरात": 3727,
      "ymbol": 3728,
      "Template": 3729,
      "ule": 3730,
      "India\\)": 3731,
      "lem": 3732,
      "▁Times": 3733,
      "indust": 3734,
      "unjab": 3735,
      "_projection": 3736,
      "orthographic": 3737,
      "8/8": 3738,
      "KulkeRothermund2004": 3739,
      "industan": 3740,
      "orthographic_projection": 3741,
      "3_": 3742,
      "6/": 3743,
      "NG": 3744,
      "c.": 3745,
      "div": 3746,
      "▁state": 3747,
      "▁between": 3748,
      "▁2017": 3749,
      "ular": 3750,
      "irect": 3751,
      "-to": 3752,
      "minis": 3753,
      "ering": 3754,
      "en/": 3755,
      "▁ab": 3756,
      "ouse": 3757,
      ".org": 3758,
      "amp": 3759,
      "ata_": 3760,
      ".bn": 3761,
      "New": 3762,
      "_O": 3763,
      "_వ": 3764,
      "గర": 3765,
      "టక": 3766,
      "టా": 3767,
      "దార": 3768,
      "నీ": 3769,
      "రో": 3770,
      "సభ": 3771,
      "ెద్ద": 3772,
      "▁2.": 3773,
      "](./భారత_": 3774,
      "▁[సి": 3775,
      "▁\"సి": 3776,
      "iation": 3777,
      "in_India": 3778,
      "encies": 3779,
      "▁(ed": 3780,
      "iction": 3781,
      "▁పు": 3782,
      "రాజ్య": 3783,
      "▁కేంద్రపాలిత": 3784,
      "ourn": 3785,
      "▁[\"C": 3786,
      "త్స": 3787,
      "▁రాజ్య": 3788,
      "pecial:BookSources/978": 3789,
      "▁Jan": 3790,
      "▁ఉంది.": 3791,
      "వాతంత్ర": 3792,
      "▁దేశాల": 3793,
      "లాదేశ్": 3794,
      "స్తు": 3795,
      "▁సామ్రాజ్యం](./": 3796,
      "దీవులు": 3797,
      "హిందీ": 3798,
      "▁భాషలు": 3799,
      "ంగ్లాదేశ్": 3800,
      "ారు.": 3801,
      "_ప్రా": 3802,
      "్రిటి": 3803,
      "ూర్పు": 3804,
      "కైవు": 3805,
      "/h": 3806,
      "gis": 3807,
      "जय": 3808,
      "डी": 3809,
      "पी": 3810,
      "पति": 3811,
      "भू": 3812,
      "मह": 3813,
      "मंत्र": 3814,
      "रो": 3815,
      "ल\")": 3816,
      "ধারণ": 3817,
      "পাত": 3818,
      "মন্ত্র": 3819,
      "রক্ষণ": 3820,
      "হিনী": 3821,
      "▁फ": 3822,
      "য়ারি": 3823,
      "▁(১৯": 3824,
      "ikh": 3825,
      "▁but": 3826,
      "▁অর্থনৈতিক": 3827,
      "▁ক্র": 3828,
      "ource": 3829,
      "िया\")": 3830,
      "▁[\"India": 3831,
      "▁2020": 3832,
      "म्म": 3833,
      "▁साम्राज्य": 3834,
      "জাতিক": 3835,
      "वंश": 3836,
      "▁जाता": 3837,
      "▁वर्ष": 3838,
      "▁English": 3839,
      "ैदान": 3840,
      "तंत्रता": 3841,
      "द्योगिक": 3842,
      "ক্ষেত্র": 3843,
      "lm": 3844,
      "ph": 3845,
      "▁'": 3846,
      "inor": 3847,
      "▁more": 3848,
      "oi_\\(identifier\\)": 3849,
      "▁\"Doi": 3850,
      "](./Doi_\\(identifier\\)": 3851,
      ".php?": 3852,
      "langoff": 3853,
      "/S": 3854,
      "mu": 3855,
      "pu": 3856,
      "arh": 3857,
      "▁India\"),": 3858,
      "▁bec": 3859,
      "ates": 3860,
      "avid": 3861,
      "ildli": 3862,
      "ujar": 3863,
      "por": 3864,
      "▁2012": 3865,
      "archive.org/detail": 3866,
      "▁December": 3867,
      "censusindia.gov.in/2011census": 3868,
      "archive.org/details/": 3869,
      "79": 3870,
      "Qu": 3871,
      "a,": 3872,
      "britannica": 3873,
      "go": 3874,
      "▁im": 3875,
      "alog": 3876,
      "-00": 3877,
      ".org/wiki/": 3878,
      "britannica.com/": 3879,
      "earch": 3880,
      "tan": 3881,
      "पे": 3882,
      "वे": 3883,
      "िज़": 3884,
      "গা": 3885,
      "তার": 3886,
      "দ্র": 3887,
      "বেশ": 3888,
      "▁ड": 3889,
      "](./অ": 3890,
      "▁[প্র": 3891,
      "▁[हिन्द": 3892,
      "▁\"W": 3893,
      "▁\"इ": 3894,
      "an,": 3895,
      "ভারত\\)": 3896,
      "ingdom": 3897,
      "স্তা": 3898,
      "বাস": 3899,
      "विज्ञान": 3900,
      "তামিল": 3901,
      "▁Hindi": 3902,
      "apit": 3903,
      "]](./भारत#cite_note-1": 3904,
      "▁उत्तर": 3905,
      "ड़े": 3906,
      "▁২০০৯": 3907,
      "ी_भाषा": 3908,
      "রাষ্ট্রপতি": 3909,
      "द्यान": 3910,
      "নেপাল": 3911,
      "▁[_The": 3912,
      "र्थिक": 3913,
      "▁যুদ্ধ": 3914,
      "ंग्रेज़ी": 3915,
      "ক্সফোর্": 3916,
      "यालय": 3917,
      "University_Press": 3918,
      "▁[↑](./भारत#cite_ref-1": 3919,
      "ার্কিন": 3920,
      "ক্টোবর": 3921,
      "বাধীনতা": 3922,
      "ক্সফোর্ড": 3923,
      "az": 3924,
      "ned": 3925,
      "amb": 3926,
      "▁1,": 3927,
      "ovement": 3928,
      "▁[\"The": 3929,
      "able": 3930,
      "55": 3931,
      "5–": 3932,
      "86": 3933,
      "=http": 3934,
      "rm": 3935,
      "content": 3936,
      "ublishing": 3937,
      "olicy": 3938,
      "2,": 3939,
      "94": 3940,
      "Asia": 3941,
      "crip": 3942,
      "ంజా": 3943,
      "క్ర": 3944,
      "కేంద్రపాలిత": 3945,
      "గి": 3946,
      "టీ": 3947,
      "టాన్": 3948,
      "లను": 3949,
      "వె": 3950,
      "వరణ": 3951,
      "హదార": 3952,
      "ూచ": 3953,
      "▁భారతదేశ": 3954,
      "్యం": 3955,
      "umar": 3956,
      "భారతదేశ_": 3957,
      "arch_": 3958,
      "▁కు": 3959,
      "▁కొ": 3960,
      "ాలు\")": 3961,
      "▁వ్యా": 3962,
      "Informatic": 3963,
      "▁మత": 3964,
      "▁మా": 3965,
      "▁మతము": 3966,
      "▁చే": 3967,
      "తావరణ": 3968,
      "నాడు": 3969,
      "trib": 3970,
      "▁tw": 3971,
      "ాయి": 3972,
      "ణాసియా": 3973,
      "టెడ్": 3974,
      "▁ఆర్కైవు": 3975,
      "raven": 3976,
      "▁రైలు": 3977,
      "భూటాన్": 3978,
      "▁అధికార": 3979,
      "_సామ్రాజ్యం": 3980,
      "s_Centre": 3981,
      "మంత్రి": 3982,
      "శ్రీలంక": 3983,
      "iddle": 3984,
      "Informatics_Centre": 3985,
      "7,": 3986,
      "Fisher": 3987,
      "▁comm": 3988,
      "edic": 3989,
      "▁music": 3990,
      "▁[Stein": 3991,
      "▁official": 3992,
      "Fisher2018": 3993,
      "_প্র": 3994,
      "site": 3995,
      "डु": 3996,
      "णि": 3997,
      "त्य": 3998,
      "धु": 3999,
      "लोक": 4000,
      "ণ্": 4001,
      "দু": 4002,
      "ভর": 4003,
      "মু": 4004,
      "শীল": 4005,
      "েখ": 4006,
      "▁छ": 4007,
      "▁res": 4008,
      "▁ধর্ম": 4009,
      "▁[_India": 4010,
      "▁[पु": 4011,
      "▁\"न": 4012,
      "▁\"सं": 4013,
      "ara": 4014,
      "▁(পি": 4015,
      "ন্ট": 4016,
      "[[১": 4017,
      "uslim": 4018,
      "00)": 4019,
      "istor": 4020,
      "▁অক্টোবর": 4021,
      "▁মহা": 4022,
      "नाव": 4023,
      "▁द्वार": 4024,
      "ের_তালিকা": 4025,
      "▁প্রযুক্তি": 4026,
      "▁দি": 4027,
      "माज": 4028,
      "প্ত": 4029,
      "▁থেকে](http://www.": 4030,
      "সংস্": 4031,
      "ी](./अ": 4032,
      "ড়া": 4033,
      "▁अन्य": 4034,
      "सेना": 4035,
      "▁উদ্ধৃতি](./টেমপ্লেট:": 4036,
      "gram": 4037,
      "▁चु": 4038,
      "▁हुई": 4039,
      "▁২০০৭।": 4040,
      "▁समय": 4041,
      "্যান্য": 4042,
      "বর্ত": 4043,
      "লোক": 4044,
      "▁বৃহ": 4045,
      "त्पाद": 4046,
      "ক্ষমতা": 4047,
      "ণ্ড": 4048,
      "_en": 4049,
      "day": 4050,
      "▁—": 4051,
      "](./W": 4052,
      "▁[I": 4053,
      "ones": 4054,
      "omen": 4055,
      "come": 4056,
      "even": 4057,
      "-90": 4058,
      "▁Islands": 4059,
      "Harle": 4060,
      "gency": 4061,
      "▁January": 4062,
      "-H": 4063,
      "110": 4064,
      "89": 4065,
      "BC": 4066,
      "CN": 4067,
      "mon": 4068,
      "▁ac": 4069,
      "ace": 4070,
      "inguis": 4071,
      "▁Affair": 4072,
      "▁May": 4073,
      "▁dance": 4074,
      "s_and": 4075,
      "▁2004": 4076,
      "inguistic": 4077,
      "IM": 4078,
      "ft": 4079,
      "ges": 4080,
      "▁0.": 4081,
      "-14": 4082,
      "▁Congress": 4083,
      "▁Government": 4084,
      "ocument": 4085,
      "clud": 4086,
      "-of": 4087,
      "-21": 4088,
      "52": 4089,
      "6-0)": 4090,
      "ven": 4091,
      "orce": 4092,
      "ilk": 4093,
      "▁national": 4094,
      "inistry_of_": 4095,
      "athematic": 4096,
      "Wolpert": 4097,
      "_न": 4098,
      "_ন": 4099,
      "ईसा": 4100,
      "कल": 4101,
      "खाना": 4102,
      "टे": 4103,
      "तु": 4104,
      "रवरी": 4105,
      "ल्": 4106,
      "ाम": 4107,
      "ैक": 4108,
      "ोम": 4109,
      "গোল": 4110,
      "ছিল": 4111,
      "জে": 4112,
      "জার্": 4113,
      "ডিয়া": 4114,
      "ভেম্বর": 4115,
      "লু": 4116,
      "১-": 4117,
      "▁ऊ": 4118,
      "▁গ্র": 4119,
      "](./The": 4120,
      "▁[द": 4121,
      "▁[Metcalf": 4122,
      "ारी": 4123,
      "▁सु": 4124,
      "ustral": 4125,
      "र्दू": 4126,
      "▁अग": 4127,
      "▁दिया": 4128,
      "▁এশ": 4129,
      "▁बढ़": 4130,
      "▁নভেম্বর": 4131,
      "্বে": 4132,
      "িয়ন": 4133,
      "▁व्य": 4134,
      ".htm)।": 4135,
      "राष्ट्रपति": 4136,
      "ত্তম": 4137,
      "▁বাহিনী": 4138,
      "জাতি": 4139,
      "्रां": 4140,
      "র্থনীতি": 4141,
      "▁हुआ": 4142,
      "▁২০০৭।\n": 4143,
      "मुख": 4144,
      "▁হয়।": 4145,
      "हासागर": 4146,
      "▁বিশ্বের": 4147,
      "মাণু": 4148,
      "হিন্দু": 4149,
      "ীকরণ": 4150,
      "▁সাম্রাজ্য": 4151,
      "ंबई": 4152,
      "शासित": 4153,
      "▁लिए": 4154,
      "▁years": 4155,
      "िक्षा": 4156,
      "▁विकास": 4157,
      "ন্তর্জাতিক": 4158,
      "দিল্লি": 4159,
      "মন্ত্রী": 4160,
      "/121": 4161,
      "EX": 4162,
      "ealth": 4163,
      "fl": 4164,
      "anth": 4165,
      "▁Con": 4166,
      "107": 4167,
      "▁East": 4168,
      "esearch": 4169,
      "\")**|": 4170,
      "orest": 4171,
      "ttar": 4172,
      "ildlife": 4173,
      "-28": 4174,
      "Taj": 4175,
      "_4": 4176,
      "_University_Press": 4177,
      "nam": 4178,
      "ఆర్": 4179,
      "ఉత్తర": 4180,
      "ఒడి": 4181,
      "కీయ": 4182,
      "గం": 4183,
      "గలు": 4184,
      "చు": 4185,
      "జరా": 4186,
      "తూర్పు": 4187,
      "ది.": 4188,
      "భు": 4189,
      "మన్": 4190,
      "యి": 4191,
      "లస": 4192,
      "ీన": 4193,
      "ేక": 4194,
      "▁:": 4195,
      "▁హ": 4196,
      "▁జాబితా": 4197,
      "▁[Indian": 4198,
      "▁after": 4199,
      "▁states": 4200,
      "▁పట్ట": 4201,
      "▁Comp": 4202,
      "onso": 4203,
      "emoc": 4204,
      "నిక": 4205,
      "ంగ్రె": 4206,
      "▁సభ": 4207,
      "తాబ్": 4208,
      "▁Nations": 4209,
      ".jpg)[": 4210,
      "ులు\")|": 4211,
      "▁ప్రపంచ": 4212,
      "abad": 4213,
      "▁ఆసియా": 4214,
      "మ్రాజ్య": 4215,
      ".html).": 4216,
      "▁ఇతర": 4217,
      "గుజరా": 4218,
      "peration": 4219,
      "_New": 4220,
      "▁సామ్రాజ్యం|": 4221,
      "frica": 4222,
      "త్యేక": 4223,
      "రాష్ట్రపతి": 4224,
      "ప్ప": 4225,
      "umbai": 4226,
      "▁కాశ్మీ": 4227,
      "ependencies": 4228,
      "▁చెంద": 4229,
      "▁ఆర్ధిక": 4230,
      "▁స్థాన": 4231,
      "తమిళనాడు": 4232,
      "ప్రధానమంత్రి": 4233,
      "గణతంత్ర": 4234,
      "▁క్రీడ": 4235,
      "▁classical": 4236,
      "▁ఉన్నాయి.": 4237,
      "National_Informatics_Centre": 4238,
      "4/41/": 4239,
      "](//upload.wikimedia.org/wikipedia/commons/thumb/b/b0/": 4240,
      "ఆఫ్ఘ": 4241,
      "షియా": 4242,
      "న్‌ఫ": 4243,
      "నేపాల్": 4244,
      "తాబ్ద": 4245,
      "National_Informatics_Centre2005": 4246,
      "\"](https://": 4247,
      "K:": 4248,
      "NC": 4249,
      "_f": 4250,
      "_un": 4251,
      "ures": 4252,
      "ion_": 4253,
      "ajor": 4254,
      "/P": 4255,
      "II": 4256,
      "Pr": 4257,
      "_h": 4258,
      "ii": 4259,
      "thnologue": 4260,
      "2024": 4261,
      "araj": 4262,
      "▁co": 4263,
      "cean": 4264,
      "▁Talbot": 4265,
      ".htm)": 4266,
      "key": 4267,
      "▁2011.\n": 4268,
      "olitical": 4269,
      "▁Commissioner": 4270,
      "ournal": 4271,
      "-25": 4272,
      "_বি": 4273,
      "pt": 4274,
      "pla": 4275,
      "क्स": 4276,
      "न](./": 4277,
      "नगर": 4278,
      "ल](./": 4279,
      "वै": 4280,
      "ूर्": 4281,
      "ृति": 4282,
      "কো": 4283,
      "টান": 4284,
      "থ্য": 4285,
      "দে": 4286,
      "দার": 4287,
      "পুর": 4288,
      "ব্": 4289,
      "মার": 4290,
      "ে](./": 4291,
      "১৪": 4292,
      "▁ঘ": 4293,
      "▁ধ": 4294,
      "▁he": 4295,
      "▁फ़": 4296,
      "▁time": 4297,
      "▁[आ": 4298,
      "▁[इ": 4299,
      "▁[ন": 4300,
      "▁\"आ": 4301,
      "tel": 4302,
      "ार्च": 4303,
      "ভারতীয়": 4304,
      "change": 4305,
      "ন্স": 4306,
      "▁পর্ব": 4307,
      "ussia": 4308,
      "স্ট্র": 4309,
      "िक्": 4310,
      "িকী": 4311,
      "▁जून": 4312,
      "▁दिस": 4313,
      "দ্ধি": 4314,
      "राजस्थान": 4315,
      "▁প্রস্তা": 4316,
      "▁নদী": 4317,
      "▁জু": 4318,
      "▁Language": 4319,
      "ঙ্কা": 4320,
      "_\\(ভারত\\)": 4321,
      "সংঘ": 4322,
      "नेपाल": 4323,
      "त्तरा": 4324,
      "ডিএফ": 4325,
      "ance/": 4326,
      "সিন্ধ": 4327,
      "जाति": 4328,
      "ummits": 4329,
      "পাদ": 4330,
      "पर्यटन": 4331,
      "ুরু": 4332,
      "धानमंत्र": 4333,
      "▁গা": 4334,
      "्रीका": 4335,
      "_অঞ্চল": 4336,
      "▁[Archived](https://web.archive.org/web/201": 4337,
      "▁सूची\")": 4338,
      "actbook": 4339,
      "गणना": 4340,
      "ীলঙ্কা": 4341,
      "ष्ण": 4342,
      "হিন্দি": 4343,
      "▁निर्": 4344,
      ".svg/20px-Increase2": 4345,
      "শ্রীলঙ্কা": 4346,
      "Increase2.svg/20px-Increase2": 4347,
      "্মীর": 4348,
      "माणु": 4349,
      "म्मू": 4350,
      "▁two": 4351,
      "▁(পিডিএফ": 4352,
      "](//upload.wikimedia.org/wikipedia/commons/thumb/b/b0/Increase2.svg/20px-Increase2": 4353,
      "▁दिसम्बर": 4354,
      "](//upload.wikimedia.org/wikipedia/commons/thumb/b/b0/Increase2.svg/20px-Increase2.svg.png)": 4355,
      ".uk": 4356,
      "1-0)": 4357,
      "back": 4358,
      "gest": 4359,
      "ious": 4360,
      "m.nic.in/": 4361,
      "ncl": 4362,
      "▁art": 4363,
      "ised": 4364,
      "▁sh": 4365,
      "imalay": 4366,
      "olitics": 4367,
      "nclm.nic.in/": 4368,
      "dr": 4369,
      "itz": 4370,
      "ical_": 4371,
      "access": 4372,
      "ove": 4373,
      "olle": 4374,
      "▁Man": 4375,
      "▁2013": 4376,
      "▁1947": 4377,
      "ughal": 4378,
      "a/a": 4379,
      "obb": 4380,
      "9/9": 4381,
      "%7": 4382,
      ",[[": 4383,
      "-B": 4384,
      "UI": 4385,
      "_3": 4386,
      "ehr": 4387,
      "ira": 4388,
      "ria": 4389,
      "▁en": 4390,
      "▁[O": 4391,
      "▁\"I": 4392,
      "ndra": 4393,
      "theast": 4394,
      "idata": 4395,
      "-111": 4396,
      "tra": 4397,
      "▁most": 4398,
      "rahm": 4399,
      "▁group": 4400,
      "ublication": 4401,
      "\"](https://web.archive.org/web/20160": 4402,
      "gener": 4403,
      "▁tradition": 4404,
      "▁York": 4405,
      "▁territories": 4406,
      "](./List_of_countries_by_": 4407,
      ".aspx": 4408,
      "\".": 4409,
      "ola": 4410,
      "ased": 4411,
      "ross": 4412,
      "24)": 4413,
      "odi": 4414,
      "8-0)": 4415,
      "?url": 4416,
      "_द": 4417,
      "_प": 4418,
      "_व": 4419,
      "`|": 4420,
      "sar": 4421,
      "टी": 4422,
      "वी": 4423,
      "हीं": 4424,
      "िज": 4425,
      "िन्": 4426,
      "ैल": 4427,
      "ैंड": 4428,
      "গো": 4429,
      "চি": 4430,
      "বস": 4431,
      "বার": 4432,
      "ভৌ": 4433,
      "ভ্য": 4434,
      "মহা": 4435,
      "৫]](./ভারত#cite_note-": 4436,
      "▁२": 4437,
      "▁টা": 4438,
      "▁२०": 4439,
      "](./सं": 4440,
      "▁[ज": 4441,
      "2015": 4442,
      "▁मार्च": 4443,
      "्यता": 4444,
      "-16": 4445,
      "trar": 4446,
      "▁पह": 4447,
      "▁पार्ट": 4448,
      "▁পূ": 4449,
      "र्स": 4450,
      "र्जा": 4451,
      "](./भारतीय": 4452,
      "](./भारत_की_": 4453,
      "ece": 4454,
      "ালত": 4455,
      "িকি": 4456,
      "বায়ু": 4457,
      "▁মার্চ": 4458,
      "সাই": 4459,
      "23)": 4460,
      "त्रि": 4461,
      "webcitation": 4462,
      "▁बना": 4463,
      "▁ব্যা": 4464,
      "_सा": 4465,
      "state": 4466,
      "▁হয়ে": 4467,
      "িয়ার": 4468,
      "▁শা": 4469,
      "প্রদেশ": 4470,
      "▁relig": 4471,
      "ৃত্য": 4472,
      "▁संविधान": 4473,
      ".jpg)](./চিত্র:": 4474,
      "▁Union": 4475,
      "र्वत": 4476,
      "ंडिया": 4477,
      "पात": 4478,
      "onstituent": 4479,
      "ন্তর": 4480,
      "ंग्रेस": 4481,
      "ন্ডিয়া": 4482,
      "▁গণ": 4483,
      "▁সালের": 4484,
      "সাম্রাজ্য": 4485,
      "▁অনু": 4486,
      "स्कृति": 4487,
      "economy": 4488,
      "▁खाना\")": 4489,
      "িকেট": 4490,
      "िल्ली": 4491,
      "▁शासन": 4492,
      "▁थी": 4493,
      "व्यवस्था": 4494,
      "▁শতাংশ": 4495,
      "▁द्वारा": 4496,
      "▁বৃহত্তম": 4497,
      "▁फ़रवरी": 4498,
      "?url=http": 4499,
      "webcitation.org/": 4500,
      "-india": 4501,
      "1–": 4502,
      "EO": 4503,
      "Report": 4504,
      "WEO": 4505,
      "_న": 4506,
      "_ప్రదేశ్": 4507,
      "be": 4508,
      "s.[[": 4509,
      "ఉప": 4510,
      "జె": 4511,
      "ఢ్": 4512,
      "నాల": 4513,
      "లే": 4514,
      "ళు": 4515,
      "ౌద్ధ": 4516,
      "▁j": 4517,
      "▁డ": 4518,
      "▁భా": 4519,
      "▁...": 4520,
      "alore": 4521,
      "ాలీ": 4522,
      "**జాతీయ": 4523,
      "ర్చ": 4524,
      "_of_S": 4525,
      "angalore": 4526,
      "▁March": 4527,
      "ake": 4528,
      "ము\")": 4529,
      "▁2003": 4530,
      "–సా.శ.18": 4531,
      "▁అత్య": 4532,
      "▁ప్రభు": 4533,
      "ప్రత్యేక": 4534,
      "▁ఆధ": 4535,
      "మాఖ్య": 4536,
      "వాణా": 4537,
      "ంటి": 4538,
      "▁దేశం": 4539,
      "904-7": 4540,
      "▁election": 4541,
      "డ్డ": 4542,
      "▁[2](./India#cite_ref-FOOTNOTE": 4543,
      "దక్షిణాసియా": 4544,
      "_Temple": 4545,
      "▁[1](./India#cite_ref-FOOTNOTE": 4546,
      "▁గల": 4547,
      "▁భారతదేశంలో": 4548,
      "యునై": 4549,
      "glance/": 4550,
      "ష్ణ": 4551,
      "_చరిత్ర?action=edit&redlink=1": 4552,
      "india-glance/": 4553,
      "-521-80": 4554,
      "▁రాష్ట్రాలు,": 4555,
      "_మతము": 4556,
      "▁మొద": 4557,
      "▁రాజవంశం|": 4558,
      "chnology": 4559,
      "▁చెయ్యబడింది.": 4560,
      "యునైటెడ్": 4561,
      "-521-80904-7": 4562,
      "-78": 4563,
      ".).": 4564,
      "7-0)": 4565,
      "84": 4566,
      "ally": 4567,
      "-15": 4568,
      "▁sup": 4569,
      "▁Sanskrit": 4570,
      "▁Pakistan": 4571,
      "ode": 4572,
      "▁War": 4573,
      "uggest": 4574,
      "▁produc": 4575,
      "International": 4576,
      "/articleshow/": 4577,
      "829": 4578,
      "_J": 4579,
      "_w": 4580,
      "ks": 4581,
      "p?": 4582,
      "isions": 4583,
      "iving": 4584,
      "▁spe": 4585,
      "ters": 4586,
      "1996": 4587,
      "▁Kashmir": 4588,
      "f/f": 4589,
      "▁became": 4590,
      "IMF": 4591,
      "/ark": 4592,
      ":/121": 4593,
      "Pakistan": 4594,
      "f.fr": 4595,
      "ls": 4596,
      "rick": 4597,
      "ndaman": 4598,
      "arb": 4599,
      "▁(1,": 4600,
      "ough": 4601,
      "atus": 4602,
      ".svg)": 4603,
      "aksh": 4604,
      "▁one": 4605,
      "▁Asia\")\n": 4606,
      "48/c": 4607,
      "ervation": 4608,
      "usines": 4609,
      "iterature": 4610,
      "eligion": 4611,
      "▁2006](./India#CITEREF": 4612,
      ".bnf.fr": 4613,
      "ujarat": 4614,
      "/ark:/121": 4615,
      "48/cb": 4616,
      ".bnf.fr/ark:/121": 4617,
      ".bnf.fr/ark:/12148/cb": 4618,
      "-২": 4619,
      "85": 4620,
      "_11": 4621,
      "aur": 4622,
      "de": 4623,
      "view": 4624,
      "ंट": 4625,
      "खंड": 4626,
      "खण्ड": 4627,
      "गोल": 4628,
      "धि": 4629,
      "योग": 4630,
      "रू": 4631,
      "रेल": 4632,
      "शीन": 4633,
      "ाप": 4634,
      "ुरु": 4635,
      "ौर": 4636,
      "ौद्ध": 4637,
      "ौद्योगिक": 4638,
      "ংগ্র": 4639,
      "উই": 4640,
      "করণ": 4641,
      "তীক": 4642,
      "ধি": 4643,
      "নিক": 4644,
      "বহ": 4645,
      "বন্ধ": 4646,
      "লার": 4647,
      "১২": 4648,
      "৬]](./ভারত#cite_note-": 4649,
      "৮-": 4650,
      "▁৬": 4651,
      "▁৭": 4652,
      "▁या": 4653,
      "▁up": 4654,
      "▁\"জ": 4655,
      "teen": 4656,
      "tig": 4657,
      "्रम": 4658,
      "▁(`|": 4659,
      "▁संग": 4660,
      "chi": 4661,
      "▁मैदान": 4662,
      "atak": 4663,
      "etary": 4664,
      "▁अरब": 4665,
      "नाडु": 4666,
      "▁जल": 4667,
      "সাগর": 4668,
      "▁दर": 4669,
      "▁Delhi": 4670,
      "▁प्रति": 4671,
      "ভাবে": 4672,
      "ताब्": 4673,
      "epal": 4674,
      "▁2008": 4675,
      "स्त्र": 4676,
      "▁বিচার": 4677,
      "▁had": 4678,
      "पुरी": 4679,
      "170": 4680,
      "](./भारत#cite_ref-FOOTNOTE": 4681,
      "▁It": 4682,
      "ড়ি": 4683,
      "▁हैं,": 4684,
      "किम": 4685,
      "_suggest": 4686,
      "timesofindia": 4687,
      "▁সরকারি": 4688,
      "ultural": 4689,
      "rowth": 4690,
      "दीव": 4691,
      "▁इसके": 4692,
      "पालिका": 4693,
      "▁घाट": 4694,
      "সংখ্যা": 4695,
      "▁सिनेमा": 4696,
      "▁সঙ্গে": 4697,
      "▁northern": 4698,
      "বিত)": 4699,
      "▁([সাহায্য](./সাহায্য:উদ্ধৃতি_শৈলী_ত্রুটি#parameter_ignored_suggest": 4700,
      "िक्किम": 4701,
      "▁প্রস্তাবিত)": 4702,
      "?url=http://": 4703,
      "timesofindia.indiatimes.com/": 4704,
      "127": 4705,
      "Ar": 4706,
      "Uttar": 4707,
      "gress": 4708,
      "val": 4709,
      "arn": 4710,
      "▁par": 4711,
      "▁Ac": 4712,
      "▁St": 4713,
      "407": 4714,
      "ages/": 4715,
      "▁than": 4716,
      "national-": 4717,
      "-logo": 4718,
      "/D": 4719,
      "6)\n": 4720,
      "LA": 4721,
      "mong": 4722,
      "▁over": 4723,
      "](./O": 4724,
      "ery": 4725,
      "ched": 4726,
      "▁Modern": 4727,
      "▁Republic": 4728,
      "▁2015": 4729,
      ".com/news/": 4730,
      "▁BCE": 4731,
      "▁Economic": 4732,
      "▁2022": 4733,
      "-108": 4734,
      "▁end": 4735,
      "▁language\")\n": 4736,
      "▁[2](./India#cite_ref-": 4737,
      "ative": 4738,
      "▁[1](./India#cite_ref-": 4739,
      "▁2010](./India#CITEREF": 4740,
      "▁Act,": 4741,
      "ehru": 4742,
      ".world": 4743,
      "/article": 4744,
      "/files/": 4745,
      "300": 4746,
      "_V": 4747,
      "_10": 4748,
      "bank": 4749,
      "tle": 4750,
      "▁/": 4751,
      "onwe": 4752,
      "edi": 4753,
      "2016": 4754,
      "▁includ": 4755,
      "agar": 4756,
      "_Sh": 4757,
      "1997": 4758,
      "▁3,": 4759,
      "ternal": 4760,
      "profile": 4761,
      "ondon": 4762,
      "ociet": 4763,
      "earch/": 4764,
      "onwealth": 4765,
      "-S": 4766,
      "119": 4767,
      "93": 4768,
      "Con": 4769,
      "HA": 4770,
      "_[": 4771,
      "20)": 4772,
      "▁Centre": 4773,
      "▁Plate": 4774,
      "top": 4775,
      "-অ": 4776,
      ":EditPage/": 4777,
      "St": 4778,
      "Sharma": 4779,
      "_I": 4780,
      "_अ": 4781,
      "_প": 4782,
      "cent": 4783,
      "va": 4784,
      "गंगा": 4785,
      "मेर": 4786,
      "रण": 4787,
      "लिस": 4788,
      "वीं": 4789,
      "शक": 4790,
      "स](./": 4791,
      "सभा": 4792,
      "स्ट": 4793,
      "ा:": 4794,
      "ां": 4795,
      "ांध": 4796,
      "ोष": 4797,
      "কাল": 4798,
      "কূল": 4799,
      "টক": 4800,
      "দালত": 4801,
      "মূল": 4802,
      "রো": 4803,
      "ুদ্ধ": 4804,
      "েয়": 4805,
      "ం,": 4806,
      "ం\")\n": 4807,
      "కొ": 4808,
      "కాల": 4809,
      "కరణ": 4810,
      "ఖండ": 4811,
      "గం:": 4812,
      "టిక": 4813,
      "డే": 4814,
      "ద్య": 4815,
      "ద్రా": 4816,
      "మార్": 4817,
      "మాలయ": 4818,
      "లలో": 4819,
      "లకు": 4820,
      "ళ్": 4821,
      "హు": 4822,
      "ానికి": 4823,
      "ాళు": 4824,
      "ీర్": 4825,
      "▁ध": 4826,
      "▁land": 4827,
      "▁other": 4828,
      "▁యు": 4829,
      "▁శాస్త్ర": 4830,
      "](./V": 4831,
      "](./ন": 4832,
      "▁[s": 4833,
      "▁[భారతదేశ": 4834,
      "▁\"V": 4835,
      "▁\"ন": 4836,
      "▁\"বি": 4837,
      "▁\"వి": 4838,
      "▁\"हिन्द": 4839,
      "ार्त": 4840,
      "য়িকী": 4841,
      "theh": 4842,
      "▁app": 4843,
      "ాలో": 4844,
      "trol": 4845,
      "राठ": 4846,
      "loy": 4847,
      "స్వ": 4848,
      "స్లా": 4849,
      "র্ত": 4850,
      "▁sp": 4851,
      "▁పాల": 4852,
      "న్\")": 4853,
      "ర్\")": 4854,
      "0000": 4855,
      "▁కార": 4856,
      "▁కలి": 4857,
      "▁Minor": 4858,
      "ాలు?action=edit&redlink=1": 4859,
      "రిహ": 4860,
      "రికత": 4861,
      "క్నాల": 4862,
      "నిమా": 4863,
      "▁వం": 4864,
      "▁दृ": 4865,
      "▁दो": 4866,
      "▁উল্": 4867,
      "▁సంగీతం": 4868,
      "▁प्रमुख": 4869,
      "কাপ": 4870,
      "▁ব্য": 4871,
      "▁আন্দোলন": 4872,
      "▁वा": 4873,
      "–సా.శ.13": 4874,
      "▁అయ": 4875,
      "▁ప్రధాన": 4876,
      "ప్రదాయ": 4877,
      "থাইল": 4878,
      "প্টেম": 4879,
      "ద్వీ": 4880,
      "মাজ": 4881,
      "রিজার্": 4882,
      "▁ఉప": 4883,
      "▁\\(ভারত": 4884,
      "▁[South": 4885,
      "বিশ্ব": 4886,
      "▁రె": 4887,
      "uction": 4888,
      "lations": 4889,
      "▁लग": 4890,
      "▁इतिहास": 4891,
      "న్నడ": 4892,
      "हिमा": 4893,
      "िये": 4894,
      "▁रह": 4895,
      "under": 4896,
      "ంటు": 4897,
      "▁भाषाओं": 4898,
      "▁దేశంలో": 4899,
      "కాశ్మీ": 4900,
      "_summit": 4901,
      "_by": 4902,
      "▁జనాభా": 4903,
      "নির্": 4904,
      "ृत्य": 4905,
      "ంధు": 4906,
      "▁[আর্কাইভকৃত](https://web.archive.org/web/20": 4907,
      "ूनिव": 4908,
      "ద్ధం": 4909,
      "ద్ధి": 4910,
      "ాల్దీవులు": 4911,
      "చ్చే": 4912,
      "▁স্থা": 4913,
      "రాష్ట్రాలు": 4914,
      "সাময়িকী": 4915,
      "▁ত্রুটি\"))": 4916,
      "▁অন্যান্য": 4917,
      "దక్షిణ_": 4918,
      "▁కాంగ్రె": 4919,
      "▁सूची\")\n": 4920,
      "ूरो": 4921,
      "టెక్నాల": 4922,
      "హిమాలయ": 4923,
      "వర్గం:": 4924,
      "কেন্দ্রশাসিত": 4925,
      "▁లే": 4926,
      "త్తరా": 4927,
      "▁Indus": 4928,
      "_संघ": 4929,
      "నాగరికత": 4930,
      "উত্তর-": 4931,
      "▁সেপ্টেম": 4932,
      "క్కువ": 4933,
      "িয়ানমার": 4934,
      "క్‌సభ": 4935,
      "▁সংস্কৃতি": 4936,
      "▁युद्ध": 4937,
      "तेलु": 4938,
      "▁न्यायालय": 4939,
      "ెలుగు": 4940,
      "ategory:": 4941,
      "▁వచ్చింది.": 4942,
      "▁गणराज्य": 4943,
      "धिकारिक": 4944,
      "వాతంత్ర్య": 4945,
      "_ప్రాంత": 4946,
      "▁[पुरालेखित": 4947,
      "gramme": 4948,
      "▁अगस्त": 4949,
      "▁জুলাই": 4950,
      "সিন্ধু": 4951,
      "धानमंत्री": 4952,
      "ర్చ:": 4953,
      "ప్రత్యేక:EditPage/": 4954,
      "ংগ্রেস": 4955,
      "উইকি": 4956,
      "ాళుక్య": 4957,
      "ार्ता:": 4958,
      "থাইল্যান্ড": 4959,
      "রিজার্ভ": 4960,
      "టెక్నాలజీ": 4961,
      "వర్గం:Harv": 4962,
      "▁সেপ্টেম্বর": 4963,
      "ప్రత్యేక:EditPage/మూస:": 4964,
      "-29": 4965,
      "129": 4966,
      "9,": 4967,
      "ate_": 4968,
      "cord": 4969,
      "▁6.": 4970,
      "tex": 4971,
      "errit": 4972,
      "oup": 4973,
      "chool": 4974,
      "▁incre": 4975,
      "ely": 4976,
      "▁Fe": 4977,
      "anka": 4978,
      "meric": 4979,
      "Main": 4980,
      "[![": 4981,
      "_t": 4982,
      "lor": 4983,
      "press": 4984,
      "▁ci": 4985,
      "▁ind": 4986,
      "▁50": 4987,
      "rem": 4988,
      "cise": 4989,
      "astern": 4990,
      "▁such": 4991,
      "003": 4992,
      "▁li": 4993,
      "▁General": 4994,
      "174": 4995,
      "▁Official": 4996,
      "▁Press,": 4997,
      "erala": 4998,
      "-pro": 4999,
      "PPP": 5000,
      "catalog": 5001,
      "](https://doi.org/10.10": 5002,
      "gressive": 5003,
      "\"[[": 5004,
      "1-0": 5005,
      "B0%": 5006,
      "fic": 5007,
      "lan": 5008,
      "▁emp": 5009,
      "▁[V": 5010,
      "read": 5011,
      "omin": 5012,
      "▁(2018": 5013,
      "ivil": 5014,
      "los": 5015,
      "](https://archive.org/details/": 5016,
      "▁caste": 5017,
      "▁war": 5018,
      "▁R.": 5019,
      "Ins": 5020,
      "▁GDP": 5021,
      "▁2025": 5022,
      "▁general": 5023,
      "ogn": 5024,
      "bruary": 5025,
      "_and_": 5026,
      "▁\"Economy": 5027,
      "](./Economy": 5028,
      "▁estim": 5029,
      "ictionary": 5030,
      "onesia": 5031,
      "-of-": 5032,
      "7_": 5033,
      "pear": 5034,
      "wal": 5035,
      "▁ref": 5036,
      "omas": 5037,
      "ammu": 5038,
      "21)": 5039,
      "▁Tamil": 5040,
      "▁Bank": 5041,
      "▁British": 5042,
      "▁[\"A": 5043,
      "▁[\"H": 5044,
      "-3)": 5045,
      "-317": 5046,
      "ffice": 5047,
      "_%28orthographic_projection": 5048,
      "yanmar": 5049,
      "▁Assembly": 5050,
      "4/41/Flag_of_India": 5051,
      "_%28orthographic_projection%29": 5052,
      "-प": 5053,
      "75": 5054,
      "9-0)": 5055,
      "LO": 5056,
      "_ए": 5057,
      "_ic": 5058,
      "election": 5059,
      "ij": 5060,
      "rin": 5061,
      "rist": 5062,
      "ंका": 5063,
      "कट": 5064,
      "भो": 5065,
      "लंका": 5066,
      "हैद": 5067,
      "िला": 5068,
      "ूह": 5069,
      "्म": 5070,
      "চিত": 5071,
      "থম": 5072,
      "রব": 5073,
      "রকার": 5074,
      "লব": 5075,
      "শাল": 5076,
      "ষয়": 5077,
      "ুল": 5078,
      "৪]](./ভারত#cite_note-": 5079,
      "▁ट": 5080,
      "▁লা": 5081,
      "](./आ": 5082,
      "](./इ": 5083,
      "](./বি": 5084,
      "▁[ओ": 5085,
      "▁\"ओ": 5086,
      "ার্ব": 5087,
      "▁সম্": 5088,
      "राबाद": 5089,
      "-07": 5090,
      "▁south": 5091,
      "ाने": 5092,
      "र्ना": 5093,
      "স্ত্র": 5094,
      "▁अप्र": 5095,
      "26)": 5096,
      "ক্ষর": 5097,
      "ell": 5098,
      "▁नी": 5099,
      "al_in": 5100,
      "িলি": 5101,
      "▁संबंध": 5102,
      "प्रा": 5103,
      "त्तीस": 5104,
      "र्वो": 5105,
      "▁करने": 5106,
      "िरपे": 5107,
      "वायु": 5108,
      "▁[2](./ভারত#cite_ref-": 5109,
      "▁নিবন্ধ": 5110,
      "▁Chin": 5111,
      "▁[1](./ভারত#cite_ref-": 5112,
      "ीपी": 5113,
      "ভিন্ন": 5114,
      "▁मेला\")": 5115,
      "▁অন্য": 5116,
      "ঞ্জা": 5117,
      "▁हुए": 5118,
      "স্থান": 5119,
      "▁যুগ": 5120,
      "তমালা": 5121,
      "▁हिन्दी": 5122,
      "▁তালিকা\")\n": 5123,
      "▁कार्य": 5124,
      "भीम": 5125,
      "▁century": 5126,
      "▁[t](./": 5127,
      "▁भूम": 5128,
      "▁[v](./": 5129,
      "▁[e](./": 5130,
      "ymbols": 5131,
      "▁[हिन्दी](./": 5132,
      "▁উল্লেখ": 5133,
      "हैदराबाद": 5134,
      "र्नाटक": 5135,
      "िरपेक्ष": 5136,
      "1]](./India#cite_note-FOOTNOTE": 5137,
      "ES": 5138,
      "View": 5139,
      "ae": 5140,
      "equ": 5141,
      "map": 5142,
      "ps": 5143,
      "right": 5144,
      "yle": 5145,
      "ines": 5146,
      "itary": 5147,
      "them": 5148,
      "▁summit\")\n": 5149,
      "ecre": 5150,
      "▁wh": 5151,
      "▁BRICS": 5152,
      "s_in_India": 5153,
      "_Affair": 5154,
      "_South_Asia": 5155,
      "osp": 5156,
      "oi](./Doi_\\(identifier\\)": 5157,
      "Indonesia": 5158,
      "▁area": 5159,
      "india.gov.in/india-glance/": 5160,
      "62-2": 5161,
      "▁2021.\n": 5162,
      "05-8": 5163,
      "-107-111": 5164,
      "cyclopedia": 5165,
      "rganisation": 5166,
      "-19-8829": 5167,
      "▁[doi](./Doi_\\(identifier\\)": 5168,
      "ustralia": 5169,
      "-780": 5170,
      "erritory": 5171,
      "-107-11162-2": 5172,
      "-19-882905-8": 5173,
      "-C": 5174,
      "/index": 5175,
      "6–": 5176,
      "Library": 5177,
      "UCN": 5178,
      "ahar": 5179,
      "▁40": 5180,
      "ini": 5181,
      "chin": 5182,
      "▁million": 5183,
      "ung": 5184,
      "▁_[The": 5185,
      "MetcalfMetcalf2012": 5186,
      "IND": 5187,
      "athak": 5188,
      "▁later": 5189,
      "▁period": 5190,
      "-t": 5191,
      ".IN": 5192,
      "aus": 5193,
      "can": 5194,
      "▁ear": 5195,
      "▁since": 5196,
      "resent": 5197,
      ".gov.in": 5198,
      "e_M": 5199,
      "▁name": 5200,
      "library": 5201,
      "_Mah": 5202,
      "hasha": 5203,
      "formation": 5204,
      "▁(eds.": 5205,
      "WEO.IN": 5206,
      "IMFWEO.IN": 5207,
      ".పూ.": 5208,
      "Craven": 5209,
      "cture": 5210,
      "slam": 5211,
      "yayan": 5212,
      "ంతం": 5213,
      "ఆగ": 5214,
      "కళ": 5215,
      "ఖండ్": 5216,
      "గ్": 5217,
      "గిన": 5218,
      "గఢ్": 5219,
      "జో": 5220,
      "ట్ర": 5221,
      "తెలుగు": 5222,
      "పద": 5223,
      "భి": 5224,
      "మై": 5225,
      "మలు": 5226,
      "యో": 5227,
      "లక్ష": 5228,
      "వర": 5229,
      "శో": 5230,
      "షా": 5231,
      "హార్": 5232,
      "హాయ": 5233,
      "ాష్ట్ర": 5234,
      "ీహార్": 5235,
      "ుల": 5236,
      "ుల్": 5237,
      "ోత్స": 5238,
      "ౌర్య": 5239,
      "▁భ": 5240,
      "](./సి": 5241,
      "▁[m": 5242,
      "▁[వి": 5243,
      "▁\"హ": 5244,
      "▁\"ఢిల్లీ": 5245,
      "2021": 5246,
      "arge": 5247,
      "్రూ": 5248,
      "ooperation": 5249,
      "ాలా": 5250,
      "ాలలో": 5251,
      "adhy": 5252,
      "ర్ణా": 5253,
      "ర్మే": 5254,
      "▁Publishing": 5255,
      "లోక్‌సభ": 5256,
      "▁mi": 5257,
      "▁modern": 5258,
      "emal": 5259,
      "ంది.\n": 5260,
      "▁వే": 5261,
      "Inf": 5262,
      "ండర్": 5263,
      "al_P": 5264,
      "▁చి": 5265,
      "ubcontinent": 5266,
      "epart": 5267,
      "త్మా": 5268,
      "ికి": 5269,
      "▁From": 5270,
      "ద్దు": 5271,
      "osed": 5272,
      "మాచల్": 5273,
      "రువా": 5274,
      "రుణా": 5275,
      "▁సామ్రాజ్య": 5276,
      "▁రహదార": 5277,
      ".jpg/60px-": 5278,
      "న్నో": 5279,
      "మిజో": 5280,
      "▁Press](./": 5281,
      "▁ఇది": 5282,
      "itecture": 5283,
      "▁జరి": 5284,
      "induism": 5285,
      "▁సామ్రాజ్యం\")|": 5286,
      "ultan": 5287,
      "ట్టు": 5288,
      "కోవ": 5289,
      "ంగ్లీ": 5290,
      "వేద": 5291,
      "▁రాజకీయ": 5292,
      "హిమాచల్": 5293,
      "▁union": 5294,
      "హాత్మా": 5295,
      "ances": 5296,
      "హారాష్ట్ర": 5297,
      "రాజస్థాన్": 5298,
      "▁శతాబ్ద": 5299,
      "ainting": 5300,
      "▁వాతావరణ": 5301,
      "atsyayan": 5302,
      "దినోత్స": 5303,
      "బెంగాలీ": 5304,
      "యన్మార్": 5305,
      "▁ముఖ్య": 5306,
      "▁సంస్కృతి|": 5307,
      "olkata": 5308,
      "ంజాబ్": 5309,
      "▁వ్యాస": 5310,
      "Harle1994": 5311,
      "Wolpert2003": 5312,
      "గుజరాత్": 5313,
      "ఆఫ్ఘనిస్తాన్": 5314,
      "న్‌ఫర్మే": 5315,
      ".aspx?": 5316,
      "ricket": 5317,
      "రిహద్దు": 5318,
      "చ్చేరి": 5319,
      "▁February": 5320,
      "Craven1997": 5321,
      "ర్ణాటక": 5322,
      "epartment": 5323,
      "రుణాచల్": 5324,
      "న్‌ఫర్మేషన్": 5325,
      "/author": 5326,
      "NA": 5327,
      "_উ": 5328,
      "_এ": 5329,
      "_সাম্রাজ্য": 5330,
      "ai_": 5331,
      "ih": 5332,
      "ंह": 5333,
      "उप": 5334,
      "गल": 5335,
      "झार": 5336,
      "डिया": 5337,
      "तट": 5338,
      "निक": 5339,
      "पान": 5340,
      "मालय": 5341,
      "हन": 5342,
      "हरी": 5343,
      "िख": 5344,
      "िस्तान": 5345,
      "िहार": 5346,
      "জরা": 5347,
      "দ্রা": 5348,
      "নৈতিক": 5349,
      "বৈ": 5350,
      "রপে": 5351,
      "লিত": 5352,
      "৫৬": 5353,
      "৯৮": 5354,
      "▁ऑ": 5355,
      "▁দ্": 5356,
      "▁राष्ट्र": 5357,
      "▁লেখ": 5358,
      "](./টেমপ্লেট:বই": 5359,
      "▁[4": 5360,
      "▁[च": 5361,
      "▁[বি": 5362,
      "▁[সং": 5363,
      "▁\"টেমপ্লেট:বই": 5364,
      "reat": 5365,
      "▁कुल": 5366,
      "भारतीय": 5367,
      "▁सी": 5368,
      "▁sur": 5369,
      "▁11": 5370,
      "▁केन्द्र": 5371,
      "र्ष": 5372,
      "▁ही": 5373,
      "▁होत": 5374,
      "**জাতীয়": 5375,
      "▁who": 5376,
      "▁है।[[": 5377,
      "▁देख": 5378,
      "ियां": 5379,
      "▁बन": 5380,
      "▁बा": 5381,
      "28)": 5382,
      "▁नद": 5383,
      "▁नहीं": 5384,
      "▁से](http://www.": 5385,
      "▁নে": 5386,
      "▁জয়": 5387,
      "▁হার": 5388,
      "ন্দা": 5389,
      "▁সংস্থা": 5390,
      "▁শক্তি": 5391,
      "पुरा": 5392,
      "स्ला": 5393,
      "1990": 5394,
      "▁reg": 5395,
      "▁उद्यान": 5396,
      "▁১১": 5397,
      "▁शताब्": 5398,
      "▁लेख": 5399,
      "▁रहा": 5400,
      "পিডিয়া": 5401,
      "▁২০১৯": 5402,
      "▁উদ্ধৃতি](./টেমপ্লেট:বই": 5403,
      "विशेष:EditPage/": 5404,
      "llchin": 5405,
      "▁জন্য": 5406,
      "▁করে।": 5407,
      "▁1998": 5408,
      "▁চলচ্চিত্র": 5409,
      "▁मेला](./": 5410,
      "▁Environment": 5411,
      "_সম্পর্ক": 5412,
      "श्चिमी": 5413,
      "ন্নয়ন": 5414,
      "▁কেন্দ্রশাসিত": 5415,
      "▁प्राप्त": 5416,
      "ণিজ্য": 5417,
      "▁সঙ্গীত": 5418,
      "▁स्रोत/978-0": 5419,
      "▁स्रोत/978-1": 5420,
      "](./विशेष:पुस्तक_स्रोत/978-0": 5421,
      "](./विशेष:पुस्तक_स्रोत/978-1": 5422,
      "रक्षा": 5423,
      "-lead": 5424,
      "ministr": 5425,
      "▁चुनाव": 5426,
      "দারীকরণ": 5427,
      "ভৌম": 5428,
      "webcitation.org/6": 5429,
      "रेलू": 5430,
      "ociety": 5431,
      "▁স্থাপ": 5432,
      "▁ত্রুটি\"));": 5433,
      "ার্বভৌম": 5434,
      "र्वोच्च": 5435,
      "রপেক্ষ": 5436,
      "▁উদ্ধৃতি](./টেমপ্লেট:বই_উদ্ধৃতি": 5437,
      "विशेष:EditPage/साँचा:": 5438,
      "\"](https://web.archive.org/web/200": 5439,
      "82": 5440,
      "Home": 5441,
      "country": 5442,
      "sch": 5443,
      "–10": 5444,
      "2013": 5445,
      "lated": 5446,
      "▁12": 5447,
      "▁Ar": 5448,
      "▁States": 5449,
      "▁Mon": 5450,
      "308": 5451,
      "▁number": 5452,
      "_March_": 5453,
      "own": 5454,
      "ankar": 5455,
      "▁right": 5456,
      "ependent": 5457,
      "ependence": 5458,
      "rishn": 5459,
      "Taj_Mah": 5460,
      "al_in_March_": 5461,
      "Taj_Mahal_in_March_": 5462,
      "Taj_Mahal_in_March_2004": 5463,
      "124": 5464,
      "Ag": 5465,
      "Bharat": 5466,
      "DD": 5467,
      "Ministry_of_": 5468,
      "PK:": 5469,
      "_0": 5470,
      "ning": 5471,
      "vatsyayan": 5472,
      "▁[India": 5473,
      "▁\"[": 5474,
      "▁\"United": 5475,
      "tition": 5476,
      "ominal": 5477,
      "1960": 5478,
      "1970": 5479,
      "ada": 5480,
      "▁Pp.": 5481,
      "ISO": 5482,
      "ovember": 5483,
      "▁total": 5484,
      "](./South_Asia": 5485,
      "tud": 5486,
      "22)": 5487,
      "occ": 5488,
      "_BRICS": 5489,
      "▁\"Template": 5490,
      "-lord": 5491,
      "MetcalfMetcalf2006),": 5492,
      "▁status": 5493,
      "▁territory": 5494,
      "apita": 5495,
      "ion_territ": 5496,
      "vatsyayan-lord": 5497,
      "3TR": 5498,
      "577": 5499,
      "Ludden": 5500,
      "_Ch": 5501,
      "aul": 5502,
      "▁ro": 5503,
      "than": 5504,
      "ould": 5505,
      "as,": 5506,
      "lec": 5507,
      "▁some": 5508,
      "irst": 5509,
      "hai": 5510,
      "▁long": 5511,
      "▁Wik": 5512,
      "oreign": 5513,
      "ots": 5514,
      "▁4.": 5515,
      "mblem": 5516,
      "teenth": 5517,
      "3TRt": 5518,
      "63": 5519,
      "IB": 5520,
      "OOj": 5521,
      "a)": 5522,
      "aut": 5523,
      "bb": 5524,
      "ey": 5525,
      "fgh": 5526,
      "languages": 5527,
      "ris": 5528,
      "▁ev": 5529,
      "aries": 5530,
      "enn": 5531,
      "tr-pro": 5532,
      "adi": 5533,
      "▁S.": 5534,
      "onservation": 5535,
      "edit-l": 5536,
      "raj": 5537,
      "s_UI": 5538,
      "avy": 5539,
      "ugh": 5540,
      "▁China": 5541,
      "/pdf": 5542,
      "umbers": 5543,
      "on_edit-l": 5544,
      "_icon_edit-l": 5545,
      "OOjs_UI": 5546,
      "fghan": 5547,
      "tr-progressive": 5548,
      "_icon_edit-ltr-progressive": 5549,
      "OOjs_UI_icon_edit-ltr-progressive": 5550,
      "-विज्ञान": 5551,
      "0/0": 5552,
      "C).": 5553,
      "MID": 5554,
      "SN": 5555,
      "_आ": 5556,
      "_देश": 5557,
      "_যু": 5558,
      "her": 5559,
      "ker": 5560,
      "ting": 5561,
      "ua": 5562,
      "uthor": 5563,
      "ंच": 5564,
      "ईरा": 5565,
      "छत्तीस": 5566,
      "जम्मू": 5567,
      "त्व": 5568,
      "द्वीप": 5569,
      "फल": 5570,
      "फ्रीका": 5571,
      "बैक": 5572,
      "लग": 5573,
      "लयाल": 5574,
      "स\")": 5575,
      "सून": 5576,
      "ाय": 5577,
      "िंध": 5578,
      "ीच": 5579,
      "१९": 5580,
      "ওয়": 5581,
      "খ্রি": 5582,
      "নো": 5583,
      "নিয়ন": 5584,
      "বঙ্গ": 5585,
      "লকা": 5586,
      "লবায়ু": 5587,
      "েণী": 5588,
      "১৩": 5589,
      "২]](./ভারত#cite_note-": 5590,
      "৮]](./ভারত#cite_note-": 5591,
      "▁রা": 5592,
      "](./I": 5593,
      "](./ओ": 5594,
      "](./च": 5595,
      "](./জ": 5596,
      "](./United": 5597,
      "▁[চ": 5598,
      "▁[সা": 5599,
      "▁[United": 5600,
      "▁[৯৭": 5601,
      "▁\"च": 5602,
      "▁\"ल": 5603,
      "ারমাণ": 5604,
      "2025": 5605,
      "aranth": 5606,
      "arria": 5607,
      "▁कई": 5608,
      "▁कश्मीर": 5609,
      "▁सद": 5610,
      "▁सैन": 5611,
      "▁they": 5612,
      "](./भारत_का_": 5613,
      "▁Pers": 5614,
      "urre": 5615,
      "ালি": 5616,
      "▁mathematic": 5617,
      "वित": 5618,
      "india.com/": 5619,
      "▁def": 5620,
      "▁উত্তর": 5621,
      "▁তার": 5622,
      "▁बीच": 5623,
      "▁से](http://": 5624,
      "▁বছ": 5625,
      "তান্ত্র": 5626,
      "ताज": 5627,
      "▁আয়": 5628,
      "ন্দো": 5629,
      "_Ass": 5630,
      "क्षा": 5631,
      "न्दिर": 5632,
      "▁आधिकारिक": 5633,
      "প্রজাতন্ত্র": 5634,
      "▁দেখ": 5635,
      "▁London": 5636,
      "स्थ": 5637,
      "▁गु": 5638,
      "_\\(শনাক্তকারী": 5639,
      "_\\(India\\)": 5640,
      "মাই": 5641,
      "▁उत्पाद": 5642,
      "ाद्वीप": 5643,
      "▁\\(শনাক্তকারী": 5644,
      "_मंदिर": 5645,
      "▁संस्कृति": 5646,
      "▁इन": 5647,
      "owland": 5648,
      "िस्ट": 5649,
      "গুজরা": 5650,
      "পাঞ্জা": 5651,
      "▁original](https://www.": 5652,
      "▁ভাষায়": 5653,
      "▁करोड़": 5654,
      "74-108": 5655,
      "▁अनु": 5656,
      "%E0%A6%9": 5657,
      "ওয়েব_উদ্ধৃতি": 5658,
      "केर": 5659,
      "▁[अंग्रेज़": 5660,
      "▁ফে": 5661,
      "▁ফুটবল": 5662,
      "▁जनगणना": 5663,
      "▁\"National": 5664,
      "](./National_": 5665,
      "সামরিক": 5666,
      "▁राजनी": 5667,
      "▁\"पंजाब": 5668,
      "र्थव्यवस्था": 5669,
      "मुख्य": 5670,
      "ায়ী": 5671,
      "करण": 5672,
      "▁[पंजाब": 5673,
      "পূর্": 5674,
      "▁`{{[বই": 5675,
      "गणराज्य": 5676,
      "ক্রয়": 5677,
      "▁2021.": 5678,
      "▁2019.": 5679,
      "▁होता": 5680,
      "ब्ब": 5681,
      "▁\"টেমপ্লেট:ওয়েব": 5682,
      "▁जिसमें": 5683,
      "শ্চিমবঙ্গ": 5684,
      "ণিপুর": 5685,
      "▁সামরিক": 5686,
      "▁कारण": 5687,
      "ोर्ड": 5688,
      "_मेला?action=edit&redlink=1": 5689,
      "▁2018](./India#CITEREF": 5690,
      "गोआ": 5691,
      "uddhism": 5692,
      "श्रीलंका": 5693,
      "ানুয়ারি": 5694,
      "%E0%A7%87": 5695,
      "वेबैक": 5696,
      "সংস্কৃত": 5697,
      "▁উদ্ধৃতি](./টেমপ্লেট:ওয়েব_উদ্ধৃতি": 5698,
      "লোকসভা": 5699,
      "মহাদেশ": 5700,
      "र्सिट": 5701,
      "हिमाचल": 5702,
      "ूनिवर्सिट": 5703,
      "-78074-108": 5704,
      "▁[৯৭৮-": 5705,
      "ারমাণবিক": 5706,
      "তান্ত্রিক": 5707,
      "_\\(শনাক্তকারী\\)": 5708,
      "▁[अंग्रेज़ी](./अ": 5709,
      "-78074-108-6": 5710,
      "/link": 5711,
      "Search/": 5712,
      "_re": 5713,
      "ner": 5714,
      "t,": 5715,
      "▁7.": 5716,
      "▁5.": 5717,
      "▁\"India": 5718,
      "iam": 5719,
      "reed": 5720,
      "estic": 5721,
      "isc": 5722,
      "images/": 5723,
      "red/link": 5724,
      "pecial:Search/": 5725,
      "▁3.": 5726,
      "asty": 5727,
      "ingham": 5728,
      "▁14.": 5729,
      "ynasty": 5730,
      "shared/link": 5731,
      "nclm.nic.in/shared/link": 5732,
      "nclm.nic.in/shared/linkimages/": 5733,
      "122": 5734,
      "_13": 5735,
      "kar": 5736,
      "vel": 5737,
      "▁[978": 5738,
      "aldiv": 5739,
      "#cite_ref-10": 5740,
      "#cite_note-10": 5741,
      "rain": 5742,
      "▁M.": 5743,
      "rief": 5744,
      "ization": 5745,
      "▁dispu": 5746,
      "▁Affairs": 5747,
      "fghanistan": 5748,
      "aldives": 5749,
      "/g": 5750,
      "1200": 5751,
      "2]](./India#cite_note-FOOTNOTE": 5752,
      "83": 5753,
      "Dikshit": 5754,
      "European": 5755,
      "Republic": 5756,
      "Schwartzberg": 5757,
      "garh": 5758,
      "han": 5759,
      "nominal": 5760,
      "oa": 5761,
      "ue_": 5762,
      "ym": 5763,
      "ంతి": 5764,
      "కారం": 5765,
      "ఖ్": 5766,
      "గర్": 5767,
      "గంగా": 5768,
      "టో": 5769,
      "డిన": 5770,
      "తీ": 5771,
      "ధి": 5772,
      "ధించ": 5773,
      "నల్": 5774,
      "నులు": 5775,
      "మన": 5776,
      "మర": 5777,
      "ర్యా": 5778,
      "లం": 5779,
      "లతో": 5780,
      "లమె": 5781,
      "శ్ర": 5782,
      "ీస్": 5783,
      "ూప": 5784,
      "ూరు": 5785,
      "ెనీ": 5786,
      "ౌక": 5787,
      "▁శా": 5788,
      "▁హిందూ": 5789,
      "▁industry": 5790,
      "▁గాంధీ": 5791,
      "▁Qu": 5792,
      "▁[భారతదేశం": 5793,
      "▁[ఢిల్లీ": 5794,
      "208": 5795,
      "arna": 5796,
      "ani": 5797,
      "anag": 5798,
      "edu": 5799,
      "the-": 5800,
      "▁among": 5801,
      "ారస": 5802,
      "ాలను": 5803,
      "adwe": 5804,
      "▁people": 5805,
      "స్](./": 5806,
      "▁పెద్ద": 5807,
      "▁Schwartzberg": 5808,
      "▁CE": 5809,
      "ర్లు": 5810,
      "00–సా.శ.పూ.": 5811,
      "ha2014": 5812,
      "▁large": 5813,
      "ayback": 5814,
      "త్తం": 5815,
      "▁అతి": 5816,
      "▁అనే": 5817,
      "▁ప్రజ": 5818,
      "ంచి": 5819,
      "▁John": 5820,
      "_in_New": 5821,
      "▁ఆఫ్": 5822,
      "▁సాం": 5823,
      "ast_Asia": 5824,
      "ార్లమె": 5825,
      "కిస్థాన్": 5826,
      "▁నే": 5827,
      "▁నగర": 5828,
      "-19-9": 5829,
      "ాయి.": 5830,
      "▁rule": 5831,
      "▁original](https://": 5832,
      "2006),": 5833,
      "టిబె": 5834,
      "్రీ.పూ.": 5835,
      "▁విస్త": 5836,
      "▁చరిత్ర\n": 5837,
      "achine": 5838,
      "ండియా": 5839,
      "▁ఎక్కువ": 5840,
      "▁ఎన్నో": 5841,
      "_సం": 5842,
      "ారు.\n": 5843,
      "▁2,": 5844,
      "టుంబ": 5845,
      "▁భారత్": 5846,
      "బాద్": 5847,
      "▁మొత్తం": 5848,
      "rdu": 5849,
      "ంపెనీ": 5850,
      "local_": 5851,
      "హ్మ": 5852,
      "ront": 5853,
      "▁ఏర్": 5854,
      "pecial:BookSources/978-81": 5855,
      "్రిటిషు": 5856,
      "కేంద్రపాలిత_ప్రాంత": 5857,
      "EXT": 5858,
      "emocr": 5859,
      "▁అత్యధిక": 5860,
      "akshadwe": 5861,
      "ీర్ణ": 5862,
      "దక్షిణ_ఆసియా": 5863,
      "](./Economy_of_": 5864,
      "▁(eds.).": 5865,
      "DikshitSchwartzberg": 5866,
      "_in_New_Delhi": 5867,
      "akshadweep": 5868,
      "DikshitSchwartzberg2023": 5869,
      "-r": 5870,
      "Census": 5871,
      "yas": 5872,
      "▁under": 5873,
      "▁[19": 5874,
      "tered": 5875,
      "tice": 5876,
      "anor": 5877,
      "▁ins": 5878,
      "▁str": 5879,
      "uss": 5880,
      "▁Science": 5881,
      "_of_C": 5882,
      "urton": 5883,
      "▁me": 5884,
      "▁major": 5885,
      "25)": 5886,
      "▁1960": 5887,
      "▁Linguistic": 5888,
      "_Development": 5889,
      "prov": 5890,
      "▁Val": 5891,
      "gric": 5892,
      "▁Chand": 5893,
      "olitical_": 5894,
      "arnatak": 5895,
      "3TRtDwAAQBAJ&pg=PA": 5896,
      "-230": 5897,
      "1)\n": 5898,
      "42": 5899,
      "IL": 5900,
      "_24": 5901,
      "bhasha": 5902,
      "d/": 5903,
      "dd": 5904,
      "public": 5905,
      "s18": 5906,
      "vi": 5907,
      "पि": 5908,
      "भ्यता": 5909,
      "मर": 5910,
      "मो": 5911,
      "यर": 5912,
      "लों": 5913,
      "शा": 5914,
      "िम": 5915,
      "ीगढ़": 5916,
      "ुंबई": 5917,
      "ॉक": 5918,
      "्ले": 5919,
      "ঘল": 5920,
      "জয়": 5921,
      "ফ্র": 5922,
      "যায়ী": 5923,
      "ল\")": 5924,
      "শক্তি": 5925,
      "সূ": 5926,
      "সলা": 5927,
      "াক": 5928,
      "াড়া": 5929,
      "ুঘল": 5930,
      "েন": 5931,
      "ৈন": 5932,
      "০.": 5933,
      "১৫": 5934,
      "৫০": 5935,
      "▁ओ": 5936,
      "▁web": 5937,
      "▁থা": 5938,
      "▁দ্বীপ": 5939,
      "▁term": 5940,
      "](./द": 5941,
      "](./ल": 5942,
      "▁[सा": 5943,
      "▁[ওয়েব্যাক": 5944,
      "▁\"ग": 5945,
      "▁\"साँचा:": 5946,
      "▁\"ওয়েব্যাক": 5947,
      "tis": 5948,
      "ors": 5949,
      "▁कु": 5950,
      "▁सूचना": 5951,
      "▁महासागर": 5952,
      "▁সহ": 5953,
      "▁সু": 5954,
      "-06": 5955,
      "▁पर्वत": 5956,
      "বিদ্য": 5957,
      "▁পাত": 5958,
      "ानव": 5959,
      "र्ज": 5960,
      "▁country": 5961,
      "স্বাধীনতা": 5962,
      "213": 5963,
      "▁মান": 5964,
      "▁जी": 5965,
      "▁Research": 5966,
      "ालदीव": 5967,
      "▁दशक": 5968,
      "ेशन": 5969,
      "ेशिया": 5970,
      "▁প্রজাতন্ত্র": 5971,
      "▁প্রথম": 5972,
      "50)": 5973,
      "য়েত": 5974,
      ")।\n": 5975,
      "▁2005": 5976,
      "क्षर": 5977,
      "▁সংবিধান": 5978,
      "▁শি": 5979,
      "षाण": 5980,
      "▁দক্ষিণ": 5981,
      "▁पर्यटन": 5982,
      "▁शक्ति": 5983,
      "▁शिक्षा": 5984,
      "166": 5985,
      "काश": 5986,
      "▁[Asher": 5987,
      "ড়ে": 5988,
      "ंडीगढ़": 5989,
      "ssam": 5990,
      "সিটি": 5991,
      "▁সাহিত্য": 5992,
      "▁क्षेत्रीय": 5993,
      "▁গঠ": 5994,
      "▁पुरा": 5995,
      "▁[আর্কাইভকৃত](https://web.archive.org/web/": 5996,
      "▁[আর্কাইভকৃত](https://www.": 5997,
      "▁ফলে": 5998,
      "जनसंख्या": 5999,
      "ন্ধী": 6000,
      "▁जनसंख्या": 6001,
      "ম্পানি": 6002,
      "▁वर्ग": 6003,
      "▁সময়": 6004,
      "▁দেশের": 6005,
      "চিত্র্য": 6006,
      "]](./भारत#cite_note-FOOTNOTEStein1998": 6007,
      "]](./भारत#cite_note-FOOTNOTESingh2009": 6008,
      "_মেশিন": 6009,
      "শ্রেণী": 6010,
      "ওয়েব্যাক_মেশিন": 6011,
      "সংখ্যান": 6012,
      "▁হিন্দ": 6013,
      "तमिलनाडु": 6014,
      "-with": 6015,
      "iodiversity": 6016,
      "▁মেশিন\")": 6017,
      "▁মেশিনে](./": 6018,
      "▁स्थित": 6019,
      "▁সম্পর্ক\")\n": 6020,
      "त्तराखण्ड": 6021,
      "?url=http://www.": 6022,
      "▁[पुरालेखित](https://web.archive.org/web/201": 6023,
      "▁अप्रैल": 6024,
      "▁शताब्दी": 6025,
      "▁लेख:": 6026,
      "webcitation.org/6174": 6027,
      "ক্রয়ক্ষমতা": 6028,
      "সলাম": 6029,
      "▁মেশিনে](./ওয়েব্যাক_মেশিন": 6030,
      "-India": 6031,
      "-30": 6032,
      "1-4": 6033,
      "Empire": 6034,
      "Emblem": 6035,
      "Spear": 6036,
      "ao": 6037,
      "had": 6038,
      "ple": 6039,
      "via": 6040,
      "ved": 6041,
      "yer": 6042,
      "yam": 6043,
      "▁x": 6044,
      "▁economic": 6045,
      "▁\"Indo-": 6046,
      "ality": 6047,
      "cis": 6048,
      "▁Arab": 6049,
      "▁Africa": 6050,
      "▁State": 6051,
      "▁C.": 6052,
      "214": 6053,
      "217": 6054,
      "▁many": 6055,
      "▁Raj": 6056,
      "_Summit": 6057,
      "22-9": 6058,
      "384": 6059,
      "ountries/": 6060,
      "i_language": 6061,
      "atis": 6062,
      "arket": 6063,
      "ineering": 6064,
      "▁[Dikshit": 6065,
      "▁[National": 6066,
      "arendra": 6067,
      "▁add": 6068,
      "olden": 6069,
      "▁\\(identifier\\)\"):[10.10": 6070,
      "_Affairs_": 6071,
      "Home_Affairs_": 6072,
      "ast_Asia_Summit": 6073,
      "Emblem_of_India": 6074,
      "&d": 6075,
      "125": 6076,
      "123": 6077,
      "C-0": 6078,
      "NGDP": 6079,
      "QAAQBAJ&pg=PA": 6080,
      "_2": 6081,
      "cbi": 6082,
      "ix": 6083,
      "ihar": 6084,
      "kh": 6085,
      "ling": 6086,
      "owe": 6087,
      "os/": 6088,
      "uin": 6089,
      "ze": 6090,
      "▁occ": 6091,
      "oral": 6092,
      "▁India_](https://books.google.com/books?id=": 6093,
      "ists": 6094,
      "▁found": 6095,
      "upta": 6096,
      "▁Minister": 6097,
      "▁Rev": 6098,
      "rop": 6099,
      ".wikipedia": 6100,
      "▁J.": 6101,
      "▁Fund": 6102,
      ".nlm": 6103,
      ".nih": 6104,
      "77.": 6105,
      "onstitutional": 6106,
      "_Lanka": 6107,
      "▁\"Official": 6108,
      "▁rate": 6109,
      "cbi.nlm": 6110,
      "cbi.nlm.nih": 6111,
      "\"](https://books.google.com/books?id=": 6112,
      "219": 6113,
      "JI": 6114,
      "Raj": 6115,
      "South": 6116,
      "_for": 6117,
      "af": 6118,
      "aci": 6119,
      "io": 6120,
      "lé": 6121,
      "tb": 6122,
      "ase_": 6123,
      "lock": 6124,
      "inger": 6125,
      "urn": 6126,
      "mentin-": 6127,
      "ternational": 6128,
      "1):": 6129,
      "-population": 6130,
      "rown": 6131,
      "▁used": 6132,
      "Aryan": 6133,
      "lémentin-": 6134,
      "lémentin-Oj": 6135,
      "6]](./India#cite_note-": 6136,
      "96": 6137,
      "TO": 6138,
      "utra": 6139,
      "west": 6140,
      "–4": 6141,
      "▁out": 6142,
      "▁article": 6143,
      "](./Indo-": 6144,
      "▁\"Oxford": 6145,
      "ederal": 6146,
      "▁India\").": 6147,
      "trod": 6148,
      "ikk": 6149,
      "▁social": 6150,
      "umeration": 6151,
      "urch": 6152,
      "ility": 6153,
      "overe": 6154,
      "ango": 6155,
      "olution": 6156,
      "▁minister": 6157,
      "▁dec": 6158,
      "▁diff": 6159,
      "tical": 6160,
      "ulti": 6161,
      "ers,": 6162,
      "▁B.": 6163,
      "elang": 6164,
      "▁[\"N": 6165,
      "▁Nadu": 6166,
      "pecial:EditPage/": 6167,
      "▁high": 6168,
      "apan": 6169,
      "ext": 6170,
      "ainism": 6171,
      "ligence": 6172,
      "▁9.": 6173,
      "▁2019.\n": 6174,
      "▁edition": 6175,
      "International_": 6176,
      "telligence": 6177,
      "usiness/": 6178,
      "Spear1990": 6179,
      "pecial:EditPage/Template": 6180,
      "-n": 6181,
      "2–": 6182,
      "540": 6183,
      "D%E0%A6%B": 6184,
      "MC": 6185,
      "UT": 6186,
      "_उ": 6187,
      "_राज": 6188,
      "_17": 6189,
      "aha": 6190,
      "fer": 6191,
      "oast": 6192,
      "rim": 6193,
      "गत": 6194,
      "गू": 6195,
      "तृत": 6196,
      "पूर्": 6197,
      "बी": 6198,
      "वल": 6199,
      "श्य": 6200,
      "षय": 6201,
      "हरा": 6202,
      "हित": 6203,
      "िनेमा": 6204,
      "ृद्ध": 6205,
      "ेघ": 6206,
      "१८": 6207,
      "আর": 6208,
      "এল": 6209,
      "ঐতি": 6210,
      "ক্রা": 6211,
      "খণ্ড": 6212,
      "ডার": 6213,
      "ত্ব": 6214,
      "থান": 6215,
      "নু": 6216,
      "র_": 6217,
      "হ্য": 6218,
      "িতা": 6219,
      "ীমা": 6220,
      "োষ": 6221,
      "্সিটি": 6222,
      "৩]](./ভারত#cite_note-": 6223,
      "৭]](./ভারত#cite_note-": 6224,
      "▁·": 6225,
      "▁হা": 6226,
      "▁ক্ষেত্র": 6227,
      "▁[Oxford": 6228,
      "\")।\n": 6229,
      "aria": 6230,
      "ভার্সিটি": 6231,
      "ভারতের": 6232,
      "भारत\\)": 6233,
      "▁सक": 6234,
      "्यों": 6235,
      "▁সি": 6236,
      "](https://bn": 6237,
      "uran": 6238,
      "ালদ্বীপ": 6239,
      "▁अव": 6240,
      "▁অর্থনীতি": 6241,
      "▁মন্ত্র": 6242,
      "▁কংগ্রেস": 6243,
      "▁दि": 6244,
      "▁উৎ": 6245,
      "▁Bengal": 6246,
      "road": 6247,
      "▁प्रेस": 6248,
      "▁प्रौद्योगिक": 6249,
      "्वतंत्रता": 6250,
      "hap": 6251,
      "▁জানুয়ারি": 6252,
      "▁আইন": 6253,
      "▁আন্তর্জাতিক": 6254,
      "▁আদালত": 6255,
      "▁বিস্ত": 6256,
      "▁সংরক্ষণ": 6257,
      "▁history": 6258,
      "▁দশ": 6259,
      "▁দু": 6260,
      "▁report": 6261,
      "প্লব": 6262,
      "▁उन": 6263,
      "রেখ": 6264,
      "▁शु": 6265,
      "▁संसद": 6266,
      "ucation": 6267,
      "▁लोग": 6268,
      "▁लोक": 6269,
      "ियार": 6270,
      "▁Informatic": 6271,
      "ডিও": 6272,
      "ডিপি": 6273,
      "দেশিক": 6274,
      "▁राज्य\")\n": 6275,
      "हाय": 6276,
      "বেঙ্গ": 6277,
      "বেক্ষণ": 6278,
      "परमाणु": 6279,
      "ত্ত্ব": 6280,
      "ोलन": 6281,
      "ুরো": 6282,
      "নিভার্সিটি": 6283,
      "=`-এ": 6284,
      "ेली": 6285,
      "▁प्रदेश\")": 6286,
      "▁जाती": 6287,
      "▁`|access": 6288,
      "▁যদি": 6289,
      "▁राजवंश": 6290,
      "▁১৯৯": 6291,
      "ध्यम": 6292,
      "▁स्था": 6293,
      "স্থিত": 6294,
      "ज्ज": 6295,
      "▁খেলা": 6296,
      "▁পরী": 6297,
      "▁পরমাণু": 6298,
      "▁`{{[citation": 6299,
      "পুঞ্জ": 6300,
      "যোগ্য": 6301,
      "](./টেমপ্লেট:Citation": 6302,
      "▁\"টেমপ্লেট:Citation": 6303,
      "▁प्राचीन": 6304,
      "▁था।": 6305,
      "_ব্যবস্থা": 6306,
      "প্রাচীন": 6307,
      "ांग्लादेश": 6308,
      "্রুপ": 6309,
      "▁কাপ": 6310,
      "▁প্রাচীন": 6311,
      "▁নির্বা": 6312,
      "महाद्वीप": 6313,
      "▁পর্বতমালা": 6314,
      "▁(পিডিএফ)।": 6315,
      "▁पहले": 6316,
      "▁শাস": 6317,
      "বহন": 6318,
      "▁Minorities": 6319,
      "উত্তর-পূর্ব": 6320,
      "▁[हिन्दी](./हिन्दी": 6321,
      "▁লেখা": 6322,
      "ন্দামান": 6323,
      "▁चुनावों": 6324,
      "লকাতা": 6325,
      "▁सैन्य": 6326,
      "▁বছর": 6327,
      "reedom": 6328,
      "ঐতিহ্য": 6329,
      "▁Informatics": 6330,
      "▁`{{[citation](./টেমপ্লেট:Citation": 6331,
      "▁\"টেমপ্লেট:Citation\")}}`:": 6332,
      "2nd": 6333,
      "313": 6334,
      "Bh": 6335,
      "Ethnologue": 6336,
      "S1": 6337,
      "dia": 6338,
      "government": 6339,
      "tw": 6340,
      "way": 6341,
      "law": 6342,
      "tra_": 6343,
      "](https://id": 6344,
      "FOOTNOTENational_Informatics_Centre2005": 6345,
      "▁des": 6346,
      "ull": 6347,
      "▁David": 6348,
      "aglia": 6349,
      "▁Languages": 6350,
      "abha": 6351,
      "27)": 6352,
      "▁Regis": 6353,
      "%20A": 6354,
      "/population": 6355,
      "5/5": 6356,
      "arliamentary": 6357,
      "](https://doi.org/10.": 6358,
      "etraglia": 6359,
      "ollege": 6360,
      "▁York:": 6361,
      "Report.pdf)": 6362,
      "▁Registrar": 6363,
      "(సా.శ.": 6364,
      "3]](./India#cite_note-FOOTNOTE": 6365,
      "_9": 6366,
      "_జాబితా": 6367,
      "bu": 6368,
      "m2": 6369,
      "xchange": 6370,
      "ఆంధ": 6371,
      "కీ": 6372,
      "డో": 6373,
      "తే": 6374,
      "థి": 6375,
      "నె": 6376,
      "పించ": 6377,
      "ఫై": 6378,
      "బడ్డ": 6379,
      "భర": 6380,
      "మహ": 6381,
      "రంగ": 6382,
      "లయా": 6383,
      "శీ": 6384,
      "షనల్": 6385,
      "స్య": 6386,
      "హర్": 6387,
      "ాం": 6388,
      "ృద్ధి": 6389,
      "ెంగ": 6390,
      "ేర": 6391,
      "▁దక్షిణ": 6392,
      "▁దా": 6393,
      "▁నాగరికత": 6394,
      "▁టెక్నాలజీ": 6395,
      "](./ఢిల్లీ": 6396,
      "reme": 6397,
      "erg": 6398,
      "alli": 6399,
      "enna": 6400,
      "estiv": 6401,
      "్రప్రదేశ్": 6402,
      "▁there": 6403,
      "icha": 6404,
      "asing": 6405,
      "▁power": 6406,
      "దేశం": 6407,
      "దేశాల": 6408,
      "imal": 6409,
      "▁SAARC": 6410,
      "urban": 6411,
      "ISSN": 6412,
      "ovision": 6413,
      "▁both": 6414,
      "లు?action=edit&redlink=1": 6415,
      "రాఠ": 6416,
      "▁కి": 6417,
      "▁కో": 6418,
      "క్టో": 6419,
      "ంది": 6420,
      "నియా": 6421,
      "▁వర్": 6422,
      "▁వారస": 6423,
      "ల్వే": 6424,
      "▁సరిహద్దు": 6425,
      "▁మన": 6426,
      "▁మూ": 6427,
      "▁మతం": 6428,
      "ండమా": 6429,
      "▁largest": 6430,
      "evanag": 6431,
      "▁చిన్న": 6432,
      "ముఖ": 6433,
      "](./South": 6434,
      "▁2026": 6435,
      "త్వం": 6436,
      "–సా.శ.17": 6437,
      "–సా.శ.15": 6438,
      "180": 6439,
      "▁(సా.శ.13": 6440,
      "▁(సా.శ.15": 6441,
      "▁ప్రతి": 6442,
      "▁ప్రస్తు": 6443,
      "▁ప్రకారం": 6444,
      "▁ప్రముఖ": 6445,
      "కుడు": 6446,
      "ంచిన": 6447,
      "పూర్": 6448,
      "ింది.\n": 6449,
      "▁సాధించ": 6450,
      "▁రో": 6451,
      "▁రంగ": 6452,
      "▁రవాణా": 6453,
      "ష్టు": 6454,
      "otal": 6455,
      "ంతో": 6456,
      "పాలన": 6457,
      "▁తరువా": 6458,
      "ం](./భారతీయ": 6459,
      "గుర్": 6460,
      "నేషనల్": 6461,
      "వందే": 6462,
      "▁8.": 6463,
      "▁ప్రాంతం": 6464,
      ",_కేంద్రపాలిత_ప్రాంత": 6465,
      "▁రాజ్యం](./": 6466,
      "▁బహు": 6467,
      "▁బెంగ": 6468,
      "ాల్లో": 6469,
      "▁control": 6470,
      "▁trans": 6471,
      "శ్వా": 6472,
      "ారిటీ": 6473,
      "గోళ": 6474,
      "▁ప్రాంతాలు": 6475,
      "▁\"History": 6476,
      "](./History": 6477,
      "బడిన": 6478,
      "తున్న": 6479,
      "న్నిక": 6480,
      "మెరి": 6481,
      "▁కాలంలో": 6482,
      "ంపి": 6483,
      "బెంగాల్": 6484,
      "gypt": 6485,
      "ెలవు": 6486,
      "](./భారతదేశంలో_": 6487,
      "▁world's": 6488,
      "▁అధికారిక": 6489,
      "ఆర్ధిక": 6490,
      "▁పట్టణ": 6491,
      "▁కాశ్మీరు": 6492,
      "▁క్రీడలు": 6493,
      "▁2006](./India#CITEREFMetcalfMetcalf2006),": 6494,
      "▁అయిన": 6495,
      "▁రెండు": 6496,
      "రాష్ట్రాలు,_కేంద్రపాలిత_ప్రాంత": 6497,
      "ట్రో": 6498,
      "ుల్తా": 6499,
      "ంగ్లీషు": 6500,
      "దినోత్సవం": 6501,
      "▁వ్యాసం:": 6502,
      "ార్లమెంట": 6503,
      "▁ఏర్ప": 6504,
      "▁article:": 6505,
      "ikkim": 6506,
      "ఆంధ్రప్రదేశ్": 6507,
      "లయాళ": 6508,
      "ichael": 6509,
      "evanagari": 6510,
      ".edu": 6511,
      "/?": 6512,
      "/H": 6513,
      "/m": 6514,
      "220": 6515,
      "3-": 6516,
      "Th": 6517,
      "_a_": 6518,
      "business": 6519,
      "eal": 6520,
      "ier": 6521,
      "nic": 6522,
      "rel": 6523,
      "erlin": 6524,
      "eries": 6525,
      "icts": 6526,
      "ament": 6527,
      "atures": 6528,
      "▁Society": 6529,
      "**[": 6530,
      "238": 6531,
      "▁D.": 6532,
      "▁H.": 6533,
      "▁Ear": 6534,
      "2011religion": 6535,
      "issile": 6536,
      "egis": 6537,
      "ote:": 6538,
      "langoff-1": 6539,
      "▁Quote:": 6540,
      "Census2011religion": 6541,
      "business-": 6542,
      "-on-": 6543,
      "66": 6544,
      "HD": 6545,
      "mill": 6546,
      "~p": 6547,
      "▁At": 6548,
      "eld": 6549,
      "ounci": 6550,
      "135": 6551,
      "harm": 6552,
      "▁[Ministry": 6553,
      "class": 6554,
      "ports": 6555,
      "-largest": 6556,
      "▁know": 6557,
      "ravid": 6558,
      "cat.org/": 6559,
      "imf.org/": 6560,
      "akhand": 6561,
      "_of_the_": 6562,
      "cript": 6563,
      "ublications/": 6564,
      "bank.org/": 6565,
      "uthority": 6566,
      "140": 6567,
      "C,": 6568,
      "Neu": 6569,
      "RL": 6570,
      "Robb": 6571,
      "Vu": 6572,
      "ZVu": 6573,
      "_घ": 6574,
      "cul": 6575,
      "ez": 6576,
      "kZVu": 6577,
      "rup": 6578,
      "rust": 6579,
      "ंत": 6580,
      "अभि": 6581,
      "इतिहास": 6582,
      "एन": 6583,
      "को": 6584,
      "क्": 6585,
      "खन": 6586,
      "खा": 6587,
      "गान": 6588,
      "ग्व": 6589,
      "च्": 6590,
      "जं": 6591,
      "टान": 6592,
      "तन": 6593,
      "थिल": 6594,
      "फोर्ड": 6595,
      "ब्ल": 6596,
      "बेट": 6597,
      "भु": 6598,
      "यत": 6599,
      "रत": 6600,
      "वास": 6601,
      "ेड": 6602,
      "ैंक": 6603,
      "ैथिल": 6604,
      "ॉल": 6605,
      "ॉंग्रेस": 6606,
      "ोस": 6607,
      "ौसेना": 6608,
      "००": 6609,
      "অর্থনৈতিক": 6610,
      "ইতিহাস": 6611,
      "উরি": 6612,
      "খ্য": 6613,
      "খ্যা": 6614,
      "ছাড়া": 6615,
      "তু": 6616,
      "থর": 6617,
      "নের": 6618,
      "ফি": 6619,
      "ব্য": 6620,
      "ভে": 6621,
      "ভুট": 6622,
      "রক্ষ": 6623,
      "ষি": 6624,
      "াবেক্ষণ": 6625,
      "ৃষ্": 6626,
      "োদী": 6627,
      "োশা": 6628,
      "ৌর": 6629,
      "ৌদ্ধ": 6630,
      "০]](./ভারত#cite_note-": 6631,
      "১৬": 6632,
      "১]](./ভারত#cite_note-": 6633,
      "▁৮": 6634,
      "▁lo": 6635,
      "▁em": 6636,
      "](./न": 6637,
      "](./पाकिस्तान": 6638,
      "▁[p": 6639,
      "▁[ल": 6640,
      "▁[ফ": 6641,
      "▁[वि": 6642,
      "▁[पाकिस्तान": 6643,
      "▁\"दक्षिण": 6644,
      "▁\"पाकिस्तान": 6645,
      "inance": 6646,
      "203": 6647,
      "2022": 6648,
      "arl": 6649,
      "arrow": 6650,
      "India.pdf)": 6651,
      "entr": 6652,
      "edition": 6653,
      "▁साल": 6654,
      "▁सम्": 6655,
      "েরি": 6656,
      "lack": 6657,
      "lease": 6658,
      "▁मो": 6659,
      "▁मौ": 6660,
      "▁India](./G": 6661,
      "▁সর্": 6662,
      "-135": 6663,
      "acred": 6664,
      "ivision": 6665,
      "তিতে": 6666,
      "राम": 6667,
      "▁sq": 6668,
      "line_": 6669,
      "](./भारत_के": 6670,
      "ficient": 6671,
      "▁অতি": 6672,
      "raz": 6673,
      "▁_C": 6674,
      "▁_India": 6675,
      "সাবে": 6676,
      "▁উদ্": 6677,
      "▁তথ্য": 6678,
      "267": 6679,
      "▁এটি": 6680,
      "▁এপ্র": 6681,
      "▁এছাড়া": 6682,
      "ंगाना": 6683,
      "▁नव": 6684,
      "▁প্রতীক": 6685,
      "কাধিক": 6686,
      "▁নৃত্য": 6687,
      "▁ভারত\")": 6688,
      "তাজ": 6689,
      "তাকা": 6690,
      "▁Health": 6691,
      "standard": 6692,
      "▁Gandhi": 6693,
      "্বই": 6694,
      "িয়ন্ত্র": 6695,
      "▁সংসদ": 6696,
      "▁आर्थिक": 6697,
      "▁দল": 6698,
      "ট্রফি": 6699,
      "লিং": 6700,
      "▁১৭": 6701,
      "রেন্দ্র": 6702,
      "নাবাহিনী": 6703,
      "काता": 6704,
      "ঙ্গীত": 6705,
      "ম্‌": 6706,
      "ম্মু": 6707,
      "▁इंडिया": 6708,
      "▁United": 6709,
      "ी](./द": 6710,
      ".svg/250px-": 6711,
      "ंडोन": 6712,
      "পিপি": 6713,
      "▁राज्यक्षेत्र": 6714,
      "▁began": 6715,
      "▁ইন্ডিয়া": 6716,
      "▁विस्त": 6717,
      "▁विदेश": 6718,
      "▁সাধারণ": 6719,
      "ोलकाता": 6720,
      "ंध्र": 6721,
      "▁বাণিজ্য": 6722,
      "▁क्षेत्रों": 6723,
      "ंग्रेजी": 6724,
      "তেলু": 6725,
      "▁अन्त": 6726,
      "▁नेतृत": 6727,
      "ibet": 6728,
      "▁\"अंग्रेज़ी": 6729,
      "১৯-": 6730,
      "হিম": 6731,
      "ারাঠ": 6732,
      "-symbols": 6733,
      "▁जनवरी": 6734,
      "हरिया": 6735,
      "ूर्वी": 6736,
      "▁1994": 6737,
      "पुरम": 6738,
      "▁मेला\"),": 6739,
      "umbai_": 6740,
      "▁स्थान": 6741,
      "ography": 6742,
      "िशा": 6743,
      "▁দেশে": 6744,
      "ंग्रेज़ी_भाषा": 6745,
      "Increase](//upload.wikimedia.org/wikipedia/commons/thumb/b/b0/Increase2.svg/20px-Increase2.svg.png)": 6746,
      "▁km2": 6747,
      "समिया": 6748,
      "limate": 6749,
      "▁`{{[ওয়েব": 6750,
      "Oxford_University_Press": 6751,
      "ducation": 6752,
      "ज्ञाप": 6753,
      "न्नई": 6754,
      "national-symbols": 6755,
      "▁অবস্থিত": 6756,
      "बंधन": 6757,
      "२००": 6758,
      "টেলি": 6759,
      "▁पुरालेखित।,": 6760,
      "GDP_\\(": 6761,
      "শিখ": 6762,
      "Stein2010),": 6763,
      "▁হিসাবে": 6764,
      "▁বৃদ্ধি": 6765,
      "▁मुख्य": 6766,
      "_और_संघ": 6767,
      "▁मानसून": 6768,
      "পরিসংখ্যান": 6769,
      "যুক্তরাষ্ট্র": 6770,
      "▁युग": 6771,
      "▁![Increase](//upload.wikimedia.org/wikipedia/commons/thumb/b/b0/Increase2.svg/20px-Increase2.svg.png)": 6772,
      "_ইতিহাস": 6773,
      "वादी": 6774,
      "▁स्वतंत्रता": 6775,
      "_के_आधार_पर_भारत_के_राज्यों_की_सूची": 6776,
      "तेलंगाना": 6777,
      "▁করতে": 6778,
      "चेन्नई": 6779,
      "ুম্বই": 6780,
      "▁बहुत": 6781,
      "पीठ": 6782,
      "ভরশীল": 6783,
      "month": 6784,
      "জাতিসংঘ": 6785,
      "▁Company": 6786,
      "क्सफोर्ड": 6787,
      "▁निर्माण": 6788,
      "](./List_of_countries_by_GDP_\\(": 6789,
      "▁२०१": 6790,
      "িকিউরি": 6791,
      "त्रिपुरा": 6792,
      "▁2010](./India#CITEREFStein2010),": 6793,
      "কেন্দ্রশাসিত_অঞ্চল": 6794,
      "तेलुगू": 6795,
      "भीमबेट": 6796,
      "▁উল্লেখযোগ্য": 6797,
      "▁Press](./Oxford_University_Press": 6798,
      "ultanate": 6799,
      "झारखंड": 6800,
      "Ministry_of_Home_Affairs_": 6801,
      "rajbhasha": 6802,
      "छत्तीसगढ़": 6803,
      "िंधु": 6804,
      "খ্রিস্ট": 6805,
      "urrent": 6806,
      "▁\\(শনাক্তকারী\\)\")": 6807,
      "ब्बत": 6808,
      "▁[अंग्रेज़ी](./अंग्रेज़ी_भाषा": 6809,
      "nominal\\)": 6810,
      "▁ओर": 6811,
      "▁कुछ": 6812,
      "Spear199024": 6813,
      "▁যদিও": 6814,
      "Neutral": 6815,
      "अभिज्ञाप": 6816,
      "च्छ": 6817,
      "ভুটান": 6818,
      "াবেক্ষণ:": 6819,
      "োশাক": 6820,
      "▁এপ্রিল": 6821,
      "তেলুগু": 6822,
      "িকিউরিটি": 6823,
      "भीमबेटका": 6824,
      "Ministry_of_Home_Affairs_1960": 6825,
      "अभिज्ञापक": 6826,
      "/F": 6827,
      "=0": 6828,
      "_19": 6829,
      "a.": 6830,
      "ault": 6831,
      "cia": 6832,
      "ced": 6833,
      "cast": 6834,
      "d/d": 6835,
      "ek": 6836,
      "most": 6837,
      "thnic": 6838,
      "id=1": 6839,
      "atar": 6840,
      "▁billion": 6841,
      "▁made": 6842,
      "▁movement": 6843,
      "▁dom": 6844,
      "▁2011.": 6845,
      "▁Des": 6846,
      "28.": 6847,
      "](//upload.wikimedia.org/wikipedia/commons/thumb/8/8": 6848,
      "aylor": 6849,
      "▁his": 6850,
      "-415": 6851,
      "utan": 6852,
      "group": 6853,
      "engali": 6854,
      "enguin": 6855,
      "|---|---": 6856,
      "overty": 6857,
      "](https://data": 6858,
      "Flag_of_India.svg.png)": 6859,
      "ific": 6860,
      "ediev": 6861,
      "cording": 6862,
      "5%": 6863,
      "_16": 6864,
      "cogn": 6865,
      "history": 6866,
      "hdr": 6867,
      "ward": 6868,
      "\")\"": 6869,
      "itage": 6870,
      "▁1965": 6871,
      "▁new": 6872,
      "-76": 6873,
      "▁Ocean": 6874,
      "▁[Singh": 6875,
      "ocs/": 6876,
      "_per": 6877,
      "_population": 6878,
      ".svg/40px-Wik": 6879,
      "embers": 6880,
      "iteracy": 6881,
      "-19-56": 6882,
      "▁second": 6883,
      "thehindu": 6884,
      "▁life": 6885,
      "2)\n": 6886,
      "6]](./India#cite_note-FOOTNOTE": 6887,
      "Gua": 6888,
      "IUCN": 6889,
      "Jgo": 6890,
      "Mumbai_": 6891,
      "Zva": 6892,
      "c/": 6893,
      "ele": 6894,
      "fun": 6895,
      "iet": 6896,
      "rid": 6897,
      "war": 6898,
      "▁[c": 6899,
      "▁\"19": 6900,
      "tigr": 6901,
      "ree_": 6902,
      "ortheast": 6903,
      "cip": 6904,
      "asht": 6905,
      "▁12.": 6906,
      "▁Summit\")\n": 6907,
      "eck": 6908,
      "78.": 6909,
      "ign_": 6910,
      "▁work": 6911,
      "▁Territory": 6912,
      "405": 6913,
      "▁top": 6914,
      "50th": 6915,
      "stan": 6916,
      "s_P": 6917,
      "▁Gu": 6918,
      "▁house": 6919,
      ".gov.": 6920,
      "ountain": 6921,
      "▁relations": 6922,
      "▁non-": 6923,
      "rib": 6924,
      "osys": 6925,
      "▁\\(India": 6926,
      "ockey": 6927,
      ")[[3": 6928,
      "](https://books.google.com/books?id=Zva": 6929,
      "ugu": 6930,
      "ummer": 6931,
      "efficient": 6932,
      "▁original](http://www.": 6933,
      "_East_Asia_Summit": 6934,
      "ities/": 6935,
      "▁prime": 6936,
      "lowing": 6937,
      "▁lead": 6938,
      "erent": 6939,
      "▁disc": 6940,
      "ethnologue": 6941,
      "▁Programme": 6942,
      "rganization": 6943,
      "uddhist": 6944,
      "istorical": 6945,
      "flu": 6946,
      ".uk/": 6947,
      "rahmap": 6948,
      "osphere": 6949,
      "Infosys": 6950,
      "JIJgo": 6951,
      "GuaJIJgo": 6952,
      "tigris": 6953,
      "](https://books.google.com/books?id=ZvaGuaJIJgo": 6954,
      "ethnologue.com/": 6955,
      "\"](https://web.archive.org/web/20": 6956,
      "#P": 6957,
      "Clémentin-Oj": 6958,
      "RO": 6959,
      "ea": 6960,
      "gu": 6961,
      "ila": 6962,
      "mrit": 6963,
      "rs": 6964,
      "serv": 6965,
      "▁\\": 6966,
      "▁°": 6967,
      "report": 6968,
      "2020": 6969,
      "▁(1):": 6970,
      "▁them": 6971,
      "icon": 6972,
      "▁set": 6973,
      "▁11.": 6974,
      "imach": 6975,
      "▁western": 6976,
      "▁Routledge": 6977,
      "hak": 6978,
      "▁Himalay": 6979,
      "▁Ge": 6980,
      "▁2007.": 6981,
      "▁Library": 6982,
      "hmed": 6983,
      "feb": 6984,
      "_128": 6985,
      "▁left": 6986,
      "▁ed.).": 6987,
      "hailand": 6988,
      "▁Wikidata": 6989,
      "_of_Congress": 6990,
      "griculture": 6991,
      "Clémentin-Ojha2014": 6992,
      "-M": 6993,
      "-ব": 6994,
      ".\"": 6995,
      "160": 6996,
      "2).": 6997,
      "S.": 6998,
      "Tamil": 6999,
      "_श": 7000,
      "_ক": 7001,
      "_30": 7002,
      "_धर्म": 7003,
      "pub": 7004,
      "ues": 7005,
      "ँची": 7006,
      "टना": 7007,
      "डम": 7008,
      "दार": 7009,
      "पार": 7010,
      "भग": 7011,
      "मरी": 7012,
      "रि": 7013,
      "स्व": 7014,
      "ेद": 7015,
      "ोला": 7016,
      "ঁচ": 7017,
      "উড": 7018,
      "গানি": 7019,
      "তত্ত্ব": 7020,
      "পর": 7021,
      "ফগানি": 7022,
      "যা": 7023,
      "রান": 7024,
      "লিক": 7025,
      "ষদ": 7026,
      "সু": 7027,
      "হর": 7028,
      "াট": 7029,
      "১০": 7030,
      "১৮": 7031,
      "৩৪": 7032,
      "৬৫": 7033,
      "▁ল": 7034,
      "▁भा": 7035,
      "▁भाग": 7036,
      "▁ईसा": 7037,
      "▁রিজার্ভ": 7038,
      "](./दक्षिण": 7039,
      "▁[ग": 7040,
      "▁[व": 7041,
      "▁[ह": 7042,
      "▁[दक्षिण": 7043,
      "▁\"य": 7044,
      "▁\"व": 7045,
      "▁\"চ": 7046,
      "▁\"দক্ষিণ": 7047,
      "arath": 7048,
      "ofil": 7049,
      "▁काल": 7050,
      "▁कॉंग्रेस": 7051,
      "्रय": 7052,
      "▁सभा": 7053,
      "▁सित": 7054,
      "▁समाज": 7055,
      "▁मई": 7056,
      "▁मन": 7057,
      "▁मह": 7058,
      "▁मिल": 7059,
      "▁मशीन": 7060,
      "](./ভারত#": 7061,
      "ন্ট্র": 7062,
      "▁pop": 7063,
      "ेंगल": 7064,
      "र्ध": 7065,
      "](./भारत_के_राज्य": 7066,
      "्तु": 7067,
      "ক্লো": 7068,
      "▁Public": 7069,
      "ura": 7070,
      "স্মাই": 7071,
      "▁में,": 7072,
      "িকার": 7073,
      "▁अभ": 7074,
      "▁अमेर": 7075,
      "▁অভি": 7076,
      "ema": 7077,
      "▁মু": 7078,
      "▁जब": 7079,
      "▁কাল": 7080,
      "▁द्वीप": 7081,
      "▁উন্নয়ন": 7082,
      "▁নয়": 7083,
      "_से": 7084,
      "pectan": 7085,
      "](http://books.google.com/books?id=": 7086,
      "▁व्या": 7087,
      "▁বিজ্ঞান": 7088,
      "न्दा": 7089,
      "িত্": 7090,
      "প্রিয়": 7091,
      "18)": 7092,
      "ernet": 7093,
      "▁Law": 7094,
      "](./ভারতের_জাতীয়_": 7095,
      "।[[২": 7096,
      "।[[৫": 7097,
      "।[[৭": 7098,
      "hief": 7099,
      "▁गई": 7100,
      "_\\(भारत\\)": 7101,
      "থাপি": 7102,
      "▁১৩": 7103,
      "ड़िया": 7104,
      "▁शहर": 7105,
      "মিশন": 7106,
      "সংবাদ": 7107,
      "নায়": 7108,
      "▁[मध्य": 7109,
      "]](./भारत#cite_note-pib": 7110,
      "▁ले": 7111,
      "▁लिये": 7112,
      "_के_अन": 7113,
      "म्भ": 7114,
      "ঙ্গা": 7115,
      "संधान": 7116,
      "त्तरी": 7117,
      "▁International": 7118,
      "o-p": 7119,
      "▁भाषा\")[[": 7120,
      "▁यूनिवर्सिट": 7121,
      "ার্টি": 7122,
      "y_](https://books.google.com/books?id=": 7123,
      "issing": 7124,
      "▁क्षेत्र\")\n": 7125,
      "▁উপকূল": 7126,
      "নিরপেক্ষ": 7127,
      "ইএসবিএন_\\(শনাক্তকারী\\)": 7128,
      "केन्द्र": 7129,
      "▁[Dyson": 7130,
      "▁জনসংখ্যা": 7131,
      "▁জনপ্রিয়": 7132,
      "▁जनजाति": 7133,
      "▁করেছে": 7134,
      "▁যা": 7135,
      "▁[আইএসবিএন](./আ": 7136,
      "india.gov.in/know": 7137,
      "_সরকার": 7138,
      "।[[১০": 7139,
      "▁সমভূমি": 7140,
      "▁যুক্ত": 7141,
      "रुणा": 7142,
      "শাসনিক": 7143,
      "▁\"আইএসবিএন": 7144,
      "▁২০০৮।": 7145,
      "▁২০০৮।\n": 7146,
      "▁পর্য": 7147,
      "ন্নড়": 7148,
      "ক্রিকেট": 7149,
      "ক্সচে": 7150,
      "official": 7151,
      "যোগিতা": 7152,
      "▁হিসে": 7153,
      "▁21.": 7154,
      "▁28.": 7155,
      "ল্প": 7156,
      ".svg.png)](./चित्र:": 7157,
      "কাশ্মীর": 7158,
      "pib.nic.in/": 7159,
      "ोर्ट": 7160,
      "▁ইতিহাস\")\n": 7161,
      "▁2024.": 7162,
      "▁\\(identifier\\)\"):[10.": 7163,
      "%E0%A4%B": 7164,
      "ধিকার": 7165,
      "▁साम्राज्य\")": 7166,
      "धुनिक": 7167,
      "▁দিবস": 7168,
      "onsoon": 7169,
      "place": 7170,
      "_साम्राज्य": 7171,
      "▁religious": 7172,
      "_with": 7173,
      "ksai": 7174,
      "▁\\(ভারত\\)\")\n": 7175,
      "▁(2018),": 7176,
      "स्लाम": 7177,
      "_देशों_की_सूची": 7178,
      "ताजमह": 7179,
      "%E0%A6%9F": 7180,
      "emocracy": 7181,
      "▁Valley": 7182,
      "क्षरता": 7183,
      "▁ক্ষেত্রে": 7184,
      "▁स्थाप": 7185,
      "▁[पाकिस्तान](./पाकिस्तान": 7186,
      "িয়ন্ত্রণ": 7187,
      "ফগানিস্তান": 7188,
      "যাত্র": 7189,
      "ेंगलुरु": 7190,
      "স্মাইলিং": 7191,
      "pectancy": 7192,
      "_के_अनुसार": 7193,
      "▁यूनिवर्सिटी": 7194,
      "▁[আইএসবিএন](./আইএসবিএন_\\(শনাক্তকারী\\)": 7195,
      "india.gov.in/knowindia/": 7196,
      "ক্সচেঞ্জ": 7197,
      "-D": 7198,
      "-national-": 7199,
      "528": 7200,
      "Front": 7201,
      "LM": 7202,
      "Rowland": 7203,
      "_-": 7204,
      "_వి": 7205,
      "_కాశ్మీ": 7206,
      "each": 7207,
      "mira": 7208,
      "ras": 7209,
      "van": 7210,
      "vers": 7211,
      "ంస్కృ": 7212,
      "ఉత్తరా": 7213,
      "కాలు": 7214,
      "ఖో": 7215,
      "ఘాలయ": 7216,
      "చ్": 7217,
      "టై": 7218,
      "టర్": 7219,
      "డమ్": 7220,
      "డఖ్": 7221,
      "ణే": 7222,
      "ణంగా": 7223,
      "తెల": 7224,
      "దరంగ": 7225,
      "నో": 7226,
      "నాలు": 7227,
      "నంద": 7228,
      "బర్": 7229,
      "బార్": 7230,
      "మతం": 7231,
      "యన": 7232,
      "యె": 7233,
      "రె": 7234,
      "లడఖ్": 7235,
      "ళా": 7236,
      "ళి": 7237,
      "శు": 7238,
      "హించ": 7239,
      "ీకరణ": 7240,
      "ుకు": 7241,
      "ెన్న": 7242,
      "ెట్రో": 7243,
      "ేతి": 7244,
      "ేఘాలయ": 7245,
      "ైస్త": 7246,
      "ైనిక": 7247,
      "ొగలు": 7248,
      "ోళ": 7249,
      "‌కా": 7250,
      "‌మహ": 7251,
      "▁ఐ": 7252,
      "▁ఖ": 7253,
      "▁ద": 7254,
      "▁–సా.శ.": 7255,
      "▁భారతీయ": 7256,
      "](./భారతదేశ": 7257,
      "▁[హ": 7258,
      "▁[గో": 7259,
      "▁\"పా": 7260,
      "▁\"జన": 7261,
      "▁\"గో": 7262,
      "▁\"మూస:": 7263,
      "\")1": 7264,
      "ia\")\n": 7265,
      "erm": 7266,
      "20.": 7267,
      "India_G": 7268,
      "ారస్వ": 7269,
      "ich": 7270,
      "ాలె": 7271,
      "స్ట": 7272,
      "స్వాతంత్ర్య": 7273,
      "▁పర": 7274,
      "▁పండు": 7275,
      "▁All": 7276,
      "ecur": 7277,
      "▁Pe": 7278,
      "ilitary": 7279,
      "angam": 7280,
      "రాన్": 7281,
      "రాస్య": 7282,
      "▁famil": 7283,
      "tock": 7284,
      ".jpe": 7285,
      "త్రిక": 7286,
      "ems": 7287,
      "emic": 7288,
      "▁కను": 7289,
      "▁కోర్": 7290,
      "▁_A": 7291,
      "క్స్": 7292,
      "క్కి": 7293,
      "▁River": 7294,
      "▁వె": 7295,
      "▁వంట": 7296,
      "▁dependencies": 7297,
      "ల్‌కా": 7298,
      "ంగో": 7299,
      "▁సముద్ర": 7300,
      "▁సూచ": 7301,
      "▁సౌక": 7302,
      "operation": 7303,
      "్రామ": 7304,
      "ండా": 7305,
      "ండీ": 7306,
      "ండ్య": 7307,
      "Union": 7308,
      "తాజ్": 7309,
      "నాథ": 7310,
      "త్వా": 7311,
      "ులు,": 7312,
      "ులు\"),": 7313,
      "▁అభి": 7314,
      "▁ప్రజా": 7315,
      "153": 7316,
      "▁numbers": 7317,
      "hib": 7318,
      "ప్రిల్": 7319,
      "▁ఉంట": 7320,
      "▁ఉత్తర": 7321,
      "%E0%B0%": 7322,
      "▁సామా": 7323,
      "వాద": 7324,
      "విధ": 7325,
      "ార్ఖండ్": 7326,
      "క్షరాస్య": 7327,
      "Chenna": 7328,
      "_and_d": 7329,
      "పుర": 7330,
      "▁నడి": 7331,
      "▁ఇండియా": 7332,
      "గుప్": 7333,
      "డుకు": 7334,
      "నేషియా": 7335,
      "ంగాణ": 7336,
      "_Nadu": 7337,
      "లియా": 7338,
      "▁జన": 7339,
      "▁ప్రాచ": 7340,
      "▁విభ": 7341,
      "▁వివిధ": 7342,
      "▁సంఘ": 7343,
      "ండిచ్చేరి": 7344,
      "▁exp": 7345,
      "▁[![](//upload.wikimedia.org/wikipedia/commons/thumb/c/c": 7346,
      ".svg/40px-Flag_of_India.svg.png)": 7347,
      "కోబార్": 7348,
      "కోల్‌కా": 7349,
      "జీరియా": 7350,
      "ంకేతి": 7351,
      "1967": 7352,
      "parliament": 7353,
      "వేలీ": 7354,
      "దాద్రా": 7355,
      "బియా": 7356,
      "డామన్": 7357,
      "▁tex": 7358,
      "▁రాష్ట్రపతి": 7359,
      "త్రిపుర": 7360,
      "_కాల": 7361,
      "▁రైల్వే": 7362,
      "య్యూ": 7363,
      "త్తీస్": 7364,
      "▁ప్రదేశ్](./": 7365,
      "▁ప్రదేశ్\")": 7366,
      "▁కాలం": 7367,
      "నాగాలా": 7368,
      "▁\"జమ్మూ": 7369,
      "aint:": 7370,
      "▁పాకిస్తాన్": 7371,
      "](./జమ్మూ": 7372,
      "oint": 7373,
      "](./List_of_countries_and_d": 7374,
      "రేబియా": 7375,
      "_at_the": 7376,
      "టాక్": 7377,
      "్రిటిష్": 7378,
      "క్రమ": 7379,
      "వెను": 7380,
      "ూచి": 7381,
      "భారతదేశ_రాష్ట్రాలు,_కేంద్రపాలిత_ప్రాంత": 7382,
      "▁మాత్ర": 7383,
      "tribution": 7384,
      "▁జాబితా\")\n": 7385,
      "ప్పటిక": 7386,
      "NCLM": 7387,
      "_from": 7388,
      "లేషియా": 7389,
      "▁మొదల": 7390,
      "ద్యు": 7391,
      "▁వంశం": 7392,
      "ద్వీప్": 7393,
      "▁ఉపఖండ": 7394,
      "▁దేశంలోని": 7395,
      "▁కాంగ్రెసు": 7396,
      "4/41/Flag_of_India.svg/40px-Flag_of_India.svg.png)": 7397,
      "ఆగష్టు": 7398,
      "లక్షద్వీప్": 7399,
      "హాయం:": 7400,
      "▁సామ్రాజ్యము": 7401,
      "మిజోరా": 7402,
      "nclm.nic.in/shared/linkimages/NCLM": 7403,
      "ర్యానా": 7404,
      "▁[ఢిల్లీ](./ఢిల్లీ": 7405,
      "టిబెట్": 7406,
      "బడ్డీ": 7407,
      "ేరళ": 7408,
      "ండమాన్": 7409,
      "మెరికా": 7410,
      "ెలవుదిన": 7411,
      "kZVuDwAAQBAJ&pg=PA": 7412,
      "50thReport.pdf)": 7413,
      "](https://books.google.com/books?id=ZvaGuaJIJgoC&pg=PA": 7414,
      "-national-language": 7415,
      "Rowland1970": 7416,
      "mirates": 7417,
      "ంస్కృతం": 7418,
      "తెలంగాణ": 7419,
      "ెన్నై": 7420,
      "‌మహల్": 7421,
      "ారస్వతం": 7422,
      "తాజ్‌మహల్": 7423,
      "క్షరాస్యత": 7424,
      "కోల్‌కాతా": 7425,
      "నాగాలాండ్": 7426,
      "](./జమ్మూ_కాశ్మీ": 7427,
      "](./List_of_countries_and_dependencies": 7428,
      "nclm.nic.in/shared/linkimages/NCLM50thReport.pdf)": 7429,
      "-F": 7430,
      "-ra": 7431,
      "Language": 7432,
      "_15": 7433,
      "rans": 7434,
      "var": 7435,
      "ves": 7436,
      "▁economy": 7437,
      "ict": 7438,
      "ictor": 7439,
      "ootb": 7440,
      "▁serv": 7441,
      "▁P.": 7442,
      "olas": 7443,
      "▁far": 7444,
      "▁wid": 7445,
      "▁Rothermund": 7446,
      "260": 7447,
      "270": 7448,
      "search": 7449,
      "pringer": 7450,
      "overnment_of_India": 7451,
      "34238": 7452,
      "ynth": 7453,
      "](https://web.archive.org/web/20090": 7454,
      "▁along": 7455,
      "vention": 7456,
      "11934238": 7457,
      "text": 7458,
      "▁estimate": 7459,
      "ristian": 7460,
      "Library_of_Congress": 7461,
      "ootball": 7462,
      "11934238p": 7463,
      "Library_of_Congress2004": 7464,
      "%),": 7465,
      ".P": 7466,
      ".c": 7467,
      "PE": 7468,
      "oe": 7469,
      "▁54": 7470,
      "orne": 7471,
      "en,": 7472,
      "ed/": 7473,
      "acts": 7474,
      "](https://catalog": 7475,
      "▁Muslim": 7476,
      "▁Book": 7477,
      "▁Data": 7478,
      "opal": 7479,
      "ly,": 7480,
      "ources": 7481,
      "external": 7482,
      "-459": 7483,
      "▁For": 7484,
      "AAJ": 7485,
      "47.": 7486,
      "▁Ins": 7487,
      "uggle": 7488,
      "ological": 7489,
      "Dyson2018),": 7490,
      "▁sector": 7491,
      "cms)": 7492,
      "britannica.com/place": 7493,
      "Uttarakhand": 7494,
      "▁Plateau": 7495,
      "MetcalfMetcalf2012-26": 7496,
      "PK:14": 7497,
      "▁addition": 7498,
      "ernet.in/": 7499,
      "-and": 7500,
      "/india/": 7501,
      "1-1": 7502,
      "2%": 7503,
      "5)\n": 7504,
      "AG": 7505,
      "Bangalore": 7506,
      "River": 7507,
      "SAARC": 7508,
      "a\")": 7509,
      "lof": 7510,
      "lurton": 7511,
      "s_of_India": 7512,
      "▁urban": 7513,
      "▁[Indo-": 7514,
      "\")-": 7515,
      "anipur": 7516,
      "anchi": 7517,
      "enni": 7518,
      "icob": 7519,
      "▁India\")|": 7520,
      "▁India\"](https://web.archive.org/web/201": 7521,
      "acmill": 7522,
      "trial": 7523,
      "▁pre": 7524,
      "▁painting": 7525,
      "▁influ": 7526,
      "\"),[[": 7527,
      "▁President": 7528,
      "▁bord": 7529,
      "olon": 7530,
      "emon": 7531,
      "rote": 7532,
      "269,": 7533,
      "287,": 7534,
      "al_election": 7535,
      "agore": 7536,
      "▁rem": 7537,
      "_in_": 7538,
      "erry": 7539,
      "](./India#CITEREFB": 7540,
      ".[[4": 7541,
      "▁Kingdom": 7542,
      "-98": 7543,
      "uduch": 7544,
      "47)": 7545,
      "709": 7546,
      "489": 7547,
      "emplate_": 7548,
      "▁eastern": 7549,
      "▁[↑](./India#cite_ref-FOOTNOTEMetcalfMetcalf2006": 7550,
      "▁\"British": 7551,
      "](./British": 7552,
      "illenni": 7553,
      "▁language\")": 7554,
      "ommonwealth": 7555,
      "ureau": 7556,
      "rough": 7557,
      "▁template\n": 7558,
      "▁US": 7559,
      "alayal": 7560,
      "co.uk/": 7561,
      "6124": 7562,
      "_Indian_gener": 7563,
      "-4020": 7564,
      "▁Pradesh\")\n": 7565,
      "▁Islands\")\n": 7566,
      "%7C": 7567,
      "%7c": 7568,
      "▁groups": 7569,
      "▁(1,269,": 7570,
      "▁3,287,": 7571,
      "_Islands": 7572,
      "PPP\\)": 7573,
      "fication": 7574,
      "▁employ": 7575,
      "ecret": 7576,
      "rishnan": 7577,
      "_Assembly": 7578,
      "troduction": 7579,
      "rahmaputra": 7580,
      "mritsar": 7581,
      "icobar": 7582,
      "acmillan": 7583,
      "uducherry": 7584,
      "illennium": 7585,
      "_Indian_general_election": 7586,
      "-১": 7587,
      ".৮": 7588,
      "5.pdf)": 7589,
      "Mon": 7590,
      "Suk": 7591,
      "Tw": 7592,
      "_)": 7593,
      "_চ": 7594,
      "_राज्य": 7595,
      "_সং": 7596,
      "_রাষ্ট্র": 7597,
      "_সম": 7598,
      "_एशिया": 7599,
      "n-": 7600,
      "zon": 7601,
      "ंतर": 7602,
      "अरब": 7603,
      "इन": 7604,
      "ईल": 7605,
      "घर": 7606,
      "चें": 7607,
      "तम": 7608,
      "तुल": 7609,
      "थियार": 7610,
      "देव": 7611,
      "द्वार": 7612,
      "फा": 7613,
      "मार": 7614,
      "शन": 7615,
      "िबंध": 7616,
      "ृष": 7617,
      "ोट": 7618,
      "ংহ": 7619,
      "এম": 7620,
      "চক": 7621,
      "ছু": 7622,
      "জার": 7623,
      "ধু": 7624,
      "ন\")\n": 7625,
      "ন্য": 7626,
      "পার": 7627,
      "ব্রু": 7628,
      "শ্মীর": 7629,
      "স](./": 7630,
      "হো": 7631,
      "হান": 7632,
      "ীণ": 7633,
      "ীব": 7634,
      "২০": 7635,
      "২৬": 7636,
      "৪৭": 7637,
      "৪)।": 7638,
      "৫৯": 7639,
      "▁औ": 7640,
      "▁रा": 7641,
      "▁ला": 7642,
      "▁[ड": 7643,
      "▁[य": 7644,
      "▁[উ": 7645,
      "▁[শ": 7646,
      "▁[জাতীয়": 7647,
      "▁\"ह": 7648,
      "ont": 7649,
      "reater": 7650,
      "ारा": 7651,
      "ारो": 7652,
      "ारम्भ": 7653,
      "▁कम": 7654,
      "▁किन": 7655,
      "्रह": 7656,
      "https://": 7657,
      "▁सह": 7658,
      "▁स्तर": 7659,
      "▁सभ्यता": 7660,
      "েরল": 7661,
      "asp?": 7662,
      "lative": 7663,
      "▁India_.": 7664,
      "▁স্ব": 7665,
      "বিদ": 7666,
      "ing,": 7667,
      "geoh": 7668,
      "ेंस": 7669,
      "▁Ag": 7670,
      "र्ट": 7671,
      "▁Court": 7672,
      "्त्र": 7673,
      "iger": 7674,
      "▁culture": 7675,
      "olence": 7676,
      "ালম": 7677,
      "ালুরু": 7678,
      "▁अलग": 7679,
      "▁अर्थव्यवस्था": 7680,
      "anda": 7681,
      "▁অধ": 7682,
      "▁অ্যান্ড": 7683,
      "rak": 7684,
      "▁মোট": 7685,
      "▁মার্কিন": 7686,
      "वियत": 7687,
      "253": 7688,
      "▁जिन": 7689,
      "▁কর্ত": 7690,
      "▁Ram": 7691,
      "ालैंड": 7692,
      "105": 7693,
      "▁देव": 7694,
      "▁दोन": 7695,
      "▁উদারীকরণ": 7696,
      "▁একাধিক": 7697,
      "▁बंगाल": 7698,
      "▁बड़े": 7699,
      "▁प्रधानमंत्री": 7700,
      "भाजन": 7701,
      "▁सेवा": 7702,
      "▁literature": 7703,
      "▁काम": 7704,
      "akar": 7705,
      "s_m": 7706,
      "tures": 7707,
      "▁বিভিন্ন": 7708,
      "aryana": 7709,
      "▁आक": 7710,
      "▁आद": 7711,
      "।[[৮": 7712,
      "15/": 7713,
      "▁परि": 7714,
      "-7mar": 7715,
      "osition": 7716,
      "লিশ": 7717,
      "▁১৬": 7718,
      "▁शा": 7719,
      "▁संस्थान": 7720,
      "রাজনীতি": 7721,
      "▁থেকে](http://": 7722,
      "নাম": 7723,
      "](./भारत#cite_ref-pib": 7724,
      "](./भारत#cite_ref-langoff": 7725,
      "]](./भारत#cite_note-langoff-1": 7726,
      "सां": 7727,
      ".net": 7728,
      "ी](./म": 7729,
      "ियन": 7730,
      "संबर": 7731,
      "त्ति": 7732,
      "▁रक्षा": 7733,
      "_Data_": 7734,
      "হেরু": 7735,
      "িয়া\")\n": 7736,
      "o-d": 7737,
      "जापान": 7738,
      "▁भाषा\")": 7739,
      "▁\"मध्य": 7740,
      "▁Press](./C": 7741,
      "▁हैं।\n": 7742,
      "▁ইন": 7743,
      "हाँ": 7744,
      "স্তর": 7745,
      "▁২০১৩": 7746,
      "ोली": 7747,
      "ুরস্": 7748,
      "](./मध्य": 7749,
      "▁উপমহাদেশ": 7750,
      "_শিল্প": 7751,
      "120]](./भारत#cite_note-langoff-1": 7752,
      "्राम": 7753,
      "ক্ষাদ্বীপ": 7754,
      ".nic.in": 7755,
      "times.indiatimes.com/": 7756,
      "▁प्रदेश\")|": 7757,
      "द्यालय": 7758,
      "▁স্বাধীনতা": 7759,
      "राष्ट्रीय_स": 7760,
      "गुप्त": 7761,
      "▁राजधान": 7762,
      "সমূহ\")": 7763,
      "▁[Kulke": 7764,
      "▁অঞ্চলের": 7765,
      "ैदिक": 7766,
      "ালয়ালম": 7767,
      "কৃতিক": 7768,
      "](./पंजाब": 7769,
      "](./पश्चिम": 7770,
      "Stein1998),": 7771,
      "Singh2009),": 7772,
      "▁CITEREFStein1998": 7773,
      "▁CITEREFSingh2009": 7774,
      "▁prov": 7775,
      "ों_की_सूची?action=edit&redlink=1": 7776,
      "▁কেন্দ্রীয়": 7777,
      "টেক": 7778,
      "▁निभा": 7779,
      "1971": 7780,
      "শিক্ষা": 7781,
      "](./भारत#CITEREFStein1998),": 7782,
      "](./भारत#CITEREFSingh2009),": 7783,
      "▁প্রধানমন্ত্রী": 7784,
      "1947)": 7785,
      "▁রাজনৈতিক": 7786,
      "▁थे": 7787,
      "▁पाकिस्तान": 7788,
      "▁২০২১": 7789,
      "▁সংস্করণ": 7790,
      "▁उपमहाद्वीप": 7791,
      "যুক্তরাজ্য": 7792,
      "कालीन": 7793,
      "▁কাশ্মীর": 7794,
      "▁मंदिर\")": 7795,
      "नागालैंड": 7796,
      "▁করুন": 7797,
      "धीरे": 7798,
      "▁ব্যবস্থা\")\n": 7799,
      "▁ডলার": 7800,
      "rishna": 7801,
      "রুভূমি": 7802,
      "▁ইউনিয়ন": 7803,
      "▁2009](./भारत#CITEREFSingh2009),": 7804,
      "এশিয়া": 7805,
      "%E0%A7%8": 7806,
      "रोहर": 7807,
      "▁(১৯৯": 7808,
      "▁वर्षों": 7809,
      "_নদী": 7810,
      "onsoon_": 7811,
      "ব্দ": 7812,
      "পাদন": 7813,
      "▁पार्टी": 7814,
      "▁পূর্ব": 7815,
      "▁सिनेमा\"),": 7816,
      "ांति": 7817,
      "ांधी": 7818,
      "রোপ": 7819,
      "▁दृश्य": 7820,
      "থাইল্যান্ড–": 7821,
      "प्राचीन": 7822,
      "▁Chinese": 7823,
      "▁भूमिका": 7824,
      "▁होती": 7825,
      "▁1998](./भारत#CITEREFStein1998),": 7826,
      "लयालम": 7827,
      "arriage": 7828,
      "▁ফেব্রু": 7829,
      "pecial:Search/ভারত": 7830,
      "्लेट": 7831,
      "বিদ্যালয়": 7832,
      "▁[আর্কাইভকৃত](https://web.archive.org/web/2008": 7833,
      "▁[আর্কাইভকৃত](https://www.webcitation.org/6174": 7834,
      "हित्य": 7835,
      "ेघालय": 7836,
      "ক্রান্ত": 7837,
      "ডারেশন": 7838,
      "▁दिसंबर": 7839,
      "roadcast": 7840,
      "hapter": 7841,
      "▁পরীক্ষা": 7842,
      "▁\"पाकिस्तान\")": 7843,
      "▁नेतृत्व": 7844,
      "edieval": 7845,
      "ofiles/": 7846,
      "িত্তিতে": 7847,
      "থাপিছু": 7848,
      "रुणाचल": 7849,
      "चेंज": 7850,
      "िबंधीय": 7851,
      "geohack": 7852,
      "-7mar2011": 7853,
      "](./भारत#cite_ref-langoff_128": 7854,
      "▁ফেব্রুয়ারি": 7855,
      "roadcasting": 7856,
      ".og": 7857,
      ".und": 7858,
      "3,": 7859,
      "cod": 7860,
      "def": 7861,
      "eb": 7862,
      "ead": 7863,
      "hl": 7864,
      "jo": 7865,
      "kb": 7866,
      "p.org/": 7867,
      "rig": 7868,
      "vil": 7869,
      "▁old": 7870,
      "inanc": 7871,
      "erage": 7872,
      "ising": 7873,
      "▁(N": 7874,
      "▁(2014": 7875,
      "trop": 7876,
      "](https://en": 7877,
      "▁sim": 7878,
      "▁15.": 7879,
      "▁13.": 7880,
      "ume": 7881,
      "atab": 7882,
      "▁Central": 7883,
      "result": 7884,
      "▁Dictionary": 7885,
      "▁Nat": 7886,
      "agen": 7887,
      "▁20.": 7888,
      "▁2001": 7889,
      "s/def": 7890,
      "ritsch": 7891,
      "▁only": 7892,
      "bert": 7893,
      "▁near": 7894,
      "vey": 7895,
      "efence": 7896,
      "auth": 7897,
      "▁Vol": 7898,
      "▁10.": 7899,
      "ject": 7900,
      "▁subject": 7901,
      "loc.gov/": 7902,
      "ouncil": 7903,
      "ault/files/": 7904,
      "hdr.und": 7905,
      "s/default/files/": 7906,
      "hdr.undp.org/": 7907,
      "&ss": 7908,
      ".ac": 7909,
      "/IND": 7910,
      "51)": 7911,
      "Court": 7912,
      "F)": 7913,
      "Kolkata": 7914,
      "_),": 7915,
      "b)": 7916,
      "hindi": 7917,
      "lood": 7918,
      "oes": 7919,
      "oard": 7920,
      "vent": 7921,
      "y=": 7922,
      "▁z": 7923,
      "▁[f": 7924,
      "▁[World": 7925,
      "orig": 7926,
      "eritage": 7927,
      "anat": 7928,
      "alk": 7929,
      "enter": 7930,
      "es_": 7931,
      "ison": 7932,
      "▁ag": 7933,
      "▁(a)": 7934,
      "19)": 7935,
      "ouch": 7936,
      "ivoy": 7937,
      "▁summits": 7938,
      "▁16.": 7939,
      "▁People": 7940,
      "urk": 7941,
      "hell": 7942,
      "▁capita": 7943,
      "▁mon": 7944,
      "architecture": 7945,
      "▁women": 7946,
      "▁Machine": 7947,
      "uled": 7948,
      "10)": 7949,
      "▁B.;": 7950,
      "▁[\"G": 7951,
      "▁Nehru": 7952,
      "▁November": 7953,
      "ship": 7954,
      "_Arab": 7955,
      "-34": 7956,
      "-53": 7957,
      "1991": 7958,
      ".[[3": 7959,
      "aves": 7960,
      "]](./India#cite_note-FOOTNOTEMetcalfMetcalf2006": 7961,
      "arty": 7962,
      "7080": 7963,
      "undament": 7964,
      "efore": 7965,
      "/countries/": 7966,
      "▁[British": 7967,
      "_summits": 7968,
      "ligned": 7969,
      "ue.bnf.fr/ark:/12148/cb": 7970,
      "▁[![](//upload.wikimedia.org/wikipedia/commons/thumb/a/a": 7971,
      "▁2014.": 7972,
      "▁\"Government": 7973,
      "](./List_of_SAARC": 7974,
      "_Gandhi": 7975,
      "▁[![A": 7976,
      "1962": 7977,
      "[![](//upload.wikimedia.org/wikipedia/commons/thumb/c/c": 7978,
      "▁technology": 7979,
      "▁Hinduism": 7980,
      "reek": 7981,
      "awahar": 7982,
      "▁[_An": 7983,
      "hattis": 7984,
      "▁composed": 7985,
      "6/6": 7986,
      "-to-": 7987,
      "_by_population": 7988,
      "merican": 7989,
      "equality": 7990,
      "▁name:": 7991,
      "▁mi)": 7992,
      "_BRICS_summit": 7993,
      "▁Persian": 7994,
      "_Development_": 7995,
      "](https://id.": 7996,
      "▁known": 7997,
      "entral_": 7998,
      "razil": 7999,
      "ivoyage": 8000,
      "▁summits\")\n": 8001,
      "](./List_of_SAARC_summits": 8002,
      "awaharl": 8003,
      "&c": 8004,
      "-T": 8005,
      "-prov": 8006,
      "1b": 8007,
      "7-1": 8008,
      "EB": 8009,
      "E_": 8010,
      "History": 8011,
      "KI": 8012,
      "Kashmir": 8013,
      "Political_": 8014,
      "Ram": 8015,
      "_43": 8016,
      "fo": 8017,
      "que": 8018,
      "ru": 8019,
      "ya_": 8020,
      "▁77.": 8021,
      "arayan": 8022,
      "ed,": 8023,
      "ediff": 8024,
      "▁ass": 8025,
      "▁(in": 8026,
      "am,": 8027,
      "[[14": 8028,
      "um_": 8029,
      "▁See": 8030,
      "find": 8031,
      "▁_P": 8032,
      "▁Bharat": 8033,
      "▁human": 8034,
      "138": 8035,
      "▁religion": 8036,
      "60)": 8037,
      "liter": 8038,
      "liest": 8039,
      "ociation": 8040,
      "utt": 8041,
      "articles": 8042,
      "/publications/": 8043,
      "▁Thomas": 8044,
      ".asp?": 8045,
      "/articles/": 8046,
      "ministered": 8047,
      "actbook/": 8048,
      "▁shall": 8049,
      "view/": 8050,
      "tiger": 8051,
      ".worldcat.org/": 8052,
      "▁Minorities,": 8053,
      "hmedabad": 8054,
      "%27": 8055,
      "8–": 8056,
      ":IN": 8057,
      ";\n": 8058,
      "AS": 8059,
      "CS1": 8060,
      "_st": 8061,
      "data": 8062,
      "eub": 8063,
      "str": 8064,
      "aring": 8065,
      "Indian_": 8066,
      "an-": 8067,
      "es,": 8068,
      "cir": 8069,
      "1956": 8070,
      "▁India\n": 8071,
      "wikidata": 8072,
      "eccan": 8073,
      "▁four": 8074,
      "216": 8075,
      "2542": 8076,
      "▁2012.": 8077,
      "103": 8078,
      "108": 8079,
      "▁Division": 8080,
      "akes": 8081,
      "▁Gana": 8082,
      "▁2000": 8083,
      "-89": 8084,
      "-349": 8085,
      "1857": 8086,
      "179": 8087,
      "ave": 8088,
      "](https://books.google.com/books?id=3TRtDwAAQBAJ&pg=PA": 8089,
      "ommission": 8090,
      "/page/": 8091,
      "IAEXT": 8092,
      "alaysia": 8093,
      "2103": 8094,
      "ofindia.nic.in/": 8095,
      ".JPG/": 8096,
      ".JPG)](./": 8097,
      "bbc.": 8098,
      "ravidian": 8099,
      "euborne": 8100,
      "2542-5": 8101,
      "&local_": 8102,
      "-৬": 8103,
      "-24": 8104,
      "-50": 8105,
      ".৭": 8106,
      ".\")\n": 8107,
      "/b": 8108,
      "/)।": 8109,
      "130": 8110,
      "240": 8111,
      "2-4": 8112,
      "5–సా.శ.": 8113,
      "8+": 8114,
      "Allchin": 8115,
      "CH": 8116,
      "Parliament": 8117,
      "Petraglia": 8118,
      "[మ": 8119,
      "_ফ": 8120,
      "_అ": 8121,
      "_ఎ": 8122,
      "_ర": 8123,
      "_con": 8124,
      "_యు": 8125,
      "_రాజ": 8126,
      "_శాస్త్ర": 8127,
      "_তালিকা": 8128,
      "_languages": 8129,
      "ax": 8130,
      "base": 8131,
      "constitution": 8132,
      "code": 8133,
      "dikshit": 8134,
      "gir": 8135,
      "iosphere": 8136,
      "ji": 8137,
      "jan": 8138,
      "las": 8139,
      "nu": 8140,
      "rance": 8141,
      "s=": 8142,
      "ईद": 8143,
      "ऍथ": 8144,
      "ऑक्सफोर्ड": 8145,
      "ख़": 8146,
      "गध": 8147,
      "जल": 8148,
      "जपा": 8149,
      "जपुरी": 8150,
      "जिस्ट": 8151,
      "ताल": 8152,
      "थम": 8153,
      "थल": 8154,
      "दल": 8155,
      "दान": 8156,
      "नोल": 8157,
      "न्तर": 8158,
      "फ्रां": 8159,
      "बा": 8160,
      "बू": 8161,
      "बार": 8162,
      "मत": 8163,
      "यपुर": 8164,
      "रस": 8165,
      "ल्ल": 8166,
      "वेश": 8167,
      "शत": 8168,
      "शोक": 8169,
      "हम": 8170,
      "हें": 8171,
      "ाक": 8172,
      "ुरा": 8173,
      "ुम्ब": 8174,
      "ूबर": 8175,
      "ृष्ण": 8176,
      "ेक": 8177,
      "ॉग": 8178,
      "५७": 8179,
      "উট": 8180,
      "ওড়ি": 8181,
      "কক্ষ": 8182,
      "কলা": 8183,
      "কগণ": 8184,
      "কশাল": 8185,
      "ঘাট": 8186,
      "চ্": 8187,
      "জনে": 8188,
      "ট্": 8189,
      "তথ্য": 8190,
      "দ্যান": 8191,
      "দিকে": 8192,
      "ধা": 8193,
      "ফস": 8194,
      "বু": 8195,
      "ব্যবস্থা": 8196,
      "ময়": 8197,
      "মিয়ানমার": 8198,
      "যান": 8199,
      "রবী": 8200,
      "রকারি": 8201,
      "রমাণু": 8202,
      "সল": 8203,
      "স\")": 8204,
      "হারা": 8205,
      "ী_": 8206,
      "ী](./": 8207,
      "ুক্তি": 8208,
      "ৃষি": 8209,
      "োহ": 8210,
      "ৌর্য": 8211,
      "ৌলিক": 8212,
      "২৩": 8213,
      "২৮": 8214,
      "৭১": 8215,
      "ఒలి": 8216,
      "కూ": 8217,
      "కర్": 8218,
      "గే": 8219,
      "గ్ర": 8220,
      "గతి": 8221,
      "జు": 8222,
      "ఞాన": 8223,
      "టం": 8224,
      "టన్": 8225,
      "పం": 8226,
      "పీ": 8227,
      "పో": 8228,
      "పార": 8229,
      "పచ్చ": 8230,
      "మ్య": 8231,
      "మతి": 8232,
      "యాలో": 8233,
      "లె": 8234,
      "వై": 8235,
      "వ్": 8236,
      "వత్స": 8237,
      "వృద్ధి": 8238,
      "సీ": 8239,
      "సే": 8240,
      "స్రా": 8241,
      "హక": 8242,
      "ాంగ": 8243,
      "ాబ్": 8244,
      "ీఠ": 8245,
      "ువు": 8246,
      "ూపా": 8247,
      "ెట్": 8248,
      "ేవ": 8249,
      "ైద": 8250,
      "ైగా": 8251,
      "ొయ": 8252,
      "‌ల": 8253,
      "–24": 8254,
      "▁ট": 8255,
      "▁৯": 8256,
      "▁ఘ": 8257,
      "▁ना": 8258,
      "▁গু": 8259,
      "▁దీ": 8260,
      "▁ঐতিহ্য": 8261,
      "](./ग": 8262,
      "](./চ": 8263,
      "](./ফ": 8264,
      "](./హ": 8265,
      "](./हिन्द": 8266,
      "](./జన": 8267,
      "](./గో": 8268,
      "](./భారతదేశ_": 8269,
      "▁[রাজ্য": 8270,
      "▁[జన": 8271,
      "▁[హిందూ": 8272,
      "▁[పాకిస్తాన్": 8273,
      "▁[ముంబై": 8274,
      "▁[गुजरात": 8275,
      "▁\"ड": 8276,
      "▁\"ফ": 8277,
      "▁\"గ": 8278,
      "▁\"সা": 8279,
      "▁\"దక్షిణ": 8280,
      "▁\"साँचा": 8281,
      "▁\"మూస": 8282,
      "▁\"హిందూ": 8283,
      "▁\"పాకిస్తాన్": 8284,
      "▁\"ప్రపంచ": 8285,
      "▁\"ముంబై": 8286,
      "▁\"వర్గం:Harv": 8287,
      "▁\"ప్రత్యేక:EditPage/మూస:": 8288,
      "nder": 8289,
      "on_the": 8290,
      "reen": 8291,
      "th_BRICS_summit": 8292,
      "erc": 8293,
      "arlo": 8294,
      "alak": 8295,
      "es.": 8296,
      "্রপ্রদেশ": 8297,
      "য়ো": 8298,
      "য়লা": 8299,
      "्रार": 8300,
      "్రైస్త": 8301,
      "▁सूच": 8302,
      "্যার": 8303,
      "ices": 8304,
      "outheast": 8305,
      "astr": 8306,
      "idref": 8307,
      "▁मध्य": 8308,
      "▁मन्दिर": 8309,
      "्यूरो": 8310,
      "▁সদ": 8311,
      "్యాలె": 8312,
      "रात": 8313,
      "-0)\n": 8314,
      "▁पड़": 8315,
      "▁प्लेट": 8316,
      "](./ভারত_সরকার": 8317,
      "ন্তি": 8318,
      "loth": 8319,
      "స్వా": 8320,
      "র্ণা": 8321,
      "దేశాలు": 8322,
      "▁17.": 8323,
      "ating": 8324,
      "attle": 8325,
      "▁పద్ధ": 8326,
      "▁పైగా": 8327,
      "▁পশ্চিম": 8328,
      "ations_": 8329,
      "ानगर": 8330,
      "▁Al": 8331,
      "▁Stud": 8332,
      "](./भारत_का": 8333,
      "న్ను": 8334,
      "▁हाला": 8335,
      "▁हथियार": 8336,
      "▁Civil": 8337,
      "ector": 8338,
      "ర్ద": 8339,
      "_of_2011": 8340,
      "▁Punjab": 8341,
      "ilgr": 8342,
      "▁caus": 8343,
      "లు\n": 8344,
      "স্টি": 8345,
      "िकी": 8346,
      "రాజ్యం": 8347,
      "याधी": 8348,
      "లోయ": 8349,
      "upreme": 8350,
      "rest": 8351,
      "ipp": 8352,
      "emor": 8353,
      "emographic": 8354,
      "ोंक": 8355,
      "▁కేంద్ర": 8356,
      "▁కంపెనీ": 8357,
      "▁Michael": 8358,
      "ాలుగా": 8359,
      "క్తి": 8360,
      "▁২৪": 8361,
      "▁২৫": 8362,
      "▁ज़": 8363,
      "▁వై": 8364,
      "ालर": 8365,
      "ate=`": 8366,
      "▁div": 8367,
      "▁development": 8368,
      "▁উচ্চ": 8369,
      "হায়": 8370,
      "▁Day": 8371,
      "न्ध": 8372,
      "न्स": 8373,
      "]](./India#cite_note-4": 8374,
      "]](./India#cite_note-Combined": 8375,
      "▁సమా": 8376,
      "▁సర్వ": 8377,
      "▁సుల్తా": 8378,
      "▁बार": 8379,
      "▁बने": 8380,
      "▁बड़ा": 8381,
      "▁प्रस": 8382,
      "▁प्रारम्भ": 8383,
      "](//upload.wikimedia.org/wikipedia/en/": 8384,
      "▁नौसेना": 8385,
      "▁প্রচ": 8386,
      "▁1962": 8387,
      "▁বুদ্ধ": 8388,
      "▁নিক": 8389,
      "▁নীতি": 8390,
      "▁ভারত\")\n": 8391,
      "50–సా.శ.": 8392,
      "▁Har": 8393,
      "▁చర్చ:": 8394,
      "▁জলবায়ু": 8395,
      "्टॉक": 8396,
      "తాక": 8397,
      "నాట": 8398,
      "▁হতে": 8399,
      "▁হিম": 8400,
      "సింది.": 8401,
      "-37": 8402,
      "▁[↑](./India#cite_ref-4": 8403,
      "▁वाल": 8404,
      "▁वार्ता:": 8405,
      "क्षण": 8406,
      "क्षद्वीप": 8407,
      "▁বিভাগ": 8408,
      "▁বিপ্লব": 8409,
      "ులు\")": 8410,
      "ులు?action=edit&redlink=1": 8411,
      "▁hum": 8412,
      "▁आन्द": 8413,
      "–సా.శ.14": 8414,
      "ap_en": 8415,
      "▁(సా.శ.6": 8416,
      "▁(సా.శ.17": 8417,
      "▁(సా.శ.14": 8418,
      "-59": 8419,
      "तिब्बत": 8420,
      "লাক্ষাদ্বীপ": 8421,
      "▁అను": 8422,
      "ిక,": 8423,
      "▁দা": 8424,
      "a_1": 8425,
      "a_C": 8426,
      "1993": 8427,
      "](./ভারতের_প্র": 8428,
      "](./ভারতের_রাজ্য": 8429,
      "కుపచ్చ": 8430,
      "జాతి": 8431,
      "।[[৬": 8432,
      "](./భారతదేశం#CITEREF": 8433,
      "ishers": 8434,
      "]](./भारत#cite_note-10": 8435,
      "थाईल": 8436,
      "▁गठ": 8437,
      "▁these": 8438,
      "E0%A": 8439,
      "লিউড": 8440,
      "▁১০": 8441,
      "▁১৮": 8442,
      "▁\\(भारत": 8443,
      "▁ఆకుపచ్చ": 8444,
      "মিজ": 8445,
      "మాతర": 8446,
      "మాబాద్": 8447,
      "రుపు": 8448,
      "రుగు": 8449,
      "সংসদ": 8450,
      "▁రే": 8451,
      "নাড়": 8452,
      "విజ": 8453,
      "udi": 8454,
      "]](./India#cite_note-FOOTNOTEStein2010": 8455,
      "कांक": 8456,
      "যুগ": 8457,
      "▁लिया": 8458,
      "ঙ্গেয়": 8459,
      "हिमालय": 8460,
      "](https://www.idref": 8461,
      "ियान": 8462,
      "-674": 8463,
      "-691": 8464,
      "▁Asia:": 8465,
      "ড়ো": 8466,
      "▁tree": 8467,
      "ublishers": 8468,
      "ंडमान": 8469,
      "opulation_T": 8470,
      "▁నె": 8471,
      "▁నది": 8472,
      "మించ": 8473,
      "▁सागर": 8474,
      "ঞ্চা": 8475,
      "ঞ্চলে": 8476,
      "o-operation": 8477,
      "▁తన": 8478,
      "▁\"Category:": 8479,
      "ummary": 8480,
      "এনসাই": 8481,
      "▁[মহা": 8482,
      "▁\"महाराष्ट्र": 8483,
      "](./Category:": 8484,
      "5457": 8485,
      "▁ইংরেজি": 8486,
      "▁विज्ञान": 8487,
      "ం](./అ": 8488,
      "ం](./క": 8489,
      "ంబంధ": 8490,
      "हाब": 8491,
      "परेशन": 8492,
      "▁करना": 8493,
      "▁करता": 8494,
      "▁২০১৬": 8495,
      "▁২০১৮": 8496,
      "గువ": 8497,
      "मीरात": 8498,
      "ভূটান": 8499,
      "▁বায়ু": 8500,
      "](./महाराष्ट्र": 8501,
      "▁क्षेत्र\")": 8502,
      "র্বো": 8503,
      "ंग्रेज": 8504,
      "▁సంస్థ": 8505,
      "▁సంవత్స": 8506,
      "▁language\"),": 8507,
      "ibcode": 8508,
      "డియా": 8509,
      "▁[2](./भारत#cite_ref-FOOTNOTE": 8510,
      "র্মসূ": 8511,
      "_చర్చ:": 8512,
      "▁[1](./भारत#cite_ref-FOOTNOTE": 8513,
      "](./Template": 8514,
      "▁\"మధ్య": 8515,
      "-date=`": 8516,
      "▁ఎన్నిక": 8517,
      "▁ఎన్ను": 8518,
      "▁(సా.శ.పూ.1200": 8519,
      "375457": 8520,
      "](./మధ్య": 8521,
      "శాఖ": 8522,
      "ন্ধ্রপ্রদেশ": 8523,
      "▁देश\")\n": 8524,
      "_1_of_2011": 8525,
      "▁గణ": 8526,
      "_map_en": 8527,
      "▁चार": 8528,
      "uddha": 8529,
      "্রিটান": 8530,
      "▁স্বা": 8531,
      "కృష్": 8532,
      "రాష్ట్రాల": 8533,
      "हारजिस्ट": 8534,
      "]](./భారతదేశం#cite_note-india.gov.in": 8535,
      "▁বিশেষ": 8536,
      "_సంగీతం": 8537,
      "▁১৯৮": 8538,
      "िवस": 8539,
      "▁वर्षा": 8540,
      "साँचा_व": 8541,
      "▁[Government": 8542,
      "_भारतीय_": 8543,
      "ায়।": 8544,
      "ారిగా": 8545,
      "మూస_చర్చ:": 8546,
      "▁2007\n": 8547,
      "▁2007](./ভারত#": 8548,
      "నాయక": 8549,
      "–సా.శ.పూ.3": 8550,
      "దావరి": 8551,
      "▁ప్రాంతాలు](./": 8552,
      "▁घरेलू": 8553,
      "▁বিশ্বকাপ": 8554,
      "समूह": 8555,
      "বর্ষ": 8556,
      "▁সরকারের": 8557,
      "హాస": 8558,
      "▁(২০": 8559,
      "](./पूर्व": 8560,
      "▁కూడిన": 8561,
      "▁([help](./వర్గం:Harv": 8562,
      "ighth": 8563,
      "ष्ठ": 8564,
      "▁রাষ্ট্রপতি": 8565,
      "न्नड़": 8566,
      "▁నిర్వ": 8567,
      "rancis": 8568,
      "_Force": 8569,
      "_మతం": 8570,
      "ोरम": 8571,
      "ణిపూర్": 8572,
      "आईएस": 8573,
      "दाख": 8574,
      "▁था,": 8575,
      "_আন্দোলন": 8576,
      "orests": 8577,
      "ेर-": 8578,
      "▁धर्म\")": 8579,
      "श्मीरी": 8580,
      "য়াদিল্লি": 8581,
      "▁This": 8582,
      "▁[జమ్మూ": 8583,
      "▁పాత్ర": 8584,
      "▁কোটি": 8585,
      "▁কোম্পানি": 8586,
      "▁शासित": 8587,
      ".svg.png)](./File:": 8588,
      "ోర్చు": 8589,
      "▁\"చైనా": 8590,
      "aper_1_of_2011": 8591,
      "ंपन": 8592,
      "ंपरा": 8593,
      "▁[↑](./भारत#cite_ref-10": 8594,
      "त्पत्ति": 8595,
      "▁ఉన్నాయి.\n": 8596,
      "▁ఒకటి": 8597,
      "_ইউ": 8598,
      "▁বৈদেশিক": 8599,
      "▁শিল্প\")\n": 8600,
      "हाराष्ट्र](./महाराष्ट्र": 8601,
      "జ్ఞాన": 8602,
      "▁अपने": 8603,
      "ार्कट": 8604,
      "▁तटीय": 8605,
      "▁పరిశ్ర": 8606,
      "disha": 8607,
      ".fr/0": 8608,
      "लिंग": 8609,
      "▁ইউনিভার্সিটি": 8610,
      "▁మార్గాలు": 8611,
      "రోపా": 8612,
      "जयपुर": 8613,
      "जयनगर": 8614,
      "भूटान": 8615,
      "ikhism": 8616,
      "▁ক্রিকেট": 8617,
      "िज़ोरम": 8618,
      "দ্রোহ": 8619,
      "তামিলনাড়": 8620,
      "▁భారతదేశానికి": 8621,
      "▁మతము\")": 8622,
      "▁మతము\"),": 8623,
      "णिपुर": 8624,
      "णिपुरी": 8625,
      "लोकसभा": 8626,
      "বর্তী": 8627,
      "_न्या": 8628,
      "ईसाई": 8629,
      "▁सुरक्षा": 8630,
      "▁এশিয়ার": 8631,
      "▁व्यवस्था": 8632,
      "्रांति": 8633,
      "शासित_प्रदेश": 8634,
      "ీనంలో": 8635,
      "▁ప్రపంచంలో": 8636,
      "Provision": 8637,
      "▁টাকা": 8638,
      "▁পূর্": 8639,
      "पातकाल": 8640,
      "▁অনুযায়ী": 8641,
      "▁ప్రభుత్వ": 8642,
      "▁మొదటి": 8643,
      "धिराज्य": 8644,
      "▁जलवायु": 8645,
      "▁घाटी": 8646,
      ".worldbank.org/": 8647,
      "Sharma1950": 8648,
      "▁\"हिन्दी\")": 8649,
      "స్లామాబాద్": 8650,
      "▁పాలన": 8651,
      "▁కార్య": 8652,
      "▁కారణంగా": 8653,
      "▁కలిగి": 8654,
      "▁लगभग": 8655,
      "ంటుంది.": 8656,
      "ूरोप": 8657,
      "भोजपुरी": 8658,
      "▁নিবন্ধ:": 8659,
      "▁[t](./మూస_చర్చ:": 8660,
      "▁[v](./మూస:": 8661,
      "▁[e](./ప్రత్యేక:EditPage/మూస:": 8662,
      "ylee": 8663,
      "▁when": 8664,
      "పదాలు": 8665,
      "శోకుడు": 8666,
      "emale": 8667,
      "▁వేగంగా": 8668,
      "al_Population_T": 8669,
      "▁చిత్ర": 8670,
      "▁జరిగిన": 8671,
      "▁सीमा": 8672,
      "▁regions": 8673,
      "▁স্থাপত্য": 8674,
      "_যুদ্ধ": 8675,
      "নোর": 8676,
      "▁सदस": 8677,
      "▁দেখা": 8678,
      "পাঞ্জাব": 8679,
      "▁राजनीतिक": 8680,
      "▁[पंजाब](./पंजाब": 8681,
      "ণিপুরী": 8682,
      "▁[భారతదేశంలో": 8683,
      "arnatic": 8684,
      "▁అనేక": 8685,
      "▁ఎక్కువగా": 8686,
      "▁থাকে": 8687,
      "▁দ্বীপপুঞ্জ": 8688,
      "▁শিক্ষা": 8689,
      "▁হিন্দু": 8690,
      "_राजवंश": 8691,
      "पूर्ण": 8692,
      "ृद्धि": 8693,
      "ীমান্ত": 8694,
      "▁দশক": 8695,
      "▁দুই": 8696,
      "▁शुरू": 8697,
      "বেঙ্গালুরু": 8698,
      "▁వారసత్వ": 8699,
      "▁ప్రస్తుతం": 8700,
      "▁రోడ్": 8701,
      "otals_P": 8702,
      "▁తరువాత": 8703,
      "▁బెంగాల్": 8704,
      "ంపిక్": 8705,
      "135375457": 8706,
      "culp": 8707,
      "खनऊ": 8708,
      "ারাঠি": 8709,
      "हरियाणा": 8710,
      "func=": 8711,
      "ক্লোপিডিয়া": 8712,
      "নায়ক": 8713,
      "▁হিসেবে": 8714,
      "▁వెబ్": 8715,
      "▁సౌకర్య": 8716,
      "ండీగఢ్": 8717,
      "▁అభివృద్ధి": 8718,
      "▁నడిపించ": 8719,
      "గుప్త": 8720,
      "భారతదేశ_రాష్ట్రాలు,_కేంద్రపాలిత_ప్రాంతాలు": 8721,
      "तुल्य": 8722,
      "फाएं": 8723,
      "ृषि": 8724,
      "▁दोनों": 8725,
      "120]](./भारत#cite_note-langoff-128)": 8726,
      ".nic.in)\n": 8727,
      "▁निभाई": 8728,
      "&local_base": 8729,
      "PetragliaAllchin": 8730,
      "dikshit),": 8731,
      "ऍथनोल": 8732,
      "ुम्बई": 8733,
      "জনেস": 8734,
      "ট্ট": 8735,
      "রবীন্দ্র": 8736,
      "হারাষ্ট্র": 8737,
      "র্ণাটক": 8738,
      "ilgrim": 8739,
      "याधीश": 8740,
      "](//upload.wikimedia.org/wikipedia/en/thumb/": 8741,
      "](https://www.idref.fr/0": 8742,
      "এনসাইক্লোপিডিয়া": 8743,
      "▁(సా.శ.పూ.1200–సా.శ.పూ.": 8744,
      "্রিটানিকা": 8745,
      "కృష్ణా": 8746,
      "हारजिस्ट्रार": 8747,
      "साँचा_वार्ता:": 8748,
      "▁2007](./ভারত#dikshit),": 8749,
      "▁([help](./వర్గం:Harv_and_Sfn_template_errors": 8750,
      "ోర్చుగ": 8751,
      "aper_1_of_2011_India": 8752,
      "ार्कटिका": 8753,
      "Provisional_Population_T": 8754,
      "otals_Paper_1_of_2011_India": 8755,
      "&local_base=": 8756,
      "ऍथनोलॉग": 8757,
      "Provisional_Population_Totals_Paper_1_of_2011_India": 8758,
      "01": 8759,
      "2)[[": 8760,
      "4).": 8761,
      "534": 8762,
      "8)\n": 8763,
      "A/A": 8764,
      "CA/A": 8765,
      "John": 8766,
      "Tab": 8767,
      "_26": 8768,
      "_2011": 8769,
      "_38": 8770,
      "atp": 8771,
      "cur": 8772,
      "denti": 8773,
      "nglish": 8774,
      "q=": 8775,
      "uture": 8776,
      "uild": 8777,
      "ver,": 8778,
      "ndl": 8779,
      "India_%28orthographic_projection%29": 8780,
      "▁(S": 8781,
      ".org/w": 8782,
      "-08": 8783,
      "\\)\"),": 8784,
      "▁prom": 8785,
      "amap": 8786,
      "[[18": 8787,
      "▁Policy": 8788,
      "00%20A": 8789,
      "▁can": 8790,
      "raw": 8791,
      "▁_2011": 8792,
      "eli": 8793,
      "▁[\"World": 8794,
      "22.": 8795,
      "ri_Lanka": 8796,
      "-2_Data_": 8797,
      "lands": 8798,
      "/country": 8799,
      "%202-": 8800,
      "rade": 8801,
      "Asher2006": 8802,
      "AsherAsher2006": 8803,
      "les/00%20A": 8804,
      "▁Anth": 8805,
      "UNHD": 8806,
      "▁around": 8807,
      "▁use": 8808,
      "yyyy": 8809,
      "irector": 8810,
      "censusindia.gov.in/2011census/P": 8811,
      "censusindia.gov.in/2011census/population": 8812,
      "_enumeration": 8813,
      "ocuments/": 8814,
      "-of-india-": 8815,
      "map_of_India": 8816,
      "india.gov.in/india-glance/profile": 8817,
      "owever,": 8818,
      "imf.org/external": 8819,
      "▁domestic": 8820,
      "▁\\-": 8821,
      "▁widely": 8822,
      "▁(2014).": 8823,
      "Political_map_of_India": 8824,
      "CA/A-2_Data_": 8825,
      "Tables/00%20A": 8826,
      "%202-India.pdf)": 8827,
      "UNHDR": 8828,
      "censusindia.gov.in/2011census/PCA/A-2_Data_": 8829,
      "censusindia.gov.in/2011census/population_enumeration": 8830,
      "Tables/00%20A%202-India.pdf)": 8831,
      "censusindia.gov.in/2011census/PCA/A-2_Data_Tables/00%20A%202-India.pdf)": 8832,
      "([": 8833,
      "/profile": 8834,
      "4)\n": 8835,
      "6,": 8836,
      "80%": 8837,
      "9-6": 8838,
      "Aligned": 8839,
      "Karanth": 8840,
      "_on": 8841,
      "dance": 8842,
      "lish": 8843,
      "men": 8844,
      "▁X": 8845,
      "org": 8846,
      "orpor": 8847,
      "arm": 8848,
      "▁(3": 8849,
      "lect": 8850,
      "▁Social": 8851,
      "uris": 8852,
      "▁Report": 8853,
      "▁Dance": 8854,
      "263": 8855,
      "▁[\"In": 8856,
      "▁Home": 8857,
      "_Act": 8858,
      "-85": 8859,
      "html": 8860,
      "_\\(orthographic_projection": 8861,
      "▁Of": 8862,
      "anath": 8863,
      "iance": 8864,
      "arkar": 8865,
      "▁[978-0-521": 8866,
      "tate_": 8867,
      "on-Aligned": 8868,
      "cms).": 8869,
      "/hind": 8870,
      "/index.php?": 8871,
      "▁London:": 8872,
      "estival": 8873,
      "▁Institu": 8874,
      "▁US$": 8875,
      "_\\(orthographic_projection\\)": 8876,
      "/)": 8877,
      "1-8": 8878,
      "223": 8879,
      "2]](./India#cite_note-": 8880,
      "2%29": 8881,
      "7C": 8882,
      "7.\n": 8883,
      ":G": 8884,
      "FT": 8885,
      "Gum": 8886,
      "HQ": 8887,
      "Island": 8888,
      "Lakshadweep": 8889,
      "Pan": 8890,
      "Sanchi": 8891,
      "US": 8892,
      "Yum": 8893,
      "_14": 8894,
      "aos": 8895,
      "bour": 8896,
      "business/": 8897,
      "ght": 8898,
      "hang": 8899,
      "mj": 8900,
      "min": 8901,
      "utes": 8902,
      "vert": 8903,
      "▁ge": 8904,
      "▁el": 8905,
      "▁[n": 8906,
      "▁[_P": 8907,
      "▁\"U": 8908,
      "thang": 8909,
      "orn": 8910,
      "oro": 8911,
      "orship": 8912,
      "aro": 8913,
      "ene": 8914,
      "cid": 8915,
      "city": 8916,
      "▁ago": 8917,
      "2016_": 8918,
      "▁India](./C": 8919,
      "adras": 8920,
      "▁plate": 8921,
      "▁se": 8922,
      "▁sign": 8923,
      "▁Ad": 8924,
      "▁Asher": 8925,
      "▁Ca": 8926,
      "▁Cooperation": 8927,
      "first": 8928,
      "▁Park": 8929,
      "illa": 8930,
      "igarh": 8931,
      "andigarh": 8932,
      "▁man": 8933,
      "▁milk": 8934,
      "▁_M": 8935,
      "tics": 8936,
      "▁Br": 8937,
      "▁Buddhist": 8938,
      "▁Before": 8939,
      "▁Data_": 8940,
      "roduc": 8941,
      "elugu": 8942,
      "irth": 8943,
      "hag": 8944,
      "](./Sanskrit": 8945,
      "▁Games": 8946,
      "▁\"Sanskrit": 8947,
      "pecially": 8948,
      "a_tigris": 8949,
      "ability": 8950,
      "▁gen": 8951,
      "▁growth": 8952,
      "_in_South_Asia": 8953,
      "▁through": 8954,
      "▁On": 8955,
      "▁Island": 8956,
      "▁\"Mughal": 8957,
      "549": 8958,
      "thera_tigris": 8959,
      "▁[↑](./India#cite_ref-FOOTNOTEB": 8960,
      "](./Mugh": 8961,
      "74.": 8962,
      "▁within": 8963,
      "398": 8964,
      "▁[![](//upload.wikimedia.org/wikipedia/commons/thumb/2/": 8965,
      "onstitution_of_India": 8966,
      "engal_": 8967,
      "amil_Nadu": 8968,
      "anskrit](./Sanskrit": 8969,
      "amanuj": 8970,
      "uisine": 8971,
      "ortal:": 8972,
      "known": 8973,
      "Environment": 8974,
      "▁especially": 8975,
      "▁about": 8976,
      "New_Delhi": 8977,
      "ambod": 8978,
      "_union_territ": 8979,
      "topic": 8980,
      "▁increased": 8981,
      "adhya": 8982,
      "](./South_Asian_": 8983,
      "▁2018](./India#CITEREFDyson2018),": 8984,
      "▁different": 8985,
      "](./History_of_": 8986,
      "▁India](./Government_of_India": 8987,
      "InfosysHQ": 8988,
      "FrontView": 8989,
      "▁remain": 8990,
      "8+5": 8991,
      "culpture": 8992,
      "Gumpa": 8993,
      "LakshadweepIsland": 8994,
      "Sanchi2": 8995,
      "Yumthang": 8996,
      "▁Asher,": 8997,
      "](./Mughal_": 8998,
      "InfosysHQFrontView": 8999,
      "-E": 9000,
      "/fr": 9001,
      "6).": 9002,
      "63)": 9003,
      "948": 9004,
      "Dg": 9005,
      "OL": 9006,
      "aith": 9007,
      "bur": 9008,
      "ech": 9009,
      "hra": 9010,
      "yd": 9011,
      "–18": 9012,
      "▁[_M": 9013,
      "ndhra": 9014,
      "inema": 9015,
      "ori": 9016,
      "alle": 9017,
      "ouli": 9018,
      "truggle": 9019,
      "adem": 9020,
      "▁100": 9021,
      "ator": 9022,
      "▁Publication": 9023,
      "illi": 9024,
      "▁census": 9025,
      "ets": 9026,
      "olar": 9027,
      "▁dynasty": 9028,
      "opland": 9029,
      "280": 9030,
      "▁N.": 9031,
      "epic": 9032,
      "29)": 9033,
      "oung": 9034,
      "▁List": 9035,
      "1999": 9036,
      "▁Its": 9037,
      "34)": 9038,
      "34)\n": 9039,
      "ground": 9040,
      "world-f": 9041,
      "erves": 9042,
      "58)": 9043,
      "▁79.": 9044,
      "itive": 9045,
      "IAF": 9046,
      "7/7": 9047,
      "...]": 9048,
      "ramouli": 9049,
      "▁2020.": 9050,
      "▁commun": 9051,
      "10721": 9052,
      "the-world-f": 9053,
      "arnataka": 9054,
      "cia.gov/": 9055,
      "rakash": 9056,
      "bbc.co.uk/": 9057,
      "\"।": 9058,
      "-in": 9059,
      "-ভারত": 9060,
      "-india-": 9061,
      "-गंगा": 9062,
      ".২": 9063,
      "/we": 9064,
      "1st": 9065,
      "2-0": 9066,
      "2-7": 9067,
      "97": 9068,
      "C_P": 9069,
      "E﻿": 9070,
      "FIL": 9071,
      "MAAJ": 9072,
      "OLA": 9073,
      "RA": 9074,
      "Rv": 9075,
      "[भारत": 9076,
      "_to": 9077,
      "a-b": 9078,
      "bharat": 9079,
      "da": 9080,
      "list": 9081,
      "med": 9082,
      "music": 9083,
      "s:": 9084,
      "s=`": 9085,
      "ving": 9086,
      "ँकि": 9087,
      "ंबर": 9088,
      "ईस्ट": 9089,
      "ऊर्जा": 9090,
      "ऋतु": 9091,
      "ऑपरेशन": 9092,
      "कु": 9093,
      "जवा": 9094,
      "तग": 9095,
      "त्या": 9096,
      "तमान": 9097,
      "थी": 9098,
      "दु": 9099,
      "नत": 9100,
      "मूल": 9101,
      "ल्त": 9102,
      "वत": 9103,
      "वली": 9104,
      "शील": 9105,
      "सत": 9106,
      "सैन": 9107,
      "ी.": 9108,
      "ुक": 9109,
      "ुस्तान": 9110,
      "ूस": 9111,
      "ेय": 9112,
      "५०": 9113,
      "কত": 9114,
      "কল": 9115,
      "কুল": 9116,
      "খরান": 9117,
      "ঝা": 9118,
      "টাল": 9119,
      "ঠে": 9120,
      "তো": 9121,
      "দারি": 9122,
      "ধর": 9123,
      "ধুন": 9124,
      "ন।": 9125,
      "নার": 9126,
      "বৃ": 9127,
      "বরা": 9128,
      "বেষ": 9129,
      "শু": 9130,
      "স্য": 9131,
      "সঙ্গীত": 9132,
      "হার": 9133,
      "াম": 9134,
      "ুষ": 9135,
      "েক": 9136,
      "েন্ট": 9137,
      "োমিটার": 9138,
      "োখরান": 9139,
      "্গ": 9140,
      "১১": 9141,
      "২,": 9142,
      "২৯": 9143,
      "৩৭": 9144,
      "৪।": 9145,
      "৯]](./ভারত#cite_note-": 9146,
      "▁ऐ": 9147,
      "▁५": 9148,
      "▁লি": 9149,
      "▁ক্ষমতা": 9150,
      "▁০.": 9151,
      "▁ট্রফি": 9152,
      "](./य": 9153,
      "](./সা": 9154,
      "](./প্র": 9155,
      "](./तमिल": 9156,
      "](./দক্ষিণ": 9157,
      "](./বাংলাদেশ": 9158,
      "](./নেপাল": 9159,
      "▁[श": 9160,
      "▁[০": 9161,
      "▁[৮": 9162,
      "▁[राज्य": 9163,
      "▁[प्र": 9164,
      "▁[গণ": 9165,
      "▁[উপ": 9166,
      "▁[বাংলাদেশ": 9167,
      "▁[নেপাল": 9168,
      "▁[ডিও": 9169,
      "▁\"প্র": 9170,
      "▁\"प्र": 9171,
      "▁\"राष्ट्रीय": 9172,
      "▁\"तमिल": 9173,
      "▁\"বাংলাদেশ": 9174,
      "▁\"নেপাল": 9175,
      "▁\"विशेष:EditPage/साँचा:": 9176,
      "inal_": 9177,
      "ারে": 9178,
      "arak": 9179,
      "▁कर्ज": 9180,
      "▁(ই": 9181,
      "▁(ম": 9182,
      "▁(2019": 9183,
      "▁(2nd": 9184,
      "▁(b)": 9185,
      "▁सूर": 9186,
      "▁मील": 9187,
      "▁সক্ষম": 9188,
      "▁সভ্য": 9189,
      "-138": 9190,
      "তিন": 9191,
      "▁पै": 9192,
      "▁पहु": 9193,
      "▁पश्चिम": 9194,
      "ন্ব": 9195,
      "](https://pub": 9196,
      "বিত্র": 9197,
      "বিভাগ": 9198,
      "wearing": 9199,
      "▁পু": 9200,
      "▁পতাকা": 9201,
      "▁পার্টি": 9202,
      "र्क": 9203,
      "र्तग": 9204,
      "linkid=": 9205,
      "urvey": 9206,
      "ালো": 9207,
      "uprem": 9208,
      "▁অংশ": 9209,
      "▁অধিকার": 9210,
      "বাদী": 9211,
      "▁Mana": 9212,
      "▁মানু": 9213,
      "▁মোদী": 9214,
      "विद्यालय": 9215,
      "_केंद्र": 9216,
      "▁दी": 9217,
      "राजनी": 9218,
      "26.": 9219,
      "▁बनी": 9220,
      "▁बड़ी": 9221,
      "ারিত": 9222,
      "▁प्रण": 9223,
      "▁प्रभा": 9224,
      "▁प्रकार": 9225,
      "लावा": 9226,
      "▁निय": 9227,
      "▁नृत्य": 9228,
      "▁প্রায়": 9229,
      "▁প্রেস": 9230,
      "unle": 9231,
      "▁বে": 9232,
      "▁নিয়ন্ত্রণ": 9233,
      "_सिनेमा": 9234,
      "▁[\"M": 9235,
      "115": 9236,
      "তা\")": 9237,
      "তাবাদ": 9238,
      "508": 9239,
      "▁জি": 9240,
      "▁জোট": 9241,
      "s_](https://books.google.com/books?id=": 9242,
      "▁Nuclear": 9243,
      "▁আজ": 9244,
      "▁আঞ্চল": 9245,
      "स्ता": 9246,
      "ित्व": 9247,
      "▁সংখ্যা": 9248,
      "▁आय": 9249,
      "্যাস": 9250,
      "লাকা": 9251,
      "extra_": 9252,
      "িলোমিটার": 9253,
      "](./ভারতের_জ": 9254,
      "](./ভারতের_স": 9255,
      "](./ভারতের_ভূ": 9256,
      "▁Factbook": 9257,
      "▁गए": 9258,
      "रीक्षण": 9259,
      "গ্রহ": 9260,
      "▁परमाणु": 9261,
      "▁परंपरा": 9262,
      "রিক্ত": 9263,
      "ादरा": 9264,
      "/http://books.google.com/books?id=": 9265,
      "AAMAAJ": 9266,
      "_महासागर": 9267,
      "▁संख्या": 9268,
      "नेट": 9269,
      "▁[महाराष्ट्र](./महाराष्ट्र": 9270,
      "▁২০০৬": 9271,
      "_के_देश": 9272,
      "ম্ভ": 9273,
      ".ncbi.nlm.nih": 9274,
      "ी](./प": 9275,
      "ी](./स": 9276,
      "ज़ा": 9277,
      "राष्ट्रीय_": 9278,
      "গুলিত": 9279,
      "sey": 9280,
      "সিস": 9281,
      "সিপা": 9282,
      "▁भाषाएँ": 9283,
      ".html),": 9284,
      "54)": 9285,
      "▁विवाद": 9286,
      "▁विभाग": 9287,
      "▁equ": 9288,
      "▁notation": 9289,
      "▁V.": 9290,
      "%2C_India": 9291,
      "্রান্স": 9292,
      "ধ্যম": 9293,
      "भिन्न": 9294,
      "newsite": 9295,
      "▁নিয়ে": 9296,
      "▁\"Tamil": 9297,
      "576": 9298,
      "ভিদ": 9299,
      "▁18.": 9300,
      "▁রক্ষণ": 9301,
      "▁जनता": 9302,
      "সমূহের": 9303,
      "বাহী": 9304,
      "▁जाते": 9305,
      "▁`|co": 9306,
      "▁যার": 9307,
      "▁\"ब्रिटिश": 9308,
      "▁इसी": 9309,
      "▁চাল": 9310,
      "▁([সাহায্য](./সাহায্য:উদ্ধৃতি_শৈলী_ত্রুটি#extra_": 9311,
      "জিডিপি": 9312,
      "সমূহের_তালিকা": 9313,
      "िवेश": 9314,
      "জনগণ": 9315,
      "Increase_": 9316,
      "2007),": 9317,
      "▁খ্রি": 9318,
      "ের](./আ": 9319,
      "▁समूह": 9320,
      "▁घोष": 9321,
      "মেন্ট": 9322,
      "▁৩০": 9323,
      "▁৩১": 9324,
      "পুরা": 9325,
      "ेखा": 9326,
      "authors=`": 9327,
      "%E0%A6%BF": 9328,
      "কেন্দ্রীয়": 9329,
      "&source": 9330,
      "▁जिसके": 9331,
      "](./उत्तर": 9332,
      "▁\"उत्तर": 9333,
      "▁सिंह": 9334,
      "▁রাজনীতি": 9335,
      "▁[उत्तर": 9336,
      "▁१९९": 9337,
      "वर्ष": 9338,
      "▁[3](./ভারত#cite_ref-": 9339,
      "▁২০২০": 9340,
      "▁২০২২": 9341,
      "eligious": 9342,
      "▁2016.\n": 9343,
      "আই](./Doi_\\(identifier\\)": 9344,
      "▁अपनी": 9345,
      "▁প্রাণী": 9346,
      "_का_खाना": 9347,
      "▁Short": 9348,
[...]
