{
  "version": "1.0",
  "truncation": null,
  "padding": null,
  "added_tokens": [
    {
      "id": 0,
      "content": "<unk>",
      "single_word": false,
      "lstrip": false,
      "rstrip": false,
      "normalized": false,
      "special": true
    },
    {
      "id": 1,
      "content": "<pad>",
      "single_word": false,
      "lstrip": false,
      "rstrip": false,
      "normalized": false,
      "special": true
    }
  ],
  "normalizer": {
    "type": "Sequence",
    "normalizers": [
      {
        "type": "NFKC"
      },
      {
        "type": "Replace",
        "pattern": {
          "String": "[^\\p{L}\\p{M}\\p{N}]+"
        },
        "content": " "
      }
    ]
  },
  "pre_tokenizer": {
    "type": "Whitespace"
  },
  "post_processor": null,
  "decoder": null,
  "model": {
    "type": "BPE",
    "dropout": null,
    "unk_token": "<unk>",
    "continuing_subword_prefix": null,
    "end_of_word_suffix": null,
    "fuse_unk": false,
    "byte_fallback": false,
    "ignore_merges": false,
    "vocab": {
      "<unk>": 0,
      "<pad>": 1,
      "!": 2,
      "\"": 3,
      "#": 4,
      "$": 5,
      "%": 6,
      "&": 7,
      "'": 8,
      "(": 9,
      ")": 10,
      "*": 11,
      "+": 12,
      ",": 13,
      "-": 14,
      ".": 15,
      "/": 16,
      "0": 17,
      "1": 18,
      "2": 19,
      "3": 20,
      "4": 21,
      "5": 22,
      "6": 23,
      "7": 24,
      "8": 25,
      "9": 26,
      ":": 27,
      ";": 28,
      "<": 29,
      "=": 30,
      ">": 31,
      "?": 32,
      "A": 33,
      "B": 34,
      "C": 35,
      "D": 36,
      "E": 37,
      "F": 38,
      "G": 39,
      "H": 40,
      "I": 41,
      "J": 42,
      "K": 43,
      "L": 44,
      "M": 45,
      "N": 46,
      "O": 47,
      "P": 48,
      "Q": 49,
      "R": 50,
      "S": 51,
      "T": 52,
      "U": 53,
      "V": 54,
      "W": 55,
      "X": 56,
      "Y": 57,
      "Z": 58,
      "[": 59,
      "\\": 60,
      "]": 61,
      "^": 62,
      "_": 63,
      "`": 64,
      "a": 65,
      "b": 66,
      "c": 67,
      "d": 68,
      "e": 69,
      "f": 70,
      "g": 71,
      "h": 72,
      "i": 73,
      "j": 74,
      "k": 75,
      "l": 76,
      "m": 77,
      "n": 78,
      "o": 79,
      "p": 80,
      "q": 81,
      "r": 82,
      "s": 83,
      "t": 84,
      "u": 85,
      "v": 86,
      "w": 87,
      "x": 88,
      "y": 89,
      "z": 90,
      "{": 91,
      "|": 92,
      "}": 93,
      "~": 94,
      "°": 95,
      "·": 96,
      "Ö": 97,
      "ß": 98,
      "á": 99,
      "â": 100,
      "æ": 101,
      "ç": 102,
      "è": 103,
      "é": 104,
      "í": 105,
      "ñ": 106,
      "ö": 107,
      "ü": 108,
      "ā": 109,
      "ī": 110,
      "İ": 111,
      "Ś": 112,
      "ś": 113,
      "ţ": 114,
      "ū": 115,
      "ș": 116,
      "ə": 117,
      "ɦ": 118,
      "ɪ": 119,
      "ɾ": 120,
      "ʊ": 121,
      "ʼ": 122,
      "ˈ": 123,
      "ː": 124,
      "́": 125,
      "ί": 126,
      "α": 127,
      "δ": 128,
      "θ": 129,
      "ν": 130,
      "ο": 131,
      "π": 132,
      "ς": 133,
      "ό": 134,
      "ँ": 135,
      "ं": 136,
      "ः": 137,
      "अ": 138,
      "आ": 139,
      "इ": 140,
      "ई": 141,
      "उ": 142,
      "ऊ": 143,
      "ऋ": 144,
      "ऍ": 145,
      "ए": 146,
      "ऐ": 147,
      "ऑ": 148,
      "ओ": 149,
      "औ": 150,
      "क": 151,
      "ख": 152,
      "ग": 153,
      "घ": 154,
      "ङ": 155,
      "च": 156,
      "छ": 157,
      "ज": 158,
      "झ": 159,
      "ञ": 160,
      "ट": 161,
      "ठ": 162,
      "ड": 163,
      "ढ": 164,
      "ण": 165,
      "त": 166,
      "थ": 167,
      "द": 168,
      "ध": 169,
      "न": 170,
      "प": 171,
      "फ": 172,
      "ब": 173,
      "भ": 174,
      "म": 175,
      "य": 176,
      "र": 177,
      "ल": 178,
      "ळ": 179,
      "व": 180,
      "श": 181,
      "ष": 182,
      "स": 183,
      "ह": 184,
      "़": 185,
      "ा": 186,
      "ि": 187,
      "ी": 188,
      "ु": 189,
      "ू": 190,
      "ृ": 191,
      "े": 192,
      "ै": 193,
      "ॉ": 194,
      "ॊ": 195,
      "ो": 196,
      "ौ": 197,
      "्": 198,
      "।": 199,
      "०": 200,
      "१": 201,
      "२": 202,
      "३": 203,
      "४": 204,
      "५": 205,
      "६": 206,
      "७": 207,
      "८": 208,
      "९": 209,
      "॰": 210,
      "ঁ": 211,
      "ং": 212,
      "ঃ": 213,
      "অ": 214,
      "আ": 215,
      "ই": 216,
      "ঈ": 217,
      "উ": 218,
      "ঊ": 219,
      "ঋ": 220,
      "এ": 221,
      "ঐ": 222,
      "ও": 223,
      "ঔ": 224,
      "ক": 225,
      "খ": 226,
      "গ": 227,
      "ঘ": 228,
      "ঙ": 229,
      "চ": 230,
      "ছ": 231,
      "জ": 232,
      "ঝ": 233,
      "ঞ": 234,
      "ট": 235,
      "ঠ": 236,
      "ড": 237,
      "ঢ": 238,
      "ণ": 239,
      "ত": 240,
      "থ": 241,
      "দ": 242,
      "ধ": 243,
      "ন": 244,
      "প": 245,
      "ফ": 246,
      "ব": 247,
      "ভ": 248,
      "ম": 249,
      "য": 250,
      "র": 251,
      "ল": 252,
      "শ": 253,
      "ষ": 254,
      "স": 255,
      "হ": 256,
      "়": 257,
      "া": 258,
      "ি": 259,
      "ী": 260,
      "ু": 261,
      "ূ": 262,
      "ৃ": 263,
      "ে": 264,
      "ৈ": 265,
      "ো": 266,
      "ৌ": 267,
      "্": 268,
      "ৎ": 269,
      "০": 270,
      "১": 271,
      "২": 272,
      "৩": 273,
      "৪": 274,
      "৫": 275,
      "৬": 276,
      "৭": 277,
      "৮": 278,
      "৯": 279,
      "ం": 280,
      "ః": 281,
      "అ": 282,
      "ఆ": 283,
      "ఇ": 284,
      "ఈ": 285,
      "ఉ": 286,
      "ఋ": 287,
      "ఎ": 288,
      "ఏ": 289,
      "ఐ": 290,
      "ఒ": 291,
      "ఓ": 292,
      "ఔ": 293,
      "క": 294,
      "ఖ": 295,
      "గ": 296,
      "ఘ": 297,
      "చ": 298,
      "ఛ": 299,
      "జ": 300,
      "ఞ": 301,
      "ట": 302,
      "ఠ": 303,
      "డ": 304,
      "ఢ": 305,
      "ణ": 306,
      "త": 307,
      "థ": 308,
      "ద": 309,
      "ధ": 310,
      "న": 311,
      "ప": 312,
      "ఫ": 313,
      "బ": 314,
      "భ": 315,
      "మ": 316,
      "య": 317,
      "ర": 318,
      "ల": 319,
      "ళ": 320,
      "వ": 321,
      "శ": 322,
      "ష": 323,
      "స": 324,
      "హ": 325,
      "ా": 326,
      "ి": 327,
      "ీ": 328,
      "ు": 329,
      "ూ": 330,
      "ృ": 331,
      "ె": 332,
      "ే": 333,
      "ై": 334,
      "ొ": 335,
      "ో": 336,
      "ౌ": 337,
      "్": 338,
      "ṅ": 339,
      "ṇ": 340,
      "Ṛ": 341,
      "ṣ": 342,
      "ṭ": 343,
      "Ἰ": 344,
      "‌": 345,
      "‍": 346,
      "‎": 347,
      "–": 348,
      "—": 349,
      "‘": 350,
      "’": 351,
      "“": 352,
      "”": 353,
      "†": 354,
      "•": 355,
      "′": 356,
      "‹": 357,
      "›": 358,
      "⁡": 359,
      "₹": 360,
      "↑": 361,
      "−": 362,
      "﻿": 363,
      "](": 364,
      "./": 365,
      "](./": 366,
      "\")": 367,
      "nd": 368,
      "ia": 369,
      "te": 370,
      "on": 371,
      "in": 372,
      "ti": 373,
      "re": 374,
      "ndia": 375,
      "th": 376,
      "or": 377,
      "er": 378,
      "India": 379,
      "ার": 380,
      "20": 381,
      "ar": 382,
      "an": 383,
      "al": 384,
      "en": 385,
      "ed": 386,
      "of": 387,
      "es": 388,
      "tion": 389,
      "is": 390,
      "ci": 391,
      "్ర": 392,
      "্র": 393,
      "ভার": 394,
      "য়": 395,
      "ভারত": 396,
      "om": 397,
      "it": 398,
      "te_": 399,
      "//": 400,
      "the": 401,
      "ht": 402,
      "cite_": 403,
      "ార": 404,
      "ार": 405,
      "and": 406,
      "tp": 407,
      "as": 408,
      "http": 409,
      "://": 410,
      "ou": 411,
      "ের": 412,
      "্য": 413,
      "ic": 414,
      "19": 415,
      "्र": 416,
      "id": 417,
      "no": 418,
      "ch": 419,
      "le": 420,
      "ాల": 421,
      "201": 422,
      "oo": 423,
      "भार": 424,
      "भारत": 425,
      "్య": 426,
      "**": 427,
      "ac": 428,
      "ad": 429,
      "tr": 430,
      "ation": 431,
      "https": 432,
      "OT": 433,
      "org": 434,
      "భార": 435,
      "భారత": 436,
      "200": 437,
      "స్": 438,
      "iv": 439,
      "దే": 440,
      "am": 441,
      "ik": 442,
      "তি": 443,
      "దేశ": 444,
      "ww": 445,
      "at": 446,
      "com": 447,
      "ref": 448,
      "\\(": 449,
      "\\)": 450,
      "lo": 451,
      "ag": 452,
      "ন্": 453,
      "ent": 454,
      "[[": 455,
      "র্": 456,
      "note": 457,
      "]](./": 458,
      "ing": 459,
      "cite_ref": 460,
      "cite_note": 461,
      "సా": 462,
      "বি": 463,
      "we": 464,
      "um": 465,
      "us": 466,
      "im": 467,
      "న్": 468,
      "red": 469,
      "10": 470,
      "ర్": 471,
      "wik": 472,
      "edia": 473,
      "ec": 474,
      "ate": 475,
      "lin": 476,
      "ান": 477,
      "il": 478,
      "ook": 479,
      "के": 480,
      "्य": 481,
      "of_": 482,
      "\"),": 483,
      "_of_": 484,
      "ang": 485,
      "ons": 486,
      "ক্": 487,
      "ur": 488,
      "স্": 489,
      "et": 490,
      ").": 491,
      "pg": 492,
      "ig": 493,
      "లు": 494,
      "edit": 495,
      "link": 496,
      "ol": 497,
      "web": 498,
      "[↑": 499,
      "[↑](./": 500,
      "రా": 501,
      "ist": 502,
      "action": 503,
      "ప్ర": 504,
      "रा": 505,
      "fi": 506,
      "he": 507,
      "সা": 508,
      "IS": 509,
      "78": 510,
      "redlink": 511,
      "ov": 512,
      "ter": 513,
      "ভারতের": 514,
      "ul": 515,
      "to": 516,
      "প্র": 517,
      "భారతదేశ": 518,
      "ীয়": 519,
      "లో": 520,
      "BN": 521,
      "ISBN": 522,
      "मे": 523,
      "enti": 524,
      "00": 525,
      "త్ర": 526,
      "িক": 527,
      "res": 528,
      "12": 529,
      "em": 530,
      "identi": 531,
      "up": 532,
      "fier": 533,
      "identifier": 534,
      "ान": 535,
      "দ্": 536,
      "ip": 537,
      "FO": 538,
      "ాలు": 539,
      "রা": 540,
      "రి": 541,
      "Sou": 542,
      "jpg": 543,
      "ial": 544,
      "NOT": 545,
      "క్": 546,
      "OTNOT": 547,
      "FOOTNOT": 548,
      "FOOTNOTE": 549,
      "र्": 550,
      "বা": 551,
      "ত্র": 552,
      "ంద": 553,
      "978": 554,
      "स्": 555,
      "arch": 556,
      "ని": 557,
      "As": 558,
      "ce": 559,
      "का": 560,
      "ra": 561,
      "www": 562,
      "),": 563,
      "ion": 564,
      "tic": 565,
      "india": 566,
      "ల్": 567,
      "umb": 568,
      "book": 569,
      "में": 570,
      "13": 571,
      "ers": 572,
      "াল": 573,
      "The": 574,
      "st": 575,
      "el": 576,
      "সং": 577,
      "భారతదేశం": 578,
      "50": 579,
      "টি": 580,
      "18": 581,
      "for": 582,
      "ంగ": 583,
      "Indian": 584,
      "17": 585,
      "ind": 586,
      "ro": 587,
      "14": 588,
      "क्": 589,
      "হা": 590,
      "15": 591,
      "In": 592,
      "দ্ধ": 593,
      "\\)\")": 594,
      "২০": 595,
      "ive": 596,
      "\").": 597,
      "books": 598,
      "age": 599,
      "या": 600,
      "ir": 601,
      "ment": 602,
      "16": 603,
      "comm": 604,
      "23": 605,
      "ক্ষ": 606,
      "की": 607,
      "ీయ": 608,
      "ay": 609,
      "ity": 610,
      "কা": 611,
      "op": 612,
      "ము": 613,
      "ండ": 614,
      "ipedia": 615,
      "ces": 616,
      "px": 617,
      "ीय": 618,
      "·**": 619,
      "**·**": 620,
      "--": 621,
      "wikipedia": 622,
      "ৃতি": 623,
      "40": 624,
      "ারি": 625,
      "imedia": 626,
      "un": 627,
      "CI": 628,
      "ak": 629,
      "प्र": 630,
      "సి": 631,
      "wikimedia": 632,
      "26": 633,
      "load": 634,
      "upload": 635,
      "Sp": 636,
      "జ్య": 637,
      "](//": 638,
      "ev": 639,
      "वि": 640,
      "![": 641,
      "ভা": 642,
      "archive": 643,
      "sv": 644,
      "thumb": 645,
      "TE": 646,
      "commons": 647,
      "কে": 648,
      "svg": 649,
      "angu": 650,
      "తా": 651,
      "ew": 652,
      "TER": 653,
      "েশ": 654,
      "Un": 655,
      "al_": 656,
      "నా": 657,
      "వి": 658,
      "EF": 659,
      "తి": 660,
      "్ట": 661,
      "CITER": 662,
      "CITEREF": 663,
      "ों": 664,
      "তা": 665,
      "ly": 666,
      "ति": 667,
      "in_": 668,
      "Ch": 669,
      "ub": 670,
      "s_": 671,
      "త్": 672,
      "28": 673,
      "\"](": 674,
      "[\"": 675,
      "से": 676,
      "ap": 677,
      "ना": 678,
      "fr": 679,
      "ep": 680,
      "tri": 681,
      "ecial": 682,
      "न्": 683,
      "199": 684,
      "gov": 685,
      "है": 686,
      "ld": 687,
      "24": 688,
      "tu": 689,
      "25": 690,
      "त्र": 691,
      "য়ে": 692,
      "জা": 693,
      ")।": 694,
      "উদ্ধ": 695,
      "కు": 696,
      "উদ্ধৃতি": 697,
      "con": 698,
      "Special": 699,
      "ন্দ": 700,
      "क्ष": 701,
      "লে": 702,
      "by": 703,
      "ভারতীয়": 704,
      "pl": 705,
      "ory": 706,
      "Asia": 707,
      "a_": 708,
      "सं": 709,
      "ম্": 710,
      "rces": 711,
      "యా": 712,
      ")](./": 713,
      "ab": 714,
      "e_": 715,
      "av": 716,
      "ను": 717,
      "Book": 718,
      "30": 719,
      "langu": 720,
      "राज": 721,
      "ary": 722,
      "ला": 723,
      "িয়": 724,
      "্চ": 725,
      "তারি": 726,
      "ress": 727,
      "sh": 728,
      "তারিখ": 729,
      "తం": 730,
      "\")|": 731,
      "cal": 732,
      "ంది": 733,
      "ern": 734,
      "చి": 735,
      "सा": 736,
      "od": 737,
      "Sources": 738,
      "BookSources": 739,
      "([": 740,
      "orld": 741,
      "oun": 742,
      "_of_India": 743,
      "జ్యం": 744,
      "্যা": 745,
      "i_": 746,
      "ेश": 747,
      "21": 748,
      "29": 749,
      "और": 750,
      "rit": 751,
      "িত": 752,
      "বিশ": 753,
      "ষ্": 754,
      "ex": 755,
      "िया": 756,
      "జా": 757,
      "పూ": 758,
      "వా": 759,
      "ిక": 760,
      "ता": 761,
      "్రా": 762,
      "লা": 763,
      "[![": 764,
      "##": 765,
      "না": 766,
      "South": 767,
      "మా": 768,
      "ish": 769,
      "ivers": 770,
      "মা": 771,
      "भा": 772,
      "li": 773,
      "মূ": 774,
      "2011": 775,
      "\"))": 776,
      "ভারতের_": 777,
      "calf": 778,
      "భా": 779,
      "ులు": 780,
      "ted": 781,
      "पु": 782,
      "ge": 783,
      "িল": 784,
      "etcalf": 785,
      "ঙ্": 786,
      "22": 787,
      "Metcalf": 788,
      "ts": 789,
      "ద్": 790,
      "Ar": 791,
      ".[[": 792,
      "ंग": 793,
      "ational": 794,
      "ma": 795,
      "য্য": 796,
      "সাহা": 797,
      "সাহায্য": 798,
      "os": 799,
      "पर": 800,
      "ber": 801,
      "ng": 802,
      "বই": 803,
      "from": 804,
      "ত্": 805,
      "২০০": 806,
      "ট্র": 807,
      "নি": 808,
      "ISBN_": 809,
      "হি": 810,
      "tem": 811,
      "pr": 812,
      "ভাষ": 813,
      "ens": 814,
      "_S": 815,
      "List": 816,
      "গ্র": 817,
      "Re": 818,
      "gle": 819,
      "ाल": 820,
      "भारतीय": 821,
      "goo": 822,
      "পর": 823,
      "సం": 824,
      "iversity": 825,
      "try": 826,
      "পা": 827,
      "ৃত": 828,
      "िक": 829,
      "থা": 830,
      "প্": 831,
      "కా": 832,
      "రు": 833,
      "our": 834,
      "భారతీయ": 835,
      "htm": 836,
      "জন": 837,
      "Hind": 838,
      "টে": 839,
      "দেশ": 840,
      "ాం": 841,
      "_in_": 842,
      "ভাষা": 843,
      "।[[": 844,
      "language": 845,
      "br": 846,
      "লি": 847,
      "ভারতে": 848,
      "AA": 849,
      "ud": 850,
      "_P": 851,
      "ast": 852,
      "google": 853,
      "মি": 854,
      "ష్ట": 855,
      "ార్": 856,
      "oc": 857,
      "uc": 858,
      "E0": 859,
      "har": 860,
      "కి": 861,
      "పా": 862,
      "క్ష": 863,
      "থে": 864,
      "చరి": 865,
      "పు": 866,
      "స్థ": 867,
      "చరిత్ర": 868,
      "ने": 869,
      "est": 870,
      "देश": 871,
      "og": 872,
      "డి": 873,
      "per": 874,
      "को": 875,
      "log": 876,
      "ith": 877,
      "আই": 878,
      "त्": 879,
      "సామ": 880,
      "11": 881,
      "राज्य": 882,
      "Com": 883,
      "be": 884,
      "ff": 885,
      "১৯": 886,
      "యి": 887,
      "వం": 888,
      "న్న": 889,
      "par": 890,
      "---": 891,
      "জাত": 892,
      "থেকে": 893,
      "রে": 894,
      "লী": 895,
      "60": 896,
      "Ind": 897,
      "কার": 898,
      "न्द": 899,
      "Fl": 900,
      "উৎ": 901,
      "েষ": 902,
      "హి": 903,
      "ain": 904,
      "47": 905,
      "coun": 906,
      "ore": 907,
      "pp": 908,
      "জ্য": 909,
      "যু": 910,
      "ది": 911,
      "పాల": 912,
      "ph": 913,
      "inal": 914,
      "27": 915,
      "are": 916,
      "स्त": 917,
      "मा": 918,
      "षा": 919,
      "भारत_": 920,
      "University": 921,
      "tim": 922,
      "ष्": 923,
      "33": 924,
      "हि": 925,
      "শৈ": 926,
      "ঙ্গ": 927,
      "सि": 928,
      "PA": 929,
      "য়ের": 930,
      "ష్ట్ర": 931,
      "సామ్రా": 932,
      "ri": 933,
      "istory": 934,
      "বে": 935,
      "শৈলী": 936,
      ")[[": 937,
      "2018": 938,
      "কৃত": 939,
      "সে": 940,
      "opul": 941,
      "ুটি": 942,
      "టి": 943,
      "నే": 944,
      "বিশেষ": 945,
      "png": 946,
      "err": 947,
      "au": 948,
      "and_": 949,
      "మి": 950,
      "ear": 951,
      "्व": 952,
      "India_": 953,
      "আর্": 954,
      "ন্ত্র": 955,
      "[![](//": 956,
      "Flag": 957,
      "উৎস": 958,
      "ubl": 959,
      "হের": 960,
      "ంచ": 961,
      "ensus": 962,
      "70": 963,
      "ow": 964,
      "tern": 965,
      "মূল": 966,
      "Har": 967,
      "ort": 968,
      "2014": 969,
      "2006": 970,
      "aj": 971,
      "ies": 972,
      "hi": 973,
      "with": 974,
      "सू": 975,
      "ance": 976,
      "land": 977,
      "all": 978,
      "ong": 979,
      "titu": 980,
      "orig": 981,
      "భాష": 982,
      "80": 983,
      "ates": 984,
      "nic": 985,
      "ys": 986,
      "ড়": 987,
      "সি": 988,
      "St": 989,
      "ha": 990,
      "वा": 991,
      "ass": 992,
      "्रे": 993,
      "స్త్ర": 994,
      "ষ্ট্র": 995,
      "বইয়ের": 996,
      "45": 997,
      "und": 998,
      "भाषा": 999,
      "opulation": 1000,
      "ডি": 1001,
      "हा": 1002,
      "এস": 1003,
      "বর": 1004,
      "ার্": 1005,
      "స్తా": 1006,
      "రాష్ట్ర": 1007,
      "ত্রুটি": 1008,
      "ism": 1009,
      "2010": 1010,
      "43": 1011,
      "था": 1012,
      "లీ": 1013,
      "ages": 1014,
      "umm": 1015,
      "cl": 1016,
      "ian": 1017,
      "90": 1018,
      "जा": 1019,
      "গু": 1020,
      "পি": 1021,
      "మూ": 1022,
      "ot": 1023,
      "gr": 1024,
      "ची": 1025,
      "पा": 1026,
      "িয়া": 1027,
      "তারিখে": 1028,
      "wh": 1029,
      "ana": 1030,
      "esh": 1031,
      "ile": 1032,
      "ug": 1033,
      "ইভ": 1034,
      "কাইভ": 1035,
      "ন্দ্র": 1036,
      "సామ్రాజ్యం": 1037,
      "আর্কাইভ": 1038,
      "_A": 1039,
      "ans": 1040,
      "56": 1041,
      "se": 1042,
      "original": 1043,
      "Press": 1044,
      "html": 1045,
      "আর্কাইভকৃত": 1046,
      "ut": 1047,
      "pd": 1048,
      "ాన": 1049,
      "దేశ్": 1050,
      "ঞ্চ": 1051,
      "জাতীয়": 1052,
      "ट्र": 1053,
      "inis": 1054,
      "rel": 1055,
      "New": 1056,
      "ill": 1057,
      "Ma": 1058,
      "সর": 1059,
      "జి": 1060,
      "తీయ": 1061,
      "2007": 1062,
      "রাষ্ট্র": 1063,
      "pro": 1064,
      "सम": 1065,
      "টেম": 1066,
      "এন": 1067,
      "గా": 1068,
      "লেট": 1069,
      "প্লেট": 1070,
      "টেমপ্লেট": 1071,
      "36": 1072,
      "46": 1073,
      "दि": 1074,
      "री": 1075,
      "ank": 1076,
      "error": 1077,
      "ছে": 1078,
      "Pr": 1079,
      "end": 1080,
      "ड़": 1081,
      "ধান": 1082,
      "స్తాన్": 1083,
      "pdf": 1084,
      "her": 1085,
      "onstitu": 1086,
      "উপ": 1087,
      "History": 1088,
      "world": 1089,
      "కే": 1090,
      "గు": 1091,
      "డు": 1092,
      "lop": 1093,
      "ernment": 1094,
      "Ste": 1095,
      "সংগ্র": 1096,
      "tries": 1097,
      "plate": 1098,
      "ence": 1099,
      "World": 1100,
      "ুর": 1101,
      "ంట": 1102,
      "లి": 1103,
      "్రీ": 1104,
      "రాజ": 1105,
      "స్త్రం": 1106,
      "istan": 1107,
      "ef": 1108,
      "art": 1109,
      "के_": 1110,
      "স্ত": 1111,
      "সংগ্রহের": 1112,
      "35": 1113,
      "ard": 1114,
      "ष्ट्र": 1115,
      "তে": 1116,
      "নী": 1117,
      "ంలో": 1118,
      "డ్": 1119,
      "ంగా": 1120,
      "_in_India": 1121,
      "विश": 1122,
      "Arch": 1123,
      "_D": 1124,
      "স্থা": 1125,
      "িকা": 1126,
      "আইএস": 1127,
      "77": 1128,
      "ati": 1129,
      "fn": 1130,
      "ase": 1131,
      "48": 1132,
      "Econ": 1133,
      "pe": 1134,
      "कर": 1135,
      "কি": 1136,
      "రాజ్యం": 1137,
      "భారతదేశంలో": 1138,
      "ical": 1139,
      "Econom": 1140,
      "সাম": 1141,
      "250": 1142,
      "_s": 1143,
      "कि": 1144,
      "ther": 1145,
      "ame": 1146,
      "2004": 1147,
      "A6": 1148,
      "ওয়ে": 1149,
      "తర": 1150,
      "ations": 1151,
      "क्षे": 1152,
      "pi": 1153,
      "artic": 1154,
      "iss": 1155,
      "्या": 1156,
      "eved": 1157,
      "ীন": 1158,
      "नि": 1159,
      "కో": 1160,
      "ణా": 1161,
      "ధిక": 1162,
      "శ్": 1163,
      "trieved": 1164,
      "జాతీయ": 1165,
      "Retrieved": 1166,
      "क्षेत्र": 1167,
      "120": 1168,
      "Em": 1169,
      "Tem": 1170,
      "cre": 1171,
      "ित": 1172,
      "ve": 1173,
      "মে": 1174,
      "শা": 1175,
      "orth": 1176,
      "eral": 1177,
      "ata": 1178,
      "దక్ష": 1179,
      "వ్య": 1180,
      "ived": 1181,
      "ండి": 1182,
      "Stein": 1183,
      "_B": 1184,
      "was": 1185,
      "ले": 1186,
      "arg": 1187,
      "196": 1188,
      "নে": 1189,
      "its": 1190,
      "ন্ত": 1191,
      "ust": 1192,
      "Is": 1193,
      "ine": 1194,
      "ture": 1195,
      "ublic": 1196,
      "38": 1197,
      "ంబ": 1198,
      "లా": 1199,
      "তিক": 1200,
      "ప్రాం": 1201,
      "countries": 1202,
      "ition": 1203,
      "gen": 1204,
      "hm": 1205,
      "ভূ": 1206,
      "ord": 1207,
      "new": 1208,
      "ue": 1209,
      "ज़": 1210,
      "২০১": 1211,
      "సియా": 1212,
      "ওয়েব": 1213,
      "ct": 1214,
      "2019": 1215,
      "cy": 1216,
      "has": 1217,
      "जन": 1218,
      "ली": 1219,
      "ited": 1220,
      "মান": 1221,
      "্রা": 1222,
      "র্ব": 1223,
      "ক্ত": 1224,
      "ford": 1225,
      "ঞ্চল": 1226,
      "Flag_of_": 1227,
      "ll": 1228,
      "बा": 1229,
      "దీ": 1230,
      "పే": 1231,
      "ిల్": 1232,
      "స్త": 1233,
      "ন্ড": 1234,
      "దక్షి": 1235,
      "\\.": 1236,
      "অর্": 1237,
      "আইএসবি": 1238,
      "..": 1239,
      "कार": 1240,
      "मि": 1241,
      "_and_": 1242,
      "ती": 1243,
      "ప్రదేశ్": 1244,
      "xford": 1245,
      "ধ্য": 1246,
      "ত্ত": 1247,
      "2C": 1248,
      "49": 1249,
      "Archived": 1250,
      "हिन्द": 1251,
      "En": 1252,
      "చే": 1253,
      "ట్": 1254,
      "మత": 1255,
      "Indian_": 1256,
      "mar": 1257,
      "পরি": 1258,
      "Oxford": 1259,
      "ite": 1260,
      "2009": 1261,
      "ব্য": 1262,
      "చ్": 1263,
      "దా": 1264,
      "রাজ্য": 1265,
      "An": 1266,
      "QB": 1267,
      "_India": 1268,
      "मु": 1269,
      "2003": 1270,
      "oi": 1271,
      "আইএসবিএন": 1272,
      "चि": 1273,
      "List_of_": 1274,
      "AJ": 1275,
      "ke": 1276,
      "लि": 1277,
      "దస్త్రం": 1278,
      "వే": 1279,
      "2008": 1280,
      "ক্ষা": 1281,
      "কেন্দ্র": 1282,
      "onstitution": 1283,
      "=`": 1284,
      "Ro": 1285,
      "`|": 1286,
      "ंड": 1287,
      "मी": 1288,
      "QBAJ": 1289,
      "র্ম": 1290,
      "িল্": 1291,
      "37": 1292,
      "39": 1293,
      "eng": 1294,
      "59": 1295,
      "দী": 1296,
      "সম": 1297,
      "ఆర్": 1298,
      "ధ్య": 1299,
      "र्व": 1300,
      "ంద్ర": 1301,
      "ম্বর": 1302,
      "Comm": 1303,
      "राष्ट्र": 1304,
      "ty": 1305,
      "ines": 1306,
      "ach": 1307,
      "fe": 1308,
      "ich": 1309,
      "Hindu": 1310,
      "man": 1311,
      "కాల": 1312,
      "త్య": 1313,
      "బె": 1314,
      "eve": 1315,
      "অর্থ": 1316,
      "National": 1317,
      "als": 1318,
      "मन": 1319,
      "मान": 1320,
      "AAQBAJ": 1321,
      "দি": 1322,
      "oli": 1323,
      "Harv": 1324,
      "ties": 1325,
      "out": 1326,
      "ign": 1327,
      "times": 1328,
      "অঞ্চল": 1329,
      "এক": 1330,
      "কর": 1331,
      "বী": 1332,
      "ట్ట": 1333,
      "శా": 1334,
      "ైన": 1335,
      "2012": 1336,
      "United": 1337,
      "ద్ధ": 1338,
      "शा": 1339,
      "erv": 1340,
      "ate_": 1341,
      "2005": 1342,
      "ক্তি": 1343,
      "ult": 1344,
      "য়েছে": 1345,
      "ভারতীয়_": 1346,
      "उत्": 1347,
      "वर्": 1348,
      "adesh": 1349,
      "Asher": 1350,
      "_G": 1351,
      "co": 1352,
      "Ed": 1353,
      "les": 1354,
      "বর্": 1355,
      "చె": 1356,
      "జీ": 1357,
      "ప్": 1358,
      "మీ": 1359,
      "మే": 1360,
      "యు": 1361,
      "హా": 1362,
      "বিশ্": 1363,
      "హింద": 1364,
      "IC": 1365,
      "PD": 1366,
      "amil": 1367,
      "दी": 1368,
      "evelop": 1369,
      "Minis": 1370,
      "তাল": 1371,
      "বং": 1372,
      "িত্র": 1373,
      "ারা": 1374,
      "tral": 1375,
      "স্ট": 1376,
      "_C": 1377,
      "_M": 1378,
      "ction": 1379,
      "census": 1380,
      "णी": 1381,
      "_Asia": 1382,
      "हु": 1383,
      "ভি": 1384,
      "ంచి": 1385,
      "కూ": 1386,
      "onom": 1387,
      "ated": 1388,
      "ంగ్": 1389,
      "हैं": 1390,
      "పాలి": 1391,
      "errors": 1392,
      "na": 1393,
      "सी": 1394,
      "प्रदेश": 1395,
      "population": 1396,
      "ক্র": 1397,
      "জি": 1398,
      "ুন": 1399,
      "ational_": 1400,
      "row": 1401,
      ")|": 1402,
      "यु": 1403,
      "ार्": 1404,
      "100": 1405,
      "250px": 1406,
      "dis": 1407,
      "34": 1408,
      "87": 1409,
      "qu": 1410,
      "तर": 1411,
      "অন": 1412,
      "রি": 1413,
      "కృ": 1414,
      "తో": 1415,
      "బ్": 1416,
      "ాల్": 1417,
      "প্রা": 1418,
      "reg": 1419,
      "icial": 1420,
      "ummit": 1421,
      "Th": 1422,
      "ल्": 1423,
      "tics": 1424,
      "MetcalfMetcalf": 1425,
      "udd": 1426,
      "सूची": 1427,
      "Li": 1428,
      "মু": 1429,
      "me": 1430,
      "nt": 1431,
      "गर": 1432,
      "national": 1433,
      "भि": 1434,
      "কো": 1435,
      "జన": 1436,
      "ন্ধ": 1437,
      "40px": 1438,
      "తంత్ర": 1439,
      "form": 1440,
      "led": 1441,
      "थि": 1442,
      "नी": 1443,
      "57": 1444,
      "Rep": 1445,
      "করে": 1446,
      "পূ": 1447,
      "মাল": 1448,
      "সমূ": 1449,
      "Ass": 1450,
      "PDF": 1451,
      "मू": 1452,
      "which": 1453,
      "oh": 1454,
      "tin": 1455,
      "अन": 1456,
      "গণ": 1457,
      "পৃ": 1458,
      "মহা": 1459,
      "মধ্য": 1460,
      "పంచ": 1461,
      "బి": 1462,
      "మధ్య": 1463,
      "వు": 1464,
      "శం": 1465,
      "ాన్": 1466,
      "off": 1467,
      "ood": 1468,
      "కేంద్ర": 1469,
      "ప్రాంత": 1470,
      "ిల్లీ": 1471,
      "దక్షిణ": 1472,
      "তালিকা": 1473,
      "2023": 1474,
      "IN": 1475,
      "cent": 1476,
      "ele": 1477,
      "पू": 1478,
      "ions": 1479,
      "এবং": 1480,
      "সম্": 1481,
      "ight": 1482,
      "आध": 1483,
      "म्": 1484,
      "ingh": 1485,
      "languages": 1486,
      "###": 1487,
      "_শৈলী": 1488,
      "మొ": 1489,
      "ారి": 1490,
      "ారు": 1491,
      "2016": 1492,
      "উদ্ধৃতি_শৈলী": 1493,
      "relig": 1494,
      "সরকার": 1495,
      "উদ্ধৃতি_শৈলী_": 1496,
      "58": 1497,
      "Cam": 1498,
      "bot": 1499,
      "भारत_के_": 1500,
      "evelopment": 1501,
      "Gov": 1502,
      "2021": 1503,
      "2017": 1504,
      "স্থ": 1505,
      "000": 1506,
      "স্তান": 1507,
      "DP": 1508,
      "_1": 1509,
      "raph": 1510,
      "RIC": 1511,
      "_చరిత్ర": 1512,
      "sub": 1513,
      "ure": 1514,
      "ধর্ম": 1515,
      "োল": 1516,
      "కొ": 1517,
      "దు": 1518,
      "ధాన": 1519,
      "మ్": 1520,
      "వర్": 1521,
      "ష్": 1522,
      "197": 1523,
      "की_": 1524,
      "![](//": 1525,
      "শাস": 1526,
      "por": 1527,
      "ange": 1528,
      "1998": 1529,
      "स्थ": 1530,
      "Bri": 1531,
      "_T": 1532,
      "_উৎস": 1533,
      "\")।": 1534,
      "২০০৭": 1535,
      "বইয়ের_উৎস": 1536,
      "_N": 1537,
      "ेष": 1538,
      "thor": 1539,
      "nolog": 1540,
      "news": 1541,
      "air": 1542,
      "ंध": 1543,
      "द्": 1544,
      "২১": 1545,
      "ంధ": 1546,
      "ఆసియా": 1547,
      "క్రీ": 1548,
      "ఖ్య": 1549,
      "ఢిల్లీ": 1550,
      "ర్య": 1551,
      "্রি": 1552,
      "मेला": 1553,
      "ember": 1554,
      "Incre": 1555,
      "పాకి": 1556,
      "వంశం": 1557,
      "మూస": 1558,
      "వ్యవ": 1559,
      "উদ্ধৃতি_শৈলী_ত্রুটি": 1560,
      "aw": 1561,
      "gh": 1562,
      "lia": 1563,
      "oup": 1564,
      "Bi": 1565,
      "ai": 1566,
      "ple": 1567,
      "ते": 1568,
      "भी": 1569,
      "territ": 1570,
      "ंग्रे": 1571,
      "ograph": 1572,
      "_ভাষা": 1573,
      "de": 1574,
      "dom": 1575,
      "that": 1576,
      "Island": 1577,
      "বিশ্ব": 1578,
      ".\"": 1579,
      "Tal": 1580,
      "1947": 1581,
      "07": 1582,
      "41": 1583,
      "iew": 1584,
      "ni": 1585,
      "|---": 1586,
      "अभि": 1587,
      "धान": 1588,
      "श्": 1589,
      "श्रे": 1590,
      "ঞ্": 1591,
      "বৈ": 1592,
      "ৈতিক": 1593,
      "తు": 1594,
      "మె": 1595,
      "1950": 1596,
      "पुरा": 1597,
      "ভারতে_": 1598,
      "গুলি": 1599,
      "hav": 1600,
      "81": 1601,
      "PP": 1602,
      "_R": 1603,
      "akistan": 1604,
      "RICS": 1605,
      "श्रेणी": 1606,
      "ond": 1607,
      "yan": 1608,
      "বস্থা": 1609,
      "োগ": 1610,
      "হাস": 1611,
      "ath": 1612,
      "ack": 1613,
      "epend": 1614,
      "Government": 1615,
      "হয়": 1616,
      "ఉత్": 1617,
      "టు": 1618,
      "టె": 1619,
      "বিজ": 1620,
      "ప్రధాన": 1621,
      "ाना": 1622,
      "Chin": 1623,
      "contin": 1624,
      "సంస్": 1625,
      "brid": 1626,
      "పాలిత": 1627,
      "కేంద్రపాలిత": 1628,
      "Gu": 1629,
      "ous": 1630,
      "East": 1631,
      "Langu": 1632,
      "_The": 1633,
      "्रा": 1634,
      "over": 1635,
      "विशेष": 1636,
      "Talbot": 1637,
      "Tr": 1638,
      "ost": 1639,
      "tish": 1640,
      "ানা": 1641,
      "Pl": 1642,
      "सर": 1643,
      "emb": 1644,
      "र्म": 1645,
      "pire": 1646,
      "Eur": 1647,
      "जि": 1648,
      "উত্ত": 1649,
      "గో": 1650,
      "డా": 1651,
      "బ్ర": 1652,
      "సు": 1653,
      "aste": 1654,
      "ic_": 1655,
      "তিহাস": 1656,
      "হিন্দ": 1657,
      "భారతీయ_": 1658,
      "ansk": 1659,
      "Off": 1660,
      "Sch": 1661,
      "lim": 1662,
      "ames": 1663,
      "Fr": 1664,
      "File": 1665,
      "Pakistan": 1666,
      "econom": 1667,
      "भारतीय_": 1668,
      "British": 1669,
      "Sh": 1670,
      "{{": 1671,
      "চীন": 1672,
      "শি": 1673,
      "ork": 1674,
      "the_": 1675,
      "ild": 1676,
      "}}": 1677,
      "ँच": 1678,
      "ंत्र": 1679,
      "Edit": 1680,
      "anskrit": 1681,
      "05": 1682,
      "Del": 1683,
      "ect": 1684,
      "ater": 1685,
      "South_Asia": 1686,
      "`:": 1687,
      "`{{": 1688,
      "ail": 1689,
      "olog": 1690,
      "pan": 1691,
      "कृ": 1692,
      "টার": 1693,
      "గణ": 1694,
      "తే": 1695,
      "వర": 1696,
      "సభ": 1697,
      "\")}}": 1698,
      "ashm": 1699,
      "రాజ్య": 1700,
      "ప్రపంచ": 1701,
      "সংস্": 1702,
      "হিনী": 1703,
      "Indo": 1704,
      "రాష్ట్రాలు": 1705,
      "మతము": 1706,
      "ప్రాంతాలు": 1707,
      "వ్యవస్థ": 1708,
      "`{{[": 1709,
      "\")}}`:": 1710,
      "ashmir": 1711,
      "Cambrid": 1712,
      "Constitution": 1713,
      "Dys": 1714,
      "द्व": 1715,
      "one": 1716,
      "alth": 1717,
      "ound": 1718,
      "हिन्दी": 1719,
      "Dyson": 1720,
      "54": 1721,
      "ইতিহাস": 1722,
      "ome": 1723,
      "rav": 1724,
      "स्तान": 1725,
      "সমূহ": 1726,
      "Dw": 1727,
      "Par": 1728,
      "Se": 1729,
      "port": 1730,
      "एक": 1731,
      "Hindi": 1732,
      "Increase": 1733,
      "cr": 1734,
      "107": 1735,
      "ission": 1736,
      "Census": 1737,
      "गु": 1738,
      "िण": 1739,
      "ोग": 1740,
      "লো": 1741,
      "గం": 1742,
      "గి": 1743,
      "పె": 1744,
      "లం": 1745,
      "প্রধান": 1746,
      "త్రి": 1747,
      "ক্ষি": 1748,
      "article": 1749,
      "Empire": 1750,
      "Template": 1751,
      "लेख": 1752,
      "উত্তর": 1753,
      "51": 1754,
      "Man": 1755,
      "isation": 1756,
      "now": 1757,
      "88": 1758,
      "Singh": 1759,
      "_m": 1760,
      "ইউ": 1761,
      "দা": 1762,
      "দ্বী": 1763,
      "বাহিনী": 1764,
      "Intern": 1765,
      "২০০৮": 1766,
      "Ministry": 1767,
      "দ্বীপ": 1768,
      "53": 1769,
      "99": 1770,
      "Cent": 1771,
      "Sanskrit": 1772,
      "Tim": 1773,
      "जी": 1774,
      "ury": 1775,
      "Am": 1776,
      "bn": 1777,
      "sy": 1778,
      "tal": 1779,
      "Tamil": 1780,
      "Wik": 1781,
      "uk": 1782,
      "दक्ष": 1783,
      "চ্চ": 1784,
      "నల్": 1785,
      "బడి": 1786,
      "మార్": 1787,
      "రై": 1788,
      "্যান": 1789,
      "বাং": 1790,
      "সংখ": 1791,
      "brary": 1792,
      "ব্যবস্থা": 1793,
      "బెంగ": 1794,
      "MetcalfMetcalf2006": 1795,
      "मूल": 1796,
      "continent": 1797,
      "సంస్కృ": 1798,
      "ক্ষিণ": 1799,
      "Pro": 1800,
      "Population": 1801,
      "usic": 1802,
      "GDP": 1803,
      "Kashmir": 1804,
      "ta": 1805,
      "गमन": 1806,
      "टी": 1807,
      "दे": 1808,
      "धर्म": 1809,
      "्रो": 1810,
      "2013": 1811,
      "odern": 1812,
      "दक्षिण": 1813,
      "এই": 1814,
      "এশ": 1815,
      "পু": 1816,
      "সঙ্গ": 1817,
      "্ঞ": 1818,
      "igh": 1819,
      "ement": 1820,
      "Ne": 1821,
      "doi": 1822,
      "तथा": 1823,
      "द्य": 1824,
      "पी": 1825,
      "ics": 1826,
      "act": 1827,
      "तिथि": 1828,
      "author": 1829,
      "67": 1830,
      "cons": 1831,
      "गण": 1832,
      "not": 1833,
      "ulture": 1834,
      "illion": 1835,
      "Economy": 1836,
      "120px": 1837,
      "liament": 1838,
      "hind": 1839,
      "ंद": 1840,
      "अंग्रे": 1841,
      "टि": 1842,
      "हो": 1843,
      "কৃতি": 1844,
      "গর": 1845,
      "শিল্": 1846,
      "తమి": 1847,
      "పం": 1848,
      "పతి": 1849,
      "2024": 1850,
      "iver": 1851,
      "র্ক": 1852,
      "న్ని": 1853,
      "న్నా": 1854,
      "ক্ষণ": 1855,
      "Asian": 1856,
      "నుండి": 1857,
      "राष्ट्रीय": 1858,
      "শিল্প": 1859,
      "తమిళ": 1860,
      "44": 1861,
      "Dec": 1862,
      "_by": 1863,
      "रू": 1864,
      "वं": 1865,
      "202": 1866,
      "aman": 1867,
      "usines": 1868,
      "FOOTNOTEStein": 1869,
      "government": 1870,
      "class": 1871,
      "BC": 1872,
      "National_": 1873,
      "di": 1874,
      "চিত্র": 1875,
      "টা": 1876,
      "বল": 1877,
      "ese": 1878,
      "low": 1879,
      "ন্ন": 1880,
      "মিটার": 1881,
      "ice": 1882,
      "template": 1883,
      "Indus": 1884,
      "31": 1885,
      "Page": 1886,
      "Raj": 1887,
      "po": 1888,
      "DwAAQBAJ": 1889,
      "Cen": 1890,
      "RC": 1891,
      "iz": 1892,
      "ढ़": 1893,
      "रे": 1894,
      "ोल": 1895,
      "অক্": 1896,
      "খা": 1897,
      "అధిక": 1898,
      "ద్ర": 1899,
      "పి": 1900,
      "పార": 1901,
      "ఫ్": 1902,
      "మం": 1903,
      "భారత_": 1904,
      "hel": 1905,
      "క్కు": 1906,
      "plate_": 1907,
      "্যান্ড": 1908,
      "মাণ": 1909,
      "একটি": 1910,
      "హిందూ": 1911,
      "పాకిస్తాన్": 1912,
      "अभिगमन": 1913,
      "বাংলা": 1914,
      "న్నాయి": 1915,
      "Bang": 1916,
      "JP": 1917,
      "bet": 1918,
      "55": 1919,
      "Beng": 1920,
      "Development": 1921,
      "स्रो": 1922,
      "int": 1923,
      "alay": 1924,
      "cies": 1925,
      "une": 1926,
      "ों_": 1927,
      "पुर": 1928,
      "region": 1929,
      "आधार": 1930,
      "स्रोत": 1931,
      "Apr": 1932,
      "ya": 1933,
      "ংশ": 1934,
      "fir": 1935,
      "কাশ": 1936,
      "Cambridge": 1937,
      "্ঞান": 1938,
      "April": 1939,
      "af": 1940,
      "tical": 1941,
      "अनु": 1942,
      ".;": 1943,
      "gan": 1944,
      "ms": 1945,
      "ne": 1946,
      "\"):": 1947,
      "ace": 1948,
      "Reg": 1949,
      "country": 1950,
      "Europ": 1951,
      "मह": 1952,
      "महा": 1953,
      "দক্ষিণ": 1954,
      "নৈতিক": 1955,
      "পশ": 1956,
      "পতি": 1957,
      "বৃ": 1958,
      "শ্র": 1959,
      "ఆఫ్": 1960,
      "కార": 1961,
      "క్య": 1962,
      "నాలు": 1963,
      "భూ": 1964,
      "య్య": 1965,
      "రే": 1966,
      "ins": 1967,
      "्री": 1968,
      "దేశాల": 1969,
      "uring": 1970,
      "েশি": 1971,
      "নির্": 1972,
      "AARC": 1973,
      "---|---": 1974,
      "অর্থনৈতিক": 1975,
      "पूर्व": 1976,
      "সম্প": 1977,
      "521": 1978,
      "85": 1979,
      "bi": 1980,
      "were": 1981,
      "Commission": 1982,
      "Centre": 1983,
      "Rel": 1984,
      "fil": 1985,
      "lish": 1986,
      "uary": 1987,
      "क_": 1988,
      "खाना": 1989,
      "\").[[": 1990,
      "पुस्त": 1991,
      "द्ध": 1992,
      "EditPage": 1993,
      "2_": 1994,
      "330": 1995,
      "76": 1996,
      "98": 1997,
      "Al": 1998,
      "Co": 1999,
      "Or": 2000,
      "bal": 2001,
      "sys": 2002,
      "গা": 2003,
      "যা": 2004,
      "ীল": 2005,
      "োর্": 2006,
      "this": 2007,
      "ories": 2008,
      "2001": 2009,
      "uman": 2010,
      "স্বা": 2011,
      "old": 2012,
      "ities": 2013,
      "ru": 2014,
      "year": 2015,
      "बर": 2016,
      "ree": 2017,
      "China": 2018,
      "ँचा": 2019,
      "01": 2020,
      "Eth": 2021,
      "Eng": 2022,
      "ah": 2023,
      "ss": 2024,
      "ffair": 2025,
      "BRICS": 2026,
      "SAARC": 2027,
      "y_": 2028,
      "कु": 2029,
      "অব": 2030,
      "ইন": 2031,
      "এর": 2032,
      "চল": 2033,
      "দে": 2034,
      "ভে": 2035,
      "যোগ": 2036,
      "হয়েছে": 2037,
      "ఒరి": 2038,
      "చూ": 2039,
      "ణం": 2040,
      "ధీ": 2041,
      "మైన": 2042,
      "యం": 2043,
      "వీ": 2044,
      "వులు": 2045,
      "సంగ": 2046,
      "హార": 2047,
      "ural": 2048,
      "నాగ": 2049,
      "ritan": 2050,
      "కాశ్": 2051,
      "যুক্ত": 2052,
      "সেম্বর": 2053,
      "ডিসেম্বর": 2054,
      "सरकार": 2055,
      "সম্পর্ক": 2056,
      "కాశ్మీ": 2057,
      "ores": 2058,
      "ofindia": 2059,
      "ters": 2060,
      "Delhi": 2061,
      "93": 2062,
      "Fish": 2063,
      "uly": 2064,
      "विश्व": 2065,
      "have": 2066,
      "help": 2067,
      "72": 2068,
      "পাল": 2069,
      "মার": 2070,
      "িম": 2071,
      "য়া": 2072,
      "ide": 2073,
      "lear": 2074,
      "সালে": 2075,
      "indus": 2076,
      "্যাক": 2077,
      "हर": 2078,
      "संघ": 2079,
      "Mah": 2080,
      "बाद": 2081,
      "चित्र": 2082,
      "Republic": 2083,
      "usiness": 2084,
      "Bh": 2085,
      "cat": 2086,
      "pos": 2087,
      "uch": 2088,
      "on_": 2089,
      "religion": 2090,
      "_భాష": 2091,
      "bb": 2092,
      "dr": 2093,
      "इस": 2094,
      "ज्": 2095,
      "वी": 2096,
      "বন": 2097,
      "মেশি": 2098,
      "ఉప": 2099,
      "క్ర": 2100,
      "ణి": 2101,
      "తె": 2102,
      "రో": 2103,
      "లే": 2104,
      "ైనా": 2105,
      "ali": 2106,
      "ise": 2107,
      "ारा": 2108,
      "ండ్": 2109,
      "జాబి": 2110,
      "নীতি": 2111,
      "সাম্রা": 2112,
      "ওয়েব্যাক": 2113,
      "পূর্ব": 2114,
      "पुरालेख": 2115,
      "ritannic": 2116,
      "সাম্রাজ্য": 2117,
      "CO": 2118,
      "Pe": 2119,
      "bol": 2120,
      "ople": 2121,
      "Col": 2122,
      "numb": 2123,
      "north": 2124,
      "ined": 2125,
      "loc": 2126,
      "में_": 2127,
      "साँचा": 2128,
      "Islands": 2129,
      "Increase2": 2130,
      "Kul": 2131,
      "minis": 2132,
      "ও_": 2133,
      "ণী": 2134,
      "প্য": 2135,
      "ব্রি": 2136,
      "মন": 2137,
      "মো": 2138,
      "মন্ত্র": 2139,
      "১১": 2140,
      "iksh": 2141,
      "ature": 2142,
      "ter_": 2143,
      "বাদ": 2144,
      "কারী": 2145,
      "করণ": 2146,
      "ারামিটার": 2147,
      "election": 2148,
      "বিজ্ঞান": 2149,
      "Kulke": 2150,
      "প্যারামিটার": 2151,
      "ikshit": 2152,
      "69": 2153,
      "71": 2154,
      "ध्य": 2155,
      "and_S": 2156,
      "trad": 2157,
      "र्थ": 2158,
      "union": 2159,
      "Union": 2160,
      "संस्": 2161,
      "ाली": 2162,
      "php": 2163,
      "मिल": 2164,
      "पुरालेखित": 2165,
      "tw": 2166,
      "20px": 2167,
      "ower": 2168,
      "Europe": 2169,
      "ote": 2170,
      "অজ": 2171,
      "আর": 2172,
      "আন্দ": 2173,
      "করা": 2174,
      "ত্য": 2175,
      "সভা": 2176,
      "েস": 2177,
      "০০": 2178,
      "జనా": 2179,
      "పరి": 2180,
      "బా": 2181,
      "మహా": 2182,
      "వె": 2183,
      "వచ్": 2184,
      "anc": 2185,
      "2015": 2186,
      "స్వా": 2187,
      "ama": 2188,
      "సాం": 2189,
      "ানি": 2190,
      "িকে": 2191,
      "state": 2192,
      "ండు": 2193,
      "రాజవంశం": 2194,
      "ভূমি": 2195,
      "ज़ी": 2196,
      "JPG": 2197,
      "first": 2198,
      "পশ্চ": 2199,
      "68": 2200,
      "Con": 2201,
      "mund": 2202,
      "tar": 2203,
      "than": 2204,
      "ourt": 2205,
      "Pradesh": 2206,
      ".).": 2207,
      "42": 2208,
      "75": 2209,
      "79": 2210,
      "Dem": 2211,
      "July": 2212,
      "_H": 2213,
      "div": 2214,
      "प्": 2215,
      "सार": 2216,
      "का_": 2217,
      "forma": 2218,
      "Informa": 2219,
      "uclear": 2220,
      "ugh": 2221,
      "AsherTalbot": 2222,
      "system": 2223,
      "Coun": 2224,
      "March": 2225,
      "Poli": 2226,
      "_উদ্ধৃতি": 2227,
      "fl": 2228,
      "yn": 2229,
      "আগ": 2230,
      "ণি": 2231,
      "তার": 2232,
      "পুর": 2233,
      "ফোর্": 2234,
      "সদ": 2235,
      "ুট": 2236,
      "2022": 2237,
      "ের_": 2238,
      "ica": 2239,
      "ick": 2240,
      "নাম": 2241,
      "১৯৯": 2242,
      "States": 2243,
      "শাসিত": 2244,
      "Official": 2245,
      "Affair": 2246,
      "_के_": 2247,
      "ere": 2248,
      "know": 2249,
      "एश": 2250,
      "बी": 2251,
      "ब्": 2252,
      "लो": 2253,
      "2020": 2254,
      "uss": 2255,
      "प्रा": 2256,
      "भारत_में_": 2257,
      "ublish": 2258,
      "thermund": 2259,
      "Rothermund": 2260,
      "118": 2261,
      "Cong": 2262,
      "_F": 2263,
      "dance": 2264,
      "eration": 2265,
      "cient": 2266,
      "Flag_of_India": 2267,
      "Economic": 2268,
      "censusindia": 2269,
      "Budd": 2270,
      "Ex": 2271,
      "_ও_": 2272,
      "larg": 2273,
      "ें": 2274,
      "ধীন": 2275,
      "বহ": 2276,
      "হল": 2277,
      "১৭": 2278,
      "ఇండ": 2279,
      "ఉంది": 2280,
      "దం": 2281,
      "ధి": 2282,
      "నగ": 2283,
      "నై": 2284,
      "పో": 2285,
      "ten": 2286,
      "asia": 2287,
      "2000": 2288,
      "దేశం": 2289,
      "106": 2290,
      "anges": 2291,
      "ప్రా": 2292,
      "క్‌": 2293,
      "నికి": 2294,
      "సింధ": 2295,
      "सेना": 2296,
      "যুদ্ধ": 2297,
      "ఆర్ధిక": 2298,
      "సంగీ": 2299,
      "జాబితా": 2300,
      "జనాభా": 2301,
      "most": 2302,
      "pa": 2303,
      "ofile": 2304,
      "aper": 2305,
      "330px": 2306,
      "Congress": 2307,
      "1_": 2308,
      "32": 2309,
      "94": 2310,
      "96": 2311,
      "Sfn": 2312,
      "_भाषा": 2313,
      "during": 2314,
      "war": 2315,
      "दा": 2316,
      "फ़": 2317,
      "मो": 2318,
      "2025": 2319,
      "life": 2320,
      "स्थान": 2321,
      "Jan": 2322,
      "ধিক": 2323,
      "নদী": 2324,
      "পে": 2325,
      "শন": 2326,
      "সু": 2327,
      "agar": 2328,
      "বিদ": 2329,
      "অজানা": 2330,
      "পশ্চিম": 2331,
      "500": 2332,
      "_tem": 2333,
      "_and_S": 2334,
      "duc": 2335,
      "had": 2336,
      "jec": 2337,
      "targ": 2338,
      "तक": 2339,
      "ब्र": 2340,
      "रु": 2341,
      "fn_tem": 2342,
      "मुख": 2343,
      "List_of_countries": 2344,
      "Harv_and_S": 2345,
      "Library": 2346,
      "ledge": 2347,
      "plate_errors": 2348,
      "एशिया": 2349,
      "target": 2350,
      "fn_template_errors": 2351,
      "Harv_and_Sfn_template_errors": 2352,
      "Bra": 2353,
      "Ge": 2354,
      "doc": 2355,
      "gy": 2356,
      "ob": 2357,
      "Chand": 2358,
      "1994": 2359,
      "2C_": 2360,
      "English": 2361,
      "sou": 2362,
      "ution": 2363,
      "ंदि": 2364,
      "দু": 2365,
      "মী": 2366,
      "ীত": 2367,
      "ఉన్న": 2368,
      "ఉన్నాయి": 2369,
      "చు": 2370,
      "చల్": 2371,
      "చైనా": 2372,
      "నీ": 2373,
      "భి": 2374,
      "మతం": 2375,
      "యన్": 2376,
      "యాలు": 2377,
      "రీ": 2378,
      "శ్రీ": 2379,
      "షు": 2380,
      "ాయి": 2381,
      "\")[[": 2382,
      "ince": 2383,
      "108": 2384,
      "ర్వ": 2385,
      "প্রতি": 2386,
      "প্রজাত": 2387,
      "क्त": 2388,
      "ముంబ": 2389,
      "సిన": 2390,
      "్టీ": 2391,
      "িয়ান": 2392,
      "পাত": 2393,
      "ocial": 2394,
      "నేష": 2395,
      "భాషలు": 2396,
      "రాష్ట్రపతి": 2397,
      "జినల్": 2398,
      "ఉత్తర": 2399,
      "తేదీ": 2400,
      "బడింది": 2401,
      "సంస్కృతి": 2402,
      "अंग्रेज़ी": 2403,
      "పార్టీ": 2404,
      "ఒరిజినల్": 2405,
      "Fisher": 2406,
      "প্রজাতন্ত্র": 2407,
      "\".": 2408,
      "UN": 2409,
      "ban": 2410,
      "oth": 2411,
      "right": 2412,
      "tation": 2413,
      "group": 2414,
      "...": 2415,
      "ritannica": 2416,
      "95": 2417,
      "Act": 2418,
      "Joh": 2419,
      "Mar": 2420,
      "Mugh": 2421,
      "ho": 2422,
      "पं": 2423,
      "भू": 2424,
      "व्य": 2425,
      "**[": 2426,
      "ing_": 2427,
      "resid": 2428,
      "ipur": 2429,
      "rab": 2430,
      "eptem": 2431,
      "क्षा": 2432,
      "harat": 2433,
      "subcontinent": 2434,
      "territories": 2435,
      "Dyson2018": 2436,
      "ों_की_": 2437,
      "संस्कृ": 2438,
      "eptember": 2439,
      "08": 2440,
      "ব্যা": 2441,
      "ision": 2442,
      "ley": 2443,
      "adu": 2444,
      "lobal": 2445,
      "সাল": 2446,
      "প্রযু": 2447,
      "বাহ": 2448,
      "কিস্তান": 2449,
      "ঞ্জ": 2450,
      "more": 2451,
      "music": 2452,
      "अध": 2453,
      "च्": 2454,
      "रो": 2455,
      "वन": 2456,
      "tive": 2457,
      "cience": 2458,
      "ateg": 2459,
      "स्व": 2460,
      "सूच": 2461,
      "किस्तान": 2462,
      "Relig": 2463,
      "hi_": 2464,
      "imf": 2465,
      "line": 2466,
      "Compan": 2467,
      "Times": 2468,
      ")[": 2469,
      ":[": 2470,
      "Rout": 2471,
      "caste": 2472,
      "day": 2473,
      "गया": 2474,
      "त्य": 2475,
      "१९": 2476,
      "জুন": 2477,
      "గాం": 2478,
      "జ్": 2479,
      "జమ్": 2480,
      "తూ": 2481,
      "నె": 2482,
      "పశ్": 2483,
      "వరి": 2484,
      "itation": 2485,
      "దేశాలు": 2486,
      "বিধান": 2487,
      "etail": 2488,
      "রাজ": 2489,
      "রাজন": 2490,
      "বায়": 2491,
      "నిస్తాన్": 2492,
      "ల్ల": 2493,
      "నులు": 2494,
      "ద్ద": 2495,
      "స్థాన్": 2496,
      "నేపాల": 2497,
      "పేజీ": 2498,
      "কেন্দ্রশাসিত": 2499,
      "బ్రి": 2500,
      "అధికార": 2501,
      "বাংলাদেশ": 2502,
      "చూసిన": 2503,
      "Routledge": 2504,
      "జమ్మూ": 2505,
      "పశ్చి": 2506,
      "పేజీని": 2507,
      "2F": 2508,
      "Kar": 2509,
      "Wol": 2510,
      "cod": 2511,
      "berg": 2512,
      "pert": 2513,
      "time": 2514,
      "projec": 2515,
      "International": 2516,
      "Wolpert": 2517,
      "June": 2518,
      "Sik": 2519,
      "history": 2520,
      "if": 2521,
      "तु": 2522,
      "पश्": 2523,
      "ann": 2524,
      "citation": 2525,
      "FOOTNOTEMetcalfMetcalf2006": 2526,
      "ayan": 2527,
      "_Press": 2528,
      "logo": 2529,
      "also": 2530,
      "ज्ञ": 2531,
      "पश्चि": 2532,
      "89": 2533,
      "Oc": 2534,
      "ble": 2535,
      "ladesh": 2536,
      "tain": 2537,
      "কাল": 2538,
      "দের": 2539,
      "নিক": 2540,
      "রিক": 2541,
      "রক্ষণ": 2542,
      "শক্তি": 2543,
      "্রু": 2544,
      "tober": 2545,
      "exp": 2546,
      "রাষ্ট্রপতি": 2547,
      "২০১১": 2548,
      "মধ্যে": 2549,
      "October": 2550,
      "52": 2551,
      "86": 2552,
      "97": 2553,
      "Aug": 2554,
      "Mon": 2555,
      "def": 2556,
      "mon": 2557,
      "sfn": 2558,
      "ओं": 2559,
      "किया": 2560,
      "चल": 2561,
      "मै": 2562,
      "यों": 2563,
      "रि": 2564,
      "ही": 2565,
      "estern": 2566,
      "ough": 2567,
      "term": 2568,
      "स्था": 2569,
      "iron": 2570,
      "akh": 2571,
      "पाकिस्तान": 2572,
      "official": 2573,
      "nologue": 2574,
      "Language": 2575,
      "embly": 2576,
      "ंद्र": 2577,
      "Commissioner": 2578,
      "largest": 2579,
      "August": 2580,
      "83": 2581,
      "ID": 2582,
      "II": 2583,
      "PM": 2584,
      "Shar": 2585,
      "War": 2586,
      "wart": 2587,
      "wood": 2588,
      "zberg": 2589,
      "\")**": 2590,
      "ren": 2591,
      "ash": 2592,
      "Organ": 2593,
      "wartzberg": 2594,
      "Ag": 2595,
      "Dikshit": 2596,
      "Taj": 2597,
      "_ভারত": 2598,
      "depend": 2599,
      "detail": 2600,
      "sch": 2601,
      "उप": 2602,
      "मंदि": 2603,
      "यू": 2604,
      "ইন্ড": 2605,
      "এফ": 2606,
      "নিয়": 2607,
      "মার্": 2608,
      "১৩": 2609,
      "ఒక": 2610,
      "కై": 2611,
      "కర్": 2612,
      "నో": 2613,
      "నది": 2614,
      "రె": 2615,
      "సము": 2616,
      "సమా": 2617,
      "హ్": 2618,
      "ుత్": 2619,
      "tent": 2620,
      "ারণ": 2621,
      "their": 2622,
      "ool": 2623,
      "\\)\"):[": 2624,
      "ক্ষম": 2625,
      "aksh": 2626,
      "পাকিস্তান": 2627,
      "যুগ": 2628,
      "सित": 2629,
      "దీవులు": 2630,
      "పేరు": 2631,
      "उत्तर": 2632,
      "కూడా": 2633,
      "অনু": 2634,
      "भारत_के_राज्य": 2635,
      "క్రీడ": 2636,
      "Singh2009": 2637,
      "industry": 2638,
      "আগস্ট": 2639,
      "ఇండో": 2640,
      "প্রযুক্তি": 2641,
      "मंदिर": 2642,
      "A4": 2643,
      "And": 2644,
      "Br": 2645,
      "la": 2646,
      "ade": 2647,
      "top": 2648,
      "indiatimes": 2649,
      "states": 2650,
      "area": 2651,
      "cyc": 2652,
      "Schwartzberg": 2653,
      "Central": 2654,
      "bined": 2655,
      "hy": 2656,
      "ver": 2657,
      "viron": 2658,
      "बे": 2659,
      "ीप": 2660,
      "into": 2661,
      "ument": 2662,
      "wiki": 2663,
      "नाम": 2664,
      "राज्यों": 2665,
      "European": 2666,
      "vironment": 2667,
      "men": 2668,
      "pre": 2669,
      "uis": 2670,
      "ইং": 2671,
      "কল": 2672,
      "চে": 2673,
      "চার": 2674,
      "তী": 2675,
      "পার": 2676,
      "রয়েছে": 2677,
      "োবর": 2678,
      "১২": 2679,
      "128": 2680,
      "কাপ": 2681,
      "ষ্ট": 2682,
      "ঙ্ক": 2683,
      "রেজি": 2684,
      "produc": 2685,
      "হিন্দু": 2686,
      "oci": 2687,
      "poli": 2688,
      "ting": 2689,
      "val": 2690,
      "ख्या": 2691,
      "न्या": 2692,
      "रब": 2693,
      "सब": 2694,
      "सु": 2695,
      "ant": 2696,
      "encies": 2697,
      "index": 2698,
      "क्ति": 2699,
      "part": 2700,
      "Assembly": 2701,
      "century": 2702,
      "द्वीप": 2703,
      "FOOTNOTEStein2010": 2704,
      "Bengal": 2705,
      "पंजा": 2706,
      "ों_की_सूची": 2707,
      "ategory": 2708,
      "cap": 2709,
      "ark": 2710,
      "edi": 2711,
      "1960": 2712,
      "tics_": 2713,
      "ely": 2714,
      "cyclop": 2715,
      "):": 2716,
      "84": 2717,
      "All": 2718,
      "September": 2719,
      "rd": 2720,
      "spe": 2721,
      "ण्": 2722,
      "तट": 2723,
      "पाल": 2724,
      "मध्य": 2725,
      "सद": 2726,
      "পর্ব": 2727,
      "ব্": 2728,
      "শনা": 2729,
      "১০": 2730,
      "కత": 2731,
      "కళ": 2732,
      "టక": 2733,
      "మన": 2734,
      "మై": 2735,
      "రం": 2736,
      "వార": 2737,
      "సై": 2738,
      "tex": 2739,
      "them": 2740,
      "andard": 2741,
      "idd": 2742,
      "్యం": 2743,
      "్యా": 2744,
      "acy": 2745,
      "స్ట": 2746,
      "ween": 2747,
      "న్‌": 2748,
      "olk": 2749,
      "భారతదేశ_": 2750,
      "రియా": 2751,
      "ক্ষে": 2752,
      "ভাগ": 2753,
      "েশন": 2754,
      "साम": 2755,
      "সামরিক": 2756,
      "Temple": 2757,
      "ক্তকারী": 2758,
      "చెయ్య": 2759,
      "গুলির": 2760,
      "గణతంత్ర": 2761,
      "లంక": 2762,
      "మంత్రి": 2763,
      "files": 2764,
      "স্বাধীন": 2765,
      "వచ్చి": 2766,
      "సంగీతం": 2767,
      "ముంబై": 2768,
      "John": 2769,
      "resident": 2770,
      "గాంధీ": 2771,
      "పశ్చిమ": 2772,
      "सबसे": 2773,
      "পর্বত": 2774,
      "শনাক্তকারী": 2775,
      "చెయ్యబడింది": 2776,
      "06": 2777,
      "74": 2778,
      "91": 2779,
      "Af": 2780,
      "Do": 2781,
      "_L": 2782,
      "can": 2783,
      "data": 2784,
      "page": 2785,
      "son": 2786,
      "here": 2787,
      "1997": 2788,
      "two": 2789,
      "Aus": 2790,
      "eth": 2791,
      "jab": 2792,
      "बंध": 2793,
      "माल": 2794,
      "वे": 2795,
      "chnolog": 2796,
      "न्न": 2797,
      "Combined": 2798,
      "gram": 2799,
      "सम्": 2800,
      "Environment": 2801,
      "ology": 2802,
      "December": 2803,
      "Buddh": 2804,
      "south": 2805,
      "119": 2806,
      "Mal": 2807,
      "but": 2808,
      "ief": 2809,
      "pu": 2810,
      "str": 2811,
      "sup": 2812,
      "ইল": 2813,
      "কের": 2814,
      "খে": 2815,
      "জে": 2816,
      "তন্ত্র": 2817,
      "দিল্": 2818,
      "বু": 2819,
      "মিল": 2820,
      "১৪": 2821,
      "১৬": 2822,
      "বিত": 2823,
      "সাহ": 2824,
      "ষ্ঠ": 2825,
      "ত্ব": 2826,
      "ন্তর্": 2827,
      "Encyclop": 2828,
      "বায়ু": 2829,
      "/)": 2830,
      "63": 2831,
      "B0": 2832,
      "Citation": 2833,
      "IA": 2834,
      "River": 2835,
      "hat": 2836,
      "ry": 2837,
      "ran": 2838,
      "rish": 2839,
      "sur": 2840,
      "yy": 2841,
      "शि": 2842,
      "२०": 2843,
      "thema": 2844,
      "lead": 2845,
      "केंद्र": 2846,
      "olic": 2847,
      "FOOTNOTEC": 2848,
      "स्ट": 2849,
      "148": 2850,
      "prov": 2851,
      "60px": 2852,
      "न्द्र": 2853,
      "चीन": 2854,
      "Hinduism": 2855,
      "03": 2856,
      "65": 2857,
      "]:": 2858,
      "_E": 2859,
      "grow": 2860,
      "ton": 2861,
      "121": 2862,
      "230": 2863,
      "been": 2864,
      "eshow": 2865,
      "projection": 2866,
      "Sharma": 2867,
      "Ak": 2868,
      "Him": 2869,
      "Pun": 2870,
      "back": 2871,
      "jar": 2872,
      "public": 2873,
      "आई": 2874,
      "जरा": 2875,
      "तमिल": 2876,
      "यह": 2877,
      "কারি": 2878,
      "জো": 2879,
      "ণা": 2880,
      "শতা": 2881,
      "সূ": 2882,
      "েক্ষা": 2883,
      "১৫": 2884,
      "కం": 2885,
      "కీ": 2886,
      "జో": 2887,
      "తల": 2888,
      "తీ": 2889,
      "దార": 2890,
      "బంగ్": 2891,
      "రహ": 2892,
      "రంగ": 2893,
      "సరి": 2894,
      "rect": 2895,
      "nored": 2896,
      "ర్పు": 2897,
      "ignored": 2898,
      "প্রদেশ": 2899,
      "123": 2900,
      "క్క": 2901,
      "135": 2902,
      "সংসদ": 2903,
      "త్స": 2904,
      "able": 2905,
      "सागर": 2906,
      "స్థాన": 2907,
      "parame": 2908,
      "ortal": 2909,
      "সরকারি": 2910,
      "উপেক্ষা": 2911,
      "ative": 2912,
      "భారతదేశంలో_": 2913,
      "వ్యా": 2914,
      "లాదేశ్": 2915,
      "స్తు": 2916,
      "ఆర్కై": 2917,
      "హిందీ": 2918,
      "ంచిన": 2919,
      "মালয়": 2920,
      "మొద": 2921,
      "పెద్ద": 2922,
      "চ্চিত্র": 2923,
      "మార్గ": 2924,
      "সঙ্গীত": 2925,
      "रूप": 2926,
      "চলচ্চিত্র": 2927,
      "মেশিন": 2928,
      "ter_ignored": 2929,
      "tradition": 2930,
      "స్వాతంత్ర": 2931,
      "ब्रि": 2932,
      "శ్రీలంక": 2933,
      "తూర్పు": 2934,
      "బ్రిటి": 2935,
      "దారులు": 2936,
      "బంగ్లాదేశ్": 2937,
      "parameter_ignored": 2938,
      "ఆర్కైవు": 2939,
      "May": 2940,
      "North": 2941,
      "mil": 2942,
      "t_": 2943,
      "work": 2944,
      "ering": 2945,
      "ouse": 2946,
      "122": 2947,
      "liter": 2948,
      "216": 2949,
      "Category": 2950,
      "Oj": 2951,
      "o_": 2952,
      "खा": 2953,
      "ैन": 2954,
      "ones": 2955,
      "127": 2956,
      "cess": 2957,
      "266": 2958,
      "in_India": 2959,
      "साथ": 2960,
      "युक्त": 2961,
      "between": 2962,
      "KulkeRothermund": 2963,
      "A7": 2964,
      "At": 2965,
      "Bl": 2966,
      "_অ": 2967,
      "bec": 2968,
      "ey": 2969,
      "্মী": 2970,
      "\");": 2971,
      "য়ী": 2972,
      "টিশ": 2973,
      "ird": 2974,
      "জাতি": 2975,
      "িত্য": 2976,
      "লাই": 2977,
      "োলন": 2978,
      "সংখ্যা": 2979,
      "কাশ্মী": 2980,
      "আন্দোলন": 2981,
      "ইংরেজি": 2982,
      "সাহিত্য": 2983,
      ",[[": 2984,
      "Doi": 2985,
      "Ludd": 2986,
      "TR": 2987,
      "_W": 2988,
      "_Indian_": 2989,
      "bank": 2990,
      "cb": 2991,
      "mbol": 2992,
      "sar": 2993,
      "गा": 2994,
      "जु": 2995,
      "बंग": 2996,
      "iation": 2997,
      "omen": 2998,
      "ingdom": 2999,
      "CITEREFStein": 3000,
      "lywood": 3001,
      "ucation": 3002,
      "University_Press": 3003,
      "people": 3004,
      "gency": 3005,
      "ports": 3006,
      "territory": 3007,
      "Languages": 3008,
      "after": 3009,
      "च्च": 3010,
      "ण्ड": 3011,
      "Doi_": 3012,
      "Ludden": 3013,
      "Bank": 3014,
      "Bharat": 3015,
      "Go": 3016,
      "Public": 3017,
      "ls": 3018,
      "leshow": 3019,
      "mu": 3020,
      "other": 3021,
      "ess": 3022,
      "ourn": 3023,
      "articleshow": 3024,
      "years": 3025,
      "317": 3026,
      "Bar": 3027,
      "Court": 3028,
      "Gen": 3029,
      "Nations": 3030,
      "Ved": 3031,
      "_సామ్రాజ్యం": 3032,
      "name": 3033,
      "अरब": 3034,
      "णा": 3035,
      "दू": 3036,
      "पे": 3037,
      "উদ": 3038,
      "কর্": 3039,
      "গত": 3040,
      "ফুট": 3041,
      "বেশ": 3042,
      "বঙ্গ": 3043,
      "রু": 3044,
      "১৮": 3045,
      "ఇతర": 3046,
      "గల": 3047,
      "టీ": 3048,
      "టాన్": 3049,
      "పద": 3050,
      "పీ": 3051,
      "పట్ట": 3052,
      "బీ": 3053,
      "రణ": 3054,
      "వల": 3055,
      "report": 3056,
      "్రె": 3057,
      "leg": 3058,
      "స్వ": 3059,
      "ata_": 3060,
      "বিক": 3061,
      "ime": 3062,
      "ప్రత్య": 3063,
      "বাস": 3064,
      "stat": 3065,
      "ముఖ్య": 3066,
      "సిని": 3067,
      "తావర": 3068,
      "నాడు": 3069,
      "संख्या": 3070,
      "వాతావర": 3071,
      "Harle": 3072,
      "জাতীয়_": 3073,
      "ణాసియా": 3074,
      "general": 3075,
      "కాలం": 3076,
      "প্রাচীন": 3077,
      "టెడ్": 3078,
      "ప్రధానమంత్రి": 3079,
      "जिस": 3080,
      "সংস্কৃতি": 3081,
      "raven": 3082,
      "రైలు": 3083,
      "పంజా": 3084,
      "Bangladesh": 3085,
      "अनुसार": 3086,
      "ఆఫ్ఘ": 3087,
      "భూటాన్": 3088,
      "ব্রিটিশ": 3089,
      "মন্ত্রী": 3090,
      "January": 3091,
      "నేపాల్": 3092,
      "iddle": 3093,
      "olicy": 3094,
      "Punjab": 3095,
      "రహదారులు": 3096,
      "ফুটবল": 3097,
      "వాతావరణం": 3098,
      "*[": 3099,
      "He": 3100,
      "Mumb": 3101,
      "ca": 3102,
      "cms": 3103,
      "des": 3104,
      "ious": 3105,
      "serv": 3106,
      "incl": 3107,
      "istr": 3108,
      "change": 3109,
      "ustan": 3110,
      "mark": 3111,
      "Report": 3112,
      "ographic_": 3113,
      "National_Informa": 3114,
      "tics_Centre": 3115,
      "National_Informatics_Centre": 3116,
      "213": 3117,
      "300": 3118,
      "Ac": 3119,
      "Di": 3120,
      "Dev": 3121,
      "Ram": 3122,
      "Sr": 3123,
      "ck": 3124,
      "ii": 3125,
      "lang": 3126,
      "pt": 3127,
      "ual": 3128,
      "कश्": 3129,
      "ज्य": 3130,
      "टन": 3131,
      "तंत्र": 3132,
      "बि": 3133,
      "बहु": 3134,
      "वरी": 3135,
      "iction": 3136,
      "tra": 3137,
      "\\).": 3138,
      "124": 3139,
      "तिहा": 3140,
      "1996": 3141,
      "253": 3142,
      "संग": 3143,
      "ंग्": 3144,
      "पर्य": 3145,
      "िकार": 3146,
      "शास": 3147,
      "Gujar": 3148,
      "प्त": 3149,
      "कश्मी": 3150,
      "110": 3151,
      "219": 3152,
      "It": 3153,
      "Me": 3154,
      "Mad": 3155,
      "Publish": 3156,
      "San": 3157,
      "cur": 3158,
      "site": 3159,
      "view": 3160,
      "জার্": 3161,
      "তম": 3162,
      "ধারণ": 3163,
      "edition": 3164,
      "য়ারি": 3165,
      "come": 3166,
      "103": 3167,
      "সাগর": 3168,
      "জাতিক": 3169,
      "avid": 3170,
      "peri": 3171,
      "ড়া": 3172,
      "_Del": 3173,
      "orthographic_": 3174,
      "gener": 3175,
      "পূর্": 3176,
      "লোক": 3177,
      "বৃহ": 3178,
      "ক্ষেত্র": 3179,
      "orthographic_projection": 3180,
      "64": 3181,
      "Ad": 3182,
      "Arab": 3183,
      "CN": 3184,
      "Qu": 3185,
      "_K": 3186,
      "ft": 3187,
      "एवं": 3188,
      "गो": 3189,
      "गढ़": 3190,
      "शी": 3191,
      "estim": 3192,
      "umar": 3193,
      "uslim": 3194,
      "ovement": 3195,
      "काल": 3196,
      "play": 3197,
      "और_": 3198,
      "News": 3199,
      "AsherTalbot2008": 3200,
      "List_of_countries_by": 3201,
      "ज्ञान": 3202,
      "details": 3203,
      "तिहास": 3204,
      "Gr": 3205,
      "Keral": 3206,
      "Modern": 3207,
      "britannica": 3208,
      "tle": 3209,
      "url": 3210,
      "istor": 3211,
      "138": 3212,
      "140": 3213,
      "Chr": 3214,
      "Hindustan": 3215,
      "economic": 3216,
      "Ministry_of_": 3217,
      "classical": 3218,
      "orest": 3219,
      "number": 3220,
      "Nep": 3221,
      "_पर": 3222,
      "bu": 3223,
      "n_": 3224,
      "nat": 3225,
      "ures": 3226,
      "yle": 3227,
      "टे": 3228,
      "नगर": 3229,
      "আদ": 3230,
      "জল": 3231,
      "জু": 3232,
      "টোবর": 3233,
      "বস": 3234,
      "ভর": 3235,
      "ল্": 3236,
      "সার্": 3237,
      "সফোর্": 3238,
      "ীতি": 3239,
      "ূল": 3240,
      "అతి": 3241,
      "అయి": 3242,
      "అత్య": 3243,
      "ఇరా": 3244,
      "ఇన్‌": 3245,
      "ఒడి": 3246,
      "కీయ": 3247,
      "గలు": 3248,
      "జె": 3249,
      "జరా": 3250,
      "నాల": 3251,
      "భుత్": 3252,
      "మాల": 3253,
      "మన్": 3254,
      "లలో": 3255,
      "లకు": 3256,
      "లక్ష": 3257,
      "వై": 3258,
      "శతా": 3259,
      "సె": 3260,
      "ియా": 3261,
      "ేక": 3262,
      "য়ন": 3263,
      "1970": 3264,
      "దేశంలో": 3265,
      "বিচার": 3266,
      "us_": 3267,
      "স্তা": 3268,
      "ప్రభుత్": 3269,
      "నిక": 3270,
      "সংঘ": 3271,
      "ంగ్రె": 3272,
      "even": 3273,
      "তামিল": 3274,
      "s_and_": 3275,
      "త్వ": 3276,
      "frica": 3277,
      "పూర్": 3278,
      "2011census": 3279,
      "২০০৯": 3280,
      "కాంగ్రె": 3281,
      "parliament": 3282,
      "పాలన": 3283,
      "సామ్రాజ్య": 3284,
      "दिल्": 3285,
      "ड़ा": 3286,
      "উপক": 3287,
      "గుజరా": 3288,
      "రాజకీయ": 3289,
      "কিন": 3290,
      "নেপাল": 3291,
      "శాస్త్రం": 3292,
      "ంచింది": 3293,
      "వర్గం": 3294,
      "्राज्य": 3295,
      "হিন্দি": 3296,
      "బెంగాల్": 3297,
      "తమిళనాడు": 3298,
      "esearch": 3299,
      "অক্টোবর": 3300,
      "অক্সফোর্": 3301,
      "Sikh": 3302,
      "dependencies": 3303,
      "মার্কিন": 3304,
      "సముద్ర": 3305,
      "साम्राज्य": 3306,
      "স্বাধীনতা": 3307,
      "Austral": 3308,
      "দিল্লি": 3309,
      "ప్రత్యేక": 3310,
      "includ": 3311,
      "ఇన్‌ఫ": 3312,
      "శతాబ్": 3313,
      "दिल्ली": 3314,
      "অক্সফোর্ড": 3315,
      "415": 3316,
      "Sec": 3317,
      "West": 3318,
      "col": 3319,
      "get": 3320,
      "mill": 3321,
      "sec": 3322,
      "ised": 3323,
      "abad": 3324,
      "under": 3325,
      "crip": 3326,
      "Fisher2018": 3327,
      "National_Informatics_Centre2005": 3328,
      "\"[": 3329,
      "115": 3330,
      "For": 3331,
      "Jain": 3332,
      "Ut": 3333,
      "Val": 3334,
      "az": 3335,
      "b0": 3336,
      "cul": 3337,
      "dec": 3338,
      "gl": 3339,
      "jan": 3340,
      "एं": 3341,
      "डी": 3342,
      "दान": 3343,
      "लु": 3344,
      "वै": 3345,
      "rec": 3346,
      "arh": 3347,
      "alog": 3348,
      "ical_": 3349,
      "use": 3350,
      "aka": 3351,
      "ake": 3352,
      "oreign": 3353,
      "माण": 3354,
      "State": 3355,
      "ummits": 3356,
      "pib": 3357,
      "नीति": 3358,
      "गुजरा": 3359,
      "न्याया": 3360,
      "chnology": 3361,
      "पर्यटन": 3362,
      "Uttar": 3363,
      "5_": 3364,
      "Ele": 3365,
      "View": 3366,
      "York": 3367,
      "bas": 3368,
      "constitution": 3369,
      "ling": 3370,
      "mi": 3371,
      "ven": 3372,
      "খ্রি": 3373,
      "গো": 3374,
      "গোল": 3375,
      "ণ্": 3376,
      "নভে": 3377,
      "ভৌ": 3378,
      "মৌ": 3379,
      "র_": 3380,
      "শীল": 3381,
      "হার": 3382,
      "২৩": 3383,
      "ict": 3384,
      "ন্ট": 3385,
      "ক্স": 3386,
      "সাই": 3387,
      "প্রস্তা": 3388,
      "231": 3389,
      "প্ত": 3390,
      "তেল": 3391,
      "key": 3392,
      "অন্যান": 3393,
      "স্থান": 3394,
      "বিশ্বের": 3395,
      "economy": 3396,
      "ildlife": 3397,
      "ক্ষমতা": 3398,
      "ণ্ড": 3399,
      "অন্যান্য": 3400,
      "1200": 3401,
      "116": 3402,
      "Nuclear": 3403,
      "Russ": 3404,
      "business": 3405,
      "fact": 3406,
      "go": 3407,
      "power": 3408,
      "tre": 3409,
      "इंड": 3410,
      "क्र": 3411,
      "कर्": 3412,
      "घा": 3413,
      "मंत्र": 3414,
      "िका": 3415,
      "ini": 3416,
      "used": 3417,
      "170": 3418,
      "लाई": 3419,
      "ource": 3420,
      "peration": 3421,
      "articles": 3422,
      "बांग्": 3423,
      "क_स्रोत": 3424,
      "पुस्तक": 3425,
      "पुस्तक_स्रोत": 3426,
      "catalog": 3427,
      "शासन": 3428,
      "बांग्ला": 3429,
      "lam": 3430,
      "nam": 3431,
      "ada": 3432,
      "who": 3433,
      "गणराज्य": 3434,
      "CE": 3435,
      "Ganges": 3436,
      "Lank": 3437,
      "Min": 3438,
      "NG": 3439,
      "Nat": 3440,
      "Pal": 3441,
      "Research": 3442,
      "_ప్రదేశ్": 3443,
      "_प्रदेश": 3444,
      "_Mah": 3445,
      "pres": 3446,
      "ria": 3447,
      "धी": 3448,
      "सभा": 3449,
      "আয়": 3450,
      "আন্তর্": 3451,
      "কং": 3452,
      "ছিল": 3453,
      "ডিয়া": 3454,
      "তু": 3455,
      "ীকরণ": 3456,
      "ুষ": 3457,
      "৯৭": 3458,
      "ఆగ": 3459,
      "ఇండి": 3460,
      "గఢ": 3461,
      "గంగా": 3462,
      "చర్": 3463,
      "పట": 3464,
      "పార్": 3465,
      "బహ": 3466,
      "బౌ": 3467,
      "మల": 3468,
      "మౌ": 3469,
      "లను": 3470,
      "ళు": 3471,
      "షన్": 3472,
      "సమ": 3473,
      "సూ": 3474,
      "tiv": 3475,
      "eds": 3476,
      "edu": 3477,
      "ాలీ": 3478,
      "केन्द्र": 3479,
      "లుగు": 3480,
      "126": 3481,
      "129": 3482,
      "cean": 3483,
      "সংস্থা": 3484,
      "সংবিধান": 3485,
      "407": 3486,
      "विज्ञान": 3487,
      "విస్త": 3488,
      "వాణా": 3489,
      "ికి": 3490,
      "ंगा": 3491,
      "পরমাণ": 3492,
      "পাদ": 3493,
      "দেশের": 3494,
      "আইন": 3495,
      "्वर": 3496,
      "সিন্ধ": 3497,
      "ডিএফ": 3498,
      "স্থাপ": 3499,
      "దక్షిణాసియా": 3500,
      "ত্তম": 3501,
      "কেন্দ্রীয়": 3502,
      "অর্থনীতি": 3503,
      "ద్ధం": 3504,
      "ద్ధి": 3505,
      "वर्ष": 3506,
      "యునై": 3507,
      "దక్షిణ_": 3508,
      "ష్ణ": 3509,
      "শিক্ষা": 3510,
      "బెంగాలీ": 3511,
      "Registr": 3512,
      "కాశ్మీరు": 3513,
      "लोक": 3514,
      "Brahm": 3515,
      "Mughal": 3516,
      "सूचना": 3517,
      "సమాఖ్య": 3518,
      "ournal": 3519,
      "period": 3520,
      "বৃহত্তম": 3521,
      "శతాబ్దం": 3522,
      "নভেম্বর": 3523,
      "আন্তর্জাতিক": 3524,
      "గఢ్": 3525,
      "బౌద్ధ": 3526,
      "পরমাণু": 3527,
      "యునైటెడ్": 3528,
      "Registrar": 3529,
      "Science": 3530,
      "ee": 3531,
      "million": 3532,
      "oon": 3533,
      "alore": 3534,
      "isions": 3535,
      "ell": 3536,
      "ross": 3537,
      "ugg": 3538,
      "New_Del": 3539,
      "onstituent": 3540,
      "dispu": 3541,
      "Bangalore": 3542,
      "02": 3543,
      "Cons": 3544,
      "David": 3545,
      "Sy": 3546,
      "_language": 3547,
      "global": 3548,
      "rup": 3549,
      "असम": 3550,
      "एस": 3551,
      "जय": 3552,
      "थी": 3553,
      "ndra": 3554,
      "ont": 3555,
      "theast": 3556,
      "asp": 3557,
      "ece": 3558,
      "174": 3559,
      "141": 3560,
      "1990": 3561,
      "नेमा": 3562,
      "सिनेमा": 3563,
      "Robb": 3564,
      "उत्त": 3565,
      "द्योग": 3566,
      "टिश": 3567,
      "आधार_पर": 3568,
      "महारा": 3569,
      "Ethnologue": 3570,
      "capit": 3571,
      "ब्रिटिश": 3572,
      "जुलाई": 3573,
      "आधार_पर_": 3574,
      "महाराष्ट्र": 3575,
      "82": 3576,
      "Human": 3577,
      "Jam": 3578,
      "_অঞ্চল": 3579,
      "net": 3580,
      "rate": 3581,
      "summit": 3582,
      "var": 3583,
      "অধ": 3584,
      "আফ": 3585,
      "ইস": 3586,
      "গঠ": 3587,
      "চি": 3588,
      "জয়": 3589,
      "টান": 3590,
      "তথ": 3591,
      "পো": 3592,
      "ফে": 3593,
      "লার": 3594,
      "সহ": 3595,
      "সর্ব": 3596,
      "২২": 3597,
      "ors": 3598,
      "ভারত_": 3599,
      "বিভাগ": 3600,
      "wealth": 3601,
      "স্ট্র": 3602,
      "সাধারণ": 3603,
      "ove": 3604,
      "003": 3605,
      "িকী": 3606,
      "132": 3607,
      "সংরক্ষণ": 3608,
      "দ্ধি": 3609,
      "লেখ": 3610,
      "ম্প": 3611,
      "ঙ্কা": 3612,
      "পিডিএফ": 3613,
      "ক্রিকে": 3614,
      "শ্রীল": 3615,
      "মার্চ": 3616,
      "Country": 3617,
      "became": 3618,
      "তথ্য": 3619,
      "শ্রীলঙ্কা": 3620,
      "EX": 3621,
      "Fe": 3622,
      "Iran": 3623,
      "Tur": 3624,
      "modern": 3625,
      "ok": 3626,
      "चे": 3627,
      "जो": 3628,
      "बई": 3629,
      "बो": 3630,
      "मार्": 3631,
      "।.": 3632,
      "tes": 3633,
      "teen": 3634,
      "incre": 3635,
      "anth": 3636,
      "andhi": 3637,
      "astern": 3638,
      "total": 3639,
      "mathema": 3640,
      "देशों": 3641,
      "त्व": 3642,
      "जाति": 3643,
      "relations": 3644,
      "many": 3645,
      "शासित": 3646,
      "BCE": 3647,
      "_के_आधार_पर_": 3648,
      "व्यव": 3649,
      "संस्कृत": 3650,
      "Religion": 3651,
      "General": 3652,
      "Russia": 3653,
      "61": 3654,
      "Fund": 3655,
      "_at": 3656,
      "billion": 3657,
      "hru": 3658,
      "ps": 3659,
      "sp": 3660,
      "onwealth": 3661,
      "tig": 3662,
      "er_": 3663,
      "left": 3664,
      "20140": 3665,
      "trans": 3666,
      "etary": 3667,
      "profile": 3668,
      "ultural": 3669,
      "Plate": 3670,
      "ector": 3671,
      "Parliament": 3672,
      "Nehru": 3673,
      "northern": 3674,
      "Affairs": 3675,
      ")\"](": 3676,
      ".](./": 3677,
      "/)।": 3678,
      "7C": 3679,
      "AS": 3680,
      "BBC": 3681,
      "IM": 3682,
      "Mic": 3683,
      "Mac": 3684,
      "President": 3685,
      "Portal": 3686,
      "Soci": 3687,
      "US": 3688,
      "Var": 3689,
      "_మతము": 3690,
      "house": 3691,
      "oor": 3692,
      "such": 3693,
      "ंप": 3694,
      "अप": 3695,
      "इतिहास": 3696,
      "बै": 3697,
      "श्री": 3698,
      "ून": 3699,
      "ইন্দ": 3700,
      "কৃ": 3701,
      "বার": 3702,
      "বন্ধ": 3703,
      "ভ্য": 3704,
      "মহ": 3705,
      "হয়ে": 3706,
      "అస్": 3707,
      "అరు": 3708,
      "ఇస్": 3709,
      "ఇది": 3710,
      "ఇంగ్": 3711,
      "కన్న": 3712,
      "కలి": 3713,
      "కరణ": 3714,
      "ఖండ": 3715,
      "గ్ర": 3716,
      "చా": 3717,
      "డీ": 3718,
      "డే": 3719,
      "తరా": 3720,
      "తులు": 3721,
      "ద్య": 3722,
      "ద్రా": 3723,
      "పండు": 3724,
      "బాం": 3725,
      "బడ్": 3726,
      "మాల్": 3727,
      "రవాణా": 3728,
      "ళ్": 3729,
      "సార": 3730,
      "ానికి": 3731,
      "eric": 3732,
      "itz": 3733,
      "aspx": 3734,
      "্যাল": 3735,
      "ాలో": 3736,
      "trol": 3737,
      "2002": 3738,
      "iving": 3739,
      "ats": 3740,
      "న్స్": 3741,
      "ety": 3742,
      "ప్రదా": 3743,
      "లోక్‌": 3744,
      "িকি": 3745,
      "రికత": 3746,
      "క్నాల": 3747,
      "160": 3748,
      "ండర్": 3749,
      "प्रधान": 3750,
      "సిక్కు": 3751,
      "विका": 3752,
      "విశ్": 3753,
      "িয়ার": 3754,
      "ద్వీ": 3755,
      "ৃত্য": 3756,
      "জন্য": 3757,
      "দেশে": 3758,
      "హిమాల": 3759,
      "432": 3760,
      "समय": 3761,
      "ड़ी": 3762,
      "ంటు": 3763,
      "భారతదేశంలోని": 3764,
      "_summit": 3765,
      "చ్చే": 3766,
      "వేద": 3767,
      "বর্ত": 3768,
      "अन्य": 3769,
      "ర్యా": 3770,
      "ఉత్తరా": 3771,
      "టెక్నాల": 3772,
      "కేంద్రపాలిత_": 3773,
      "నాగరికత": 3774,
      "যুক্তরাষ্ট্র": 3775,
      "తెలుగు": 3776,
      "నగర": 3777,
      "సింధు": 3778,
      "সালের": 3779,
      "Company": 3780,
      "ইন্ডিয়া": 3781,
      "క్రీడలు": 3782,
      "వచ్చింది": 3783,
      "gramme": 3784,
      "শতাংশ": 3785,
      "సరిహ": 3786,
      "స్వాతంత్ర్య": 3787,
      "సినిమా": 3788,
      "ఆఫ్ఘనిస్తాన్": 3789,
      "చర్చ": 3790,
      "ళుక్య": 3791,
      "ক্রিকেট": 3792,
      "_के_आधार_पर_भारत_के_राज्य": 3793,
      "కన్నడ": 3794,
      "చాళుక్య": 3795,
      "మాల్దీవులు": 3796,
      "లోక్‌సభ": 3797,
      "టెక్నాలజీ": 3798,
      "Law": 3799,
      "my": 3800,
      "vat": 3801,
      "oral": 3802,
      "city": 3803,
      "20160": 3804,
      "urn": 3805,
      "143": 3806,
      "147": 3807,
      "162": 3808,
      "timesofindia": 3809,
      "ervation": 3810,
      ")](": 3811,
      ".|": 3812,
      "Clim": 3813,
      "Lond": 3814,
      "Main": 3815,
      "NC": 3816,
      "Ocean": 3817,
      "PC": 3818,
      "Row": 3819,
      "Ti": 3820,
      "WE": 3821,
      "_en": 3822,
      "ae": 3823,
      "bod": 3824,
      "med": 3825,
      "vers": 3826,
      "अन्": 3827,
      "दिया": 3828,
      "पार्": 3829,
      "मल": 3830,
      "शक्ति": 3831,
      "िय": 3832,
      "tell": 3833,
      "inf": 3834,
      "errit": 3835,
      "thehind": 3836,
      "ivil": 3837,
      "130": 3838,
      "विधान": 3839,
      "odi": 3840,
      "bruary": 3841,
      "uction": 3842,
      "Mach": 3843,
      "निर्": 3844,
      "Liter": 3845,
      "वंश": 3846,
      "diff": 3847,
      "rule": 3848,
      "मुख्य": 3849,
      "स्वतंत्र": 3850,
      "पश्चिम": 3851,
      "Andaman": 3852,
      "Gujarat": 3853,
      "कश्मीर": 3854,
      "Nepal": 3855,
      "glance": 3856,
      "February": 3857,
      "व्यवस्था": 3858,
      "London": 3859,
      "(`|": 3860,
      "545": 3861,
      "92": 3862,
      "Pers": 3863,
      "Part": 3864,
      "Res": 3865,
      "dyn": 3866,
      "jor": 3867,
      "lar": 3868,
      "paper": 3869,
      "since": 3870,
      "উই": 3871,
      "জান": 3872,
      "জরা": 3873,
      "তৃ": 3874,
      "নৃত্য": 3875,
      "ল_": 3876,
      "সমা": 3877,
      "ances": 3878,
      "los": 3879,
      "বিষ": 3880,
      "webcitation": 3881,
      "প্রতী": 3882,
      "Spear": 3883,
      "ভাবে": 3884,
      "1999": 3885,
      "major": 3886,
      "ড়ি": 3887,
      "Prov": 3888,
      "_sugg": 3889,
      "মালা": 3890,
      "সঙ্গে": 3891,
      "বহু": 3892,
      "Wolpert2003": 3893,
      "জোট": 3894,
      "parameter_ignored_sugg": 3895,
      "Kerala": 3896,
      "প্রস্তাবিত": 3897,
      "কংগ্র": 3898,
      "সিন্ধু": 3899,
      "প্রতীক": 3900,
      "parameter_ignored_suggest": 3901,
      "2nd": 3902,
      "Constituent": 3903,
      "Myan": 3904,
      "SI": 3905,
      "_3": 3906,
      "_J": 3907,
      "equ": 3908,
      "ker": 3909,
      "kar": 3910,
      "nom": 3911,
      "कल": 3912,
      "दर": 3913,
      "दो": 3914,
      "लग": 3915,
      "िकी": 3916,
      "203": 3917,
      "itary": 3918,
      "loy": 3919,
      "FOOTNOTESingh2009": 3920,
      "166": 3921,
      "sha": 3922,
      "भाग": 3923,
      "osp": 3924,
      "Indones": 3925,
      "904": 3926,
      "ankar": 3927,
      "1962": 3928,
      "जनसंख्या": 3929,
      "तीस": 3930,
      "MetcalfMetcalf2012": 3931,
      "Bib": 3932,
      "PPP": 3933,
      "FOOTNOTEStein1998": 3934,
      "document": 3935,
      "पंजाब": 3936,
      "langoff": 3937,
      "विकास": 3938,
      "erritory": 3939,
      "Myanmar": 3940,
      "Indonesia": 3941,
      "210": 3942,
      "Pan": 3943,
      "Pur": 3944,
      "later": 3945,
      "vi": 3946,
      "isc": 3947,
      "adminis": 3948,
      "104": 3949,
      "0000": 3950,
      "1991": 3951,
      "ternal": 3952,
      "athak": 3953,
      "Affairs_": 3954,
      "month": 3955,
      "uistic": 3956,
      "Publishing": 3957,
      "Valley": 3958,
      "019": 3959,
      ":/": 3960,
      "Caste": 3961,
      "IB": 3962,
      "IU": 3963,
      "Te": 3964,
      "_তালিকা": 3965,
      "_मेला": 3966,
      "_और_": 3967,
      "cture": 3968,
      "han": 3969,
      "ij": 3970,
      "long": 3971,
      "map": 3972,
      "west": 3973,
      "इन": 3974,
      "एँ": 3975,
      "जल": 3976,
      "উল্": 3977,
      "চাল": 3978,
      "দল": 3979,
      "দ্র": 3980,
      "দ্রা": 3981,
      "মণি": 3982,
      "মিয়ান": 3983,
      "ী_": 3984,
      "২৮": 3985,
      "৫০": 3986,
      "ఖండ్": 3987,
      "చీ": 3988,
      "జరి": 3989,
      "జార్": 3990,
      "ట్ర": 3991,
      "తై": 3992,
      "తరు": 3993,
      "పై": 3994,
      "మహ": 3995,
      "మలు": 3996,
      "మహార": 3997,
      "మయన్": 3998,
      "యో": 3999,
      "రూ": 4000,
      "శో": 4001,
      "సౌ": 4002,
      "సార్": 4003,
      "హార్": 4004,
      "ాష్ట్ర": 4005,
      "2026": 4006,
      "য়িকী": 4007,
      "omin": 4008,
      "ारी": 4009,
      "ాలా": 4010,
      "ooperation": 4011,
      "భారత్": 4012,
      "ন্স": 4013,
      "ర్మే": 4014,
      "ప్రజ": 4015,
      "প্রথ": 4016,
      "లోయ": 4017,
      "িক_": 4018,
      "12148": 4019,
      "FOOTNOTENational_Informatics_Centre2005": 4020,
      "ালত": 4021,
      "Ins": 4022,
      "CIA": 4023,
      "प्रति": 4024,
      "సిక్": 4025,
      "Chines": 4026,
      "త్మా": 4027,
      "संयुक्त": 4028,
      "संविधान": 4029,
      "i_language": 4030,
      "ेश्वर": 4031,
      "మాచల్": 4032,
      "ద్దు": 4033,
      "নিবন্ধ": 4034,
      "ालय": 4035,
      "থাইল": 4036,
      "প্টে": 4037,
      "জনসংখ্যা": 4038,
      "న్నో": 4039,
      "హిమాచల్": 4040,
      "ainting": 4041,
      "దినో": 4042,
      "সেনা": 4043,
      "সেপ্টে": 4044,
      "మిజో": 4045,
      "రాజస్థాన్": 4046,
      "সাময়িকী": 4047,
      "తరం": 4048,
      "కోర్": 4049,
      "ణాచల్": 4050,
      "ణాటక": 4051,
      "1965": 4052,
      "1967": 4053,
      "ন্তর": 4054,
      "Islam": 4055,
      "ప్రాంతం": 4056,
      "itecture": 4057,
      "ట్టు": 4058,
      "ultan": 4059,
      "యుద్ధం": 4060,
      "rown": 4061,
      "রিজার্": 4062,
      "Office": 4063,
      "bnf": 4064,
      "syayan": 4065,
      "క్కువ": 4066,
      "বৃদ্ধি": 4067,
      "మహాత్మా": 4068,
      "icket": 4069,
      "রাজনীতি": 4070,
      "Organisation": 4071,
      "కర్ణాటక": 4072,
      "స్టా": 4073,
      "খেলা": 4074,
      "বুদ্ধ": 4075,
      "Himalay": 4076,
      "త్సవం": 4077,
      "మార్గాలు": 4078,
      "কাশ্মীর": 4079,
      "बंगाल": 4080,
      "బీహార్": 4081,
      "raven1997": 4082,
      "పంజాబ్": 4083,
      "Health": 4084,
      "আদালত": 4085,
      "জুলাই": 4086,
      "ఇరాన్": 4087,
      "సామ్రాజ్యము": 4088,
      "উপকূল": 4089,
      "గుజరాత్": 4090,
      "ఇన్‌ఫర్మే": 4091,
      "Lanka": 4092,
      "మౌర్య": 4093,
      "IMF": 4094,
      "అరుణాచల్": 4095,
      "ఇంగ్లీ": 4096,
      "చ్చేరి": 4097,
      "సరిహద్దు": 4098,
      "WEO": 4099,
      "উইকি": 4100,
      "কংগ্রেস": 4101,
      "IUCN": 4102,
      "মণিপুর": 4103,
      "মিয়ানমার": 4104,
      "తరువా": 4105,
      "మహారాష్ట్ర": 4106,
      "మయన్మార్": 4107,
      "থাইল্যান্ড": 4108,
      "దినోత్సవం": 4109,
      "সেপ্টেম্বর": 4110,
      "রিজার্ভ": 4111,
      "ఇన్‌ఫర్మేషన్": 4112,
      ".\")": 4113,
      "Cl": 4114,
      "Ear": 4115,
      "Le": 4116,
      "SCO": 4117,
      "Tel": 4118,
      "some": 4119,
      "wal": 4120,
      "105": 4121,
      "ollywood": 4122,
      "ists": 4123,
      "emal": 4124,
      "139": 4125,
      "avy": 4126,
      "arendra": 4127,
      "own": 4128,
      "From": 4129,
      "\"[[": 4130,
      ".](//": 4131,
      "Africa": 4132,
      "De": 4133,
      "Muslim": 4134,
      "Nar": 4135,
      "PK": 4136,
      "Summit": 4137,
      "_का_": 4138,
      "cise": 4139,
      "fes": 4140,
      "gre": 4141,
      "lord": 4142,
      "non": 4143,
      "painting": 4144,
      "social": 4145,
      "ंक": 4146,
      "ये": 4147,
      "रक्षा": 4148,
      "tis": 4149,
      "ert": 4150,
      "omas": 4151,
      "ication": 4152,
      "among": 4153,
      "\\)\"),": 4154,
      "109": 4155,
      "1000": 4156,
      "oll": 4157,
      "ovember": 4158,
      "emp": 4159,
      "FOOTNOTEAsherTalbot2008": 4160,
      "tical_": 4161,
      "ayback": 4162,
      "CITEREFMetcalfMetcalf2006": 4163,
      "s_in_India": 4164,
      "नाथ": 4165,
      "content": 4166,
      "ose": 4167,
      "भारत_की_": 4168,
      "search": 4169,
      "worldbank": 4170,
      "_BRICS": 4171,
      "Minister": 4172,
      "formation": 4173,
      "देव": 4174,
      "posed": 4175,
      "blem": 4176,
      "olkata": 4177,
      "Australia": 4178,
      "capita": 4179,
      "vatsyayan": 4180,
      "nominal": 4181,
      "117": 4182,
      "Bal": 4183,
      "Foreign": 4184,
      "Gre": 4185,
      "Hom": 4186,
      "Sub": 4187,
      "_World": 4188,
      "bar": 4189,
      "dd": 4190,
      "found": 4191,
      "his": 4192,
      "ib": 4193,
      "উদ্": 4194,
      "উন্ন": 4195,
      "চিত": 4196,
      "ডে": 4197,
      "নার": 4198,
      "রো": 4199,
      "শাল": 4200,
      "সার": 4201,
      "৫৬": 4202,
      "am_": 4203,
      "স্ত্র": 4204,
      "ীয়_": 4205,
      "179": 4206,
      "২০১৯": 4207,
      "ক্ষর": 4208,
      "ayl": 4209,
      "epart": 4210,
      "িলি": 4211,
      "পর্য": 4212,
      "১৯৭": 4213,
      "early": 4214,
      "Commonwealth": 4215,
      "বর্ষ": 4216,
      "ভিন্ন": 4217,
      "অন্য": 4218,
      "ঞ্জা": 4219,
      "প্রধানমন্ত্রী": 4220,
      "এশিয়া": 4221,
      "authority": 4222,
      "known": 4223,
      "Taj_Mah": 4224,
      "পর্বতমালা": 4225,
      "mbols": 4226,
      "ictionary": 4227,
      "Christ": 4228,
      "Jammu": 4229,
      "উল্লেখ": 4230,
      "epartment": 4231,
      "Taj_Mahal_": 4232,
      "04": 4233,
      "113": 4234,
      "Car": 4235,
      "Civil": 4236,
      "Cooperation": 4237,
      "LO": 4238,
      "Malay": 4239,
      "Tw": 4240,
      "_2011": 4241,
      "aul": 4242,
      "cia": 4243,
      "cen": 4244,
      "culture": 4245,
      "ric": 4246,
      "way": 4247,
      "western": 4248,
      "चु": 4249,
      "टक": 4250,
      "दरा": 4251,
      "पति": 4252,
      "वार्": 4253,
      "सैन": 4254,
      "tition": 4255,
      "they": 4256,
      "ould": 4257,
      "ources": 4258,
      "1017": 4259,
      "ola": 4260,
      "157": 4261,
      "238": 4262,
      "28orthographic_projection": 4263,
      "control": 4264,
      "\"));": 4265,
      "वायु": 4266,
      "जाता": 4267,
      "कार्य": 4268,
      "Oxford_": 4269,
      "ghan": 4270,
      "ependence": 4271,
      "Economy_of_": 4272,
      "पूर्वी": 4273,
      "मैदान": 4274,
      "Afghan": 4275,
      "Buddhism": 4276,
      "growth": 4277,
      "sites": 4278,
      "Minor": 4279,
      "teenth": 4280,
      "Rowland": 4281,
      "स्वतंत्रता": 4282,
      "AC": 4283,
      "_2004": 4284,
      "ject": 4285,
      "set": 4286,
      "araj": 4287,
      "aries": 4288,
      "estic": 4289,
      "181": 4290,
      "267": 4291,
      "in_March": 4292,
      "asty": 4293,
      "literature": 4294,
      "dynasty": 4295,
      "Taj_Mahal_in_March": 4296,
      "Taj_Mahal_in_March_2004": 4297,
      "/).": 4298,
      "73": 4299,
      "Be": 4300,
      "Culture": 4301,
      "Her": 4302,
      "Journal": 4303,
      "Od": 4304,
      "Of": 4305,
      "Social": 4306,
      "UI": 4307,
      "Western": 4308,
      "Wayback": 4309,
      "_for": 4310,
      "_24": 4311,
      "bhas": 4312,
      "famil": 4313,
      "hdr": 4314,
      "nu": 4315,
      "ncl": 4316,
      "sign": 4317,
      "via": 4318,
      "ved": 4319,
      "vel": 4320,
      "अग": 4321,
      "अम": 4322,
      "अर्थ": 4323,
      "आर्थ": 4324,
      "उद्य": 4325,
      "गंगा": 4326,
      "णि": 4327,
      "पो": 4328,
      "पर्व": 4329,
      "উচ্চ": 4330,
      "এল": 4331,
      "ক_": 4332,
      "ধা": 4333,
      "বছ": 4334,
      "বভৌ": 4335,
      "রক্ষ": 4336,
      "রপে": 4337,
      "সী": 4338,
      "২৯": 4339,
      "ంక": 4340,
      "అనే": 4341,
      "ఎన్నో": 4342,
      "ఏర్": 4343,
      "కను": 4344,
      "ఖ్": 4345,
      "గీ": 4346,
      "గ్": 4347,
      "టో": 4348,
      "నం": 4349,
      "పర": 4350,
      "పొ": 4351,
      "మణి": 4352,
      "లతో": 4353,
      "లవు": 4354,
      "లమె": 4355,
      "ళం": 4356,
      "వృ": 4357,
      "శ్ర": 4358,
      "షా": 4359,
      "స్య": 4360,
      "హర్": 4361,
      "ూరు": 4362,
      "inance": 4363,
      "erg": 4364,
      "ারীকরণ": 4365,
      "ారం": 4366,
      "add": 4367,
      "tro": 4368,
      "ago": 4369,
      "well": 4370,
      "ర్లు": 4371,
      "ప్రతి": 4372,
      "ప్రస్తు": 4373,
      "প্রশাস": 4374,
      "125": 4375,
      "FOOTNOTEKulkeRothermund": 4376,
      "বাণি": 4377,
      "সংবাদ": 4378,
      "142": 4379,
      "156": 4380,
      "ीय_": 4381,
      "ung": 4382,
      "తిక": 4383,
      "త్తం": 4384,
      "కుటు": 4385,
      "संसद": 4386,
      "about": 4387,
      "చిత్ర": 4388,
      "మాతరం": 4389,
      "main": 4390,
      "বই_উদ্ধৃতি": 4391,
      "নিরপে": 4392,
      "సంఘ": 4393,
      "_Pr": 4394,
      "వందే": 4395,
      "भारत_का_": 4396,
      "టిబె": 4397,
      "రాష్ట్రాల": 4398,
      "পিডিয়া": 4399,
      "ड़े": 4400,
      "కోబ": 4401,
      "পরিষ": 4402,
      "সময়": 4403,
      "కాలంలో": 4404,
      "দিবস": 4405,
      "శాఖ": 4406,
      "జనవరి": 4407,
      "সমূহের": 4408,
      "మొత్తం": 4409,
      "1971": 4410,
      "పాకిస్థాన్": 4411,
      "East_Asia": 4412,
      "সংস্কৃত": 4413,
      "Search": 4414,
      "పెనీ": 4415,
      "Manipur": 4416,
      "এশিয়ার": 4417,
      "తమిళం": 4418,
      "_by_": 4419,
      "ization": 4420,
      "শ্রে": 4421,
      "కారం": 4422,
      "নির্ভর": 4423,
      "वीं": 4424,
      "ఉపఖండ": 4425,
      "মনো": 4426,
      "బాద్": 4427,
      "अधिक": 4428,
      "রাজনৈতিক": 4429,
      "అధికారిక": 4430,
      "PMID": 4431,
      "\")**|": 4432,
      "DikshitSchwartzberg": 4433,
      "రెండు": 4434,
      "హ్మ": 4435,
      "వారస": 4436,
      "కంపెనీ": 4437,
      "মালয়াল": 4438,
      "మొదటి": 4439,
      "బ్రిటిషు": 4440,
      "Publications": 4441,
      "উদারীকরণ": 4442,
      "పట్టణ": 4443,
      "সার্বভৌ": 4444,
      "అత్యధిక": 4445,
      "न्यायाल": 4446,
      "मंत्री": 4447,
      "ఇండియా": 4448,
      "పార్లమె": 4449,
      "బహు": 4450,
      "దక్షిణ_ఆసియా": 4451,
      "హిమాలయాలు": 4452,
      "కేంద్రపాలిత_ప్రాంతాలు": 4453,
      "Machine": 4454,
      "জানু": 4455,
      "বিষয়": 4456,
      "উন্নয়ন": 4457,
      "Afghanistan": 4458,
      "bhasha": 4459,
      "nclm": 4460,
      "आर्थिक": 4461,
      "उद्यान": 4462,
      "বাণিজ্য": 4463,
      "కుటుంబ": 4464,
      "নিরপেক্ষ": 4465,
      "DikshitSchwartzberg2023": 4466,
      "সার্বভৌম": 4467,
      "Department": 4468,
      "Laksh": 4469,
      "Pp": 4470,
      "SN": 4471,
      "ai_": 4472,
      "ball": 4473,
      "dem": 4474,
      "fun": 4475,
      "nc": 4476,
      "pag": 4477,
      "river": 4478,
      "sim": 4479,
      "iam": 4480,
      "tice": 4481,
      "adwe": 4482,
      "_of_the_": 4483,
      "urton": 4484,
      "ular": 4485,
      "road": 4486,
      "405": 4487,
      "287": 4488,
      "243": 4489,
      "Asia_": 4490,
      "ocr": 4491,
      "111": 4492,
      "Standard": 4493,
      "domestic": 4494,
      "direct": 4495,
      "numbers": 4496,
      "Lakshadwe": 4497,
      "Lakshadweep": 4498,
      "400": 4499,
      "G8": 4500,
      "NA": 4501,
      "Rev": 4502,
      "bed": 4503,
      "band": 4504,
      "ful": 4505,
      "fore": 4506,
      "gress": 4507,
      "hr": 4508,
      "high": 4509,
      "law": 4510,
      "ning": 4511,
      "ंति": 4512,
      "डु": 4513,
      "सो": 4514,
      "\")\"": 4515,
      "ality": 4516,
      "there": 4517,
      "astr": 4518,
      "chi": 4519,
      "chin": 4520,
      "oot": 4521,
      "187": 4522,
      "apu": 4523,
      "apan": 4524,
      "नाव": 4525,
      "राजस्थान": 4526,
      "राजनीति": 4527,
      "ियाँ": 4528,
      "library": 4529,
      "_Summit": 4530,
      "माज": 4531,
      "पाद": 4532,
      "दिसम्": 4533,
      "Emblem": 4534,
      "उत्पाद": 4535,
      "दीव": 4536,
      "हुई": 4537,
      "IND": 4538,
      "yan_": 4539,
      "Park": 4540,
      "See": 4541,
      "talk": 4542,
      "hindi": 4543,
      "union_": 4544,
      "dives": 4545,
      "प्राचीन": 4546,
      "Library_of_": 4547,
      "Karanth": 4548,
      "Maldives": 4549,
      "Encyclopedia": 4550,
      "Group": 4551,
      "second": 4552,
      "East_Asia_Summit": 4553,
      "62": 4554,
      "_19": 4555,
      "_15": 4556,
      "ক্রা": 4557,
      "খণ্ড": 4558,
      "চা": 4559,
      "চন্দ্র": 4560,
      "জৈ": 4561,
      "দশ": 4562,
      "পার্": 4563,
      "ফি": 4564,
      "বো": 4565,
      "র্য": 4566,
      "সিকি": 4567,
      "২৫": 4568,
      "৪৭": 4569,
      "ergy": 4570,
      "idata": 4571,
      "inger": 4572,
      "163": 4573,
      "তান্ত্র": 4574,
      "e_Affairs_": 4575,
      "odiversity": 4576,
      "মাই": 4577,
      "২০০৬": 4578,
      "পরী": 4579,
      "পাঞ্জা": 4580,
      "ভাষায়": 4581,
      "ha2014": 4582,
      "গুজরা": 4583,
      "ুরু": 4584,
      "মেন্ট": 4585,
      "ভূগোল": 4586,
      "ওয়েব_উদ্ধৃতি": 4587,
      "ক্রয়": 4588,
      "প্রাণী": 4589,
      "ইউনিয়": 4590,
      "মাণবিক": 4591,
      "নির্বা": 4592,
      "গান্ধ": 4593,
      "পশ্চিমবঙ্গ": 4594,
      "groups": 4595,
      "কলকা": 4596,
      "পারমাণবিক": 4597,
      "rishn": 4598,
      "Mumbai": 4599,
      "লোকসভা": 4600,
      "Ministry_of_Hom": 4601,
      "জলবায়ু": 4602,
      "catalogue": 4603,
      "৯৭৮": 4604,
      "New_Delhi_": 4605,
      "ইন্দো": 4606,
      "্যালয়": 4607,
      "প্রথম": 4608,
      "শ্রেণী": 4609,
      "জানুয়ারি": 4610,
      "ইউনিয়ন": 4611,
      "Ministry_of_Home_Affairs_": 4612,
      "114": 4613,
      "3TR": 4614,
      "DD": 4615,
      "Dal": 4616,
      "Gandhi": 4617,
      "Id": 4618,
      "Ku": 4619,
      "Kal": 4620,
      "Kumar": 4621,
      "Middle": 4622,
      "NGDP": 4623,
      "Nadu": 4624,
      "On": 4625,
      "Paper": 4626,
      "Sup": 4627,
      "Urd": 4628,
      "_the": 4629,
      "nuclear": 4630,
      "tDwAAQBAJ": 4631,
      "ue_": 4632,
      "ंबई": 4633,
      "ईसा": 4634,
      "उर्": 4635,
      "बढ़": 4636,
      "योग": 4637,
      "रवरी": 4638,
      "सफ": 4639,
      "ोड़": 4640,
      "reed": 4641,
      "rent": 4642,
      "level": 4643,
      "ility": 4644,
      "igence": 4645,
      "olution": 4646,
      "ISO": 4647,
      "overe": 4648,
      "upta": 4649,
      "ाने": 4650,
      "स्त्र": 4651,
      "raj": 4652,
      "180": 4653,
      "269": 4654,
      "नाग": 4655,
      "राजवंश": 4656,
      "atis": 4657,
      "निर": 4658,
      "ineering": 4659,
      "लिए": 4660,
      "राष्ट्रपति": 4661,
      "हुआ": 4662,
      "युद्ध": 4663,
      "स्थल": 4664,
      "रेल": 4665,
      "महासागर": 4666,
      "bbc": 4667,
      "भूमि": 4668,
      "संस्कृति": 4669,
      "Monetary": 4670,
      "शिक्षा": 4671,
      "status": 4672,
      "Jainism": 4673,
      "Society": 4674,
      "telligence": 4675,
      "Spear1990": 4676,
      "Chinese": 4677,
      "IMFWEO": 4678,
      "न्यायालय": 4679,
      "3TRtDwAAQBAJ": 4680,
      "Urdu": 4681,
      "उर्दू": 4682,
      "overeign": 4683,
      "%)": 4684,
      "220": 4685,
      "Des": 4686,
      "Fir": 4687,
      "Moh": 4688,
      "Narendra": 4689,
      "Ph": 4690,
      "Sa": 4691,
      "date": 4692,
      "kim": 4693,
      "ram": 4694,
      "\")-": 4695,
      "eries": 4696,
      "208": 4697,
      "ancy": 4698,
      "ally": 4699,
      "access": 4700,
      "136": 4701,
      "Inf": 4702,
      "265": 4703,
      "external": 4704,
      "Assoc": 4705,
      "local_": 4706,
      "Politics": 4707,
      "Karnat": 4708,
      "Quote": 4709,
      "Karnataka": 4710,
      "212": 4711,
      "350": 4712,
      "321": 4713,
      "Can": 4714,
      "Egy": 4715,
      "Fed": 4716,
      "HD": 4717,
      "Mang": 4718,
      "Nand": 4719,
      "Vol": 4720,
      "_p": 4721,
      "_జాబితా": 4722,
      "_মেশিন": 4723,
      "_కేంద్రపాలిత_ప్రాంతాలు": 4724,
      "both": 4725,
      "ds": 4726,
      "hand": 4727,
      "km": 4728,
      "pur": 4729,
      "sq": 4730,
      "women": 4731,
      "ément": 4732,
      "ंस": 4733,
      "जम्": 4734,
      "जून": 4735,
      "पार": 4736,
      "बल": 4737,
      "भो": 4738,
      "लं": 4739,
      "शु": 4740,
      "हार": 4741,
      "কু": 4742,
      "চু": 4743,
      "জী": 4744,
      "তত্": 4745,
      "ন_": 4746,
      "পৌ": 4747,
      "ফলে": 4748,
      "লব": 4749,
      "শ্": 4750,
      "২৪": 4751,
      "২৬": 4752,
      "৩০": 4753,
      "అను": 4754,
      "అమె": 4755,
      "ఆంధ": 4756,
      "ఎన్ని": 4757,
      "ఎక్కువ": 4758,
      "కథ": 4759,
      "కాలు": 4760,
      "కల్": 4761,
      "జన్": 4762,
      "జైన": 4763,
      "డో": 4764,
      "తము": 4765,
      "థి": 4766,
      "న్యా": 4767,
      "పల్ల": 4768,
      "ఫై": 4769,
      "భర": 4770,
      "మరా": 4771,
      "యక": 4772,
      "శీ": 4773,
      "సహా": 4774,
      "ుల": 4775,
      "oram": 4776,
      "enna": 4777,
      "్రప్రదేశ్": 4778,
      "্যের": 4779,
      "icon": 4780,
      "1980": 4781,
      "1977": 4782,
      "ాలలో": 4783,
      "trod": 4784,
      "దేశము": 4785,
      "atan": 4786,
      "atures": 4787,
      "agric": 4788,
      "సాధి": 4789,
      "বিভিন্ন": 4790,
      "iles": 4791,
      "urban": 4792,
      "ప్రము": 4793,
      "ప్రకారం": 4794,
      "క్టో": 4795,
      "ందు": 4796,
      "నియా": 4797,
      "ల్తా": 4798,
      "ల్వే": 4799,
      "The_": 4800,
      "186": 4801,
      "144": 4802,
      "ండమా": 4803,
      "प्रे": 4804,
      "261": 4805,
      "విధ": 4806,
      "విద్య": 4807,
      "Chenna": 4808,
      "য়েত": 4809,
      "కుడు": 4810,
      "संबंध": 4811,
      "యాళం": 4812,
      "abha": 4813,
      "ables": 4814,
      "ందిన": 4815,
      "చిన్న": 4816,
      "ेशिया": 4817,
      "వాహ": 4818,
      "লাম": 4819,
      "पुरी": 4820,
      "సంస్థ": 4821,
      "సంఖ్య": 4822,
      "ష్టు": 4823,
      "డిన": 4824,
      "राज्यक्षेत्र": 4825,
      "beach": 4826,
      "దినాలు": 4827,
      "ष्ण": 4828,
      "বেঙ্গ": 4829,
      "aut": 4830,
      "80904": 4831,
      "ড়ে": 4832,
      "সিটি": 4833,
      "స్త్రీయ": 4834,
      "পিপি": 4835,
      "otal": 4836,
      "উপমহা": 4837,
      "గుర్": 4838,
      "లిం": 4839,
      "కోల్": 4840,
      "384": 4841,
      "order": 4842,
      "जनगण": 4843,
      "পরিসংখ": 4844,
      "সমভূমি": 4845,
      "త్యం": 4846,
      "శాస్త్రీయ": 4847,
      "మేఘ": 4848,
      "জিডি": 4849,
      "disc": 4850,
      "ాల్లో": 4851,
      "regions": 4852,
      "মুঘ": 4853,
      "কোম্প": 4854,
      "पूर्": 4855,
      "ారిటీ": 4856,
      "ंधी": 4857,
      "বৈচিত্র": 4858,
      "తున్న": 4859,
      "సుల్తా": 4860,
      "రాజ్యాలు": 4861,
      "గిన": 4862,
      "ইউনি": 4863,
      "బడిన": 4864,
      "రైల్వే": 4865,
      "राष्ट्रीय_": 4866,
      "টাকা": 4867,
      "ोलन": 4868,
      "्रीका": 4869,
      "যায়ী": 4870,
      "যোগ্য": 4871,
      "కాశ్మీర్": 4872,
      "মেশিনে": 4873,
      "ওয়েব্যাক_মেশিন": 4874,
      "মোট": 4875,
      "flu": 4876,
      "ের_তালিকা": 4877,
      "ধিকার": 4878,
      "నేషనల్": 4879,
      "पश्चिमी": 4880,
      "PMC": 4881,
      "यूनि": 4882,
      "অনুযায়ী": 4883,
      "వ్యాసం": 4884,
      "వలస": 4885,
      "స్వతంత్ర": 4886,
      "అయిన": 4887,
      "ప్రభుత్వం": 4888,
      "కాంగ్రెసు": 4889,
      "సముద్రం": 4890,
      "माणु": 4891,
      "ఆగష్టు": 4892,
      "మలయాళం": 4893,
      "उत्तरा": 4894,
      "द्योगिकी": 4895,
      "ইসলাম": 4896,
      "मार्च": 4897,
      "प्रधानमंत्री": 4898,
      "విశ్వా": 4899,
      "ంటుంది": 4900,
      "చాళుక్యులు": 4901,
      "ట్రో": 4902,
      "ఇంగ్లీషు": 4903,
      "বছর": 4904,
      "వృద్ధి": 4905,
      "పార్లమెంట": 4906,
      "दिसम्बर": 4907,
      "তান্ত্রিক": 4908,
      "ক্রয়ক্ষমতা": 4909,
      "Egypt": 4910,
      "km2": 4911,
      "émentin": 4912,
      "जम्मू": 4913,
      "అమెరి": 4914,
      "ఆంధ్రప్రదేశ్": 4915,
      "మరాఠ": 4916,
      "ప్రముఖ": 4917,
      "जनगणना": 4918,
      "পরিসংখ্যান": 4919,
      "কোম্পানি": 4920,
      "సుల్తానులు": 4921,
      "66": 4922,
      "6174": 4923,
      "BE": 4924,
      "Bas": 4925,
      "Cor": 4926,
      "Dance": 4927,
      "Data": 4928,
      "Ev": 4929,
      "Music": 4930,
      "Sar": 4931,
      "TO": 4932,
      "fer": 4933,
      "histor": 4934,
      "ks": 4935,
      "lm": 4936,
      "min": 4937,
      "nlm": 4938,
      "pub": 4939,
      "sa": 4940,
      "sector": 4941,
      "tered": 4942,
      "isl": 4943,
      "lege": 4944,
      "amb": 4945,
      "ament": 4946,
      "101": 4947,
      "102": 4948,
      "ema": 4949,
      "137": 4950,
      "standard": 4951,
      "146": 4952,
      "Information": 4953,
      "trib": 4954,
      "aver": 4955,
      "shall": 4956,
      "occ": 4957,
      "ogn": 4958,
      "ativ": 4959,
      "Ancient": 4960,
      "nih": 4961,
      "Americ": 4962,
      "Informatics": 4963,
      "code": 4964,
      "ncbi": 4965,
      "Emblem_of_India": 4966,
      ".)": 4967,
      "/?": 4968,
      "Cr": 4969,
      "Cur": 4970,
      "Dr": 4971,
      "Date": 4972,
      "Drav": 4973,
      "Gold": 4974,
      "Japan": 4975,
      "Ling": 4976,
      "Nic": 4977,
      "QAAQBAJ": 4978,
      "Sal": 4979,
      "Territory": 4980,
      "UT": 4981,
      "_17": 4982,
      "cro": 4983,
      "eastern": 4984,
      "forest": 4985,
      "gir": 4986,
      "hum": 4987,
      "ix": 4988,
      "mp": 4989,
      "pen": 4990,
      "press": 4991,
      "va": 4992,
      "खंड": 4993,
      "टा": 4994,
      "दश": 4995,
      "दर्": 4996,
      "न_": 4997,
      "नव": 4998,
      "पह": 4999,
      "बन": 5000,
      "बौ": 5001,
      "बना": 5002,
      "मरा": 5003,
      "रल": 5004,
      "र्य": 5005,
      "सर्व": 5006,
      "िर": 5007,
      "ैंड": 5008,
      "technology": 5009,
      "republic": 5010,
      "though": 5011,
      "ery": 5012,
      "erlin": 5013,
      "education": 5014,
      "tions": 5015,
      "icts": 5016,
      "idian": 5017,
      "chang": 5018,
      "acred": 5019,
      "ilk": 5020,
      "्यता": 5021,
      "\"),[[": 5022,
      "रान": 5023,
      "ulti": 5024,
      "FOOTNOTEHarle": 5025,
      "FOOTNOTESpear1990": 5026,
      "50th": 5027,
      "183": 5028,
      "Intelligence": 5029,
      "406": 5030,
      "4020": 5031,
      "CITEREFSingh2009": 5032,
      "Chap": 5033,
      "254": 5034,
      "त्रि": 5035,
      "परमाणु": 5036,
      "prime": 5037,
      "_Par": 5038,
      "ogg": 5039,
      "began": 5040,
      "पात": 5041,
      "Profile": 5042,
      "358": 5043,
      "हिन्दू": 5044,
      "मुंबई": 5045,
      "2003_": 5046,
      "मानव": 5047,
      "_GDP": 5048,
      "Education": 5049,
      "ingham": 5050,
      "Bihar": 5051,
      "ंग्रेस": 5052,
      "ography": 5053,
      "embers": 5054,
      "द्वारा": 5055,
      "International_": 5056,
      "point": 5057,
      "Region": 5058,
      "Bhut": 5059,
      "इसके": 5060,
      "फ़रवरी": 5061,
      "हीं": 5062,
      "CITEREFStein2010": 5063,
      "CITEREFStein1998": 5064,
      "List_of_countries_by_GDP": 5065,
      "गुजरात": 5066,
      "increas": 5067,
      "Tibet": 5068,
      "shared": 5069,
      "viol": 5070,
      "ultanate": 5071,
      "Oxford_University_Press": 5072,
      "पर्वत": 5073,
      "gressive": 5074,
      "Dravidian": 5075,
      "बौद्ध": 5076,
      "List_of_countries_by_GDP_": 5077,
      "%),": 5078,
      "329": 5079,
      "600": 5080,
      "AD": 5081,
      "Don": 5082,
      "Summ": 5083,
      "Tayl": 5084,
      "_V": 5085,
      "ced": 5086,
      "cast": 5087,
      "cord": 5088,
      "dat": 5089,
      "eb": 5090,
      "fa": 5091,
      "movement": 5092,
      "wid": 5093,
      "একা": 5094,
      "ঐতি": 5095,
      "কমি": 5096,
      "ডার": 5097,
      "ধ্রু": 5098,
      "ন্যা": 5099,
      "ব্রু": 5100,
      "ময়": 5101,
      "যদি": 5102,
      "হে": 5103,
      "ামান": 5104,
      "ুগু": 5105,
      "্সিটি": 5106,
      "only": 5107,
      "inter": 5108,
      "third": 5109,
      "orce": 5110,
      "ভার্সিটি": 5111,
      "20150": 5112,
      "adi": 5113,
      "ads": 5114,
      "atar": 5115,
      "বিপ্": 5116,
      "umeration": 5117,
      "1016": 5118,
      "ficient": 5119,
      "ISSN": 5120,
      "185": 5121,
      "172": 5122,
      "লেখা": 5123,
      "িত্": 5124,
      "নায়": 5125,
      "গ্রা": 5126,
      "বেক্ষণ": 5127,
      "ডিও": 5128,
      "worldcat": 5129,
      "পরিবহ": 5130,
      "=`-": 5131,
      "religious": 5132,
      "স্থিত": 5133,
      "বৈদেশ": 5134,
      "overty": 5135,
      "শিখ": 5136,
      "দ্বীপপু": 5137,
      "Prote": 5138,
      "আরব": 5139,
      "আন্দামান": 5140,
      "ব্যাঙ্ক": 5141,
      "product": 5142,
      "কেরল": 5143,
      "সূচ": 5144,
      "ক্ষেত্রে": 5145,
      "খ্রিস্ট": 5146,
      "তেলুগু": 5147,
      "স্থাপত্য": 5148,
      "বর্তমান": 5149,
      "গান্ধী": 5150,
      "কলকাতা": 5151,
      "Ministry_of_Home_Affairs_1960": 5152,
      "First": 5153,
      "তত্ত্ব": 5154,
      "জিডিপি": 5155,
      "ইউনিভার্সিটি": 5156,
      "Taylor": 5157,
      "ঐতিহ": 5158,
      "ধ্রুপ": 5159,
      "বিপ্লব": 5160,
      "দ্বীপপুঞ্জ": 5161,
      "412": 5162,
      "By": 5163,
      "ND": 5164,
      "Pos": 5165,
      "_b": 5166,
      "_16": 5167,
      "_East_Asia_Summit": 5168,
      "dia": 5169,
      "development": 5170,
      "jo": 5171,
      "made": 5172,
      "sm": 5173,
      "ward": 5174,
      "अफ": 5175,
      "कटि": 5176,
      "खण्ड": 5177,
      "गोल": 5178,
      "डिया": 5179,
      "दृ": 5180,
      "मौ": 5181,
      "वेश": 5182,
      "शता": 5183,
      "rem": 5184,
      "ora": 5185,
      "anagar": 5186,
      "iland": 5187,
      "today": 5188,
      "resources": 5189,
      "1300": 5190,
      "stan": 5191,
      "क्कि": 5192,
      "153": 5193,
      "प्रौ": 5194,
      "प्रमुख": 5195,
      "286": 5196,
      "नाडु": 5197,
      "place": 5198,
      "_of_India_": 5199,
      "ext": 5200,
      "2011religion": 5201,
      "Art": 5202,
      "Army": 5203,
      "परि": 5204,
      "bert": 5205,
      "_St": 5206,
      "हिमाल": 5207,
      "सिक्कि": 5208,
      "lands": 5209,
      "Assam": 5210,
      "awa": 5211,
      "South_Asian_": 5212,
      "Census2011religion": 5213,
      "Programme": 5214,
      "अंग्रेजी": 5215,
      "Political_": 5216,
      "erent": 5217,
      "ब्दी": 5218,
      "akhand": 5219,
      "Organization": 5220,
      "ediev": 5221,
      "Goa_": 5222,
      "Uttarakhand": 5223,
      "factbook": 5224,
      "Brahmapu": 5225,
      "rupee": 5226,
      "mathematics": 5227,
      "thehindu": 5228,
      "अगस्त": 5229,
      "ocracy": 5230,
      "reedom": 5231,
      "Bhutan": 5232,
      "शताब्दी": 5233,
      "सिक्किम": 5234,
      "178": 5235,
      "150": 5236,
      "Business": 5237,
      "Cav": 5238,
      "Dictionary": 5239,
      "NI": 5240,
      "Non": 5241,
      "SA": 5242,
      "Wildlife": 5243,
      "bra": 5244,
      "far": 5245,
      "policy": 5246,
      "cil": 5247,
      "idy": 5248,
      "tra_": 5249,
      "20070": 5250,
      "imal": 5251,
      "eck": 5252,
      "134": 5253,
      "184": 5254,
      "1857": 5255,
      "Indians": 5256,
      "149": 5257,
      "1993": 5258,
      "222": 5259,
      "_Pl": 5260,
      "ockey": 5261,
      "905": 5262,
      "efficient": 5263,
      "hmed": 5264,
      "engu": 5265,
      "coefficient": 5266,
      "ectancy": 5267,
      "Time": 5268,
      "film": 5269,
      "lock": 5270,
      "expectancy": 5271,
      "Aks": 5272,
      "osphere": 5273,
      "1b": 5274,
      "345": 5275,
      "Bah": 5276,
      "E_": 5277,
      "G20": 5278,
      "Global": 5279,
      "High": 5280,
      "Kathak": 5281,
      "Sabha": 5282,
      "Tha": 5283,
      "Vu": 5284,
      "_k": 5285,
      "_সাম্রাজ্য": 5286,
      "ault": 5287,
      "da": 5288,
      "do": 5289,
      "den": 5290,
      "east": 5291,
      "ge_": 5292,
      "garh": 5293,
      "jpe": 5294,
      "nar": 5295,
      "oy": 5296,
      "ringer": 5297,
      "tus": 5298,
      "utral": 5299,
      "ze": 5300,
      "अव": 5301,
      "अप्र": 5302,
      "अल्": 5303,
      "कन्न": 5304,
      "धा": 5305,
      "बार": 5306,
      "मणि": 5307,
      "ृत्य": 5308,
      "ैल": 5309,
      "१८": 5310,
      "অতি": 5311,
      "অভি": 5312,
      "উরি": 5313,
      "এছ": 5314,
      "এপ্র": 5315,
      "এটি": 5316,
      "কম": 5317,
      "খাল": 5318,
      "জম্": 5319,
      "ঠা": 5320,
      "দারি": 5321,
      "নক": 5322,
      "নরে": 5323,
      "পতা": 5324,
      "পঞ্চ": 5325,
      "বৌ": 5326,
      "বরা": 5327,
      "ভুট": 5328,
      "মের": 5329,
      "মারা": 5330,
      "ষি": 5331,
      "সর্": 5332,
      "াড়া": 5333,
      "াবেক্ষণ": 5334,
      "িতা": 5335,
      "েয়": 5336,
      "োষ": 5337,
      "৫৪": 5338,
      "అర": 5339,
      "అక్ష": 5340,
      "అరే": 5341,
      "అభి": 5342,
      "అశో": 5343,
      "అండమా": 5344,
      "ఆధ": 5345,
      "ఇంట": 5346,
      "ఉంట": 5347,
      "ఎక్": 5348,
      "ఏప్ర": 5349,
      "కల": 5350,
      "కలు": 5351,
      "కర్య": 5352,
      "కబడ్": 5353,
      "ఖో": 5354,
      "గే": 5355,
      "గర్": 5356,
      "చద": 5357,
      "చో": 5358,
      "చండ": 5359,
      "జం": 5360,
      "జయ": 5361,
      "టై": 5362,
      "టర్": 5363,
      "డమ్": 5364,
      "డయ్య": 5365,
      "డఖ్": 5366,
      "ణే": 5367,
      "ణంగా": 5368,
      "నంద": 5369,
      "నడి": 5370,
      "నంలో": 5371,
      "పత": 5372,
      "పచ్": 5373,
      "బో": 5374,
      "బర్": 5375,
      "బంధ": 5376,
      "మో": 5377,
      "మాలు": 5378,
      "మలే": 5379,
      "యె": 5380,
      "రళ": 5381,
      "లాం": 5382,
      "లంగా": 5383,
      "లడఖ్": 5384,
      "ళా": 5385,
      "ళి": 5386,
      "వారి": 5387,
      "వనాలు": 5388,
      "శి": 5389,
      "శు": 5390,
      "షియా": 5391,
      "సహ": 5392,
      "సే": 5393,
      "సత్య": 5394,
      "హొ": 5395,
      "హవే": 5396,
      "హర్యా": 5397,
      "ైస్త": 5398,
      "‌కా": 5399,
      "‌మహ": 5400,
      "influ": 5401,
      "tigr": 5402,
      "ani": 5403,
      "్రి": 5404,
      "itage": 5405,
      "ase_": 5406,
      "েরি": 5407,
      "্যার": 5408,
      "190": 5409,
      "ాలయ": 5410,
      "ాలె": 5411,
      "ాలను": 5412,
      "তিতে": 5413,
      "ating": 5414,
      "సామా": 5415,
      "বিস্ত": 5416,
      "imp": 5417,
      "images": 5418,
      "ర్ణం": 5419,
      "ర్చు": 5420,
      "ets": 5421,
      "linkimages": 5422,
      "రాం": 5423,
      "రాస్య": 5424,
      "ప్రజా": 5425,
      "সাবে": 5426,
      "প্রেস": 5427,
      "భారతదేశపు": 5428,
      "భారతదేశ_చరిత్ర": 5429,
      "భారతదేశానికి": 5430,
      "లోని": 5431,
      "emic": 5432,
      "క్_": 5433,
      "र्ड": 5434,
      "నికోబ": 5435,
      "els": 5436,
      "সংক্রা": 5437,
      "భారతదేశం_": 5438,
      "ంగో": 5439,
      "independence": 5440,
      "irates": 5441,
      "operation": 5442,
      "ండా": 5443,
      "ండ్య": 5444,
      "సింది": 5445,
      "Springer": 5446,
      "తాజ్": 5447,
      "నాథ": 5448,
      "వివిధ": 5449,
      "তাজ": 5450,
      "త్తీ": 5451,
      "కుల": 5452,
      "కుంట": 5453,
      "ম্‌": 5454,
      "ম্বই": 5455,
      "ountain": 5456,
      "2905": 5457,
      "িতে": 5458,
      "పూర్వ": 5459,
      "వాదం": 5460,
      "ికీ": 5461,
      "్రామ": 5462,
      "మాత్ర": 5463,
      "মাধ্য": 5464,
      "భాగం": 5465,
      "ট্রফি": 5466,
      "নিজ": 5467,
      "হিসাবে": 5468,
      "సంప్రదా": 5469,
      "টেলি": 5470,
      "লিং": 5471,
      "harm": 5472,
      "కిం": 5473,
      "కింగ్": 5474,
      "పాండి": 5475,
      "పాండ్య": 5476,
      "పుర": 5477,
      "స్థా": 5478,
      "11162": 5479,
      "১৯৮": 5480,
      "న్నై": 5481,
      "Index": 5482,
      "areas": 5483,
      "हिमा": 5484,
      "India_Goa_": 5485,
      "वादी": 5486,
      "भाषाओं": 5487,
      "when": 5488,
      "ugu": 5489,
      "జిల్": 5490,
      "కేరళ": 5491,
      "గుప్": 5492,
      "ুরো": 5493,
      "లియా": 5494,
      "489": 5495,
      "Emirates": 5496,
      "_and_dependencies": 5497,
      "చేయ": 5498,
      "ব্যুরো": 5499,
      "దాద్రా": 5500,
      "వేగంగా": 5501,
      "সমতা": 5502,
      "features": 5503,
      "করতে": 5504,
      "చెన్నై": 5505,
      "జీరియా": 5506,
      "ప్పట": 5507,
      "మేన": 5508,
      "యుగం": 5509,
      "Thomas": 5510,
      "মুম্বই": 5511,
      "কোটি": 5512,
      "జనతా": 5513,
      "జనగణ": 5514,
      "జనపద": 5515,
      "মালদ্বীপ": 5516,
      "মহাকাশ": 5517,
      "బియా": 5518,
      "आधिकार": 5519,
      "మొగలు": 5520,
      "కొరియా": 5521,
      "तेलु": 5522,
      "deb": 5523,
      "074": 5524,
      "గోళ": 5525,
      "గోవా": 5526,
      "గోదా": 5527,
      "డామన్": 5528,
      "వరాలు": 5529,
      "ప్రపంచము": 5530,
      "ప్రపంచంలో": 5531,
      "త్రిపుర": 5532,
      "882905": 5533,
      "సంస్కృతం": 5534,
      "Neutral": 5535,
      "notation": 5536,
      "টাই": 5537,
      "Centr": 5538,
      "పించ": 5539,
      "Coast": 5540,
      "Ethnic": 5541,
      "অবস্থিত": 5542,
      "నాగాలా": 5543,
      "క్రైస్త": 5544,
      "తెలంగా": 5545,
      "minister": 5546,
      "মোদী": 5547,
      "వెను": 5548,
      "సాంకే": 5549,
      "Political": 5550,
      "ফোর্স": 5551,
      "List_of_countries_and_dependencies": 5552,
      "భిన్న": 5553,
      "నేషియా": 5554,
      "কেন্দ্রশাসিত_অঞ্চল": 5555,
      "జమ్మూ_": 5556,
      "রক্ষণাবেক্ষণ": 5557,
      "स्थाप": 5558,
      "নিয়ন্ত্র": 5559,
      "ఒకటి": 5560,
      "पंजाबी": 5561,
      "पालिका": 5562,
      "కళలు": 5563,
      "సైనిక": 5564,
      "భారతదేశ_రాష్ట్రాలు": 5565,
      "Buddhist": 5566,
      "२००": 5567,
      "२०१": 5568,
      "FOOTNOTECraven1997": 5569,
      "బ్రిటిష్": 5570,
      "জাতিসংঘ": 5571,
      "गांधी": 5572,
      "কর্তৃ": 5573,
      "స్వతం": 5574,
      "ముఖ్యమైన": 5575,
      "లక్షద్వీ": 5576,
      "దేశంలోని": 5577,
      "సమరం": 5578,
      "సూచి": 5579,
      "অধি": 5580,
      "পোশা": 5581,
      "అస్సాం": 5582,
      "సారస్వతం": 5583,
      "पार्टी": 5584,
      "large": 5585,
      "সমাজ": 5586,
      "Provision": 5587,
      "జార్ఖండ్": 5588,
      "సౌకర్య": 5589,
      "సిక్కిం": 5590,
      "সেনাবাহিনী": 5591,
      "మిజోరాం": 5592,
      "తరువాత": 5593,
      "উল্লেখযোগ্য": 5594,
      "चुनाव": 5595,
      "वार्ता": 5596,
      "Rowland1970": 5597,
      "সীমা": 5598,
      "ఏర్ప": 5599,
      "కనుమలు": 5600,
      "మణిపూర్": 5601,
      "టిబెట్": 5602,
      "নির্ভরশীল": 5603,
      "వారసత్వ": 5604,
      "সিকিউরি": 5605,
      "rajbhasha": 5606,
      "సహాయం": 5607,
      "కోల్‌కా": 5608,
      "మేఘాలయ": 5609,
      "అమెరికా": 5610,
      "Linguistic": 5611,
      "मराठ": 5612,
      "একাধিক": 5613,
      "যদিও": 5614,
      "anagari": 5615,
      "प्रौद्योगिकी": 5616,
      "Thailand": 5617,
      "jpeg": 5618,
      "এছাড়া": 5619,
      "এপ্রিল": 5620,
      "জম্মু": 5621,
      "নরেন্দ্র": 5622,
      "পতাকা": 5623,
      "বৌদ্ধ": 5624,
      "ভুটান": 5625,
      "সর্বা": 5626,
      "అరేబియా": 5627,
      "అండమాన్": 5628,
      "ఎక్స్": 5629,
      "ఏప్రిల్": 5630,
      "కబడ్డీ": 5631,
      "చదరంగ": 5632,
      "చోళ": 5633,
      "చండీ": 5634,
      "డయ్యూ": 5635,
      "పచ్చ": 5636,
      "మలేషియా": 5637,
      "హవేలీ": 5638,
      "హర్యానా": 5639,
      "‌మహల్": 5640,
      "tigris": 5641,
      "రాస్యత": 5642,
      "నికోబార్": 5643,
      "తాజ్‌మహల్": 5644,
      "త్తీస్": 5645,
      "పాండిచ్చేరి": 5646,
      "జనపదాలు": 5647,
      "आधिकारिक": 5648,
      "నాగాలాండ్": 5649,
      "తెలంగాణ": 5650,
      "List_of_countries_and_dependencies_by_": 5651,
      "లక్షద్వీప్": 5652,
      "সিকিউরিটি": 5653,
      "కోల్‌కాతా": 5654,
      "Cin": 5655,
      "Gil": 5656,
      "IJ": 5657,
      "Krish": 5658,
      "La": 5659,
      "Nil": 5660,
      "OL": 5661,
      "cted": 5662,
      "last": 5663,
      "mer": 5664,
      "mal": 5665,
      "ris": 5666,
      "scrip": 5667,
      "ues": 5668,
      "thur": 5669,
      "205": 5670,
      "ancient": 5671,
      "along": 5672,
      "ices": 5673,
      "ade_": 5674,
      "amp": 5675,
      "\\)?": 5676,
      "iger": 5677,
      "tock": 5678,
      "133": 5679,
      "152": 5680,
      "Inter": 5681,
      "235": 5682,
      "akrishn": 5683,
      "242": 5684,
      "247": 5685,
      "prof": 5686,
      "ains": 5687,
      "8012": 5688,
      "History_of_": 5689,
      "Biodiversity": 5690,
      "Government_of_India": 5691,
      "Franc": 5692,
      "symbols": 5693,
      "Petr": 5694,
      "Exchange": 5695,
      "Ojha2014": 5696,
      "estimated": 5697,
      "Class": 5698,
      "ootball": 5699,
      "cording": 5700,
      "akrishnan": 5701,
      "Francis": 5702,
      "050": 5703,
      "7c": 5704,
      "8D": 5705,
      "Ci": 5706,
      "Home": 5707,
      "Kingdom": 5708,
      "Kolkata": 5709,
      "Modi": 5710,
      "Na": 5711,
      "Nor": 5712,
      "November": 5713,
      "OOj": 5714,
      "Pud": 5715,
      "RO": 5716,
      "Sri": 5717,
      "Sacred": 5718,
      "Thar": 5719,
      "Women": 5720,
      "_आ": 5721,
      "_ic": 5722,
      "_देश": 5723,
      "_the_": 5724,
      "dra": 5725,
      "ez": 5726,
      "ira": 5727,
      "ltr": 5728,
      "mod": 5729,
      "rs": 5730,
      "tap": 5731,
      "tree": 5732,
      "vol": 5733,
      "ym": 5734,
      "ंट": 5735,
      "उच्च": 5736,
      "छत्": 5737,
      "निक": 5738,
      "पि": 5739,
      "रण": 5740,
      "लों": 5741,
      "हरी": 5742,
      "ूह": 5743,
      "reme": 5744,
      "erc": 5745,
      "arl": 5746,
      "any": 5747,
      "enni": 5748,
      "cir": 5749,
      "htra": 5750,
      "ashtra": 5751,
      "trop": 5752,
      "aty": 5753,
      "onsoon": 5754,
      "FOOTNOTEWolpert2003": 5755,
      "र्ट": 5756,
      "indian": 5757,
      "263": 5758,
      "al_election": 5759,
      "CITEREFDyson2018": 5760,
      "CITEREFKulkeRothermund": 5761,
      "तिक": 5762,
      "Chang": 5763,
      "Chief": 5764,
      "s_UI": 5765,
      "न्ध": 5766,
      "हैदरा": 5767,
      "ernet": 5768,
      "brief": 5769,
      "AAJ": 5770,
      "333": 5771,
      "progressive": 5772,
      "समूह": 5773,
      "353": 5774,
      "करने": 5775,
      "Template_": 5776,
      "vey": 5777,
      "वर्ग": 5778,
      "हुए": 5779,
      "सीमा": 5780,
      "युग": 5781,
      "This": 5782,
      "Front": 5783,
      "ological": 5784,
      "authorities": 5785,
      "20210": 5786,
      "ucherr": 5787,
      "on_edit": 5788,
      "obar": 5789,
      "Marath": 5790,
      "तुल": 5791,
      "ethnologue": 5792,
      "Blurton": 5793,
      "Vedic": 5794,
      "पेक्ष": 5795,
      "general_election": 5796,
      "estimate": 5797,
      "इंडिया": 5798,
      "कर्ना": 5799,
      "श्रीलं": 5800,
      "Climate": 5801,
      "Institu": 5802,
      "employ": 5803,
      "Christian": 5804,
      "_for_": 5805,
      "addition": 5806,
      "निरपेक्ष": 5807,
      "Nicobar": 5808,
      "Brahmaputra": 5809,
      "OOjs_UI": 5810,
      "Puducherr": 5811,
      "_icon_edit": 5812,
      "छत्तीस": 5813,
      "ennium": 5814,
      "श्रीलंका": 5815,
      "OOjs_UI_icon_edit": 5816,
      "424": 5817,
      "9F": 5818,
      "Gond": 5819,
      "Per": 5820,
      "Ra": 5821,
      "Sam": 5822,
      "Seven": 5823,
      "ZVu": 5824,
      "_4": 5825,
      "_India_": 5826,
      "bel": 5827,
      "cg": 5828,
      "ham": 5829,
      "hya": 5830,
      "ka": 5831,
      "kash": 5832,
      "kZVu": 5833,
      "sing": 5834,
      "ya_": 5835,
      "অ্যান্ড": 5836,
      "আজ": 5837,
      "আসাম": 5838,
      "উড": 5839,
      "এম": 5840,
      "এক্স": 5841,
      "কিল": 5842,
      "কন্ন": 5843,
      "খন": 5844,
      "গানি": 5845,
      "ঘা": 5846,
      "ডলার": 5847,
      "দিকে": 5848,
      "নৌ": 5849,
      "নয়": 5850,
      "নের": 5851,
      "ফ্রা": 5852,
      "ভিত্": 5853,
      "রণ": 5854,
      "রান": 5855,
      "লিক": 5856,
      "সভ্য": 5857,
      "হর": 5858,
      "হকি": 5859,
      "ীর": 5860,
      "৩৩": 5861,
      "৩৪": 5862,
      "৩৫": 5863,
      "৫৫": 5864,
      "৬৫": 5865,
      "orne": 5866,
      "arts": 5867,
      "an_": 5868,
      "্রো": 5869,
      "acts": 5870,
      "organ": 5871,
      "ivision": 5872,
      "att": 5873,
      "ন্ট্র": 5874,
      "র্থ": 5875,
      "ume": 5876,
      "aten": 5877,
      "line_": 5878,
      "ক্লো": 5879,
      "স্মাই": 5880,
      "olas": 5881,
      "ollow": 5882,
      "প্রিয়": 5883,
      "প্রথা": 5884,
      "প্রস্ত": 5885,
      "006": 5886,
      "145": 5887,
      "২০২১": 5888,
      "248": 5889,
      "305": 5890,
      "মাথা": 5891,
      "ভারতের_জাতীয়_": 5892,
      "osys": 5893,
      "২০০৪": 5894,
      "হিসে": 5895,
      "জনপরিসংখ্যান": 5896,
      "জনপ্রিয়": 5897,
      "party": 5898,
      "উৎপাদ": 5899,
      "ঙ্গা": 5900,
      "সিস": 5901,
      "459": 5902,
      "২০১৩": 5903,
      "২০১৮": 5904,
      "আইএসবিএন_": 5905,
      "করেছে": 5906,
      "মহাসাগর": 5907,
      "বিশ্বকাপ": 5908,
      "Amrit": 5909,
      "অর্থনৈতিক_": 5910,
      "যাত্র": 5911,
      "যোগিতা": 5912,
      "যুক্তরাজ্য": 5913,
      "docs": 5914,
      "চেঞ্জ": 5915,
      "speak": 5916,
      "পূর্ণ": 5917,
      "including": 5918,
      "millan": 5919,
      "Election": 5920,
      "Conservation": 5921,
      "আফগানি": 5922,
      "Plateau": 5923,
      "Macmillan": 5924,
      "প্রশাসনিক": 5925,
      "পরিষদ": 5926,
      "roadcast": 5927,
      "পার্টি": 5928,
      "পরীক্ষা": 5929,
      "Infosys": 5930,
      "tribution": 5931,
      "ative_": 5932,
      "ঐতিহ্য": 5933,
      "নিয়ন্ত্রণ": 5934,
      "kZVuDwAAQBAJ": 5935,
      "এক্সচেঞ্জ": 5936,
      "কন্নড়": 5937,
      "ঘাট": 5938,
      "স্মাইলিং": 5939,
      "আফগানিস্তান": 5940,
      "1st": 5941,
      "Ab": 5942,
      "CS": 5943,
      "Cal": 5944,
      "Dun": 5945,
      "Gop": 5946,
      "Histor": 5947,
      "IL": 5948,
      "Jud": 5949,
      "Names": 5950,
      "Out": 5951,
      "PE": 5952,
      "Pengu": 5953,
      "RL": 5954,
      "Sing": 5955,
      "Trit": 5956,
      "Tri": 5957,
      "Wright": 5958,
      "_क्षेत्र": 5959,
      "bur": 5960,
      "car": 5961,
      "each": 5962,
      "middle": 5963,
      "oard": 5964,
      "pass": 5965,
      "rough": 5966,
      "soci": 5967,
      "summits": 5968,
      "uthor": 5969,
      "zil": 5970,
      "ंह": 5971,
      "इस्": 5972,
      "ऊर्": 5973,
      "ओड़": 5974,
      "कई": 5975,
      "गान": 5976,
      "घरेल": 5977,
      "झार": 5978,
      "तन": 5979,
      "नौ": 5980,
      "नहीं": 5981,
      "नृत्य": 5982,
      "पान": 5983,
      "मशी": 5984,
      "यार": 5985,
      "रक्ष": 5986,
      "रहा": 5987,
      "लोग": 5988,
      "शहर": 5989,
      "स_": 5990,
      "सकल": 5991,
      "हन": 5992,
      "हरा": 5993,
      "ीत": 5994,
      "ोच्च": 5995,
      "inated": 5996,
      "ret": 5997,
      "orama": 5998,
      "ison": 5999,
      "1948": 6000,
      "trial": 6001,
      "ations_": 6002,
      "org_": 6003,
      "20090": 6004,
      "ives": 6005,
      "composed": 6006,
      "agore": 6007,
      "aglia": 6008,
      "imate": 6009,
      "केरल": 6010,
      "hell": 6011,
      "789": 6012,
      "uled": 6013,
      "FOOTNOTEDikshitSchwartzberg2023": 6014,
      "architecture": 6015,
      "story": 6016,
      "173": 6017,
      "\\)\"))": 6018,
      "169": 6019,
      "commun": 6020,
      "409": 6021,
      "akar": 6022,
      "akes": 6023,
      "1992": 6024,
      "tud": 6025,
      "abs": 6026,
      "ability": 6027,
      "ship": 6028,
      "maint": 6029,
      "harl": 6030,
      "orea": 6031,
      "PA48": 6032,
      "दिव": 6033,
      "करण": 6034,
      "करोड़": 6035,
      "_summits": 6036,
      "issile": 6037,
      "1961": 6038,
      "जनजाति": 6039,
      "Energy": 6040,
      "List_of_SAARC": 6041,
      "achal": 6042,
      "34238": 6043,
      "ureau": 6044,
      "_Nadu": 6045,
      "द्वार": 6046,
      "ize": 6047,
      "reek": 6048,
      "कुल": 6049,
      "प्राप्त": 6050,
      "Brazil": 6051,
      "default": 6052,
      "political": 6053,
      "11934238": 6054,
      "publications": 6055,
      "तमिलनाडु": 6056,
      "milk": 6057,
      "cb11934238": 6058,
      "Ludden2014": 6059,
      "Barrow": 6060,
      "Mumbai_": 6061,
      "Secur": 6062,
      "based": 6063,
      "present": 6064,
      "Turk": 6065,
      "Micha": 6066,
      "NCL": 6067,
      "Persian": 6068,
      "majority": 6069,
      "_BRICS_summit": 6070,
      "Library_of_Congress": 6071,
      "troduction": 6072,
      "agriculture": 6073,
      "प्रेस": 6074,
      "सर्वोच्च": 6075,
      "हिमालय": 6076,
      "awaharl": 6077,
      "edieval": 6078,
      "Central_": 6079,
      "Petraglia": 6080,
      "कर्नाटक": 6081,
      "Gopal": 6082,
      "Tritsch": 6083,
      "uthority": 6084,
      "इस्ला": 6085,
      "ऊर्जा": 6086,
      "घरेलू": 6087,
      "मशीन": 6088,
      "List_of_SAARC_summits": 6089,
      "cb11934238p": 6090,
      "4_": 6091,
      "DK": 6092,
      "Forest": 6093,
      "Iy": 6094,
      "Rav": 6095,
      "Redi": 6096,
      "Sund": 6097,
      "c8": 6098,
      "que": 6099,
      "science": 6100,
      "tou": 6101,
      "iary": 6102,
      "enn": 6103,
      "ams": 6104,
      "rest": 6105,
      "eld": 6106,
      "1858": 6107,
      "168": 6108,
      "280": 6109,
      "tures": 6110,
      "opular": 6111,
      "History_": 6112,
      "Trans": 6113,
      "Shiv": 6114,
      "vention": 6115,
      "dispute": 6116,
      "Association": 6117,
      "widely": 6118,
      "hmedabad": 6119,
      "Krishna": 6120,
      "profiles": 6121,
      "roadcasting": 6122,
      "Rediff": 6123,
      "Sundar": 6124,
      "touch": 6125,
      "\";": 6126,
      "340": 6127,
      "325": 6128,
      "349": 6129,
      "Bom": 6130,
      "Domin": 6131,
      "EB": 6132,
      "Eigh": 6133,
      "Fores": 6134,
      "Finance": 6135,
      "Gana": 6136,
      "JIJ": 6137,
      "Lo": 6138,
      "Sovereign": 6139,
      "Stud": 6140,
      "Tar": 6141,
      "Zva": 6142,
      "_a_": 6143,
      "_রাষ্ট্র": 6144,
      "_38": 6145,
      "_languages": 6146,
      "_সম্পর্ক": 6147,
      "_मंदिर": 6148,
      "_చర్చ": 6149,
      "aJIJ": 6150,
      "bl": 6151,
      "four": 6152,
      "ght": 6153,
      "hal": 6154,
      "human": 6155,
      "jp": 6156,
      "jur": 6157,
      "lik": 6158,
      "lémentin": 6159,
      "mm": 6160,
      "miss": 6161,
      "rural": 6162,
      "sia": 6163,
      "san": 6164,
      "source": 6165,
      "ईरान": 6166,
      "एन": 6167,
      "ओर": 6168,
      "कम": 6169,
      "कॉ": 6170,
      "कंप": 6171,
      "चार": 6172,
      "चंड": 6173,
      "जैन": 6174,
      "डि": 6175,
      "दु": 6176,
      "मत": 6177,
      "मार": 6178,
      "मन्द": 6179,
      "यर": 6180,
      "समाज": 6181,
      "ঁচ": 6182,
      "ংহ": 6183,
      "আধ": 6184,
      "ওয়": 6185,
      "কয়": 6186,
      "ছু": 6187,
      "ঝা": 6188,
      "ঠি": 6189,
      "দ্য": 6190,
      "দিক": 6191,
      "ধু": 6192,
      "ফস": 6193,
      "বলি": 6194,
      "মরু": 6195,
      "রূ": 6196,
      "স্য": 6197,
      "হো": 6198,
      "ুল": 6199,
      "েল": 6200,
      "ంత": 6201,
      "ంతి": 6202,
      "ంటి": 6203,
      "అంట": 6204,
      "అహ్మ": 6205,
      "ఆకు": 6206,
      "ఆధీ": 6207,
      "ఆహార": 6208,
      "ఇవి": 6209,
      "ఎన్": 6210,
      "ఐరో": 6211,
      "ఒలిం": 6212,
      "కంట": 6213,
      "గతి": 6214,
      "జు": 6215,
      "ఞాన": 6216,
      "టం": 6217,
      "టా": 6218,
      "టన్": 6219,
      "టులు": 6220,
      "ట్యం": 6221,
      "ణులు": 6222,
      "తన": 6223,
      "నృ": 6224,
      "నలు": 6225,
      "పక్ష": 6226,
      "పద్ధ": 6227,
      "మ్య": 6228,
      "మతి": 6229,
      "యాలో": 6230,
      "లె": 6231,
      "వ్": 6232,
      "వహి": 6233,
      "వత్స": 6234,
      "సర": 6235,
      "సీ": 6236,
      "సర్": 6237,
      "స్రా": 6238,
      "హై": 6239,
      "హో": 6240,
      "ాంగ": 6241,
      "ెట్": 6242,
      "‌ల": 6243,
      "these": 6244,
      "th_BRICS_summit": 6245,
      "anthem": 6246,
      "aland": 6247,
      "esp": 6248,
      "cities": 6249,
      "20080": 6250,
      "స్సా": 6251,
      "loth": 6252,
      "বিমান": 6253,
      "_of_the": 6254,
      "_of_2011": 6255,
      "igr": 6256,
      "78074": 6257,
      "প্রকৃতি": 6258,
      "త్రిక": 6259,
      "result": 6260,
      "ipp": 6261,
      "క్తి": 6262,
      "स्वा": 6263,
      "నిర్": 6264,
      "నిర్వ": 6265,
      "ల్_": 6266,
      "ালুরু": 6267,
      "stud": 6268,
      "171": 6269,
      "rock": 6270,
      "ments": 6271,
      "oples": 6272,
      "वित": 6273,
      "al_Population": 6274,
      "నాయక": 6275,
      "నాట్యం": 6276,
      "విభ": 6277,
      "విజ్": 6278,
      "Child": 6279,
      "s_m": 6280,
      "s_Paper": 6281,
      "282": 6282,
      "app": 6283,
      "न्ह": 6284,
      "కులు": 6285,
      "संस्थान": 6286,
      "show": 6287,
      "सां": 6288,
      "साल": 6289,
      "exis": 6290,
      "జాతి": 6291,
      "লাক্ষা": 6292,
      "మాబాద్": 6293,
      "isha": 6294,
      "ভারতের_রাজ্য": 6295,
      "geoh": 6296,
      "Aryan": 6297,
      "ত্ম": 6298,
      "গ্রহ": 6299,
      "পরে": 6300,
      "సంకీ": 6301,
      "సంబంధ": 6302,
      "సంవత్స": 6303,
      "రుపు": 6304,
      "రుగు": 6305,
      "জনগণ": 6306,
      "টেক": 6307,
      "লিশ": 6308,
      "_Pro": 6309,
      "పాత్ర": 6310,
      "స్థి": 6311,
      "డియా": 6312,
      "১৯৫০": 6313,
      "১৯৪৭": 6314,
      "వంట": 6315,
      "వంటి": 6316,
      "न्दा": 6317,
      "स्तर": 6318,
      "338": 6319,
      "सिटी": 6320,
      "सिंह": 6321,
      "మించ": 6322,
      "হেরু": 6323,
      "सून": 6324,
      "সিংহ": 6325,
      "वाद": 6326,
      "undp": 6327,
      "438": 6328,
      "পিছু": 6329,
      "_An": 6330,
      "Maur": 6331,
      "Prime": 6332,
      "గువ": 6333,
      "_Data_": 6334,
      "peoples": 6335,
      "తరాలు": 6336,
      "కోట్": 6337,
      "జాతీయ_": 6338,
      "নেহেরু": 6339,
      "లామాబాద్": 6340,
      "ప్రాంతీయ": 6341,
      "పేర్లు": 6342,
      "స్తారు": 6343,
      "कारण": 6344,
      "ట్లు": 6345,
      "మతాలు": 6346,
      "मानसून": 6347,
      "অঞ্চলের": 6348,
      "করুন": 6349,
      "वर्सिटी": 6350,
      "বর্ণ": 6351,
      "বর্তী": 6352,
      "కూడు": 6353,
      "natic": 6354,
      "quality": 6355,
      "కృష్": 6356,
      "গণতান্ত্রিক": 6357,
      "మధ్యప్రదేశ్": 6358,
      "ప్రాంతాల": 6359,
      "_1_of_2011": 6360,
      "కొన్ని": 6361,
      "_Total": 6362,
      "మూస_చర్చ": 6363,
      "भीम": 6364,
      "ographics": 6365,
      "বিশ্ববিদ": 6366,
      "GuaJIJ": 6367,
      "France": 6368,
      "రాజ్యాంగ": 6369,
      "সংস্করণ": 6370,
      "cricket": 6371,
      "दक्षिण_": 6372,
      "পুলিশ": 6373,
      "actbook": 6374,
      "674": 6375,
      "होता": 6376,
      "খাত": 6377,
      "Bengali": 6378,
      "महाद्वीप": 6379,
      "కార్య": 6380,
      "కారణంగా": 6381,
      "క్యాలె": 6382,
      "దేశాలలో": 6383,
      "మైనది": 6384,
      "on_the_": 6385,
      "రోడ్": 6386,
      "పరిపాలన": 6387,
      "పరిశ్ర": 6388,
      "వెబ్": 6389,
      "Demon": 6390,
      "Demographics": 6391,
      "divisions": 6392,
      "बीच": 6393,
      "పోర్చు": 6394,
      "ప్రాచీ": 6395,
      "ఉన్నారు": 6396,
      "প্রতিযোগিতা": 6397,
      "నేషన్స్": 6398,
      "others": 6399,
      "topics": 6400,
      "politics": 6401,
      "Allchin": 6402,
      "ব্দ": 6403,
      "वेबै": 6404,
      "জেলা": 6405,
      "FOOTNOTEClémentin": 6406,
      "స్థానం": 6407,
      "స్థానంలో": 6408,
      "వ్యాపార": 6409,
      "మొదల": 6410,
      "పీఠ": 6411,
      "जिसमें": 6412,
      "Devanagari": 6413,
      "Sri_": 6414,
      "बिहार": 6415,
      "Sanchi": 6416,
      "गोआ": 6417,
      "parliamentofindia": 6418,
      "Sikhism": 6419,
      "millennium": 6420,
      "culp": 6421,
      "गुजराती": 6422,
      "গোষ্ঠ": 6423,
      "সাইক্লো": 6424,
      "goC": 6425,
      "আফ্র": 6426,
      "গঠন": 6427,
      "ফেডার": 6428,
      "ফেব্রু": 6429,
      "সাধারণতন্ত্র": 6430,
      "তথ্যবিজ্ঞান": 6431,
      "ఇస్లాం": 6432,
      "ఇస్లామాబాద్": 6433,
      "కలిగి": 6434,
      "పండుగలు": 6435,
      "నగరాలు": 6436,
      "मलया": 6437,
      "different": 6438,
      "జరిగిన": 6439,
      "పైగా": 6440,
      "ప్రజల": 6441,
      "కోర్టు": 6442,
      "emale": 6443,
      "উদ্ভি": 6444,
      "Carnatic": 6445,
      "सैन्य": 6446,
      "Minorities": 6447,
      "Odisha": 6448,
      "अर्थव्यवस्था": 6449,
      "అనేక": 6450,
      "పరంగా": 6451,
      "లవుదినాలు": 6452,
      "ప్రస్తుతం": 6453,
      "సంఘం": 6454,
      "মনোর": 6455,
      "মালয়ালম": 6456,
      "పట్టణాలు": 6457,
      "জৈন": 6458,
      "ఎక్కువగా": 6459,
      "పల్లవులు": 6460,
      "বেঙ্গালুরু": 6461,
      "মুঘল": 6462,
      "বৈচিত্র্য": 6463,
      "यूनिवर्सिटी": 6464,
      "কমিশন": 6465,
      "বৈদেশিক": 6466,
      "अफ्रीका": 6467,
      "Aksai": 6468,
      "అభివృద్ధి": 6469,
      "అశోకుడు": 6470,
      "ఉంటాయి": 6471,
      "పతకాలు": 6472,
      "సంప్రదాయాలు": 6473,
      "हिमाचल": 6474,
      "గుప్త": 6475,
      "గోదావరి": 6476,
      "Provisional_Population": 6477,
      "मराठी": 6478,
      "చండీగఢ్": 6479,
      "CITEREFKulkeRothermund2004": 6480,
      "ভিত্তিতে": 6481,
      "মাথাপিছু": 6482,
      "Amritsar": 6483,
      "Library_of_Congress2004": 6484,
      "Tarlo": 6485,
      "ZvaGuaJIJ": 6486,
      "मन्दिर": 6487,
      "মরুভূমি": 6488,
      "ఆకుపచ్చ": 6489,
      "ఎన్ను": 6490,
      "ఐరోపా": 6491,
      "ఒలింపి": 6492,
      "విజ్ఞాన": 6493,
      "s_Paper_1_of_2011": 6494,
      "লাক্ষাদ্বীপ": 6495,
      "geohack": 6496,
      "కృష్ణా": 6497,
      "_Totals_Paper_1_of_2011": 6498,
      "বিশ্ববিদ্যালয়": 6499,
      "క్యాలెండర్": 6500,
      "ప్రాచీన": 6501,
      "ফেডারেশন": 6502,
      "ফেব্রুয়ারি": 6503,
      "Provisional_Population_Totals_Paper_1_of_2011": 6504,
      "ZvaGuaJIJgoC": 6505,
      "Provisional_Population_Totals_Paper_1_of_2011_India": 6506,
      "%,": 6507,
      "112": 6508,
      "447": 6509,
      "700": 6510,
      "Ali": 6511,
      "Gro": 6512,
      "Gini": 6513,
      "Med": 6514,
      "Po": 6515,
      "Sin": 6516,
      "Sang": 6517,
      "Site": 6518,
      "Year": 6519,
      "_25": 6520,
      "court": 6521,
      "dar": 6522,
      "gu": 6523,
      "ner": 6524,
      "ves": 6525,
      "review": 6526,
      "orial": 6527,
      "20130": 6528,
      "orge": 6529,
      "atter": 6530,
      "wever": 6531,
      "uborne": 6532,
      "_Publish": 6533,
      "auth": 6534,
      "439": 6535,
      "uggle": 6536,
      "marria": 6537,
      "igned": 6538,
      "subject": 6539,
      "ependent": 6540,
      "Neuborne": 6541,
      "Aligned": 6542,
      "position": 6543,
      "People": 6544,
      "knowindia": 6545,
      "After": 6546,
      "amental": 6547,
      "428": 6548,
      "613": 6549,
      "=%": 6550,
      "Authority": 6551,
      "Bureau": 6552,
      "DA": 6553,
      "Division": 6554,
      "ES": 6555,
      "FT": 6556,
      "Food": 6557,
      "Games": 6558,
      "Its": 6559,
      "Kon": 6560,
      "Mol": 6561,
      "Mana": 6562,
      "M50th": 6563,
      "Pres": 6564,
      "Pyle": 6565,
      "QC": 6566,
      "R_": 6567,
      "Rig": 6568,
      "Va": 6569,
      "Water": 6570,
      "_2": 6571,
      "_d": 6572,
      "_Un": 6573,
      "_की_": 6574,
      "_Islands": 6575,
      "bre": 6576,
      "bak": 6577,
      "base": 6578,
      "cook": 6579,
      "cour": 6580,
      "dq": 6581,
      "der": 6582,
      "develop": 6583,
      "etry": 6584,
      "flow": 6585,
      "ges": 6586,
      "hol": 6587,
      "ior": 6588,
      "pm": 6589,
      "pages": 6590,
      "ras": 6591,
      "range": 6592,
      "rise": 6593,
      "sc": 6594,
      "u_": 6595,
      "zone": 6596,
      "तृ": 6597,
      "तो": 6598,
      "पक": 6599,
      "पट": 6600,
      "पत्": 6601,
      "फा": 6602,
      "भग": 6603,
      "भ्यता": 6604,
      "रिया": 6605,
      "लिया": 6606,
      "सभ्यता": 6607,
      "ीगढ़": 6608,
      "income": 6609,
      "tici": 6610,
      "rele": 6611,
      "through": 6612,
      "orship": 6613,
      "alli": 6614,
      "en_": 6615,
      "enter": 6616,
      "civ": 6617,
      "1988": 6618,
      "201107": 6619,
      "wear": 6620,
      "्यू": 6621,
      "igarh": 6622,
      "Southeast": 6623,
      "FOOTNOTEB": 6624,
      "FOOTNOTESharma": 6625,
      "style": 6626,
      "Indian_s": 6627,
      "irth": 6628,
      "260": 6629,
      "विजय": 6630,
      "तिब्": 6631,
      "ecially": 6632,
      "न्स": 6633,
      "क्षर": 6634,
      "a_Empire": 6635,
      "राजधान": 6636,
      "aryana": 6637,
      "29_": 6638,
      "exports": 6639,
      "ताज": 6640,
      "227": 6641,
      "िक_": 6642,
      "per_": 6643,
      "षाण": 6644,
      "सिंध": 6645,
      "within": 6646,
      "ground": 6647,
      "351": 6648,
      "ically": 6649,
      "क्षेत्रीय": 6650,
      "ords": 6651,
      "ज़ा": 6652,
      "37545": 6653,
      "398": 6654,
      "ल्स": 6655,
      "Cambod": 6656,
      "1974": 6657,
      "1975": 6658,
      "_Tim": 6659,
      "Trust": 6660,
      "Shankar": 6661,
      "Wiki": 6662,
      "Coll": 6663,
      "_Fund": 6664,
      "Chandigarh": 6665,
      "Mughal_": 6666,
      "ipura": 6667,
      "Sikkim": 6668,
      "school": 6669,
      "vert": 6670,
      "uisine": 6671,
      "सुरक्षा": 6672,
      "species": 6673,
      "मालदीव": 6674,
      "IAEX": 6675,
      "13537545": 6676,
      "traditional": 6677,
      "_Indian_general_election": 6678,
      "served": 6679,
      "संगीत": 6680,
      "घाट": 6681,
      "अन्तर": 6682,
      "Literature": 6683,
      "langoff_": 6684,
      "administr": 6685,
      "जलवायु": 6686,
      "Himalayas": 6687,
      "family": 6688,
      "Identi": 6689,
      "उत्तराखण्ड": 6690,
      "दशक": 6691,
      "increased": 6692,
      "violence": 6693,
      "अप्रैल": 6694,
      "influen": 6695,
      "Laos": 6696,
      "हैदराबाद": 6697,
      "NCLM50th": 6698,
      "चंडीगढ़": 6699,
      "especially": 6700,
      "Sri_Lanka": 6701,
      "culpture": 6702,
      "Pylee": 6703,
      "तिब्ब": 6704,
      "सिंधु": 6705,
      "Cambodia": 6706,
      "IAEXT": 6707,
      "135375457": 6708,
      "NCLM50thReport": 6709,
      "-%": 6710,
      "314": 6711,
      "AE": 6712,
      "Dut": 6713,
      "Ho": 6714,
      "Jha": 6715,
      "Kann": 6716,
      "Policy": 6717,
      "Rec": 6718,
      "XV": 6719,
      "_আন্দোলন": 6720,
      "bad": 6721,
      "dikshit": 6722,
      "earch": 6723,
      "fication": 6724,
      "poll": 6725,
      "uture": 6726,
      "vis": 6727,
      "zon": 6728,
      "অন্ধ": 6729,
      "অস্ট্র": 6730,
      "আন": 6731,
      "ইস্ট": 6732,
      "উট": 6733,
      "এলা": 6734,
      "ওয়া": 6735,
      "ওড়ি": 6736,
      "কলা": 6737,
      "কর্ম": 6738,
      "কগণ": 6739,
      "চ্": 6740,
      "টক": 6741,
      "ট্": 6742,
      "তফস": 6743,
      "থর": 6744,
      "দান": 6745,
      "ধর": 6746,
      "ধি": 6747,
      "নয়া": 6748,
      "পদ": 6749,
      "মৈ": 6750,
      "মহল": 6751,
      "যার": 6752,
      "যান": 6753,
      "রিয়া": 6754,
      "রবী": 6755,
      "লু": 6756,
      "সফ": 6757,
      "সৌ": 6758,
      "হু": 6759,
      "হতে": 6760,
      "৩১": 6761,
      "reach": 6762,
      "ari": 6763,
      "around": 6764,
      "্রপ্রদেশ": 6765,
      "andhi_": 6766,
      "20170": 6767,
      "ivoy": 6768,
      "তিন": 6769,
      "ator": 6770,
      "ন্তি": 6771,
      "বিজন": 6772,
      "বিদেশ": 6773,
      "স্টি": 6774,
      "স্কার": 6775,
      "find": 6776,
      "প্রচল": 6777,
      "প্রবেশ": 6778,
      "research": 6779,
      "াল_": 6780,
      "হায়": 6781,
      "159": 6782,
      "েশিয়া": 6783,
      "285": 6784,
      "a_tigris": 6785,
      "Books": 6786,
      "308": 6787,
      "লাভ": 6788,
      "নাই": 6789,
      "নাড়": 6790,
      "ত্থ": 6791,
      "হিম": 6792,
      "থাকে": 6793,
      "pped": 6794,
      "270": 6795,
      "ঙ্গেয়": 6796,
      "ড়ো": 6797,
      "সিপা": 6798,
      "গুলো": 6799,
      "ঞ্চলে": 6800,
      "এনসাইক্লো": 6801,
      "উপরাষ্ট্রপতি": 6802,
      "ুরি": 6803,
      "352": 6804,
      "thera_tigris": 6805,
      "1208": 6806,
      "ভূটান": 6807,
      "২০১৬": 6808,
      "রাজ্যসভা": 6809,
      "Anth": 6810,
      "Roy": 6811,
      "erves": 6812,
      "ultur": 6813,
      "বিশ্বে": 6814,
      "ারাষ্ট্র": 6815,
      "প্রায়": 6816,
      "These": 6817,
      "মুখ": 6818,
      "কোন": 6819,
      "গণতন্ত্র": 6820,
      "সম্পাদ": 6821,
      "সরকারের": 6822,
      "Trade": 6823,
      "ইউরো": 6824,
      "পুরা": 6825,
      "কৃতিক": 6826,
      "poin": 6827,
      "গাঙ্গেয়": 6828,
      "দেখা": 6829,
      "bollywood": 6830,
      "ব্রিটান": 6831,
      "আর্য": 6832,
      "Countries": 6833,
      "পুরস্কার": 6834,
      "১৯৯৮": 6835,
      "বিদ্রো": 6836,
      "দুই": 6837,
      "ific": 6838,
      "topic": 6839,
      "arkar": 6840,
      "উদ্যান": 6841,
      "কর্ণা": 6842,
      "বিচারপতি": 6843,
      "তামিলনাড়": 6844,
      "parliamentary": 6845,
      "খ্রিষ্ট": 6846,
      "মৌর্য": 6847,
      "গঠিত": 6848,
      "সর্বো": 6849,
      "ভারত_সরকার": 6850,
      "কৃষ্": 6851,
      "কৃষি": 6852,
      "মহারাষ্ট্র": 6853,
      "Panthera_tigris": 6854,
      "Telugu": 6855,
      "LakshadweepIsland": 6856,
      "পাঞ্জাব": 6857,
      "চুক্তি": 6858,
      "পৌর": 6859,
      "পরিবহন": 6860,
      "খালি": 6861,
      "পঞ্চা": 6862,
      "মারাঠি": 6863,
      "সংক্রান্ত": 6864,
      "পোশাক": 6865,
      "হিসেবে": 6866,
      "উৎপাদন": 6867,
      "কয়লা": 6868,
      "গোষ্ঠী": 6869,
      "অন্ধ্রপ্রদেশ": 6870,
      "ট্ট": 6871,
      "নয়াদিল্লি": 6872,
      "রবীন্দ্র": 6873,
      "ivoyage": 6874,
      "বিজনেস": 6875,
      "এনসাইক্লোপিডিয়া": 6876,
      "ইউরোপ": 6877,
      "ব্রিটানিকা": 6878,
      "বিদ্রোহ": 6879,
      "\"।": 6880,
      ");": 6881,
      "226": 6882,
      "2_Data_": 6883,
      "3rd": 6884,
      "Age": 6885,
      "Dg": 6886,
      "Day": 6887,
      "Data_": 6888,
      "Factbook": 6889,
      "Gupta": 6890,
      "Greek": 6891,
      "If": 6892,
      "Jhar": 6893,
      "Jana": 6894,
      "Jawaharl": 6895,
      "KI": 6896,
      "LC": 6897,
      "Multi": 6898,
      "Monsoon": 6899,
      "MAAJ": 6900,
      "Nav": 6901,
      "Old": 6902,
      "PR": 6903,
      "PS": 6904,
      "Sur": 6905,
      "Sain": 6906,
      "Tables": 6907,
      "Up": 6908,
      "Ur": 6909,
      "Wile": 6910,
      "What": 6911,
      "Yaksh": 6912,
      "_धर्म": 6913,
      "_432": 6914,
      "cor": 6915,
      "cut": 6916,
      "cultural": 6917,
      "fig": 6918,
      "fish": 6919,
      "hra": 6920,
      "iet": 6921,
      "khand": 6922,
      "lid": 6923,
      "list": 6924,
      "mid": 6925,
      "members": 6926,
      "nation": 6927,
      "num": 6928,
      "national_": 6929,
      "pc": 6930,
      "ste": 6931,
      "summ": 6932,
      "ujan": 6933,
      "vill": 6934,
      "wa": 6935,
      "wana": 6936,
      "ंत": 6937,
      "अलग": 6938,
      "उन": 6939,
      "कला": 6940,
      "गू": 6941,
      "जं": 6942,
      "जब": 6943,
      "टान": 6944,
      "धार": 6945,
      "रत": 6946,
      "रह": 6947,
      "लम": 6948,
      "लका": 6949,
      "वृ": 6950,
      "श्य": 6951,
      "सत": 6952,
      "सहा": 6953,
      "िस्तान": 6954,
      "ृत": 6955,
      "ोन": 6956,
      "ौर": 6957,
      "ndl": 6958,
      "nder": 6959,
      "tea": 6960,
      "onial": 6961,
      "inanc": 6962,
      "reli": 6963,
      "209": 6964,
      "20A": 6965,
      "ants": 6966,
      "edr": 6967,
      "eduled": 6968,
      "ofker": 6969,
      "isni": 6970,
      "itt": 6971,
      "ital": 6972,
      "asian": 6973,
      "ouli": 6974,
      "chas": 6975,
      "leavy": 6976,
      "compan": 6977,
      "refor": 6978,
      "redi": 6979,
      "ily": 6980,
      "ilgr": 6981,
      "्यों": 6982,
      "angra": 6983,
      "angha": 6984,
      "मेघ": 6985,
      "काली": 6986,
      "rakash": 6987,
      "umbai": 6988,
      "stre": 6989,
      "Insur": 6990,
      "161": 6991,
      "विष": 6992,
      "विदेश": 6993,
      "CITEREFC": 6994,
      "Chola": 6995,
      "ubcontinent": 6996,
      "confl": 6997,
      "साहि": 6998,
      "211": 6999,
      "295": 7000,
      "liest": 7001,
      "पुलि": 7002,
      "osa": 7003,
      "tempor": 7004,
      "prom": 7005,
      "good": 7006,
      "ourbak": 7007,
      "_in_South_Asia": 7008,
      "AAMAAJ": 7009,
      "udi": 7010,
      "become": 7011,
      "before": 7012,
      "parties": 7013,
      "Flood": 7014,
      "337": 7015,
      "सिख": 7016,
      "earning": 7017,
      "Hard": 7018,
      "ians": 7019,
      "iance": 7020,
      "जाती": 7021,
      "_Act": 7022,
      "ड़ो": 7023,
      "orders": 7024,
      "ज़ो": 7025,
      "जनवरी": 7026,
      "मिज़ो": 7027,
      "population_en": 7028,
      "576": 7029,
      "ights": 7030,
      "_Nations_": 7031,
      "तेल": 7032,
      "|---|---": 7033,
      "Eurasian": 7034,
      "Cambridge_": 7035,
      "Constitutional": 7036,
      "Partition": 7037,
      "जीवन": 7038,
      "देख": 7039,
      "Deccan": 7040,
      "amanujan": 7041,
      "Industrial": 7042,
      "aceu": 7043,
      "Related": 7044,
      "कुछ": 7045,
      "हरिया": 7046,
      "trade": 7047,
      "4217": 7048,
      "Chandram": 7049,
      "UNHD": 7050,
      "...]": 7051,
      "अधि": 7052,
      "Religious": 7053,
      "ज्ञा": 7054,
      "उपमहाद्वीप": 7055,
      "Andhra": 7056,
      "yyyy": 7057,
      "Black": 7058,
      "ingdoms": 7059,
      "Goa": 7060,
      "legisl": 7061,
      "market": 7062,
      "Madras": 7063,
      "s_and_union_": 7064,
      "Force": 7065,
      "क्रम": 7066,
      "बांग्लादेश": 7067,
      "Davidson": 7068,
      "Robb2011": 7069,
      "Michell": 7070,
      "PCA": 7071,
      "Bibli": 7072,
      "Narayan": 7073,
      "lord_432": 7074,
      "Malayal": 7075,
      "central": 7076,
      "araja": 7077,
      "viaf": 7078,
      "Review": 7079,
      "Canada": 7080,
      "average": 7081,
      "पहले": 7082,
      "Political_map": 7083,
      "Caves": 7084,
      "does": 7085,
      "harmaceu": 7086,
      "चुनावों": 7087,
      "List_of_countries_and_dependencies_by_population": 7088,
      "Cinema": 7089,
      "Northeast": 7090,
      "Puducherry": 7091,
      "छत्तीसगढ़": 7092,
      "Dunleavy": 7093,
      "Eighth": 7094,
      "Molnar": 7095,
      "civil": 7096,
      "Indian_subcontinent": 7097,
      "Collingham": 7098,
      "2_Data_Tables": 7099,
      "Jharkhand": 7100,
      "Wiley": 7101,
      "सहाय": 7102,
      "ilgrim": 7103,
      "ourbaki": 7104,
      "population_enumeration": 7105,
      "Chandramouli": 7106,
      "s_and_union_territories": 7107,
      "423": 7108,
      "Ahmedabad": 7109,
      "Disc": 7110,
      "Eight": 7111,
      "Gange": 7112,
      "Im": 7113,
      "Land": 7114,
      "No": 7115,
      "Pa": 7116,
      "Rv": 7117,
      "Tod": 7118,
      "hl": 7119,
      "las": 7120,
      "living": 7121,
      "may": 7122,
      "names": 7123,
      "\")—": 7124,
      "eral_": 7125,
      "es_": 7126,
      "194": 7127,
      "1956": 7128,
      "1936": 7129,
      "adas": 7130,
      "amap": 7131,
      "131": 7132,
      "1320": 7133,
      "158": 7134,
      "CITEREFFisher2018": 7135,
      "1995": 7136,
      "257": 7137,
      "ave": 7138,
      "ourism": 7139,
      "Maury": 7140,
      "2007_": 7141,
      "_Beng": 7142,
      "_and_Development": 7143,
      "_Man": 7144,
      "forms": 7145,
      "Industry": 7146,
      "College": 7147,
      "literacy": 7148,
      "Madhya": 7149,
      "info": 7150,
      "administered": 7151,
      "Early": 7152,
      "Balakrishnan": 7153,
      "func": 7154,
      "Phil": 7155,
      "local_base": 7156,
      "Volume": 7157,
      "American": 7158,
      "Gilbert": 7159,
      "speakers": 7160,
      "Penguin": 7161,
      "Gangetic": 7162,
      "215": 7163,
      "312": 7164,
      "421": 7165,
      "520": 7166,
      "550": 7167,
      "5196": 7168,
      "899": 7169,
      "960": 7170,
      "Aut": 7171,
      "BF": 7172,
      "Ban": 7173,
      "Bur": 7174,
      "Bel": 7175,
      "Bef": 7176,
      "Britannica": 7177,
      "Bollywood": 7178,
      "C_P": 7179,
      "Dog": 7180,
      "Fa": 7181,
      "FIL": 7182,
      "Gan": 7183,
      "Gum": 7184,
      "Garg": 7185,
      "HA": 7186,
      "HQ": 7187,
      "Haryana": 7188,
      "LA": 7189,
      "Log": 7190,
      "Lower": 7191,
      "Lok": 7192,
      "Learning": 7193,
      "Miz": 7194,
      "PT": 7195,
      "Paul": 7196,
      "Rab": 7197,
      "SO": 7198,
      "SU": 7199,
      "Sind": 7200,
      "Tele": 7201,
      "Vict": 7202,
      "Yum": 7203,
      "Ze": 7204,
      "_h": 7205,
      "_from": 7206,
      "_వంశం": 7207,
      "_भारतीय_": 7208,
      "_వ్యవస్థ": 7209,
      "_ব্যবস্থা": 7210,
      "_শিল্প": 7211,
      "_రాజవంశం": 7212,
      "_নদী": 7213,
      "_నది": 7214,
      "_Assembly": 7215,
      "_సంగీతం": 7216,
      "_గాంధీ": 7217,
      "_सिनेमा": 7218,
      "_యుద్ధం": 7219,
      "fed": 7220,
      "follow": 7221,
      "hā": 7222,
      "hor": 7223,
      "mj": 7224,
      "mand": 7225,
      "member": 7226,
      "whi": 7227,
      "wildlife": 7228,
      "would": 7229,
      "xx": 7230,
      "अमे": 7231,
      "आंध": 7232,
      "ऑक्": 7233,
      "क़": 7234,
      "कै": 7235,
      "कों": 7236,
      "खन": 7237,
      "ग्व": 7238,
      "डा": 7239,
      "णाली": 7240,
      "पै": 7241,
      "पाली": 7242,
      "पब्": 7243,
      "बड़े": 7244,
      "भु": 7245,
      "यत": 7246,
      "व्या": 7247,
      "श्र": 7248,
      "सर्": 7249,
      "ूर": 7250,
      "ेद": 7251,
      "ॉल": 7252,
      "ोर्ड": 7253,
      "।,": 7254,
      "००": 7255,
      "অংশ": 7256,
      "অধিকার": 7257,
      "আঞ্চল": 7258,
      "ইট": 7259,
      "উর্": 7260,
      "কত": 7261,
      "খ্যা": 7262,
      "খরান": 7263,
      "গব": 7264,
      "ঘোষ": 7265,
      "জিক": 7266,
      "টন": 7267,
      "ঠে": 7268,
      "ডা": 7269,
      "তৈ": 7270,
      "তো": 7271,
      "নগর": 7272,
      "পবি": 7273,
      "ব্র": 7274,
      "বলে": 7275,
      "বনা": 7276,
      "বার্": 7277,
      "মস": 7278,
      "যে": 7279,
      "লিতে": 7280,
      "শো": 7281,
      "সক্ষম": 7282,
      "সচি": 7283,
      "ীণ": 7284,
      "োজ": 7285,
      "োপ": 7286,
      "োমিটার": 7287,
      "্গ": 7288,
      "৩৭": 7289,
      "৩৮": 7290,
      "৪৪": 7291,
      "৪৬": 7292,
      "৫৯": 7293,
      "৯৮": 7294,
      "అణ": 7295,
      "అథ": 7296,
      "అని": 7297,
      "అల్": 7298,
      "ఆక్ర": 7299,
      "ఈస్": 7300,
      "ఉర్": 7301,
      "ఎడ": 7302,
      "ఎల": 7303,
      "ఐక్య": 7304,
      "గల్": 7305,
      "గ్రీ": 7306,
      "చవి": 7307,
      "జపా": 7308,
      "టిక": 7309,
      "డం": 7310,
      "డాల": 7311,
      "ఢా": 7312,
      "తాల": 7313,
      "తంగా": 7314,
      "థా": 7315,
      "థిక": 7316,
      "దూ": 7317,
      "దరా": 7318,
      "దంబ": 7319,
      "దక్క": 7320,
      "ధా": 7321,
      "ధు": 7322,
      "పర్": 7323,
      "పతా": 7324,
      "పది": 7325,
      "పరీ": 7326,
      "పర్యా": 7327,
      "ఫి": 7328,
      "బల": 7329,
      "బే": 7330,
      "బై": 7331,
      "బంగ": 7332,
      "భౌ": 7333,
      "మర": 7334,
      "మార": 7335,
      "మహి": 7336,
      "యూ": 7337,
      "రష": 7338,
      "రకాల": 7339,
      "వ_": 7340,
      "వో": 7341,
      "వార్": 7342,
      "వాల్": 7343,
      "వలం": 7344,
      "వత్రిక": 7345,
      "వడం": 7346,
      "శక": 7347,
      "శె": 7348,
      "శకు": 7349,
      "సల": 7350,
      "సో": 7351,
      "హర": 7352,
      "ీం": 7353,
      "ీ_భాష": 7354,
      "ుకు": 7355,
      "ూపం": 7356,
      "ెలు": 7357,
      "ోత్": 7358,
      "ౌర": 7359,
      "iated": 7360,
      "online": 7361,
      "inal_": 7362,
      "tile": 7363,
      "tival": 7364,
      "thang": 7365,
      "oro": 7366,
      "orate": 7367,
      "ergency": 7368,
      "ising": 7369,
      "isource": 7370,
      "cid": 7371,
      "anding": 7372,
      "asthan": 7373,
      "ought": 7374,
      "্যু": 7375,
      "198": 7376,
      "idref": 7377,
      "iday": 7378,
      "ches": 7379,
      "changes": 7380,
      "adop": 7381,
      "truction": 7382,
      "భారతం": 7383,
      "దేశానికి": 7384,
      "atn": 7385,
      "ন্ব": 7386,
      "సాహి": 7387,
      "ump": 7388,
      "ర్కొ": 7389,
      "ర్జె": 7390,
      "ర్నేషనల్": 7391,
      "angana": 7392,
      "ক্ট": 7393,
      "স্বী": 7394,
      "linkid": 7395,
      "olia": 7396,
      "olar": 7397,
      "రాయ": 7398,
      "రాతి": 7399,
      "ప్రారం": 7400,
      "ప్రీం": 7401,
      "hered": 7402,
      "held": 7403,
      "সাং": 7404,
      "లోన్": 7405,
      "లోమీ": 7406,
      "0046": 7407,
      "িকার": 7408,
      "ems": 7409,
      "emerg": 7410,
      "দ্বিত": 7411,
      "FOOTNOTERowland1970": 7412,
      "FOOTNOTEProvisional_Population_Totals_Paper_1_of_2011_India": 7413,
      "বাই": 7414,
      "বাদী": 7415,
      "నిడ్": 7416,
      "నియన్": 7417,
      "ratic": 7418,
      "roti": 7419,
      "151": 7420,
      "1526": 7421,
      "Introduction": 7422,
      "২০২০": 7423,
      "২০২২": 7424,
      "irac": 7425,
      "237": 7426,
      "ముద్ర": 7427,
      "प्रणाली": 7428,
      "సింగ్": 7429,
      "विक": 7430,
      "विभा": 7431,
      "विस्त": 7432,
      "वियत": 7433,
      "విష్ణ": 7434,
      "వివరాలు": 7435,
      "తిరుగు": 7436,
      "CITEREFAsherTalbot": 7437,
      "তাবাদ": 7438,
      "in_2": 7439,
      "Chhat": 7440,
      "త్త": 7441,
      "త్వా": 7442,
      "త్వం": 7443,
      "289": 7444,
      "apore": 7445,
      "2542": 7446,
      "contri": 7447,
      "ম্ভ": 7448,
      "e_on_the_": 7449,
      "చిరు": 7450,
      "చిహ్": 7451,
      "্যাস": 7452,
      "i_M": 7453,
      "ेशन": 7454,
      "extra_": 7455,
      "జాతులు": 7456,
      "వాణి": 7457,
      "మాన": 7458,
      "మాట్": 7459,
      "liber": 7460,
      "geos": 7461,
      "ंगाना": 7462,
      "নিয়ে": 7463,
      "হিমালয়": 7464,
      "prin": 7465,
      "পাঁচ": 7466,
      "కాక": 7467,
      "కాహార": 7468,
      "భారతీయులు": 7469,
      "ocratic": 7470,
      "uccess": 7471,
      "కిలోమీ": 7472,
      "పాద": 7473,
      "పాక్": 7474,
      "పాటు": 7475,
      "పుట్టు": 7476,
      "नेतृ": 7477,
      "नेपाली": 7478,
      "ogam": 7479,
      "कोलका": 7480,
      "न्दोलन": 7481,
      "েষণা": 7482,
      "27s_": 7483,
      "সেন": 7484,
      "టిలో": 7485,
      "నేరే": 7486,
      "మితి": 7487,
      "భాషా": 7488,
      "গুলিতে": 7489,
      "మూర్": 7490,
      "మూడు": 7491,
      "_A7C": 7492,
      "566": 7493,
      "Mathema": 7494,
      "উপগ্রহ": 7495,
      "కేవలం": 7496,
      "రాజు": 7497,
      "ameez": 7498,
      "क्षेत्रों": 7499,
      "নেট": 7500,
      "inequality": 7501,
      "లాడే": 7502,
      "లాహో": 7503,
      "ভূম": 7504,
      "২০১২": 7505,
      "২০১৪": 7506,
      "মানুষ": 7507,
      "స్తులు": 7508,
      "2C5": 7509,
      "498": 7510,
      "చేర": 7511,
      "ఆర్థిక": 7512,
      "కాలే": 7513,
      "দিন": 7514,
      "Asher2006": 7515,
      "AsherAsher2006": 7516,
      "coauthor": 7517,
      "చెట్టు": 7518,
      "చెందు": 7519,
      "చెందిన": 7520,
      "ప్ల": 7521,
      "యుగ": 7522,
      "హాకీ": 7523,
      "_Co": 7524,
      "కూడిన": 7525,
      "పాలిటన్": 7526,
      "ক্রো": 7527,
      "ক্রমে": 7528,
      "রিক্ত": 7529,
      "মধ্যযুগ": 7530,
      "దక్షిణాన": 7531,
      "সম্প্র": 7532,
      "religions": 7533,
      "కొంక": 7534,
      "కొత్త": 7535,
      "వర్ష": 7536,
      "angered": 7537,
      "Increase_": 7538,
      "अभिज्ञा": 7539,
      "తువు": 7540,
      "మెట్రో": 7541,
      "_Ratn": 7542,
      "సంస్కరణ": 7543,
      "బ్రె": 7544,
      "సుప్రీం": 7545,
      "ilding": 7546,
      "గణి": 7547,
      "సభ్య": 7548,
      "गुप्त": 7549,
      "Wikidata": 7550,
      "రైళ్": 7551,
      "Kashmiri": 7552,
      "देवी": 7553,
      "এশিয়ান": 7554,
      "पीठ": 7555,
      "पीपी": 7556,
      "रूस": 7557,
      "Rajasthan": 7558,
      "unei": 7559,
      "पुरम": 7560,
      "দক্ষিণ_": 7561,
      "2_22": 7562,
      "যায়": 7563,
      "లేని": 7564,
      "ministr": 7565,
      "691": 7566,
      "బాదు": 7567,
      "బాటు": 7568,
      "మహాసముద్రం": 7569,
      "వెల్ల": 7570,
      "స్వామ్య": 7571,
      "సాంప్రదా": 7572,
      "प्ले": 7573,
      "Buddha": 7574,
      "సింధ్": 7575,
      "পশ্চিমঘাট": 7576,
      "अंग्रेज़ी_भाषा": 7577,
      "ব্যাপ": 7578,
      "च्छ": 7579,
      "imf2": 7580,
      "imf2_22": 7581,
      "বিধানসভা": 7582,
      "tainment": 7583,
      "मैथि": 7584,
      "రెండ": 7585,
      "హ్వాల్": 7586,
      "క్రీడలలో": 7587,
      "industry_in_India": 7588,
      "Brunei": 7589,
      "बेट": 7590,
      "হিন্দুধর্ম": 7591,
      "ব্দী": 7592,
      "మైథి": 7593,
      "texts": 7594,
      "text_": 7595,
      "గణతంత్ర_": 7596,
      "పశ్చిమ_": 7597,
      "न्नई": 7598,
      "Environmental": 7599,
      "শতাব্দী": 7600,
      "తూర్పు_": 7601,
      "military": 7602,
      "పంజాబీ": 7603,
      "According": 7604,
      "बहुत": 7605,
      "Administr": 7606,
      "News18": 7607,
      "ভরত": 7608,
      "కాంగ్రెస్": 7609,
      "include": 7610,
      "constitutional": 7611,
      "মৌলিক": 7612,
      "স্থানীয়": 7613,
      "tree_on_the_": 7614,
      "इंडोन": 7615,
      "घाटी": 7616,
      "edule": 7617,
      "विज्ञान_": 7618,
      "విస్తరి": 7619,
      "యునైటెడ్_": 7620,
      "असमिया": 7621,
      "পোখরান": 7622,
      "चेन्नई": 7623,
      "ভ্যন্তর": 7624,
      "అస్సామ": 7625,
      "బాంబే": 7626,
      "ళ్ళ": 7627,
      "_के_आधार_पर_भारत_के_राज्यों_की_सूची": 7628,
      "शक्तिपीठ": 7629,
      "निर्माण": 7630,
      "రూప": 7631,
      "సార్వత్రిక": 7632,
      "FOOTNOTENational_Informatics_Centre2005_1": 7633,
      "స్టాక్": 7634,
      "মণিপুরী": 7635,
      "Telangana": 7636,
      "পর্যটন": 7637,
      "অন্যতম": 7638,
      "LOC_P": 7639,
      "Malaysia": 7640,
      "FOOTNOTEKulkeRothermund200": 7641,
      "వందేమాతరం": 7642,
      "সমূহের_তালিকা": 7643,
      "ఇండియా_": 7644,
      "దక్షిణ_ఆసియా_చరిత్ర": 7645,
      "বিষয়শ্রেণী": 7646,
      "নির্বাচ": 7647,
      "सफोर्ड": 7648,
      "జన్మ": 7649,
      "న్యాయ": 7650,
      "ఫైల్": 7651,
      "భరత": 7652,
      "క్టోర": 7653,
      "విద్యుత్": 7654,
      "Chennai": 7655,
      "గుర్తి": 7656,
      "పార్లమెంటరీ": 7657,
      "occup": 7658,
      "Cricket": 7659,
      "Current": 7660,
      "FOOTNOTEHarle199": 7661,
      "त्रिपुरा": 7662,
      "ডিওআই": 7663,
      "বর্তমানে": 7664,
      "ধ্রুপদী": 7665,
      "অতিরিক্ত": 7666,
      "అక్షరాస్యత": 7667,
      "ఇంటర్నేషనల్": 7668,
      "జంతువు": 7669,
      "నడిపించ": 7670,
      "సహకార": 7671,
      "సామాను": 7672,
      "বিস্তার": 7673,
      "పూర్వోత్": 7674,
      "మాత్రం": 7675,
      "కింగ్డమ్": 7676,
      "ప్పటికీ": 7677,
      "జనగణమన": 7678,
      "तेलुगू": 7679,
      "సాంకేతిక": 7680,
      "జమ్మూ_కాశ్మీరు": 7681,
      "অধিনায়": 7682,
      "সীমান্ত": 7683,
      "ROFIL": 7684,
      "FrontView": 7685,
      "employed": 7686,
      "কিলোমিটার": 7687,
      "ফ্রান্স": 7688,
      "সভ্যতা": 7689,
      "প্রস্তর": 7690,
      "যাত্রা": 7691,
      "InfosysHQ": 7692,
      "Singapore": 7693,
      "झारखंड": 7694,
      "नौसेना": 7695,
      "Michael": 7696,
      "Bomb": 7697,
      "Dominion": 7698,
      "juris": 7699,
      "missing": 7700,
      "कॉंग्रेस": 7701,
      "ఆధీనంలో": 7702,
      "ఆహారం": 7703,
      "సర్వీ": 7704,
      "హైదరా": 7705,
      "lothing": 7706,
      "విభజన": 7707,
      "জনগণমন": 7708,
      "స్థితి": 7709,
      "भीमबेट": 7710,
      "రాజ్యాంగం": 7711,
      "రోడ్డు": 7712,
      "పోర్చుగీ": 7713,
      "పీఠభూ": 7714,
      "Sanchi2": 7715,
      "আফ্রিকা": 7716,
      "উদ্ভিদ": 7717,
      "Tarlo1996": 7718,
      "Sino": 7719,
      "release": 7720,
      "XVII": 7721,
      "এলাকা": 7722,
      "প্রচলিত": 7723,
      "সর্বোচ্চ": 7724,
      "temporary": 7725,
      "तेलंगाना": 7726,
      "Cambridge_University_Press": 7727,
      "Before": 7728,
      "Gumpa": 7729,
      "Victor": 7730,
      "Yumthang": 7731,
      "_Assembly_of_India": 7732,
      "_యుద్ధం_": 7733,
      "आंध्र": 7734,
      "ऑक्सफोर्ड": 7735,
      "আঞ্চলিক": 7736,
      "গবেষণা": 7737,
      "পবিত্র": 7738,
      "అథారిటీ": 7739,
      "ఈస్ట్": 7740,
      "ఉర్దూ": 7741,
      "ఎలక్టోర": 7742,
      "ఢాకా": 7743,
      "పరీక్ష": 7744,
      "సాహిత్యం": 7745,
      "తిరుగుబాటు": 7746,
      "Chhattis": 7747,
      "extra_text_": 7748,
      "వాణిజ్య": 7749,
      "మాట్లాడే": 7750,
      "పుట్టుపూర్వోత్": 7751,
      "कोलकाता": 7752,
      "నేరేడు": 7753,
      "లాహోర్": 7754,
      "coauthors": 7755,
      "చెందుతున్న": 7756,
      "కొంకణి": 7757,
      "Increase_Neutral": 7758,
      "अभिज्ञापक": 7759,
      "మెట్రోపాలిటన్": 7760,
      "సాంప్రదాయ": 7761,
      "इंडोनेशिया": 7762,
      "ভ্যন্তরীণ": 7763,
      "LOC_PROFIL": 7764,
      "InfosysHQFrontView": 7765,
      "పుట్టుపూర్వోత్తరాలు": 7766,
      ".,": 7767,
      "429": 7768,
      "490": 7769,
      "517": 7770,
      "800": 7771,
      "GE": 7772,
      "Hi": 7773,
      "Power": 7774,
      "Ramanujan": 7775,
      "SE": 7776,
      "Sw": 7777,
      "Suk": 7778,
      "UK": 7779,
      "Vij": 7780,
      "[(": 7781,
      "\\-": 7782,
      "dp": 7783,
      "diversity": 7784,
      "ee_": 7785,
      "give": 7786,
      "ier": 7787,
      "iop": 7788,
      "mo": 7789,
      "ots": 7790,
      "run": 7791,
      "tool": 7792,
      "](./.": 7793,
      "tel": 7794,
      "test": 7795,
      "check": 7796,
      "adv": 7797,
      "lins": 7798,
      "health": 7799,
      "toge": 7800,
      "1356": 7801,
      "165": 7802,
      "CITEREFWolpert2003": 7803,
      "eph": 7804,
      "ablish": 7805,
      "302": 7806,
      "Harper": 7807,
      "452": 7808,
      "anath": 7809,
      "2C_S": 7810,
      "Anthem": 7811,
      "type": 7812,
      "_Constitution": 7813,
      "1972": 7814,
      "ographical": 7815,
      "Delhi_": 7816,
      "country_": 7817,
      "oldest": 7818,
      "Ethiop": 7819,
      "Collins": 7820,
      "Chandra": 7821,
      "rence": 7822,
      "IAF": 7823,
      "growing": 7824,
      "Direct": 7825,
      "Greater": 7826,
      "bara": 7827,
      "Two": 7828,
      "pubmed": 7829,
      "datamap": 7830,
      "Protection": 7831,
      "ampion": 7832,
      "checked": 7833,
      "together": 7834,
      "Ethiopia": 7835,
      "datamapper": 7836,
      "026": 7837,
      "240": 7838,
      "224": 7839,
      "225": 7840,
      "313": 7841,
      "360": 7842,
      "420": 7843,
      "Az": 7844,
      "Agency": 7845,
      "Berlin": 7846,
      "Ca": 7847,
      "Craven": 7848,
      "HAS": 7849,
      "Khan": 7850,
      "Long": 7851,
      "Mong": 7852,
      "Member": 7853,
      "Oly": 7854,
      "Pre": 7855,
      "Sim": 7856,
      "Since": 7857,
      "Wh": 7858,
      "YC": 7859,
      "YS": 7860,
      "\\[": 7861,
      "\\]": 7862,
      "_भारत": 7863,
      "_state": 7864,
      "cover": 7865,
      "cement": 7866,
      "cuisine": 7867,
      "ek": 7868,
      "eu": 7869,
      "ees": 7870,
      "eff": 7871,
      "gar": 7872,
      "hip": 7873,
      "ie": 7874,
      "iisc": 7875,
      "lists": 7876,
      "muslim": 7877,
      "migr": 7878,
      "ny": 7879,
      "rid": 7880,
      "round": 7881,
      "raman": 7882,
      "sports": 7883,
      "sultanate": 7884,
      "ute": 7885,
      "ws": 7886,
      "writ": 7887,
      "where": 7888,
      "ædia": 7889,
      "ँची": 7890,
      "ंच": 7891,
      "अरु": 7892,
      "गई": 7893,
      "गठ": 7894,
      "गार": 7895,
      "घर": 7896,
      "त्या": 7897,
      "थे": 7898,
      "दल": 7899,
      "दमन": 7900,
      "नै": 7901,
      "निया": 7902,
      "फल": 7903,
      "फ्रा": 7904,
      "मई": 7905,
      "मिक": 7906,
      "यो": 7907,
      "रम": 7908,
      "लक्ष": 7909,
      "वल": 7910,
      "वार": 7911,
      "शन": 7912,
      "ुनिक": 7913,
      "inc": 7914,
      "ink": 7915,
      "ination": 7916,
      "inindia": 7917,
      "recent": 7918,
      "era": 7919,
      "eri": 7920,
      "erve": 7921,
      "207": 7922,
      "isa": 7923,
      "itar": 7924,
      "ashi": 7925,
      "195": 7926,
      "1951": 7927,
      "ids": 7928,
      "cher": 7929,
      "20110": 7930,
      "adem": 7931,
      "amas": 7932,
      "\\),": 7933,
      "local": 7934,
      "1093": 7935,
      "ecu": 7936,
      "angur": 7937,
      "onso": 7938,
      "uries": 7939,
      "etwork": 7940,
      "igen": 7941,
      "ull": 7942,
      "ults": 7943,
      "upper": 7944,
      "ान्": 7945,
      "iper": 7946,
      "FOOTNOTEMinistry_of_Home_Affairs_1960": 7947,
      "र्ष": 7948,
      "rain": 7949,
      "fort": 7950,
      "force": 7951,
      "forcement": 7952,
      "indic": 7953,
      "opland": 7954,
      "una": 7955,
      "ake_": 7956,
      "प्रार": 7957,
      "विद्य": 7958,
      "CITEREFB": 7959,
      "CITEREFAsherTalbot2008": 7960,
      "सेवा": 7961,
      "appro": 7962,
      "न्तु": 7963,
      "govern": 7964,
      "246": 7965,
      "त्री": 7966,
      "plain": 7967,
      "संधान": 7968,
      "abase": 7969,
      "लाल": 7970,
      "साक्षर": 7971,
      "oung": 7972,
      "भाई": 7973,
      "ंगलु": 7974,
      "परी": 7975,
      "prac": 7976,
      "Hindus": 7977,
      "harv": 7978,
      "त्त": 7979,
      "being": 7980,
      "parity": 7981,
      "279": 7982,
      "पाषाण": 7983,
      "_Arab": 7984,
      "relid": 7985,
      "357": 7986,
      "ardian": 7987,
      "Architecture": 7988,
      "_Day": 7989,
      "_Development": 7990,
      "Economic_": 7991,
      "निय": 7992,
      "Emergency": 7993,
      "लिंग": 7994,
      "लिये": 7995,
      "374": 7996,
      "engineering": 7997,
      "Harvard": 7998,
      "United_Arab": 7999,
      "_Games": 8000,
      "coast": 8001,
      "centuries": 8002,
      "आधुनिक": 8003,
      "म्भ": 8004,
      "poration": 8005,
      "स्थित": 8006,
      "जिन": 8007,
      "Shangha": 8008,
      "Wikipedia": 8009,
      "lower": 8010,
      "alaya": 8011,
      "regional": 8012,
      "अनुसंधान": 8013,
      "महल": 8014,
      "Engineering": 8015,
      "CON": 8016,
      "_Force": 8017,
      "भूगोल": 8018,
      "Times_": 8019,
      "dependent": 8020,
      "बेंगलु": 8021,
      "बंधन": 8022,
      "Encyclopædia": 8023,
      "hats": 8024,
      "Himachal": 8025,
      "Veda": 8026,
      "desc": 8027,
      "Ramsar": 8028,
      "Arabia": 8029,
      "List_of_countries_by_": 8030,
      "Hindustani": 8031,
      "record": 8032,
      "recogn": 8033,
      "Nataraja": 8034,
      "tives": 8035,
      "लोकसभा": 8036,
      "उत्तरी": 8037,
      "Turkey": 8038,
      "Climate_": 8039,
      "body": 8040,
      "अन्त": 8041,
      "Literacy": 8042,
      "लगभग": 8043,
      "documents": 8044,
      "festival": 8045,
      "Green": 8046,
      "signific": 8047,
      "अमरी": 8048,
      "पोर्ट": 8049,
      "राजनीतिक": 8050,
      "Kuiper": 8051,
      "Desert": 8052,
      "Nanda_": 8053,
      "discuss": 8054,
      "पूर्ण": 8055,
      "UTHAS": 8056,
      "Tibetan": 8057,
      "small": 8058,
      "दृश्य": 8059,
      "_Plate": 8060,
      "_देशों_की_सूची": 8061,
      "Template_talk": 8062,
      "Wright2010": 8063,
      "Security": 8064,
      "Demonym": 8065,
      "Konk": 8066,
      "courts": 8067,
      "wearing": 8068,
      "ताजमहल": 8069,
      "तिब्बत": 8070,
      "Saint": 8071,
      "Urban": 8072,
      "village": 8073,
      "relief": 8074,
      "पुलिस": 8075,
      "s_and_union_territories_of_India": 8076,
      "SOUTHAS": 8077,
      "hār": 8078,
      "अमेरि": 8079,
      "पब्लि": 8080,
      "Bombay": 8081,
      "Olymp": 8082,
      "अरुणा": 8083,
      "साक्षरता": 8084,
      "United_Arab_": 8085,
      "बेंगलुरु": 8086,
      "SOUTHASIAEXT": 8087,
      ".**": 8088,
      "0266": 8089,
      "214": 8090,
      "328": 8091,
      "430": 8092,
      "546": 8093,
      "819": 8094,
      "AR": 8095,
      "B6": 8096,
      "Dey": 8097,
      "Es": 8098,
      "Hel": 8099,
      "IT": 8100,
      "Ke": 8101,
      "Ken": 8102,
      "M1": 8103,
      "Movement": 8104,
      "Navy": 8105,
      "Poverty": 8106,
      "Some": 8107,
      "Sarkar": 8108,
      "Tiger": 8109,
      "WTO": 8110,
      "_যুদ্ধ": 8111,
      "_ইন্ডিয়া": 8112,
      "a7": 8113,
      "a9": 8114,
      "aim": 8115,
      "diction": 8116,
      "ease": 8117,
      "ma_": 8118,
      "nearly": 8119,
      "n8012": 8120,
      "popular": 8121,
      "sig": 8122,
      "tl": 8123,
      "uff": 8124,
      "wide": 8125,
      "অভ": 8126,
      "অসম": 8127,
      "অবস্থা": 8128,
      "অন্তর্": 8129,
      "অরণ": 8130,
      "ক্য": 8131,
      "কথা": 8132,
      "গি": 8133,
      "গে": 8134,
      "গৎ": 8135,
      "গার": 8136,
      "গড়": 8137,
      "গঙ্গা": 8138,
      "জার": 8139,
      "জগৎ": 8140,
      "ঢ়": 8141,
      "ণত": 8142,
      "তর": 8143,
      "তৃত": 8144,
      "থি": 8145,
      "দর্": 8146,
      "নো": 8147,
      "ব_": 8148,
      "বন্দ": 8149,
      "বম্": 8150,
      "বহি": 8151,
      "শু": 8152,
      "শব্দ": 8153,
      "সল": 8154,
      "সত্য": 8155,
      "হন": 8156,
      "ুমান": 8157,
      "ূর": 8158,
      "োতি": 8159,
      "্প": 8160,
      "০৫": 8161,
      "২৭": 8162,
      "৬২": 8163,
      "৭৪": 8164,
      "৭৬": 8165,
      "৭৯": 8166,
      "iat": 8167,
      "alys": 8168,
      "tionary": 8169,
      "isi": 8170,
      "য়ার": 8171,
      "oms": 8172,
      "itor": 8173,
      "anda": 8174,
      "andy": 8175,
      "asa": 8176,
      "1983": 8177,
      "acces": 8178,
      "across": 8179,
      "atory": 8180,
      "বিটি": 8181,
      "বিবে": 8182,
      "বিড়": 8183,
      "বিংশ": 8184,
      "বিবাহ": 8185,
      "ustice": 8186,
      "wikidata": 8187,
      "ানে": 8188,
      "ilar": 8189,
      "angladesh": 8190,
      "স্ব": 8191,
      "সাক্ষর": 8192,
      "রাম": 8193,
      "রায়ে": 8194,
      "বাল": 8195,
      "বাডি": 8196,
      "ত্রি": 8197,
      "rael": 8198,
      "টির": 8199,
      "rop": 8200,
      "167": 8201,
      "232": 8202,
      "কাবাডি": 8203,
      "4019": 8204,
      "univers": 8205,
      "262": 8206,
      "appa": 8207,
      "contain": 8208,
      "plates": 8209,
      "িয়ন": 8210,
      "মাত্র": 8211,
      "lif": 8212,
      "\"))|": 8213,
      "ge129": 8214,
      "ত্বে": 8215,
      "২০০৩": 8216,
      "নিম্": 8217,
      "গ্রিক": 8218,
      "জনতা": 8219,
      "ভাষাসমূহ": 8220,
      "harashtra": 8221,
      "establish": 8222,
      "param_": 8223,
      "কারণ": 8224,
      "জ্যোতি": 8225,
      "276": 8226,
      "339": 8227,
      "বেত": 8228,
      "আর্ট": 8229,
      "উৎসব": 8230,
      "Stat": 8231,
      "State_": 8232,
      "িয়াম": 8233,
      "Maharashtra": 8234,
      "সরবরা": 8235,
      "রাষ্ট্রসংঘ": 8236,
      "364": 8237,
      "366": 8238,
      "িকাংশ": 8239,
      "নেতৃ": 8240,
      "Israel": 8241,
      "পরিবেশ": 8242,
      "পরিণত": 8243,
      "391": 8244,
      "5948": 8245,
      "অঞ্চলসমূহ": 8246,
      "একত্র": 8247,
      "বীর": 8248,
      "বর্ধ": 8249,
      "বংশ": 8250,
      "ক্রম": 8251,
      "ুনিক": 8252,
      "display": 8253,
      "রিসার": 8254,
      "মুদ্রা": 8255,
      "former": 8256,
      "গণিত": 8257,
      "পৃথি": 8258,
      "শাসন": 8259,
      "Biosphere": 8260,
      "_ভাষাসমূহ": 8261,
      "ঞ্জি": 8262,
      "বিজে": 8263,
      "ic_name": 8264,
      "School": 8265,
      "দায়": 8266,
      "syear": 8267,
      "এশীয়": 8268,
      "শিল্পকলা": 8269,
      "বিজ্ঞান_ও_": 8270,
      "প্যারামিটারে": 8271,
      "amazon": 8272,
      "Concise": 8273,
      "Democracy": 8274,
      "Council": 8275,
      "সদস্য": 8276,
      "_ও_কেন্দ্রশাসিত_অঞ্চল": 8277,
      "incely": 8278,
      "প্রতিষ্ঠ": 8279,
      "বাহী": 8280,
      "নিকোবর": 8281,
      "ইন্ডিয়ান": 8282,
      "partly": 8283,
      "সামরিক_": 8284,
      "১৬৬": 8285,
      "Atlas": 8286,
      "বঙ্গোপ": 8287,
      "12410": 8288,
      "generic_name": 8289,
      "economictimes": 8290,
      "ভৌগোল": 8291,
      "সাইট": 8292,
      "আন্তর্জাতিক_": 8293,
      "অধিকাংশ": 8294,
      "ইসরায়ে": 8295,
      "সংরক্ষণের": 8296,
      "মহান": 8297,
      "হয়েছিল": 8298,
      "খেলাধু": 8299,
      "Leg": 8300,
      "search_": 8301,
      "রোধ": 8302,
      "বর্ষপ": 8303,
      "অন্যদিকে": 8304,
      "Heritage": 8305,
      "রক্ষী": 8306,
      "similar": 8307,
      "নির্বাচিত": 8308,
      "Federal": 8309,
      "শ্বেত": 8310,
      "পিপিপি": 8311,
      "উপমহাদেশ": 8312,
      "ন্যাশন": 8313,
      "সূচক": 8314,
      "খ্রিস্টধর্ম": 8315,
      "মাধ্যম": 8316,
      "এছাড়াও": 8317,
      "সর্বাধিক": 8318,
      "Classical": 8319,
      "Institute": 8320,
      "cgi": 8321,
      "organisation": 8322,
      "EBchecked": 8323,
      "ভারতের_রাজ্য_ও_কেন্দ্রশাসিত_অঞ্চল": 8324,
      "মনোরমা": 8325,
      "Kannada": 8326,
      "bad_": 8327,
      "আনুমান": 8328,
      "তফসিলি": 8329,
      "সফট": 8330,
      "হিমবাহ": 8331,
      "কর্ণাটক": 8332,
      "তামিলনাড়ু": 8333,
      "পৌরসভা": 8334,
      "UNHDR": 8335,
      "্যুৎ": 8336,
      "দ্বিতীয়": 8337,
      "026612410": 8338,
      "n80125948": 8339,
      "তৃতীয়": 8340,
      "দর্শন": 8341,
      "নোবে": 8342,
      "বম্বে": 8343,
      "alysis": 8344,
      "accessyear": 8345,
      "ge129384": 8346,
      "সরবরাহ": 8347,
      "রিসার্চ": 8348,
      "পৃথিবীর": 8349,
      "ইসরায়েল": 8350,
      "খেলাধুলা": 8351,
      "আনুমানিক": 8352,
      "310": 8353,
      "318": 8354,
      "377": 8355,
      "418": 8356,
      "422": 8357,
      "512": 8358,
      "7mar": 8359,
      "7000": 8360,
      ":**": 8361,
      ";[[": 8362,
      "A5": 8363,
      "Are": 8364,
      "CQ": 8365,
      "Cy": 8366,
      "DPD": 8367,
      "EC": 8368,
      "Eastern": 8369,
      "Fi": 8370,
      "Gar": 8371,
      "Gross": 8372,
      "Han": 8373,
      "Ira": 8374,
      "Kaz": 8375,
      "Korea": 8376,
      "Kultur": 8377,
      "LS": 8378,
      "Lad": 8379,
      "MDD": 8380,
      "MKI": 8381,
      "Nii": 8382,
      "Network": 8383,
      "Open": 8384,
      "Pall": 8385,
      "Sons": 8386,
      "Ver": 8387,
      "Vis": 8388,
      "W00": 8389,
      "Wood": 8390,
      "XLS": 8391,
      "Yarl": 8392,
      "_O": 8393,
      "_50": 8394,
      "_Union": 8395,
      "_logo": 8396,
      "_साम्राज्य": 8397,
      "_per_": 8398,
      "bird": 8399,
      "ctri": 8400,
      "fic": 8401,
      "face": 8402,
      "gad": 8403,
      "gana": 8404,
      "jana": 8405,
      "kC": 8406,
      "kingdoms": 8407,
      "lc": 8408,
      "liv": 8409,
      "la_": 8410,
      "mang": 8411,
      "mana": 8412,
      "mountain": 8413,
      "oz": 8414,
      "rul": 8415,
      "sk": 8416,
      "s_of_": 8417,
      "sex": 8418,
      "spre": 8419,
      "size": 8420,
      "tats": 8421,
      "ued": 8422,
      "uters": 8423,
      "ulos": 8424,
      "ंतर": 8425,
      "इल": 8426,
      "ईल": 8427,
      "उष्ण": 8428,
      "एक्": 8429,
      "कान": 8430,
      "क्रा": 8431,
      "ख्य": 8432,
      "गत": 8433,
      "गि": 8434,
      "गति": 8435,
      "घो": 8436,
      "चा": 8437,
      "चें": 8438,
      "जवा": 8439,
      "जें": 8440,
      "डम": 8441,
      "तम": 8442,
      "द्र": 8443,
      "धरो": 8444,
      "नदी": 8445,
      "पहा": 8446,
      "रत्": 8447,
      "वाल": 8448,
      "वली": 8449,
      "शो": 8450,
      "सह": 8451,
      "हम": 8452,
      "हथि": 8453,
      "ोत्": 8454,
      "१५": 8455,
      "′′": 8456,
      "tegr": 8457,
      "till": 8458,
      "rely": 8459,
      "orke": 8460,
      "20MDD": 8461,
      "alisation": 8462,
      "alwar": 8463,
      "enjo": 8464,
      "often": 8465,
      "itch": 8466,
      "thew": 8467,
      "ous_": 8468,
      "idar": 8469,
      "cha": 8470,
      "child": 8471,
      "trillion": 8472,
      "atna": 8473,
      "weo": 8474,
      "uscrip": 8475,
      "_of_L": 8476,
      "_of_South_Asia": 8477,
      "ura": 8478,
      "et_": 8479,
      ").[[": 8480,
      "igonom": 8481,
      "links": 8482,
      "fied": 8483,
      "hek": 8484,
      "12_": 8485,
      "emen": 8486,
      "emorial": 8487,
      "FOOTNOTEAsherTalbot": 8488,
      "FOOTNOTEBarrow": 8489,
      "स्ट्र": 8490,
      "काम": 8491,
      "rati": 8492,
      "tices": 8493,
      "indias": 8494,
      "There": 8495,
      "188": 8496,
      "15_": 8497,
      "common": 8498,
      "ayana": 8499,
      "ayashi": 8500,
      "408": 8501,
      "विभाग": 8502,
      "CITEREFMetcalfMetcalf2012": 8503,
      "in_South_Asia": 8504,
      "Chol": 8505,
      "ubusiness": 8506,
      "uberc": 8507,
      "288": 8508,
      "trition": 8509,
      "245": 8510,
      "ples": 8511,
      "संबर": 8512,
      "abel": 8513,
      "304": 8514,
      "309": 8515,
      "30MKI": 8516,
      "297": 8517,
      "South_A": 8518,
      "ishes": 8519,
      "iverse": 8520,
      "lies": 8521,
      "ensity": 8522,
      "ालैंड": 8523,
      "oct": 8524,
      "नेपाल": 8525,
      "Indira": 8526,
      "274": 8527,
      "aju": 8528,
      "हाँ": 8529,
      "हाला": 8530,
      "जापान": 8531,
      "पास": 8532,
      "whose": 8533,
      "_Agency": 8534,
      "568": 8535,
      "related": 8536,
      "362": 8537,
      "दिसंबर": 8538,
      "endangered": 8539,
      "359": 8540,
      "arden": 8541,
      "issions": 8542,
      "क्षेत्रफल": 8543,
      "1206": 8544,
      "382": 8545,
      "2C_India": 8546,
      "Indian_Army": 8547,
      "maraju": 8548,
      "Animal": 8549,
      "Roorke": 8550,
      "feb": 8551,
      "mantle": 8552,
      "United_Nations_": 8553,
      "शांति": 8554,
      "शास्त्र": 8555,
      "ervice": 8556,
      "वर्ण": 8557,
      "वर्षा": 8558,
      "_Gu": 8559,
      "less": 8560,
      "Ministers": 8561,
      "_Con": 8562,
      "_Mar": 8563,
      "342": 8564,
      "nationalism": 8565,
      "Assames": 8566,
      "news18": 8567,
      "्राम": 8568,
      "Short": 8569,
      "South_Asian": 8570,
      "कृष": 8571,
      "गुफा": 8572,
      "Tamil_Nadu": 8573,
      "Wikivoyage": 8574,
      "होती": 8575,
      "usiness_": 8576,
      "ों_और_": 8577,
      "द्धि": 8578,
      "Republic_Day": 8579,
      "Peers": 8580,
      "tence": 8581,
      "फ़ि": 8582,
      "मोदी": 8583,
      "Geography": 8584,
      "rights": 8585,
      "व्यक्ति": 8586,
      "१९९": 8587,
      "Agni": 8588,
      "Brid": 8589,
      "edium": 8590,
      "सदन": 8591,
      "बंधीय": 8592,
      "provisions": 8593,
      "Sharma1950": 8594,
      "TRI": 8595,
      "leges": 8596,
      "Punjabi": 8597,
      "caused": 8598,
      "Devi_": 8599,
      "ually": 8600,
      "संग्राम": 8601,
      "Publishers": 8602,
      "currs": 8603,
      "Australian": 8604,
      "colleges": 8605,
      "वैद": 8606,
      "States_and_union_territories_of_India": 8607,
      "NGDPD": 8608,
      "धीरे": 8609,
      "वर्षों": 8610,
      "New_Delhi": 8611,
      "increase": 8612,
      "tiger": 8613,
      "transm": 8614,
      "अपने": 8615,
      "बैंक": 8616,
      "itzel": 8617,
      "thehindubusiness": 8618,
      "Constituent_Assembly_of_India": 8619,
      "दोन": 8620,
      "Bibcode": 8621,
      "Purchas": 8622,
      "longer": 8623,
      "Minority": 8624,
      "families": 8625,
      "veda": 8626,
      "NAL": 8627,
      "hri_": 8628,
      "highest": 8629,
      "astronom": 8630,
      "union_territory": 8631,
      "DDW00": 8632,
      "Dalit": 8633,
      "Supreme": 8634,
      "ईसाई": 8635,
      "नागालैंड": 8636,
      "atistical": 8637,
      "भूमिका": 8638,
      "Mohenjo": 8639,
      "20833": 8640,
      "कटिबंधीय": 8641,
      "२०११": 8642,
      "Nilgir": 8643,
      "CiNii": 8644,
      "Sacred_": 8645,
      "CS1": 8646,
      "Historical": 8647,
      "retary": 8648,
      "इस्लाम": 8649,
      "कंपनी": 8650,
      "वेबैक": 8651,
      "मलयालम": 8652,
      "daro": 8653,
      "_Publishing": 8654,
      "61389": 8655,
      "पत्ति": 8656,
      "Mughal_Empire": 8657,
      "langoff_128": 8658,
      "PSPE": 8659,
      "inancial": 8660,
      "ittances": 8661,
      "मेघालय": 8662,
      "कालीन": 8663,
      "विषय": 8664,
      "साहित्य": 8665,
      "हरियाणा": 8666,
      "Davidson2014": 8667,
      "Malayalam": 8668,
      "Political_map_of_India": 8669,
      "harmaceutical": 8670,
      "Rabind": 8671,
      "adopted": 8672,
      "emerged": 8673,
      "विभाजन": 8674,
      "contribu": 8675,
      "नेतृत्व": 8676,
      "Mathematics": 8677,
      "498576": 8678,
      "प्लेट": 8679,
      "भीमबेटका": 8680,
      "Chhattisgarh": 8681,
      "गारो": 8682,
      "फ्रांस": 8683,
      "onsoon_": 8684,
      "igenous": 8685,
      "प्रारम्भ": 8686,
      "विद्यालय": 8687,
      "discussion": 8688,
      "अरुणाचल": 8689,
      "United_Arab_Emirates": 8690,
      "7mar2011": 8691,
      "KulturNav": 8692,
      "Ladakh": 8693,
      "Pallav": 8694,
      "Yarlung": 8695,
      "_per_capita": 8696,
      "ulosis": 8697,
      "क्रांति": 8698,
      "चेंज": 8699,
      "धरोहर": 8700,
      "हथियार": 8701,
      "20MDDS": 8702,
      "uberculosis": 8703,
      "South_Africa": 8704,
      "Roorkee": 8705,
      "currsci": 8706,
      "thehindubusinessline": 8707,
      "DDW00C": 8708,
      "\",": 8709,
      "323": 8710,
      "478": 8711,
      "450": 8712,
      "6_": 8713,
      "8a": 8714,
      "870": 8715,
      "Broadcasting": 8716,
      "Freedom": 8717,
      "Mc": 8718,
      "Rog": 8719,
      "Str": 8720,
      "Tre": 8721,
      "Tourism": 8722,
      "Web": 8723,
      "XX": 8724,
      "YM": 8725,
      "_www": 8726,
      "_Indian": 8727,
      "_asia": 8728,
      "aedia": 8729,
      "bit": 8730,
      "boo": 8731,
      "del": 8732,
      "folk": 8733,
      "foreign": 8734,
      "freedom": 8735,
      "forge": 8736,
      "hon": 8737,
      "ji": 8738,
      "make": 8739,
      "rang": 8740,
      "song": 8741,
      "wan": 8742,
      "init": 8743,
      "til": 8744,
      "title": 8745,
      "rev": 8746,
      "ali_": 8747,
      "1901": 8748,
      "idence": 8749,
      "champion": 8750,
      "atch": 8751,
      "ents": 8752,
      "ently": 8753,
      "usion": 8754,
      "head": 8755,
      "005": 8756,
      "0056": 8757,
      "ipati": 8758,
      "stm": 8759,
      "sts": 8760,
      "155": 8761,
      "Income": 8762,
      "4071": 8763,
      "40267": 8764,
      "uni": 8765,
      "ever": 8766,
      "api": 8767,
      "above": 8768,
      "called": 8769,
      "_in_India_": 8770,
      "without": 8771,
      "451208": 8772,
      "claim": 8773,
      "7776": 8774,
      "20190": 8775,
      "2C_M": 8776,
      "हिन्दु": 8777,
      "ctions": 8778,
      "disease": 8779,
      "INR": 8780,
      "ghat": 8781,
      "oney": 8782,
      "Century": 8783,
      "011356": 8784,
      "ritannica_": 8785,
      "_He": 8786,
      "Marria": 8787,
      "however": 8788,
      "very": 8789,
      "spee": 8790,
      "south_asia": 8791,
      "Encyclopaedia": 8792,
      "traditions": 8793,
      "Sripati": 8794,
      "West_Beng": 8795,
      "linguistic": 8796,
      "disputed": 8797,
      "003407": 8798,
      "PMID_": 8799,
      "Golden": 8800,
      "Regional": 8801,
      "SAGE": 8802,
      "9057776": 8803,
      "impact": 8804,
      "DA011356": 8805,
      "Recogn": 8806,
      "pollution": 8807,
      "Chandramouli2011": 8808,
      "toolforge": 8809,
      "XX451208": 8810,
      "00564071": 8811,
      "4026722": 8812,
      "90577766": 8813,
      "DA01135694": 8814,
      "0140": 8815,
      "319": 8816,
      "316": 8817,
      "3000": 8818,
      "4th": 8819,
      "410": 8820,
      "5261": 8821,
      "624": 8822,
      "749": 8823,
      "858": 8824,
      "Arav": 8825,
      "Aitch": 8826,
      "Bre": 8827,
      "BJP": 8828,
      "BIB": 8829,
      "Cres": 8830,
      "Cap": 8831,
      "Cath": 8832,
      "Cultural": 8833,
      "Clothing": 8834,
      "Dam": 8835,
      "Fre": 8836,
      "Fall": 8837,
      "Fif": 8838,
      "G4": 8839,
      "Ger": 8840,
      "Ir": 8841,
      "Kad": 8842,
      "King": 8843,
      "Khad": 8844,
      "Line": 8845,
      "LIB": 8846,
      "Mil": 8847,
      "Nag": 8848,
      "Nature": 8849,
      "Onew": 8850,
      "Pav": 8851,
      "PIN": 8852,
      "Rail": 8853,
      "Su": 8854,
      "Sultanate": 8855,
      "SYS": 8856,
      "Tirac": 8857,
      "VID": 8858,
      "Vidy": 8859,
      "Viet": 8860,
      "Witzel": 8861,
      "Y1": 8862,
      "Zoro": 8863,
      "_6": 8864,
      "_2008": 8865,
      "_কেন্দ্র": 8866,
      "_ఆఫ్": 8867,
      "_অব": 8868,
      "_మతం": 8869,
      "_పార్టీ": 8870,
      "_সাল": 8871,
      "_কাপ": 8872,
      "_కాలం": 8873,
      "_రహదారులు": 8874,
      "_వాతావరణం": 8875,
      "_శాస్త్రం": 8876,
      "_সংস্থা": 8877,
      "_నాగరికత": 8878,
      "_టెక్నాలజీ": 8879,
      "_స్టా": 8880,
      "_సామ్రాజ్యము": 8881,
      "_1017": 8882,
      "_राजवंश": 8883,
      "_product": 8884,
      "_film": 8885,
      "_Index": 8886,
      "_वार्ता": 8887,
      "_আন্তর্জাতিক_": 8888,
      "ause": 8889,
      "aHard": 8890,
      "bul": 8891,
      "borders": 8892,
      "coral": 8893,
      "dna": 8894,
      "eag": 8895,
      "eaten": 8896,
      "fores": 8897,
      "female": 8898,
      "gas": 8899,
      "gate": 8900,
      "hockey": 8901,
      "iti": 8902,
      "ied": 8903,
      "itive": 8904,
      "just": 8905,
      "kal": 8906,
      "ket": 8907,
      "kesh": 8908,
      "k_B": 8909,
      "kameez": 8910,
      "mas": 8911,
      "media": 8912,
      "mart": 8913,
      "ns": 8914,
      "nations": 8915,
      "nla": 8916,
      "o_m": 8917,
      "oids": 8918,
      "p1": 8919,
      "pec": 8920,
      "pati": 8921,
      "poverty": 8922,
      "p050": 8923,
      "rip": 8924,
      "so": 8925,
      "ss_": 8926,
      "series": 8927,
      "turn": 8928,
      "utic": 8929,
      "uilding": 8930,
      "vens": 8931,
      "win": 8932,
      "wic": 8933,
      "wat": 8934,
      "words": 8935,
      "अब": 8936,
      "अंड": 8937,
      "अमी": 8938,
      "अफ़": 8939,
      "अतुल": 8940,
      "अशो": 8941,
      "अहम": 8942,
      "आय": 8943,
      "आदि": 8944,
      "आपात": 8945,
      "आन्दोलन": 8946,
      "ईद": 8947,
      "उद": 8948,
      "ऍथ": 8949,
      "ऑपर": 8950,
      "कणी": 8951,
      "ख़": 8952,
      "गध": 8953,
      "चोल": 8954,
      "जपा": 8955,
      "जपुरी": 8956,
      "डे": 8957,
      "डाल": 8958,
      "थाली": 8959,
      "धन": 8960,
      "धि": 8961,
      "धिकार": 8962,
      "नई": 8963,
      "नान": 8964,
      "नरे": 8965,
      "नोल": 8966,
      "नन्दा": 8967,
      "पद": 8968,
      "पहु": 8969,
      "बने": 8970,
      "बड़ा": 8971,
      "ब्यू": 8972,
      "मगध": 8973,
      "यान": 8974,
      "यपुर": 8975,
      "लखन": 8976,
      "शत": 8977,
      "शै": 8978,
      "षण": 8979,
      "सश": 8980,
      "ूबर": 8981,
      "ॉग": 8982,
      "ोला": 8983,
      "५७": 8984,
      "অফ": 8985,
      "অনে": 8986,
      "অধ্য": 8987,
      "অবৈ": 8988,
      "অক্ষর": 8989,
      "আম": 8990,
      "আদি": 8991,
      "ইহু": 8992,
      "ঈদু": 8993,
      "উপর": 8994,
      "ওড়": 8995,
      "কক্ষ": 8996,
      "কম্": 8997,
      "ক্যা": 8998,
      "কবর": 8999,
      "কুর": 9000,
      "খুন": 9001,
      "খনিজ": 9002,
      "গম": 9003,
      "গাল": 9004,
      "গেশন": 9005,
      "গ্যাস": 9006,
      "চর": 9007,
      "চোল": 9008,
      "চেরি": 9009,
      "জর": 9010,
      "জর্": 9011,
      "জিয়া": 9012,
      "জ্ঞান": 9013,
      "টো": 9014,
      "ডোগ": 9015,
      "তথা": 9016,
      "দৈ": 9017,
      "দুটি": 9018,
      "দ্রু": 9019,
      "নদ": 9020,
      "নেশিয়া": 9021,
      "পণ": 9022,
      "পয়": 9023,
      "পত্র": 9024,
      "পুন": 9025,
      "ফৌ": 9026,
      "ফার্": 9027,
      "ফিল্": 9028,
      "ফিলি": 9029,
      "বট": 9030,
      "বোর্": 9031,
      "ভক্ত": 9032,
      "ভবন": 9033,
      "ভট্ট": 9034,
      "মব্রি": 9035,
      "রক্ষা": 9036,
      "রন্ধ": 9037,
      "রবন": 9038,
      "লৌ": 9039,
      "লক্ষ": 9040,
      "শত": 9041,
      "শর": 9042,
      "শে": 9043,
      "শিয়া": 9044,
      "সিয়া": 9045,
      "সবু": 9046,
      "সটেক": 9047,
      "হলে": 9048,
      "াযোগ": 9049,
      "াত্য": 9050,
      "ীড়া": 9051,
      "৩৯": 9052,
      "৫৮": 9053,
      "৮৬": 9054,
      "৮৭": 9055,
      "ంకా": 9056,
      "ంజి": 9057,
      "ంజీ": 9058,
      "ంతల": 9059,
      "అవి": 9060,
      "అలీ": 9061,
      "అధ్య": 9062,
      "అజె": 9063,
      "అక్టో": 9064,
      "అసో": 9065,
      "అర్జె": 9066,
      "ఆచే": 9067,
      "ఆర్య": 9068,
      "ఆనంద": 9069,
      "ఇంది": 9070,
      "ఇక్క": 9071,
      "ఇంటి": 9072,
      "ఇస్రా": 9073,
      "ఈజి": 9074,
      "ఉండ": 9075,
      "ఉజ్": 9076,
      "ఉష్ణ": 9077,
      "ఉంటుంది": 9078,
      "ఋతు": 9079,
      "ఎమి": 9080,
      "ఒకే": 9081,
      "ఒమన్": 9082,
      "ఓం": 9083,
      "కజ": 9084,
      "కె": 9085,
      "క్రా": 9086,
      "కార్": 9087,
      "కటి": 9088,
      "కస్తాన్": 9089,
      "కంబ": 9090,
      "కమీ": 9091,
      "కరం": 9092,
      "కమల": 9093,
      "కదంబ": 9094,
      "ఖా": 9095,
      "ఖు": 9096,
      "ఖై": 9097,
      "ఖగోళ": 9098,
      "గజ": 9099,
      "గధ": 9100,
      "గమ": 9101,
      "గదీ": 9102,
      "గిల్లీ": 9103,
      "గనులు": 9104,
      "గంగో": 9105,
      "గ్రామ": 9106,
      "ఘల్": 9107,
      "ఘట్ట": 9108,
      "చ్య": 9109,
      "చట్ట": 9110,
      "చారి": 9111,
      "చాలా": 9112,
      "చత్తీస్": 9113,
      "ఛే": 9114,
      "ఛత్తీస్": 9115,
      "జర": 9116,
      "జల": 9117,
      "జవ": 9118,
      "జౌ": 9119,
      "జ్ర": 9120,
      "జాలు": 9121,
      "జంబ": 9122,
      "జయం": 9123,
      "జర్వ": 9124,
      "జమై": 9125,
      "జికి": 9126,
      "జరుపు": 9127,
      "జగదీ": 9128,
      "డండి": 9129,
      "డాన్": 9130,
      "తత్వ": 9131,
      "తవాహ": 9132,
      "తజికి": 9133,
      "థమ": 9134,
      "థార్": 9135,
      "థాయి": 9136,
      "దస": 9137,
      "దీయ": 9138,
      "దారి": 9139,
      "దరణ": 9140,
      "దండా": 9141,
      "ధం": 9142,
      "ధన్": 9143,
      "ధనా": 9144,
      "నూ": 9145,
      "నర్": 9146,
      "నరే": 9147,
      "నపద": 9148,
      "పస్": 9149,
      "ప్ట": 9150,
      "పద్": 9151,
      "పట్": 9152,
      "పారి": 9153,
      "పవర్": 9154,
      "పర్వ": 9155,
      "పకళ": 9156,
      "పారిటీ": 9157,
      "పవనాలు": 9158,
      "పౌర": 9159,
      "ఫ్రా": 9160,
      "బు": 9161,
      "బనా": 9162,
      "బంగా": 9163,
      "బహా": 9164,
      "బ్యా": 9165,
      "మస్": 9166,
      "మంది": 9167,
      "మలి": 9168,
      "మారు": 9169,
      "మంగో": 9170,
      "మగధ": 9171,
      "యస్": 9172,
      "యర్": 9173,
      "యము": 9174,
      "యతి": 9175,
      "యత్": 9176,
      "యంలో": 9177,
      "యనాలు": 9178,
      "యణం": 9179,
      "యసల": 9180,
      "రత్": 9181,
      "రద్": 9182,
      "రారి": 9183,
      "రవీ": 9184,
      "ళూరు": 9185,
      "వత": 9186,
      "వతి": 9187,
      "వమి": 9188,
      "వల్ల": 9189,
      "వళి": 9190,
      "వనాథ": 9191,
      "వసర": 9192,
      "వజ్ర": 9193,
      "శాల": 9194,
      "శిల్": 9195,
      "శ్రామ": 9196,
      "శరద్": 9197,
      "షే": 9198,
      "షకాహార": 9199,
      "సన": 9200,
      "సొ": 9201,
      "సల్": 9202,
      "సులు": 9203,
      "సైనా": 9204,
      "సమితి": 9205,
      "హణ": 9206,
      "హె": 9207,
      "హ్ర": 9208,
      "హస్త": 9209,
      "హర్య": 9210,
      "హక్కు": 9211,
      "ాబ్": 9212,
      "ాధి": 9213,
      "ానిస్తాన్": 9214,
      "ాయతి": 9215,
      "ిళ్ళ": 9216,
      "ీలు": 9217,
      "ీనా": 9218,
      "ీకరణ": 9219,
      "ీర్ణం": 9220,
      "ుళూరు": 9221,
      "ూచి": 9222,
      "ూప్": 9223,
      "ూనై": 9224,
      "ేష్": 9225,
      "ొనేషియా": 9226,
      "ోసి": 9227,
      "ోడియా": 9228,
      "ౌపది": 9229,
      "్_": 9230,
      "‌సై": 9231,
      "‌గఢ్": 9232,
      "‌బై": 9233,
      "\")[": 9234,
      "\")).": 9235,
      "\")।[[": 9236,
      "ia_m": 9237,
      "on_S": 9238,
      "ina": 9239,
      "ine_": 9240,
      "remain": 9241,
      "three": 9242,
      "erpar": 9243,
      "202012": 9244,
      "20two": 9245,
      "ald": 9246,
      "ale": 9247,
      "ency": 9248,
      "istic": 9249,
      "isbn": 9250,
      "cifer": 9251,
      "్రయి": 9252,
      "omo": 9253,
      "ommaraju": 9254,
      "ారమ్": 9255,
      "ारजि": 9256,
      "asi": 9257,
      "asar": 9258,
      "asagar": 9259,
      "্যপ্রাণী": 9260,
      "192": 9261,
      "ided": 9262,
      "idistan": 9263,
      "ch_": 9264,
      "chess": 9265,
      "ాలనే": 9266,
      "adh": 9267,
      "adition": 9268,
      "adhy": 9269,
      "స్కృ": 9270,
      "స్పీ": 9271,
      "స్సీ": 9272,
      "ambol": 9273,
      "তিব্": 9274,
      "దేశీ": 9275,
      "దేశపు": 9276,
      "దేశంగా": 9277,
      "దేశాధి": 9278,
      "lotus": 9279,
      "agir": 9280,
      "enty": 9281,
      "র্মা": 9282,
      "సాయం": 9283,
      "సానియా": 9284,
      "বিহার": 9285,
      "বিম্‌": 9286,
      "বিভক্ত": 9287,
      "um_": 9288,
      "uscir": 9289,
      "ime_": 9290,
      "ర్ష": 9291,
      "ర్ము": 9292,
      "ర్తా": 9293,
      "ర్టి": 9294,
      "ర్లా": 9295,
      "ర్గి": 9296,
      "ర్క్‌": 9297,
      "ర్డాన్": 9298,
      "ర్‌బై": 9299,
      "ects": 9300,
      "ilt": 9301,
      "केश": 9302,
      "\"),[": 9303,
      "_of_Un": 9304,
      "স্ফ": 9305,
      "etu": 9306,
      "editor": 9307,
      "olad": 9308,
      "రామా": 9309,
      "రామన": 9310,
      "istaHard": 9311,
      "ప్రస్": 9312,
      "ప్రదేశాల": 9313,
      "ప్రథమ": 9314,
      "रात": 9315,
      "राम": 9316,
      "সাত": 9317,
      "সামা": 9318,
      "প্রয়": 9319,
      "প্রকল": 9320,
      "భారతదేశము": 9321,
      "ীয়া": 9322,
      "లోక్": 9323,
      "లోజి": 9324,
      "లోపం": 9325,
      "లోసార్": 9326,
      "త్రక": 9327,
      "reserves": 9328,
      "results": 9329,
      "1233": 9330,
      "দ্বার": 9331,
      "রামন": 9332,
      "রাউট": 9333,
      "রাশিয়া": 9334,
      "రిజర్వ": 9335,
      "క్సి": 9336,
      "বাঘ": 9337,
      "বাম": 9338,
      "978019": 9339,
      "स्क": 9340,
      "स्थि": 9341,
      "నిషే": 9342,
      "ల్త్": 9343,
      "umbo_": 9344,
      "elumbo_": 9345,
      "সংযুক্ত": 9346,
      "505": 9347,
      "টিয়া": 9348,
      "ంగపూర్": 9349,
      "14003": 9350,
      "হাই": 9351,
      "1500": 9352,
      "Ins_m": 9353,
      "234": 9354,
      "239": 9355,
      "ములు": 9356,
      "ముర్ము": 9357,
      "ండమస్": 9358,
      "402": 9359,
      "40398": 9360,
      "ারিত": 9361,
      "unknow": 9362,
      "akwas": 9363,
      "प्रस": 9364,
      "సిరియా": 9365,
      "సిద్ధి": 9366,
      "సిలోన్": 9367,
      "సింగపూర్": 9368,
      "ভাব": 9369,
      "ভাভা": 9370,
      "কেমব্রি": 9371,
      "al_Pradesh": 9372,
      "నాం": 9373,
      "నాణే": 9374,
      "విడ": 9375,
      "విస్": 9376,
      "వింద": 9377,
      "విధ్య": 9378,
      "విధాన": 9379,
      "విశాఖ": 9380,
      "విజన్": 9381,
      "విజయ": 9382,
      "వివాదం": 9383,
      "విభిన్న": 9384,
      "వినాయక": 9385,
      "వియత్": 9386,
      "విదేశీ": 9387,
      "CITEREFHarle": 9388,
      "CITEREFLibrary_of_Congress2004": 9389,
      "Char": 9390,
      "Cham": 9391,
      "s_in_South_Asia": 9392,
      "త్తా": 9393,
      "త్తల": 9394,
      "281": 9395,
      "ap_en": 9396,
      "front": 9397,
      "friday": 9398,
      "eping": 9399,
      "24_A7C": 9400,
      "251": 9401,
      ")।[[": 9402,
      "కుని": 9403,
      "కువై": 9404,
      "కుషా": 9405,
      "కుర్తా": 9406,
      "উদ্ধৃতিতে": 9407,
      "ন্দরবন": 9408,
      "क्षण": 9409,
      "লেজ": 9410,
      "লেঙ্গ": 9411,
      "a_1": 9412,
      "संथाली": 9413,
      "abour": 9414,
      "e_Mang": 9415,
      "నుంచి": 9416,
      "307": 9417,
      "30568": 9418,
      "చిన": 9419,
      "చింది": 9420,
      "చిపూ": 9421,
      "చిలీ": 9422,
      "ods": 9423,
      "i_local_": 9424,
      "292": 9425,
      "ষ্টি": 9426,
      "జాన్": 9427,
      "జానపద": 9428,
      "పూణే": 9429,
      "వాన్": 9430,
      "వాకా": 9431,
      "ताल": 9432,
      "লাইন": 9433,
      "নাথ": 9434,
      "নামে": 9435,
      "మాణ": 9436,
      "మామి": 9437,
      "మావతి": 9438,
      "మాండమస్": 9439,
      "মাইল": 9440,
      "মাতর": 9441,
      "भाष": 9442,
      "भाजपा": 9443,
      "liz": 9444,
      "িলী": 9445,
      "ద్వార": 9446,
      "Armen": 9447,
      "Arambol": 9448,
      "परंप": 9449,
      "ত্তি": 9450,
      "ত্মা": 9451,
      "নিবেশ": 9452,
      "prus": 9453,
      "prim": 9454,
      "_Sh": 9455,
      "_Setu": 9456,
      "సంతాల": 9457,
      "సంక్రా": 9458,
      "కాయ": 9459,
      "కామన్": 9460,
      "భారతీయుల": 9461,
      "জনপদ": 9462,
      "দেশীয়": 9463,
      "ాంశం": 9464,
      "_in_New_Delhi": 9465,
      "_Pe": 9466,
      "_Paul": 9467,
      "মিজো": 9468,
      "uced": 9469,
      "కింద": 9470,
      "కిస్తాన్": 9471,
      "కిర్గి": 9472,
      "పాయి": 9473,
      "పావళి": 9474,
      "పుత్ర": 9475,
      "పురు": 9476,
      "పులి": 9477,
      "పుట్ట": 9478,
      "పుదు": 9479,
      "పునర్": 9480,
      "స్థాయి": 9481,
      "చరిత్రలు": 9482,
      "कोरिया": 9483,
      "আইএ": 9484,
      "యింది": 9485,
      "వంటక": 9486,
      "న్నె": 9487,
      "న్నది": 9488,
      "న్నారు": 9489,
      "parks": 9490,
      "রেট": 9491,
      "রেক্ট": 9492,
      "ained": 9493,
      "476": 9494,
      "దిగువ": 9495,
      "phib": 9496,
      "ष्ठ": 9497,
      "3300": 9498,
      "PAL": 9499,
      "সেন্ট্র": 9500,
      "టిల్": 9501,
      "నేత": 9502,
      "నేసియా": 9503,
      "మిత్ర": 9504,
      "మింట": 9505,
      "India_78": 9506,
      "India_gate": 9507,
      "আর্থ": 9508,
      "ంచే": 9509,
      "ంచల్": 9510,
      "सूर": 9511,
      "80N": 9512,
      "ড়খণ্ড": 9513,
      "St_Paul": 9514,
      "वाला": 9515,
      "4593": 9516,
      "भाषाएं": 9517,
      "भाषाएँ": 9518,
      "ডিরেক্ট": 9519,
      "ার্ড": 9520,
      "స్తానీ": 9521,
      "రాష్ట్రకూ": 9522,
      "थाईल": 9523,
      "গুপ্ত": 9524,
      "otus_": 9525,
      "జి_": 9526,
      "జిత్": 9527,
      "జియా": 9528,
      "జిస్తాన్": 9529,
      "జింబ": 9530,
      "এনফোর্স": 9531,
      "361": 9532,
      "363": 9533,
      "463": 9534,
      "উপদ্বীপ": 9535,
      "డుంబ": 9536,
      "Stevens": 9537,
      "ంటో": 9538,
      "ంటీనా": 9539,
      "లిప్": 9540,
      "లియం": 9541,
      "లివిజన్": 9542,
      "రాజధా": 9543,
      "రాజముద్ర": 9544,
      "ards": 9545,
      "নীত": 9546,
      "డ్_": 9547,
      "డ్డి": 9548,
      "డ్మింట": 9549,
      "7733": 9550,
      "करना": 9551,
      "करता": 9552,
      "किला": 9553,
      "తరగతి": 9554,
      "निभाई": 9555,
      "కోటి": 9556,
      "కోక్‌": 9557,
      "కోవార": 9558,
      "కోవడం": 9559,
      "జాతీయతా": 9560,
      "జాతీయవాదం": 9561,
      "মেন": 9562,
      "_Beach": 9563,
      "387": 9564,
      "ంబెట్": 9565,
      "లాండ్": 9566,
      "లావో": 9567,
      "ue_of_Un": 9568,
      "২০১৭": 9569,
      "ওয়েবসাইট": 9570,
      "जनता": 9571,
      "దీఅరేబియా": 9572,
      "దీపావళి": 9573,
      "పేస్": 9574,
      "పేర్కొ": 9575,
      "আইএসবিন": 9576,
      "496": 9577,
      "हिन्द_": 9578,
      "Enforcement": 9579,
      "చేసింది": 9580,
      "చేసింగ్": 9581,
      "చేంజి": 9582,
      "ట్స్": 9583,
      "మతాల": 9584,
      "পরিবর্ত": 9585,
      "చ్ఛ": 9586,
      "దాపు": 9587,
      "దాదాపు": 9588,
      "An_Un": 9589,
      "मुम्": 9590,
      "लिपि": 9591,
      "వేల": 9592,
      "వేత్తల": 9593,
      "मील": 9594,
      "ఆర్మే": 9595,
      "ంద్రనాథ": 9596,
      "acher": 9597,
      "achal_Pradesh": 9598,
      "కాలక్ర": 9599,
      "బెకిస్తాన్": 9600,
      "দিয়ে": 9601,
      "ట్టమొదటి": 9602,
      "శాతవాహ": 9603,
      "శాసన": 9604,
      "2012AR": 9605,
      "United_St": 9606,
      "वर्त": 9607,
      "_Ganges": 9608,
      "cond": 9609,
      "ప్పా": 9610,
      "మీర్": 9611,
      "మేనిడ్": 9612,
      "বিশ্বাস": 9613,
      "ভিশন": 9614,
      "ভিয়েত": 9615,
      "కూడి": 9616,
      "కూచిపూ": 9617,
      "పాలించ": 9618,
      "ক্রীড়া": 9619,
      "জিবিটি": 9620,
      "ार्कटि": 9621,
      "distribution": 9622,
      "8731": 9623,
      "quest": 9624,
      "తోష్ణ": 9625,
      "బ్డే": 9626,
      "প্রাস": 9627,
      "Thir": 9628,
      "भिन्न": 9629,
      "কোঙ্ক": 9630,
      "কোরিয়া": 9631,
      "গণমাধ্যম": 9632,
      "মহাত্মা": 9633,
      "মহাজনপদ": 9634,
      "মধ্যপ্রদেশ": 9635,
      "పంచె": 9636,
      "పంచాయతి": 9637,
      "బియస్": 9638,
      "బిర్లా": 9639,
      "వుంటుంది": 9640,
      "centre": 9641,
      "మొఘల్": 9642,
      "మొట్టమొదటి": 9643,
      "স্থ্য": 9644,
      "ধর্মনিরপেক্ষ": 9645,
      "కొని": 9646,
      "దుస్తులు": 9647,
      "మ్మ": 9648,
      "వర్ణ": 9649,
      "_November": 9650,
      "_Nelumbo_": 9651,
      "వ్యవసాయం": 9652,
      "ghalaya": 9653,
      "plex": 9654,
      "বৈশি": 9655,
      "తున్": 9656,
      "తుంది": 9657,
      "తురు": 9658,
      "తుడు": 9659,
      "మెన్": 9660,
      "మెనిస్తాన్": 9661,
      "మెక్సి": 9662,
      "ভারতে_অর্থনৈতিক_": 9663,
      "_Res": 9664,
      "_Ram": 9665,
      "టుర్క్‌": 9666,
      "టెన్ని": 9667,
      "టెలివిజన్": 9668,
      "বিজয়ন": 9669,
      "Gukesh": 9670,
      "Tradition": 9671,
      "Platan": 9672,
      "Plofker": 9673,
      "గోర్": 9674,
      "గోధు": 9675,
      "గోడుంబ": 9676,
      "బ్రహ్మ": 9677,
      "బ్రూనై": 9678,
      "భారతీయ_భాషలు": 9679,
      "Schedule": 9680,
      "రాజ్యసభ": 9681,
      "రాజ్యసమితి": 9682,
      "ప్రపంచ_": 9683,
      "మతములు": 9684,
      "వ్యవస్థలో": 9685,
      "వ్యవస్థీకరణ": 9686,
      "Sea": 9687,
      "crim": 9688,
      "గిన్నె": 9689,
      "పెట్రో": 9690,
      "article30568": 9691,
      "_missile": 9692,
      "_map_en": 9693,
      "দাক্ষিণ": 9694,
      "সংখ্যার": 9695,
      "బెంగుళూరు": 9696,
      "Prosp": 9697,
      "পুদু": 9698,
      "ighCourt": 9699,
      "ंदोलन": 9700,
      "governments": 9701,
      "টাকার": 9702,
      "Rajiv": 9703,
      "ద్ర్య": 9704,
      "ద్రౌపది": 9705,
      "భారత_పాకిస్తాన్": 9706,
      "భారత_జాతీయ_": 9707,
      "హిందూదేశం": 9708,
      "హిందూస్తానీ": 9709,
      "Bengal_": 9710,
      "महान": 9711,
      "महारजि": 9712,
      "পশু": 9713,
      "క్యారమ్": 9714,
      "నాలుగు": 9715,
      "భూపతి": 9716,
      "రేఖ": 9717,
      "రేట్స్": 9718,
      "దేశాలను": 9719,
      "নির্দেশ": 9720,
      "7619": 9721,
      "Alan": 9722,
      "Although": 9723,
      "Cobra": 9724,
      "গাঢ়": 9725,
      "uman_L": 9726,
      "স্বাস্থ্য": 9727,
      "ইনভে": 9728,
      "দেখুন": 9729,
      "ভেল": 9730,
      "যোগাযোগ": 9731,
      "ఒరిస్సా": 9732,
      "చూడండి": 9733,
      "వీటిలో": 9734,
      "సంగమ": 9735,
      "నాగాలు": 9736,
      "కాశ్మీరీ": 9737,
      "DelhiMe": 9738,
      "Fishing": 9739,
      "বন্যপ্রাণী": 9740,
      "ఉపరాజ్యం": 9741,
      "రోక్": 9742,
      "లేదా": 9743,
[...]
