{
  "version": "1.0",
  "truncation": null,
  "padding": null,
  "added_tokens": [
    {
      "id": 0,
      "content": "<unk>",
      "single_word": false,
      "lstrip": false,
      "rstrip": false,
      "normalized": false,
      "special": true
    }
  ],
  "normalizer": {
    "type": "NFKC"
  },
  "pre_tokenizer": {
    "type": "Metaspace",
    "replacement": "▁",
    "prepend_scheme": "never",
    "split": true
  },
  "post_processor": null,
  "decoder": {
    "type": "Metaspace",
    "replacement": "▁",
    "prepend_scheme": "never",
    "split": true
  },
  "model": {
    "type": "BPE",
    "dropout": null,
    "unk_token": "<unk>",
    "continuing_subword_prefix": null,
    "end_of_word_suffix": null,
    "fuse_unk": false,
    "byte_fallback": true,
    "ignore_merges": false,
    "vocab": {
      "<unk>": 0,
      "\n": 1,
      "!": 2,
      "\"": 3,
      "#": 4,
      "$": 5,
      "%": 6,
      "&": 7,
      "'": 8,
      "(": 9,
      ")": 10,
      "*": 11,
      "+": 12,
      ",": 13,
      "-": 14,
      ".": 15,
      "/": 16,
      "0": 17,
      "1": 18,
      "2": 19,
      "3": 20,
      "4": 21,
      "5": 22,
      "6": 23,
      "7": 24,
      "8": 25,
      "9": 26,
      ":": 27,
      ";": 28,
      "<": 29,
      "=": 30,
      ">": 31,
      "?": 32,
      "@": 33,
      "A": 34,
      "B": 35,
      "C": 36,
      "D": 37,
      "E": 38,
      "F": 39,
      "G": 40,
      "H": 41,
      "I": 42,
      "J": 43,
      "K": 44,
      "L": 45,
      "M": 46,
      "N": 47,
      "O": 48,
      "P": 49,
      "Q": 50,
      "R": 51,
      "S": 52,
      "T": 53,
      "U": 54,
      "V": 55,
      "W": 56,
      "X": 57,
      "Y": 58,
      "Z": 59,
      "[": 60,
      "\\": 61,
      "]": 62,
      "^": 63,
      "_": 64,
      "`": 65,
      "a": 66,
      "b": 67,
      "c": 68,
      "d": 69,
      "e": 70,
      "f": 71,
      "g": 72,
      "h": 73,
      "i": 74,
      "j": 75,
      "k": 76,
      "l": 77,
      "m": 78,
      "n": 79,
      "o": 80,
      "p": 81,
      "q": 82,
      "r": 83,
      "s": 84,
      "t": 85,
      "u": 86,
      "v": 87,
      "w": 88,
      "x": 89,
      "y": 90,
      "z": 91,
      "{": 92,
      "|": 93,
      "}": 94,
      "~": 95,
      "¢": 96,
      "£": 97,
      "¥": 98,
      "§": 99,
      "©": 100,
      "«": 101,
      "®": 102,
      "°": 103,
      "±": 104,
      "¶": 105,
      "·": 106,
      "»": 107,
      "Ö": 108,
      "×": 109,
      "ß": 110,
      "á": 111,
      "â": 112,
      "æ": 113,
      "ç": 114,
      "è": 115,
      "é": 116,
      "í": 117,
      "ñ": 118,
      "ö": 119,
      "÷": 120,
      "ü": 121,
      "ā": 122,
      "ī": 123,
      "İ": 124,
      "Ś": 125,
      "ś": 126,
      "ţ": 127,
      "ū": 128,
      "ș": 129,
      "ə": 130,
      "ɦ": 131,
      "ɪ": 132,
      "ɾ": 133,
      "ʊ": 134,
      "ʼ": 135,
      "ˈ": 136,
      "ː": 137,
      "́": 138,
      "Δ": 139,
      "Ω": 140,
      "ί": 141,
      "α": 142,
      "β": 143,
      "γ": 144,
      "δ": 145,
      "θ": 146,
      "λ": 147,
      "μ": 148,
      "ν": 149,
      "ο": 150,
      "π": 151,
      "ς": 152,
      "ό": 153,
      "ँ": 154,
      "ं": 155,
      "ः": 156,
      "अ": 157,
      "आ": 158,
      "इ": 159,
      "ई": 160,
      "उ": 161,
      "ऊ": 162,
      "ऋ": 163,
      "ऍ": 164,
      "ए": 165,
      "ऐ": 166,
      "ऑ": 167,
      "ओ": 168,
      "औ": 169,
      "क": 170,
      "ख": 171,
      "ग": 172,
      "घ": 173,
      "ङ": 174,
      "च": 175,
      "छ": 176,
      "ज": 177,
      "झ": 178,
      "ञ": 179,
      "ट": 180,
      "ठ": 181,
      "ड": 182,
      "ढ": 183,
      "ण": 184,
      "त": 185,
      "थ": 186,
      "द": 187,
      "ध": 188,
      "न": 189,
      "प": 190,
      "फ": 191,
      "ब": 192,
      "भ": 193,
      "म": 194,
      "य": 195,
      "र": 196,
      "ल": 197,
      "ळ": 198,
      "व": 199,
      "श": 200,
      "ष": 201,
      "स": 202,
      "ह": 203,
      "़": 204,
      "ा": 205,
      "ि": 206,
      "ी": 207,
      "ु": 208,
      "ू": 209,
      "ृ": 210,
      "े": 211,
      "ै": 212,
      "ॉ": 213,
      "ॊ": 214,
      "ो": 215,
      "ौ": 216,
      "्": 217,
      "।": 218,
      "॥": 219,
      "०": 220,
      "१": 221,
      "२": 222,
      "३": 223,
      "४": 224,
      "५": 225,
      "६": 226,
      "७": 227,
      "८": 228,
      "९": 229,
      "॰": 230,
      "ঁ": 231,
      "ং": 232,
      "ঃ": 233,
      "অ": 234,
      "আ": 235,
      "ই": 236,
      "ঈ": 237,
      "উ": 238,
      "ঊ": 239,
      "ঋ": 240,
      "এ": 241,
      "ঐ": 242,
      "ও": 243,
      "ঔ": 244,
      "ক": 245,
      "খ": 246,
      "গ": 247,
      "ঘ": 248,
      "ঙ": 249,
      "চ": 250,
      "ছ": 251,
      "জ": 252,
      "ঝ": 253,
      "ঞ": 254,
      "ট": 255,
      "ঠ": 256,
      "ড": 257,
      "ঢ": 258,
      "ণ": 259,
      "ত": 260,
      "থ": 261,
      "দ": 262,
      "ধ": 263,
      "ন": 264,
      "প": 265,
      "ফ": 266,
      "ব": 267,
      "ভ": 268,
      "ম": 269,
      "য": 270,
      "র": 271,
      "ল": 272,
      "শ": 273,
      "ষ": 274,
      "স": 275,
      "হ": 276,
      "়": 277,
      "া": 278,
      "ি": 279,
      "ী": 280,
      "ু": 281,
      "ূ": 282,
      "ৃ": 283,
      "ে": 284,
      "ৈ": 285,
      "ো": 286,
      "ৌ": 287,
      "্": 288,
      "ৎ": 289,
      "০": 290,
      "১": 291,
      "২": 292,
      "৩": 293,
      "৪": 294,
      "৫": 295,
      "৬": 296,
      "৭": 297,
      "৮": 298,
      "৯": 299,
      "ం": 300,
      "ః": 301,
      "అ": 302,
      "ఆ": 303,
      "ఇ": 304,
      "ఈ": 305,
      "ఉ": 306,
      "ఋ": 307,
      "ఎ": 308,
      "ఏ": 309,
      "ఐ": 310,
      "ఒ": 311,
      "ఓ": 312,
      "ఔ": 313,
      "క": 314,
      "ఖ": 315,
      "గ": 316,
      "ఘ": 317,
      "చ": 318,
      "ఛ": 319,
      "జ": 320,
      "ఞ": 321,
      "ట": 322,
      "ఠ": 323,
      "డ": 324,
      "ఢ": 325,
      "ణ": 326,
      "త": 327,
      "థ": 328,
      "ద": 329,
      "ధ": 330,
      "న": 331,
      "ప": 332,
      "ఫ": 333,
      "బ": 334,
      "భ": 335,
      "మ": 336,
      "య": 337,
      "ర": 338,
      "ల": 339,
      "ళ": 340,
      "వ": 341,
      "శ": 342,
      "ష": 343,
      "స": 344,
      "హ": 345,
      "ా": 346,
      "ి": 347,
      "ీ": 348,
      "ు": 349,
      "ూ": 350,
      "ృ": 351,
      "ె": 352,
      "ే": 353,
      "ై": 354,
      "ొ": 355,
      "ో": 356,
      "ౌ": 357,
      "్": 358,
      "ṅ": 359,
      "ṇ": 360,
      "Ṛ": 361,
      "ṣ": 362,
      "ṭ": 363,
      "Ἰ": 364,
      "‌": 365,
      "‍": 366,
      "‎": 367,
      "–": 368,
      "—": 369,
      "―": 370,
      "‘": 371,
      "’": 372,
      "‚": 373,
      "“": 374,
      "”": 375,
      "„": 376,
      "†": 377,
      "‡": 378,
      "•": 379,
      "…": 380,
      "‧": 381,
      "′": 382,
      "‹": 383,
      "›": 384,
      "※": 385,
      "⁡": 386,
      "₩": 387,
      "€": 388,
      "₹": 389,
      "₽": 390,
      "₿": 391,
      "™": 392,
      "←": 393,
      "↑": 394,
      "→": 395,
      "↓": 396,
      "↔": 397,
      "↖": 398,
      "↗": 399,
      "↘": 400,
      "↙": 401,
      "⇐": 402,
      "⇒": 403,
      "⇔": 404,
      "∂": 405,
      "∆": 406,
      "∏": 407,
      "∑": 408,
      "−": 409,
      "√": 410,
      "∞": 411,
      "∫": 412,
      "≈": 413,
      "≠": 414,
      "≡": 415,
      "≤": 416,
      "≥": 417,
      "▁": 418,
      "☀": 419,
      "☁": 420,
      "☂": 421,
      "☃": 422,
      "★": 423,
      "☆": 424,
      "☕": 425,
      "♠": 426,
      "♣": 427,
      "♥": 428,
      "♦": 429,
      "⚠": 430,
      "⚡": 431,
      "✓": 432,
      "✔": 433,
      "✗": 434,
      "✘": 435,
      "❤": 436,
      "️": 437,
      "﻿": 438,
      "🇮": 439,
      "🇳": 440,
      "🌍": 441,
      "🎉": 442,
      "🏽": 443,
      "👍": 444,
      "💡": 445,
      "🔥": 446,
      "😀": 447,
      "😂": 448,
      "😃": 449,
      "🚀": 450,
      "](": 451,
      "./": 452,
      "](./": 453,
      "▁[": 454,
      "▁\"": 455,
      "\")": 456,
      "nd": 457,
      "ia": 458,
      "te": 459,
      "on": 460,
      "in": 461,
      "ti": 462,
      "re": 463,
      "th": 464,
      "ndia": 465,
      "or": 466,
      "er": 467,
      "ার": 468,
      "20": 469,
      "ar": 470,
      "India": 471,
      "an": 472,
      "al": 473,
      "en": 474,
      "▁*": 475,
      "ed": 476,
      "ार": 477,
      "of": 478,
      "es": 479,
      "▁क": 480,
      "ci": 481,
      "tion": 482,
      "্র": 483,
      "is": 484,
      "ভার": 485,
      "য়": 486,
      "ভারত": 487,
      "te_": 488,
      "्र": 489,
      "్ర": 490,
      "//": 491,
      "om": 492,
      "it": 493,
      "ht": 494,
      "#ci": 495,
      "#cite_": 496,
      "\")\n": 497,
      "भार": 498,
      "the": 499,
      "भारत": 500,
      "▁a": 501,
      "▁(": 502,
      "tp": 503,
      "http": 504,
      "://": 505,
      "ార": 506,
      "▁of": 507,
      "▁स": 508,
      "ের": 509,
      "্য": 510,
      "▁the": 511,
      "ic": 512,
      "19": 513,
      "ou": 514,
      "g/": 515,
      "as": 516,
      "no": 517,
      "id": 518,
      "ch": 519,
      "201": 520,
      "](http": 521,
      "la": 522,
      "le": 523,
      "▁म": 524,
      "▁India": 525,
      "्य": 526,
      "oo": 527,
      "▁\n": 528,
      "ాల": 529,
      "200": 530,
      "s://": 531,
      "](./India": 532,
      "▁স": 533,
      "-1": 534,
      "OT": 535,
      ".or": 536,
      "్య": 537,
      "ac": 538,
      "tr": 539,
      "iv": 540,
      "ik": 541,
      "ww": 542,
      ".org/": 543,
      "তি": 544,
      "रा": 545,
      "-0": 546,
      "▁प": 547,
      "ref": 548,
      "com": 549,
      "\\(": 550,
      "\\)": 551,
      "](./ভারত": 552,
      "ন্": 553,
      "ad": 554,
      "note": 555,
      "భార": 556,
      "▁p": 557,
      "#cite_ref": 558,
      "#cite_note": 559,
      "భారత": 560,
      "lo": 561,
      "స్": 562,
      "](https://": 563,
      "র্": 564,
      "దే": 565,
      "am": 566,
      "বি": 567,
      "[[": 568,
      "we": 569,
      "▁in": 570,
      "▁and": 571,
      "ent": 572,
      "దేశ": 573,
      "▁s": 574,
      "ing": 575,
      "▁1": 576,
      "um": 577,
      "at": 578,
      "▁ప": 579,
      "▁প": 580,
      "im": 581,
      "us": 582,
      "ation": 583,
      "ge": 584,
      "ें": 585,
      "సా": 586,
      "red": 587,
      "ान": 588,
      "#cite_ref-": 589,
      "#cite_note-": 590,
      "wik": 591,
      "edia": 592,
      "lin": 593,
      "▁A": 594,
      "▁के": 595,
      "र्": 596,
      "ান": 597,
      "▁S": 598,
      "](./भारत": 599,
      "న్": 600,
      "b/": 601,
      "▁ह": 602,
      "\"),": 603,
      "▁C": 604,
      "ook": 605,
      "ec": 606,
      "्त": 607,
      "**": 608,
      "ర్": 609,
      "fi": 610,
      "ক্": 611,
      "ons": 612,
      "link": 613,
      "=1": 614,
      "edit": 615,
      "of_": 616,
      "_of_": 617,
      "▁[↑": 618,
      "▁P": 619,
      "ur": 620,
      "action": 621,
      "action=": 622,
      ").": 623,
      "action=edit": 624,
      "ter": 625,
      "&red": 626,
      "?action=edit": 627,
      "link=1": 628,
      "&redlink=1": 629,
      "?action=edit&redlink=1": 630,
      "78": 631,
      "IS": 632,
      ")\n": 633,
      "il": 634,
      "00": 635,
      "ig": 636,
      "he": 637,
      "ov": 638,
      "ist": 639,
      "ang": 640,
      "▁b": 641,
      "▁c": 642,
      "లు": 643,
      "স্": 644,
      "िक": 645,
      "ীয়": 646,
      "et": 647,
      "రా": 648,
      "या": 649,
      "ol": 650,
      "BN": 651,
      "ISBN": 652,
      "▁में": 653,
      "▁f": 654,
      "to": 655,
      "enti": 656,
      "ीय": 657,
      "21": 658,
      "াল": 659,
      "িক": 660,
      "jp": 661,
      "▁अ": 662,
      "భారతదేశ": 663,
      ".jp": 664,
      ".శ": 665,
      ".శ.": 666,
      "లో": 667,
      ".\n": 668,
      "identi": 669,
      "and": 670,
      "up": 671,
      "fier": 672,
      "identifier": 673,
      "సా.శ.": 674,
      "res": 675,
      "\\(identifier": 676,
      "\\(identifier\\)": 677,
      "দ্": 678,
      "ip": 679,
      "▁m": 680,
      "FO": 681,
      "রা": 682,
      "▁অ": 683,
      "NOT": 684,
      "ra": 685,
      "OTNOT": 686,
      "FOOTNOT": 687,
      "FOOTNOTE": 688,
      "▁**": 689,
      "arch": 690,
      "▁w": 691,
      "ত্র": 692,
      "త్ర": 693,
      "978": 694,
      "w.": 695,
      "),": 696,
      "em": 697,
      "বা": 698,
      "ों": 699,
      "www.": 700,
      "▁క": 701,
      "▁M": 702,
      "ial": 703,
      "▁ম": 704,
      "ce": 705,
      "वि": 706,
      "-0)": 707,
      "ना": 708,
      "india": 709,
      "ాలు": 710,
      "రి": 711,
      "25": 712,
      "▁_": 713,
      "క్": 714,
      "▁T": 715,
      "▁২": 716,
      ".com": 717,
      "▁ज": 718,
      "ంద": 719,
      "g)": 720,
      "▁ক": 721,
      "्ष": 722,
      "▁R": 723,
      "our": 724,
      "book": 725,
      "ని": 726,
      "▁వ": 727,
      "_क": 728,
      ".g": 729,
      "ाल": 730,
      "ate": 731,
      "ion": 732,
      "▁है": 733,
      "▁d": 734,
      "tic": 735,
      "ive": 736,
      "▁201": 737,
      ".com/": 738,
      "টি": 739,
      "সা": 740,
      "ul": 741,
      "10": 742,
      "▁द": 743,
      "ers": 744,
      "▁উ": 745,
      "হা": 746,
      "23": 747,
      "ind": 748,
      "त्र": 749,
      "▁B": 750,
      "▁\"ভারত": 751,
      "দ্ধ": 752,
      "ల్": 753,
      "राज": 754,
      "·**": 755,
      "▁**·**": 756,
      "▁D": 757,
      "न्": 758,
      "ro": 759,
      "es/": 760,
      "books": 761,
      "ेश": 762,
      "భారతదేశం": 763,
      "comm": 764,
      "िया": 765,
      "age": 766,
      "▁ত": 767,
      ".wik": 768,
      "In": 769,
      "ంగ": 770,
      ".org/wik": 771,
      "26": 772,
      "]](./India": 773,
      "ক্ষ": 774,
      "40": 775,
      "el": 776,
      "ment": 777,
      "और": 778,
      "▁to": 779,
      "ipedia": 780,
      "](./India#cite_ref-": 781,
      "]](./India#cite_note-": 782,
      "--": 783,
      "web": 784,
      "▁এ": 785,
      "px": 786,
      "▁స": 787,
      "▁ब": 788,
      "archive": 789,
      "ir": 790,
      "▁की": 791,
      "▁भारत": 792,
      ".s": 793,
      "ंग": 794,
      "ৃতি": 795,
      "imedia": 796,
      "op": 797,
      "▁మ": 798,
      "28": 799,
      "load": 800,
      "ারি": 801,
      "ের_": 802,
      "▁प्र": 803,
      "IT": 804,
      "్రా": 805,
      "upload": 806,
      ".wikimedia": 807,
      ".wikimedia.org/wik": 808,
      "ला": 809,
      "](//": 810,
      "ity": 811,
      "ipedia/": 812,
      "upload.wikimedia.org/wik": 813,
      "](//upload.wikimedia.org/wik": 814,
      "](//upload.wikimedia.org/wikipedia/": 815,
      "▁त": 816,
      "ons/": 817,
      "![": 818,
      "्व": 819,
      "thum": 820,
      "भा": 821,
      "▁न": 822,
      "ER": 823,
      "▁से": 824,
      "ভা": 825,
      "thumb/": 826,
      ".sv": 827,
      "px-": 828,
      "▁প্র": 829,
      "commons/": 830,
      "](//upload.wikimedia.org/wikipedia/commons/": 831,
      "ీయ": 832,
      "archive.org/": 833,
      "কা": 834,
      "un": 835,
      "](//upload.wikimedia.org/wikipedia/commons/thumb/": 836,
      "24": 837,
      ".in": 838,
      "EF": 839,
      "ITER": 840,
      "েশ": 841,
      "▁और": 842,
      "ండ": 843,
      "ITEREF": 844,
      ".p": 845,
      "ha": 846,
      "ew": 847,
      "▁ও": 848,
      "▁19": 849,
      "▁l": 850,
      "▁ব": 851,
      "▁২০": 852,
      "▁ন": 853,
      "angu": 854,
      "ay": 855,
      "▁का": 856,
      "_स": 857,
      "▁ভারত": 858,
      "▁[\"": 859,
      "11": 860,
      "ev": 861,
      "al_": 862,
      "web.": 863,
      "జ్య": 864,
      "তা": 865,
      "](https://web.": 866,
      "/http": 867,
      "web/": 868,
      "archive.org/web/": 869,
      "](https://web.archive.org/web/": 870,
      "50": 871,
      "▁H": 872,
      "st": 873,
      "ता": 874,
      "ak": 875,
      "Un": 876,
      "▁చ": 877,
      "▁জ": 878,
      "्ट": 879,
      "pec": 880,
      "ly": 881,
      "▁E": 882,
      "ub": 883,
      "తా": 884,
      "sia": 885,
      "ము": 886,
      "s_": 887,
      "నా": 888,
      "য়ে": 889,
      "▁N": 890,
      ")।": 891,
      "తి": 892,
      "్ట": 893,
      "30": 894,
      "▁আ": 895,
      "▁হ": 896,
      "দ্ধৃতি": 897,
      "](./S": 898,
      "ag": 899,
      "ন্দ": 900,
      "ep": 901,
      "▁G": 902,
      "▁\"S": 903,
      "▁•": 904,
      "্ব": 905,
      "কে": 906,
      "29": 907,
      "tu": 908,
      "ld": 909,
      "_India": 910,
      "#C": 911,
      "▁20": 912,
      "sh": 913,
      "త్": 914,
      "াত": 915,
      "▁\"भारत": 916,
      "_A": 917,
      "సి": 918,
      "tri": 919,
      "▁200": 920,
      "\")|": 921,
      "ory": 922,
      "#CITEREF": 923,
      "pecial": 924,
      "\").": 925,
      "▁([": 926,
      "](http://": 927,
      "-8": 928,
      "स्त": 929,
      "राज्य": 930,
      "_S": 931,
      "The": 932,
      "-3": 933,
      "িয়": 934,
      "্চ": 935,
      "▁[↑](./India#cite_ref-": 936,
      "▁व": 937,
      "क्ष": 938,
      "ित": 939,
      "ারিখ": 940,
      "▁বি": 941,
      ".jpg)": 942,
      "न्द": 943,
      "pecial:": 944,
      "_\\(identifier\\)": 945,
      "▁\\(identifier\\)": 946,
      "▁\\(identifier\\)\")": 947,
      "▁সং": 948,
      "▁তারিখ": 949,
      "ి.": 950,
      "ులు": 951,
      "ress": 952,
      "ourc": 953,
      "s/": 954,
      "▁h": 955,
      "ary": 956,
      "978-0": 957,
      "outh": 958,
      "22": 959,
      "▁आ": 960,
      "▁শ": 961,
      "యా": 962,
      "–సా.శ.": 963,
      "▁రా": 964,
      "ap": 965,
      "িত": 966,
      "প্র": 967,
      "ষ্": 968,
      "18": 969,
      "▁(సా.శ.": 970,
      "पु": 971,
      "षा": 972,
      "ern": 973,
      "_of_India": 974,
      "-5": 975,
      "cal": 976,
      "ति": 977,
      "্যা": 978,
      "0%": 979,
      "orld": 980,
      "লে": 981,
      "for": 982,
      ".gov": 983,
      "od": 984,
      "ास": 985,
      "লা": 986,
      "▁అ": 987,
      "ources/": 988,
      "ిక": 989,
      "▁দ": 990,
      "ex": 991,
      "-4": 992,
      "##": 993,
      "]](./ভারত": 994,
      "েম": 995,
      "rom": 996,
      "▁ప్ర": 997,
      "oun": 998,
      "rit": 999,
      "తం": 1000,
      "a_": 1001,
      "Book": 1002,
      "mp": 1003,
      "17": 1004,
      "▁on": 1005,
      "▁L": 1006,
      "ted": 1007,
      "13": 1008,
      "Sources/": 1009,
      "pecial:Book": 1010,
      "pecial:BookSources/": 1011,
      ".in/": 1012,
      "ber": 1013,
      "ిన": 1014,
      "జ్యం": 1015,
      "स्": 1016,
      "199": 1017,
      "anguage": 1018,
      "িল": 1019,
      "▁\"ভারতের": 1020,
      "calf": 1021,
      "n_": 1022,
      "▁re": 1023,
      "ঙ্": 1024,
      "](./ভারতের_": 1025,
      "्रे": 1026,
      "etcalf": 1027,
      "![](//upload.wikimedia.org/wikipedia/commons/thumb/": 1028,
      "కు": 1029,
      "జా": 1030,
      "ivers": 1031,
      "য্য": 1032,
      "হায্য": 1033,
      "ంచ": 1034,
      "ab": 1035,
      "।[[": 1036,
      "সাহায্য": 1037,
      "▁J": 1038,
      "e_": 1039,
      "भाषा": 1040,
      "15": 1041,
      "](./భారతదేశం": 1042,
      "▁F": 1043,
      "▁को": 1044,
      "▁n": 1045,
      "मा": 1046,
      "ish": 1047,
      "con": 1048,
      "id=": 1049,
      "ৃত": 1050,
      "27": 1051,
      "▁3": 1052,
      "]](./भारत": 1053,
      "था": 1054,
      "ট্র": 1055,
      "ను": 1056,
      "పూ": 1057,
      "](./ISBN": 1058,
      "▁\"ISBN": 1059,
      "](./ISBN_\\(identifier\\)": 1060,
      "hi": 1061,
      "ভাষ": 1062,
      "▁g": 1063,
      "▁ग": 1064,
      "htm": 1065,
      "gle": 1066,
      "ప్ర": 1067,
      "భా": 1068,
      "14": 1069,
      "ची": 1070,
      "री": 1071,
      "গ্র": 1072,
      "▁|": 1073,
      "▁[আ": 1074,
      "_in": 1075,
      "ational": 1076,
      "_\\(": 1077,
      "ri": 1078,
      "।\n": 1079,
      "▁th": 1080,
      "60": 1081,
      "ens": 1082,
      "▁or": 1083,
      "থা": 1084,
      "প্": 1085,
      "বই": 1086,
      "ద్": 1087,
      "ింద": 1088,
      "देश": 1089,
      "মা": 1090,
      "▁उ": 1091,
      "▁पर": 1092,
      "-7": 1093,
      "রি": 1094,
      "▁by": 1095,
      "E0%": 1096,
      "▁W": 1097,
      "err": 1098,
      "os": 1099,
      "উদ্ধৃতি": 1100,
      "▁ए": 1101,
      "ভাষা": 1102,
      "li": 1103,
      "oogle": 1104,
      "▁O": 1105,
      "ष्ट": 1106,
      "ाद": 1107,
      "লি": 1108,
      ".htm": 1109,
      "▁ఉ": 1110,
      "](./India#CITEREF": 1111,
      "▁১": 1112,
      "iversity": 1113,
      ".[[": 1114,
      "▁\\(": 1115,
      "ड़": 1116,
      "▁ఆ": 1117,
      "▁[↑](./ভারত": 1118,
      "/http://": 1119,
      "?id=": 1120,
      "রে": 1121,
      "_के": 1122,
      ".google": 1123,
      ".com/books": 1124,
      "books.google": 1125,
      "books.google.com/books": 1126,
      "থে": 1127,
      "▁श": 1128,
      "books.google.com/books?id=": 1129,
      "Metcalf": 1130,
      "▁K": 1131,
      "try": 1132,
      "ort": 1133,
      "---": 1134,
      "-2": 1135,
      "-9": 1136,
      "▁[S": 1137,
      "%E0%": 1138,
      "AA": 1139,
      "_म": 1140,
      "মি": 1141,
      "మా": 1142,
      "est": 1143,
      "ष्ट्र": 1144,
      "oc": 1145,
      "▁India\")\n": 1146,
      ":বই": 1147,
      "రు": 1148,
      "▁సా": 1149,
      "భారతీయ": 1150,
      "ast": 1151,
      "▁p.": 1152,
      "ূল": 1153,
      "▁থে": 1154,
      "▁सं": 1155,
      "বিশ": 1156,
      "রাজ": 1157,
      "विश": 1158,
      "▁থেকে": 1159,
      "▁from": 1160,
      "har": 1161,
      "వా": 1162,
      "লী": 1163,
      "List": 1164,
      "সং": 1165,
      "ff": 1166,
      "log": 1167,
      "av": 1168,
      "▁ర": 1169,
      "uc": 1170,
      "ने": 1171,
      "না": 1172,
      "▁[म": 1173,
      "ain": 1174,
      "lation": 1175,
      "▁Indian": 1176,
      "16": 1177,
      "వి": 1178,
      "ud": 1179,
      "िल": 1180,
      "েষ": 1181,
      "](./भारत#cite_ref-": 1182,
      "]](./India#cite_note-FOOTNOTE": 1183,
      "]](./भारत#cite_note-": 1184,
      "late": 1185,
      "og": 1186,
      "का": 1187,
      "art": 1188,
      "ష్ట": 1189,
      "ార్": 1190,
      "978-1": 1191,
      "పూ.": 1192,
      "]](./ভারত#cite_note-": 1193,
      "47": 1194,
      "lag": 1195,
      "ith": 1196,
      "ेत्र": 1197,
      "▁২০০": 1198,
      "%E0%A": 1199,
      ".svg": 1200,
      ".jpg)](./": 1201,
      "error": 1202,
      "प्र": 1203,
      "যু": 1204,
      "▁I": 1205,
      "▁is": 1206,
      "స్థ": 1207,
      "రిత్ర": 1208,
      "క్ష": 1209,
      ".jpg/": 1210,
      "_P": 1211,
      "▁for": 1212,
      "'s": 1213,
      ")[[": 1214,
      "PA": 1215,
      "सा": 1216,
      "▁ल": 1217,
      "_के_": 1218,
      "istory": 1219,
      "br": 1220,
      "म्": 1221,
      "ঙ্গ": 1222,
      "Ch": 1223,
      "_and": 1224,
      ".pn": 1225,
      "ম্": 1226,
      "িন": 1227,
      "▁इ": 1228,
      "्या": 1229,
      "న్న": 1230,
      "Har": 1231,
      "ৈলী": 1232,
      "tim": 1233,
      "ore": 1234,
      "▁Un": 1235,
      "](https://books.google.com/books?id=": 1236,
      ".n": 1237,
      "हि": 1238,
      "ी](./": 1239,
      "কার": 1240,
      "কৃত": 1241,
      "](https://www.": 1242,
      "p.": 1243,
      "&p": 1244,
      "/0": 1245,
      "](https://web.archive.org/web/201": 1246,
      "िय": 1247,
      "ত্": 1248,
      ".png)": 1249,
      "ুটি": 1250,
      "ৎস": 1251,
      "land": 1252,
      ".svg/": 1253,
      "सं": 1254,
      "ন্ত্র": 1255,
      "-6": 1256,
      "ot": 1257,
      ".svg.png)": 1258,
      "▁[ISBN": 1259,
      "▁Re": 1260,
      "▁4": 1261,
      "inal": 1262,
      "▁[A": 1263,
      "ve": 1264,
      "\"))\n": 1265,
      "▁Asia": 1266,
      ":উদ্ধৃতি": 1267,
      "त्त": 1268,
      "▁र": 1269,
      "aj": 1270,
      "ensus": 1271,
      "g=": 1272,
      "ज़": 1273,
      "টেম": 1274,
      "గా": 1275,
      "Flag": 1276,
      "▁[ISBN](./ISBN_\\(identifier\\)": 1277,
      "70": 1278,
      "und": 1279,
      "ut": 1280,
      "ంట": 1281,
      "కి": 1282,
      "বিশেষ": 1283,
      "\")_": 1284,
      "▁The": 1285,
      "temp": 1286,
      "ড়": 1287,
      "_M": 1288,
      "ం:": 1289,
      "మ్రా": 1290,
      "▁t": 1291,
      "ష్ట్ర": 1292,
      "ubl": 1293,
      "&pg=": 1294,
      "ow": 1295,
      "ys": 1296,
      "▁In": 1297,
      "ষ্ট্র": 1298,
      ":বইয়": 1299,
      "বিশেষ:বইয়": 1300,
      "ulation": 1301,
      "ంత": 1302,
      "_D": 1303,
      "ear": 1304,
      "48": 1305,
      "ডি": 1306,
      "হের": 1307,
      "र्व": 1308,
      "ীয়_": 1309,
      "ंड": 1310,
      "ত্রুটি": 1311,
      "সাহায্য:উদ্ধৃতি": 1312,
      "2.": 1313,
      "35": 1314,
      "titu": 1315,
      "opulation": 1316,
      "िस": 1317,
      "এস": 1318,
      "పు": 1319,
      "%2": 1320,
      "ong": 1321,
      "-10": 1322,
      "राष्ट्र": 1323,
      "▁_[": 1324,
      "tern": 1325,
      "ance": 1326,
      "▁న": 1327,
      "चि": 1328,
      "ी_": 1329,
      "গু": 1330,
      "all": 1331,
      "দেশ": 1332,
      "িয়া": 1333,
      "▁তারিখে": 1334,
      "&pg=PA": 1335,
      "మి": 1336,
      "ాన": 1337,
      "ana": 1338,
      "-19": 1339,
      "ss": 1340,
      "ma": 1341,
      "se": 1342,
      "ইভ": 1343,
      "র্কা": 1344,
      "ন্দ্র": 1345,
      "র্কাইভ": 1346,
      "df": 1347,
      "ug": 1348,
      "পি": 1349,
      "▁सा": 1350,
      "्षेत्र": 1351,
      "▁है।": 1352,
      "র্কাইভকৃত": 1353,
      "పా": 1354,
      "భాష": 1355,
      "2011": 1356,
      "▁pp.": 1357,
      "_p": 1358,
      "ঞ্চ": 1359,
      "▁राज्य": 1360,
      "overn": 1361,
      "▁be": 1362,
      "मन": 1363,
      "▁`": 1364,
      "রাষ্ট্র": 1365,
      "▁\"M": 1366,
      "o-": 1367,
      "ले": 1368,
      "সি": 1369,
      "పాల": 1370,
      "▁త": 1371,
      "esh": 1372,
      "స్త్ర": 1373,
      "tein": 1374,
      "ies": 1375,
      "▁\"C": 1376,
      "ism": 1377,
      "hic": 1378,
      "जा": 1379,
      "पा": 1380,
      "▁भाषा": 1381,
      "umm": 1382,
      "লেট": 1383,
      "প্লেট": 1384,
      "টেমপ্লেট": 1385,
      "tate": 1386,
      "ile": 1387,
      "స్తా": 1388,
      "emp": 1389,
      "এন": 1390,
      "ছে": 1391,
      "▁[ম": 1392,
      "▁\"म": 1393,
      "250": 1394,
      "](http://www.": 1395,
      "ans": 1396,
      ".html": 1397,
      "▁Press": 1398,
      "ধান": 1399,
      "▁हैं": 1400,
      "ts": 1401,
      "](./C": 1402,
      "36": 1403,
      "లీ": 1404,
      "ాయ": 1405,
      "▁ఇ": 1406,
      "▁దేశ": 1407,
      "▁भ": 1408,
      "▁य": 1409,
      "▁orig": 1410,
      "pecial:BookSources/978-0": 1411,
      "1.": 1412,
      "38": 1413,
      "54": 1414,
      "inis": 1415,
      "ther": 1416,
      "▁ই": 1417,
      "▁as": 1418,
      "णी": 1419,
      "ার্": 1420,
      "/https://": 1421,
      "▁সংগ্র": 1422,
      "6%": 1423,
      "oi": 1424,
      "ूची": 1425,
      "▁वि": 1426,
      "▁[↑](./ভারত#cite_ref-": 1427,
      "ank": 1428,
      "మ్రాజ్యం": 1429,
      "▁r": 1430,
      "ase": 1431,
      "90": 1432,
      "▁e": 1433,
      "▁[↑](./India#cite_ref-FOOTNOTE": 1434,
      "गर": 1435,
      "পা": 1436,
      "▁সংগ্রহের": 1437,
      "ass": 1438,
      "ef": 1439,
      "▁[M": 1440,
      "▁original": 1441,
      "pr": 1442,
      "దేశ్": 1443,
      "overnment": 1444,
      "artic": 1445,
      "ইএস": 1446,
      "জাত": 1447,
      "▁[↑](./भारत#cite_ref-": 1448,
      "িকা": 1449,
      "▁University": 1450,
      "](./M": 1451,
      "onstitu": 1452,
      "77": 1453,
      "ం](./": 1454,
      "ীন": 1455,
      "2018": 1456,
      "▁\"B": 1457,
      "lop": 1458,
      "Ind": 1459,
      "y_": 1460,
      "_in_India": 1461,
      "ेला": 1462,
      "▁no": 1463,
      "\"))": 1464,
      "2006": 1465,
      "ంబ": 1466,
      "టి": 1467,
      "ence": 1468,
      "/c": 1469,
      "हा": 1470,
      "সম": 1471,
      "▁ভাষা": 1472,
      "istan": 1473,
      "▁\"P": 1474,
      "বে": 1475,
      "▁সা": 1476,
      "স্ত": 1477,
      "80": 1478,
      "ంలో": 1479,
      "Harv": 1480,
      "స్తాన్": 1481,
      "s,": 1482,
      "ata": 1483,
      "▁[B": 1484,
      "कार": 1485,
      "क्त": 1486,
      "पर": 1487,
      "](./B": 1488,
      "▁कर": 1489,
      "▁২০১": 1490,
      "ages": 1491,
      "ত্ত": 1492,
      "au": 1493,
      "ard": 1494,
      "Indian": 1495,
      "india.gov": 1496,
      "errors": 1497,
      "िर": 1498,
      "ोल": 1499,
      "rch": 1500,
      "గు": 1501,
      "డు": 1502,
      "నే": 1503,
      "్చ": 1504,
      "ame": 1505,
      "56": 1506,
      "कि": 1507,
      "मी": 1508,
      "ian": 1509,
      "ন্ত": 1510,
      ".pdf": 1511,
      ".pdf)": 1512,
      "ess": 1513,
      "](./P": 1514,
      "మూ": 1515,
      "▁[C": 1516,
      "్రీ": 1517,
      "র্থ": 1518,
      "జాత": 1519,
      "▁\"A": 1520,
      "iss": 1521,
      "ill": 1522,
      "ountri": 1523,
      "▁[ভারত": 1524,
      "তিক": 1525,
      "हिन्द": 1526,
      "ke": 1527,
      "కా": 1528,
      "లా": 1529,
      "ంగా": 1530,
      "ct": 1531,
      "ंध": 1532,
      "ेष": 1533,
      "ওয়ে": 1534,
      "ভূ": 1535,
      "ুর": 1536,
      "▁বা": 1537,
      "](./म": 1538,
      "orth": 1539,
      "conom": 1540,
      "74": 1541,
      "▁V": 1542,
      "ाना": 1543,
      "%2C": 1544,
      "_s": 1545,
      "▁with": 1546,
      "_b": 1547,
      "డ్": 1548,
      "ిల్": 1549,
      "eral": 1550,
      "2004": 1551,
      "34": 1552,
      "per": 1553,
      "द्": 1554,
      "▁क्षेत्र": 1555,
      "্রা": 1556,
      "র্ব": 1557,
      "ক্ত": 1558,
      "ंग्रे": 1559,
      "ঞ্চল": 1560,
      "lig": 1561,
      "_N": 1562,
      "ition": 1563,
      "▁&": 1564,
      "ublic": 1565,
      "fn": 1566,
      "_B": 1567,
      "वा": 1568,
      "জা": 1569,
      "ধ্য": 1570,
      "ন্ড": 1571,
      "र्म": 1572,
      "39": 1573,
      "ite": 1574,
      "లి": 1575,
      "▁జ": 1576,
      "धान": 1577,
      "ोत": 1578,
      "তে": 1579,
      "▁अन": 1580,
      "▁ভারতের": 1581,
      "eved": 1582,
      "%E0%A6%": 1583,
      "ইএসবি": 1584,
      "59": 1585,
      "ture": 1586,
      "ire": 1587,
      "ue": 1588,
      "ust": 1589,
      "भि": 1590,
      "श्": 1591,
      "से": 1592,
      "ived": 1593,
      "▁উপ": 1594,
      "्रेणी": 1595,
      "ణా": 1596,
      "ధిక": 1597,
      "trieved": 1598,
      "▁Retrieved": 1599,
      "జాతీయ": 1600,
      "i_": 1601,
      "_শ": 1602,
      "নি": 1603,
      "▁গ": 1604,
      "▁উদ্ধৃতি": 1605,
      "▁ने": 1606,
      "Flag_of_": 1607,
      "120": 1608,
      "श्रेणी": 1609,
      "దక్ష": 1610,
      "వం": 1611,
      "▁8": 1612,
      "्रा": 1613,
      "▁ప్రా": 1614,
      "▁వి": 1615,
      "▁సం": 1616,
      "▁చరిత్ర": 1617,
      "ওয়েব": 1618,
      "hm": 1619,
      "7.": 1620,
      "ical": 1621,
      "#cite_ref-1": 1622,
      "#cite_note-1": 1623,
      "indu": 1624,
      "ford": 1625,
      "cre": 1626,
      "1)": 1627,
      "5.": 1628,
      "its": 1629,
      "धार": 1630,
      "স্থা": 1631,
      "विशेष": 1632,
      "ach": 1633,
      "gr": 1634,
      "end": 1635,
      "\\.": 1636,
      "new": 1637,
      "ingh": 1638,
      "▁language": 1639,
      "-p": 1640,
      "ib": 1641,
      "డి": 1642,
      "▁[2": 1643,
      "র্ম": 1644,
      "▁নি": 1645,
      "রাজ্য": 1646,
      "श्रेणी:": 1647,
      "ati": 1648,
      "anguages": 1649,
      "Stein": 1650,
      "3.": 1651,
      "QB": 1652,
      "=`": 1653,
      "ited": 1654,
      "ृत": 1655,
      "ইএসবিএন": 1656,
      "omm": 1657,
      ",_": 1658,
      "3)": 1659,
      "ంధ": 1660,
      "స్త": 1661,
      "సియా": 1662,
      "▁రాజ్యం": 1663,
      "▁సామ్రాజ్యం": 1664,
      "xford": 1665,
      "ी\")": 1666,
      "ीय_": 1667,
      "ক্ষা": 1668,
      "AJ": 1669,
      "ark": 1670,
      "▁\"T": 1671,
      "QBAJ": 1672,
      "ँच": 1673,
      "ंद": 1674,
      "ंत्र": 1675,
      "ूल": 1676,
      "ेल": 1677,
      "▁\"अ": 1678,
      "ine": 1679,
      "▁ति": 1680,
      "িল্": 1681,
      "▁एक": 1682,
      "▁[P": 1683,
      "/http://www.": 1684,
      "దీ": 1685,
      "▁బ": 1686,
      "▁are": 1687,
      "ండి": 1688,
      "ountries": 1689,
      "దక్షి": 1690,
      "▁Ch": 1691,
      ".nic": 1692,
      "_T": 1693,
      "के": 1694,
      "দী": 1695,
      "▁पु": 1696,
      "্বর": 1697,
      "विशेष:": 1698,
      "12": 1699,
      "▁ex": 1700,
      "\").\n": 1701,
      "rchived": 1702,
      "▁\"D": 1703,
      "6.": 1704,
      "▁[![](//upload.wikimedia.org/wikipedia/commons/thumb/": 1705,
      "ord": 1706,
      "%20": 1707,
      "..": 1708,
      "১৯": 1709,
      "తర": 1710,
      "](./D": 1711,
      "-1)": 1712,
      "57": 1713,
      "ann": 1714,
      "000": 1715,
      "स्तान": 1716,
      "▁[আর্কাইভকৃত": 1717,
      "টেমপ্লেট:": 1718,
      "250px-": 1719,
      "PD": 1720,
      "▁was": 1721,
      "sher": 1722,
      "▁,": 1723,
      "AAQBAJ": 1724,
      "_చ": 1725,
      "िण": 1726,
      "ोग": 1727,
      "শা": 1728,
      "হি": 1729,
      "ట్": 1730,
      "ది": 1731,
      "ిత": 1732,
      "▁[अ": 1733,
      "times": 1734,
      "onstitution": 1735,
      "▁[1": 1736,
      "cy": 1737,
      "icial": 1738,
      "▁সর": 1739,
      "▁মূল": 1740,
      "/p": 1741,
      "](./T": 1742,
      "▁\"E": 1743,
      "cl": 1744,
      "eng": 1745,
      "▁\"మ": 1746,
      "ింది.": 1747,
      "world": 1748,
      "০০": 1749,
      "ক্তি": 1750,
      "য়েছে": 1751,
      "ood": 1752,
      "_C": 1753,
      "ult": 1754,
      "ीप": 1755,
      "িত্র": 1756,
      "](./List": 1757,
      "▁\"List": 1758,
      "▁\"ভারতীয়": 1759,
      "▁प्रदेश": 1760,
      "श्रेणी:Harv": 1761,
      "▁an": 1762,
      "-d": 1763,
      "language": 1764,
      "దస్త్ర": 1765,
      "▁ఎ": 1766,
      "▁(సా.శ.పూ.": 1767,
      "దస్త్రం:": 1768,
      "a/": 1769,
      "nt": 1770,
      "s.": 1771,
      "गमन": 1772,
      "थि": 1773,
      "▁\"स": 1774,
      "ারা": 1775,
      "क्षिण": 1776,
      "fr": 1777,
      "2009": 1778,
      "37": 1779,
      "46": 1780,
      "port": 1781,
      "द्य": 1782,
      "नी": 1783,
      "यु": 1784,
      "ी_स": 1785,
      "কি": 1786,
      "বং": 1787,
      "ভি": 1788,
      "out": 1789,
      "](./ভারতীয়_": 1790,
      "▁तिथि": 1791,
      "erv": 1792,
      "eve": 1793,
      "ధ్య": 1794,
      "▁18": 1795,
      "ంద్ర": 1796,
      "▁2014": 1797,
      "ून": 1798,
      "বী": 1799,
      "ুন": 1800,
      "▁\"G": 1801,
      "▁এক": 1802,
      "PDF": 1803,
      "](./A": 1804,
      "2010": 1805,
      "▁[D": 1806,
      "fe": 1807,
      "ange": 1808,
      "oli": 1809,
      "▁2011": 1810,
      "amil": 1811,
      ".nic.in/": 1812,
      "ll": 1813,
      "নে": 1814,
      "▁ख": 1815,
      "▁१": 1816,
      "▁ফ": 1817,
      "▁(PDF": 1818,
      "▁উৎস": 1819,
      "▁तिथि:": 1820,
      "ైన": 1821,
      "▁v": 1822,
      "](./మ": 1823,
      "▁పే": 1824,
      "rap": 1825,
      "elhi": 1826,
      "](./List_of_": 1827,
      "](./E": 1828,
      ")|": 1829,
      "_.": 1830,
      "other": 1831,
      "IC": 1832,
      "_R": 1833,
      "get": 1834,
      "ction": 1835,
      "▁র": 1836,
      "▁भारतीय": 1837,
      "▁জন": 1838,
      "ah": 1839,
      "_Asia": 1840,
      "MetcalfMetcalf": 1841,
      "-s": 1842,
      "▁[978-0": 1843,
      "ome": 1844,
      "na": 1845,
      "जन": 1846,
      "ढ़": 1847,
      "धिक": 1848,
      "মান": 1849,
      "ట్ట": 1850,
      "శా": 1851,
      "](./G": 1852,
      "▁[మ": 1853,
      "▁[भारत": 1854,
      "ন্ধ": 1855,
      "▁अभि": 1856,
      "▁देश": 1857,
      "▁শৈলী": 1858,
      "ద్ధ": 1859,
      "▁अभिगमन": 1860,
      "IN": 1861,
      "ica": 1862,
      "_1": 1863,
      "tral": 1864,
      "tem": 1865,
      "धर्म": 1866,
      "्री": 1867,
      "्रोत": 1868,
      "▁সাল": 1869,
      "\\)\")": 1870,
      "▁जन": 1871,
      "▁করে": 1872,
      "40px-": 1873,
      "▁तथा": 1874,
      "▁\"भारतीय": 1875,
      "সমূ": 1876,
      "evelop": 1877,
      "8/": 1878,
      "▁10": 1879,
      "](https://web.archive.org/web/20": 1880,
      "\"](https://web.archive.org/web/201": 1881,
      "-b": 1882,
      "rad": 1883,
      "హింద": 1884,
      "ించ": 1885,
      "▁ఒ": 1886,
      "▁గ": 1887,
      "▁భాష": 1888,
      "ాల్": 1889,
      ".jpg": 1890,
      "###": 1891,
      "_m": 1892,
      "_](https://books.google.com/books?id=": 1893,
      "ती": 1894,
      "त्": 1895,
      "बर": 1896,
      "ে_": 1897,
      "▁च": 1898,
      "▁\"क": 1899,
      "স্ট": 1900,
      "ালিকা": 1901,
      "udd": 1902,
      ".svg/40px-": 1903,
      "▁9": 1904,
      "▁–": 1905,
      "row": 1906,
      "-m": 1907,
      "ational_": 1908,
      "indi": 1909,
      "qu": 1910,
      "हर": 1911,
      "ूर्व": 1912,
      "्ल": 1913,
      "▁\"N": 1914,
      "▁পৃ": 1915,
      "ম্প": 1916,
      "র্থন": 1917,
      "AAQBAJ&pg=PA": 1918,
      "58": 1919,
      "_G": 1920,
      "gen": 1921,
      "▁199": 1922,
      "]](./భారతదేశం": 1923,
      "census": 1924,
      "ty": 1925,
      "కో": 1926,
      "చ్చ": 1927,
      "జీ": 1928,
      "ేంద్ర": 1929,
      "▁భారతదేశం": 1930,
      "ంగ్": 1931,
      "oh": 1932,
      "मान": 1933,
      "वं": 1934,
      "▁7": 1935,
      "िका": 1936,
      "स्तक": 1937,
      "पुस्तक": 1938,
      "ৈলী_": 1939,
      "_শৈলী_": 1940,
      "विशेष:पुस्तक": 1941,
      "्रोत/": 1942,
      "_E": 1943,
      "iti": 1944,
      "49": 1945,
      "▁[N": 1946,
      "1/": 1947,
      "2)": 1948,
      "▁[स": 1949,
      "্রি": 1950,
      "▁at": 1951,
      "▁স্": 1952,
      "বাহ": 1953,
      "▁जा": 1954,
      "1998": 1955,
      "राष्ट्रीय": 1956,
      "▁`|": 1957,
      "স্তান": 1958,
      "द्ध": 1959,
      "ँचा": 1960,
      "%28": 1961,
      "ese": 1962,
      "ummit": 1963,
      "కృ": 1964,
      "త్య": 1965,
      "బ్": 1966,
      "మీ": 1967,
      "](./N": 1968,
      ").\n": 1969,
      "రాష్ట్ర": 1970,
      "▁History": 1971,
      "tin": 1972,
      "दी": 1973,
      "रकार": 1974,
      "हार": 1975,
      "ধর্ম": 1976,
      "ীতি": 1977,
      "োল": 1978,
      "](./स": 1979,
      "সাম": 1980,
      "पुर": 1981,
      "েম্বর": 1982,
      "|---": 1983,
      "▁[![": 1984,
      "ob": 1985,
      "/https://www.": 1986,
      "lia": 1987,
      "ure": 1988,
      "matic": 1989,
      "ions": 1990,
      "উৎস": 1991,
      "▁য": 1992,
      "](./क": 1993,
      "](./বিশেষ:বইয়": 1994,
      "▁[क": 1995,
      "▁\"ब": 1996,
      "▁\"বিশেষ:বইয়": 1997,
      "ের_উৎস": 1998,
      "▁[আইএসবিএন": 1999,
      "विश्व": 2000,
      "▁इस": 2001,
      "लेख": 2002,
      "](./বিশেষ:বইয়ের_উৎস": 2003,
      "▁\"বিশেষ:বইয়ের": 2004,
      "%29": 2005,
      "5)": 2006,
      "ంక": 2007,
      "ప్": 2008,
      "యు": 2009,
      "్యా": 2010,
      "తంత్ర": 2011,
      "](./భారతదేశం#cite_ref-": 2012,
      "]](./భారతదేశం#cite_note-": 2013,
      "onom": 2014,
      "als": 2015,
      "10.": 2016,
      "196": 2017,
      "ath": 2018,
      "gl": 2019,
      "▁we": 2020,
      "▁চ": 2021,
      "▁ত্রুটি": 2022,
      "](./ম": 2023,
      "](./সাহায্য:উদ্ধৃতি": 2024,
      "▁\"ম": 2025,
      "▁\"সাহায্য:উদ্ধৃতি": 2026,
      "▁मेला": 2027,
      "▁এবং": 2028,
      "▁([সাহায্য": 2029,
      "▁বিশ": 2030,
      "ত্রুটি#": 2031,
      "चित्र": 2032,
      "hich": 2033,
      "_শৈলী_ত্রুটি#": 2034,
      "](./সাহায্য:উদ্ধৃতি_শৈলী_ত্রুটি#": 2035,
      "▁([সাহায্য](./সাহায্য:উদ্ধৃতি_শৈলী_ত্রুটি#": 2036,
      "par": 2037,
      "DP": 2038,
      "▁6": 2039,
      "nolog": 2040,
      "ountry": 2041,
      ".jpg/250px-": 2042,
      "_స": 2043,
      "गु": 2044,
      "জি": 2045,
      "জ্য": 2046,
      "తము": 2047,
      "ాన్": 2048,
      "▁राज": 2049,
      "रालेख": 2050,
      "▁অন": 2051,
      "ంది.": 2052,
      "হাস": 2053,
      "▁১৯": 2054,
      "ిల్లీ": 2055,
      "దక్షిణ": 2056,
      "সমূহ": 2057,
      "33": 2058,
      "▁\"The": 2059,
      "▁which": 2060,
      "india/": 2061,
      "india.gov.in/": 2062,
      "▁26": 2063,
      "▁con": 2064,
      "evelopment": 2065,
      "▁tr": 2066,
      "▁temp": 2067,
      "pecial:BookSources/978-1": 2068,
      "idge": 2069,
      "late_": 2070,
      "_ভাষা": 2071,
      "ond": 2072,
      "िव": 2073,
      "জন": 2074,
      "ঞ্": 2075,
      "ৈতিক": 2076,
      "▁\"प": 2077,
      "▁India's": 2078,
      "▁हु": 2079,
      "_की_स": 2080,
      "Incre": 2081,
      "▁वर्": 2082,
      "_में": 2083,
      "साँचा": 2084,
      "গুলি": 2085,
      "dit": 2086,
      "bot": 2087,
      "▁[_": 2088,
      "umb": 2089,
      "thor": 2090,
      "▁En": 2091,
      "ధాన": 2092,
      "బె": 2093,
      "వే": 2094,
      "శ్": 2095,
      "ారు": 2096,
      ".jpg)](./దస్త్రం:": 2097,
      "_অ": 2098,
      "_স": 2099,
      "rou": 2100,
      "ध्य": 2101,
      "्च": 2102,
      "বস্থা": 2103,
      "োগ": 2104,
      "](./अ": 2105,
      "▁\"R": 2106,
      "▁स्": 2107,
      "र्थ": 2108,
      "স্থ": 2109,
      "▁\"ভারতে": 2110,
      "United": 2111,
      "स्क": 2112,
      "▁২০০৭": 2113,
      "▁भी": 2114,
      "▁পৃ.": 2115,
      "रालेखित": 2116,
      "_d": 2117,
      "albot": 2118,
      "olitic": 2119,
      "](./R": 2120,
      "ograp": 2121,
      "\"](https://www.": 2122,
      "ज्": 2123,
      "मु": 2124,
      "2008": 2125,
      "তিহাস": 2126,
      "▁হয়": 2127,
      "▁[G": 2128,
      "hel": 2129,
      "RIC": 2130,
      "gion": 2131,
      "జి": 2132,
      "దు": 2133,
      "మ్": 2134,
      "ష్": 2135,
      "్యవ": 2136,
      "▁రాజ": 2137,
      "_చరిత్ర": 2138,
      "▁South": 2139,
      "akistan": 2140,
      "▁has": 2141,
      "_भारत": 2142,
      "थान": 2143,
      "हास": 2144,
      "।[[১": 2145,
      "Asher": 2146,
      "PP": 2147,
      "ight": 2148,
      "▁template": 2149,
      "gh": 2150,
      "{{": 2151,
      "▁5": 2152,
      "age/": 2153,
      "_%28": 2154,
      "hy": 2155,
      "uk": 2156,
      "}}": 2157,
      "▁that": 2158,
      "द्र": 2159,
      "िट": 2160,
      "िश": 2161,
      "রণ": 2162,
      "ায়": 2163,
      "](./ब": 2164,
      "▁[ब": 2165,
      "2003": 2166,
      "2005": 2167,
      "2007": 2168,
      "▁সম": 2169,
      "](./ভারতে_": 2170,
      "ember": 2171,
      "bridge": 2172,
      "tates": 2173,
      "`:": 2174,
      "ost": 2175,
      "sland": 2176,
      "ఢిల్లీ": 2177,
      "పంచ": 2178,
      "శం": 2179,
      "\")}}": 2180,
      "ారి": 2181,
      "territ": 2182,
      "మూస": 2183,
      "▁రాజ్యం|": 2184,
      "{{[": 2185,
      "\")}}`:": 2186,
      "iew": 2187,
      "2014": 2188,
      "\"\n": 2189,
      "-l": 2190,
      "▁2": 2191,
      "riti": 2192,
      "সে": 2193,
      "](./भारत_में": 2194,
      "ile:": 2195,
      "▁[K": 2196,
      "World": 2197,
      "▁[T": 2198,
      "▁[Archived": 2199,
      "ai": 2200,
      "ambridge": 2201,
      "](./Special:BookSources/978-0": 2202,
      "▁\"Special:BookSources/978-0": 2203,
      "फ़": 2204,
      "ीन": 2205,
      "ইন": 2206,
      "টার": 2207,
      "িম": 2208,
      "▁খ": 2209,
      "▁অঞ্চল": 2210,
      "_का": 2211,
      "]](./ভারত#cite_note-1": 2212,
      "▁[↑](./ভারত#cite_ref-1": 2213,
      "িনী": 2214,
      "त्तर": 2215,
      "▁हैं।": 2216,
      "ত্তর": 2217,
      "ail": 2218,
      "వు": 2219,
      "▁[R": 2220,
      "▁\"క": 2221,
      "▁\"భారతీయ": 2222,
      "emb": 2223,
      "▁కా": 2224,
      "▁ch": 2225,
      "help": 2226,
      "4)": 2227,
      "yson": 2228,
      "in-": 2229,
      "over": 2230,
      "RICS": 2231,
      "मिल": 2232,
      "शिया": 2233,
      "ुस": 2234,
      "▁যু": 2235,
      "arg": 2236,
      "▁सूची": 2237,
      "ের](./": 2238,
      "▁14": 2239,
      "▁हि": 2240,
      "ild": 2241,
      "epend": 2242,
      "▁দেশ": 2243,
      "6)": 2244,
      "ansk": 2245,
      "[![](//upload.wikimedia.org/wikipedia/commons/thumb/": 2246,
      "ashm": 2247,
      "india-": 2248,
      "ashmir": 2249,
      "121": 2250,
      "mb": 2251,
      "ign": 2252,
      "▁2007": 2253,
      "ritish": 2254,
      "olog": 2255,
      "pe": 2256,
      "रु": 2257,
      "ूर": 2258,
      "జన": 2259,
      "టు": 2260,
      "టె": 2261,
      "▁[క": 2262,
      "▁सरकार": 2263,
      "ক্ষি": 2264,
      "▁చె": 2265,
      "▁জাত": 2266,
      "నాయ": 2267,
      "–సా.శ.పూ.": 2268,
      "▁ఆర్": 2269,
      "పాలిత": 2270,
      "ंग्रेज़": 2271,
      "ేంద్రపాలిత": 2272,
      "▁[আইএসবিএন](./ISBN_\\(identifier\\)": 2273,
      "Increase": 2274,
      "econom": 2275,
      "article": 2276,
      "ission": 2277,
      "ous": 2278,
      "anskrit": 2279,
      "ations": 2280,
      "ork": 2281,
      "les/": 2282,
      "कर": 2283,
      "ते": 2284,
      "पाल": 2285,
      "ूच": 2286,
      "জ্": 2287,
      "\")।": 2288,
      "▁सम": 2289,
      "্যান": 2290,
      "দ্বী": 2291,
      "শাস": 2292,
      "দ্বীপ": 2293,
      "4/": 2294,
      "87": 2295,
      "Edit": 2296,
      "Singh": 2297,
      "jec": 2298,
      "▁25": 2299,
      "Dw": 2300,
      "air": 2301,
      "ms": 2302,
      "aste": 2303,
      "lection": 2304,
      "9.": 2305,
      "bn": 2306,
      "ఖ్య": 2307,
      "గో": 2308,
      "తో": 2309,
      "దా": 2310,
      "బి": 2311,
      "హి": 2312,
      "▁[the": 2313,
      "er,": 2314,
      "ant": 2315,
      "స్కృ": 2316,
      "outh_Asia": 2317,
      "brary": 2318,
      "▁ప్రాంత": 2319,
      "yan": 2320,
      "हु": 2321,
      "ैद": 2322,
      "ोक": 2323,
      "চ্চ": 2324,
      "চীন": 2325,
      "▁घ": 2326,
      "▁।": 2327,
      "▁[प": 2328,
      "▁\"আ": 2329,
      "্যবস্থা": 2330,
      "▁পরি": 2331,
      "ানা": 2332,
      "ালয়": 2333,
      "▁মধ্য": 2334,
      "▁तक": 2335,
      "▁২০০৮": 2336,
      "किस्तान": 2337,
      "▁বিশ্ব": 2338,
      "ক্ষিণ": 2339,
      "▁জাতীয়": 2340,
      "gan": 2341,
      "File:": 2342,
      "alth": 2343,
      "_and_S": 2344,
      "▁k": 2345,
      "▁un": 2346,
      "▁its": 2347,
      "▁16": 2348,
      "indus": 2349,
      "ulke": 2350,
      "MetcalfMetcalf2006": 2351,
      "सम": 2352,
      "्ड": 2353,
      "বর্": 2354,
      "মে": 2355,
      "▁fi": 2356,
      "▁![](//upload.wikimedia.org/wikipedia/commons/thumb/": 2357,
      "▁\"H": 2358,
      "usin": 2359,
      "](./भारतीय_": 2360,
      "▁না": 2361,
      "▁সরকার": 2362,
      "জ্ঞ": 2363,
      "▁Comm": 2364,
      "43": 2365,
      "▁errors": 2366,
      "entre": 2367,
      "▁([help": 2368,
      "_ప": 2369,
      "హా": 2370,
      "▁ను": 2371,
      "](./H": 2372,
      "▁[E": 2373,
      "▁India\")": 2374,
      "▁17": 2375,
      "emplate": 2376,
      "▁చరిత్ర\")\n": 2377,
      "్యవస్థ": 2378,
      "_the": 2379,
      "_प्र": 2380,
      "lim": 2381,
      "কৃতি": 2382,
      "গণ": 2383,
      "দি": 2384,
      "পূ": 2385,
      "▁ডি": 2386,
      "ina": 2387,
      "▁(২": 2388,
      "র্ক": 2389,
      "▁পর": 2390,
      "ों_की_स": 2391,
      "ক্ষণ": 2392,
      "▁`{{[": 2393,
      "श्चि": 2394,
      "িল্প": 2395,
      "tinent": 2396,
      "8.": 2397,
      "Oxford": 2398,
      "_L": 2399,
      "ck": 2400,
      "mund": 2401,
      "▁U": 2402,
      "rav": 2403,
      "ated": 2404,
      "led": 2405,
      "▁\"K": 2406,
      "▁sub": 2407,
      "▁New": 2408,
      "-521": 2409,
      "odern": 2410,
      "inistry": 2411,
      "liament": 2412,
      "ओं": 2413,
      "ीं": 2414,
      "ूप": 2415,
      "চিত্র": 2416,
      "লো": 2417,
      "](./प": 2418,
      "act": 2419,
      "ন্ন": 2420,
      "usic": 2421,
      "▁An": 2422,
      "▁এই": 2423,
      "mpire": 2424,
      "মিটার": 2425,
      "]](./भारत#cite_note-FOOTNOTE": 2426,
      "RC": 2427,
      "othermund": 2428,
      "9)": 2429,
      "fn_": 2430,
      "hp": 2431,
      "డా": 2432,
      "బడ": 2433,
      "మే": 2434,
      "రణ": 2435,
      "▁te": 2436,
      "▁error": 2437,
      "▁జాతీయ": 2438,
      "arget": 2439,
      "isation": 2440,
      "now": 2441,
      "▁Sfn": 2442,
      "▁కూ": 2443,
      "ాలు,": 2444,
      "ాలు](./": 2445,
      "▁రాష్ట్ర": 2446,
      "కిస్తాన్": 2447,
      "template_": 2448,
      "▁target": 2449,
      "_and_Sfn_": 2450,
      "▁error:": 2451,
      "template_errors": 2452,
      "▁target:": 2453,
      "_and_Sfn_template_errors": 2454,
      "les": 2455,
      "tation": 2456,
      "anc": 2457,
      "](https://d": 2458,
      "continent": 2459,
      "51": 2460,
      "year": 2461,
      "गण": 2462,
      "रब": 2463,
      "वन": 2464,
      "्स": 2465,
      "ংশ": 2466,
      "ংলা": 2467,
      "ীল": 2468,
      "▁৩": 2469,
      "▁[স": 2470,
      "▁किया": 2471,
      "नाम": 2472,
      "্যান্ড": 2473,
      "মাণ": 2474,
      "_के_राज्य": 2475,
      "120px-": 2476,
      "Stein1998": 2477,
      "ंदिर": 2478,
      "चित्र:": 2479,
      "Singh2009": 2480,
      "▁([help](./": 2481,
      "y,": 2482,
      "ographic": 2483,
      "are": 2484,
      "duc": 2485,
      "pp": 2486,
      "▁CITEREF": 2487,
      "▁World": 2488,
      "IA": 2489,
      "igh": 2490,
      "/A": 2491,
      "Page/": 2492,
      "iz": 2493,
      "▁[978-1": 2494,
      "▁pro": 2495,
      "EditPage/": 2496,
      "जी": 2497,
      "ष्": 2498,
      "ক্র": 2499,
      "গর": 2500,
      "টা": 2501,
      "পু": 2502,
      "▁ha": 2503,
      "▁রাষ্ট্র": 2504,
      "▁ad": 2505,
      "ক্স": 2506,
      "▁languages": 2507,
      "▁একটি": 2508,
      "ज्ञ": 2509,
      "জ্ঞান": 2510,
      "▁errors\"))\n": 2511,
      "62": 2512,
      "_c": 2513,
      "వర్": 2514,
      "ి.\n": 2515,
      "▁ఈ": 2516,
      "▁భారత": 2517,
      "▁లో": 2518,
      "త్రి": 2519,
      "ulture": 2520,
      "](./India#cite_ref-FOOTNOTE": 2521,
      "100": 2522,
      "aman": 2523,
      "illion": 2524,
      "alay": 2525,
      "ice": 2526,
      "urop": 2527,
      "f/": 2528,
      "ंजा": 2529,
      "ख्या": 2530,
      "दक्षिण": 2531,
      "ेख": 2532,
      "োর্": 2533,
      "০-": 2534,
      "▁pr": 2535,
      "न्न": 2536,
      "्वीप": 2537,
      "▁ভারতীয়": 2538,
      "▁2021": 2539,
      "चीन": 2540,
      "▁खाना": 2541,
      "র্থনৈতিক": 2542,
      "▁ত্রুটি\"))\n": 2543,
      "ों_की_सूची": 2544,
      "ंजाब": 2545,
      "5/": 2546,
      "▁15": 2547,
      "---|---": 2548,
      "author": 2549,
      "conomic": 2550,
      "C&pg=PA": 2551,
      "▁\"Indian": 2552,
      "ound": 2553,
      ".;": 2554,
      "JP": 2555,
      "national": 2556,
      "210": 2557,
      "/d": 2558,
      "_క": 2559,
      "बसे": 2560,
      "ुल": 2561,
      "ం\")": 2562,
      "తు": 2563,
      "పతి": 2564,
      "▁ని": 2565,
      "▁\"భారతదేశం": 2566,
      "any": 2567,
      "్రి": 2568,
      "▁sfn": 2569,
      "ेंद्र": 2570,
      "న్ని": 2571,
      "ర్వ": 2572,
      "▁অব": 2573,
      "▁কে": 2574,
      "230": 2575,
      "▁2019": 2576,
      "ులు](./": 2577,
      "▁गया": 2578,
      "▁this": 2579,
      "మిళ": 2580,
      "▁राज्यों": 2581,
      "▁ভাষা\")\n": 2582,
      "me": 2583,
      "s-": 2584,
      "ali": 2585,
      "omb": 2586,
      "conomy": 2587,
      ".html)": 2588,
      "eop": 2589,
      "](./K": 2590,
      "▁Hindu": 2591,
      "1,": 2592,
      "lass": 2593,
      "चल": 2594,
      "बंध": 2595,
      "ैन": 2596,
      "তম": 2597,
      "সেম্বর": 2598,
      "](./আ": 2599,
      "▁[প": 2600,
      "](./ভারত#cite_ref-": 2601,
      "▁हो": 2602,
      "old": 2603,
      "বাংলা": 2604,
      "▁ভারতে": 2605,
      "▁হয়েছে": 2606,
      "fficial": 2607,
      "হিন্দ": 2608,
      "ম্পর্ক": 2609,
      "साँचा:": 2610,
      "▁ডিসেম্বর": 2611,
      "▁কেন্দ্র": 2612,
      "ran": 2613,
      "ta": 2614,
      "\")**": 2615,
      "ofindia": 2616,
      "uring": 2617,
      "4%": 2618,
      "low": 2619,
      "_F": 2620,
      "iver": 2621,
      ".php": 2622,
      "_మ": 2623,
      "_భాష": 2624,
      "ద్ర": 2625,
      "ఫ్": 2626,
      "▁స్": 2627,
      "▁స్థ": 2628,
      "▁[స": 2629,
      "▁\"అ": 2630,
      "\"):": 2631,
      "ack": 2632,
      "ames": 2633,
      "న్నాయ": 2634,
      "une": 2635,
      "\").[[": 2636,
      "▁రై": 2637,
      "pril": 2638,
      "వంశం": 2639,
      "హిందూ": 2640,
      "330": 2641,
      "_ম": 2642,
      "mer": 2643,
      "ब्": 2644,
      "२०": 2645,
      "টে": 2646,
      "পতি": 2647,
      "▁[L": 2648,
      "ालय": 2649,
      "▁नि": 2650,
      "न्द्र": 2651,
      "্যাক": 2652,
      "▁[मूल": 2653,
      "%E0%A6%B": 2654,
      "▁पुरालेखित": 2655,
      "▁সালে": 2656,
      "▁पुरालेखित।": 2657,
      "yn": 2658,
      "radesh": 2659,
      ".svg/40px-Flag_of_": 2660,
      "bal": 2661,
      "20px-": 2662,
      "ritann": 2663,
      ".svg/20px-": 2664,
      "off": 2665,
      "entur": 2666,
      "जरा": 2667,
      "ेव": 2668,
      "বর": 2669,
      "শ্র": 2670,
      "ীক": 2671,
      "ীত": 2672,
      "▁24": 2673,
      "omp": 2674,
      "▁सबसे": 2675,
      "ide": 2676,
      "বাধ": 2677,
      "েশিন": 2678,
      "কেন্দ্র": 2679,
      "स्था": 2680,
      "स्थान": 2681,
      "ियों": 2682,
      "क्ति": 2683,
      "্রাজ্য": 2684,
      "ওয়েব্যাক": 2685,
      "Increase2": 2686,
      "44": 2687,
      "](https://web.archive.org/web/200": 2688,
      "DwAAQBAJ&pg=PA": 2689,
      "GDP": 2690,
      "on-": 2691,
      "ined": 2692,
      "197": 2693,
      "ffair": 2694,
      "&s": 2695,
      "9/": 2696,
      "బా": 2697,
      "భూ": 2698,
      "య్య": 2699,
      "ర్య": 2700,
      "▁ల": 2701,
      "](./క": 2702,
      "▁\"ప": 2703,
      "▁\"స": 2704,
      "cies": 2705,
      "uman": 2706,
      "imes": 2707,
      "▁[↑](./భారతదేశం#cite_ref-": 2708,
      "త్త": 2709,
      "▁ప్రదేశ్": 2710,
      "ప్రదేశ్": 2711,
      "AARC": 2712,
      "ligion": 2713,
      "news/": 2714,
      "▁నుండి": 2715,
      "2012": 2716,
      "ural": 2717,
      "68": 2718,
      "टन": 2719,
      "प्त": 2720,
      "िन": 2721,
      "ोर": 2722,
      "ণী": 2723,
      "যোগ": 2724,
      "শ্চ": 2725,
      "](./টেমপ্লেট:": 2726,
      "▁\"টেমপ্লেট:": 2727,
      "্যারা": 2728,
      "▁India:": 2729,
      "▁প্যারা": 2730,
      "বাদ": 2731,
      "▁जिस": 2732,
      "কারী": 2733,
      "জাতীয়": 2734,
      "▁were": 2735,
      "ुसार": 2736,
      "▁প্যারামিটার": 2737,
      "2/": 2738,
      "mar": 2739,
      "uary": 2740,
      "▁2010": 2741,
      "▁Ind": 2742,
      "▁le": 2743,
      "tes": 2744,
      "\")_.": 2745,
      "roup": 2746,
      "rip": 2747,
      "ement": 2748,
      "Flag_of_India": 2749,
      "Indo-": 2750,
      "ya": 2751,
      "ree": 2752,
      "epublic": 2753,
      "ee": 2754,
      "ere": 2755,
      "uj": 2756,
      "च्च": 2757,
      "ण्ड": 2758,
      "শন": 2759,
      "শি": 2760,
      "সভা": 2761,
      "▁রাজ্য": 2762,
      "▁[ক": 2763,
      "ানি": 2764,
      "](./भारत#CITEREF": 2765,
      "িকে": 2766,
      "▁प्रा": 2767,
      "▁প্রধান": 2768,
      "_सं": 2769,
      "সংখ": 2770,
      "▁Asian": 2771,
      "▁साथ": 2772,
      "ভূমি": 2773,
      "](./भारत_में_": 2774,
      "শ্চিম": 2775,
      "ho": 2776,
      "▁st": 2777,
      "31": 2778,
      "i/": 2779,
      "ణి": 2780,
      "తమిళ": 2781,
      "మె": 2782,
      "మైన": 2783,
      "హార": 2784,
      "▁[అ": 2785,
      "▁[ప": 2786,
      "▁\"L": 2787,
      "▁\"ఇ": 2788,
      "▁\"బ": 2789,
      "▁\"భారత": 2790,
      "lad": 2791,
      "రాజ": 2792,
      "▁కాల": 2793,
      "▁మొ": 2794,
      "నాగ": 2795,
      "త్తర": 2796,
      "▁అధిక": 2797,
      "Stein2010": 2798,
      "శ్మీ": 2799,
      "మూస:": 2800,
      "Talbot": 2801,
      "▁dis": 2802,
      "AsherTalbot": 2803,
      "7%": 2804,
      "7)": 2805,
      "_ও": 2806,
      "_উদ্ধৃতি": 2807,
      "आई": 2808,
      "ख्य": 2809,
      "णा": 2810,
      "दा": 2811,
      "উত্তর": 2812,
      "ণি": 2813,
      "ুট": 2814,
      "▁था": 2815,
      "▁[H": 2816,
      "▁[অ": 2817,
      "▁\"श्रेणी:Harv": 2818,
      "ারণ": 2819,
      "▁সে": 2820,
      "याल": 2821,
      "▁করা": 2822,
      "uly": 2823,
      "्वर": 2824,
      "▁আর্কাইভকৃত": 2825,
      "▁হি": 2826,
      "▁आधार": 2827,
      "▁संघ": 2828,
      "पाकिस्तान": 2829,
      "▁উদ্ধৃতি\")}}`:": 2830,
      "श्रेणी:Harv_and_Sfn_template_errors": 2831,
      "▁([help](./श्रेणी:Harv_and_Sfn_template_errors": 2832,
      "▁([help](./श्रेणी:Harv_and_Sfn_template_errors?action=edit&redlink=1": 2833,
      "/s": 2834,
      "1947": 2835,
      "iksh": 2836,
      "▁April": 2837,
      "ikshit": 2838,
      "▁Y": 2839,
      "arliament": 2840,
      "▁India\"": 2841,
      ".gov.in/": 2842,
      "india.gov.in": 2843,
      "1_": 2844,
      "uch": 2845,
      "▁ed": 2846,
      "▁la": 2847,
      "▁21": 2848,
      "](./L": 2849,
      "](./Indian_": 2850,
      "\\)\")\n": 2851,
      ".jpg)](./File:": 2852,
      "ystem": 2853,
      "4.": 2854,
      "7/": 2855,
      "asia": 2856,
      "lear": 2857,
      "▁per": 2858,
      "ature": 2859,
      "Intern": 2860,
      "Kulke": 2861,
      "_আ": 2862,
      "_ব": 2863,
      "i-": 2864,
      "ores": 2865,
      "की": 2866,
      "तंत्र": 2867,
      "तमिल": 2868,
      "वरी": 2869,
      "ेर": 2870,
      "्ला": 2871,
      "্ম": 2872,
      "▁धर्म": 2873,
      "▁विश्व": 2874,
      "](./उ": 2875,
      "▁\"उ": 2876,
      "▁सि": 2877,
      "▁countries": 2878,
      "ाली": 2879,
      "▁আগ": 2880,
      "▁[মূল": 2881,
      "▁সাম": 2882,
      "श्मी": 2883,
      "युक्त": 2884,
      "-in-": 2885,
      "eth": 2886,
      "చే": 2887,
      "ైనా": 2888,
      "▁శ": 2889,
      "](./ఇ": 2890,
      "](./బ": 2891,
      "](./స": 2892,
      "▁[ఇ": 2893,
      "▁\"జ": 2894,
      "భారత_": 2895,
      "లో](./": 2896,
      "రిజ": 2897,
      "క్కు": 2898,
      "ourt": 2899,
      "ండ్": 2900,
      "స్కృతి": 2901,
      "JPG": 2902,
      ",000": 2903,
      "Rothermund": 2904,
      "Wik": 2905,
      "co": 2906,
      "eg": 2907,
      "entral": 2908,
      "98": 2909,
      "inister": 2910,
      "-w": 2911,
      "-re": 2912,
      "5_": 2913,
      "hal": 2914,
      "▁territ": 2915,
      "aint": 2916,
      "%2C_": 2917,
      "2_": 2918,
      "tor": 2919,
      "ंब": 2920,
      "गढ़": 2921,
      "ज्य": 2922,
      "म्रा": 2923,
      "ांग": 2924,
      "জানা": 2925,
      "োট": 2926,
      "▁রাজ": 2927,
      "▁[उ": 2928,
      "▁[ব": 2929,
      "cient": 2930,
      "য়া": 2931,
      "▁India,": 2932,
      "▁अधिक": 2933,
      "▁है।\n": 2934,
      "▁বৃ": 2935,
      "तिहास": 2936,
      "▁উৎস/0": 2937,
      "](./বিশেষ:বইয়ের_উৎস/0": 2938,
      "स्कृत": 2939,
      "▁हिन्द": 2940,
      "শাসিত": 2941,
      "eople": 2942,
      "ari": 2943,
      "eneral": 2944,
      "ower": 2945,
      "glish": 2946,
      "Dyson": 2947,
      "iter": 2948,
      "eration": 2949,
      "ick": 2950,
      "isher": 2951,
      "▁(PDF)": 2952,
      "69": 2953,
      "rst": 2954,
      "▁22": 2955,
      "▁[W": 2956,
      "▁cons": 2957,
      "formatic": 2958,
      "▁region": 2959,
      "▁Commission": 2960,
      "urope": 2961,
      "▁Th": 2962,
      "rojec": 2963,
      "uclear": 2964,
      "ities": 2965,
      "পাল": 2966,
      "রিক": 2967,
      "ীর": 2968,
      "ఆసియా": 2969,
      "▁[ই": 2970,
      "▁[జ": 2971,
      "▁[బ": 2972,
      "▁\"ব": 2973,
      "्रिट": 2974,
      "▁मु": 2975,
      "▁పా": 2976,
      "line": 2977,
      "▁অজানা": 2978,
      "▁কো": 2979,
      "▁వా": 2980,
      "▁তালিকা": 2981,
      "▁बाद": 2982,
      "्वार": 2983,
      "ండు": 2984,
      "▁చూ": 2985,
      "త్వ": 2986,
      "িয়ান": 2987,
      "ప్రధాన": 2988,
      "ड़ा": 2989,
      "िल्ल": 2990,
      "ongress": 2991,
      "জাতন্ত্র": 2992,
      "...": 2993,
      "▁१९": 2994,
      "ঞ্জ": 2995,
      "slands": 2996,
      "▁have": 2997,
      "330px-": 2998,
      "म्राज्य": 2999,
      "65": 3000,
      "ibrary": 3001,
      "▁28": 3002,
      "comp": 3003,
      "ama": 3004,
      "ats": 3005,
      "▁Population": 3006,
      "KulkeRothermund": 3007,
      "61": 3008,
      "ote": 3009,
      "▁off": 3010,
      "ter_": 3011,
      "ritannica": 3012,
      "CO": 3013,
      "rd": 3014,
      "▁-": 3015,
      "_Indian_": 3016,
      "harat": 3017,
      "times.com/": 3018,
      "tal": 3019,
      "\")[[": 3020,
      "ime": 3021,
      "-26": 3022,
      "64": 3023,
      "_और": 3024,
      "_पर": 3025,
      "aw": 3026,
      "एं": 3027,
      "वर्": 3028,
      "सी": 3029,
      "দের": 3030,
      "ল্": 3031,
      "](./ব": 3032,
      "▁[3": 3033,
      "▁[F": 3034,
      "▁\"ক": 3035,
      "ince": 3036,
      "India_": 3037,
      "▁कार": 3038,
      "▁मान": 3039,
      "्यटन": 3040,
      "▁সঙ্গ": 3041,
      "▁part": 3042,
      "▁Constitution": 3043,
      "▁২১": 3044,
      "প্রা": 3045,
      "माण": 3046,
      "ishing": 3047,
      "▁शास": 3048,
      "▁यह": 3049,
      "▁[ভারতের": 3050,
      "▁[ভারতীয়": 3051,
      "কিস্তান": 3052,
      "▁([সাহায্য](./সাহায্য:উদ্ধৃতি_শৈলী_ত্রুটি#par": 3053,
      "▁(২০০": 3054,
      "ज्ञान": 3055,
      "_ও_": 3056,
      "2-0)": 3057,
      "dom": 3058,
      "man": 3059,
      "▁[_A": 3060,
      ".svg.png)](./": 3061,
      "ledge": 3062,
      "Dyson2018": 3063,
      "-20": 3064,
      "tive": 3065,
      "etail": 3066,
      ":S": 3067,
      "e/": 3068,
      "iod": 3069,
      "-17": 3070,
      "▁de": 3071,
      "_సా": 3072,
      "countries": 3073,
      "iff": 3074,
      "ంప": 3075,
      "గణ": 3076,
      "దిన": 3077,
      "నై": 3078,
      "రీ": 3079,
      "ోర్": 3080,
      "](./జ": 3081,
      "▁\"చ": 3082,
      "citation": 3083,
      "resid": 3084,
      "▁క్రీ": 3085,
      "క్‌": 3086,
      "నికి": 3087,
      "ల్ల": 3088,
      "ంగీ": 3089,
      "నాభా": 3090,
      "aper": 3091,
      "జాబి": 3092,
      "▁తే": 3093,
      "శాస్త్ర": 3094,
      "▁భాష\")\n": 3095,
      "బెంగ": 3096,
      "జాబితా": 3097,
      "-g": 3098,
      "05": 3099,
      "_भाषा": 3100,
      "oin": 3101,
      "तर": 3102,
      "भी": 3103,
      "शास": 3104,
      "ाट": 3105,
      "ত্য": 3106,
      "তালিকা": 3107,
      "দা": 3108,
      "েল": 3109,
      "েস": 3110,
      "▁थ": 3111,
      "](./विशेष:पुस्तक": 3112,
      "▁\"विशेष:पुस्तक": 3113,
      "▁स्रोत/": 3114,
      "▁पा": 3115,
      "](./भारत_के_": 3116,
      "b/b": 3117,
      "ियाँ": 3118,
      "लाई": 3119,
      "কাশ": 3120,
      "_स्रोत/": 3121,
      "লেখ": 3122,
      "-2)": 3123,
      "▁लि": 3124,
      "_के_आ": 3125,
      ".html)।": 3126,
      "श्चिम": 3127,
      "ांग्ला": 3128,
      "](./विशेष:पुस्तक_स्रोत/": 3129,
      ".\"\n": 3130,
      "if": 3131,
      "ution": 3132,
      "▁27": 3133,
      "lobal": 3134,
      "▁Pr": 3135,
      "index": 3136,
      "argest": 3137,
      "cess": 3138,
      "▁23": 3139,
      "▁year": 3140,
      "University": 3141,
      ".jpg/120px-": 3142,
      "73": 3143,
      "88": 3144,
      "cat": 3145,
      "eu": 3146,
      "oth": 3147,
      "▁$": 3148,
      "▁[[": 3149,
      "▁\"F": 3150,
      "ten": 3151,
      "ories": 3152,
      "▁Dec": 3153,
      "10.10": 3154,
      "i,": 3155,
      "itation": 3156,
      "1950": 3157,
      "▁Pro": 3158,
      "▁**[": 3159,
      "▁Oxford": 3160,
      "▁[Archived](https://web.archive.org/web/20": 3161,
      "gy": 3162,
      "pib": 3163,
      "ंप": 3164,
      "উপ": 3165,
      "পরি": 3166,
      "ফোর্": 3167,
      "▁৪": 3168,
      "▁৫": 3169,
      "on_": 3170,
      "্রু": 3171,
      "▁[↑](./भारत": 3172,
      "anges": 3173,
      "▁class": 3174,
      "▁जु": 3175,
      "▁है,": 3176,
      "ेश्वर": 3177,
      "ंगा": 3178,
      "▁২০২": 3179,
      "eptem": 3180,
      "▁সংস্": 3181,
      "▁उप": 3182,
      "যুক্ত": 3183,
      "म्ब": 3184,
      "▁यु": 3185,
      "ার্ক": 3186,
      "](./List_of_countries": 3187,
      "त्प": 3188,
      "गुजरा": 3189,
      "ूचना": 3190,
      "_प्रदेश": 3191,
      "▁আর্কাইভকৃত।": 3192,
      "eptember": 3193,
      "_n": 3194,
      "fter": 3195,
      "has": 3196,
      "uis": 3197,
      "tent": 3198,
      "ision": 3199,
      "imf": 3200,
      "▁National": 3201,
      "engal": 3202,
      "53": 3203,
      "tt": 3204,
      "▁![": 3205,
      "cience": 3206,
      "ocial": 3207,
      ".jpg)\n": 3208,
      "nologue": 3209,
      "ం?action=edit&redlink=1": 3210,
      "చల్": 3211,
      "యన్": 3212,
      "వులు": 3213,
      "షు": 3214,
      "ూర్": 3215,
      "](./ప": 3216,
      "](./భారతీయ": 3217,
      "▁[భారతీయ": 3218,
      "ారం": 3219,
      "ార్ట": 3220,
      "ాలయ": 3221,
      "ument": 3222,
      "▁_The": 3223,
      "క్క": 3224,
      "▁వ్యవస్థ": 3225,
      "▁సి": 3226,
      "▁ము": 3227,
      "ండో": 3228,
      "ముంబ": 3229,
      "సిన": 3230,
      "ినల్": 3231,
      "▁north": 3232,
      "ద్ద": 3233,
      "▁ఉన్న": 3234,
      "▁ఉన్నాయ": 3235,
      "పాకిస్తాన్": 3236,
      "ంధీ": 3237,
      "▁ఒక": 3238,
      "▁ఒరిజ": 3239,
      "ార్టీ": 3240,
      "▁ఒరిజినల్": 3241,
      ".india": 3242,
      "▁13": 3243,
      "ipur": 3244,
      "-40": 3245,
      "Comb": 3246,
      "ID": 3247,
      "_ই": 3248,
      "hr": 3249,
      "lang": 3250,
      "काल": 3251,
      "बाद": 3252,
      "में": 3253,
      "रे": 3254,
      "रक्ष": 3255,
      "वाद": 3256,
      "ाष्ट्र": 3257,
      "ागर": 3258,
      "ोर्": 3259,
      "এফ": 3260,
      "দক্ষিণ": 3261,
      "েক্ষা": 3262,
      "▁\"স": 3263,
      "one": 3264,
      "▁1.": 3265,
      "ক্ট": 3266,
      "िक्ष": 3267,
      "▁কা": 3268,
      "_की_": 3269,
      "▁Development": 3270,
      "ক্ষম": 3271,
      "elig": 3272,
      "▁বৈ": 3273,
      "क्षेत्र": 3274,
      "▁শিল্প": 3275,
      "_मेला": 3276,
      "नेमा": 3277,
      "যুক্তি": 3278,
      "টেমপ্লেট:বই": 3279,
      "धार_पर": 3280,
      "द्योग": 3281,
      "▁2014.\n": 3282,
      "हाराष्ट्र": 3283,
      "▁মধ্যে": 3284,
      "পূর্ব": 3285,
      "्रिटिश": 3286,
      "_के_आधार_पर": 3287,
      "Combined": 3288,
      "_के_आधार_पर_भारत": 3289,
      "91": 3290,
      "pa": 3291,
      "ofile": 3292,
      "rab": 3293,
      "▁2016": 3294,
      "▁July": 3295,
      "embly": 3296,
      "usiness": 3297,
      "▁30": 3298,
      "](./F": 3299,
      "▁\"O": 3300,
      "▁government": 3301,
      ")](./": 3302,
      "67": 3303,
      "_H": 3304,
      "wood": 3305,
      "olper": 3306,
      "olpert": 3307,
      "\"](http://www.": 3308,
      "5-0)": 3309,
      "UN": 3310,
      "ban": 3311,
      "190": 3312,
      "ateg": 3313,
      "](./Special:BookSources/978-1": 3314,
      "▁\"Special:BookSources/978-1": 3315,
      "berg": 3316,
      "ortal": 3317,
      "logo": 3318,
      "ram": 3319,
      "ली": 3320,
      "व्य": 3321,
      "আই": 3322,
      "চে": 3323,
      "োবর": 3324,
      "▁ra": 3325,
      "▁राष्ट्रीय": 3326,
      "](./ক": 3327,
      "▁\"ই": 3328,
      "য়ু": 3329,
      "▁स्व": 3330,
      "▁मंदिर": 3331,
      "▁Cambridge": 3332,
      "files/": 3333,
      "▁दक्षिण": 3334,
      "iron": 3335,
      "ayan": 3336,
      "▁Empire": 3337,
      "ষ্ট": 3338,
      "ঙ্ক": 3339,
      "রেজি": 3340,
      ".jpg)](./चित्र:": 3341,
      ".jpg/330px-": 3342,
      "▁ইতিহাস": 3343,
      "▁২০১১": 3344,
      "outledge": 3345,
      "▁রয়েছে": 3346,
      "বাহিনী": 3347,
      "▁पुरालेखित।.": 3348,
      "বাধীন": 3349,
      "▁আগস্ট": 3350,
      "▁जुलाई": 3351,
      ".indiatimes.com/": 3352,
      "_के_आधार_पर_भारत_के_राज्य": 3353,
      "c/c": 3354,
      "tain": 3355,
      "term": 3356,
      "▁centur": 3357,
      "Oj": 3358,
      "t-": 3359,
      "జ్": 3360,
      "వరి": 3361,
      "శ్చ": 3362,
      "ిన్న": 3363,
      "ెల": 3364,
      "▁[భారత": 3365,
      "▁\"భారతదేశ": 3366,
      "్రె": 3367,
      "▁Ass": 3368,
      "anglad": 3369,
      "నిస్తాన్": 3370,
      "▁మధ్య": 3371,
      ".gov/": 3372,
      "](./భారతదేశంలో": 3373,
      "స్థాన్": 3374,
      "-107": 3375,
      "_by_": 3376,
      "దీ:": 3377,
      "▁పేజీ": 3378,
      "also": 3379,
      "మ్మూ": 3380,
      "▁\"భారతదేశంలో": 3381,
      "▁చూసిన": 3382,
      "▁తేదీ:": 3383,
      "శ్చి": 3384,
      "angladesh": 3385,
      "▁పేజీని": 3386,
      "-23": 3387,
      "99": 3388,
      ":[": 3389,
      "▁2006": 3390,
      "-19-5": 3391,
      "oi.org/": 3392,
      "▁(PDF).": 3393,
      "](https://doi.org/": 3394,
      "-c": 3395,
      "-f": 3396,
      "0.": 3397,
      "clop": 3398,
      "ren": 3399,
      "▁Act": 3400,
      "▁Pradesh": 3401,
      "▁Metcalf": 3402,
      "cyclop": 3403,
      "censusindia.gov.in/": 3404,
      "]:": 3405,
      "know": 3406,
      "wart": 3407,
      "zberg": 3408,
      "तेल": 3409,
      "न\")": 3410,
      "র্য": 3411,
      "শনা": 3412,
      "▁ar": 3413,
      "▁नाम": 3414,
      "▁[জ": 3415,
      "religion": 3416,
      "chwart": 3417,
      "](./ভারত#CITEREF": 3418,
      "বিজ্ঞান": 3419,
      "▁अप": 3420,
      "नाग": 3421,
      "▁কর": 3422,
      "ক্ষে": 3423,
      "ভাগ": 3424,
      "▁প্রা": 3425,
      "▁প্রতি": 3426,
      "েশন": 3427,
      "▁জুন": 3428,
      "s_C": 3429,
      "▁2024": 3430,
      "▁विक": 3431,
      "time": 3432,
      "▁रूप": 3433,
      "পাকিস্তান": 3434,
      "▁[↑](./भारत#cite_ref-FOOTNOTE": 3435,
      "ক্তকারী": 3436,
      "▁[भारतीय": 3437,
      "▁देशों": 3438,
      "গুলির": 3439,
      "_का_": 3440,
      "চিত্র:": 3441,
      "বাংলাদেশ": 3442,
      "শনাক্তকারী": 3443,
      "chwartzberg": 3444,
      ".as": 3445,
      "3/": 3446,
      "En": 3447,
      "cto": 3448,
      "rgan": 3449,
      "ual": 3450,
      "viron": 3451,
      "▁\"J": 3452,
      "tiv": 3453,
      "▁Sh": 3454,
      "▁world": 3455,
      "-80": 3456,
      "▁June": 3457,
      "▁Octo": 3458,
      "harma": 3459,
      "vironment": 3460,
      "▁October": 3461,
      "76": 3462,
      "8)": 3463,
      "ties": 3464,
      "2017": 3465,
      "lam": 3466,
      "▁2023": 3467,
      "▁subcontinent": 3468,
      "National_": 3469,
      "ni": 3470,
      "▁Aug": 3471,
      "▁Census": 3472,
      "oll": 3473,
      "akh": 3474,
      "▁\"South": 3475,
      "%2F": 3476,
      "eshow": 3477,
      "emple": 3478,
      "resident": 3479,
      "▁August": 3480,
      "_W": 3481,
      "ater": 3482,
      "▁us": 3483,
      "](./J": 3484,
      "▁[J": 3485,
      "▁pla": 3486,
      "loc": 3487,
      "-এ": 3488,
      ".|": 3489,
      "/artic": 3490,
      "TR": 3491,
      "oci": 3492,
      "ंक": 3493,
      "एशिया": 3494,
      "धी": 3495,
      "वस्था": 3496,
      "ोन": 3497,
      "ইল": 3498,
      "তন্ত্র": 3499,
      "দ্য": 3500,
      "নীতি": 3501,
      "বল": 3502,
      "সদ": 3503,
      "–1": 3504,
      "▁ভ": 3505,
      "▁[০-": 3506,
      "▁\"অ": 3507,
      "ार्": 3508,
      "▁कि": 3509,
      "য়ন": 3510,
      "ash": 3511,
      "ool": 3512,
      "▁पूर्व": 3513,
      "বিধান": 3514,
      "ালা": 3515,
      "▁মে": 3516,
      "ंगाल": 3517,
      "▁तट": 3518,
      "▁न्या": 3519,
      "▁ব্যবস্থা": 3520,
      "▁হল": 3521,
      "ষ্ঠ": 3522,
      "▁एवं": 3523,
      "▁Press.": 3524,
      "ন্তর্": 3525,
      "हिन्दी": 3526,
      "economic": 3527,
      "industry": 3528,
      "▁নাম": 3529,
      "श्मीर": 3530,
      "censusindia.gov.in/2011": 3531,
      "0/": 3532,
      "c=": 3533,
      "yy": 3534,
      "కై": 3535,
      "మం": 3536,
      "శ్రీ": 3537,
      "షన్": 3538,
      "హ్": 3539,
      "ెలు": 3540,
      "▁also": 3541,
      "](./అ": 3542,
      "▁పరి": 3543,
      "ాలు\n": 3544,
      "రియా": 3545,
      "▁మార్": 3546,
      "ప్రపంచ": 3547,
      "▁సంస్కృతి": 3548,
      "▁రాజవంశం": 3549,
      "rojection": 3550,
      "81": 3551,
      "2019": 3552,
      "ade": 3553,
      "andard": 3554,
      "_Press": 3555,
      "Citation": 3556,
      "dis": 3557,
      "ron": 3558,
      "▁[t": 3559,
      "▁population": 3560,
      "eport": 3561,
      "▁\\(identifier\\)\"):[": 3562,
      "1994": 3563,
      ".fr": 3564,
      "45": 3565,
      "500": 3566,
      "hat": 3567,
      "oor": 3568,
      "▁29": 3569,
      "▁\"Ch": 3570,
      "▁their": 3571,
      "▁into": 3572,
      "▁sec": 3573,
      "▁system": 3574,
      "andhi": 3575,
      "ummit\")\n": 3576,
      "uropean": 3577,
      "-le": 3578,
      "32": 3579,
      "_ब": 3580,
      "_ভারত": 3581,
      "ton": 3582,
      "अन": 3583,
      "एस": 3584,
      "चे": 3585,
      "टक": 3586,
      "सद": 3587,
      "ीस": 3588,
      "ेस": 3589,
      "কারি": 3590,
      "বন": 3591,
      "মন": 3592,
      "লচ্চ": 3593,
      "হু": 3594,
      "েলা": 3595,
      "১৭": 3596,
      "▁ড": 3597,
      "▁it": 3598,
      "](./স": 3599,
      "▁[सं": 3600,
      "▁\"द": 3601,
      "▁\"প": 3602,
      "ার্চ": 3603,
      "▁केंद्र": 3604,
      "nored": 3605,
      "chnolog": 3606,
      "ley": 3607,
      "বিত": 3608,
      "ween": 3609,
      "्तर": 3610,
      "ignored": 3611,
      "etween": 3612,
      "▁মেশিন": 3613,
      "विधान": 3614,
      "ाला": 3615,
      "भाग": 3616,
      "%E0%A4%": 3617,
      "संख्या": 3618,
      "▁भू": 3619,
      "ameter_": 3620,
      "▁अनुसार": 3621,
      "%E0%A6%A": 3622,
      "▁উপেক্ষা": 3623,
      "▁নির্": 3624,
      "▁উৎস/": 3625,
      "udden": 3626,
      "](./বিশেষ:বইয়ের_উৎস/": 3627,
      "▁स्थ": 3628,
      "▁first": 3629,
      "▁([সাহায্য](./সাহায্য:উদ্ধৃতি_শৈলী_ত্রুটি#parameter_": 3630,
      "লচ্চিত্র": 3631,
      "▁([সাহায্য](./সাহায্য:উদ্ধৃতি_শৈলী_ত্রুটি#parameter_ignored": 3632,
      "\"](http://": 3633,
      "2-": 3634,
      "CE": 3635,
      "detail": 3636,
      "ry": 3637,
      "son": 3638,
      "ymb": 3639,
      "umber": 3640,
      "olk": 3641,
      "▁2018": 3642,
      "ohn": 3643,
      "ology": 3644,
      "4/4": 3645,
      ".JPG": 3646,
      "4-7": 3647,
      "6_": 3648,
      "jab": 3649,
      "rish": 3650,
      "ert": 3651,
      "estern": 3652,
      "▁India.": 3653,
      "olic": 3654,
      "▁during": 3655,
      "_Delhi": 3656,
      "-19-8": 3657,
      "Indus": 3658,
      "ategory": 3659,
      "_language": 3660,
      "etr": 3661,
      "leshow": 3662,
      "\");": 3663,
      "ise": 3664,
      "here": 3665,
      "](//upload.wikimedia.org/wikipedia/commons/thumb/b/b": 3666,
      "▁been": 3667,
      "leshow/": 3668,
      "ne": 3669,
      "ok": 3670,
      "2001": 3671,
      "acy": 3672,
      "_of_the": 3673,
      "url": 3674,
      "118": 3675,
      "▁K.": 3676,
      "▁form": 3677,
      "3-0)": 3678,
      "a\")\n": 3679,
      "athe": 3680,
      "एँ": 3681,
      "गो": 3682,
      "लि": 3683,
      "ील": 3684,
      "ोड़": 3685,
      "ংরেজি": 3686,
      "ণা": 3687,
      "দিল্": 3688,
      "ধিক": 3689,
      "পে": 3690,
      "মিল": 3691,
      "রু": 3692,
      "হিত": 3693,
      "ুম": 3694,
      "৯৭": 3695,
      "ం\"),": 3696,
      "ఆఫ్": 3697,
      "కత": 3698,
      "క్య": 3699,
      "దాయ": 3700,
      "రే": 3701,
      "లంక": 3702,
      "వీ": 3703,
      "షి": 3704,
      "సు": 3705,
      "▁ఏ": 3706,
      "](./ই": 3707,
      "](./చ": 3708,
      "▁[न": 3709,
      "▁[చ": 3710,
      "ार्ट": 3711,
      "idd": 3712,
      "▁मूल": 3713,
      "▁সম্পর্ক": 3714,
      "adu": 3715,
      "adition": 3716,
      "స్సా": 3717,
      "▁పార్టీ": 3718,
      "▁Archived": 3719,
      "న్‌": 3720,
      "ాలు\")\n": 3721,
      "▁जो": 3722,
      "▁వచ్చ": 3723,
      "টিশ": 3724,
      "▁এর": 3725,
      "▁बहु": 3726,
      "▁सेना": 3727,
      "▁1950": 3728,
      "ముద్ర": 3729,
      "ন্দোল": 3730,
      "-81": 3731,
      "▁শতা": 3732,
      "লাই": 3733,
      "▁गण": 3734,
      "ड़ी": 3735,
      "म्बर": 3736,
      "గాంధీ": 3737,
      "▁Press\").": 3738,
      "▁ইউ": 3739,
      "నేపాల": 3740,
      "▁పేరు": 3741,
      "धिकार": 3742,
      "▁చెయ్య": 3743,
      "▁కూడా": 3744,
      "ంగీతం": 3745,
      "ముంబై": 3746,
      "శ్చిమ": 3747,
      "▁మార్గ": 3748,
      "হিত্য": 3749,
      "ন্দোলন": 3750,
      "▁చెయ్యబడ": 3751,
      "_K": 3752,
      "cms": 3753,
      "oy": 3754,
      "sha": 3755,
      "▁comp": 3756,
      "▁India_": 3757,
      "2000": 3758,
      "ird": 3759,
      "4-0)": 3760,
      "72": 3761,
      "▁[v": 3762,
      "▁[Ch": 3763,
      "71": 3764,
      "▁al": 3765,
      "▁es": 3766,
      "](./Ch": 3767,
      "▁[d": 3768,
      "ins": 3769,
      "▁September": 3770,
      "olly": 3771,
      "form": 3772,
      "uddh": 3773,
      "ollywood": 3774,
      "_at": 3775,
      "▁all": 3776,
      "2023": 3777,
      "▁2009": 3778,
      "60px-": 3779,
      "ose": 3780,
      "▁not": 3781,
      "AsherTalbot2008": 3782,
      "bi": 3783,
      "ces": 3784,
      "तिक": 3785,
      "दू": 3786,
      "श्री": 3787,
      "ीत": 3788,
      "ेट": 3789,
      "এশ": 3790,
      "গত": 3791,
      "চার": 3792,
      "▁ভূ": 3793,
      "](./প": 3794,
      "▁[e": 3795,
      "▁*[": 3796,
      "ics": 3797,
      "▁मा": 3798,
      "বিক": 3799,
      "▁পা": 3800,
      "ানু": 3801,
      "▁মা": 3802,
      "नाथ": 3803,
      "_क्षेत्र": 3804,
      "▁বর্": 3805,
      "▁एशिया": 3806,
      "%E0%A7%": 3807,
      "▁भाषा\")\n": 3808,
      "জাতীয়_": 3809,
      "▁[আর্কাইভকৃত](https://web.archive.org/web/201": 3810,
      "্রিটিশ": 3811,
      "ুটবল": 3812,
      "गुजरात": 3813,
      "ymbol": 3814,
      "Template": 3815,
      "ule": 3816,
      "India\\)": 3817,
      "lem": 3818,
      "▁Times": 3819,
      "indust": 3820,
      "unjab": 3821,
      "_projection": 3822,
      "orthographic": 3823,
      "8/8": 3824,
      "KulkeRothermund2004": 3825,
      "industan": 3826,
      "orthographic_projection": 3827,
      "3_": 3828,
      "6/": 3829,
      "NG": 3830,
      "c.": 3831,
      "div": 3832,
      "▁state": 3833,
      "▁between": 3834,
      "▁2017": 3835,
      "ular": 3836,
      "irect": 3837,
      "-to": 3838,
      "minis": 3839,
      "ering": 3840,
      "en/": 3841,
      "▁ab": 3842,
      "ouse": 3843,
      ".org": 3844,
      "amp": 3845,
      "ata_": 3846,
      ".bn": 3847,
      "New": 3848,
      "_O": 3849,
      "_వ": 3850,
      "గర": 3851,
      "టక": 3852,
      "టా": 3853,
      "దార": 3854,
      "నీ": 3855,
      "రో": 3856,
      "సభ": 3857,
      "ెద్ద": 3858,
      "▁2.": 3859,
      "](./భారత_": 3860,
      "▁[సి": 3861,
      "▁\"సి": 3862,
      "iation": 3863,
      "in_India": 3864,
      "encies": 3865,
      "▁(ed": 3866,
      "iction": 3867,
      "▁పు": 3868,
      "రాజ్య": 3869,
      "▁కేంద్రపాలిత": 3870,
      "ourn": 3871,
      "▁[\"C": 3872,
      "త్స": 3873,
      "▁రాజ్య": 3874,
      "pecial:BookSources/978": 3875,
      "▁Jan": 3876,
      "▁ఉంది.": 3877,
      "వాతంత్ర": 3878,
      "▁దేశాల": 3879,
      "లాదేశ్": 3880,
      "స్తు": 3881,
      "▁సామ్రాజ్యం](./": 3882,
      "దీవులు": 3883,
      "హిందీ": 3884,
      "▁భాషలు": 3885,
      "ంగ్లాదేశ్": 3886,
      "ారు.": 3887,
      "_ప్రా": 3888,
      "్రిటి": 3889,
      "ూర్పు": 3890,
      "కైవు": 3891,
      "/h": 3892,
      "gis": 3893,
      "जय": 3894,
      "डी": 3895,
      "पी": 3896,
      "पति": 3897,
      "भू": 3898,
      "मह": 3899,
      "मंत्र": 3900,
      "रो": 3901,
      "ल\")": 3902,
      "ধারণ": 3903,
      "পাত": 3904,
      "মন্ত্র": 3905,
      "রক্ষণ": 3906,
      "হিনী": 3907,
      "▁फ": 3908,
      "য়ারি": 3909,
      "▁(১৯": 3910,
      "ikh": 3911,
      "▁but": 3912,
      "▁অর্থনৈতিক": 3913,
      "▁ক্র": 3914,
      "ource": 3915,
      "िया\")": 3916,
      "▁[\"India": 3917,
      "▁2020": 3918,
      "म्म": 3919,
      "▁साम्राज्य": 3920,
      "জাতিক": 3921,
      "वंश": 3922,
      "▁जाता": 3923,
      "▁वर्ष": 3924,
      "▁English": 3925,
      "ैदान": 3926,
      "तंत्रता": 3927,
      "द्योगिक": 3928,
      "ক্ষেত্র": 3929,
      "lm": 3930,
      "ph": 3931,
      "▁'": 3932,
      "inor": 3933,
      "▁more": 3934,
      "oi_\\(identifier\\)": 3935,
      "▁\"Doi": 3936,
      "](./Doi_\\(identifier\\)": 3937,
      ".php?": 3938,
      "langoff": 3939,
      "/S": 3940,
      "mu": 3941,
      "pu": 3942,
      "arh": 3943,
      "▁India\"),": 3944,
      "▁bec": 3945,
      "ates": 3946,
      "avid": 3947,
      "ildli": 3948,
      "ujar": 3949,
      "por": 3950,
      "▁2012": 3951,
      "archive.org/detail": 3952,
      "▁December": 3953,
      "censusindia.gov.in/2011census": 3954,
      "archive.org/details/": 3955,
      "79": 3956,
      "Qu": 3957,
      "a,": 3958,
      "britannica": 3959,
      "go": 3960,
      "▁im": 3961,
      "alog": 3962,
      "-00": 3963,
      ".org/wiki/": 3964,
      "britannica.com/": 3965,
      "earch": 3966,
      "tan": 3967,
      "पे": 3968,
      "वे": 3969,
      "िज़": 3970,
      "গা": 3971,
      "তার": 3972,
      "দ্র": 3973,
      "বেশ": 3974,
      "▁ड": 3975,
      "](./অ": 3976,
      "▁[প্র": 3977,
      "▁[हिन्द": 3978,
      "▁\"W": 3979,
      "▁\"इ": 3980,
      "an,": 3981,
      "ভারত\\)": 3982,
      "ingdom": 3983,
      "স্তা": 3984,
      "বাস": 3985,
      "विज्ञान": 3986,
      "তামিল": 3987,
      "▁Hindi": 3988,
      "apit": 3989,
      "]](./भारत#cite_note-1": 3990,
      "▁उत्तर": 3991,
      "ड़े": 3992,
      "▁২০০৯": 3993,
      "ी_भाषा": 3994,
      "রাষ্ট্রপতি": 3995,
      "द्यान": 3996,
      "নেপাল": 3997,
      "▁[_The": 3998,
      "र्थिक": 3999,
      "▁যুদ্ধ": 4000,
      "ंग्रेज़ी": 4001,
      "ক্সফোর্": 4002,
      "यालय": 4003,
      "University_Press": 4004,
      "▁[↑](./भारत#cite_ref-1": 4005,
      "ার্কিন": 4006,
      "ক্টোবর": 4007,
      "বাধীনতা": 4008,
      "ক্সফোর্ড": 4009,
      "az": 4010,
      "ned": 4011,
      "amb": 4012,
      "▁1,": 4013,
      "ovement": 4014,
      "▁[\"The": 4015,
      "able": 4016,
      "55": 4017,
      "5–": 4018,
      "86": 4019,
      "=http": 4020,
      "rm": 4021,
      "content": 4022,
      "ublishing": 4023,
      "olicy": 4024,
      "2,": 4025,
      "94": 4026,
      "Asia": 4027,
      "crip": 4028,
      "ంజా": 4029,
      "క్ర": 4030,
      "కేంద్రపాలిత": 4031,
      "గి": 4032,
      "టీ": 4033,
      "టాన్": 4034,
      "లను": 4035,
      "వె": 4036,
      "వరణ": 4037,
      "హదార": 4038,
      "ూచ": 4039,
      "▁భారతదేశ": 4040,
      "్యం": 4041,
      "umar": 4042,
      "భారతదేశ_": 4043,
      "arch_": 4044,
      "▁కు": 4045,
      "▁కొ": 4046,
      "ాలు\")": 4047,
      "▁వ్యా": 4048,
      "Informatic": 4049,
      "▁మత": 4050,
      "▁మా": 4051,
      "▁మతము": 4052,
      "▁చే": 4053,
      "తావరణ": 4054,
      "నాడు": 4055,
      "trib": 4056,
      "▁tw": 4057,
      "ాయి": 4058,
      "ణాసియా": 4059,
      "టెడ్": 4060,
      "▁ఆర్కైవు": 4061,
      "raven": 4062,
      "▁రైలు": 4063,
      "భూటాన్": 4064,
      "▁అధికార": 4065,
      "_సామ్రాజ్యం": 4066,
      "s_Centre": 4067,
      "మంత్రి": 4068,
      "శ్రీలంక": 4069,
      "iddle": 4070,
      "Informatics_Centre": 4071,
      "7,": 4072,
      "Fisher": 4073,
      "▁comm": 4074,
      "edic": 4075,
      "▁music": 4076,
      "▁[Stein": 4077,
      "▁official": 4078,
      "Fisher2018": 4079,
      "_প্র": 4080,
      "site": 4081,
      "डु": 4082,
      "णि": 4083,
      "त्य": 4084,
      "धु": 4085,
      "लोक": 4086,
      "ণ্": 4087,
      "দু": 4088,
      "ভর": 4089,
      "মু": 4090,
      "শীল": 4091,
      "েখ": 4092,
      "▁छ": 4093,
      "▁res": 4094,
      "▁ধর্ম": 4095,
      "▁[_India": 4096,
      "▁[पु": 4097,
      "▁\"न": 4098,
      "▁\"सं": 4099,
      "ara": 4100,
      "▁(পি": 4101,
      "ন্ট": 4102,
      "[[১": 4103,
      "uslim": 4104,
      "00)": 4105,
      "istor": 4106,
      "▁অক্টোবর": 4107,
      "▁মহা": 4108,
      "नाव": 4109,
      "▁द्वार": 4110,
      "ের_তালিকা": 4111,
      "▁প্রযুক্তি": 4112,
      "▁দি": 4113,
      "माज": 4114,
      "প্ত": 4115,
      "▁থেকে](http://www.": 4116,
      "সংস্": 4117,
      "ी](./अ": 4118,
      "ড়া": 4119,
      "▁अन्य": 4120,
      "सेना": 4121,
      "▁উদ্ধৃতি](./টেমপ্লেট:": 4122,
      "gram": 4123,
      "▁चु": 4124,
      "▁हुई": 4125,
      "▁২০০৭।": 4126,
      "▁समय": 4127,
      "্যান্য": 4128,
      "বর্ত": 4129,
      "লোক": 4130,
      "▁বৃহ": 4131,
      "त्पाद": 4132,
      "ক্ষমতা": 4133,
      "ণ্ড": 4134,
      "_en": 4135,
      "day": 4136,
      "▁—": 4137,
      "](./W": 4138,
      "▁[I": 4139,
      "ones": 4140,
      "omen": 4141,
      "come": 4142,
      "even": 4143,
      "-90": 4144,
      "▁Islands": 4145,
      "Harle": 4146,
      "gency": 4147,
      "▁January": 4148,
      "-H": 4149,
      "110": 4150,
      "89": 4151,
      "BC": 4152,
      "CN": 4153,
      "mon": 4154,
      "▁ac": 4155,
      "ace": 4156,
      "inguis": 4157,
      "▁Affair": 4158,
      "▁May": 4159,
      "▁dance": 4160,
      "s_and": 4161,
      "▁2004": 4162,
      "inguistic": 4163,
      "IM": 4164,
      "ft": 4165,
      "ges": 4166,
      "▁0.": 4167,
      "-14": 4168,
      "▁Congress": 4169,
      "▁Government": 4170,
      "ocument": 4171,
      "clud": 4172,
      "-of": 4173,
      "-21": 4174,
      "52": 4175,
      "6-0)": 4176,
      "ven": 4177,
      "orce": 4178,
      "ilk": 4179,
      "▁national": 4180,
      "inistry_of_": 4181,
      "athematic": 4182,
      "Wolpert": 4183,
      "_न": 4184,
      "_ন": 4185,
      "ईसा": 4186,
      "कल": 4187,
      "खाना": 4188,
      "टे": 4189,
      "तु": 4190,
      "रवरी": 4191,
      "ल्": 4192,
      "ाम": 4193,
      "ैक": 4194,
      "ोम": 4195,
      "গোল": 4196,
      "ছিল": 4197,
      "জে": 4198,
      "জার্": 4199,
      "ডিয়া": 4200,
      "ভেম্বর": 4201,
      "লু": 4202,
      "১-": 4203,
      "▁ऊ": 4204,
      "▁গ্র": 4205,
      "](./The": 4206,
      "▁[द": 4207,
      "▁[Metcalf": 4208,
      "ारी": 4209,
      "▁सु": 4210,
      "ustral": 4211,
      "र्दू": 4212,
      "▁अग": 4213,
      "▁दिया": 4214,
      "▁এশ": 4215,
      "▁बढ़": 4216,
      "▁নভেম্বর": 4217,
      "্বে": 4218,
      "িয়ন": 4219,
      "▁व्य": 4220,
      ".htm)।": 4221,
      "राष्ट्रपति": 4222,
      "ত্তম": 4223,
      "▁বাহিনী": 4224,
      "জাতি": 4225,
      "्रां": 4226,
      "র্থনীতি": 4227,
      "▁हुआ": 4228,
      "▁২০০৭।\n": 4229,
      "मुख": 4230,
      "▁হয়।": 4231,
      "हासागर": 4232,
      "▁বিশ্বের": 4233,
      "মাণু": 4234,
      "হিন্দু": 4235,
      "ীকরণ": 4236,
      "▁সাম্রাজ্য": 4237,
      "ंबई": 4238,
      "शासित": 4239,
      "▁लिए": 4240,
      "▁years": 4241,
      "िक्षा": 4242,
      "▁विकास": 4243,
      "ন্তর্জাতিক": 4244,
      "দিল্লি": 4245,
      "মন্ত্রী": 4246,
      "/121": 4247,
      "EX": 4248,
      "ealth": 4249,
      "fl": 4250,
      "anth": 4251,
      "▁Con": 4252,
      "107": 4253,
      "▁East": 4254,
      "esearch": 4255,
      "\")**|": 4256,
      "orest": 4257,
      "ttar": 4258,
      "ildlife": 4259,
      "-28": 4260,
      "Taj": 4261,
      "_4": 4262,
      "_University_Press": 4263,
      "nam": 4264,
      "ఆర్": 4265,
      "ఉత్తర": 4266,
      "ఒడి": 4267,
      "కీయ": 4268,
      "గం": 4269,
      "గలు": 4270,
      "చు": 4271,
      "జరా": 4272,
      "తూర్పు": 4273,
      "ది.": 4274,
      "భు": 4275,
      "మన్": 4276,
      "యి": 4277,
      "లస": 4278,
      "ీన": 4279,
      "ేక": 4280,
      "▁:": 4281,
      "▁హ": 4282,
      "▁జాబితా": 4283,
      "▁[Indian": 4284,
      "▁after": 4285,
      "▁states": 4286,
      "▁పట్ట": 4287,
      "▁Comp": 4288,
      "onso": 4289,
      "emoc": 4290,
      "నిక": 4291,
      "ంగ్రె": 4292,
      "▁సభ": 4293,
      "తాబ్": 4294,
      "▁Nations": 4295,
      ".jpg)[": 4296,
      "ులు\")|": 4297,
      "▁ప్రపంచ": 4298,
      "abad": 4299,
      "▁ఆసియా": 4300,
      "మ్రాజ్య": 4301,
      ".html).": 4302,
      "▁ఇతర": 4303,
      "గుజరా": 4304,
      "peration": 4305,
      "_New": 4306,
      "▁సామ్రాజ్యం|": 4307,
      "frica": 4308,
      "త్యేక": 4309,
      "రాష్ట్రపతి": 4310,
      "ప్ప": 4311,
      "umbai": 4312,
      "▁కాశ్మీ": 4313,
      "ependencies": 4314,
      "▁చెంద": 4315,
      "▁ఆర్ధిక": 4316,
      "▁స్థాన": 4317,
      "తమిళనాడు": 4318,
      "ప్రధానమంత్రి": 4319,
      "గణతంత్ర": 4320,
      "▁క్రీడ": 4321,
      "▁classical": 4322,
      "▁ఉన్నాయి.": 4323,
      "National_Informatics_Centre": 4324,
      "4/41/": 4325,
      "](//upload.wikimedia.org/wikipedia/commons/thumb/b/b0/": 4326,
      "ఆఫ్ఘ": 4327,
      "షియా": 4328,
      "న్‌ఫ": 4329,
      "నేపాల్": 4330,
      "తాబ్ద": 4331,
      "National_Informatics_Centre2005": 4332,
      "\"](https://": 4333,
      "K:": 4334,
      "NC": 4335,
      "_f": 4336,
      "_un": 4337,
      "ures": 4338,
      "ion_": 4339,
      "ajor": 4340,
      "/P": 4341,
      "II": 4342,
      "Pr": 4343,
      "_h": 4344,
      "ii": 4345,
      "thnologue": 4346,
      "2024": 4347,
      "araj": 4348,
      "▁co": 4349,
      "cean": 4350,
      "▁Talbot": 4351,
      ".htm)": 4352,
      "key": 4353,
      "▁2011.\n": 4354,
      "olitical": 4355,
      "▁Commissioner": 4356,
      "ournal": 4357,
      "-25": 4358,
      "_বি": 4359,
      "pt": 4360,
      "pla": 4361,
      "क्स": 4362,
      "न](./": 4363,
      "नगर": 4364,
      "ल](./": 4365,
      "वै": 4366,
      "ूर्": 4367,
      "ृति": 4368,
      "কো": 4369,
      "টান": 4370,
      "থ্য": 4371,
      "দে": 4372,
      "দার": 4373,
      "পুর": 4374,
      "ব্": 4375,
      "মার": 4376,
      "ে](./": 4377,
      "১৪": 4378,
      "▁ঘ": 4379,
      "▁ধ": 4380,
      "▁he": 4381,
      "▁फ़": 4382,
      "▁time": 4383,
      "▁[आ": 4384,
      "▁[इ": 4385,
      "▁[ন": 4386,
      "▁\"आ": 4387,
      "tel": 4388,
      "ार्च": 4389,
      "ভারতীয়": 4390,
      "change": 4391,
      "ন্স": 4392,
      "▁পর্ব": 4393,
      "ussia": 4394,
      "স্ট্র": 4395,
      "िक्": 4396,
      "িকী": 4397,
      "▁जून": 4398,
      "▁दिस": 4399,
      "দ্ধি": 4400,
      "राजस्थान": 4401,
      "▁প্রস্তা": 4402,
      "▁নদী": 4403,
      "▁জু": 4404,
      "▁Language": 4405,
      "ঙ্কা": 4406,
      "_\\(ভারত\\)": 4407,
      "সংঘ": 4408,
      "नेपाल": 4409,
      "त्तरा": 4410,
      "ডিএফ": 4411,
      "ance/": 4412,
      "সিন্ধ": 4413,
      "जाति": 4414,
      "ummits": 4415,
      "পাদ": 4416,
      "पर्यटन": 4417,
      "ুরু": 4418,
      "धानमंत्र": 4419,
      "▁গা": 4420,
      "्रीका": 4421,
      "_অঞ্চল": 4422,
      "▁[Archived](https://web.archive.org/web/201": 4423,
      "▁सूची\")": 4424,
      "actbook": 4425,
      "गणना": 4426,
      "ীলঙ্কা": 4427,
      "ष्ण": 4428,
      "হিন্দি": 4429,
      "▁निर्": 4430,
      ".svg/20px-Increase2": 4431,
      "শ্রীলঙ্কা": 4432,
      "Increase2.svg/20px-Increase2": 4433,
      "্মীর": 4434,
      "माणु": 4435,
      "म्मू": 4436,
      "▁two": 4437,
      "▁(পিডিএফ": 4438,
      "](//upload.wikimedia.org/wikipedia/commons/thumb/b/b0/Increase2.svg/20px-Increase2": 4439,
      "▁दिसम्बर": 4440,
      "](//upload.wikimedia.org/wikipedia/commons/thumb/b/b0/Increase2.svg/20px-Increase2.svg.png)": 4441,
      ".uk": 4442,
      "1-0)": 4443,
      "back": 4444,
      "gest": 4445,
      "ious": 4446,
      "m.nic.in/": 4447,
      "ncl": 4448,
      "▁art": 4449,
      "ised": 4450,
      "▁sh": 4451,
      "imalay": 4452,
      "olitics": 4453,
      "nclm.nic.in/": 4454,
      "dr": 4455,
      "itz": 4456,
      "ical_": 4457,
      "access": 4458,
      "ove": 4459,
      "olle": 4460,
      "▁Man": 4461,
      "▁2013": 4462,
      "▁1947": 4463,
      "ughal": 4464,
      "a/a": 4465,
      "obb": 4466,
      "9/9": 4467,
      "%7": 4468,
      ",[[": 4469,
      "-B": 4470,
      "UI": 4471,
      "_3": 4472,
      "ehr": 4473,
      "ira": 4474,
      "ria": 4475,
      "▁en": 4476,
      "▁[O": 4477,
      "▁\"I": 4478,
      "ndra": 4479,
      "theast": 4480,
      "idata": 4481,
      "-111": 4482,
      "tra": 4483,
      "▁most": 4484,
      "rahm": 4485,
      "▁group": 4486,
      "ublication": 4487,
      "\"](https://web.archive.org/web/20160": 4488,
      "gener": 4489,
      "▁tradition": 4490,
      "▁York": 4491,
      "▁territories": 4492,
      "](./List_of_countries_by_": 4493,
      ".aspx": 4494,
      "\".": 4495,
      "ola": 4496,
      "ased": 4497,
      "ross": 4498,
      "24)": 4499,
      "odi": 4500,
      "8-0)": 4501,
      "?url": 4502,
      "_द": 4503,
      "_प": 4504,
      "_व": 4505,
      "`|": 4506,
      "sar": 4507,
      "टी": 4508,
      "वी": 4509,
      "हीं": 4510,
      "िज": 4511,
      "िन्": 4512,
      "ैल": 4513,
      "ैंड": 4514,
      "গো": 4515,
      "চি": 4516,
      "বস": 4517,
      "বার": 4518,
      "ভৌ": 4519,
      "ভ্য": 4520,
      "মহা": 4521,
      "৫]](./ভারত#cite_note-": 4522,
      "▁२": 4523,
      "▁টা": 4524,
      "▁२०": 4525,
      "](./सं": 4526,
      "▁[ज": 4527,
      "2015": 4528,
      "▁मार्च": 4529,
      "्यता": 4530,
      "-16": 4531,
      "trar": 4532,
      "▁पह": 4533,
      "▁पार्ट": 4534,
      "▁পূ": 4535,
      "र्स": 4536,
      "र्जा": 4537,
      "](./भारतीय": 4538,
      "](./भारत_की_": 4539,
      "ece": 4540,
      "ালত": 4541,
      "িকি": 4542,
      "বায়ু": 4543,
      "▁মার্চ": 4544,
      "সাই": 4545,
      "23)": 4546,
      "त्रि": 4547,
      "webcitation": 4548,
      "▁बना": 4549,
      "▁ব্যা": 4550,
      "_सा": 4551,
      "state": 4552,
      "▁হয়ে": 4553,
      "িয়ার": 4554,
      "▁শা": 4555,
      "প্রদেশ": 4556,
      "▁relig": 4557,
      "ৃত্য": 4558,
      "▁संविधान": 4559,
      ".jpg)](./চিত্র:": 4560,
      "▁Union": 4561,
      "र्वत": 4562,
      "ंडिया": 4563,
      "पात": 4564,
      "onstituent": 4565,
      "ন্তর": 4566,
      "ंग्रेस": 4567,
      "ন্ডিয়া": 4568,
      "▁গণ": 4569,
      "▁সালের": 4570,
      "সাম্রাজ্য": 4571,
      "▁অনু": 4572,
      "स्कृति": 4573,
      "economy": 4574,
      "▁खाना\")": 4575,
      "িকেট": 4576,
      "िल्ली": 4577,
      "▁शासन": 4578,
      "▁थी": 4579,
      "व्यवस्था": 4580,
      "▁শতাংশ": 4581,
      "▁द्वारा": 4582,
      "▁বৃহত্তম": 4583,
      "▁फ़रवरी": 4584,
      "?url=http": 4585,
      "webcitation.org/": 4586,
      "-india": 4587,
      "1–": 4588,
      "EO": 4589,
      "Report": 4590,
      "WEO": 4591,
      "_న": 4592,
      "_ప్రదేశ్": 4593,
      "be": 4594,
      "s.[[": 4595,
      "ఉప": 4596,
      "జె": 4597,
      "ఢ్": 4598,
      "నాల": 4599,
      "లే": 4600,
      "ళు": 4601,
      "ౌద్ధ": 4602,
      "▁j": 4603,
      "▁డ": 4604,
      "▁భా": 4605,
      "▁...": 4606,
      "alore": 4607,
      "ాలీ": 4608,
      "**జాతీయ": 4609,
      "ర్చ": 4610,
      "_of_S": 4611,
      "angalore": 4612,
      "▁March": 4613,
      "ake": 4614,
      "ము\")": 4615,
      "▁2003": 4616,
      "–సా.శ.18": 4617,
      "▁అత్య": 4618,
      "▁ప్రభు": 4619,
      "ప్రత్యేక": 4620,
      "▁ఆధ": 4621,
      "మాఖ్య": 4622,
      "వాణా": 4623,
      "ంటి": 4624,
      "▁దేశం": 4625,
      "904-7": 4626,
      "▁election": 4627,
      "డ్డ": 4628,
      "▁[2](./India#cite_ref-FOOTNOTE": 4629,
      "దక్షిణాసియా": 4630,
      "_Temple": 4631,
      "▁[1](./India#cite_ref-FOOTNOTE": 4632,
      "▁గల": 4633,
      "▁భారతదేశంలో": 4634,
      "యునై": 4635,
      "glance/": 4636,
      "ష్ణ": 4637,
      "_చరిత్ర?action=edit&redlink=1": 4638,
      "india-glance/": 4639,
      "-521-80": 4640,
      "▁రాష్ట్రాలు,": 4641,
      "_మతము": 4642,
      "▁మొద": 4643,
      "▁రాజవంశం|": 4644,
      "chnology": 4645,
      "▁చెయ్యబడింది.": 4646,
      "యునైటెడ్": 4647,
      "-521-80904-7": 4648,
      "-78": 4649,
      ".).": 4650,
      "7-0)": 4651,
      "84": 4652,
      "ally": 4653,
      "-15": 4654,
      "▁sup": 4655,
      "▁Sanskrit": 4656,
      "▁Pakistan": 4657,
      "ode": 4658,
      "▁War": 4659,
      "uggest": 4660,
      "▁produc": 4661,
      "International": 4662,
      "/articleshow/": 4663,
      "829": 4664,
      "_J": 4665,
      "_w": 4666,
      "ks": 4667,
      "p?": 4668,
      "isions": 4669,
      "iving": 4670,
      "▁spe": 4671,
      "ters": 4672,
      "1996": 4673,
      "▁Kashmir": 4674,
      "f/f": 4675,
      "▁became": 4676,
      "IMF": 4677,
      "/ark": 4678,
      ":/121": 4679,
      "Pakistan": 4680,
      "f.fr": 4681,
      "ls": 4682,
      "rick": 4683,
      "ndaman": 4684,
      "arb": 4685,
      "▁(1,": 4686,
      "ough": 4687,
      "atus": 4688,
      ".svg)": 4689,
      "aksh": 4690,
      "▁one": 4691,
      "▁Asia\")\n": 4692,
      "48/c": 4693,
      "ervation": 4694,
      "usines": 4695,
      "iterature": 4696,
      "eligion": 4697,
      "▁2006](./India#CITEREF": 4698,
      ".bnf.fr": 4699,
      "ujarat": 4700,
      "/ark:/121": 4701,
      "48/cb": 4702,
      ".bnf.fr/ark:/121": 4703,
      ".bnf.fr/ark:/12148/cb": 4704,
      "-২": 4705,
      "85": 4706,
      "_11": 4707,
      "aur": 4708,
      "de": 4709,
      "view": 4710,
      "ंट": 4711,
      "खंड": 4712,
      "खण्ड": 4713,
      "गोल": 4714,
      "धि": 4715,
      "योग": 4716,
      "रू": 4717,
      "रेल": 4718,
      "शीन": 4719,
      "ाप": 4720,
      "ुरु": 4721,
      "ौर": 4722,
      "ौद्ध": 4723,
      "ौद्योगिक": 4724,
      "ংগ্র": 4725,
      "উই": 4726,
      "করণ": 4727,
      "তীক": 4728,
      "ধি": 4729,
      "নিক": 4730,
      "বহ": 4731,
      "বন্ধ": 4732,
      "লার": 4733,
      "১২": 4734,
      "৬]](./ভারত#cite_note-": 4735,
      "৮-": 4736,
      "▁৬": 4737,
      "▁৭": 4738,
      "▁या": 4739,
      "▁up": 4740,
      "▁\"জ": 4741,
      "teen": 4742,
      "tig": 4743,
      "्रम": 4744,
      "▁(`|": 4745,
      "▁संग": 4746,
      "chi": 4747,
      "▁मैदान": 4748,
      "atak": 4749,
      "etary": 4750,
      "▁अरब": 4751,
      "नाडु": 4752,
      "▁जल": 4753,
      "সাগর": 4754,
      "▁दर": 4755,
      "▁Delhi": 4756,
      "▁प्रति": 4757,
      "ভাবে": 4758,
      "ताब्": 4759,
      "epal": 4760,
      "▁2008": 4761,
      "स्त्र": 4762,
      "▁বিচার": 4763,
      "▁had": 4764,
      "पुरी": 4765,
      "170": 4766,
      "](./भारत#cite_ref-FOOTNOTE": 4767,
      "▁It": 4768,
      "ড়ি": 4769,
      "▁हैं,": 4770,
      "किम": 4771,
      "_suggest": 4772,
      "timesofindia": 4773,
      "▁সরকারি": 4774,
      "ultural": 4775,
      "rowth": 4776,
      "दीव": 4777,
      "▁इसके": 4778,
      "पालिका": 4779,
      "▁घाट": 4780,
      "সংখ্যা": 4781,
      "▁सिनेमा": 4782,
      "▁সঙ্গে": 4783,
      "▁northern": 4784,
      "বিত)": 4785,
      "▁([সাহায্য](./সাহায্য:উদ্ধৃতি_শৈলী_ত্রুটি#parameter_ignored_suggest": 4786,
      "िक्किम": 4787,
      "▁প্রস্তাবিত)": 4788,
      "?url=http://": 4789,
      "timesofindia.indiatimes.com/": 4790,
      "127": 4791,
      "Ar": 4792,
      "Uttar": 4793,
      "gress": 4794,
      "val": 4795,
      "arn": 4796,
      "▁par": 4797,
      "▁Ac": 4798,
      "▁St": 4799,
      "407": 4800,
      "ages/": 4801,
      "▁than": 4802,
      "national-": 4803,
      "-logo": 4804,
      "/D": 4805,
      "6)\n": 4806,
      "LA": 4807,
      "mong": 4808,
      "▁over": 4809,
      "](./O": 4810,
      "ery": 4811,
      "ched": 4812,
      "▁Modern": 4813,
      "▁Republic": 4814,
      "▁2015": 4815,
      ".com/news/": 4816,
      "▁BCE": 4817,
      "▁Economic": 4818,
      "▁2022": 4819,
      "-108": 4820,
      "▁end": 4821,
      "▁language\")\n": 4822,
      "▁[2](./India#cite_ref-": 4823,
      "ative": 4824,
      "▁[1](./India#cite_ref-": 4825,
      "▁2010](./India#CITEREF": 4826,
      "▁Act,": 4827,
      "ehru": 4828,
      ".world": 4829,
      "/article": 4830,
      "/files/": 4831,
      "300": 4832,
      "_V": 4833,
      "_10": 4834,
      "bank": 4835,
      "tle": 4836,
      "▁/": 4837,
      "onwe": 4838,
      "edi": 4839,
      "2016": 4840,
      "▁includ": 4841,
      "agar": 4842,
      "_Sh": 4843,
      "1997": 4844,
      "▁3,": 4845,
      "ternal": 4846,
      "profile": 4847,
      "ondon": 4848,
      "ociet": 4849,
      "earch/": 4850,
      "onwealth": 4851,
      "-S": 4852,
      "119": 4853,
      "93": 4854,
      "Con": 4855,
      "HA": 4856,
      "_[": 4857,
      "20)": 4858,
      "▁Centre": 4859,
      "▁Plate": 4860,
      "top": 4861,
      "-অ": 4862,
      ":EditPage/": 4863,
      "St": 4864,
      "Sharma": 4865,
      "_I": 4866,
      "_अ": 4867,
      "_প": 4868,
      "cent": 4869,
      "va": 4870,
      "गंगा": 4871,
      "मेर": 4872,
      "रण": 4873,
      "लिस": 4874,
      "वीं": 4875,
      "शक": 4876,
      "स](./": 4877,
      "सभा": 4878,
      "स्ट": 4879,
      "ा:": 4880,
      "ां": 4881,
      "ांध": 4882,
      "ोष": 4883,
      "কাল": 4884,
      "কূল": 4885,
      "টক": 4886,
      "দালত": 4887,
      "মূল": 4888,
      "রো": 4889,
      "ুদ্ধ": 4890,
      "েয়": 4891,
      "ం,": 4892,
      "ం\")\n": 4893,
      "కొ": 4894,
      "కాల": 4895,
      "కరణ": 4896,
      "ఖండ": 4897,
      "గం:": 4898,
      "టిక": 4899,
      "డే": 4900,
      "ద్య": 4901,
      "ద్రా": 4902,
      "మార్": 4903,
      "మాలయ": 4904,
      "లలో": 4905,
      "లకు": 4906,
      "ళ్": 4907,
      "హు": 4908,
      "ానికి": 4909,
      "ాళు": 4910,
      "ీర్": 4911,
      "▁ध": 4912,
      "▁land": 4913,
      "▁other": 4914,
      "▁యు": 4915,
      "▁శాస్త్ర": 4916,
      "](./V": 4917,
      "](./ন": 4918,
      "▁[s": 4919,
      "▁[భారతదేశ": 4920,
      "▁\"V": 4921,
      "▁\"ন": 4922,
      "▁\"বি": 4923,
      "▁\"వి": 4924,
      "▁\"हिन्द": 4925,
      "ार्त": 4926,
      "য়িকী": 4927,
      "theh": 4928,
      "▁app": 4929,
      "ాలో": 4930,
      "trol": 4931,
      "राठ": 4932,
      "loy": 4933,
      "స్వ": 4934,
      "స్లా": 4935,
      "র্ত": 4936,
      "▁sp": 4937,
      "▁పాల": 4938,
      "న్\")": 4939,
      "ర్\")": 4940,
      "0000": 4941,
      "▁కార": 4942,
      "▁కలి": 4943,
      "▁Minor": 4944,
      "ాలు?action=edit&redlink=1": 4945,
      "రిహ": 4946,
      "రికత": 4947,
      "క్నాల": 4948,
      "నిమా": 4949,
      "▁వం": 4950,
      "▁दृ": 4951,
      "▁दो": 4952,
      "▁উল্": 4953,
      "▁సంగీతం": 4954,
      "▁प्रमुख": 4955,
      "কাপ": 4956,
      "▁ব্য": 4957,
      "▁আন্দোলন": 4958,
      "▁वा": 4959,
      "–సా.శ.13": 4960,
      "▁అయ": 4961,
      "▁ప్రధాన": 4962,
      "ప్రదాయ": 4963,
      "থাইল": 4964,
      "প্টেম": 4965,
      "ద్వీ": 4966,
      "মাজ": 4967,
      "রিজার্": 4968,
      "▁ఉప": 4969,
      "▁\\(ভারত": 4970,
      "▁[South": 4971,
      "বিশ্ব": 4972,
      "▁రె": 4973,
      "uction": 4974,
      "lations": 4975,
      "▁लग": 4976,
      "▁इतिहास": 4977,
      "న్నడ": 4978,
      "हिमा": 4979,
      "िये": 4980,
      "▁रह": 4981,
      "under": 4982,
      "ంటు": 4983,
      "▁भाषाओं": 4984,
      "▁దేశంలో": 4985,
      "కాశ్మీ": 4986,
      "_summit": 4987,
      "_by": 4988,
      "▁జనాభా": 4989,
      "নির্": 4990,
      "ृत्य": 4991,
      "ంధు": 4992,
      "▁[আর্কাইভকৃত](https://web.archive.org/web/20": 4993,
      "ूनिव": 4994,
      "ద్ధం": 4995,
      "ద్ధి": 4996,
      "ాల్దీవులు": 4997,
      "చ్చే": 4998,
      "▁স্থা": 4999,
      "రాష్ట్రాలు": 5000,
      "সাময়িকী": 5001,
      "▁ত্রুটি\"))": 5002,
      "▁অন্যান্য": 5003,
      "దక్షిణ_": 5004,
      "▁కాంగ్రె": 5005,
      "▁सूची\")\n": 5006,
      "ूरो": 5007,
      "టెక్నాల": 5008,
      "హిమాలయ": 5009,
      "వర్గం:": 5010,
      "কেন্দ্রশাসিত": 5011,
      "▁లే": 5012,
      "త్తరా": 5013,
      "▁Indus": 5014,
      "_संघ": 5015,
      "నాగరికత": 5016,
      "উত্তর-": 5017,
      "▁সেপ্টেম": 5018,
      "క్కువ": 5019,
      "িয়ানমার": 5020,
      "క్‌సభ": 5021,
      "▁সংস্কৃতি": 5022,
      "▁युद्ध": 5023,
      "तेलु": 5024,
      "▁न्यायालय": 5025,
      "ెలుగు": 5026,
      "ategory:": 5027,
      "▁వచ్చింది.": 5028,
      "▁गणराज्य": 5029,
      "धिकारिक": 5030,
      "వాతంత్ర్య": 5031,
      "_ప్రాంత": 5032,
      "▁[पुरालेखित": 5033,
      "gramme": 5034,
      "▁अगस्त": 5035,
      "▁জুলাই": 5036,
      "সিন্ধু": 5037,
      "धानमंत्री": 5038,
      "ర్చ:": 5039,
      "ప్రత్యేక:EditPage/": 5040,
      "ংগ্রেস": 5041,
      "উইকি": 5042,
      "ాళుక్య": 5043,
      "ार्ता:": 5044,
      "থাইল্যান্ড": 5045,
      "রিজার্ভ": 5046,
      "టెక్నాలజీ": 5047,
      "వర్గం:Harv": 5048,
      "▁সেপ্টেম্বর": 5049,
      "ప్రత్యేక:EditPage/మూస:": 5050,
      "-29": 5051,
      "129": 5052,
      "9,": 5053,
      "ate_": 5054,
      "cord": 5055,
      "▁6.": 5056,
      "tex": 5057,
      "errit": 5058,
      "oup": 5059,
      "chool": 5060,
      "▁incre": 5061,
      "ely": 5062,
      "▁Fe": 5063,
      "anka": 5064,
      "meric": 5065,
      "Main": 5066,
      "[![": 5067,
      "_t": 5068,
      "lor": 5069,
      "press": 5070,
      "▁ci": 5071,
      "▁ind": 5072,
      "▁50": 5073,
      "rem": 5074,
      "cise": 5075,
      "astern": 5076,
      "▁such": 5077,
      "003": 5078,
      "▁li": 5079,
      "▁General": 5080,
      "174": 5081,
      "▁Official": 5082,
      "▁Press,": 5083,
      "erala": 5084,
      "-pro": 5085,
      "PPP": 5086,
      "catalog": 5087,
      "](https://doi.org/10.10": 5088,
      "gressive": 5089,
      "\"[[": 5090,
      "1-0": 5091,
      "B0%": 5092,
      "fic": 5093,
      "lan": 5094,
      "▁emp": 5095,
      "▁[V": 5096,
      "read": 5097,
      "omin": 5098,
      "▁(2018": 5099,
      "ivil": 5100,
      "los": 5101,
      "](https://archive.org/details/": 5102,
      "▁caste": 5103,
      "▁war": 5104,
      "▁R.": 5105,
      "Ins": 5106,
      "▁GDP": 5107,
      "▁2025": 5108,
      "▁general": 5109,
      "ogn": 5110,
      "bruary": 5111,
      "_and_": 5112,
      "▁\"Economy": 5113,
      "](./Economy": 5114,
      "▁estim": 5115,
      "ictionary": 5116,
      "onesia": 5117,
      "-of-": 5118,
      "7_": 5119,
      "pear": 5120,
      "wal": 5121,
      "▁ref": 5122,
      "omas": 5123,
      "ammu": 5124,
      "21)": 5125,
      "▁Tamil": 5126,
      "▁Bank": 5127,
      "▁British": 5128,
      "▁[\"A": 5129,
      "▁[\"H": 5130,
      "-3)": 5131,
      "-317": 5132,
      "ffice": 5133,
      "_%28orthographic_projection": 5134,
      "yanmar": 5135,
      "▁Assembly": 5136,
      "4/41/Flag_of_India": 5137,
      "_%28orthographic_projection%29": 5138,
      "-प": 5139,
      "75": 5140,
      "9-0)": 5141,
      "LO": 5142,
      "_ए": 5143,
      "_ic": 5144,
      "election": 5145,
      "ij": 5146,
      "rin": 5147,
      "rist": 5148,
      "ंका": 5149,
      "कट": 5150,
      "भो": 5151,
      "लंका": 5152,
      "हैद": 5153,
      "िला": 5154,
      "ूह": 5155,
      "्म": 5156,
      "চিত": 5157,
      "থম": 5158,
      "রব": 5159,
      "রকার": 5160,
      "লব": 5161,
      "শাল": 5162,
      "ষয়": 5163,
      "ুল": 5164,
      "৪]](./ভারত#cite_note-": 5165,
      "▁ट": 5166,
      "▁লা": 5167,
      "](./आ": 5168,
      "](./इ": 5169,
      "](./বি": 5170,
      "▁[ओ": 5171,
      "▁\"ओ": 5172,
      "ার্ব": 5173,
      "▁সম্": 5174,
      "राबाद": 5175,
      "-07": 5176,
      "▁south": 5177,
      "ाने": 5178,
      "र्ना": 5179,
      "স্ত্র": 5180,
      "▁अप्र": 5181,
      "26)": 5182,
      "ক্ষর": 5183,
      "ell": 5184,
      "▁नी": 5185,
      "al_in": 5186,
      "িলি": 5187,
      "▁संबंध": 5188,
      "प्रा": 5189,
      "त्तीस": 5190,
      "र्वो": 5191,
      "▁करने": 5192,
      "िरपे": 5193,
      "वायु": 5194,
      "▁[2](./ভারত#cite_ref-": 5195,
      "▁নিবন্ধ": 5196,
      "▁Chin": 5197,
      "▁[1](./ভারত#cite_ref-": 5198,
      "ीपी": 5199,
      "ভিন্ন": 5200,
      "▁मेला\")": 5201,
      "▁অন্য": 5202,
      "ঞ্জা": 5203,
      "▁हुए": 5204,
      "স্থান": 5205,
      "▁যুগ": 5206,
      "তমালা": 5207,
      "▁हिन्दी": 5208,
      "▁তালিকা\")\n": 5209,
      "▁कार्य": 5210,
      "भीम": 5211,
      "▁century": 5212,
      "▁[t](./": 5213,
      "▁भूम": 5214,
      "▁[v](./": 5215,
      "▁[e](./": 5216,
      "ymbols": 5217,
      "▁[हिन्दी](./": 5218,
      "▁উল্লেখ": 5219,
      "हैदराबाद": 5220,
      "र्नाटक": 5221,
      "िरपेक्ष": 5222,
      "1]](./India#cite_note-FOOTNOTE": 5223,
      "ES": 5224,
      "View": 5225,
      "ae": 5226,
      "equ": 5227,
      "map": 5228,
      "ps": 5229,
      "right": 5230,
      "yle": 5231,
      "ines": 5232,
      "itary": 5233,
      "them": 5234,
      "▁summit\")\n": 5235,
      "ecre": 5236,
      "▁wh": 5237,
      "▁BRICS": 5238,
      "s_in_India": 5239,
      "_Affair": 5240,
      "_South_Asia": 5241,
      "osp": 5242,
      "oi](./Doi_\\(identifier\\)": 5243,
      "Indonesia": 5244,
      "▁area": 5245,
      "india.gov.in/india-glance/": 5246,
      "62-2": 5247,
      "▁2021.\n": 5248,
      "05-8": 5249,
      "-107-111": 5250,
      "cyclopedia": 5251,
      "rganisation": 5252,
      "-19-8829": 5253,
      "▁[doi](./Doi_\\(identifier\\)": 5254,
      "ustralia": 5255,
      "-780": 5256,
      "erritory": 5257,
      "-107-11162-2": 5258,
      "-19-882905-8": 5259,
      "-C": 5260,
      "/index": 5261,
      "6–": 5262,
      "Library": 5263,
      "UCN": 5264,
      "ahar": 5265,
      "▁40": 5266,
      "ini": 5267,
      "chin": 5268,
      "▁million": 5269,
      "ung": 5270,
      "▁_[The": 5271,
      "MetcalfMetcalf2012": 5272,
      "IND": 5273,
      "athak": 5274,
      "▁later": 5275,
      "▁period": 5276,
      "-t": 5277,
      ".IN": 5278,
      "aus": 5279,
      "can": 5280,
      "▁ear": 5281,
      "▁since": 5282,
      "resent": 5283,
      ".gov.in": 5284,
      "e_M": 5285,
      "▁name": 5286,
      "library": 5287,
      "_Mah": 5288,
      "hasha": 5289,
      "formation": 5290,
      "▁(eds.": 5291,
      "WEO.IN": 5292,
      "IMFWEO.IN": 5293,
      ".పూ.": 5294,
      "Craven": 5295,
      "cture": 5296,
      "slam": 5297,
      "yayan": 5298,
      "ంతం": 5299,
      "ఆగ": 5300,
      "కళ": 5301,
      "ఖండ్": 5302,
      "గ్": 5303,
      "గిన": 5304,
      "గఢ్": 5305,
      "జో": 5306,
      "ట్ర": 5307,
      "తెలుగు": 5308,
      "పద": 5309,
      "భి": 5310,
      "మై": 5311,
      "మలు": 5312,
      "యో": 5313,
      "లక్ష": 5314,
      "వర": 5315,
      "శో": 5316,
      "షా": 5317,
      "హార్": 5318,
      "హాయ": 5319,
      "ాష్ట్ర": 5320,
      "ీహార్": 5321,
      "ుల": 5322,
      "ుల్": 5323,
      "ోత్స": 5324,
      "ౌర్య": 5325,
      "▁భ": 5326,
      "](./సి": 5327,
      "▁[m": 5328,
      "▁[వి": 5329,
      "▁\"హ": 5330,
      "▁\"ఢిల్లీ": 5331,
      "2021": 5332,
      "arge": 5333,
      "్రూ": 5334,
      "ooperation": 5335,
      "ాలా": 5336,
      "ాలలో": 5337,
      "adhy": 5338,
      "ర్ణా": 5339,
      "ర్మే": 5340,
      "▁Publishing": 5341,
      "లోక్‌సభ": 5342,
      "▁mi": 5343,
      "▁modern": 5344,
      "emal": 5345,
      "ంది.\n": 5346,
      "▁వే": 5347,
      "Inf": 5348,
      "ండర్": 5349,
      "al_P": 5350,
      "▁చి": 5351,
      "ubcontinent": 5352,
      "epart": 5353,
      "త్మా": 5354,
      "ికి": 5355,
      "▁From": 5356,
      "ద్దు": 5357,
      "osed": 5358,
      "మాచల్": 5359,
      "రువా": 5360,
      "రుణా": 5361,
      "▁సామ్రాజ్య": 5362,
      "▁రహదార": 5363,
      ".jpg/60px-": 5364,
      "న్నో": 5365,
      "మిజో": 5366,
      "▁Press](./": 5367,
      "▁ఇది": 5368,
      "itecture": 5369,
      "▁జరి": 5370,
      "induism": 5371,
      "▁సామ్రాజ్యం\")|": 5372,
      "ultan": 5373,
      "ట్టు": 5374,
      "కోవ": 5375,
      "ంగ్లీ": 5376,
      "వేద": 5377,
      "▁రాజకీయ": 5378,
      "హిమాచల్": 5379,
      "▁union": 5380,
      "హాత్మా": 5381,
      "ances": 5382,
      "హారాష్ట్ర": 5383,
      "రాజస్థాన్": 5384,
      "▁శతాబ్ద": 5385,
      "ainting": 5386,
      "▁వాతావరణ": 5387,
      "atsyayan": 5388,
      "దినోత్స": 5389,
      "బెంగాలీ": 5390,
      "యన్మార్": 5391,
      "▁ముఖ్య": 5392,
      "▁సంస్కృతి|": 5393,
      "olkata": 5394,
      "ంజాబ్": 5395,
      "▁వ్యాస": 5396,
      "Harle1994": 5397,
      "Wolpert2003": 5398,
      "గుజరాత్": 5399,
      "ఆఫ్ఘనిస్తాన్": 5400,
      "న్‌ఫర్మే": 5401,
      ".aspx?": 5402,
      "ricket": 5403,
      "రిహద్దు": 5404,
      "చ్చేరి": 5405,
      "▁February": 5406,
      "Craven1997": 5407,
      "ర్ణాటక": 5408,
      "epartment": 5409,
      "రుణాచల్": 5410,
      "న్‌ఫర్మేషన్": 5411,
      "/author": 5412,
      "NA": 5413,
      "_উ": 5414,
      "_এ": 5415,
      "_সাম্রাজ্য": 5416,
      "ai_": 5417,
      "ih": 5418,
      "ंह": 5419,
      "उप": 5420,
      "गल": 5421,
      "झार": 5422,
      "डिया": 5423,
      "तट": 5424,
      "निक": 5425,
      "पान": 5426,
      "मालय": 5427,
      "हन": 5428,
      "हरी": 5429,
      "िख": 5430,
      "िस्तान": 5431,
      "िहार": 5432,
      "জরা": 5433,
      "দ্রা": 5434,
      "নৈতিক": 5435,
      "বৈ": 5436,
      "রপে": 5437,
      "লিত": 5438,
      "৫৬": 5439,
      "৯৮": 5440,
      "▁ऑ": 5441,
      "▁দ্": 5442,
      "▁राष्ट्र": 5443,
      "▁লেখ": 5444,
      "](./টেমপ্লেট:বই": 5445,
      "▁[4": 5446,
      "▁[च": 5447,
      "▁[বি": 5448,
      "▁[সং": 5449,
      "▁\"টেমপ্লেট:বই": 5450,
      "reat": 5451,
      "▁कुल": 5452,
      "भारतीय": 5453,
      "▁सी": 5454,
      "▁sur": 5455,
      "▁11": 5456,
      "▁केन्द्र": 5457,
      "र्ष": 5458,
      "▁ही": 5459,
      "▁होत": 5460,
      "**জাতীয়": 5461,
      "▁who": 5462,
      "▁है।[[": 5463,
      "▁देख": 5464,
      "ियां": 5465,
      "▁बन": 5466,
      "▁बा": 5467,
      "28)": 5468,
      "▁नद": 5469,
      "▁नहीं": 5470,
      "▁से](http://www.": 5471,
      "▁নে": 5472,
      "▁জয়": 5473,
      "▁হার": 5474,
      "ন্দা": 5475,
      "▁সংস্থা": 5476,
      "▁শক্তি": 5477,
      "पुरा": 5478,
      "स्ला": 5479,
      "1990": 5480,
      "▁reg": 5481,
      "▁उद्यान": 5482,
      "▁১১": 5483,
      "▁शताब्": 5484,
      "▁लेख": 5485,
      "▁रहा": 5486,
      "পিডিয়া": 5487,
      "▁২০১৯": 5488,
      "▁উদ্ধৃতি](./টেমপ্লেট:বই": 5489,
      "विशेष:EditPage/": 5490,
      "llchin": 5491,
      "▁জন্য": 5492,
      "▁করে।": 5493,
      "▁1998": 5494,
      "▁চলচ্চিত্র": 5495,
      "▁मेला](./": 5496,
      "▁Environment": 5497,
      "_সম্পর্ক": 5498,
      "श्चिमी": 5499,
      "ন্নয়ন": 5500,
      "▁কেন্দ্রশাসিত": 5501,
      "▁प्राप्त": 5502,
      "ণিজ্য": 5503,
      "▁সঙ্গীত": 5504,
      "▁स्रोत/978-0": 5505,
      "▁स्रोत/978-1": 5506,
      "](./विशेष:पुस्तक_स्रोत/978-0": 5507,
      "](./विशेष:पुस्तक_स्रोत/978-1": 5508,
      "रक्षा": 5509,
      "-lead": 5510,
      "ministr": 5511,
      "▁चुनाव": 5512,
      "দারীকরণ": 5513,
      "ভৌম": 5514,
      "webcitation.org/6": 5515,
      "रेलू": 5516,
      "ociety": 5517,
      "▁স্থাপ": 5518,
      "▁ত্রুটি\"));": 5519,
      "ার্বভৌম": 5520,
      "र्वोच्च": 5521,
      "রপেক্ষ": 5522,
      "▁উদ্ধৃতি](./টেমপ্লেট:বই_উদ্ধৃতি": 5523,
      "विशेष:EditPage/साँचा:": 5524,
      "\"](https://web.archive.org/web/200": 5525,
      "82": 5526,
      "Home": 5527,
      "country": 5528,
      "sch": 5529,
      "–10": 5530,
      "2013": 5531,
      "lated": 5532,
      "▁12": 5533,
      "▁Ar": 5534,
      "▁States": 5535,
      "▁Mon": 5536,
      "308": 5537,
      "▁number": 5538,
      "_March_": 5539,
      "own": 5540,
      "ankar": 5541,
      "▁right": 5542,
      "ependent": 5543,
      "ependence": 5544,
      "rishn": 5545,
      "Taj_Mah": 5546,
      "al_in_March_": 5547,
      "Taj_Mahal_in_March_": 5548,
      "Taj_Mahal_in_March_2004": 5549,
      "124": 5550,
      "Ag": 5551,
      "Bharat": 5552,
      "DD": 5553,
      "Ministry_of_": 5554,
      "PK:": 5555,
      "_0": 5556,
      "ning": 5557,
      "vatsyayan": 5558,
      "▁[India": 5559,
      "▁\"[": 5560,
      "▁\"United": 5561,
      "tition": 5562,
      "ominal": 5563,
      "1960": 5564,
      "1970": 5565,
      "ada": 5566,
      "▁Pp.": 5567,
      "ISO": 5568,
      "ovember": 5569,
      "▁total": 5570,
      "](./South_Asia": 5571,
      "tud": 5572,
      "22)": 5573,
      "occ": 5574,
      "_BRICS": 5575,
      "▁\"Template": 5576,
      "-lord": 5577,
      "MetcalfMetcalf2006),": 5578,
      "▁status": 5579,
      "▁territory": 5580,
      "apita": 5581,
      "ion_territ": 5582,
      "vatsyayan-lord": 5583,
      "3TR": 5584,
      "577": 5585,
      "Ludden": 5586,
      "_Ch": 5587,
      "aul": 5588,
      "▁ro": 5589,
      "than": 5590,
      "ould": 5591,
      "as,": 5592,
      "lec": 5593,
      "▁some": 5594,
      "irst": 5595,
      "hai": 5596,
      "▁long": 5597,
      "▁Wik": 5598,
      "oreign": 5599,
      "ots": 5600,
      "▁4.": 5601,
      "mblem": 5602,
      "teenth": 5603,
      "3TRt": 5604,
      "63": 5605,
      "IB": 5606,
      "OOj": 5607,
      "a)": 5608,
      "aut": 5609,
      "bb": 5610,
      "ey": 5611,
      "fgh": 5612,
      "languages": 5613,
      "ris": 5614,
      "▁ev": 5615,
      "aries": 5616,
      "enn": 5617,
      "tr-pro": 5618,
      "adi": 5619,
      "▁S.": 5620,
      "onservation": 5621,
      "edit-l": 5622,
      "raj": 5623,
      "s_UI": 5624,
      "avy": 5625,
      "ugh": 5626,
      "▁China": 5627,
      "/pdf": 5628,
      "umbers": 5629,
      "on_edit-l": 5630,
      "_icon_edit-l": 5631,
      "OOjs_UI": 5632,
      "fghan": 5633,
      "tr-progressive": 5634,
      "_icon_edit-ltr-progressive": 5635,
      "OOjs_UI_icon_edit-ltr-progressive": 5636,
      "-विज्ञान": 5637,
      "0/0": 5638,
      "C).": 5639,
      "MID": 5640,
      "SN": 5641,
      "_आ": 5642,
      "_देश": 5643,
      "_যু": 5644,
      "her": 5645,
      "ker": 5646,
      "ting": 5647,
      "ua": 5648,
      "uthor": 5649,
      "ंच": 5650,
      "ईरा": 5651,
      "छत्तीस": 5652,
      "जम्मू": 5653,
      "त्व": 5654,
      "द्वीप": 5655,
      "फल": 5656,
      "फ्रीका": 5657,
      "बैक": 5658,
      "लग": 5659,
      "लयाल": 5660,
      "स\")": 5661,
      "सून": 5662,
      "ाय": 5663,
      "िंध": 5664,
      "ीच": 5665,
      "१९": 5666,
      "ওয়": 5667,
      "খ্রি": 5668,
      "নো": 5669,
      "নিয়ন": 5670,
      "বঙ্গ": 5671,
      "লকা": 5672,
      "লবায়ু": 5673,
      "েণী": 5674,
      "১৩": 5675,
      "২]](./ভারত#cite_note-": 5676,
      "৮]](./ভারত#cite_note-": 5677,
      "▁রা": 5678,
      "](./I": 5679,
      "](./ओ": 5680,
      "](./च": 5681,
      "](./জ": 5682,
      "](./United": 5683,
      "▁[চ": 5684,
      "▁[সা": 5685,
      "▁[United": 5686,
      "▁[৯৭": 5687,
      "▁\"च": 5688,
      "▁\"ल": 5689,
      "ারমাণ": 5690,
      "2025": 5691,
      "aranth": 5692,
      "arria": 5693,
      "▁कई": 5694,
      "▁कश्मीर": 5695,
      "▁सद": 5696,
      "▁सैन": 5697,
      "▁they": 5698,
      "](./भारत_का_": 5699,
      "▁Pers": 5700,
      "urre": 5701,
      "ালি": 5702,
      "▁mathematic": 5703,
      "वित": 5704,
      "india.com/": 5705,
      "▁def": 5706,
      "▁উত্তর": 5707,
      "▁তার": 5708,
      "▁बीच": 5709,
      "▁से](http://": 5710,
      "▁বছ": 5711,
      "তান্ত্র": 5712,
      "ताज": 5713,
      "▁আয়": 5714,
      "ন্দো": 5715,
      "_Ass": 5716,
      "क्षा": 5717,
      "न्दिर": 5718,
      "▁आधिकारिक": 5719,
      "প্রজাতন্ত্র": 5720,
      "▁দেখ": 5721,
      "▁London": 5722,
      "स्थ": 5723,
      "▁गु": 5724,
      "_\\(শনাক্তকারী": 5725,
      "_\\(India\\)": 5726,
      "মাই": 5727,
      "▁उत्पाद": 5728,
      "ाद्वीप": 5729,
      "▁\\(শনাক্তকারী": 5730,
      "_मंदिर": 5731,
      "▁संस्कृति": 5732,
      "▁इन": 5733,
      "owland": 5734,
      "िस्ट": 5735,
      "গুজরা": 5736,
      "পাঞ্জা": 5737,
      "▁original](https://www.": 5738,
      "▁ভাষায়": 5739,
      "▁करोड़": 5740,
      "74-108": 5741,
      "▁अनु": 5742,
      "%E0%A6%9": 5743,
      "ওয়েব_উদ্ধৃতি": 5744,
      "केर": 5745,
      "▁[अंग्रेज़": 5746,
      "▁ফে": 5747,
      "▁ফুটবল": 5748,
      "▁जनगणना": 5749,
      "▁\"National": 5750,
      "](./National_": 5751,
      "সামরিক": 5752,
      "▁राजनी": 5753,
      "▁\"पंजाब": 5754,
      "र्थव्यवस्था": 5755,
      "मुख्य": 5756,
      "ায়ী": 5757,
      "करण": 5758,
      "▁[पंजाब": 5759,
      "পূর্": 5760,
      "▁`{{[বই": 5761,
      "गणराज्य": 5762,
      "ক্রয়": 5763,
      "▁2021.": 5764,
      "▁2019.": 5765,
      "▁होता": 5766,
      "ब्ब": 5767,
      "▁\"টেমপ্লেট:ওয়েব": 5768,
      "▁जिसमें": 5769,
      "শ্চিমবঙ্গ": 5770,
      "ণিপুর": 5771,
      "▁সামরিক": 5772,
      "▁कारण": 5773,
      "ोर्ड": 5774,
      "_मेला?action=edit&redlink=1": 5775,
      "▁2018](./India#CITEREF": 5776,
      "गोआ": 5777,
      "uddhism": 5778,
      "श्रीलंका": 5779,
      "ানুয়ারি": 5780,
      "%E0%A7%87": 5781,
      "वेबैक": 5782,
      "সংস্কৃত": 5783,
      "▁উদ্ধৃতি](./টেমপ্লেট:ওয়েব_উদ্ধৃতি": 5784,
      "লোকসভা": 5785,
      "মহাদেশ": 5786,
      "र्सिट": 5787,
      "हिमाचल": 5788,
      "ूनिवर्सिट": 5789,
      "-78074-108": 5790,
      "▁[৯৭৮-": 5791,
      "ারমাণবিক": 5792,
      "তান্ত্রিক": 5793,
      "_\\(শনাক্তকারী\\)": 5794,
      "▁[अंग्रेज़ी](./अ": 5795,
      "-78074-108-6": 5796,
      "/link": 5797,
      "Search/": 5798,
      "_re": 5799,
      "ner": 5800,
      "t,": 5801,
      "▁7.": 5802,
      "▁5.": 5803,
      "▁\"India": 5804,
      "iam": 5805,
      "reed": 5806,
      "estic": 5807,
      "isc": 5808,
      "images/": 5809,
      "red/link": 5810,
      "pecial:Search/": 5811,
      "▁3.": 5812,
      "asty": 5813,
      "ingham": 5814,
      "▁14.": 5815,
      "ynasty": 5816,
      "shared/link": 5817,
      "nclm.nic.in/shared/link": 5818,
      "nclm.nic.in/shared/linkimages/": 5819,
      "122": 5820,
      "_13": 5821,
      "kar": 5822,
      "vel": 5823,
      "▁[978": 5824,
      "aldiv": 5825,
      "#cite_ref-10": 5826,
      "#cite_note-10": 5827,
      "rain": 5828,
      "▁M.": 5829,
      "rief": 5830,
      "ization": 5831,
      "▁dispu": 5832,
      "▁Affairs": 5833,
      "fghanistan": 5834,
      "aldives": 5835,
      "/g": 5836,
      "1200": 5837,
      "2]](./India#cite_note-FOOTNOTE": 5838,
      "83": 5839,
      "Dikshit": 5840,
      "European": 5841,
      "Republic": 5842,
      "Schwartzberg": 5843,
      "garh": 5844,
      "han": 5845,
      "nominal": 5846,
      "oa": 5847,
      "ue_": 5848,
      "ym": 5849,
      "ంతి": 5850,
      "కారం": 5851,
      "ఖ్": 5852,
      "గర్": 5853,
      "గంగా": 5854,
      "టో": 5855,
      "డిన": 5856,
      "తీ": 5857,
      "ధి": 5858,
      "ధించ": 5859,
      "నల్": 5860,
      "నులు": 5861,
      "మన": 5862,
      "మర": 5863,
      "ర్యా": 5864,
      "లం": 5865,
      "లతో": 5866,
      "లమె": 5867,
      "శ్ర": 5868,
      "ీస్": 5869,
      "ూప": 5870,
      "ూరు": 5871,
      "ెనీ": 5872,
      "ౌక": 5873,
      "▁శా": 5874,
      "▁హిందూ": 5875,
      "▁industry": 5876,
      "▁గాంధీ": 5877,
      "▁Qu": 5878,
      "▁[భారతదేశం": 5879,
      "▁[ఢిల్లీ": 5880,
      "208": 5881,
      "arna": 5882,
      "ani": 5883,
      "anag": 5884,
      "edu": 5885,
      "the-": 5886,
      "▁among": 5887,
      "ారస": 5888,
      "ాలను": 5889,
      "adwe": 5890,
      "▁people": 5891,
      "స్](./": 5892,
      "▁పెద్ద": 5893,
      "▁Schwartzberg": 5894,
      "▁CE": 5895,
      "ర్లు": 5896,
      "00–సా.శ.పూ.": 5897,
      "ha2014": 5898,
      "▁large": 5899,
      "ayback": 5900,
      "త్తం": 5901,
      "▁అతి": 5902,
      "▁అనే": 5903,
      "▁ప్రజ": 5904,
      "ంచి": 5905,
      "▁John": 5906,
      "_in_New": 5907,
      "▁ఆఫ్": 5908,
      "▁సాం": 5909,
      "ast_Asia": 5910,
      "ార్లమె": 5911,
      "కిస్థాన్": 5912,
      "▁నే": 5913,
      "▁నగర": 5914,
      "-19-9": 5915,
      "ాయి.": 5916,
      "▁rule": 5917,
      "▁original](https://": 5918,
      "2006),": 5919,
      "టిబె": 5920,
      "్రీ.పూ.": 5921,
      "▁విస్త": 5922,
      "▁చరిత్ర\n": 5923,
      "achine": 5924,
      "ండియా": 5925,
      "▁ఎక్కువ": 5926,
      "▁ఎన్నో": 5927,
      "_సం": 5928,
      "ారు.\n": 5929,
      "▁2,": 5930,
      "టుంబ": 5931,
      "▁భారత్": 5932,
      "బాద్": 5933,
      "▁మొత్తం": 5934,
      "rdu": 5935,
      "ంపెనీ": 5936,
      "local_": 5937,
      "హ్మ": 5938,
      "ront": 5939,
      "▁ఏర్": 5940,
      "pecial:BookSources/978-81": 5941,
      "్రిటిషు": 5942,
      "కేంద్రపాలిత_ప్రాంత": 5943,
      "EXT": 5944,
      "emocr": 5945,
      "▁అత్యధిక": 5946,
      "akshadwe": 5947,
      "ీర్ణ": 5948,
      "దక్షిణ_ఆసియా": 5949,
      "](./Economy_of_": 5950,
      "▁(eds.).": 5951,
      "DikshitSchwartzberg": 5952,
      "_in_New_Delhi": 5953,
      "akshadweep": 5954,
      "DikshitSchwartzberg2023": 5955,
      "-r": 5956,
      "Census": 5957,
      "yas": 5958,
      "▁under": 5959,
      "▁[19": 5960,
      "tered": 5961,
      "tice": 5962,
      "anor": 5963,
      "▁ins": 5964,
      "▁str": 5965,
      "uss": 5966,
      "▁Science": 5967,
      "_of_C": 5968,
      "urton": 5969,
      "▁me": 5970,
      "▁major": 5971,
      "25)": 5972,
      "▁1960": 5973,
      "▁Linguistic": 5974,
      "_Development": 5975,
      "prov": 5976,
      "▁Val": 5977,
      "gric": 5978,
      "▁Chand": 5979,
      "olitical_": 5980,
      "arnatak": 5981,
      "3TRtDwAAQBAJ&pg=PA": 5982,
      "-230": 5983,
      "1)\n": 5984,
      "42": 5985,
      "IL": 5986,
      "_24": 5987,
      "bhasha": 5988,
      "d/": 5989,
      "dd": 5990,
      "public": 5991,
      "s18": 5992,
      "vi": 5993,
      "पि": 5994,
      "भ्यता": 5995,
      "मर": 5996,
      "मो": 5997,
      "यर": 5998,
      "लों": 5999,
      "शा": 6000,
      "िम": 6001,
      "ीगढ़": 6002,
      "ुंबई": 6003,
      "ॉक": 6004,
      "्ले": 6005,
      "ঘল": 6006,
      "জয়": 6007,
      "ফ্র": 6008,
      "যায়ী": 6009,
      "ল\")": 6010,
      "শক্তি": 6011,
      "সূ": 6012,
      "সলা": 6013,
      "াক": 6014,
      "াড়া": 6015,
      "ুঘল": 6016,
      "েন": 6017,
      "ৈন": 6018,
      "০.": 6019,
      "১৫": 6020,
      "৫০": 6021,
      "▁ओ": 6022,
      "▁web": 6023,
      "▁থা": 6024,
      "▁দ্বীপ": 6025,
      "▁term": 6026,
      "](./द": 6027,
      "](./ल": 6028,
      "▁[सा": 6029,
      "▁[ওয়েব্যাক": 6030,
      "▁\"ग": 6031,
      "▁\"साँचा:": 6032,
      "▁\"ওয়েব্যাক": 6033,
      "tis": 6034,
      "ors": 6035,
      "▁कु": 6036,
      "▁सूचना": 6037,
      "▁महासागर": 6038,
      "▁সহ": 6039,
      "▁সু": 6040,
      "-06": 6041,
      "▁पर्वत": 6042,
      "বিদ্য": 6043,
      "▁পাত": 6044,
      "ानव": 6045,
      "र्ज": 6046,
      "▁country": 6047,
      "স্বাধীনতা": 6048,
      "213": 6049,
      "▁মান": 6050,
      "▁जी": 6051,
      "▁Research": 6052,
      "ालदीव": 6053,
      "▁दशक": 6054,
      "ेशन": 6055,
      "ेशिया": 6056,
      "▁প্রজাতন্ত্র": 6057,
      "▁প্রথম": 6058,
      "50)": 6059,
      "য়েত": 6060,
      ")।\n": 6061,
      "▁2005": 6062,
      "क्षर": 6063,
      "▁সংবিধান": 6064,
      "▁শি": 6065,
      "षाण": 6066,
      "▁দক্ষিণ": 6067,
      "▁पर्यटन": 6068,
      "▁शक्ति": 6069,
      "▁शिक्षा": 6070,
      "166": 6071,
      "काश": 6072,
      "▁[Asher": 6073,
      "ড়ে": 6074,
      "ंडीगढ़": 6075,
      "ssam": 6076,
      "সিটি": 6077,
      "▁সাহিত্য": 6078,
      "▁क्षेत्रीय": 6079,
      "▁গঠ": 6080,
      "▁पुरा": 6081,
      "▁[আর্কাইভকৃত](https://web.archive.org/web/": 6082,
      "▁[আর্কাইভকৃত](https://www.": 6083,
      "▁ফলে": 6084,
      "जनसंख्या": 6085,
      "ন্ধী": 6086,
      "▁जनसंख्या": 6087,
      "ম্পানি": 6088,
      "▁वर्ग": 6089,
      "▁সময়": 6090,
      "▁দেশের": 6091,
      "চিত্র্য": 6092,
      "]](./भारत#cite_note-FOOTNOTEStein1998": 6093,
      "]](./भारत#cite_note-FOOTNOTESingh2009": 6094,
      "_মেশিন": 6095,
      "শ্রেণী": 6096,
      "ওয়েব্যাক_মেশিন": 6097,
      "সংখ্যান": 6098,
      "▁হিন্দ": 6099,
      "तमिलनाडु": 6100,
      "-with": 6101,
      "iodiversity": 6102,
      "▁মেশিন\")": 6103,
      "▁মেশিনে](./": 6104,
      "▁स्थित": 6105,
      "▁সম্পর্ক\")\n": 6106,
      "त्तराखण्ड": 6107,
      "?url=http://www.": 6108,
      "▁[पुरालेखित](https://web.archive.org/web/201": 6109,
      "▁अप्रैल": 6110,
      "▁शताब्दी": 6111,
      "▁लेख:": 6112,
      "webcitation.org/6174": 6113,
      "ক্রয়ক্ষমতা": 6114,
      "সলাম": 6115,
      "▁মেশিনে](./ওয়েব্যাক_মেশিন": 6116,
      "-India": 6117,
      "-30": 6118,
      "1-4": 6119,
      "Empire": 6120,
      "Emblem": 6121,
      "Spear": 6122,
      "ao": 6123,
      "had": 6124,
      "ple": 6125,
      "via": 6126,
      "ved": 6127,
      "yer": 6128,
      "yam": 6129,
      "▁x": 6130,
      "▁economic": 6131,
      "▁\"Indo-": 6132,
      "ality": 6133,
      "cis": 6134,
      "▁Arab": 6135,
      "▁Africa": 6136,
      "▁State": 6137,
      "▁C.": 6138,
      "214": 6139,
      "217": 6140,
      "▁many": 6141,
      "▁Raj": 6142,
      "_Summit": 6143,
      "22-9": 6144,
      "384": 6145,
      "ountries/": 6146,
      "i_language": 6147,
      "atis": 6148,
      "arket": 6149,
      "ineering": 6150,
      "▁[Dikshit": 6151,
      "▁[National": 6152,
      "arendra": 6153,
      "▁add": 6154,
      "olden": 6155,
      "▁\\(identifier\\)\"):[10.10": 6156,
      "_Affairs_": 6157,
      "Home_Affairs_": 6158,
      "ast_Asia_Summit": 6159,
      "Emblem_of_India": 6160,
      "&d": 6161,
      "125": 6162,
      "123": 6163,
      "C-0": 6164,
      "NGDP": 6165,
      "QAAQBAJ&pg=PA": 6166,
      "_2": 6167,
      "cbi": 6168,
      "ix": 6169,
      "ihar": 6170,
      "kh": 6171,
      "ling": 6172,
      "owe": 6173,
      "os/": 6174,
      "uin": 6175,
      "ze": 6176,
      "▁occ": 6177,
      "oral": 6178,
      "▁India_](https://books.google.com/books?id=": 6179,
      "ists": 6180,
      "▁found": 6181,
      "upta": 6182,
      "▁Minister": 6183,
      "▁Rev": 6184,
      "rop": 6185,
      ".wikipedia": 6186,
      "▁J.": 6187,
      "▁Fund": 6188,
      ".nlm": 6189,
      ".nih": 6190,
      "77.": 6191,
      "onstitutional": 6192,
      "_Lanka": 6193,
      "▁\"Official": 6194,
      "▁rate": 6195,
      "cbi.nlm": 6196,
      "cbi.nlm.nih": 6197,
      "\"](https://books.google.com/books?id=": 6198,
      "219": 6199,
      "JI": 6200,
      "Raj": 6201,
      "South": 6202,
      "_for": 6203,
      "af": 6204,
      "aci": 6205,
      "io": 6206,
      "lé": 6207,
      "tb": 6208,
      "ase_": 6209,
      "lock": 6210,
      "inger": 6211,
      "urn": 6212,
      "mentin-": 6213,
      "ternational": 6214,
      "1):": 6215,
      "-population": 6216,
      "rown": 6217,
      "▁used": 6218,
      "Aryan": 6219,
      "lémentin-": 6220,
      "lémentin-Oj": 6221,
      "6]](./India#cite_note-": 6222,
      "96": 6223,
      "TO": 6224,
      "utra": 6225,
      "west": 6226,
      "–4": 6227,
      "▁out": 6228,
      "▁article": 6229,
      "](./Indo-": 6230,
      "▁\"Oxford": 6231,
      "ederal": 6232,
      "▁India\").": 6233,
      "trod": 6234,
      "ikk": 6235,
      "▁social": 6236,
      "umeration": 6237,
      "urch": 6238,
      "ility": 6239,
      "overe": 6240,
      "ango": 6241,
      "olution": 6242,
      "▁minister": 6243,
      "▁dec": 6244,
      "▁diff": 6245,
      "tical": 6246,
      "ulti": 6247,
      "ers,": 6248,
      "▁B.": 6249,
      "elang": 6250,
      "▁[\"N": 6251,
      "▁Nadu": 6252,
      "pecial:EditPage/": 6253,
      "▁high": 6254,
      "apan": 6255,
      "ext": 6256,
      "ainism": 6257,
      "ligence": 6258,
      "▁9.": 6259,
      "▁2019.\n": 6260,
      "▁edition": 6261,
      "International_": 6262,
      "telligence": 6263,
      "usiness/": 6264,
      "Spear1990": 6265,
      "pecial:EditPage/Template": 6266,
      "-n": 6267,
      "2–": 6268,
      "540": 6269,
      "D%E0%A6%B": 6270,
      "MC": 6271,
      "UT": 6272,
      "_उ": 6273,
      "_राज": 6274,
      "_17": 6275,
      "aha": 6276,
      "fer": 6277,
      "oast": 6278,
      "rim": 6279,
      "गत": 6280,
      "गू": 6281,
      "तृत": 6282,
      "पूर्": 6283,
      "बी": 6284,
      "वल": 6285,
      "श्य": 6286,
      "षय": 6287,
      "हरा": 6288,
      "हित": 6289,
      "िनेमा": 6290,
      "ृद्ध": 6291,
      "ेघ": 6292,
      "१८": 6293,
      "আর": 6294,
      "এল": 6295,
      "ঐতি": 6296,
      "ক্রা": 6297,
      "খণ্ড": 6298,
      "ডার": 6299,
      "ত্ব": 6300,
      "থান": 6301,
      "নু": 6302,
      "র_": 6303,
      "হ্য": 6304,
      "িতা": 6305,
      "ীমা": 6306,
      "োষ": 6307,
      "্সিটি": 6308,
      "৩]](./ভারত#cite_note-": 6309,
      "৭]](./ভারত#cite_note-": 6310,
      "▁·": 6311,
      "▁হা": 6312,
      "▁ক্ষেত্র": 6313,
      "▁[Oxford": 6314,
      "\")।\n": 6315,
      "aria": 6316,
      "ভার্সিটি": 6317,
      "ভারতের": 6318,
      "भारत\\)": 6319,
      "▁सक": 6320,
      "्यों": 6321,
      "▁সি": 6322,
      "](https://bn": 6323,
      "uran": 6324,
      "ালদ্বীপ": 6325,
      "▁अव": 6326,
      "▁অর্থনীতি": 6327,
      "▁মন্ত্র": 6328,
      "▁কংগ্রেস": 6329,
      "▁दि": 6330,
      "▁উৎ": 6331,
      "▁Bengal": 6332,
      "road": 6333,
      "▁प्रेस": 6334,
      "▁प्रौद्योगिक": 6335,
      "्वतंत्रता": 6336,
      "hap": 6337,
      "▁জানুয়ারি": 6338,
      "▁আইন": 6339,
      "▁আন্তর্জাতিক": 6340,
      "▁আদালত": 6341,
      "▁বিস্ত": 6342,
      "▁সংরক্ষণ": 6343,
      "▁history": 6344,
      "▁দশ": 6345,
      "▁দু": 6346,
      "▁report": 6347,
      "প্লব": 6348,
      "▁उन": 6349,
      "রেখ": 6350,
      "▁शु": 6351,
      "▁संसद": 6352,
      "ucation": 6353,
      "▁लोग": 6354,
      "▁लोक": 6355,
      "ियार": 6356,
      "▁Informatic": 6357,
      "ডিও": 6358,
      "ডিপি": 6359,
      "দেশিক": 6360,
      "▁राज्य\")\n": 6361,
      "हाय": 6362,
      "বেঙ্গ": 6363,
      "বেক্ষণ": 6364,
      "परमाणु": 6365,
      "ত্ত্ব": 6366,
      "ोलन": 6367,
      "ুরো": 6368,
      "নিভার্সিটি": 6369,
      "=`-এ": 6370,
      "ेली": 6371,
      "▁प्रदेश\")": 6372,
      "▁जाती": 6373,
      "▁`|access": 6374,
      "▁যদি": 6375,
      "▁राजवंश": 6376,
      "▁১৯৯": 6377,
      "ध्यम": 6378,
      "▁स्था": 6379,
      "স্থিত": 6380,
      "ज्ज": 6381,
      "▁খেলা": 6382,
      "▁পরী": 6383,
      "▁পরমাণু": 6384,
      "▁`{{[citation": 6385,
      "পুঞ্জ": 6386,
      "যোগ্য": 6387,
      "](./টেমপ্লেট:Citation": 6388,
      "▁\"টেমপ্লেট:Citation": 6389,
      "▁प्राचीन": 6390,
      "▁था।": 6391,
      "_ব্যবস্থা": 6392,
      "প্রাচীন": 6393,
      "ांग्लादेश": 6394,
      "্রুপ": 6395,
      "▁কাপ": 6396,
      "▁প্রাচীন": 6397,
      "▁নির্বা": 6398,
      "महाद्वीप": 6399,
      "▁পর্বতমালা": 6400,
      "▁(পিডিএফ)।": 6401,
      "▁पहले": 6402,
      "▁শাস": 6403,
      "বহন": 6404,
      "▁Minorities": 6405,
      "উত্তর-পূর্ব": 6406,
      "▁[हिन्दी](./हिन्दी": 6407,
      "▁লেখা": 6408,
      "ন্দামান": 6409,
      "▁चुनावों": 6410,
      "লকাতা": 6411,
      "▁सैन्य": 6412,
      "▁বছর": 6413,
      "reedom": 6414,
      "ঐতিহ্য": 6415,
      "▁Informatics": 6416,
      "▁`{{[citation](./টেমপ্লেট:Citation": 6417,
      "▁\"টেমপ্লেট:Citation\")}}`:": 6418,
      "2nd": 6419,
      "313": 6420,
      "Bh": 6421,
      "Ethnologue": 6422,
      "S1": 6423,
      "dia": 6424,
      "government": 6425,
      "tw": 6426,
      "way": 6427,
      "law": 6428,
      "tra_": 6429,
      "](https://id": 6430,
      "FOOTNOTENational_Informatics_Centre2005": 6431,
      "▁des": 6432,
      "ull": 6433,
      "▁David": 6434,
      "aglia": 6435,
      "▁Languages": 6436,
      "abha": 6437,
      "27)": 6438,
      "▁Regis": 6439,
      "%20A": 6440,
      "/population": 6441,
      "5/5": 6442,
      "arliamentary": 6443,
      "](https://doi.org/10.": 6444,
      "etraglia": 6445,
      "ollege": 6446,
      "▁York:": 6447,
      "Report.pdf)": 6448,
      "▁Registrar": 6449,
      "(సా.శ.": 6450,
      "3]](./India#cite_note-FOOTNOTE": 6451,
      "_9": 6452,
      "_జాబితా": 6453,
      "bu": 6454,
      "m2": 6455,
      "xchange": 6456,
      "ఆంధ": 6457,
      "కీ": 6458,
      "డో": 6459,
      "తే": 6460,
      "థి": 6461,
      "నె": 6462,
      "పించ": 6463,
      "ఫై": 6464,
      "బడ్డ": 6465,
      "భర": 6466,
      "మహ": 6467,
      "రంగ": 6468,
      "లయా": 6469,
      "శీ": 6470,
      "షనల్": 6471,
      "స్య": 6472,
      "హర్": 6473,
      "ాం": 6474,
      "ృద్ధి": 6475,
      "ెంగ": 6476,
      "ేర": 6477,
      "▁దక్షిణ": 6478,
      "▁దా": 6479,
      "▁నాగరికత": 6480,
      "▁టెక్నాలజీ": 6481,
      "](./ఢిల్లీ": 6482,
      "reme": 6483,
      "erg": 6484,
      "alli": 6485,
      "enna": 6486,
      "estiv": 6487,
      "్రప్రదేశ్": 6488,
      "▁there": 6489,
      "icha": 6490,
      "asing": 6491,
      "▁power": 6492,
      "దేశం": 6493,
      "దేశాల": 6494,
      "imal": 6495,
      "▁SAARC": 6496,
      "urban": 6497,
      "ISSN": 6498,
      "ovision": 6499,
      "▁both": 6500,
      "లు?action=edit&redlink=1": 6501,
      "రాఠ": 6502,
      "▁కి": 6503,
      "▁కో": 6504,
      "క్టో": 6505,
      "ంది": 6506,
      "నియా": 6507,
      "▁వర్": 6508,
      "▁వారస": 6509,
      "ల్వే": 6510,
      "▁సరిహద్దు": 6511,
      "▁మన": 6512,
      "▁మూ": 6513,
      "▁మతం": 6514,
      "ండమా": 6515,
      "▁largest": 6516,
      "evanag": 6517,
      "▁చిన్న": 6518,
      "ముఖ": 6519,
      "](./South": 6520,
      "▁2026": 6521,
      "త్వం": 6522,
      "–సా.శ.17": 6523,
      "–సా.శ.15": 6524,
      "180": 6525,
      "▁(సా.శ.13": 6526,
      "▁(సా.శ.15": 6527,
      "▁ప్రతి": 6528,
      "▁ప్రస్తు": 6529,
      "▁ప్రకారం": 6530,
      "▁ప్రముఖ": 6531,
      "కుడు": 6532,
      "ంచిన": 6533,
      "పూర్": 6534,
      "ింది.\n": 6535,
      "▁సాధించ": 6536,
      "▁రో": 6537,
      "▁రంగ": 6538,
      "▁రవాణా": 6539,
      "ష్టు": 6540,
      "otal": 6541,
      "ంతో": 6542,
      "పాలన": 6543,
      "▁తరువా": 6544,
      "ం](./భారతీయ": 6545,
      "గుర్": 6546,
      "నేషనల్": 6547,
      "వందే": 6548,
      "▁8.": 6549,
      "▁ప్రాంతం": 6550,
      ",_కేంద్రపాలిత_ప్రాంత": 6551,
      "▁రాజ్యం](./": 6552,
      "▁బహు": 6553,
      "▁బెంగ": 6554,
      "ాల్లో": 6555,
      "▁control": 6556,
      "▁trans": 6557,
      "శ్వా": 6558,
      "ారిటీ": 6559,
      "గోళ": 6560,
      "▁ప్రాంతాలు": 6561,
      "▁\"History": 6562,
      "](./History": 6563,
      "బడిన": 6564,
      "తున్న": 6565,
      "న్నిక": 6566,
      "మెరి": 6567,
      "▁కాలంలో": 6568,
      "ంపి": 6569,
      "బెంగాల్": 6570,
      "gypt": 6571,
      "ెలవు": 6572,
      "](./భారతదేశంలో_": 6573,
      "▁world's": 6574,
      "▁అధికారిక": 6575,
      "ఆర్ధిక": 6576,
      "▁పట్టణ": 6577,
      "▁కాశ్మీరు": 6578,
      "▁క్రీడలు": 6579,
      "▁2006](./India#CITEREFMetcalfMetcalf2006),": 6580,
      "▁అయిన": 6581,
      "▁రెండు": 6582,
      "రాష్ట్రాలు,_కేంద్రపాలిత_ప్రాంత": 6583,
      "ట్రో": 6584,
      "ుల్తా": 6585,
      "ంగ్లీషు": 6586,
      "దినోత్సవం": 6587,
      "▁వ్యాసం:": 6588,
      "ార్లమెంట": 6589,
      "▁ఏర్ప": 6590,
      "▁article:": 6591,
      "ikkim": 6592,
      "ఆంధ్రప్రదేశ్": 6593,
      "లయాళ": 6594,
      "ichael": 6595,
      "evanagari": 6596,
      ".edu": 6597,
      "/?": 6598,
      "/H": 6599,
      "/m": 6600,
      "220": 6601,
      "3-": 6602,
      "Th": 6603,
      "_a_": 6604,
      "business": 6605,
      "eal": 6606,
      "ier": 6607,
      "nic": 6608,
      "rel": 6609,
      "erlin": 6610,
      "eries": 6611,
      "icts": 6612,
      "ament": 6613,
      "atures": 6614,
      "▁Society": 6615,
      "**[": 6616,
      "238": 6617,
      "▁D.": 6618,
      "▁H.": 6619,
      "▁Ear": 6620,
      "2011religion": 6621,
      "issile": 6622,
      "egis": 6623,
      "ote:": 6624,
      "langoff-1": 6625,
      "▁Quote:": 6626,
      "Census2011religion": 6627,
      "business-": 6628,
      "-on-": 6629,
      "66": 6630,
      "HD": 6631,
      "mill": 6632,
      "~p": 6633,
      "▁At": 6634,
      "eld": 6635,
      "ounci": 6636,
      "135": 6637,
      "harm": 6638,
      "▁[Ministry": 6639,
      "class": 6640,
      "ports": 6641,
      "-largest": 6642,
      "▁know": 6643,
      "ravid": 6644,
      "cat.org/": 6645,
      "imf.org/": 6646,
      "akhand": 6647,
      "_of_the_": 6648,
      "cript": 6649,
      "ublications/": 6650,
      "bank.org/": 6651,
      "uthority": 6652,
      "140": 6653,
      "C,": 6654,
      "Neu": 6655,
      "RL": 6656,
      "Robb": 6657,
      "Vu": 6658,
      "ZVu": 6659,
      "_घ": 6660,
      "cul": 6661,
      "ez": 6662,
      "kZVu": 6663,
      "rup": 6664,
      "rust": 6665,
      "ंत": 6666,
      "अभि": 6667,
      "इतिहास": 6668,
      "एन": 6669,
      "को": 6670,
      "क्": 6671,
      "खन": 6672,
      "खा": 6673,
      "गान": 6674,
      "ग्व": 6675,
      "च्": 6676,
      "जं": 6677,
      "टान": 6678,
      "तन": 6679,
      "थिल": 6680,
      "फोर्ड": 6681,
      "ब्ल": 6682,
      "बेट": 6683,
      "भु": 6684,
      "यत": 6685,
      "रत": 6686,
      "वास": 6687,
      "ेड": 6688,
      "ैंक": 6689,
      "ैथिल": 6690,
      "ॉल": 6691,
      "ॉंग्रेस": 6692,
      "ोस": 6693,
      "ौसेना": 6694,
      "००": 6695,
      "অর্থনৈতিক": 6696,
      "ইতিহাস": 6697,
      "উরি": 6698,
      "খ্য": 6699,
      "খ্যা": 6700,
      "ছাড়া": 6701,
      "তু": 6702,
      "থর": 6703,
      "নের": 6704,
      "ফি": 6705,
      "ব্য": 6706,
      "ভে": 6707,
      "ভুট": 6708,
      "রক্ষ": 6709,
      "ষি": 6710,
      "াবেক্ষণ": 6711,
      "ৃষ্": 6712,
      "োদী": 6713,
      "োশা": 6714,
      "ৌর": 6715,
      "ৌদ্ধ": 6716,
      "০]](./ভারত#cite_note-": 6717,
      "১৬": 6718,
      "১]](./ভারত#cite_note-": 6719,
      "▁৮": 6720,
      "▁lo": 6721,
      "▁em": 6722,
      "](./न": 6723,
      "](./पाकिस्तान": 6724,
      "▁[p": 6725,
      "▁[ल": 6726,
      "▁[ফ": 6727,
      "▁[वि": 6728,
      "▁[पाकिस्तान": 6729,
      "▁\"दक्षिण": 6730,
      "▁\"पाकिस्तान": 6731,
      "inance": 6732,
      "203": 6733,
      "2022": 6734,
      "arl": 6735,
      "arrow": 6736,
      "India.pdf)": 6737,
      "entr": 6738,
      "edition": 6739,
      "▁साल": 6740,
      "▁सम्": 6741,
      "েরি": 6742,
      "lack": 6743,
      "lease": 6744,
      "▁मो": 6745,
      "▁मौ": 6746,
      "▁India](./G": 6747,
      "▁সর্": 6748,
      "-135": 6749,
      "acred": 6750,
      "ivision": 6751,
      "তিতে": 6752,
      "राम": 6753,
      "▁sq": 6754,
      "line_": 6755,
      "](./भारत_के": 6756,
      "ficient": 6757,
      "▁অতি": 6758,
      "raz": 6759,
      "▁_C": 6760,
      "▁_India": 6761,
      "সাবে": 6762,
      "▁উদ্": 6763,
      "▁তথ্য": 6764,
      "267": 6765,
      "▁এটি": 6766,
      "▁এপ্র": 6767,
      "▁এছাড়া": 6768,
      "ंगाना": 6769,
      "▁नव": 6770,
      "▁প্রতীক": 6771,
      "কাধিক": 6772,
      "▁নৃত্য": 6773,
      "▁ভারত\")": 6774,
      "তাজ": 6775,
      "তাকা": 6776,
      "▁Health": 6777,
      "standard": 6778,
      "▁Gandhi": 6779,
      "্বই": 6780,
      "িয়ন্ত্র": 6781,
      "▁সংসদ": 6782,
      "▁आर्थिक": 6783,
      "▁দল": 6784,
      "ট্রফি": 6785,
      "লিং": 6786,
      "▁১৭": 6787,
      "রেন্দ্র": 6788,
      "নাবাহিনী": 6789,
      "काता": 6790,
      "ঙ্গীত": 6791,
      "ম্‌": 6792,
      "ম্মু": 6793,
      "▁इंडिया": 6794,
      "▁United": 6795,
      "ी](./द": 6796,
      ".svg/250px-": 6797,
      "ंडोन": 6798,
      "পিপি": 6799,
      "▁राज्यक्षेत्र": 6800,
      "▁began": 6801,
      "▁ইন্ডিয়া": 6802,
      "▁विस्त": 6803,
      "▁विदेश": 6804,
      "▁সাধারণ": 6805,
      "ोलकाता": 6806,
      "ंध्र": 6807,
      "▁বাণিজ্য": 6808,
      "▁क्षेत्रों": 6809,
      "ंग्रेजी": 6810,
      "তেলু": 6811,
      "▁अन्त": 6812,
      "▁नेतृत": 6813,
      "ibet": 6814,
      "▁\"अंग्रेज़ी": 6815,
      "১৯-": 6816,
      "হিম": 6817,
      "ারাঠ": 6818,
      "-symbols": 6819,
      "▁जनवरी": 6820,
      "हरिया": 6821,
      "ूर्वी": 6822,
      "▁1994": 6823,
      "पुरम": 6824,
      "▁मेला\"),": 6825,
      "umbai_": 6826,
      "▁स्थान": 6827,
      "ography": 6828,
      "िशा": 6829,
      "▁দেশে": 6830,
      "ंग्रेज़ी_भाषा": 6831,
      "Increase](//upload.wikimedia.org/wikipedia/commons/thumb/b/b0/Increase2.svg/20px-Increase2.svg.png)": 6832,
      "▁km2": 6833,
      "समिया": 6834,
      "limate": 6835,
      "▁`{{[ওয়েব": 6836,
      "Oxford_University_Press": 6837,
      "ducation": 6838,
      "ज्ञाप": 6839,
      "न्नई": 6840,
      "national-symbols": 6841,
      "▁অবস্থিত": 6842,
      "बंधन": 6843,
      "२००": 6844,
      "টেলি": 6845,
      "▁पुरालेखित।,": 6846,
      "GDP_\\(": 6847,
      "শিখ": 6848,
      "Stein2010),": 6849,
      "▁হিসাবে": 6850,
      "▁বৃদ্ধি": 6851,
      "▁मुख्य": 6852,
      "_और_संघ": 6853,
      "▁मानसून": 6854,
      "পরিসংখ্যান": 6855,
      "যুক্তরাষ্ট্র": 6856,
      "▁युग": 6857,
      "▁![Increase](//upload.wikimedia.org/wikipedia/commons/thumb/b/b0/Increase2.svg/20px-Increase2.svg.png)": 6858,
      "_ইতিহাস": 6859,
      "वादी": 6860,
      "▁स्वतंत्रता": 6861,
      "_के_आधार_पर_भारत_के_राज्यों_की_सूची": 6862,
      "तेलंगाना": 6863,
      "▁করতে": 6864,
      "चेन्नई": 6865,
      "ুম্বই": 6866,
      "▁बहुत": 6867,
      "पीठ": 6868,
      "ভরশীল": 6869,
      "month": 6870,
      "জাতিসংঘ": 6871,
      "▁Company": 6872,
      "क्सफोर्ड": 6873,
      "▁निर्माण": 6874,
      "](./List_of_countries_by_GDP_\\(": 6875,
      "▁२०१": 6876,
      "িকিউরি": 6877,
      "त्रिपुरा": 6878,
      "▁2010](./India#CITEREFStein2010),": 6879,
      "কেন্দ্রশাসিত_অঞ্চল": 6880,
      "तेलुगू": 6881,
      "भीमबेट": 6882,
      "▁উল্লেখযোগ্য": 6883,
      "▁Press](./Oxford_University_Press": 6884,
      "ultanate": 6885,
      "झारखंड": 6886,
      "Ministry_of_Home_Affairs_": 6887,
      "rajbhasha": 6888,
      "छत्तीसगढ़": 6889,
      "िंधु": 6890,
      "খ্রিস্ট": 6891,
      "urrent": 6892,
      "▁\\(শনাক্তকারী\\)\")": 6893,
      "ब्बत": 6894,
      "▁[अंग्रेज़ी](./अंग्रेज़ी_भाषा": 6895,
      "nominal\\)": 6896,
      "▁ओर": 6897,
      "▁कुछ": 6898,
      "Spear199024": 6899,
      "▁যদিও": 6900,
      "Neutral": 6901,
      "अभिज्ञाप": 6902,
      "च्छ": 6903,
      "ভুটান": 6904,
      "াবেক্ষণ:": 6905,
      "োশাক": 6906,
      "▁এপ্রিল": 6907,
      "তেলুগু": 6908,
      "িকিউরিটি": 6909,
      "भीमबेटका": 6910,
      "Ministry_of_Home_Affairs_1960": 6911,
      "अभिज्ञापक": 6912,
      "/F": 6913,
      "=0": 6914,
      "_19": 6915,
      "a.": 6916,
      "ault": 6917,
      "cia": 6918,
      "ced": 6919,
      "cast": 6920,
      "d/d": 6921,
      "ek": 6922,
      "most": 6923,
      "thnic": 6924,
      "id=1": 6925,
      "atar": 6926,
      "▁billion": 6927,
      "▁made": 6928,
      "▁movement": 6929,
      "▁dom": 6930,
      "▁2011.": 6931,
      "▁Des": 6932,
      "28.": 6933,
      "](//upload.wikimedia.org/wikipedia/commons/thumb/8/8": 6934,
      "aylor": 6935,
      "▁his": 6936,
      "-415": 6937,
      "utan": 6938,
      "group": 6939,
      "engali": 6940,
      "enguin": 6941,
      "|---|---": 6942,
      "overty": 6943,
      "](https://data": 6944,
      "Flag_of_India.svg.png)": 6945,
      "ific": 6946,
      "ediev": 6947,
      "cording": 6948,
      "5%": 6949,
      "_16": 6950,
      "cogn": 6951,
      "history": 6952,
      "hdr": 6953,
      "ward": 6954,
      "\")\"": 6955,
      "itage": 6956,
      "▁1965": 6957,
      "▁new": 6958,
      "-76": 6959,
      "▁Ocean": 6960,
      "▁[Singh": 6961,
      "ocs/": 6962,
      "_per": 6963,
      "_population": 6964,
      ".svg/40px-Wik": 6965,
      "embers": 6966,
      "iteracy": 6967,
      "-19-56": 6968,
      "▁second": 6969,
      "thehindu": 6970,
      "▁life": 6971,
      "2)\n": 6972,
      "6]](./India#cite_note-FOOTNOTE": 6973,
      "Gua": 6974,
      "IUCN": 6975,
      "Jgo": 6976,
      "Mumbai_": 6977,
      "Zva": 6978,
      "c/": 6979,
      "ele": 6980,
      "fun": 6981,
      "iet": 6982,
      "rid": 6983,
      "war": 6984,
      "▁[c": 6985,
      "▁\"19": 6986,
      "tigr": 6987,
      "ree_": 6988,
      "ortheast": 6989,
      "cip": 6990,
      "asht": 6991,
      "▁12.": 6992,
      "▁Summit\")\n": 6993,
      "eck": 6994,
      "78.": 6995,
      "ign_": 6996,
      "▁work": 6997,
      "▁Territory": 6998,
      "405": 6999,
      "▁top": 7000,
      "50th": 7001,
      "stan": 7002,
      "s_P": 7003,
      "▁Gu": 7004,
      "▁house": 7005,
      ".gov.": 7006,
      "ountain": 7007,
      "▁relations": 7008,
      "▁non-": 7009,
      "rib": 7010,
      "osys": 7011,
      "▁\\(India": 7012,
      "ockey": 7013,
      ")[[3": 7014,
      "](https://books.google.com/books?id=Zva": 7015,
      "ugu": 7016,
      "ummer": 7017,
      "efficient": 7018,
      "▁original](http://www.": 7019,
      "_East_Asia_Summit": 7020,
      "ities/": 7021,
      "▁prime": 7022,
      "lowing": 7023,
      "▁lead": 7024,
      "erent": 7025,
      "▁disc": 7026,
      "ethnologue": 7027,
      "▁Programme": 7028,
      "rganization": 7029,
      "uddhist": 7030,
      "istorical": 7031,
      "flu": 7032,
      ".uk/": 7033,
      "rahmap": 7034,
      "osphere": 7035,
      "Infosys": 7036,
      "JIJgo": 7037,
      "GuaJIJgo": 7038,
      "tigris": 7039,
      "](https://books.google.com/books?id=ZvaGuaJIJgo": 7040,
      "ethnologue.com/": 7041,
      "\"](https://web.archive.org/web/20": 7042,
      "#P": 7043,
      "Clémentin-Oj": 7044,
      "RO": 7045,
      "ea": 7046,
      "gu": 7047,
      "ila": 7048,
      "mrit": 7049,
      "rs": 7050,
      "serv": 7051,
      "▁\\": 7052,
      "▁°": 7053,
      "report": 7054,
      "2020": 7055,
      "▁(1):": 7056,
      "▁them": 7057,
      "icon": 7058,
      "▁set": 7059,
      "▁11.": 7060,
      "imach": 7061,
      "▁western": 7062,
      "▁Routledge": 7063,
      "hak": 7064,
      "▁Himalay": 7065,
      "▁Ge": 7066,
      "▁2007.": 7067,
      "▁Library": 7068,
      "hmed": 7069,
      "feb": 7070,
      "_128": 7071,
      "▁left": 7072,
      "▁ed.).": 7073,
      "hailand": 7074,
      "▁Wikidata": 7075,
      "_of_Congress": 7076,
      "griculture": 7077,
      "Clémentin-Ojha2014": 7078,
      "-M": 7079,
      "-ব": 7080,
      ".\"": 7081,
      "160": 7082,
      "2).": 7083,
      "S.": 7084,
      "Tamil": 7085,
      "_श": 7086,
      "_ক": 7087,
      "_30": 7088,
      "_धर्म": 7089,
      "pub": 7090,
      "ues": 7091,
      "ँची": 7092,
      "टना": 7093,
      "डम": 7094,
      "दार": 7095,
      "पार": 7096,
      "भग": 7097,
      "मरी": 7098,
      "रि": 7099,
      "स्व": 7100,
      "ेद": 7101,
      "ोला": 7102,
      "ঁচ": 7103,
      "উড": 7104,
      "গানি": 7105,
      "তত্ত্ব": 7106,
      "পর": 7107,
      "ফগানি": 7108,
      "যা": 7109,
      "রান": 7110,
      "লিক": 7111,
      "ষদ": 7112,
      "সু": 7113,
      "হর": 7114,
      "াট": 7115,
      "১০": 7116,
      "১৮": 7117,
      "৩৪": 7118,
      "৬৫": 7119,
      "▁ল": 7120,
      "▁भा": 7121,
      "▁भाग": 7122,
      "▁ईसा": 7123,
      "▁রিজার্ভ": 7124,
      "](./दक्षिण": 7125,
      "▁[ग": 7126,
      "▁[व": 7127,
      "▁[ह": 7128,
      "▁[दक्षिण": 7129,
      "▁\"य": 7130,
      "▁\"व": 7131,
      "▁\"চ": 7132,
      "▁\"দক্ষিণ": 7133,
      "arath": 7134,
      "ofil": 7135,
      "▁काल": 7136,
      "▁कॉंग्रेस": 7137,
      "्रय": 7138,
      "▁सभा": 7139,
      "▁सित": 7140,
      "▁समाज": 7141,
      "▁मई": 7142,
      "▁मन": 7143,
      "▁मह": 7144,
      "▁मिल": 7145,
      "▁मशीन": 7146,
      "](./ভারত#": 7147,
      "ন্ট্র": 7148,
      "▁pop": 7149,
      "ेंगल": 7150,
      "र्ध": 7151,
      "](./भारत_के_राज्य": 7152,
      "्तु": 7153,
      "ক্লো": 7154,
      "▁Public": 7155,
      "ura": 7156,
      "স্মাই": 7157,
      "▁में,": 7158,
      "িকার": 7159,
      "▁अभ": 7160,
      "▁अमेर": 7161,
      "▁অভি": 7162,
      "ema": 7163,
      "▁মু": 7164,
      "▁जब": 7165,
      "▁কাল": 7166,
      "▁द्वीप": 7167,
      "▁উন্নয়ন": 7168,
      "▁নয়": 7169,
      "_से": 7170,
      "pectan": 7171,
      "](http://books.google.com/books?id=": 7172,
      "▁व्या": 7173,
      "▁বিজ্ঞান": 7174,
      "न्दा": 7175,
      "িত্": 7176,
      "প্রিয়": 7177,
      "18)": 7178,
      "ernet": 7179,
      "▁Law": 7180,
      "](./ভারতের_জাতীয়_": 7181,
      "।[[২": 7182,
      "।[[৫": 7183,
      "।[[৭": 7184,
      "hief": 7185,
      "▁गई": 7186,
      "_\\(भारत\\)": 7187,
      "থাপি": 7188,
      "▁১৩": 7189,
      "ड़िया": 7190,
      "▁शहर": 7191,
      "মিশন": 7192,
      "সংবাদ": 7193,
      "নায়": 7194,
      "▁[मध्य": 7195,
      "]](./भारत#cite_note-pib": 7196,
      "▁ले": 7197,
      "▁लिये": 7198,
      "_के_अन": 7199,
      "म्भ": 7200,
      "ঙ্গা": 7201,
      "संधान": 7202,
      "त्तरी": 7203,
      "▁International": 7204,
      "o-p": 7205,
      "▁भाषा\")[[": 7206,
      "▁यूनिवर्सिट": 7207,
      "ার্টি": 7208,
      "y_](https://books.google.com/books?id=": 7209,
      "issing": 7210,
      "▁क्षेत्र\")\n": 7211,
      "▁উপকূল": 7212,
      "নিরপেক্ষ": 7213,
      "ইএসবিএন_\\(শনাক্তকারী\\)": 7214,
      "केन्द्र": 7215,
      "▁[Dyson": 7216,
      "▁জনসংখ্যা": 7217,
      "▁জনপ্রিয়": 7218,
      "▁जनजाति": 7219,
      "▁করেছে": 7220,
      "▁যা": 7221,
      "▁[আইএসবিএন](./আ": 7222,
      "india.gov.in/know": 7223,
      "_সরকার": 7224,
      "।[[১০": 7225,
      "▁সমভূমি": 7226,
      "▁যুক্ত": 7227,
      "रुणा": 7228,
      "শাসনিক": 7229,
      "▁\"আইএসবিএন": 7230,
      "▁২০০৮।": 7231,
      "▁২০০৮।\n": 7232,
      "▁পর্য": 7233,
      "ন্নড়": 7234,
      "ক্রিকেট": 7235,
      "ক্সচে": 7236,
      "official": 7237,
      "যোগিতা": 7238,
      "▁হিসে": 7239,
      "▁21.": 7240,
      "▁28.": 7241,
      "ল্প": 7242,
      ".svg.png)](./चित्र:": 7243,
      "কাশ্মীর": 7244,
      "pib.nic.in/": 7245,
      "ोर्ट": 7246,
      "▁ইতিহাস\")\n": 7247,
      "▁2024.": 7248,
      "▁\\(identifier\\)\"):[10.": 7249,
      "%E0%A4%B": 7250,
      "ধিকার": 7251,
      "▁साम्राज्य\")": 7252,
      "धुनिक": 7253,
      "▁দিবস": 7254,
      "onsoon": 7255,
      "place": 7256,
      "_साम्राज्य": 7257,
      "▁religious": 7258,
      "_with": 7259,
      "ksai": 7260,
      "▁\\(ভারত\\)\")\n": 7261,
      "▁(2018),": 7262,
      "स्लाम": 7263,
      "_देशों_की_सूची": 7264,
      "ताजमह": 7265,
      "%E0%A6%9F": 7266,
      "emocracy": 7267,
      "▁Valley": 7268,
      "क्षरता": 7269,
      "▁ক্ষেত্রে": 7270,
      "▁स्थाप": 7271,
      "▁[पाकिस्तान](./पाकिस्तान": 7272,
      "িয়ন্ত্রণ": 7273,
      "ফগানিস্তান": 7274,
      "যাত্র": 7275,
      "ेंगलुरु": 7276,
      "স্মাইলিং": 7277,
      "pectancy": 7278,
      "_के_अनुसार": 7279,
      "▁यूनिवर्सिटी": 7280,
      "▁[আইএসবিএন](./আইএসবিএন_\\(শনাক্তকারী\\)": 7281,
      "india.gov.in/knowindia/": 7282,
      "ক্সচেঞ্জ": 7283,
      "-D": 7284,
      "-national-": 7285,
      "528": 7286,
      "Front": 7287,
      "LM": 7288,
      "Rowland": 7289,
      "_-": 7290,
      "_వి": 7291,
      "_కాశ్మీ": 7292,
      "each": 7293,
      "mira": 7294,
      "ras": 7295,
      "van": 7296,
      "vers": 7297,
      "ంస్కృ": 7298,
      "ఉత్తరా": 7299,
      "కాలు": 7300,
      "ఖో": 7301,
      "ఘాలయ": 7302,
      "చ్": 7303,
      "టై": 7304,
      "టర్": 7305,
      "డమ్": 7306,
      "డఖ్": 7307,
      "ణే": 7308,
      "ణంగా": 7309,
      "తెల": 7310,
      "దరంగ": 7311,
      "నో": 7312,
      "నాలు": 7313,
      "నంద": 7314,
      "బర్": 7315,
      "బార్": 7316,
      "మతం": 7317,
      "యన": 7318,
      "యె": 7319,
      "రె": 7320,
      "లడఖ్": 7321,
      "ళా": 7322,
      "ళి": 7323,
      "శు": 7324,
      "హించ": 7325,
      "ీకరణ": 7326,
      "ుకు": 7327,
      "ెన్న": 7328,
      "ెట్రో": 7329,
      "ేతి": 7330,
      "ేఘాలయ": 7331,
      "ైస్త": 7332,
      "ైనిక": 7333,
      "ొగలు": 7334,
      "ోళ": 7335,
      "‌కా": 7336,
      "‌మహ": 7337,
      "▁ఐ": 7338,
      "▁ఖ": 7339,
      "▁ద": 7340,
      "▁–సా.శ.": 7341,
      "▁భారతీయ": 7342,
      "](./భారతదేశ": 7343,
      "▁[హ": 7344,
      "▁[గో": 7345,
      "▁\"పా": 7346,
      "▁\"జన": 7347,
      "▁\"గో": 7348,
      "▁\"మూస:": 7349,
      "\")1": 7350,
      "ia\")\n": 7351,
      "erm": 7352,
      "20.": 7353,
      "India_G": 7354,
      "ారస్వ": 7355,
      "ich": 7356,
      "ాలె": 7357,
      "స్ట": 7358,
      "స్వాతంత్ర్య": 7359,
      "▁పర": 7360,
      "▁పండు": 7361,
      "▁All": 7362,
      "ecur": 7363,
      "▁Pe": 7364,
      "ilitary": 7365,
      "angam": 7366,
      "రాన్": 7367,
      "రాస్య": 7368,
      "▁famil": 7369,
      "tock": 7370,
      ".jpe": 7371,
      "త్రిక": 7372,
      "ems": 7373,
      "emic": 7374,
      "▁కను": 7375,
      "▁కోర్": 7376,
      "▁_A": 7377,
      "క్స్": 7378,
      "క్కి": 7379,
      "▁River": 7380,
      "▁వె": 7381,
      "▁వంట": 7382,
      "▁dependencies": 7383,
      "ల్‌కా": 7384,
      "ంగో": 7385,
      "▁సముద్ర": 7386,
      "▁సూచ": 7387,
      "▁సౌక": 7388,
      "operation": 7389,
      "్రామ": 7390,
      "ండా": 7391,
      "ండీ": 7392,
      "ండ్య": 7393,
      "Union": 7394,
      "తాజ్": 7395,
      "నాథ": 7396,
      "త్వా": 7397,
      "ులు,": 7398,
      "ులు\"),": 7399,
      "▁అభి": 7400,
      "▁ప్రజా": 7401,
      "153": 7402,
      "▁numbers": 7403,
      "hib": 7404,
      "ప్రిల్": 7405,
      "▁ఉంట": 7406,
      "▁ఉత్తర": 7407,
      "%E0%B0%": 7408,
      "▁సామా": 7409,
      "వాద": 7410,
      "విధ": 7411,
      "ార్ఖండ్": 7412,
      "క్షరాస్య": 7413,
      "Chenna": 7414,
      "_and_d": 7415,
      "పుర": 7416,
      "▁నడి": 7417,
      "▁ఇండియా": 7418,
      "గుప్": 7419,
      "డుకు": 7420,
      "నేషియా": 7421,
      "ంగాణ": 7422,
      "_Nadu": 7423,
      "లియా": 7424,
      "▁జన": 7425,
      "▁ప్రాచ": 7426,
      "▁విభ": 7427,
      "▁వివిధ": 7428,
      "▁సంఘ": 7429,
      "ండిచ్చేరి": 7430,
      "▁exp": 7431,
      "▁[![](//upload.wikimedia.org/wikipedia/commons/thumb/c/c": 7432,
      ".svg/40px-Flag_of_India.svg.png)": 7433,
      "కోబార్": 7434,
      "కోల్‌కా": 7435,
      "జీరియా": 7436,
      "ంకేతి": 7437,
      "1967": 7438,
      "parliament": 7439,
      "వేలీ": 7440,
      "దాద్రా": 7441,
      "బియా": 7442,
      "డామన్": 7443,
      "▁tex": 7444,
      "▁రాష్ట్రపతి": 7445,
      "త్రిపుర": 7446,
      "_కాల": 7447,
      "▁రైల్వే": 7448,
      "య్యూ": 7449,
      "త్తీస్": 7450,
      "▁ప్రదేశ్](./": 7451,
      "▁ప్రదేశ్\")": 7452,
      "▁కాలం": 7453,
      "నాగాలా": 7454,
      "▁\"జమ్మూ": 7455,
      "aint:": 7456,
      "▁పాకిస్తాన్": 7457,
      "](./జమ్మూ": 7458,
      "oint": 7459,
      "](./List_of_countries_and_d": 7460,
      "రేబియా": 7461,
      "_at_the": 7462,
      "టాక్": 7463,
      "్రిటిష్": 7464,
      "క్రమ": 7465,
      "వెను": 7466,
      "ూచి": 7467,
      "భారతదేశ_రాష్ట్రాలు,_కేంద్రపాలిత_ప్రాంత": 7468,
      "▁మాత్ర": 7469,
      "tribution": 7470,
      "▁జాబితా\")\n": 7471,
      "ప్పటిక": 7472,
      "NCLM": 7473,
      "_from": 7474,
      "లేషియా": 7475,
      "▁మొదల": 7476,
      "ద్యు": 7477,
      "▁వంశం": 7478,
      "ద్వీప్": 7479,
      "▁ఉపఖండ": 7480,
      "▁దేశంలోని": 7481,
      "▁కాంగ్రెసు": 7482,
      "4/41/Flag_of_India.svg/40px-Flag_of_India.svg.png)": 7483,
      "ఆగష్టు": 7484,
      "లక్షద్వీప్": 7485,
      "హాయం:": 7486,
      "▁సామ్రాజ్యము": 7487,
      "మిజోరా": 7488,
      "nclm.nic.in/shared/linkimages/NCLM": 7489,
      "ర్యానా": 7490,
      "▁[ఢిల్లీ](./ఢిల్లీ": 7491,
      "టిబెట్": 7492,
      "బడ్డీ": 7493,
      "ేరళ": 7494,
      "ండమాన్": 7495,
      "మెరికా": 7496,
      "ెలవుదిన": 7497,
      "kZVuDwAAQBAJ&pg=PA": 7498,
      "50thReport.pdf)": 7499,
      "](https://books.google.com/books?id=ZvaGuaJIJgoC&pg=PA": 7500,
      "-national-language": 7501,
      "Rowland1970": 7502,
      "mirates": 7503,
      "ంస్కృతం": 7504,
      "తెలంగాణ": 7505,
      "ెన్నై": 7506,
      "‌మహల్": 7507,
      "ారస్వతం": 7508,
      "తాజ్‌మహల్": 7509,
      "క్షరాస్యత": 7510,
      "కోల్‌కాతా": 7511,
      "నాగాలాండ్": 7512,
      "](./జమ్మూ_కాశ్మీ": 7513,
      "](./List_of_countries_and_dependencies": 7514,
      "nclm.nic.in/shared/linkimages/NCLM50thReport.pdf)": 7515,
      "-F": 7516,
      "-ra": 7517,
      "Language": 7518,
      "_15": 7519,
      "rans": 7520,
      "var": 7521,
      "ves": 7522,
      "▁economy": 7523,
      "ict": 7524,
      "ictor": 7525,
      "ootb": 7526,
      "▁serv": 7527,
      "▁P.": 7528,
      "olas": 7529,
      "▁far": 7530,
      "▁wid": 7531,
      "▁Rothermund": 7532,
      "260": 7533,
      "270": 7534,
      "search": 7535,
      "pringer": 7536,
      "overnment_of_India": 7537,
      "34238": 7538,
      "ynth": 7539,
      "](https://web.archive.org/web/20090": 7540,
      "▁along": 7541,
      "vention": 7542,
      "11934238": 7543,
      "text": 7544,
      "▁estimate": 7545,
      "ristian": 7546,
      "Library_of_Congress": 7547,
      "ootball": 7548,
      "11934238p": 7549,
      "Library_of_Congress2004": 7550,
      "%),": 7551,
      ".P": 7552,
      ".c": 7553,
      "PE": 7554,
      "oe": 7555,
      "▁54": 7556,
      "orne": 7557,
      "en,": 7558,
      "ed/": 7559,
      "acts": 7560,
      "](https://catalog": 7561,
      "▁Muslim": 7562,
      "▁Book": 7563,
      "▁Data": 7564,
      "opal": 7565,
      "ly,": 7566,
      "ources": 7567,
      "external": 7568,
      "-459": 7569,
      "▁For": 7570,
      "AAJ": 7571,
      "47.": 7572,
      "▁Ins": 7573,
      "uggle": 7574,
      "ological": 7575,
      "Dyson2018),": 7576,
      "▁sector": 7577,
      "cms)": 7578,
      "britannica.com/place": 7579,
      "Uttarakhand": 7580,
      "▁Plateau": 7581,
      "MetcalfMetcalf2012-26": 7582,
      "PK:14": 7583,
      "▁addition": 7584,
      "ernet.in/": 7585,
      "-and": 7586,
      "/india/": 7587,
      "1-1": 7588,
      "2%": 7589,
      "5)\n": 7590,
      "AG": 7591,
      "Bangalore": 7592,
      "River": 7593,
      "SAARC": 7594,
      "a\")": 7595,
      "lof": 7596,
      "lurton": 7597,
      "s_of_India": 7598,
      "▁urban": 7599,
      "▁[Indo-": 7600,
      "\")-": 7601,
      "anipur": 7602,
      "anchi": 7603,
      "enni": 7604,
      "icob": 7605,
      "▁India\")|": 7606,
      "▁India\"](https://web.archive.org/web/201": 7607,
      "acmill": 7608,
      "trial": 7609,
      "▁pre": 7610,
      "▁painting": 7611,
      "▁influ": 7612,
      "\"),[[": 7613,
      "▁President": 7614,
      "▁bord": 7615,
      "olon": 7616,
      "emon": 7617,
      "rote": 7618,
      "269,": 7619,
      "287,": 7620,
      "al_election": 7621,
      "agore": 7622,
      "▁rem": 7623,
      "_in_": 7624,
      "erry": 7625,
      "](./India#CITEREFB": 7626,
      ".[[4": 7627,
      "▁Kingdom": 7628,
      "-98": 7629,
      "uduch": 7630,
      "47)": 7631,
      "709": 7632,
      "489": 7633,
      "emplate_": 7634,
      "▁eastern": 7635,
      "▁[↑](./India#cite_ref-FOOTNOTEMetcalfMetcalf2006": 7636,
      "▁\"British": 7637,
      "](./British": 7638,
      "illenni": 7639,
      "▁language\")": 7640,
      "ommonwealth": 7641,
      "ureau": 7642,
      "rough": 7643,
      "▁template\n": 7644,
      "▁US": 7645,
      "alayal": 7646,
      "co.uk/": 7647,
      "6124": 7648,
      "_Indian_gener": 7649,
      "-4020": 7650,
      "▁Pradesh\")\n": 7651,
      "▁Islands\")\n": 7652,
      "%7C": 7653,
      "%7c": 7654,
      "▁groups": 7655,
      "▁(1,269,": 7656,
      "▁3,287,": 7657,
      "_Islands": 7658,
      "PPP\\)": 7659,
      "fication": 7660,
      "▁employ": 7661,
      "ecret": 7662,
      "rishnan": 7663,
      "_Assembly": 7664,
      "troduction": 7665,
      "rahmaputra": 7666,
      "mritsar": 7667,
      "icobar": 7668,
      "acmillan": 7669,
      "uducherry": 7670,
      "illennium": 7671,
      "_Indian_general_election": 7672,
      "-১": 7673,
      ".৮": 7674,
      "5.pdf)": 7675,
      "Mon": 7676,
      "Suk": 7677,
      "Tw": 7678,
      "_)": 7679,
      "_চ": 7680,
      "_राज्य": 7681,
      "_সং": 7682,
      "_রাষ্ট্র": 7683,
      "_সম": 7684,
      "_एशिया": 7685,
      "n-": 7686,
      "zon": 7687,
      "ंतर": 7688,
      "अरब": 7689,
      "इन": 7690,
      "ईल": 7691,
      "घर": 7692,
      "चें": 7693,
      "तम": 7694,
      "तुल": 7695,
      "थियार": 7696,
      "देव": 7697,
      "द्वार": 7698,
      "फा": 7699,
      "मार": 7700,
      "शन": 7701,
      "िबंध": 7702,
      "ृष": 7703,
      "ोट": 7704,
      "ংহ": 7705,
      "এম": 7706,
      "চক": 7707,
      "ছু": 7708,
      "জার": 7709,
      "ধু": 7710,
      "ন\")\n": 7711,
      "ন্য": 7712,
      "পার": 7713,
      "ব্রু": 7714,
      "শ্মীর": 7715,
      "স](./": 7716,
      "হো": 7717,
      "হান": 7718,
      "ীণ": 7719,
      "ীব": 7720,
      "২০": 7721,
      "২৬": 7722,
      "৪৭": 7723,
      "৪)।": 7724,
      "৫৯": 7725,
      "▁औ": 7726,
      "▁रा": 7727,
      "▁ला": 7728,
      "▁[ड": 7729,
      "▁[य": 7730,
      "▁[উ": 7731,
      "▁[শ": 7732,
      "▁[জাতীয়": 7733,
      "▁\"ह": 7734,
      "ont": 7735,
      "reater": 7736,
      "ारा": 7737,
      "ारो": 7738,
      "ारम्भ": 7739,
      "▁कम": 7740,
      "▁किन": 7741,
      "्रह": 7742,
      "https://": 7743,
      "▁सह": 7744,
      "▁स्तर": 7745,
      "▁सभ्यता": 7746,
      "েরল": 7747,
      "asp?": 7748,
      "lative": 7749,
      "▁India_.": 7750,
      "▁স্ব": 7751,
      "বিদ": 7752,
      "ing,": 7753,
      "geoh": 7754,
      "ेंस": 7755,
      "▁Ag": 7756,
      "र्ट": 7757,
      "▁Court": 7758,
      "्त्र": 7759,
      "iger": 7760,
      "▁culture": 7761,
      "olence": 7762,
      "ালম": 7763,
      "ালুরু": 7764,
      "▁अलग": 7765,
      "▁अर्थव्यवस्था": 7766,
      "anda": 7767,
      "▁অধ": 7768,
      "▁অ্যান্ড": 7769,
      "rak": 7770,
      "▁মোট": 7771,
      "▁মার্কিন": 7772,
      "वियत": 7773,
      "253": 7774,
      "▁जिन": 7775,
      "▁কর্ত": 7776,
      "▁Ram": 7777,
      "ालैंड": 7778,
      "105": 7779,
      "▁देव": 7780,
      "▁दोन": 7781,
      "▁উদারীকরণ": 7782,
      "▁একাধিক": 7783,
      "▁बंगाल": 7784,
      "▁बड़े": 7785,
      "▁प्रधानमंत्री": 7786,
      "भाजन": 7787,
      "▁सेवा": 7788,
      "▁literature": 7789,
      "▁काम": 7790,
      "akar": 7791,
      "s_m": 7792,
      "tures": 7793,
      "▁বিভিন্ন": 7794,
      "aryana": 7795,
      "▁आक": 7796,
      "▁आद": 7797,
      "।[[৮": 7798,
      "15/": 7799,
      "▁परि": 7800,
      "-7mar": 7801,
      "osition": 7802,
      "লিশ": 7803,
      "▁১৬": 7804,
      "▁शा": 7805,
      "▁संस्थान": 7806,
      "রাজনীতি": 7807,
      "▁থেকে](http://": 7808,
      "নাম": 7809,
      "](./भारत#cite_ref-pib": 7810,
      "](./भारत#cite_ref-langoff": 7811,
      "]](./भारत#cite_note-langoff-1": 7812,
      "सां": 7813,
      ".net": 7814,
      "ी](./म": 7815,
      "ियन": 7816,
      "संबर": 7817,
      "त्ति": 7818,
      "▁रक्षा": 7819,
      "_Data_": 7820,
      "হেরু": 7821,
      "িয়া\")\n": 7822,
      "o-d": 7823,
      "जापान": 7824,
      "▁भाषा\")": 7825,
      "▁\"मध्य": 7826,
      "▁Press](./C": 7827,
      "▁हैं।\n": 7828,
      "▁ইন": 7829,
      "हाँ": 7830,
      "স্তর": 7831,
      "▁২০১৩": 7832,
      "ोली": 7833,
      "ুরস্": 7834,
      "](./मध्य": 7835,
      "▁উপমহাদেশ": 7836,
      "_শিল্প": 7837,
      "120]](./भारत#cite_note-langoff-1": 7838,
      "्राम": 7839,
      "ক্ষাদ্বীপ": 7840,
      ".nic.in": 7841,
      "times.indiatimes.com/": 7842,
      "▁प्रदेश\")|": 7843,
      "द्यालय": 7844,
      "▁স্বাধীনতা": 7845,
      "राष्ट्रीय_स": 7846,
      "गुप्त": 7847,
      "▁राजधान": 7848,
      "সমূহ\")": 7849,
      "▁[Kulke": 7850,
      "▁অঞ্চলের": 7851,
      "ैदिक": 7852,
      "ালয়ালম": 7853,
      "কৃতিক": 7854,
      "](./पंजाब": 7855,
      "](./पश्चिम": 7856,
      "Stein1998),": 7857,
      "Singh2009),": 7858,
      "▁CITEREFStein1998": 7859,
      "▁CITEREFSingh2009": 7860,
      "▁prov": 7861,
      "ों_की_सूची?action=edit&redlink=1": 7862,
      "▁কেন্দ্রীয়": 7863,
      "টেক": 7864,
      "▁निभा": 7865,
      "1971": 7866,
      "শিক্ষা": 7867,
      "](./भारत#CITEREFStein1998),": 7868,
      "](./भारत#CITEREFSingh2009),": 7869,
      "▁প্রধানমন্ত্রী": 7870,
      "1947)": 7871,
      "▁রাজনৈতিক": 7872,
      "▁थे": 7873,
      "▁पाकिस्तान": 7874,
      "▁২০২১": 7875,
      "▁সংস্করণ": 7876,
      "▁उपमहाद्वीप": 7877,
      "যুক্তরাজ্য": 7878,
      "कालीन": 7879,
      "▁কাশ্মীর": 7880,
      "▁मंदिर\")": 7881,
      "नागालैंड": 7882,
      "▁করুন": 7883,
      "धीरे": 7884,
      "▁ব্যবস্থা\")\n": 7885,
      "▁ডলার": 7886,
      "rishna": 7887,
      "রুভূমি": 7888,
      "▁ইউনিয়ন": 7889,
      "▁2009](./भारत#CITEREFSingh2009),": 7890,
      "এশিয়া": 7891,
      "%E0%A7%8": 7892,
      "रोहर": 7893,
      "▁(১৯৯": 7894,
      "▁वर्षों": 7895,
      "_নদী": 7896,
      "onsoon_": 7897,
      "ব্দ": 7898,
      "পাদন": 7899,
      "▁पार्टी": 7900,
      "▁পূর্ব": 7901,
      "▁सिनेमा\"),": 7902,
      "ांति": 7903,
      "ांधी": 7904,
      "রোপ": 7905,
      "▁दृश्य": 7906,
      "থাইল্যান্ড–": 7907,
      "प्राचीन": 7908,
      "▁Chinese": 7909,
      "▁भूमिका": 7910,
      "▁होती": 7911,
      "▁1998](./भारत#CITEREFStein1998),": 7912,
      "लयालम": 7913,
      "arriage": 7914,
      "▁ফেব্রু": 7915,
      "pecial:Search/ভারত": 7916,
      "्लेट": 7917,
      "বিদ্যালয়": 7918,
      "▁[আর্কাইভকৃত](https://web.archive.org/web/2008": 7919,
      "▁[আর্কাইভকৃত](https://www.webcitation.org/6174": 7920,
      "हित्य": 7921,
      "ेघालय": 7922,
      "ক্রান্ত": 7923,
      "ডারেশন": 7924,
      "▁दिसंबर": 7925,
      "roadcast": 7926,
      "hapter": 7927,
      "▁পরীক্ষা": 7928,
      "▁\"पाकिस्तान\")": 7929,
      "▁नेतृत्व": 7930,
      "edieval": 7931,
      "ofiles/": 7932,
      "িত্তিতে": 7933,
      "থাপিছু": 7934,
      "रुणाचल": 7935,
      "चेंज": 7936,
      "िबंधीय": 7937,
      "geohack": 7938,
      "-7mar2011": 7939,
      "](./भारत#cite_ref-langoff_128": 7940,
      "▁ফেব্রুয়ারি": 7941,
      "roadcasting": 7942,
      ".og": 7943,
      ".und": 7944,
      "3,": 7945,
      "cod": 7946,
      "def": 7947,
      "eb": 7948,
      "ead": 7949,
      "hl": 7950,
      "jo": 7951,
      "kb": 7952,
      "p.org/": 7953,
      "rig": 7954,
      "vil": 7955,
      "▁old": 7956,
      "inanc": 7957,
      "erage": 7958,
      "ising": 7959,
      "▁(N": 7960,
      "▁(2014": 7961,
      "trop": 7962,
      "](https://en": 7963,
      "▁sim": 7964,
      "▁15.": 7965,
      "▁13.": 7966,
      "ume": 7967,
      "atab": 7968,
      "▁Central": 7969,
      "result": 7970,
      "▁Dictionary": 7971,
      "▁Nat": 7972,
      "agen": 7973,
      "▁20.": 7974,
      "▁2001": 7975,
      "s/def": 7976,
      "ritsch": 7977,
      "▁only": 7978,
      "bert": 7979,
      "▁near": 7980,
      "vey": 7981,
      "efence": 7982,
      "auth": 7983,
      "▁Vol": 7984,
      "▁10.": 7985,
      "ject": 7986,
      "▁subject": 7987,
      "loc.gov/": 7988,
      "ouncil": 7989,
      "ault/files/": 7990,
      "hdr.und": 7991,
      "s/default/files/": 7992,
      "hdr.undp.org/": 7993,
      "&ss": 7994,
      ".ac": 7995,
      "/IND": 7996,
      "51)": 7997,
      "Court": 7998,
      "F)": 7999,
      "Kolkata": 8000,
      "_),": 8001,
      "b)": 8002,
      "hindi": 8003,
      "lood": 8004,
      "oes": 8005,
      "oard": 8006,
      "vent": 8007,
      "y=": 8008,
      "▁z": 8009,
      "▁[f": 8010,
      "▁[World": 8011,
      "orig": 8012,
      "eritage": 8013,
      "anat": 8014,
      "alk": 8015,
      "enter": 8016,
      "es_": 8017,
      "ison": 8018,
      "▁ag": 8019,
      "▁(a)": 8020,
      "19)": 8021,
      "ouch": 8022,
      "ivoy": 8023,
      "▁summits": 8024,
      "▁16.": 8025,
      "▁People": 8026,
      "urk": 8027,
      "hell": 8028,
      "▁capita": 8029,
      "▁mon": 8030,
      "architecture": 8031,
      "▁women": 8032,
      "▁Machine": 8033,
      "uled": 8034,
      "10)": 8035,
      "▁B.;": 8036,
      "▁[\"G": 8037,
      "▁Nehru": 8038,
      "▁November": 8039,
      "ship": 8040,
      "_Arab": 8041,
      "-34": 8042,
      "-53": 8043,
      "1991": 8044,
      ".[[3": 8045,
      "aves": 8046,
      "]](./India#cite_note-FOOTNOTEMetcalfMetcalf2006": 8047,
      "arty": 8048,
      "7080": 8049,
      "undament": 8050,
      "efore": 8051,
      "/countries/": 8052,
      "▁[British": 8053,
      "_summits": 8054,
      "ligned": 8055,
      "ue.bnf.fr/ark:/12148/cb": 8056,
      "▁[![](//upload.wikimedia.org/wikipedia/commons/thumb/a/a": 8057,
      "▁2014.": 8058,
      "▁\"Government": 8059,
      "](./List_of_SAARC": 8060,
      "_Gandhi": 8061,
      "▁[![A": 8062,
      "1962": 8063,
      "[![](//upload.wikimedia.org/wikipedia/commons/thumb/c/c": 8064,
      "▁technology": 8065,
      "▁Hinduism": 8066,
      "reek": 8067,
      "awahar": 8068,
      "▁[_An": 8069,
      "hattis": 8070,
      "▁composed": 8071,
      "6/6": 8072,
      "-to-": 8073,
      "_by_population": 8074,
      "merican": 8075,
      "equality": 8076,
      "▁name:": 8077,
      "▁mi)": 8078,
      "_BRICS_summit": 8079,
      "▁Persian": 8080,
      "_Development_": 8081,
      "](https://id.": 8082,
      "▁known": 8083,
      "entral_": 8084,
      "razil": 8085,
      "ivoyage": 8086,
      "▁summits\")\n": 8087,
      "](./List_of_SAARC_summits": 8088,
      "awaharl": 8089,
      "&c": 8090,
      "-T": 8091,
      "-prov": 8092,
      "1b": 8093,
      "7-1": 8094,
      "EB": 8095,
      "E_": 8096,
      "History": 8097,
      "KI": 8098,
      "Kashmir": 8099,
      "Political_": 8100,
      "Ram": 8101,
      "_43": 8102,
      "fo": 8103,
      "que": 8104,
      "ru": 8105,
      "ya_": 8106,
      "▁77.": 8107,
      "arayan": 8108,
      "ed,": 8109,
      "ediff": 8110,
      "▁ass": 8111,
      "▁(in": 8112,
      "am,": 8113,
      "[[14": 8114,
      "um_": 8115,
      "▁See": 8116,
      "find": 8117,
      "▁_P": 8118,
      "▁Bharat": 8119,
      "▁human": 8120,
      "138": 8121,
      "▁religion": 8122,
      "60)": 8123,
      "liter": 8124,
      "liest": 8125,
      "ociation": 8126,
      "utt": 8127,
      "articles": 8128,
      "/publications/": 8129,
      "▁Thomas": 8130,
      ".asp?": 8131,
      "/articles/": 8132,
      "ministered": 8133,
      "actbook/": 8134,
      "▁shall": 8135,
      "view/": 8136,
      "tiger": 8137,
      ".worldcat.org/": 8138,
      "▁Minorities,": 8139,
      "hmedabad": 8140,
      "%27": 8141,
      "8–": 8142,
      ":IN": 8143,
      ";\n": 8144,
      "AS": 8145,
      "CS1": 8146,
      "_st": 8147,
      "data": 8148,
      "eub": 8149,
      "str": 8150,
      "aring": 8151,
      "Indian_": 8152,
      "an-": 8153,
      "es,": 8154,
      "cir": 8155,
      "1956": 8156,
      "▁India\n": 8157,
      "wikidata": 8158,
      "eccan": 8159,
      "▁four": 8160,
      "216": 8161,
      "2542": 8162,
      "▁2012.": 8163,
      "103": 8164,
      "108": 8165,
      "▁Division": 8166,
      "akes": 8167,
      "▁Gana": 8168,
      "▁2000": 8169,
      "-89": 8170,
      "-349": 8171,
      "1857": 8172,
      "179": 8173,
      "ave": 8174,
      "](https://books.google.com/books?id=3TRtDwAAQBAJ&pg=PA": 8175,
      "ommission": 8176,
      "/page/": 8177,
      "IAEXT": 8178,
      "alaysia": 8179,
      "2103": 8180,
      "ofindia.nic.in/": 8181,
      ".JPG/": 8182,
      ".JPG)](./": 8183,
      "bbc.": 8184,
      "ravidian": 8185,
      "euborne": 8186,
      "2542-5": 8187,
      "&local_": 8188,
      "-৬": 8189,
      "-24": 8190,
      "-50": 8191,
      ".৭": 8192,
      ".\")\n": 8193,
      "/b": 8194,
      "/)।": 8195,
      "130": 8196,
      "240": 8197,
      "2-4": 8198,
      "5–సా.శ.": 8199,
      "8+": 8200,
      "Allchin": 8201,
      "CH": 8202,
      "Parliament": 8203,
      "Petraglia": 8204,
      "[మ": 8205,
      "_ফ": 8206,
      "_అ": 8207,
      "_ఎ": 8208,
      "_ర": 8209,
      "_con": 8210,
      "_యు": 8211,
      "_రాజ": 8212,
      "_శాస్త్ర": 8213,
      "_তালিকা": 8214,
      "_languages": 8215,
      "ax": 8216,
      "base": 8217,
      "constitution": 8218,
      "code": 8219,
      "dikshit": 8220,
      "gir": 8221,
      "iosphere": 8222,
      "ji": 8223,
      "jan": 8224,
      "las": 8225,
      "nu": 8226,
      "rance": 8227,
      "s=": 8228,
      "ईद": 8229,
      "ऍथ": 8230,
      "ऑक्सफोर्ड": 8231,
      "ख़": 8232,
      "गध": 8233,
      "जल": 8234,
      "जपा": 8235,
      "जपुरी": 8236,
      "जिस्ट": 8237,
      "ताल": 8238,
      "थम": 8239,
      "थल": 8240,
      "दल": 8241,
      "दान": 8242,
      "नोल": 8243,
      "न्तर": 8244,
      "फ्रां": 8245,
      "बा": 8246,
      "बू": 8247,
      "बार": 8248,
      "मत": 8249,
      "यपुर": 8250,
      "रस": 8251,
      "ल्ल": 8252,
      "वेश": 8253,
      "शत": 8254,
      "शोक": 8255,
      "हम": 8256,
      "हें": 8257,
      "ाक": 8258,
      "ुरा": 8259,
      "ुम्ब": 8260,
      "ूबर": 8261,
      "ृष्ण": 8262,
      "ेक": 8263,
      "ॉग": 8264,
      "५७": 8265,
      "উট": 8266,
      "ওড়ি": 8267,
      "কক্ষ": 8268,
      "কলা": 8269,
      "কগণ": 8270,
      "কশাল": 8271,
      "ঘাট": 8272,
      "চ্": 8273,
      "জনে": 8274,
      "ট্": 8275,
      "তথ্য": 8276,
      "দ্যান": 8277,
      "দিকে": 8278,
      "ধা": 8279,
      "ফস": 8280,
      "বু": 8281,
      "ব্যবস্থা": 8282,
      "ময়": 8283,
      "মিয়ানমার": 8284,
      "যান": 8285,
      "রবী": 8286,
      "রকারি": 8287,
      "রমাণু": 8288,
      "সল": 8289,
      "স\")": 8290,
      "হারা": 8291,
      "ী_": 8292,
      "ী](./": 8293,
      "ুক্তি": 8294,
      "ৃষি": 8295,
      "োহ": 8296,
      "ৌর্য": 8297,
      "ৌলিক": 8298,
      "২৩": 8299,
      "২৮": 8300,
      "৭১": 8301,
      "ఒలి": 8302,
      "కూ": 8303,
      "కర్": 8304,
      "గే": 8305,
      "గ్ర": 8306,
      "గతి": 8307,
      "జు": 8308,
      "ఞాన": 8309,
      "టం": 8310,
      "టన్": 8311,
      "పం": 8312,
      "పీ": 8313,
      "పో": 8314,
      "పార": 8315,
      "పచ్చ": 8316,
      "మ్య": 8317,
      "మతి": 8318,
      "యాలో": 8319,
      "లె": 8320,
      "వై": 8321,
      "వ్": 8322,
      "వత్స": 8323,
      "వృద్ధి": 8324,
      "సీ": 8325,
      "సే": 8326,
      "స్రా": 8327,
      "హక": 8328,
      "ాంగ": 8329,
      "ాబ్": 8330,
      "ీఠ": 8331,
      "ువు": 8332,
      "ూపా": 8333,
      "ెట్": 8334,
      "ేవ": 8335,
      "ైద": 8336,
      "ైగా": 8337,
      "ొయ": 8338,
      "‌ల": 8339,
      "–24": 8340,
      "▁ট": 8341,
      "▁৯": 8342,
      "▁ఘ": 8343,
      "▁ना": 8344,
      "▁গু": 8345,
      "▁దీ": 8346,
      "▁ঐতিহ্য": 8347,
      "](./ग": 8348,
      "](./চ": 8349,
      "](./ফ": 8350,
      "](./హ": 8351,
      "](./हिन्द": 8352,
      "](./జన": 8353,
      "](./గో": 8354,
      "](./భారతదేశ_": 8355,
      "▁[রাজ্য": 8356,
      "▁[జన": 8357,
      "▁[హిందూ": 8358,
      "▁[పాకిస్తాన్": 8359,
      "▁[ముంబై": 8360,
      "▁[गुजरात": 8361,
      "▁\"ड": 8362,
      "▁\"ফ": 8363,
      "▁\"గ": 8364,
      "▁\"সা": 8365,
      "▁\"దక్షిణ": 8366,
      "▁\"साँचा": 8367,
      "▁\"మూస": 8368,
      "▁\"హిందూ": 8369,
      "▁\"పాకిస్తాన్": 8370,
      "▁\"ప్రపంచ": 8371,
      "▁\"ముంబై": 8372,
      "▁\"వర్గం:Harv": 8373,
      "▁\"ప్రత్యేక:EditPage/మూస:": 8374,
      "nder": 8375,
      "on_the": 8376,
      "reen": 8377,
      "th_BRICS_summit": 8378,
      "erc": 8379,
      "arlo": 8380,
      "alak": 8381,
      "es.": 8382,
      "্রপ্রদেশ": 8383,
      "য়ো": 8384,
      "য়লা": 8385,
      "्रार": 8386,
      "్రైస్త": 8387,
      "▁सूच": 8388,
      "্যার": 8389,
      "ices": 8390,
      "outheast": 8391,
      "astr": 8392,
      "idref": 8393,
      "▁मध्य": 8394,
      "▁मन्दिर": 8395,
      "्यूरो": 8396,
      "▁সদ": 8397,
      "్యాలె": 8398,
      "रात": 8399,
      "-0)\n": 8400,
      "▁पड़": 8401,
      "▁प्लेट": 8402,
      "](./ভারত_সরকার": 8403,
      "ন্তি": 8404,
      "loth": 8405,
      "స్వా": 8406,
      "র্ণা": 8407,
      "దేశాలు": 8408,
      "▁17.": 8409,
      "ating": 8410,
      "attle": 8411,
      "▁పద్ధ": 8412,
      "▁పైగా": 8413,
      "▁পশ্চিম": 8414,
      "ations_": 8415,
      "ानगर": 8416,
      "▁Al": 8417,
      "▁Stud": 8418,
      "](./भारत_का": 8419,
      "న్ను": 8420,
      "▁हाला": 8421,
      "▁हथियार": 8422,
      "▁Civil": 8423,
      "ector": 8424,
      "ర్ద": 8425,
      "_of_2011": 8426,
      "▁Punjab": 8427,
      "ilgr": 8428,
      "▁caus": 8429,
      "లు\n": 8430,
      "স্টি": 8431,
      "िकी": 8432,
      "రాజ్యం": 8433,
      "याधी": 8434,
      "లోయ": 8435,
      "upreme": 8436,
      "rest": 8437,
      "ipp": 8438,
      "emor": 8439,
      "emographic": 8440,
      "ोंक": 8441,
      "▁కేంద్ర": 8442,
      "▁కంపెనీ": 8443,
      "▁Michael": 8444,
      "ాలుగా": 8445,
      "క్తి": 8446,
      "▁২৪": 8447,
      "▁২৫": 8448,
      "▁ज़": 8449,
      "▁వై": 8450,
      "ालर": 8451,
      "ate=`": 8452,
      "▁div": 8453,
      "▁development": 8454,
      "▁উচ্চ": 8455,
      "হায়": 8456,
      "▁Day": 8457,
      "न्ध": 8458,
      "न्स": 8459,
      "]](./India#cite_note-4": 8460,
      "]](./India#cite_note-Combined": 8461,
      "▁సమా": 8462,
      "▁సర్వ": 8463,
      "▁సుల్తా": 8464,
      "▁बार": 8465,
      "▁बने": 8466,
      "▁बड़ा": 8467,
      "▁प्रस": 8468,
      "▁प्रारम्भ": 8469,
      "](//upload.wikimedia.org/wikipedia/en/": 8470,
      "▁नौसेना": 8471,
      "▁প্রচ": 8472,
      "▁1962": 8473,
      "▁বুদ্ধ": 8474,
      "▁নিক": 8475,
      "▁নীতি": 8476,
      "▁ভারত\")\n": 8477,
      "50–సా.శ.": 8478,
      "▁Har": 8479,
      "▁చర్చ:": 8480,
      "▁জলবায়ু": 8481,
      "्टॉक": 8482,
      "తాక": 8483,
      "నాట": 8484,
      "▁হতে": 8485,
      "▁হিম": 8486,
      "సింది.": 8487,
      "-37": 8488,
      "▁[↑](./India#cite_ref-4": 8489,
      "▁वाल": 8490,
      "▁वार्ता:": 8491,
      "क्षण": 8492,
      "क्षद्वीप": 8493,
      "▁বিভাগ": 8494,
      "▁বিপ্লব": 8495,
      "ులు\")": 8496,
      "ులు?action=edit&redlink=1": 8497,
      "▁hum": 8498,
      "▁आन्द": 8499,
      "–సా.శ.14": 8500,
      "ap_en": 8501,
      "▁(సా.శ.6": 8502,
      "▁(సా.శ.17": 8503,
      "▁(సా.శ.14": 8504,
      "-59": 8505,
      "तिब्बत": 8506,
      "লাক্ষাদ্বীপ": 8507,
      "▁అను": 8508,
      "ిక,": 8509,
      "▁দা": 8510,
      "a_1": 8511,
      "a_C": 8512,
      "1993": 8513,
      "](./ভারতের_প্র": 8514,
      "](./ভারতের_রাজ্য": 8515,
      "కుపచ్చ": 8516,
      "జాతి": 8517,
      "।[[৬": 8518,
      "](./భారతదేశం#CITEREF": 8519,
      "ishers": 8520,
      "]](./भारत#cite_note-10": 8521,
      "थाईल": 8522,
      "▁गठ": 8523,
      "▁these": 8524,
      "E0%A": 8525,
      "লিউড": 8526,
      "▁১০": 8527,
      "▁১৮": 8528,
      "▁\\(भारत": 8529,
      "▁ఆకుపచ్చ": 8530,
      "মিজ": 8531,
      "మాతర": 8532,
      "మాబాద్": 8533,
      "రుపు": 8534,
      "రుగు": 8535,
      "সংসদ": 8536,
      "▁రే": 8537,
      "নাড়": 8538,
      "విజ": 8539,
      "udi": 8540,
      "]](./India#cite_note-FOOTNOTEStein2010": 8541,
      "कांक": 8542,
      "যুগ": 8543,
      "▁लिया": 8544,
      "ঙ্গেয়": 8545,
      "हिमालय": 8546,
      "](https://www.idref": 8547,
      "ियान": 8548,
      "-674": 8549,
      "-691": 8550,
      "▁Asia:": 8551,
      "ড়ো": 8552,
      "▁tree": 8553,
      "ublishers": 8554,
      "ंडमान": 8555,
      "opulation_T": 8556,
      "▁నె": 8557,
      "▁నది": 8558,
      "మించ": 8559,
      "▁सागर": 8560,
      "ঞ্চা": 8561,
      "ঞ্চলে": 8562,
      "o-operation": 8563,
      "▁తన": 8564,
      "▁\"Category:": 8565,
      "ummary": 8566,
      "এনসাই": 8567,
      "▁[মহা": 8568,
      "▁\"महाराष्ट्र": 8569,
      "](./Category:": 8570,
      "5457": 8571,
      "▁ইংরেজি": 8572,
      "▁विज्ञान": 8573,
      "ం](./అ": 8574,
      "ం](./క": 8575,
      "ంబంధ": 8576,
      "हाब": 8577,
      "परेशन": 8578,
      "▁करना": 8579,
      "▁करता": 8580,
      "▁২০১৬": 8581,
      "▁২০১৮": 8582,
      "గువ": 8583,
      "मीरात": 8584,
      "ভূটান": 8585,
      "▁বায়ু": 8586,
      "](./महाराष्ट्र": 8587,
      "▁क्षेत्र\")": 8588,
      "র্বো": 8589,
      "ंग्रेज": 8590,
      "▁సంస్థ": 8591,
      "▁సంవత్స": 8592,
      "▁language\"),": 8593,
      "ibcode": 8594,
      "డియా": 8595,
      "▁[2](./भारत#cite_ref-FOOTNOTE": 8596,
      "র্মসূ": 8597,
      "_చర్చ:": 8598,
      "▁[1](./भारत#cite_ref-FOOTNOTE": 8599,
      "](./Template": 8600,
      "▁\"మధ్య": 8601,
      "-date=`": 8602,
      "▁ఎన్నిక": 8603,
      "▁ఎన్ను": 8604,
      "▁(సా.శ.పూ.1200": 8605,
      "375457": 8606,
      "](./మధ్య": 8607,
      "శాఖ": 8608,
      "ন্ধ্রপ্রদেশ": 8609,
      "▁देश\")\n": 8610,
      "_1_of_2011": 8611,
      "▁గణ": 8612,
      "_map_en": 8613,
      "▁चार": 8614,
      "uddha": 8615,
      "্রিটান": 8616,
      "▁স্বা": 8617,
      "కృష్": 8618,
      "రాష్ట్రాల": 8619,
      "हारजिस्ट": 8620,
      "]](./భారతదేశం#cite_note-india.gov.in": 8621,
      "▁বিশেষ": 8622,
      "_సంగీతం": 8623,
      "▁১৯৮": 8624,
      "िवस": 8625,
      "▁वर्षा": 8626,
      "साँचा_व": 8627,
      "▁[Government": 8628,
      "_भारतीय_": 8629,
      "ায়।": 8630,
      "ారిగా": 8631,
      "మూస_చర్చ:": 8632,
      "▁2007\n": 8633,
      "▁2007](./ভারত#": 8634,
      "నాయక": 8635,
      "–సా.శ.పూ.3": 8636,
      "దావరి": 8637,
      "▁ప్రాంతాలు](./": 8638,
      "▁घरेलू": 8639,
      "▁বিশ্বকাপ": 8640,
      "समूह": 8641,
      "বর্ষ": 8642,
      "▁সরকারের": 8643,
      "హాస": 8644,
      "▁(২০": 8645,
      "](./पूर्व": 8646,
      "▁కూడిన": 8647,
      "▁([help](./వర్గం:Harv": 8648,
      "ighth": 8649,
      "ष्ठ": 8650,
      "▁রাষ্ট্রপতি": 8651,
      "न्नड़": 8652,
      "▁నిర్వ": 8653,
      "rancis": 8654,
      "_Force": 8655,
      "_మతం": 8656,
      "ोरम": 8657,
      "ణిపూర్": 8658,
      "आईएस": 8659,
      "दाख": 8660,
      "▁था,": 8661,
      "_আন্দোলন": 8662,
      "orests": 8663,
      "ेर-": 8664,
      "▁धर्म\")": 8665,
      "श्मीरी": 8666,
      "য়াদিল্লি": 8667,
      "▁This": 8668,
      "▁[జమ్మూ": 8669,
      "▁పాత్ర": 8670,
      "▁কোটি": 8671,
      "▁কোম্পানি": 8672,
      "▁शासित": 8673,
      ".svg.png)](./File:": 8674,
      "ోర్చు": 8675,
      "▁\"చైనా": 8676,
      "aper_1_of_2011": 8677,
      "ंपन": 8678,
      "ंपरा": 8679,
      "▁[↑](./भारत#cite_ref-10": 8680,
      "त्पत्ति": 8681,
      "▁ఉన్నాయి.\n": 8682,
      "▁ఒకటి": 8683,
      "_ইউ": 8684,
      "▁বৈদেশিক": 8685,
      "▁শিল্প\")\n": 8686,
      "हाराष्ट्र](./महाराष्ट्र": 8687,
      "జ్ఞాన": 8688,
      "▁अपने": 8689,
      "ार्कट": 8690,
      "▁तटीय": 8691,
      "▁పరిశ్ర": 8692,
      "disha": 8693,
      ".fr/0": 8694,
      "लिंग": 8695,
      "▁ইউনিভার্সিটি": 8696,
      "▁మార్గాలు": 8697,
      "రోపా": 8698,
      "जयपुर": 8699,
      "जयनगर": 8700,
      "भूटान": 8701,
      "ikhism": 8702,
      "▁ক্রিকেট": 8703,
      "िज़ोरम": 8704,
      "দ্রোহ": 8705,
      "তামিলনাড়": 8706,
      "▁భారతదేశానికి": 8707,
      "▁మతము\")": 8708,
      "▁మతము\"),": 8709,
      "णिपुर": 8710,
      "णिपुरी": 8711,
      "लोकसभा": 8712,
      "বর্তী": 8713,
      "_न्या": 8714,
      "ईसाई": 8715,
      "▁सुरक्षा": 8716,
      "▁এশিয়ার": 8717,
      "▁व्यवस्था": 8718,
      "्रांति": 8719,
      "शासित_प्रदेश": 8720,
      "ీనంలో": 8721,
      "▁ప్రపంచంలో": 8722,
      "Provision": 8723,
      "▁টাকা": 8724,
      "▁পূর্": 8725,
      "पातकाल": 8726,
      "▁অনুযায়ী": 8727,
      "▁ప్రభుత్వ": 8728,
      "▁మొదటి": 8729,
      "धिराज्य": 8730,
      "▁जलवायु": 8731,
      "▁घाटी": 8732,
      ".worldbank.org/": 8733,
      "Sharma1950": 8734,
      "▁\"हिन्दी\")": 8735,
      "స్లామాబాద్": 8736,
      "▁పాలన": 8737,
      "▁కార్య": 8738,
      "▁కారణంగా": 8739,
      "▁కలిగి": 8740,
      "▁लगभग": 8741,
      "ంటుంది.": 8742,
      "ूरोप": 8743,
      "भोजपुरी": 8744,
      "▁নিবন্ধ:": 8745,
      "▁[t](./మూస_చర్చ:": 8746,
      "▁[v](./మూస:": 8747,
      "▁[e](./ప్రత్యేక:EditPage/మూస:": 8748,
      "ylee": 8749,
      "▁when": 8750,
      "పదాలు": 8751,
      "శోకుడు": 8752,
      "emale": 8753,
      "▁వేగంగా": 8754,
      "al_Population_T": 8755,
      "▁చిత్ర": 8756,
      "▁జరిగిన": 8757,
      "▁सीमा": 8758,
      "▁regions": 8759,
      "▁স্থাপত্য": 8760,
      "_যুদ্ধ": 8761,
      "নোর": 8762,
      "▁सदस": 8763,
      "▁দেখা": 8764,
      "পাঞ্জাব": 8765,
      "▁राजनीतिक": 8766,
      "▁[पंजाब](./पंजाब": 8767,
      "ণিপুরী": 8768,
      "▁[భారతదేశంలో": 8769,
      "arnatic": 8770,
      "▁అనేక": 8771,
      "▁ఎక్కువగా": 8772,
      "▁থাকে": 8773,
      "▁দ্বীপপুঞ্জ": 8774,
      "▁শিক্ষা": 8775,
      "▁হিন্দু": 8776,
      "_राजवंश": 8777,
      "पूर्ण": 8778,
      "ृद्धि": 8779,
      "ীমান্ত": 8780,
      "▁দশক": 8781,
      "▁দুই": 8782,
      "▁शुरू": 8783,
      "বেঙ্গালুরু": 8784,
      "▁వారసత్వ": 8785,
      "▁ప్రస్తుతం": 8786,
      "▁రోడ్": 8787,
      "otals_P": 8788,
      "▁తరువాత": 8789,
      "▁బెంగాల్": 8790,
      "ంపిక్": 8791,
      "135375457": 8792,
      "culp": 8793,
      "खनऊ": 8794,
      "ারাঠি": 8795,
      "हरियाणा": 8796,
      "func=": 8797,
      "ক্লোপিডিয়া": 8798,
      "নায়ক": 8799,
      "▁হিসেবে": 8800,
      "▁వెబ్": 8801,
      "▁సౌకర్య": 8802,
      "ండీగఢ్": 8803,
      "▁అభివృద్ధి": 8804,
      "▁నడిపించ": 8805,
      "గుప్త": 8806,
      "భారతదేశ_రాష్ట్రాలు,_కేంద్రపాలిత_ప్రాంతాలు": 8807,
      "तुल्य": 8808,
      "फाएं": 8809,
      "ृषि": 8810,
      "▁दोनों": 8811,
      "120]](./भारत#cite_note-langoff-128)": 8812,
      ".nic.in)\n": 8813,
      "▁निभाई": 8814,
      "&local_base": 8815,
      "PetragliaAllchin": 8816,
      "dikshit),": 8817,
      "ऍथनोल": 8818,
      "ुम्बई": 8819,
      "জনেস": 8820,
      "ট্ট": 8821,
      "রবীন্দ্র": 8822,
      "হারাষ্ট্র": 8823,
      "র্ণাটক": 8824,
      "ilgrim": 8825,
      "याधीश": 8826,
      "](//upload.wikimedia.org/wikipedia/en/thumb/": 8827,
      "](https://www.idref.fr/0": 8828,
      "এনসাইক্লোপিডিয়া": 8829,
      "▁(సా.శ.పూ.1200–సా.శ.పూ.": 8830,
      "্রিটানিকা": 8831,
      "కృష్ణా": 8832,
      "हारजिस्ट्रार": 8833,
      "साँचा_वार्ता:": 8834,
      "▁2007](./ভারত#dikshit),": 8835,
      "▁([help](./వర్గం:Harv_and_Sfn_template_errors": 8836,
      "ోర్చుగ": 8837,
      "aper_1_of_2011_India": 8838,
      "ार्कटिका": 8839,
      "Provisional_Population_T": 8840,
      "otals_Paper_1_of_2011_India": 8841,
      "&local_base=": 8842,
      "ऍथनोलॉग": 8843,
      "Provisional_Population_Totals_Paper_1_of_2011_India": 8844,
      "01": 8845,
      "2)[[": 8846,
      "4).": 8847,
      "534": 8848,
      "8)\n": 8849,
      "A/A": 8850,
      "CA/A": 8851,
      "John": 8852,
      "Tab": 8853,
      "_26": 8854,
      "_2011": 8855,
      "_38": 8856,
      "atp": 8857,
      "cur": 8858,
      "denti": 8859,
      "nglish": 8860,
      "q=": 8861,
      "uture": 8862,
      "uild": 8863,
      "ver,": 8864,
      "ndl": 8865,
      "India_%28orthographic_projection%29": 8866,
      "▁(S": 8867,
      ".org/w": 8868,
      "-08": 8869,
      "\\)\"),": 8870,
      "▁prom": 8871,
      "amap": 8872,
      "[[18": 8873,
      "▁Policy": 8874,
      "00%20A": 8875,
      "▁can": 8876,
      "raw": 8877,
      "▁_2011": 8878,
      "eli": 8879,
      "▁[\"World": 8880,
      "22.": 8881,
      "ri_Lanka": 8882,
      "-2_Data_": 8883,
      "lands": 8884,
      "/country": 8885,
      "%202-": 8886,
      "rade": 8887,
      "Asher2006": 8888,
      "AsherAsher2006": 8889,
      "les/00%20A": 8890,
      "▁Anth": 8891,
      "UNHD": 8892,
      "▁around": 8893,
      "▁use": 8894,
      "yyyy": 8895,
      "irector": 8896,
      "censusindia.gov.in/2011census/P": 8897,
      "censusindia.gov.in/2011census/population": 8898,
      "_enumeration": 8899,
      "ocuments/": 8900,
      "-of-india-": 8901,
      "map_of_India": 8902,
      "india.gov.in/india-glance/profile": 8903,
      "owever,": 8904,
      "imf.org/external": 8905,
      "▁domestic": 8906,
      "▁\\-": 8907,
      "▁widely": 8908,
      "▁(2014).": 8909,
      "Political_map_of_India": 8910,
      "CA/A-2_Data_": 8911,
      "Tables/00%20A": 8912,
      "%202-India.pdf)": 8913,
      "UNHDR": 8914,
      "censusindia.gov.in/2011census/PCA/A-2_Data_": 8915,
      "censusindia.gov.in/2011census/population_enumeration": 8916,
      "Tables/00%20A%202-India.pdf)": 8917,
      "censusindia.gov.in/2011census/PCA/A-2_Data_Tables/00%20A%202-India.pdf)": 8918,
      "([": 8919,
      "/profile": 8920,
      "4)\n": 8921,
      "6,": 8922,
      "80%": 8923,
      "9-6": 8924,
      "Aligned": 8925,
      "Karanth": 8926,
      "_on": 8927,
      "dance": 8928,
      "lish": 8929,
      "men": 8930,
      "▁X": 8931,
      "org": 8932,
      "orpor": 8933,
      "arm": 8934,
      "▁(3": 8935,
      "lect": 8936,
      "▁Social": 8937,
      "uris": 8938,
      "▁Report": 8939,
      "▁Dance": 8940,
      "263": 8941,
      "▁[\"In": 8942,
      "▁Home": 8943,
      "_Act": 8944,
      "-85": 8945,
      "html": 8946,
      "_\\(orthographic_projection": 8947,
      "▁Of": 8948,
      "anath": 8949,
      "iance": 8950,
      "arkar": 8951,
      "▁[978-0-521": 8952,
      "tate_": 8953,
      "on-Aligned": 8954,
      "cms).": 8955,
      "/hind": 8956,
      "/index.php?": 8957,
      "▁London:": 8958,
      "estival": 8959,
      "▁Institu": 8960,
      "▁US$": 8961,
      "_\\(orthographic_projection\\)": 8962,
      "/)": 8963,
      "1-8": 8964,
      "223": 8965,
      "2]](./India#cite_note-": 8966,
      "2%29": 8967,
      "7C": 8968,
      "7.\n": 8969,
      ":G": 8970,
      "FT": 8971,
      "Gum": 8972,
      "HQ": 8973,
      "Island": 8974,
      "Lakshadweep": 8975,
      "Pan": 8976,
      "Sanchi": 8977,
      "US": 8978,
      "Yum": 8979,
      "_14": 8980,
      "aos": 8981,
      "bour": 8982,
      "business/": 8983,
      "ght": 8984,
      "hang": 8985,
      "mj": 8986,
      "min": 8987,
      "utes": 8988,
      "vert": 8989,
      "▁ge": 8990,
      "▁el": 8991,
      "▁[n": 8992,
      "▁[_P": 8993,
      "▁\"U": 8994,
      "thang": 8995,
      "orn": 8996,
      "oro": 8997,
      "orship": 8998,
      "aro": 8999,
      "ene": 9000,
      "cid": 9001,
      "city": 9002,
      "▁ago": 9003,
      "2016_": 9004,
      "▁India](./C": 9005,
      "adras": 9006,
      "▁plate": 9007,
      "▁se": 9008,
      "▁sign": 9009,
      "▁Ad": 9010,
      "▁Asher": 9011,
      "▁Ca": 9012,
      "▁Cooperation": 9013,
      "first": 9014,
      "▁Park": 9015,
      "illa": 9016,
      "igarh": 9017,
      "andigarh": 9018,
      "▁man": 9019,
      "▁milk": 9020,
      "▁_M": 9021,
      "tics": 9022,
      "▁Br": 9023,
      "▁Buddhist": 9024,
      "▁Before": 9025,
      "▁Data_": 9026,
      "roduc": 9027,
      "elugu": 9028,
      "irth": 9029,
      "hag": 9030,
      "](./Sanskrit": 9031,
      "▁Games": 9032,
      "▁\"Sanskrit": 9033,
      "pecially": 9034,
      "a_tigris": 9035,
      "ability": 9036,
      "▁gen": 9037,
      "▁growth": 9038,
      "_in_South_Asia": 9039,
      "▁through": 9040,
      "▁On": 9041,
      "▁Island": 9042,
      "▁\"Mughal": 9043,
      "549": 9044,
      "thera_tigris": 9045,
      "▁[↑](./India#cite_ref-FOOTNOTEB": 9046,
      "](./Mugh": 9047,
      "74.": 9048,
      "▁within": 9049,
      "398": 9050,
      "▁[![](//upload.wikimedia.org/wikipedia/commons/thumb/2/": 9051,
      "onstitution_of_India": 9052,
      "engal_": 9053,
      "amil_Nadu": 9054,
      "anskrit](./Sanskrit": 9055,
      "amanuj": 9056,
      "uisine": 9057,
      "ortal:": 9058,
      "known": 9059,
      "Environment": 9060,
      "▁especially": 9061,
      "▁about": 9062,
      "New_Delhi": 9063,
      "ambod": 9064,
      "_union_territ": 9065,
      "topic": 9066,
      "▁increased": 9067,
      "adhya": 9068,
      "](./South_Asian_": 9069,
      "▁2018](./India#CITEREFDyson2018),": 9070,
      "▁different": 9071,
      "](./History_of_": 9072,
      "▁India](./Government_of_India": 9073,
      "InfosysHQ": 9074,
      "FrontView": 9075,
      "▁remain": 9076,
      "8+5": 9077,
      "culpture": 9078,
      "Gumpa": 9079,
      "LakshadweepIsland": 9080,
      "Sanchi2": 9081,
      "Yumthang": 9082,
      "▁Asher,": 9083,
      "](./Mughal_": 9084,
      "InfosysHQFrontView": 9085,
      "-E": 9086,
      "/fr": 9087,
      "6).": 9088,
      "63)": 9089,
      "948": 9090,
      "Dg": 9091,
      "OL": 9092,
      "aith": 9093,
      "bur": 9094,
      "ech": 9095,
      "hra": 9096,
      "yd": 9097,
      "–18": 9098,
      "▁[_M": 9099,
      "ndhra": 9100,
      "inema": 9101,
      "ori": 9102,
      "alle": 9103,
      "ouli": 9104,
      "truggle": 9105,
      "adem": 9106,
      "▁100": 9107,
      "ator": 9108,
      "▁Publication": 9109,
      "illi": 9110,
      "▁census": 9111,
      "ets": 9112,
      "olar": 9113,
      "▁dynasty": 9114,
      "opland": 9115,
      "280": 9116,
      "▁N.": 9117,
      "epic": 9118,
      "29)": 9119,
      "oung": 9120,
      "▁List": 9121,
      "1999": 9122,
      "▁Its": 9123,
      "34)": 9124,
      "34)\n": 9125,
      "ground": 9126,
      "world-f": 9127,
      "erves": 9128,
      "58)": 9129,
      "▁79.": 9130,
      "itive": 9131,
      "IAF": 9132,
      "7/7": 9133,
      "...]": 9134,
      "ramouli": 9135,
      "▁2020.": 9136,
      "▁commun": 9137,
      "10721": 9138,
      "the-world-f": 9139,
      "arnataka": 9140,
      "cia.gov/": 9141,
      "rakash": 9142,
      "bbc.co.uk/": 9143,
      "\"।": 9144,
      "-in": 9145,
      "-ভারত": 9146,
      "-india-": 9147,
      "-गंगा": 9148,
      ".২": 9149,
      "/we": 9150,
      "1st": 9151,
      "2-0": 9152,
      "2-7": 9153,
      "97": 9154,
      "C_P": 9155,
      "E﻿": 9156,
      "FIL": 9157,
      "MAAJ": 9158,
      "OLA": 9159,
      "RA": 9160,
      "Rv": 9161,
      "[भारत": 9162,
      "_to": 9163,
      "a-b": 9164,
      "bharat": 9165,
      "da": 9166,
      "list": 9167,
      "med": 9168,
      "music": 9169,
      "s:": 9170,
      "s=`": 9171,
      "ving": 9172,
      "ँकि": 9173,
      "ंबर": 9174,
      "ईस्ट": 9175,
      "ऊर्जा": 9176,
      "ऋतु": 9177,
      "ऑपरेशन": 9178,
      "कु": 9179,
      "जवा": 9180,
      "तग": 9181,
      "त्या": 9182,
      "तमान": 9183,
      "थी": 9184,
      "दु": 9185,
      "नत": 9186,
      "मूल": 9187,
      "ल्त": 9188,
      "वत": 9189,
      "वली": 9190,
      "शील": 9191,
      "सत": 9192,
      "सैन": 9193,
      "ी.": 9194,
      "ुक": 9195,
      "ुस्तान": 9196,
      "ूस": 9197,
      "ेय": 9198,
      "५०": 9199,
      "কত": 9200,
      "কল": 9201,
      "কুল": 9202,
      "খরান": 9203,
      "ঝা": 9204,
      "টাল": 9205,
      "ঠে": 9206,
      "তো": 9207,
      "দারি": 9208,
      "ধর": 9209,
      "ধুন": 9210,
      "ন।": 9211,
      "নার": 9212,
      "বৃ": 9213,
      "বরা": 9214,
      "বেষ": 9215,
      "শু": 9216,
      "স্য": 9217,
      "সঙ্গীত": 9218,
      "হার": 9219,
      "াম": 9220,
      "ুষ": 9221,
      "েক": 9222,
      "েন্ট": 9223,
      "োমিটার": 9224,
      "োখরান": 9225,
      "্গ": 9226,
      "১১": 9227,
      "২,": 9228,
      "২৯": 9229,
      "৩৭": 9230,
      "৪।": 9231,
      "৯]](./ভারত#cite_note-": 9232,
      "▁ऐ": 9233,
      "▁५": 9234,
      "▁লি": 9235,
      "▁ক্ষমতা": 9236,
      "▁০.": 9237,
      "▁ট্রফি": 9238,
      "](./य": 9239,
      "](./সা": 9240,
      "](./প্র": 9241,
      "](./तमिल": 9242,
      "](./দক্ষিণ": 9243,
      "](./বাংলাদেশ": 9244,
      "](./নেপাল": 9245,
      "▁[श": 9246,
      "▁[০": 9247,
      "▁[৮": 9248,
      "▁[राज्य": 9249,
      "▁[प्र": 9250,
      "▁[গণ": 9251,
      "▁[উপ": 9252,
      "▁[বাংলাদেশ": 9253,
      "▁[নেপাল": 9254,
      "▁[ডিও": 9255,
      "▁\"প্র": 9256,
      "▁\"प्र": 9257,
      "▁\"राष्ट्रीय": 9258,
      "▁\"तमिल": 9259,
      "▁\"বাংলাদেশ": 9260,
      "▁\"নেপাল": 9261,
      "▁\"विशेष:EditPage/साँचा:": 9262,
      "inal_": 9263,
      "ারে": 9264,
      "arak": 9265,
      "▁कर्ज": 9266,
      "▁(ই": 9267,
      "▁(ম": 9268,
      "▁(2019": 9269,
      "▁(2nd": 9270,
      "▁(b)": 9271,
      "▁सूर": 9272,
      "▁मील": 9273,
      "▁সক্ষম": 9274,
      "▁সভ্য": 9275,
      "-138": 9276,
      "তিন": 9277,
      "▁पै": 9278,
      "▁पहु": 9279,
      "▁पश्चिम": 9280,
      "ন্ব": 9281,
      "](https://pub": 9282,
      "বিত্র": 9283,
      "বিভাগ": 9284,
      "wearing": 9285,
      "▁পু": 9286,
      "▁পতাকা": 9287,
      "▁পার্টি": 9288,
      "र्क": 9289,
      "र्तग": 9290,
      "linkid=": 9291,
      "urvey": 9292,
      "ালো": 9293,
      "uprem": 9294,
      "▁অংশ": 9295,
      "▁অধিকার": 9296,
      "বাদী": 9297,
      "▁Mana": 9298,
      "▁মানু": 9299,
      "▁মোদী": 9300,
      "विद्यालय": 9301,
      "_केंद्र": 9302,
      "▁दी": 9303,
      "राजनी": 9304,
      "26.": 9305,
      "▁बनी": 9306,
      "▁बड़ी": 9307,
      "ারিত": 9308,
      "▁प्रण": 9309,
      "▁प्रभा": 9310,
      "▁प्रकार": 9311,
      "लावा": 9312,
      "▁निय": 9313,
      "▁नृत्य": 9314,
      "▁প্রায়": 9315,
      "▁প্রেস": 9316,
      "unle": 9317,
      "▁বে": 9318,
      "▁নিয়ন্ত্রণ": 9319,
      "_सिनेमा": 9320,
      "▁[\"M": 9321,
      "115": 9322,
      "তা\")": 9323,
      "তাবাদ": 9324,
      "508": 9325,
      "▁জি": 9326,
      "▁জোট": 9327,
      "s_](https://books.google.com/books?id=": 9328,
      "▁Nuclear": 9329,
      "▁আজ": 9330,
      "▁আঞ্চল": 9331,
      "स्ता": 9332,
      "ित्व": 9333,
      "▁সংখ্যা": 9334,
      "▁आय": 9335,
      "্যাস": 9336,
      "লাকা": 9337,
      "extra_": 9338,
      "িলোমিটার": 9339,
      "](./ভারতের_জ": 9340,
      "](./ভারতের_স": 9341,
      "](./ভারতের_ভূ": 9342,
      "▁Factbook": 9343,
      "▁गए": 9344,
      "रीक्षण": 9345,
      "গ্রহ": 9346,
      "▁परमाणु": 9347,
      "▁परंपरा": 9348,
      "রিক্ত": 9349,
      "ादरा": 9350,
      "/http://books.google.com/books?id=": 9351,
      "AAMAAJ": 9352,
      "_महासागर": 9353,
      "▁संख्या": 9354,
      "नेट": 9355,
      "▁[महाराष्ट्र](./महाराष्ट्र": 9356,
      "▁২০০৬": 9357,
      "_के_देश": 9358,
      "ম্ভ": 9359,
      ".ncbi.nlm.nih": 9360,
      "ी](./प": 9361,
      "ी](./स": 9362,
      "ज़ा": 9363,
      "राष्ट्रीय_": 9364,
      "গুলিত": 9365,
      "sey": 9366,
      "সিস": 9367,
      "সিপা": 9368,
      "▁भाषाएँ": 9369,
      ".html),": 9370,
      "54)": 9371,
[...]
