e </w>
t h
a n
s </w>
i n
d </w>
e r
, </w>
o n
th e</w>
e n
a l
a r
s t
y </w>
d i
a t
. </w>
o r
e d</w>
I n
o f
an d</w>
a </w>
r e
of </w>
i on
In di
i t
i c
in g
t </w>
al </w>
o </w>
in </w>
o m
an </w>
ing </w>
o u
a s</w>
er </w>
t o</w>
e c
e s</w>
u r
= =
ion </w>
th </w>
i s
s ,</w>
l y</w>
st </w>
en t
h </w>
i l
e m
T h
a m
o l
Indi a</w>
u l
i s</w>
or </w>
s .</w>
r i
l i
r a
er n
o w
a s
Th e</w>
en t</w>
e l
b y</w>
i r
Indi a
c on
o v
o p
c h
1 9
s i
Indi an</w>
s u
d u
a g
w i
e a
u n
e t
w h
en </w>
e x
2 0
ic </w>
i v
' s</w>
i st
w as</w>
d e
wi th</w>
u t
in c
i m
f or
e ar
a c
on g
s p
r om
o c
a b
ern </w>
an g
== =
=== </w>
at ion</w>
a d
e st
u s
i g
; </w>
p l
on </w>
y ,</w>
er e</w>
at </w>
v er
rom </w>
h a
p ar
h as</w>
f rom</w>
0 </w>
ic h</w>
m a
il l
In </w>
t ion
e s
at ion
an c
% </w>
wh ich</w>
re s
p r
o s
o d
al ly</w>
al l
u m
con t
c om
b e
a st
r it
e s,</w>
an d
ul t
u d
l e</w>
ic al</w>
f or</w>
en c
e ,</w>
i es</w>
t ed</w>
s h
it s</w>
c l
at e</w>
l ar
India 's</w>
t s</w>
i d
c ent
w or
w ere</w>
ou n
e st</w>
m ar
s e
for m
e d
c o
t er</w>
lar g
en d
ec on
ar e</w>
a ,</w>
u re
l at
it y</w>
i </w>
e .</w>
ar </w>
a in
t er
m ent</w>
l ow
i al</w>
g h
ong </w>
m in
is m
0 0</w>
t r
p or
p er
ov ern
ou r
v e</w>
o g
iv e</w>
e s.</w>
u p
in du
at ed</w>
as s
ar y</w>
a y
a k
re g
econ om
du c
b ec
a p
C h
y .</w>
ur ing</w>
o t
n </w>
k </w>
i ,</w>
g r
f ter</w>
n or
m ill
in to</w>
cent ur
t ra
st it
an y</w>
am e</w>
India ,</w>
C E
== </w>
20 1
1 </w>
) </w>
u ag
su b
ir </w>
g overn
e ly</w>
b u
ang uag
p op
m o
g en
y ear
s c
min ist
l anguag
inc l
f ir
d er
c h</w>
H indu
wor l
w e
w </w>
th e
stit ut
re c
q u
pop ul
p ri
li g
it </w>
f l
d ec
th er</w>
st r
s y
p h
ou th
nor th
incl ud
fir st</w>
ex t
an s
a v
A si
w est
ur e</w>
sp ec
re as
r at
ou s</w>
m e
el ec
anc e</w>
us ed</w>
sy st
syst em
s o</w>
s er
ou th</w>
ou g
oug h</w>
m or
m od
m ent
f f
d uring</w>
d h
bec ame</w>
b o
b e</w>
India .</w>
v ed</w>
th em
t ion</w>
par t
om e</w>
l e
is h</w>
ion s</w>
ha ve</w>
gen er
cont in
bu t</w>
be en</w>
ar t
al so</w>
a st</w>
u b
su ch</w>
re lig
ong res
n i
n e
mo st</w>
m p
m e</w>
ha d</w>
f ic
enc e</w>
ear </w>
di tion
com m
c ast
C ongres
worl d
un d
t w
st at
r ul
pr o
p re
p ol
n um
mor e</w>
ma j
inc reas
er g
en g
de v
d ing</w>
an s</w>
a y</w>
20 0
1 ,</w>
ver s
ur al</w>
tw o</w>
s outh
r ic
pri me</w>
p e
ov er</w>
mill ion</w>
li m
larg est</w>
l d</w>
ig h
i o
gr ow
govern ment</w>
g re
e p
e -
d om
c oun
bo th</w>
an t</w>
a fter</w>
S outh</w>
: </w>
4 </w>
we en</w>
v i
ur b
tra dition
th at</w>
spec i
s oc
mod ern</w>
l ed</w>
il </w>
et ween</w>
er s</w>
e ver
di vers
com p
c ult
c a
be g
b er</w>
ation al</w>
an t
U n
E mp
Congres s</w>
B CE
19 9
19 6
19 5
ure s</w>
u cl
the ir</w>
th is</w>
si d
r u
r al</w>
por t
o k
li f
ism </w>
is h
f ol
ar m
B ud
B rit
20 2
year s</w>
west ern</w>
su p
ri b
reg ion
ou s
ol og
o b
m any</w>
ism ,</w>
ir e</w>
inc e</w>
ic s</w>
g l
f e
e t</w>
d ed</w>
cl ass
b etween</w>
ation ,</w>
am ent
all </w>
ak ist
P akist
M a
In d
C on
Bud dh
A c
" </w>
world 's</w>
ucl ear</w>
t im
re p
re a
r ol
ov er
ou gh
os e</w>
on -
o t</w>
o -
north ern</w>
m il
l it
l and
it ed</w>
ist or
in di
i st</w>
ex p
er ed</w>
elec tion
el l
econom ic</w>
e v
ag e</w>
ad e</w>
I t</w>
E ur
urb an</w>
ub l
u gh
th an</w>
sub contin
stitut ion</w>
s ince</w>
ra ph
popul ation</w>
pe op
p ow
ow </w>
ou t</w>
n ot</w>
ma in
lit er
larg e</w>
l ea
k h
it ary</w>
ing ,</w>
increas ed</w>
includ ing</w>
in fl
infl u
im al
h um
h ar
em erg
el op
ec t
ea st</w>
ea st
di c
d anc
c re
c or
beg an</w>
ation s</w>
ar i
ang es</w>
am ong</w>
a in</w>
Brit ish</w>
B y</w>
A n
A l
A fter</w>
A </w>
6 %</w>
1 8
1 .
0 00</w>
w ar
v ing</w>
und er</w>
th ough</w>
th er
t en</w>
t ,</w>
st y
par t</w>
par li
p er</w>
og raph
oc c
n ed</w>
minist er</w>
m us
m id
low ing</w>
l ong
l in
k rit
is e</w>
is ation</w>
ic ally</w>
i ent</w>
h istor
h i</w>
gener al</w>
f i
et t
em ent
dev elop
cast e</w>
c t
c our
b as
ap p
al ,</w>
ab le</w>
ab l
a .</w>
U S
US $
M ugh
Ch in
C om
8 </w>
5 </w>
19 4
, 000</w>
un j
unj ab
um </w>
ult an
ubl ic</w>
them at
th r
si g
s ur
r ate</w>
pr ov
parli ament
oun d</w>
or ity</w>
on e</w>
of fic
num ber</w>
ne w</w>
n uclear</w>
n on-
mill en
millen ni
mil itary</w>
mar k
lat er</w>
is ed</w>
ion .</w>
i an</w>
h er
es e</w>
er c
em pl
e f
e an</w>
d s</w>
d r
coun tr
ca used</w>
b r
at ely</w>
ans krit
al it
a w
S t
S anskrit
P unjab
Mugh al</w>
M us
In du
Eur op
Emp ire</w>
B eng
A r
7 ,</w>
2 </w>
wh o</w>
v er</w>
u </w>
thr ough</w>
system </w>
soc ial</w>
ser ved</w>
sc ri
s ome</w>
s ol
s ch
s ;</w>
rit or
rib ut
relig i
pro duc
pow er</w>
pol it
per io
perio d</w>
peop le</w>
ow n</w>
ow ever
owever ,</w>
our </w>
or ld</w>
o ther</w>
o o
o ,</w>
n o</w>
n at
maj or</w>
ma themat
m ov
m on
lif e</w>
le g
languag e</w>
l oc
l and</w>
it i
influ enc
imal ay
ic ,</w>
g ra
fe at
f in
f am
es s</w>
er .</w>
ed ,</w>
ec h
e y</w>
e ig
e h
divers ity</w>
di sp
di rec
d e</w>
co ok
class ical</w>
centur y</w>
c ol
c ar
b ill
b er
at es</w>
as h
al s</w>
a s,</w>
W orld</w>
S i
Pakist an
Mus lim
Ind o-
I s
H imalay
C ent
3 </w>
2 .
195 0
19 8
wor k
w om
ure .</w>
un t
ul ar</w>
tr ans
th re
th ir
ter ritor
t ur
t ech
t a</w>
s e</w>
ric ult
ri gh
r ural</w>
r oc
polit ical</w>
pl ac
p t
ough t</w>
os s</w>
or ig
om et
o od
millenni um</w>
ment s</w>
maj ority</w>
m an
m ade</w>
it e</w>
ion ,</w>
ing s</w>
includ e</w>
in v
i re
i es.</w>
hum an</w>
g a
form </w>
f </w>
er al</w>
ent ,</w>
en su
em ent</w>
ear ly</w>
e w
e g
e ;</w>
dom in
de p
d le</w>
d ance</w>
cor ding</w>
cont rol
cont ribut
ch ang
centur y,</w>
bill ion</w>
b ir
ar t</w>
ar ea
ar ch
an k
ag ricult
a j
S h
P </w>
J an
Hindu </w>
G and
E n
D el
Com p
7 </w>
201 1</w>
19 7
- largest</w>
) ,</w>
% .</w>
wom en</w>
w an
v en
ure ,</w>
ur r
up </w>
ul pt
the y</w>
ter m
t ern
subcontin ent</w>
st ri
speci ally</w>
si st
ser v
sc ulpt
s ett
s econ
s a
ri ver</w>
religi ous</w>
r y</w>
r on
part y</w>
parliament ary</w>
p en
p ain
pain t
ow n
ot ec
orig in
occ up
o y
o in
n olog
me di
mar ri
liter ac
l y,</w>
l ong</w>
k n
iv es</w>
in e</w>
ic i
h ig
h ea
grow th</w>
gre w</w>
g an
form ed</w>
fi ed</w>
f ig
f er
f ac
ent s</w>
en d</w>
em oc
eh ru
ed .</w>
econom y</w>
e th
e specially</w>
e qu
di v
di ff
dep end
d ra
d am
control </w>
con stitut
co ast
cent ral</w>
c u
c ru
c ensu
bas ed</w>
b el
ar ,</w>
anc ient</w>
an n
am m
ac k
W est
Un ited</w>
Th ere</w>
P lat
N ehru
J ain
Indu s</w>
I ts</w>
H indi
G overn
G anges</w>
Europ ean</w>
En gl
E ast</w>
Cent ral</w>
B J
Asi a</w>
A m
6 ,</w>
) .</w>
% ,</w>
y a</w>
worl d</w>
wi de
wh ose</w>
w on</w>
w ell
w a
vi ol
ur ther</w>
un ion</w>
ultan ate</w>
u st</w>
u s</w>
tradition al</w>
tion s</w>
them </w>
th ere</w>
tech nolog
t y
t or
t a
sur v
sty l
st ate</w>
south ern</w>
soc i
se qu
s ed</w>
ri ver
region al</w>
reg ion</w>
rec or
rea d</w>
r a</w>
por ted</w>
pl ain
pen in
penin s
p rom
p res
p ed</w>
p </w>
ou ld</w>
os ed</w>
on ly</w>
offic ial</w>
of ten</w>
ni fic
mus ic</w>
m i
low </w>
long er</w>
l am
l </w>
k ing
iv il
it y,</w>
it ies</w>
ist ic</w>
ish ed</w>
in n
in f
il d
ic e</w>
i b
hig h</w>
h ous
h el
h at
g ar
for est
for e</w>
fol lowing</w>
fam il
f t</w>
f oun
f ed
fed eral</w>
ex ec
exec ut
er si
er s.</w>
end em
en ,</w>
emerg ed</w>
eig n</w>
east ern</w>
ear li
e ograph
e e
e duc
duc ed</w>
de fin
cre ated</w>
comm erc
com pl
centur ies</w>
c ap
c an
c .</w>
bec ome</w>
b od
at ing</w>
an ts</w>
an ,</w>
all y,</w>
all ed</w>
al s,</w>
ag es</w>
ad v
a ir</w>
West ern</w>
Th ese</w>
T am
Si kh
S outh
P ersi
N ational</w>
Muslim </w>
M o
Is lam
Indi ans</w>
Govern ment</w>
G D
Engl ish</w>
Emp ire
Del hi</w>
D uring</w>
Con stitution</w>
Comp any</w>
BCE </w>
An dam
Am ong</w>
Ac cording</w>
A ra
5 .
5 ,</w>
4 00</w>
3 0
20 0</w>
194 7,</w>
1 7
y ing</w>
y an
wor n</w>
wide ly</w>
w ea
w ar</w>
v ill
v ast</w>
v ari
v ar
us e</w>
unt il</w>
un der
u j
u ary</w>
tim es</w>
tim e</w>
th in</w>
t ri
t re
t ly</w>
system ,</w>
sub sequ
su m
sty le</w>
str u
speci es,</w>
sp read</w>
sig nific
si ve</w>
sh or
se ver
se t</w>
scri p
s s
s o
s m
s ion
s ing
s ec
rul e</w>
re sid
re main
re lat
rat es</w>
ra h
ra ,</w>
r ise</w>
r is
r en
r ation</w>
pr oc
plac e</w>
penins ular</w>
p ur
p ay
or gan
op p
op er
oo k</w>
ol ved</w>
of f</w>
oc i
o st
o ol
nor th</w>
n ow</w>
mid dle</w>
mid -
mark et</w>
mar y</w>
ma k
m em
loc al</w>
literac y</w>
li ef
li ber
leg is
lea ding</w>
le ft</w>
land s</w>
l ast</w>
l a
king dom
iv ed</w>
influenc ed</w>
indu str
in ter
in depend
im al</w>
il ity</w>
ic .</w>
i -
hel d</w>
h owever,</w>
h igh
h i,</w>
gre at
gr ou
govern ment
gl ob
fol low
f urther</w>
f our</w>
f ast
f ar
execut ive</w>
ex c
est im
est abl
er s,</w>
er ,</w>
ent ly</w>
end ang
endang ered</w>
en ac
empl oy
em per
em p
election ,</w>
el it
el </w>
educ ation</w>
earli est</w>
e dic
e di
e as</w>
e "</w>
disp ut
diff er
d er</w>
d ay</w>
d -largest</w>
cour t
countr y</w>
cook ed</w>
contin u
constitut ion
con stitution</w>
con duc
co alit
c urr
b or
b le</w>
at t
at ,</w>
art ,</w>
ar ound</w>
and ,</w>
an s.</w>
al ong</w>
al e</w>
ain s</w>
ad minist
a ver
a i
a f
a d</w>
Th is</w>
South east</w>
Sanskrit ,</w>
R e
R aj
Pakist an</w>
Nehru </w>
N or
K ash
Jan uary</w>
Hindi </w>
Gand hi</w>
G re
Chin a</w>
CE ,</w>
Beng al</w>
BJ P</w>
B rah
B har
B h
Al though</w>
Ac t</w>
A f
9 %</w>
7 %</w>
4 %</w>
3 00</w>
3 %</w>
0 %</w>
′ </w>
° </w>
y an</w>
y 's</w>
x im
xim ately</w>
wi thin</w>
wh en</w>
west ,</w>
wea p
w rit
w ild
w est</w>
w ent</w>
vi di
vidi an</w>
v ic
ut ical</w>
urb an
und ament
undament al</w>
ult ing</w>
u ar
u ally</w>
u al</w>
u ,</w>
tur ned</w>
trans m
tradition ally</w>
tr op
trop ical</w>
tr o
thre e</w>
thir d</w>
thir d-largest</w>
th ought</w>
th .</w>
tern ational</w>
term </w>
technolog y</w>
ta x
t y</w>
t rib
t ook</w>
t ive</w>
t i
t e
stat es</w>
st i
st e
spec ies</w>
sp or
sp on
sp ea
spea k
south -
sol id
soci et
sing le</w>
signific ant</w>
sh ar
secon d</w>
sculpt ure</w>
sch ool
s ultanate</w>
s outh</w>
s it
s il
s h</w>
rul e.</w>
roc k</w>
righ ts</w>
ric a</w>
res ulting</w>
rep ublic</w>
ren ew
relig ions</w>
reg ions</w>
recor ded</w>
rea ch
re l
rel ations</w>
re form
re duced</w>
rat ic</w>
ra vidian</w>
ra ct
ra c
r oss</w>
r o
r ich</w>
r ed</w>
r ang
prov id
pro ximately</w>
pr otec
port ant</w>
port .</w>
por ts</w>
popul ar</w>
pol l
pol ic
pl ay
ph arm
pharm ac
pharmac e
pharmace utical</w>
per i
part it
p ut
p ublic</w>
p ract
p li
p ass
ou t
ou l
ou ch
oper ation</w>
oo d</w>
on e
om y</w>
om in
om </w>
ol de
olde st</w>
o th
o .</w>
n ot
n ational</w>
mov ement</w>
minist er.</w>
mem ber</w>
ma in</w>
m ult
m er
low er</w>
lin e</w>
li ance</w>
legis lat
languag es</w>
l ay
kn own</w>
kingdom s</w>
k s</w>
k ed</w>
j ust</w>
j ec
it ect
ism .</w>
is sion
is ing</w>
ion s,</w>
io diversity</w>
ing .</w>
indi gen
in tro
in es,</w>
i es,</w>
i ally</w>
i .</w>
hous e</w>
h y
h is</w>
h er</w>
h en
h ab
grow ing</w>
great er</w>
gra du
glob al</w>
for est</w>
for eign</w>
for c
ff ec
feat ures</w>
famil ies</w>
f undamental</w>
f ive</w>
ext ern
extern al</w>
ext en
ext ant</w>
exp res
ex chang
estim ated</w>
establ ished</w>
est -
es s
es er
es :</w>
erg y</w>
er ing</w>
er i
eng th</w>
enc y,</w>
enac ted</w>
emp ire</w>
emoc ratic</w>
elec ted</w>
el f
ed ul
e- dr
e-dr am
e-dram as</w>
e ir</w>
e igh
divers e</w>
direc tly</w>
di st
di sh
di s
dec ad
decad es</w>
de ,</w>
danc es</w>
danc e-dramas</w>
d ri
d en
d el
d ,</w>
cult ure.</w>
cook ing</w>
continu ed</w>
conduc ted</w>
con solid
con sist
comp osed</w>
comp an
comm only</w>
cl as
ch ar
cap it
c ities</w>
c iti
c ient</w>
c alled</w>
br o
bod y</w>
be fore</w>
b l
b i
ation .</w>
at ive</w>
at ic</w>
at a</w>
ass oci
area s.</w>
arch itect
ap proximately</w>
an imal</w>
am pl
all ey</w>
ak sh
ain ed</w>
agricult ural</w>
ag o.</w>
ac k</w>
ab out</w>
ab ly</w>
ab ility</w>
a i,</w>
a h
V alley</w>
Th eir</w>
Tam il</w>
St at
S ing
Punjab </w>
Punjab ,</w>
Plat ea
Pakistan .</w>
Ma ur
M od
M any</w>
Kash m
Hindu st
Hindu ism,</w>
H owever,</w>
Gre e
G up
G uj
G hat
F or
D ravidian</w>
D em
D ec
Buddh ist</w>
Buddh ism</w>
Beng al
BCE ,</w>
Asi an</w>
Asi a,</w>
Ara b
Andam an</w>
An cient</w>
Al l</w>
Af rica</w>
A ss
A s</w>
== ==</w>
9 .</w>
8 .</w>
7 .
6 </w>
6 .
5 00</w>
5 .</w>
4 2
4 .
3 .
201 0
2 ,</w>
2 %</w>
1950 ,</w>
19 3
1 200</w>
1 0
1 ,
1 %</w>
0 –
z on
z </w>
year .</w>
yan mar
y a,</w>
writ ten</w>
world .</w>
work s</w>
wor k</w>
wi de</w>
weap on
we al
war s</w>
w ould</w>
w in
w ay</w>
vill age</w>
vic tor
ver y</w>
ven u
venu es</w>
var n
v is
v ent
v ely</w>
v eg
veg et
v all
us h</w>
us c
usc ri
uscri p
ur id
urid ar
ur ed</w>
up per</w>
unt ouch
ul ar,</w>
ub s</w>
uar d</w>
u ent</w>
u de
u ch</w>
trib al</w>
transm it
transmit ted</w>
tra de</w>
tion s,</w>
tion .</w>
tim e,</w>
thre at
ther e
them .</w>
th ose</w>
th ese</w>
th -largest</w>
territor ies</w>
t y.</w>
t y,</w>
t own
t ot
t om
t od
tod ay</w>
t iv
t ing</w>
t ext
t empl
t al
t ak
t .</w>
t -
system .</w>
sup ported</w>
sup pli
sup pl
sum m
summ er</w>
subsequ ent</w>
subcontin ent,</w>
styl es</w>
stru ct
str ength</w>
stit uent</w>
stat u
st ea
st and
sp ite</w>
sp ic
so on</w>
sig ned</w>
sid ent,</w>
sid e</w>
si x
si vely</w>
si der
sh ow</w>
sh ok
shok a</w>
sh are</w>
sh al
sett l
se par
scri min
sch edul
schedul ed</w>
s over
sover eig
sovereig n
s omet
somet im
sometim es</w>
s li
s ing</w>
s elf
s ect
sect or</w>
s av
s ar
rom ise</w>
ric k
rick et</w>
ri g
ri </w>
res er
rep res
remain ing</w>
relat ed</w>
region s.</w>
reg ul
rec ent</w>
reach ed</w>
rea th
re venues</w>
re spon
re s</w>
re m
re fer
re co
reco g
recog n
re at
re ad
ra ther</w>
ra p
ra il
provid ed</w>
protec ted</w>
pri mary</w>
pre v
pre sident,</w>
pre domin
pract ic
pr op
pr inc
popul ous</w>
poll ut
peop l
parliament .</w>
par ts</w>
paint ing,</w>
p over
p oin
p ea
p at
p ast
our c
os it
os en</w>
origin ally</w>
organ isation</w>
or al</w>
op </w>
ood s</w>
one si
on ial</w>
on ,</w>
omet res</w>
om ing</w>
ol ving</w>
ol it
ograph ics</w>
offic e</w>
o- d
o-d ar
o-dar o,</w>
o tion
o ther
o ted</w>
o os
o et
o ast
num er
num ber
nat al</w>
n omin
n ation</w>
n ation
nation al
n ame</w>
mov ement
minist ers.</w>
mi )</w>
mer ch
ment .</w>
medi ately</w>
mathemat ics</w>
mathemat ical</w>
marri ages</w>
mar g
marg in
man uscrip
mak es</w>
main t
m uch</w>
m ig
m en</w>
m amm
m al
m </w>
lim ate</w>
lif e,</w>
liber al
li k
li ed</w>
lea der
leader ,</w>
le v
larg est
languag e,</w>
languag e"</w>
la de
l oss</w>
l oos
l ess</w>
l aw
law s</w>
l ate</w>
l ast
l ab
k il
kil ometres</w>
k en
k am
kam ee
j o-daro,</w>
iv il</w>
it y.</w>
it t
it ated</w>
is ol
is .</w>
ing ly</w>
influ ence</w>
industr y</w>
indigen ous</w>
independ ence</w>
increas ingly</w>
in iti
in equ
inequ alit
in e.</w>
in e,</w>
in dh
in .</w>
in ,</w>
im prov
im portant</w>
ill </w>
il e</w>
il d</w>
id dle</w>
ici ans</w>
ic s.</w>
ic ob
ic l
ic al,</w>
i ther</w>
i p
i k
i i
i h
i fer
i de
her edi
hen jo-daro,</w>
hea d</w>
hab it
ha ving</w>
ha ,</w>
grou p
gre at</w>
gradu ally</w>
government ,</w>
govern ments</w>
ga ve</w>
g uard</w>
g end
g enc
g e
g as</w>
g </w>
form s</w>
form al</w>
fig ures</w>
fac t
f ound</w>
f em
f ar</w>
ext inc
exp ans
exp and
exchang e</w>
ex port
ex ampl
ex </w>
ever y
ev al</w>
et y</w>
et s</w>
et ic</w>
es ;</w>
er t</w>
er s
er a</w>
ep </w>
end ing</w>
en ergy</w>
employ ed</w>
emoc rac
em b
emb ly</w>
ell ion</w>
election s</w>
ed ly</w>
econom y.</w>
east .</w>
ear ed</w>
ear -
e as
e al</w>
e al
e :</w>
e 's</w>
du e</w>
dra in</w>
dist inc
disput es</w>
differ ent</w>
di tion</w>
di scrimin
di ment</w>
di </w>
develop ment</w>
develop ed</w>
der s</w>
defin it
dec lar
dec ade</w>
d s,</w>
d .</w>
cult ures</w>
cult ural</w>
cru st
cru c
cruc ial</w>
cour t</w>
contribut ions</w>
cont ains</w>
cont ain</w>
constitution al</w>
consist s</w>
con sider
con c
comp romise</w>
commerc ial</w>
comm on</w>
col onial</w>
coalit ion</w>
co -
class ical,</w>
char ac
charac ter
ch uridar
ch osen</w>
ch anges</w>
centur y.</w>
centur ies,</w>
cent r
censu s</w>
censu s,</w>
capit a</w>
ca us
c rit
c ould</w>
c os
c ivil
c e</w>
c an</w>
c ame</w>
c al
bir th
bel ow</w>
bel ong</w>
bec oming</w>
be lief
be ing</w>
b ri
b reath
b ers</w>
b ellion</w>
b ar
b ack</w>
b ack
at iv
at i,</w>
ass ert</w>
arm ies</w>
ar nat
ar ly</w>
ar ies</w>
ar eas</w>
ar ds</w>
ar a</w>
ang lade
anc ed</w>
an ted</w>
an other</w>
an imal
an i</w>
an ch
an ag
an -
am p
am ,</w>
all y.</w>
all av
al es</w>
agricult ure</w>
ag o,</w>
ad op
ad ded</w>
ac ross</w>
ac c
a il
a ic</w>
a ch
W est</w>
W H
WH O
V i
V a
Un ion</w>
US$ 2
U P
Th ar</w>
T reat
St ates</w>
Sing h</w>
Si k
Sanskrit </w>
S ri</w>
S ha
S e
Persi an</w>
P allav
P ,</w>
Nor th</w>
N uclear</w>
N on-
N icob
N D
Mod ern</w>
Mo henjo-daro,</w>
Maur ya</w>
M yanmar
M iddle</w>
M ar
M al
L ank
K al
Jan ata</w>
Islam ic</w>
Indo- Ar
Indi ra</w>
Ind onesi
I ,</w>
Hindu ism</w>
Gup ta</w>
Guj ar
Gree k</w>
GD P</w>
G eograph
F ron
F or</w>
Eur as
Empire .</w>
E x
E m
E con
E ast
E arly</w>
Dem ographics</w>
Dec can</w>
D ev
D eser
D ance</w>
Con stituent</w>
Chin a,</w>
C l
C ivil
Brit ish
Bhar at
BCE .</w>
B ay</w>
B anglade
Ass embly</w>
Asi a.</w>
Arab ian</w>
A shoka</w>
A k
9 .
8 –
8 ,</w>
8 %</w>
7 .</w>
6 th</w>
5 0</w>
5 %</w>
4 ,</w>
3 th</w>
3 .</w>
201 1,</w>
200 1</w>
2 6%</w>
199 1,</w>
196 5,</w>
1950 s,</w>
195 1,</w>
19 th</w>
18 5
1 st</w>
1 5
1 3th</w>
1 00</w>
1 .</w>
1 ,000</w>
0 .
0 ,000</w>
, 6
) ;</w>
( c.</w>
– 201
Ἰ ν
Ἰν δ
ā y
ā rat
z es</w>
z en
z ed</w>
z e</w>
z ation</w>
year s;</w>
year s,</w>
year </w>
y n
y ;</w>
y -
x ed</w>
win ds</w>
wh ere</w>
wh er
wher eas</w>
wh at</w>
west .</w>
well </w>
well -
weapon s</w>
we ep</w>
we b
war ri
warri or
wan ted</w>
wan a,</w>
wa ist</w>
wa ist
w ood
wood ,</w>
w et
w ear</w>
w ear
w ay
way s,</w>
w at
viol ent</w>
viol ence</w>
viol enc
victor ies</w>
ver se
vent ion</w>
ven e</w>
veget ari
vari ous</w>
vall e
v oted</w>
v ol
vol can
v ir
v al
ut t
ut e</w>
urr ed</w>
ure ;</w>
urban isation</w>
ur ta</w>
ur is
uris dic
urisdic tion</w>
ur al
ur </w>
up s,</w>
untouch ability</w>
un ter
unter -
unter- ga
unter-ga ther
unter-gather ers,</w>
un res
unres olved</w>
un ited</w>
un itary</w>
un i
un g</w>
un e</w>
um b
umb ai,</w>
ultan e
ultane ous
ultaneous ly,</w>
ultan at
ult ure</w>
ul os
ulos is</w>
ul k</w>
ucl ear-
ub erc
uberc ulosis</w>
u t</w>
u su
usu ally</w>
u k
u g
ty p
ty m
tym olog
tymolog y</w>
tur n</w>
trans formed</w>
tradition s</w>
tradition s.</w>
tra dition</w>
tra ct
town s</w>
tot al</w>
tor s</w>
ti fied</w>
threat en
threaten ed</w>
ther ea
the or
th or
thor n</w>
th m
th en</w>
th east</w>
th at,</w>
territor ies.</w>
territor ial</w>
tern al</w>
term .</w>
ter ,</w>
templ es</w>
tech ni
techni qu
t un
t uberculosis</w>
t t
t ex
tex ts</w>
t est</w>
t emper
t el
t ea
t ary</w>
t and
tand o
t able</w>
system s</w>
surv ives</w>
suppl anted</w>
sup port.</w>
subsequ ently</w>
subcontin ent
sub st
subst ant
sub duc
su pre
supre me</w>
su per
super contin
supercontin ent</w>
su mp
su c
suc c
styl es,</w>
struct ure</w>
stru c
stri al</w>
stri </w>
str ong
strong ly</w>
str ic
stitut ion.</w>
sti ff
sti an
stian ity,</w>
ste am
steam ed</w>
stat us</w>
stat e,</w>
stand ar
standar di
standardi sed</w>
st ud
st res
st re
spor ts</w>
speci fic
speci es.</w>
speak ing</w>
speak ers</w>
sp read
spread ing</w>
sp ot
sp h
sph ere</w>
south .</w>
south ,</w>
sol e</w>
sm all</w>
sm all
sit es</w>
sig n
sid er</w>
si mil
simil ar</w>
si a,</w>
shar ed</w>
sh y</w>
sh oul
shoul der
sever ely</w>
sever al</w>
sett ing</w>
serv ice</w>
ser ving</w>
separ at
self -
secon d
second -
sec ular</w>
sec ular,</w>
se diment</w>
se at
seat s</w>
se as
se als</w>
school s</w>
sc i
sc en
sc ale</w>
sav our
savour y</w>
sar i</w>
sa w</w>
sa fe
safe guard</w>
sa f
s ultanat
s mo
s low</w>
s ion</w>
s ea
s :</w>
s '
rul ing</w>
rul ed</w>
rul e,</w>
rol ifer
rolifer ation</w>
rol e</w>
river s,</w>
righ t</w>
ri ya,</w>
ri stianity,</w>
ri an
rian ism</w>
ri ,</w>
resid ents</w>
res ourc
rep ubl
rep t
remain ed</w>
rem ely</w>
relig ion</w>
relig ion
relat ive</w>
region .</w>
reg ist
rec e
reas ing</w>
reas ing
re w</w>
re turned</w>
re spec
re s,</w>
re pe
repe at
repeat edly</w>
re main</w>
re lief
re fl
re di
re bellion</w>
re ak
rat ive</w>
rat e,</w>
rap id
rang e</w>
rail ways,</w>
ra id
ra g
ra .</w>
r up
r un
r ow
r oun
r ough
r op
r gan
rgan i
rgani zation</w>
r du
r anges</w>
r an</w>
r am
ram e
put s,</w>
prom in
produc ed</w>
produc e</w>
proc ess</w>
pro jec
pro b
prob ably</w>
prev ent</w>
pres ent</w>
pres ence</w>
pr ising</w>
pow er.</w>
pover ty</w>
por tion</w>
por ter</w>
por t</w>
popul ation,</w>
popul ar
pop </w>
polic y</w>
polic ies</w>
poin ts</w>
play ed</w>
plain s,</w>
plac ed</w>
pl ement
pl e</w>
pl ate</w>
pl at
pl ant</w>
pl ain</w>
ph ib
ph as
peri od
period .</w>
per sist
per ial</w>
per cent
percent age</w>
pay e
pat ron
past oral</w>
pass ing</w>
partit ion.</w>
part ic
part ially</w>
par ents</w>
par ed</w>
paint ings</w>
p ush</w>
p ul
p rec
p ost
p il
p et
oy al
ow ing</w>
ow ards</w>
over ran</w>
ov i
ovi et</w>
ov e</w>
ous ly</w>
oun c
otion ,</w>
otec h</w>
ot tom
ot spot
os ing</w>
os a,</w>
origin al</w>
organ ised</w>
or tion
or s</w>
or oast
oroast rianism</w>
or d
or ally</w>
op en</w>
on violent</w>
on set</w>
on omet
on ic</w>
on i
on ds</w>
on d
ond wana,</w>
olog ically</w>
olog ical</w>
olit ics</w>
ol ut
ol lowing</w>
ol l
ol d</w>
ol </w>
og am
oet ici
oetici de,</w>
od s</w>
occup ation,</w>
occ urred</w>
occ as
o th</w>
o si
o ch
number s,</w>
num bers</w>
not ably</w>
not able</w>
north west.</w>
north -
north ,</w>
non- co-
non- Congress</w>
nomin al</w>
ne igh
neigh b
neighb our
national ist</w>
n s</w>
n onviolent</w>
n in
n ex
nex t</w>
n et
n ear</w>
n e</w>
n ar
n a
mus ic.</w>
mult i-
movement .</w>
mon weal
mod ern
mod el</w>
mo ist</w>
millenni um
mill ion
million -
mig ration</w>
ment al</w>
medi eval</w>
me ga
mega diverse</w>
me dic
me at</w>
me at,</w>
me as
me an
mean ing</w>
mathemat icians</w>
marri ed</w>
mark et
market s.</w>
mark ed</w>
margin s</w>
mar shy</w>
mar it
manuscrip t</w>
man u
mamm als,</w>
mal es.</w>
mak e</w>
main ly</w>
ma y</w>
ma put
m s</w>
m ns</w>
m en,</w>
m ed
m at
mat eri
m as
m and
m a</w>
low ering</w>
loos e-
loose- kn
loose-kn it</w>
long -
literac y,</w>
liter at
liter ary</w>
lim ited</w>
lim atic</w>
lig ion</w>
liberal isation</w>
li ving</w>
li ved</w>
li ve</w>
li es</w>
lev el
leg es</w>
lay er</w>
lat ter</w>
lat it
lat er,</w>
last ed</w>
largest .</w>
larg er</w>
larg ely</w>
larg e-
large- scale</w>
languag es.</w>
languag es,</w>
land s,</w>
la im
laim ing</w>
l ing
l ic,</w>
l e.</w>
l ay</w>
l al</w>
l ain
ken ing</w>
kamee z</w>
k urta</w>
k ing</w>
k ill
k ey</w>
k at
k ,</w>
jec t</w>
j urisdiction</w>
j or</w>
j oin
j ay
jay anag
jayanag ara</w>
j ant
j ack
iv ing</w>
iv ers
iv ely</w>
iv e-
ive- year</w>
iv a</w>
iv </w>
istor y</w>
ist s</w>
ist ing</w>
isol ation</w>
is ions</w>
is es</w>
is ation.</w>
is ation,</w>
is ans</w>
ion ed</w>
io sphere</w>
inv olving</w>
inv olved</w>
intro duced</w>
intro duc
inter vention</w>
inn ov
inn ings</w>
influenc es</w>
inf ec
inequalit y,</w>
indu strial</w>
independ ent</w>
increas ing</w>
includ es</w>
inc ome</w>
in ternational</w>
in ing</w>
in form
inform ation</w>
in ated</w>
im ultaneously,</w>
im plement
im perial</w>
im mediately</w>
il itated</w>
igh t</w>
igh t
ig er</w>
ig aw
ig </w>
id ence</w>
id e</w>
icl es</w>
ic s,</w>
ic le</w>
ic ally,</w>
ib et
i th
i ra,</w>
i fied</w>
i du
idu ous</w>
i ant</w>
i ans</w>
i )</w>
hy mns</w>
hum ans</w>
histor y,</w>
histor ically</w>
histor ical</w>
histor ians</w>
high ly</w>
high est</w>
heredi tary</w>
hea ded</w>
har lal</w>
har kh
habit at</w>
ha u</w>
h unter-gatherers,</w>
h ubs</w>
h otspot
h or
h om
h ol
h ered</w>
h am
h al
hal f</w>
h ,</w>
grow </w>
grou p</w>
gre en
green house</w>
gra di
gr o
gr and
gener ated</w>
gener ally,</w>
gend er</w>
gar lic,</w>
g oods</w>
g ods</w>
g o
g ive</w>
g igaw
g eograph
g e</w>
g ained</w>
foun d
form s.</w>
form ally</w>
form ,</w>
forest s,</w>
forest ,</w>
for tified</w>
for table</w>
fol k</w>
fl our
fl ank
fig ure
ff a
ffa ir
fem ales</w>
feat ure</w>
feat ed.</w>
far -
fact or</w>
f ul
f re
f rame
f ood</w>
f oeticide,</w>
f lowering</w>
f low</w>
f ive-year</w>
f ish</w>
f il
f est
f av
f ast</w>
f ash
f arm
f all</w>
exten sively</w>
ext remely</w>
ext end
extend s</w>
export s.</w>
expand ing</w>
exc av
excav ated</w>
exampl e,</w>
ex ports</w>
ex ported</w>
ex isting</w>
ex erc
every day</w>
ever y</w>
ever al</w>
ev ent
event ually</w>
eth n
eth ical</w>
et er
et a
est ic</w>
ess ent
essent ial</w>
es —
es e,</w>
es )</w>
erg ency,</w>
er ly</w>
er eal</w>
er al
eral a</w>
ep ublic</w>
ep t</w>
ent er</w>
end ments</w>
end ed</w>
enc e.</w>
en n
en eral</w>
empl e</w>
emper or</w>
emocrac y.</w>
ement s</w>
em phas
em ission
em en
elit es</w>
elit es,</w>
election s.</w>
election .</w>
elec tr
elec tion</w>
eg ates</w>
ef ly</w>
edic ts</w>
edic </w>
ect ing</w>
econom y,</w>
econom ies</w>
ec ted</w>
east ,</w>
eal th</w>
ea .</w>
e ither</w>
e ffec
e ed</w>
e ed
dra w
domin ion</w>
domin ance</w>
dom estic</w>
divers ity.</w>
div or
dition al</w>
disput ed</w>
dish es</w>
discrimin at
discriminat or
diff used</w>
dic </w>
di seas
di fied</w>
di ed</w>
di d</w>
di ,</w>
dev ast
der ived</w>
depend ent</w>
den se</w>
del egates</w>
defin ed</w>
declar ed</w>
dec lin
dec iduous</w>
de sc
de feated.</w>
d yn
d rew</w>
d own</w>
d own
d oc
d o</w>
d en</w>
d emocratic</w>
d emocracy.</w>
d em
d ates</w>
curr enc
cult ure</w>
cu t</w>
cu st
cu is
crust ,</w>
cre ativ
creativ ity</w>
cre ating</w>
court s.</w>
court s,</w>
countr y,</w>
countr y's</w>
coun tri
contribut ed</w>
cont ra
con sump
con sider</w>
compl ex</w>
compl et
compan i
comp any</w>
com prising</w>
com fortable</w>
col leges</w>
coast line</w>
coast al</w>
coalit ion,</w>
co st</w>
co al
class es</w>
clas s.</w>
cl oth
cl ose</w>
cl eared</w>
civil ian</w>
citi zen
citi es,</w>
churidar s.</w>
character istic</w>
ch ild</w>
ch e
ch ap
ch a
cha emen
centr e</w>
cast es,</w>
cast e-
cast e,</w>
car ved</w>
cal end
ca use</w>
c ris
c over
c limatic</w>
c ivil</w>
c ereal</w>
c att
bu c
bro ad</w>
bri efly</w>
breath ing</w>
br ought</w>
br on
bor ne</w>
bor ders</w>
bo di
bl ack
black buc
bir th</w>
bi otech</w>
beg innings</w>
b ulk</w>
b reak
b ottom
b onds</w>
b it
b iodiversity</w>
b and
band h
b an
b al</w>
b al
b a</w>
aw a
awa harlal</w>
aver age</w>
av ar
at tract
at ives</w>
associ ated</w>
associ ate</w>
ass inated</w>
ass ical</w>
ass assinated</w>
as ive</w>
as i</w>
art s,</w>
art istic</w>
art isans</w>
arnat ic</w>
arm s</w>
area .</w>
architect ure,</w>
arch aic</w>
ar na
ar is
ar e:</w>
ar c
ar as
app oin
app lied</w>
app ear</w>
ant s,</w>
ant ly</w>
ann ual</w>
animal s</w>
anguag es</w>
ang etic</w>
anc es</w>
anc e,</w>
an at
an a</w>
an .</w>
amm u</w>
am phib
am endments</w>
am </w>
all s</w>
al s.</w>
al liance</w>
al ised</w>
al i</w>
al a,</w>
al .</w>
aksh ag
aksh ad
akshad weep</w>
aj paye
ain st</w>
ag re
ag e.</w>
ag ainst</w>
ag ain</w>
af ter
af fir
adv ent</w>
adv anced</w>
adop ted</w>
administ ration</w>
ad her
ad em
ad ditional</w>
ad ,</w>
acc ess</w>
ac tion</w>
ac coun
ac cording</w>
abl es,</w>
ab ove</w>
ab ha,</w>
a —
a ː
a ut
a th
a s.</w>
a i</w>
a ffec
a ffair
a 's</w>
] </w>
Z oroastrianism</w>
Y akshag
W h
W ar</w>
Vi jayanagara</w>
V is
V edic</w>
V ajpaye
V .</w>
Un t
Un ion.</w>
US$ 100</w>
UP A</w>
U rdu
Treat y,</w>
Th ey</w>
Th ail
Tam il
T o</w>
T ibet
T er
T emple</w>
Stat es,</w>
Sikh s,</w>
Sik h</w>
Sha stri</w>
Sh iva</w>
Sh e</w>
Se a</w>
S ultanate</w>
S oviet</w>
S ome</w>
S indh
S imultaneously,</w>
S everal</w>
S ea.</w>
S ch
S arna
S ant
S ang
S abha,</w>
Re ligion</w>
Raj puts,</w>
Raj iv</w>
R epublic</w>
R am
Platea u,</w>
Plat e.</w>
Pakistan ,</w>
Pakistan )</w>
P roliferation</w>
P resid
P r
P olitics</w>
P lain
P art
P ar
P P
P .</w>
O ut
O rganization</w>
O ld</w>
O ct
O c
Nor theast</w>
Non- Proliferation</w>
Nicob ar</w>
ND A</w>
N ew
N et
N ep
N at
N a
Myanmar ,</w>
Mo di</w>
Mar ath
Mal ay
Ma jor</w>
Ma h
M umbai,</w>
M in
M an
Lank an</w>
L i
L at
L anguages</w>
L akshadweep</w>
Kashm ir</w>
Kashm ir
K osi
K erala</w>
K aver
Jain ism</w>
Jain ism,</w>
J une</w>
J harkh
J awaharlal</w>
J ammu</w>
Islam ,</w>
Is lands,</w>
Indonesi a.</w>
Indo-Ar yan</w>
Indo- G
Indo-G angetic</w>
Indo- European</w>
Indi ans.</w>
Ind o
In ternational</w>
In c
I m
I I,</w>
Hindust ani</w>
Hindust an</w>
Himalay as</w>
Himalay as.</w>
Himalay as,</w>
Himalay an</w>
H istory</w>
H ealth</w>
Gujar at</w>
Ghat s,</w>
Geograph y</w>
Gand h
GD P,</w>
G ondwana,</w>
G eneral</w>
Fron t</w>
For eign</w>
F ollowing</w>
Europ e.</w>
Euras i
Em ergency,</w>
Econ omy</w>
East ern</w>
E tymology</w>
E l
Deser t,</w>
Del hi,</w>
D is
D emocratic</w>
D e
Congres s
Comp an
Com monweal
Cl assical</w>
Ch ristianity,</w>
Ch ol
Ch hau</w>
Ch ess</w>
Ch amp
CE </w>
CE .</w>
C ups,</w>
C ulture</w>
C ricket</w>
C limate</w>
C av
C arnatic</w>
C </w>
Buddh ist
Buddh ism,</w>
Buddh a</w>
British -
British- style</w>
Brah maput
Bhar at</w>
Bh ang
Banglade sh</w>
B iodiversity</w>
B etween</w>
B al
B ah
Asi ans</w>
Ar t
Al liance</w>
A t
A n</w>
A jant
A genc
A chaemen
9 </w>
9 4</w>
9 ,</w>
9 %.</w>
8– 2
8 0</w>
8 .
7. 5%</w>
7 th</w>
7 0
6 4</w>
6 3</w>
6 1</w>
6 .</w>
5. 8%</w>
5 5
55 ,000</w>
4 6%</w>
4 3
4 2</w>
4 0</w>
4 0%</w>
4 .</w>
3 9%</w>
3 61</w>
3 5
3 2</w>
3 1.
3 ,</w>
3 ,
202 6,</w>
202 3.</w>
202 2,</w>
2010 .</w>
2010 ,</w>
201 8</w>
201 3</w>
200 8,</w>
200 1,</w>
20 th</w>
2. 8</w>
2 8</w>
2 5</w>
2 5
2 4</w>
2 1.
2 %.</w>
199 9.</w>
199 1</w>
197 1,</w>
196 5</w>
196 2
196 0
1950 .</w>
19 30
19 2
18 th</w>
17 th</w>
10 th</w>
10 ,
1. 3</w>
1 7</w>
1 6.
1 5</w>
1 4%</w>
1 2.
1 1</w>
1 0</w>
1 %.</w>
- s
- majority</w>
- day</w>
- body</w>
, 7
, 42
, "</w>
( Ἰνδ
( including</w>
( ii
( Art
( 2
( 199
( "
" .</w>
" )</w>
₹ 20
₹20 4.
₹204. 4</w>
₹ 2
₹2 3
₹23 5.
₹235. 24</w>
— with</w>
— which</w>
— were</w>
— to</w>
— such</w>
— sol
—sol i
—soli dified</w>
— passing</w>
— headed</w>
— expres
—expres sed</w>
— cover
—cover ing</w>
— cooked</w>
— bec
—bec a
—beca use</w>
–201 4,</w>
–201 3,</w>
– Pakistan</w>
– K
–K ad
–Kad ai,</w>
– Arab
–Arab ic</w>
– </w>
– 35
–35 1</w>
– 2010,</w>
– 200
–200 1
–2001 ).</w>
ṭ ā
ṭā dh
ṭādh y
ṭādhy āy
ṭādhyāy ī
ṭādhyāyī </w>
ṣ ṭādhyāyī</w>
ṇ in
ṇin i.</w>
ṇ a,</w>
ṅ ga
ṅga ;</w>
ό ς
ός ),</w>
α );</w>
ί α);</w>
ˈ st
ˈst aː
ˈstaː n
ˈstaːn ]</w>
ˈ b
ˈb ʱ
ˈbʱ aː
ˈbʱaː ɾ
ˈbʱaːɾ ə
ˈbʱaːɾə t
ˈbʱaːɾət ]</w>
ʊ ˈstaːn]</w>
ɪ n
ɪn d
ɪnd ʊˈstaːn]</w>
ɦ ɪndʊˈstaːn]</w>
ū tr
ūtr as</w>
Ś ul
Śul ba</w>
āy a
āya ṇa,</w>
ārat a</w>
ārat ;</w>
ā ṇini.</w>
ā m
ām āyaṇa,</w>
ā ham
āham ih
āhamih ira,</w>
ā b
āb h
ābh ārata</w>
í </w>
â l</w>
á '
á' í</w>
Ö n</w>
° F
°F )</w>
° C</w>
zon t
zont ally.</w>
zon es</w>
zon e.</w>
z z</w>
z o
zo og
zoog eograph
zoogeograph ic</w>
z er
zer o</w>
z e
ze bu
zebu </w>
z a
za di
zadi ra
zadira ch
zadirach ta</w>
z .</w>
year -
year- roun
year-roun d.</w>
year ,</w>
yan i,</w>
yan -
yan- speaking</w>
y- di
y-di vi
y-divi de,</w>
y- defined</w>
y —solidified</w>
y wood,</w>
y th
yth ag
ythag or
ythagor ean</w>
y t
yt ell
ytell ing</w>
y st
yst ics,</w>
y p
yp ically</w>
y oun
youn g
young er</w>
y on
yon d</w>
y og
yog ur
yogur t</w>
y mp
ymp ics.</w>
y mon
ymon s</w>
y l
yl oni
yloni ans
ylonians .
ylonians. )</w>
y j
yj am
yjam as,</w>
y i-
yi- P
yi-P ol
yi-Pol o,</w>
y guard</w>
y ed</w>
y der
yder ab
yderab ad</w>
y as</w>
y ards</w>
y am,</w>
y ab
yab hat
yabhat a,</w>
y )</w>
x ur
xur iant</w>
x t
xt ure</w>
x ide</w>
x for
xfor d</w>
x alit
xalit e</w>
writ ing,</w>
world wide</w>
world ,</w>
work s,</w>
work ing</w>
work er</w>
work .</w>
work ,</w>
wor sh
worsh ip
worship .
worship. ")</w>
wom en,</w>
win ter</w>
wild life</w>
wild life,</w>
wild lif
wildlif e.</w>
wild ern
wildern es
wildernes s;</w>
wide spread</w>
wi f
wif t-
wift- hor
wift-hor se</w>
wi del
widel y,</w>
wh it
whit e-
white- r
white-r um
white-rum ped</w>
wh im
whim s</w>
wh ile</w>
wh ic
whic h,</w>
wet lands</w>
wet ,</w>
west erly</w>
west ;</w>
well- sett
well-sett led</w>
well- regul
well-regul ated</w>
well .</w>
well ,</w>
web s
webs ite</w>
web </w>
wear er
wearer 's</w>
wear ,</w>
weapon s.</w>
weap on</w>
weal th
wealth y</w>
wea kening</w>
we ight
weight s,</w>
wat i.</w>
wat ers</w>
warrior s;</w>
warrior s.</w>
war s.</w>
war ds,</w>
war d</w>
war d
ward s.</w>
war .</w>
war ,</w>
wan is</w>
wan i</w>
wan a
wana than</w>
waist lin
waistlin e.</w>
waist .</w>
wa th
wath es</w>
wa iv
waiv ers</w>
w rap
wrap ped</w>
w ly</w>
w inn
winn ing</w>
w ing</w>
w in</w>
w ill</w>
w ild</w>
w eri
weri w
weriw ala,</w>
w elf
welf are</w>
w el
wel far
welfar e.</w>
w ed
wed d
wedd ings</w>
w arm
warm er</w>
w alled</w>
w age</w>
volcan ism</w>
volcan ic</w>
vis ited</w>
vis it</w>
vis ib
visib le.</w>
vir on
viron mental</w>
vir a</w>
violenc e;</w>
violenc e,</w>
vill ages</w>
vill ag
villag es.</w>
victor y</w>
vic e-
vice- president,</w>
vi ous</w>
vi ly</w>
vi ew
view ed</w>
vi e
vie w</w>
vi du
vidu al</w>
verse ly</w>
verse .</w>
vers ity,</w>
ver view</w>
ver bal</w>
ver ag
verag ing</w>
vent ion.</w>
ven th-largest</w>
ven ed</w>
vegetari ans.</w>
vegetari an</w>
veget ables,</w>
varn as
varnas :</w>
varn a.</w>
varn a,</w>
vari ety</w>
vari ed,</w>
vari ations</w>
var ying</w>
var a</w>
valle y.</w>
valle y,</w>
vall is.</w>
val u
valu e</w>
val li
valli </w>
v ult
vult ure,</w>
v ul
vul n
vuln er
vulner able</w>
v or
vor ,</w>
v idence</w>
v ial</w>
v es;</w>
v es,</w>
v ere</w>
v eh
veh icle</w>
v e
ve als</w>
v ate</w>
v at
vat i.</w>
v asive</w>
v ary</w>
v als</w>
v acc
vacc in
vaccin es</w>
v a.</w>
utt u</w>
utt a,</w>
ut ures</w>
ut ure</w>
ut rit
utrit ion,</w>
ut eed</w>
ut ch</w>
ut an</w>
us sia,</w>
us ing</w>
us hered</w>
us e"</w>
us age</w>
ure —to</w>
ure -
ure- l
ure-l ad
ure-lad en</w>
ure "</w>
urban isation.</w>
urban ;</w>
ural ist
uralist ic,</w>
ural -
ural- urban</w>
ur u,</w>
ur ta
urta il
urtail ed</w>
ur s
urs ions</w>
ur re
urre d,</w>
ur ial</w>
ur g
urg ence</w>
ur den</w>
ur ally</w>
ur able</w>
ur a
ura ṅga;</w>
up t
upt a,</w>
up sur
upsur ge</w>
up pli
uppli ers</w>
up per
upper -body</w>
up on</w>
up at
upat i</w>
up as</w>
untouch abl
untouchabl es
untouchables ,"</w>
uni qu
uniqu ely</w>
uni form</w>
under went</w>
under s
unders k
undersk ir
underskir t,</w>
under gr
undergr ound</w>
under -
under- five</w>
under ,</w>
und red</w>
und ar
undar b
undarb ans</w>
und ale</w>
un wanted</w>
un re
unre st
unrest .</w>
un prec
unprec ed
unpreced ent
unprecedent ed</w>
un lin
unlin ked</w>
un lea
unlea vened</w>
un ivers
univers iti
universiti es,</w>
un iti
uniti es.</w>
un it
unit s;</w>
un eas
uneas y</w>
un disputed</w>
un constitution
unconstitution al.</w>
un common</w>
un comm
uncomm on,</w>
un c
unc tions</w>
un an
unan im
unanim ously</w>
un a</w>
um in,</w>
um ents</w>
um ent</w>
ult i-
ulti- gener
ulti-gener ational</w>
ul us</w>
ul sing</w>
ul ly</w>
ul g
ulg ation</w>
ul ating</w>
ul aic</w>
ul a</w>
ul ,</w>
uk min
ukmin i</w>
uk k
ukk uttu</w>
uj an</w>
ugh t</w>
ug ust</w>
ug u</w>
ude s.</w>
ude d.</w>
ude .</w>
ud ra,</w>
ud har
udhar y,</w>
ud f
udf lat
udflat s</w>
ud e</w>
ud al</w>
ud a
uda ism,</w>
uclear- weapon</w>
uclear- T
uclear-T est-
uclear-Test- B
uclear-Test-B an</w>
ub i
ubi qu
ubiqu it
ubiquit ous</w>
ub </w>
uar ies</w>
u xuriant</w>
u vial</w>
u th
uth ority</w>
u str
ustr al
ustral ian</w>
u st
ust ice</w>
u sively</w>
u sive</w>
u ous</w>
u istic</w>
u is
uis ine</w>
u id
uid el
uidel in
uidelin es.</w>
u du
udu ch
uduch er
uducher ry</w>
u dic
udic i
udici ary</w>
u c
uc ked</w>
u ally,</w>
u al,</w>
u .</w>
typ ically</w>
typ ical</w>
ty —expressed</w>
ty -
ty- n
ty-n ine</w>
tw ice</w>
tur mer
turmer ic,</w>
tur ed</w>
tun ics</w>
tun ic.</w>
tt on</w>
tt ar</w>
trib es</w>
tri g
trig onomet
trigonomet r
trigonometr ic</w>
tri al</w>
tri ad</w>
tre es</w>
tre ated</w>
tre at</w>
tre at
treat ment</w>
tre .</w>
transm ission
transmission ;</w>
trans lat
translat ing</w>
trans ac
transac tion
transaction al
transactional ism,</w>
tradition s,</w>
tradition .</w>
tra it
trait s,</w>
tra ining</w>
tra der
trader s,</w>
tra ded</w>
tra ,</w>
tr y</w>
tr ough</w>
tr ou
trou ser
trouser s,</w>
tr od
trod den
trodden ".</w>
tr ine.</w>
town ,</w>
tot al.</w>
tor y</w>
tom ic</w>
tiv ity</w>
tiv es,</w>
tiv el
tivel y,</w>
tion ist</w>
tion ar
tionar y,</w>
ti er</w>
ti ed</w>
threat s</w>
thre e-
three- tier</w>
thr ough
through out</w>
thm ic</w>
thm et
thmet ic,</w>
therea fter</w>
therea f
thereaf ter,</w>
there fore</w>
there for
therefor e,</w>
there by</w>
ther e.</w>
theor y.</w>
theor em
theorem </w>
themat ics</w>
them ,</w>
th us</w>
th ous
thous and</w>
th ough
though t,</w>
th ic
thic kening</w>
th en,</w>
th ;</w>
th -
th- century</w>
th ,</w>
text s,</w>
text ile</w>
text il
textil es,</w>
territor y</w>
tern ately</w>
term itt
termitt ently</w>
ter y</w>
ter s'
ters' )</w>
ter ra
terra co
terraco t
terracot ta</w>
ter ies</w>
ter ed</w>
ter culture.</w>
ter .</w>
templ e</w>
temper ed</w>
temper ate</w>
tel lig
tellig ence</w>
tel eg
teleg raph
telegraph —were</w>
technolog y,</w>
technolog ical</w>
techniqu es</w>
techniqu e,</w>
tea k</w>
tea ch
teach ings</w>
te es.</w>
te en</w>
te en
teen th-largest</w>
te am
team s,</w>
tax pay
taxpay ers,</w>
tax es</w>
tax es,</w>
tax ation</w>
tando or</w>
tando or
tandoor i</w>
tal k
talk ies</w>
tal ity</w>
tal a</w>
tak ing</w>
tak es</w>
tak en</w>
ta ught</w>
t- wing</w>
t- lived</w>
t ure.</w>
t ucked</w>
t uaries</w>
t ually</w>
t ribut
tribut aries</w>
t owards</w>
t op</w>
t op
top ;</w>
t on
ton s</w>
t ol
tol er
toler ance</w>
t o
to ad</w>
t ment</w>
t le</w>
t ight
tight ly,</w>
t iger</w>
t ies</w>
t ies.</w>
t ic</w>
t ial</w>
t i</w>
t i,</w>
t est
test ing</w>
t en
ten ment.</w>
t em
tem ber</w>
t ect
tect onic</w>
t ch
tch ing</w>
t bo
tbo ok
tbook .</w>
t ation</w>
t as,</w>
t ang
tang ent
tangent )</w>
t an
tan e.</w>
t ain</w>
t abl
tabl a,</w>
system at
systemat ic,</w>
system 's</w>
sy n
syn cre
syncre tic</w>
sy m
sym b
symb ol</w>
surv iving</w>
surv ived</w>
surv ive</w>
surv e
surve ill
surveill ance</w>
sur roun
surroun ds</w>
sur passing</w>
sur genc
surgenc i
surgenci es;</w>
suppli es</w>
suppli er.</w>
suppli ed</w>
suppl ying</w>
sup pres
suppres sed</w>
sup port</w>
sup port
support ,</w>
sum mary</w>
sum er</w>
sultanat e,</w>
sultanat e's</w>
succ ess
success ful
successful </w>
succ eed
succeed ed</w>
substant ially</w>
substant i
substanti ally.</w>
subduc tion</w>
subduc t</w>
subcontinent .</w>
subcontinent 's</w>
sub tropical</w>
sub ord
subord in
subordin ate</w>
sub ject</w>
sub due</w>
sub caste,</w>
sub -
sub- castes,</w>
su st
sust ained</w>
su sp
susp ending</w>
su peri
superi or</w>
su n
sun g</w>
su kh
sukh .</w>
su e</w>
styl es.</w>
stud y</w>
stud y,</w>
struct ive</w>
struc tion</w>
struc ted</w>
stric tions</w>
stric t,</w>
stri k
strik e</w>
stri es</w>
stri d
strid ent</w>
stres sed</w>
stres s.</w>
stre tching</w>
stre am</w>
str ung</w>
str uments</w>
str ong</w>
str ing,</w>
str at
strat eg
strateg ic,</w>
stitut ion
stitution alised</w>
stitut es</w>
stitut ed</w>
stit ch
stitch ed</w>
stiff er</w>
stiff </w>
stea di
steadi ly</w>
stea d</w>
stea d,</w>
ste ep
steep er</w>
ste at
steat ite</w>
statu s.</w>
statu ett
statuett es.</w>
statu es.</w>
stat ist
statist ics</w>
stat es:</w>
stat es.</w>
stat es,</w>
stat e:</w>
stat e.</w>
stat e's</w>
stand s</w>
st upas</w>
st ra
stra in</w>
st or
stor ytelling</w>
st opp
stopp ed.</w>
st ood</w>
st one</w>
st ing</w>
st in
stin ations</w>
st ill</w>
st ers.</w>
st er</w>
st art
start ing</w>
st ar
star d
stard ;</w>
st anc
stanc es,</w>
st am
stam p</w>
st age</w>
st able</w>
ss lands</w>
spor ting</w>
spor t</w>
spon s
spons or
sponsor sh
sponsorsh i
sponsorshi p</w>
spic uous</w>
spic es</w>
spic ed</w>
specific —because</w>
specific ally</w>
sp r
spr ing,</w>
sp ok
spok en</w>
sp l
spl it</w>
sp ir
spir ed</w>
sp end
spend ing.</w>
sp eed</w>
sovereign ty</w>
sovereign ty.</w>
sovereign ty,</w>
south- western</w>
south- west</w>
south- west,</w>
south- east.</w>
south westerly</w>
south west,</w>
south east,</w>
sol ute</w>
sol di
soldi ers,</w>
societ y</w>
societ y.</w>
societ y,</w>
societ ies</w>
soci ally</w>
soci al
social ist</w>
soc io
socio -
socio- economic</w>
so on
soon s.</w>
so j
soj our
sojour n
sojourn ing</w>
smo oth
smooth ly</w>
smo king</w>
small er</w>
small ,</w>
sm en</w>
sli ding</w>
sli de</w>
sli d</w>
six th</w>
six teenth-largest</w>
six </w>
sit es,</w>
sit ar</w>
sist ance</w>
sion als,</w>
sing ers.</w>
sil ver</w>
sil t</w>
sil s</w>
sil k
silk ;</w>
signific antly</w>
sign ing</w>
sign ated</w>
sid el
sidel ine</w>
sid ed</w>
si zes</w>
si ze</w>
si m
sim ple</w>
si e</w>
si ble</w>
si </w>
shoulder —covering</w>
shoulder .</w>
shor ter</w>
shor t</w>
shor t-lived</w>
shor es.</w>
shor es,</w>
shar p</w>
shar es</w>
shal wars</w>
shal war</w>
shal i</w>
sh owing</w>
sh ook</w>
sh ir
shir t</w>
sh er
sher wanis</w>
sh eared</w>
sh e
she ets</w>
sh at
shat riya,</w>
sh a</w>
sh .</w>
sever ity</w>
settl ing</w>
settl ement</w>
settl ement
settlement ,</w>
sett ing
setting s,</w>
serv es</w>
serv ed,</w>
serv ative</w>
serv ation</w>
serv ants</w>
ser ies</w>
ser ies.</w>
sequ ently</w>
separat ist</w>
separat ism</w>
separ ated</w>
self- rule,</w>
self- de
self-de scrip
self-descrip tion</w>
self .</w>
second- largest.</w>
second- fast
second-fast est</w>
secon d-largest</w>
sec ure</w>
sea s,</w>
sea fl
seafl o
seaflo or</w>
se vere</w>
se venth-largest</w>
se s.</w>
se g
seg reg
segreg ation,</w>
se en</w>
se e
see king</w>
se am
seam s</w>
se als,</w>
se al,</w>
se al
seal ed</w>
sculpt ure,</w>
sculpt ors</w>
sculpt ing</w>
scrip ts</w>
scrip tions,</w>
scrip t</w>
scrip t,</w>
scri pt
script ure</w>
sci ously</w>
sci ence.</w>
school s.</w>
school </w>
sch ol
schol ar
scholar s,</w>
sch ew
schew ing</w>
scen es</w>
scen e</w>
sc uring</w>
sav ed</w>
sar i,</w>
saf ety</w>
saf e</w>
sa uteed</w>
s' .</w>
s —such</w>
s wift-horse</w>
s wathes</w>
s ourc
sourc es</w>
s ought</w>
s on</w>
s on,</w>
s lowing</w>
s low
slow ly,</w>
s l
sl av
slav ing</w>
s ity</w>
s is</w>
s ion,</w>
s ine</w>
s ine,</w>
s ha,</w>
s ex</w>
s ex
sex -s
sex-s elec
sex-selec tive</w>
s et
set back
setback s,</w>
s es,</w>
s es
ses sed</w>
s ence</w>
s em
sem in
semin aries</w>
s e,</w>
s ari
sari 's</w>
s ar</w>
s ar,</w>
s ap
sap i
sapi en
sapien s</w>
s and
sand y</w>
s anc
sanc tuaries</w>
s ame</w>
s ales</w>
s al</w>
s ac
sac ri
sacri fic
sacrific es</w>
s "</w>
rup tive</w>
rup e
rupe es)</w>
run e
rune i,</w>
run </w>
rul ers</w>
rul ers,</w>
rul er</w>
ru pl
rupl ed</w>
row ded</w>
row ,</w>
rough out</w>
rough ly</w>
rop ortion
roportion ately</w>
rop h
roph ies.</w>
ron icl
ronicl ing</w>
ron ic</w>
rom os
romos ome</w>
rol e
role um</w>
roc o
roco di
rocodi li
rocodili an
rocodilian ;</w>
roc laiming</w>
roc ked</w>
roc k
rock y</w>
ro ot
root .</w>
ro ject</w>
ro ch
roch em
rochem ical</w>
ro ach
roach ment</w>
river s</w>
river -
river- borne</w>
river ,</w>
river ,"</w>
ritor y</w>
rit ual,</w>
rit sar,</w>
rit ically</w>
rit e</w>
ris ks</w>
ris ing</w>
ris en</w>
righ t.</w>
righ t-wing</w>
rig onomet
rigonomet ry</w>
rig id
rigid l
rigidl y.</w>
rig ation,</w>
ric h
rich es</w>
ric e;</w>
rib es</w>
ri ved</w>
ri mary</w>
ri ff
riff </w>
ri ed</w>
ri d
rid d
ridd led</w>
ri age</w>
ri ;</w>
respon sible</w>
respon se</w>
respon se,</w>
respec tively,</w>
respec tive</w>
resourc es</w>
resourc es,</w>
resid ent
resident s,</w>
reser ves,</w>
reser ved</w>
reser ve</w>
res urgence</w>
res sive</w>
res s</w>
res olut
resolut ion</w>
res ent
resent ments</w>
res cent
rescent -s
rescent-s ha
rescent-sha ped</w>
republ ic.</w>
republ ic
republic ;</w>
rept ile</w>
rept il
reptil es</w>
repres sive</w>
repres ent</w>
repres ent
represent atives</w>
rep ulsing</w>
rep ow
repow er</w>
renew ed</w>
renew al</w>
renew able</w>
renew abl
renewabl e.</w>
ren ch
rench ed.</w>
rem itt
remitt ances</w>
religion s:</w>
religion s.</w>
religi ous
religious -
religious- </w>
religi osa,</w>
relig ions,</w>
relig ion.</w>
relief s</w>
relief ,</w>
regul ation</w>
regul ar
regular ities</w>
regist ers</w>
regist ered</w>
region ally</w>
region -
region- specific—because</w>
region ,</w>
reg ar
regar ded</w>
reform s</w>
reform s,</w>
reform ;</w>
reform ,</w>
refl ecting</w>
refl ected</w>
refer red</w>
refer r
referr ing</w>
refer ence</w>
redi ents</w>
redi ble</w>
recor ding</w>
recor d</w>
recogn it
recognit ion</w>
recogn ises</w>
recogn ised</w>
rece ived</w>
rece ive</w>
rec tory</w>
rec our
recour se</w>
reasing ly,</w>
reasing :</w>
read ;</w>
reach ing</w>
re veals</w>
re turn</w>
re treat</w>
re strictions</w>
re st</w>
re sistance</w>
re pr
repr en
repren e
reprene urial</w>
re ports</w>
re ported</w>
re port.</w>
re placed</w>
re organised</w>
re mental</w>
re lied</w>
re land
reland .</w>
re j
rej ecting</w>
re hab
rehab ilitated</w>
re fin
refin ed</w>
re et
reet M
reetM ap
reetMap </w>
re e</w>
re comm
recomm ended</w>
re am
ream ble</w>
re al
real ms</w>
re -
re- elected</w>
rat ri;</w>
rat or
rator s.</w>
rat io
ratio ,</w>
rat ing</w>
rat i
rati os
ratios ;</w>
rat es,</w>
rat es
rates ).</w>
rapid ly</w>
rapid ly,</w>
rang ed</w>
rang e,</w>
rail way</w>
raid ing</w>
raid ers</w>
rag ment
ragment ation</w>
rag a</w>
rac ing</w>
ra y</w>
ra w</w>
ra structure</w>
ra k
rak sha</w>
ra ising</w>
ra inf
rainf all
rainfall .</w>
ra f
raf ts</w>
ra du
radu ally</w>
ra de</w>
ra de
rade sh</w>
r ying</w>
r ush</w>
r ural-urban</w>
r oyal
royal ty,</w>
r own</w>
r ow</w>
r ound</w>
r ou
rou p
roup ,</w>
r opp
ropp ing,</w>
r o-
ro- pastoral</w>
r ish
rish n
rishn a,</w>
r ion</w>
r ing
ring ent</w>
r in
rin iv
riniv as
rinivas a</w>
r il
ril in
rilin eal</w>
r ical</w>
r hy
rhy thmic</w>
r gar
rgar h</w>
r end
rend ering</w>
r enc
renc e"</w>
r ation,</w>
r ar
rar ely</w>
r ank
rank s</w>
r ance,</w>
r an
ran is
ranis )</w>
r al,</w>
r al
ral isation,</w>
qu ite</w>
qu est</w>
qu e
que fied</w>
qu ate</w>
qu ar
quar ter</w>
qu al
qual ity</w>
qu ad
quad rupled</w>
pur sue</w>
pur i,</w>
pur ch
purch as
purchas ing</w>
pur a</w>
pur </w>
pul ses,</w>
pul mon
pulmon ary</w>
provid e</w>
prov is
provis ion
provision al</w>
prov ince</w>
prov inc
provinc ial</w>
protec tionist</w>
prop osed</w>
prop ortion
proportion al</w>
prop er</w>
promin ent</w>
promin ence</w>
prom ulgation</w>
prom otion,</w>
prom ot
promot e</w>
prom ised</w>
projec tions,</w>
projec ted</w>
produc tivity</w>
produc tion</w>
produc ing</w>
produc er</w>
produc er,</w>
proc laiming</w>
proc ess
process es</w>
proc es
proces s.</w>
pro stitutes</w>
princ es</w>
princ es,</w>
princ ely</w>
pri vate</w>
pri or
prior ities</w>
pri est
priest s,</w>
pri de,</w>
prev ail
prevail ing</w>
pres ent
present -day</w>
predomin ates</w>
predomin ate</w>
predomin antly</w>
prec ise</w>
pre yed</w>
pre vious</w>
pre pared</w>
pre hen
prehen sive</w>
pre fer
prefer red</w>
pre existing</w>
pre -
pre- existing</w>
practic es</w>
practic es.</w>
practic es,</w>
pract ice</w>
pr ot
prot ag
protag on
protagon ists</w>
pr on
pron ounc
pronounc ed</w>
pr of
prof es
profes sionals,</w>
pr ise</w>
pr ana</w>
pow ers</w>
pover ty,</w>
post s.</w>
post -
post- colonial</w>
port s,</w>
port fol
portfol i
portfoli o</w>
port ant
portant .</w>
por traits,</w>
por ter.</w>
por ary</w>
popular ity</w>
popular .</w>
popul ation.</w>
pollut ion</w>
pollut ion.</w>
pollut ed</w>
poll ing</w>
polit ics</w>
pol ici
polici es,</w>
poin ted</w>
play s</w>
play back</w>
plat ea
platea u</w>
plat e,</w>
plain s.</w>
plain ly</w>
plain .</w>
plain ,</w>
plac es,</w>
pl us</w>
pl uralistic,</w>
pl eas
pleas ures</w>
pl e
ple ated</w>
pl ants</w>
pl ann
plann ing,</w>
pil ed</w>
pil af
pilaf .</w>
ph or
phor ism
phorism s</w>
ph in.</w>
ph ant
phant a</w>
pet roleum</w>
pet rochemical</w>
persist ent</w>
persist .</w>
peri ence.</w>
per vasive</w>
per son</w>
per man
perman ent</w>
per ha
perha p
perhap s</w>
per form
perform ing</w>
per c
perc ep
percep tions,</w>
per ,</w>
peopl es,</w>
peopl e.</w>
peopl e,</w>
penins ula</w>
pen St
penSt reetMap</w>
pea k</w>
pea ce</w>
pea c
peac e,</w>
pe h
peh l
pehl wani</w>
pe ep
peep ul,</w>
pe as
peas ants</w>
pay ments</w>
pay att
payatt u</w>
patron ised</w>
patron age</w>
pat rilineal</w>
past im
pastim e,</w>
pass es</w>
pass ages</w>
partit ioned</w>
partit ion</w>
partic ular</w>
partic ular,</w>
part y;</w>
part n
partn ers.</w>
part ies</w>
part ies.</w>
part ici
partici p
particip ation</w>
parli am
parliam ent</w>
par ks</w>
par ity</w>
par el</w>
par all
parall el</w>
paint ing</w>
paint ing.</w>
p yjamas,</w>
p ut</w>
p ure"</w>
p pointed</w>
p payattu</w>
p oul
poul try</w>
p ot</w>
p ot
pot tery</w>
p os
pos sessed</w>
p oet
poet ry</w>
p iv
piv ot
pivot al</w>
p ines,</w>
p ill
pill ar</w>
p ic</w>
p i
pi ec
piec e</w>
p ett
pett ic
pettic o
pettico at,</w>
p ed.</w>
p ec
pec t</w>
p av
pav ed</w>
p ants</w>
p ants,</w>
p and
pand ing</w>
p anch
panch ay
panchay at</w>
p anc
panc ak
pancak e.</w>
p ai
pai d</w>
p ac
pac ified</w>
p a
pa per,</w>
oyal ty—expressed</w>
own ers</w>
own .</w>
ow s</w>
ow ned</w>
ow d
owd a</w>
ow ,</w>
over l
overl ap
overlap s</w>
over all</w>
over ,</w>
ov en,</w>
ov ement
ovement .</w>
ov P
ovP ubs</w>
out side</w>
out put</w>
out posts.</w>
out cast
outcast es
outcastes "</w>
ous e,</w>
ous and
ousand s</w>
our s.</w>
our ly</w>
our ed</w>
ounc il</w>
oun tain</w>
oun ded</w>
oun </w>
oul der</w>
ough ts</w>
ouch ability</w>
ou sie</w>
ou s,</w>
ou b
oub led</w>
otion al</w>
other s—such</w>
other s:</w>
other s.</w>
oth ing</w>
otec tion</w>
ot ive</w>
ot ion</w>
ot i,</w>
ot es</w>
ot a</w>
ost s</w>
ost .</w>
ost -
ost- Bhang
ost-Bhang ra,</w>
osit ions</w>
osit ion</w>
osit ion,</w>
os sils</w>
os ite</w>
os :</w>
origin s,</w>
origin ated</w>
orig in</w>
ord s"</w>
or og
orog en
orogen y,</w>
or ity.</w>
or ders</w>
or der</w>
or d</w>
or ation</w>
or ation,</w>
or ar
orar j
orarj i</w>
or ad
orad o</w>
or a.</w>
opp osition</w>
opp osing</w>
opp osed</w>
oper ation,</w>
op y</w>
op ped</w>
op olit
opolit an</w>
op -
op- sided</w>
ool </w>
ood s,</w>
ood ing,</w>
ood ed</w>
oni a</w>
ong ol</w>
one 's</w>
on yi-Polo,</w>
on wards,</w>
on our</w>
on omy</w>
on k
onk ani</w>
on isation</w>
on dri
ondri al</w>
omin ion</w>
om smen</w>
om s.</w>
om otive</w>
om o</w>
om ically</w>
om ic</w>
om est
omest ic
omestic ation</w>
om er
omer ations</w>
om e.</w>
om an</w>
om a
oma dic</w>
olut ion
olution "</w>
olog ic</w>
oll ywood,</w>
oll s</w>
ol phin.</w>
ol orado</w>
ol onisation</w>
ol kat
olkat a,</w>
ol ith
olith ic</w>
ol ished</w>
ol i,</w>
ol den</w>
ol d.</w>
ok en
oken "</w>
ograph y</w>
ograph ic</w>
ogam y</w>
ogam y,</w>
og ri,</w>
og ressive</w>
og ni
ogni zed</w>
offic ially</w>
of f
off er</w>
of enac
ofenac -
ofenac- treated</w>
od o</w>
od avar
odavar i,</w>
od a</w>
oci ety</w>
och ondrial</w>
och ist
ochist an,</w>
occup ying</w>
occup y</w>
occup ies</w>
occup ational</w>
occup ation
occupation s.</w>
occas ions,</w>
occas ion
occasion s.</w>
oc used</w>
oc key</w>
oc e
oce an
ocean ic</w>
oc al</w>
ob structive</w>
ob structed</w>
ob served</w>
ob scuring</w>
ob lig
oblig ated</w>
ob er,</w>
oast al</w>
o xide</w>
o st</w>
o s.</w>
o s,</w>
o k</w>
o ist
oist -
oist- in
oist-in spired</w>
o ic
oic e,</w>
o dic</w>
o ber</w>
numer ous</w>
numer als</w>
numer als.</w>
number ,</w>
north- western</w>
north- east
north-east ward</w>
north west,</w>
north east,</w>
north ;</w>
north .</w>
nor m</w>
non-co- operation</w>
non-co- operation,</w>
non- violence</w>
non- violence,</w>
non- traditional</w>
non- economic</w>
non- Muslim</w>
non- European</w>
nomin ated</w>
nolog ical</w>
nin th</w>
nin th-largest</w>
nific ant</w>
net works</w>
net work</w>
neighbour s,</w>
neighbour ,</w>
ne wly</w>
ne olithic</w>
ne ither</w>
ne g
neg ative</w>
ne es.</w>
ne em
neem ,</w>
ne ed</w>
national ism.</w>
nat yam,</w>
nat ural</w>
nat ive</w>
nar row</w>
nar row,</w>
n utrition,</w>
n uclear-weapon</w>
n oun</w>
n or</w>
n omadic</w>
n ions,</w>
n ings</w>
n early</w>
n ear-
near- div
near-div ine</w>
n d</w>
n av
nav al</w>
n as
nas c
nasc ent</w>
n app
napp es)</w>
n am,</w>
mus ics</w>
mus icians</w>
mus ical</w>
multi- party</w>
multi- ethn
multi-ethn ic</w>
mult il
multil ing
multiling ual</w>
mult i
multi ple</w>
movement s.</w>
mov ing</w>
mov ed</w>
mor tality</w>
mor e
more over,</w>
mor ally</w>
mon tane.</w>
mon soons.</w>
mon soon</w>
mon key</w>
mon ds,</w>
modern -day</w>
modern ,</w>
mod ated</w>
mo ist
moist ure-laden</w>
mo h
moh an</w>
mo b
mob ility</w>
minist rative</w>
minist er
minister ;</w>
min ster</w>
min ority</w>
min or</w>
min i
mini at
miniat ure,</w>
min ed</w>
min ,</w>
million- worker</w>
million- plus</w>
millennium .</w>
millennium ,</w>
mil it
milit ants</w>
mig rating</w>
mid- millennium</w>
mid- century</w>
mid- 20th</w>
mid- 1st</w>
mid- 19th</w>
mid riff</w>
mi xture</w>
mi xed</w>
mi ri,</w>
merch ants</w>
merch ants,</w>
merch an
merchan di
merchandi se</w>
ment ioned</w>
ment ,</w>
mem bers</w>
medic ines,</w>
medic ine,</w>
medi tation</w>
medi an</w>
med als</w>
med ab
medab ad,</w>
meas ures</w>
meas ured</w>
me ets</w>
me et</w>
me al</w>
mathemat ics.</w>
materi als.</w>
materi als,</w>
mas s</w>
mas s,</w>
marri es</w>
marri ag
marriag ea
marriagea ble</w>
mark edly</w>
marit im
maritim e</w>
marit al</w>
margin s.</w>
mar tial</w>
mar rying</w>
mar ry</w>
mar ma</w>
mar k</w>
mar in
marin ade</w>
mar ble</w>
mar av
marav ati,</w>
manuscrip ts</w>
manu fact
manufact uring</w>
manu fac
manufac tured</w>
mand ating</w>
mand at
mandat e.</w>
man ism,</w>
man ag
manag ement</w>
mamm als</w>
mal nutrition,</w>
maj ority.</w>
maint ains</w>
maint ained</w>
maint ain
maintain ing</w>
main stream</w>
main land</w>
ma sters.</w>
m ystics,</w>
m ust</w>
m udflats</w>
m ountain</w>
m opolitan</w>
m is
mis sing</w>
m ing
ming led</w>
m ight</w>
m et
met er.</w>
m en
men se</w>
m el
mel odic</w>
m ative</w>
m ant
mant le</w>
m ag
mag upta,</w>
low s.</w>
low est
lowest ,</w>
low ered</w>
low er
lower -body</w>
low ;</w>
low .</w>
low -
low- income</w>
loos el
loosel y-defined</w>
long- term</w>
long- last
long-last ing</w>
long it
longit ude.</w>
long est-
longest- serving</w>
long .</w>
loc k</w>
loc ations</w>
loc alised</w>
loc al,</w>
literat ure</w>
literat ure,</w>
liter ally,</w>
lit tle</w>
ling uistic</w>
ling ered</w>
lin ks</w>
lin es</w>
lin e
line ages</w>
lim it
limit .</w>
lik ely</w>
lik e</w>
lik e
like li
likeli h
likelih ood</w>
lig ned</w>
lif e;</w>
lif e-
life- forc
life-forc e
life-force ).</w>
liberal ise</w>
liber ty</w>
liber ties.</w>
li st</w>
li quefied</w>
li ography</w>
li gh
ligh tenment.</w>
li ff
liff s;</w>
li e</w>
li -
li- d
li-d and
li-dand a,</w>
li ,</w>
level s</w>
level s.</w>
lev el</w>
legislat ures</w>
legislat ure</w>
legislat ure;</w>
legislat ive</w>
legis l
legisl ation,</w>
leg al</w>
leg ac
legac y.</w>
lea f</w>
lea ds</w>
lea der</w>
le y)</w>
le phanta</w>
le )</w>
lay ered</w>
lay ed</w>
latit udes.</w>
latit ude</w>
lat ter,</w>
lat er.</w>
lat ely</w>
largest ,</w>
lar less</w>
lar ation.</w>
languag es:</w>
languag es
languages ".</w>
land slide</w>
land owners</w>
land mass,</w>
land mark</w>
land ed</w>
lab our</w>
lab oration</w>
lab el
label ,</w>
l ympics.</w>
l ying</w>
l uxuriant</w>
l s</w>
l oyalty—expressed</w>
l ost.</w>
l osing</w>
l ora.</w>
l op-sided</w>
l is
lis ion</w>
l il
lil a</w>
l ex
lex ic
lexic on</w>
l ent
lent il
lentil s,</w>
l ength</w>
l eng
leng th;</w>
l ear
lear ned</w>
l as</w>
l ack</w>
l ac
lac ed</w>
l a</w>
krit i,</w>
kn own.</w>
kingdom s.</w>
king ly</w>
kill ing</w>
kill ed</w>
kh o</w>
kh o,</w>
kh ar</w>
ken —cooked</w>
kat ab
katab atic</w>
kamee z.</w>
k ti</w>
k nees.</w>
k im
kim .</w>
k ent</w>
k e
ke ep
keep ing</w>
k ara</w>
k ab
kab ad
kabad di,</w>
join t</w>
join ing</w>
jack ets</w>
jack et
jacket s,</w>
j ured</w>
j udiciary</w>
j e
je ans.</w>
j av
jav ur</w>
j at
jat is
jatis ,</w>
j a
ja zz</w>
ivers ity</w>
iv ite</w>
iv er</w>
iv al</w>
iv al
ival ent</w>
itt ee
ittee —headed</w>
ith il
ithil i,</w>
it tees.</w>
it self.</w>
it ochondrial</w>
it al</w>
it age.</w>
ist s,</w>
ist ically,</w>
ist ers
isters —with</w>
ist an</w>
ission ing</w>
isol at
isolat es.</w>
ism —which</w>
ish ya,</w>
ish vara</w>
ish ment</w>
ish ing</w>
ish ,</w>
is land</w>
is ively</w>
is i</w>
is ed,</w>
is ation
isation al,</w>
is ak
isak hi,</w>
ire ty.</w>
ire 's</w>
ir tually</w>
ir rigation,</w>
ir regularities</w>
ir on</w>
ir ls</w>
ip pines,</w>
ip el
ipel ag
ipelag os:</w>
inv est
invest ment</w>
inv ent
invent ion</w>
inv asive</w>
inv al
inval id
invalid ate</w>
introduc tion</w>
introduc ed,</w>
inter vene</w>
inter vals</w>
inter est</w>
innov ativ
innovativ e,</w>
innov ations</w>
inn am
innam on,</w>
initi atives</w>
initi ative</w>
initi ally</w>
ing redients</w>
ing est
ingest ed</w>
ing er</w>
ing dom
ingdom ,</w>
ing a,</w>
ing :</w>
influenc es,</w>
influenc e.</w>
infec tions</w>
infec tion.</w>
inf rastructure</w>
inf lows.</w>
inf ant
infant ic
infantic ide</w>
inequalit y.</w>
industr y.</w>
industr y,</w>
indigen ous,</w>
indi vidual</w>
indi c
indic a,</w>
indh ya</w>
increas e</w>
includ ed</w>
incl usive</w>
incl uded.</w>
inc remental</w>
inc ome.</w>
in ternal</w>
in termittently</w>
in surgencies;</w>
in struments</w>
in stitutionalised</w>
in stitution</w>
in stitution.</w>
in stead</w>
in stances,</w>
in scriptions,</w>
in s.</w>
in et</w>
in em
inem a,</w>
in ed</w>
in e
ine ering</w>
in definit
indefinit el
indefinitel y.</w>
in -
in- producing</w>
improv isational,</w>
improv ement</w>
improv ed</w>
implement s,</w>
implement ed</w>
im um</w>
im porter</w>
im portant.</w>
im port</w>
im mense</w>
im itated</w>
im h
imh a</w>
im edi
imedi a</w>
ill eg
illeg al</w>
ill ed</w>
ill ,</w>
ild life</w>
ild ing,</w>
il li-danda,</w>
il ippines,</w>
il ding</w>
ik imedia</w>
ik ank
ikank ari
ikankari ;</w>
ik a</w>
ih âl</w>
ih ar</w>
igh th</w>
igh at</w>
ig ration</w>
ig nificant</w>
ig ar
igar ett
igarett es</w>
ig ai</w>
ifer ous</w>
ide spread</w>
ide ological</w>
ide as</w>
id li,</w>
id ge</w>
id ered</w>
id ent
ident ity,</w>
id ed</w>
id ,</w>
ic us</w>
ic ulating</w>
ic tionary,</w>
ic onic</w>
ic ken—cooked</w>
ic ity</w>
ic ity,</w>
ic ial</w>
ic ated</w>
ib liography</w>
i- discriminator
i-discriminator y</w>
i zontally.</w>
i ya</w>
i th</w>
i rectory</w>
i puri,</w>
i ly</w>
i har
ihar i</w>
i ev
iev ement
ievement ;</w>
i ers</w>
i ef
ief </w>
i d</w>
i ation</w>
i ans.</w>
i and
iand er,</w>
i am
iam tre.</w>
i al
ial isation</w>
hy dr
hydr ographic</w>
hum ped</w>
hum id,</w>
hous es</w>
hous es:</w>
hotspot s.</w>
hotspot s,</w>
hor izontally.</w>
hom es,</w>
hom e;</w>
hol ding</w>
hol av
holav ira,</w>
histor y</w>
histor y.</w>
histor ies</w>
high er</w>
hig ar
higar hi,</w>
heredi ty.</w>
her itage.</w>
her ent</w>
her e.</w>
her ds</w>
her bal</w>
hel ped</w>
hea vily</w>
hea ds,</w>
hat ma</w>
har sh</w>
ham strung</w>
habit at
habitat s.</w>
ha vira</w>
ha va.</w>
ha udhary,</w>
ha kti</w>
ha .</w>
h undred</w>
h ub</w>
h shali</w>
h ousie</w>
h ourly</w>
h osts</w>
h ost</w>
h ooded</w>
h onour</w>
h ockey</w>
h medabad,</w>
h ilippines,</w>
h ear
hear t</w>
h e</w>
h ad,</w>
grow th.</w>
grow n</w>
grow ing.</w>
grow ing,</w>
group s</w>
group s,</w>
group ings</w>
gro omsmen</w>
gro om</w>
great ly</w>
grand son,</w>
grand masters.</w>
gradu al</w>
gradi ents</w>
gradi ent,</w>
gra zed</w>
gra sslands</w>
gra in-producing</w>
gr oss</w>
gr anted</w>
gr amm
gramm at
grammat ical</w>
government ;</w>
government 's</w>
govern ing</w>
govern ed</w>
go d</w>
go als</w>
glob ally.</w>
gl omerations</w>
gl ac
glac iers</w>
gigaw att
gigawatt s,</w>
gigaw at
gigawat ts</w>
gh ari
ghari al,</w>
gh an
ghan istan</w>
geograph ically</w>
geograph ical</w>
gener ic</w>
gener ation</w>
gener ate</w>
gener ally</w>
gend ers</w>
gen res,</w>
gen etic</w>
ge ologically</w>
ge ologic</w>
ge b
geb ra.</w>
gar ments</w>
gar ment.</w>
gar ment,</w>
g uidelines.</w>
g riddled</w>
g oods,</w>
g old</w>
g ives</w>
g irls</w>
g inger</w>
g illi-danda,</w>
g iant</w>
g ent
gent ry</w>
g ap
gap ,</w>
g ala,</w>
g ain</w>
ful l</w>
fre ed
freed om</w>
fre e-
free- market</w>
frame work</w>
frame work.</w>
found ations</w>
found ation</w>
foun ding</w>
foun der
founder 's</w>
foun ded</w>
foun d,</w>
form ulaic</w>
form s,</w>
form erly</w>
form ation
formation s,</w>
form .</w>
forest s</w>
forest ed,</w>
forc es</w>
forc ed</w>
forc e</w>
for b
forb ade</w>
for ay
foray s</w>
follow s</w>
follow ing:</w>
follow ing,</w>
follow ed</w>
follow ed,</w>
fol k,</w>
flour ishing</w>
flour ished</w>
flank ing</w>
flank ed</w>
fl ung</w>
fl oods</w>
fl ooding,</w>
fl ee
flee ing</w>
fl aw
flaw ed</w>
fin ely</w>
fin al</w>
fil ms</w>
fil m</w>
figure s.</w>
figure s,</w>
fig ure</w>
fig ure.</w>
fi xed</w>
fi res,</w>
fi repower</w>
fi el
fiel d</w>
ff icial</w>
ff ed</w>
ff ect
ffect ively</w>
ff al
ffal o</w>
fest ive</w>
fest ival</w>
fem ale</w>
feat uring</w>
fe w</w>
fe udal</w>
fe at</w>
fav oured</w>
fav our</w>
fast est-
fastest- growing</w>
fast er</w>
fast en
fasten ing.</w>
fast -
fast- growing</w>
fash ions</w>
fash ion,</w>
farm ers</w>
farm er
farmer s;</w>
far- right.</w>
far- flung</w>
far ther</w>
far aw
faraw ay</w>
famil y-divide,</w>
famil ies.</w>
fam ines,</w>
fam ine</w>
fam ily</w>
fac tors</w>
fac ilitated</w>
fac es</w>
f uture</w>
f unctions</w>
f ted</w>
f ragmentation</w>
f ought</w>
f ossils</w>
f ocused</w>
f lowing</w>
f illed</w>
f end</w>
f enc
fenc e,</w>
f ell
fell </w>
f el
fel t</w>
f ed</w>
f alls</w>
f ai
fai th,</w>
f ables,</w>
extinc tion</w>
extinc t</w>
extinc t.</w>
exten sive</w>
exten sion</w>
ext s.</w>
expres sion</w>
expres sion,</w>
expres sing</w>
export ing</w>
expans ions</w>
expans ion</w>
expans ion,</w>
expand ed</w>
exp en
expen di
expendi ture.</w>
exp ected</w>
exp ect
expect anc
expectanc y</w>
exerc ises</w>
exerc ised</w>
execut ives</w>
exchang ed</w>
exc ursions</w>
exc ept</w>
exc eed
exceed ing</w>
exampl e</w>
ex porter</w>
ex porter.</w>
ex perience.</w>
ex ogamy</w>
ex e</w>
ex cl
excl usively</w>
every where</w>
ev olving</w>
ev olved</w>
ev olution"</w>
ev idence</w>
ett led</w>
ethn icity,</w>
eth yan</w>
eth os.</w>
eth ically,</w>
eter rence"</w>
eter mined</w>
eta il</w>
eta h</w>
et ymons</w>
et nam,</w>
et ak
etak er</w>
et ah
etah ;</w>
es— notably</w>
es— among</w>
estim ating</w>
establ ishment</w>
est- known</w>
eser ves;</w>
es et</w>
es c
esc ence</w>
es ans
esans "
esans" ,</w>
es ai</w>
eri a</w>
er prise</w>
er enc
erenc es</w>
er ately</w>
er as</w>
er a,</w>
equ ivalent</w>
equ ates</w>
equ at
equat or</w>
equ all
equall ing</w>
ep ts</w>
ep tember</w>
ep ics,</w>
ep ic</w>
ent s.</w>
ent repreneurial</w>
ent renched.</w>
ent ralisation,</w>
ent ly,</w>
ent irety.</w>
ent ified</w>
ent iation</w>
ent erprise</w>
ent ered</w>
ent al</w>
ensu s</w>
enn ial</w>
enn ai,</w>
eng ineering</w>
eng es</w>
eng e</w>
endem ism</w>
endem ism.</w>
endem ics</w>
endem ic</w>
endem ic.</w>
endem ic,</w>
end —passing</w>
end ra</w>
end ogamy,</w>
end ea
endea vor,</w>
enc roachment</w>
enc es.</w>
en vironmental</w>
en slaving</w>
en lightenment.</w>
en istic</w>
en comp
encomp ass
encompass ing</w>
en as,</w>
en abl
enabl ing</w>
en ab
enab led</w>
en :</w>
employ ment</w>
employ ing</w>
emphas ising</w>
emphas is</w>
emper at
emperat ures</w>
emp ire's</w>
emocrac y</w>
emission s.</w>
emission s,</w>
emerg ing</w>
emerg ency,</w>
emerg ence</w>
emerg ed.</w>
emerg ed,</w>
emerg e</w>
ement ed</w>
em s</w>
em porary</w>
em its</w>
em bro
embro idered</w>
em bo
embo diment</w>
em ale</w>
elop ment</w>
ell enistic</w>
ell ate</w>
elit e;</w>
electr icity</w>
electr ical</w>
election s,</w>
el ugu</w>
el ements</w>
el der
elder s.</w>
eigh ty-nine</w>
eigh teen</w>
eigh t</w>
eigh t.</w>
eh rgarh</w>
effec ts</w>
effec t</w>
ef t</w>
ef erences</w>
ee si</w>
edul e</w>
educ ation,</w>
edic al</w>
edi eval</w>
ed dom
eddom e's</w>
ed a—
eda— the</w>
ed ;</w>
econom y;</w>
econom ics.</w>
econom ically</w>
econom ic,</w>
ech nological</w>
ec tions</w>
ec ologically</w>
ec ognized</w>
ec ked</w>
ec ast
ecast s</w>
eas ured</w>
earli er</w>
ear th.</w>
ear s</w>
ear ance</w>
eal ed</w>
ea th</w>
ea p</w>
ea ch</w>
ea ch
each es;</w>
ea ce</w>
e ther</w>
e khar</w>
e fore</w>
e ffectively</w>
e et</w>
e b
eb </w>
e at
eat en</w>
e an,</w>
dyn ast
dynast ies,</w>
dyn am
dynam ic</w>
duc ation</w>
du ;</w>
dri ving</w>
dri ve</w>
dri ft</w>
draw string,</w>
draw n</w>
dra ped.</w>
dra fted</w>
dr y</w>
dr y,</w>
dr oughts</w>
dr opped</w>
dr op</w>
down trodden".</w>
down :</w>
domin ions,</w>
doc ument</w>
doc trine.</w>
divor ce</w>
divor c
divorc e.</w>
divers e,</w>
div isions</w>
div ided</w>
div es.</w>
div asi</w>
dition ing</w>
distinc tly</w>
distinc tive</w>
distinc tions</w>
dist ance,</w>
disp roportionately</w>
disp layed</w>
disp lay</w>
disp laced</w>
dish es.</w>
dish a</w>
diseas e</w>
diseas e.</w>
discriminator y.</w>
discrimin ation,</w>
dis ruptive</w>
dis cont
discont ent</w>
dis ban
disban de
disbande d,</w>
dis adv
disadv ant
disadvant ag
disadvantag ed.</w>
direc tors</w>
direc tives,</w>
direc tions</w>
direc tion.</w>
direc t</w>
differ entiation</w>
differ ences.</w>
di verse.</w>
di strict,</w>
di oxide</w>
di cl
dicl ofenac-treated</w>
di al</w>
dh oti,</w>
dh an
dhan ar
dhanar ishvara</w>
dh amm
dhamm a</w>
develop ment.</w>
develop ing</w>
develop ed;</w>
develop ed,</w>
develop .</w>
devast ation</w>
devast ating</w>
dev otional</w>
dev otion</w>
dev otion,</w>
dev d
devd asi</w>
dev ad
devad as
devadas is.</w>
desc ribes</w>
desc ended</w>
der iving</w>
der ives</w>
der ecognized</w>
dep osition,</w>
den sity</w>
dem arc
demarc ation</w>
dem and,</w>
del ta</w>
definit ions</w>
definit ion</w>
defin ing</w>
declin ing</w>
declin ed,</w>
declar es</w>
dec reasing</w>
dec reasing:</w>
dec oration,</w>
dec olonisation</w>
dec line</w>
dec isively</w>
dec isions</w>
dec imal</w>
dec entralisation,</w>
dec ennial</w>
de struction</w>
de stinations</w>
de spite</w>
de signated</w>
de quate</w>
de forested,</w>
de fence,</w>
de feat</w>
de ep</w>
de ems</w>
de b
deb ate</w>
de al</w>
danc ing</w>
danc es,</w>
danc e.</w>
danc e,</w>
dam om</w>
d urable</w>
d ress</w>
d oubled</w>
d osa,</w>
d one</w>
d olphin.</w>
d ministrative</w>
d ining</w>
d ha.</w>
d etermined</w>
d etail</w>
d entified</w>
d eath</w>
d ay
day .</w>
d aw
daw nings</w>
d ate</w>
d ata</w>
d at
dat a,</w>
d ai
dai ly</w>
cust oms.</w>
cust om</w>
currenc y</w>
currenc y.</w>
curr ently,</w>
curr ent</w>
curr ency,</w>
cult ure—to</w>
cult ure;</w>
cult ure,</w>
cult urally</w>
cuis ines,</w>
cuis ine.</w>
cu ffed</w>
crust al</w>
cru st</w>
crit ically</w>
crit ical</w>
crit eria</w>
cris is</w>
cris es:</w>
cre ate</w>
cover y</w>
court esans",</w>
cour ts</w>
cour t,</w>
cour se</w>
countri es</w>
countri es.</w>
countr y.</w>
coun terculture.</w>
coun ted</w>
coun c
counc il</w>
cos mopolitan</w>
cos ine</w>
cos ine,</w>
cor iander,</w>
cor e</w>
cor dial</w>
cor al</w>
control led</w>
contribut ors</w>
contribut ion</w>
contribut ing</w>
contra vene</w>
contra sting</w>
continu e</w>
contin ental</w>
cont ours.</w>
cont exts.</w>
cont emporary</w>
consump tion</w>
consump tion.</w>
constitution )</w>
constitut ion,</w>
constitut es</w>
consolid ations</w>
consolid ation</w>
consolid ated</w>
consolid ate</w>
consist ently</w>
consider ing</w>
consider ed</w>
consider able</w>
conduc t,</w>
conc epts</w>
conc ept</w>
conc ealed</w>
con sumer</w>
con spicuous</w>
con servative</w>
con sequently</w>
con sciously</w>
con quest</w>
con iferous</w>
con ditioning</w>
complet ed</w>
complet e</w>
compl icated</w>
compl emented</w>
compani es—notably</w>
compani ed</w>
compan ies</w>
compan ies.</w>
comp ositions</w>
comp osite</w>
commerc ialisation</w>
commerc e</w>
commerc e;</w>
comm unities.</w>
comm ittee—headed</w>
comm ittees.</w>
comm issioning</w>
com pared</w>
com modated</w>
com b
comb ined</w>
col lision</w>
col larless</w>
col laboration</w>
col d</w>
coast s</w>
coast s.</w>
coast ;</w>
coal escence</w>
coal -
coal- rich</w>
co- operation</w>
co tton</w>
co operation</w>
co ins.</w>
co herent</w>
co dified</w>
co ast</w>
co al</w>
cloth es</w>
cloth ,</w>
clas ses.</w>
clas s</w>
cl oth</w>
cl ean</w>
cl an
clan s,</w>
civil isation</w>
citizen s</w>
citizen s.</w>
churidar s</w>
che etah</w>
che etah;</w>
character ised</w>
char tered</w>
chap ters')</w>
chap ati,</w>
chang es—among</w>
chang es.</w>
chang ed</w>
chang e</w>
ch ronic</w>
ch ose</w>
ch oli,</w>
ch oice,</w>
ch ived</w>
ch ine.</w>
ch ikankari;</w>
ch icken—cooked</w>
ch ecked</w>
ch eap</w>
ch at
chat uraṅga;</w>
ch arts,</w>
ch all
chall enges</w>
ch ains</w>
ch ain</w>
ch ain
chain s.</w>
centr al
central ised,</w>
censu s.</w>
caus ing</w>
caus es</w>
caus e.</w>
catt le.</w>
catt le)</w>
caste- related</w>
caste- based</w>
cast e.</w>
car ry</w>
car rion</w>
car ried</w>
car etaker</w>
car e.</w>
car damom</w>
car b
carb on</w>
capit al</w>
cap ac
capac ity</w>
cap ability</w>
can opy</w>
can on</w>
can als,</w>
can alled</w>
calend rical</w>
calend ar</w>
cal c
calc ulus</w>
ca .</w>
c utta,</w>
c urtailed</w>
c umin,</w>
c rowded</w>
c ropping,</w>
c rocodilian;</w>
c ricket</w>
c rescent-shaped</w>
c rafts</w>
c limate</w>
c liffs;</w>
c ity</w>
c ity,</w>
c ited</w>
c innamon,</w>
c inema,</w>
c igarettes</w>
c av
cav al
caval ry</w>
c as
cas es</w>
c app
capp ed</w>
c amp
camp s.</w>
c alls</w>
c ak
cak e;</w>
c ab
cab inet</w>
bu stard;</w>
bu ilding</w>
bu ilding,</w>
bu ffalo</w>
bron zes</w>
bron ze</w>
bro ad
broad ly</w>
bri de</w>
breath "</w>
break fast</w>
break down:</w>
br oken"</w>
br aries</w>
bottom .</w>
bottom ,</w>
bor der</w>
bodi es</w>
bodi a,</w>
bod yguard</w>
bod y's</w>
blackbuc k</w>
blackbuc k,</w>
bl urred,</w>
bl ouse,</w>
bit ter</w>
bit ions</w>
birth s</w>
birth s.</w>
birth place</w>
bir yani,</w>
bir d</w>
bir ch</w>
bill ion.</w>
bi ological</w>
bi as,</w>
ber ation</w>
belief s</w>
belief .</w>
belief ,</w>
bel ow,</w>
beg an.</w>
beg an,</w>
be yond</w>
be st</w>
bas is.</w>
bas in</w>
bas in.</w>
bas in,</w>
bar ley)</w>
bar k</w>
bar .</w>
bandh gala,</w>
bandh an,</w>
ban ned</w>
bal anced</w>
bal ance</w>
back sliding</w>
back drop</w>
b urden</w>
b read</w>
b read;</w>
b racing</w>
b out</w>
b lowing</w>
b lock</w>
b iosphere</w>
b ig</w>
b est-known</w>
b eset</w>
b ears</w>
b eaches;</w>
b ar,</w>
b and</w>
b an</w>
b ak
bak ing</w>
a— dates</w>
ay back</w>
aver age.</w>
avar sha,</w>
av ratri;</w>
av enge</w>
aut onomy</w>
aut omotive</w>
attract ive</w>
attract ing</w>
att ain</w>
at ypically</w>
at pura</w>
at op</w>
at olls</w>
at an
atan tra,</w>
ast ringent</w>
ash upati</w>
ash kent</w>
as pect</w>
as lila</w>
as kara</w>
as ed</w>
as aras
asaras wati.</w>
art s.</w>
art ists</w>
art ists,</w>
art iculating</w>
art icles</w>
art .</w>
arnat ak
arnatak a</w>
arm y</w>
arm ad
armad a</w>
arm </w>
aris en:</w>
aris en,</w>
ari thmetic,</w>
ari ppayattu</w>
area s,</w>
area ,</w>
architect ure.</w>
architect ural</w>
arch ipelagos:</w>
arch eesi</w>
arc </w>
aras imha</w>
ar āhamihira,</w>
ar ts</w>
ar teries</w>
ar rived</w>
ar ray</w>
ar ranged</w>
ar ose</w>
ar la</w>
ar i</w>
ar endra</w>
ar enas,</w>
ar ba</w>
ar app
arapp a,</w>
ar an</w>
ar aj
araj a</w>
ar .</w>
appoin tment</w>
appoin ted</w>
app ellate</w>
app earance</w>
ap ti,</w>
ap parel</w>
ap ital</w>
ap an.</w>
ant i-discriminatory</w>
ann ually</w>
ann ually,</w>
ann exe</w>
ann ad
annad a,</w>
ank ar</w>
animal s,</w>
and yas</w>
and ra</w>
anch i,</w>
anch atantra,</w>
anat omy</w>
anat omically</w>
anag ari</w>
an- owned</w>
an- origin</w>
an- derived</w>
an weriwala,</w>
an ujan</w>
an n</w>
an javur</w>
an ised</w>
an ese,</w>
an am
anam ah
anamah ism,</w>
an ad
anad a.</w>
an a,</w>
an a
ana di,</w>
ampl es</w>
amphib ians.</w>
amphib ian</w>
am una</w>
am ese,</w>
am bodia,</w>
am bitions</w>
all uvial</w>
all ows</w>
all owing</w>
alit ,</w>
al wars</w>
al though</w>
al ternately</w>
al monds,</w>
al i,</w>
al housie</w>
al gebra.</w>
al cutta,</w>
al am,</w>
ak hshali</w>
ak higarhi,</w>
ak </w>
ain ted</w>
ain sukh.</w>
ai –Kadai,</w>
ai th.</w>
agricult ure.</w>
agre ements</w>
agre ement</w>
ag ro-pastoral</w>
ag pur</w>
ag glomerations</w>
ag e;</w>
ag e,</w>
after wards.</w>
after ;</w>
affir mative</w>
affir m</w>
affec tion</w>
affec ted</w>
affair s.</w>
affair s,</w>
adv ances</w>
adop ting</w>
administ rators.</w>
administ rative</w>
administ ration,</w>
adher ing</w>
adher ents.</w>
adem i</w>
adem i,</w>
ad versity,</w>
ad versely</w>
ad ur</w>
ad minister</w>
ad joining</w>
ad hered</w>
ad hava.</w>
ad dition</w>
ach isi</w>
ach ievement;</w>
accoun ts</w>
accoun ting</w>
ac ute</w>
ac tbook.</w>
ac t</w>
ac h</w>
ac companied</w>
ac commodated</w>
ab ylonians.)</w>
ab solute</w>
ab sence</w>
ab olished</w>
ab jured</w>
a uthority</w>
a os,</w>
a o,</w>
a head</w>
a di</w>
a dequate</w>
[ ˈbʱaːɾət]</w>
[ ɦɪndʊˈstaːn]</w>
Yakshag ana</w>
Yakshag ana,</w>
Y amuna</w>
Y </w>
Wh ether</w>
Wh en</w>
West minster</w>
WHO </w>
WHO )</w>
WHO 's</w>
W ith</w>
W ildlife</w>
W ikimedia</w>
W idespread</w>
W eb</w>
W ayback</w>
W ar.</w>
W ar,</w>
Vis wanathan</w>
Vis ual</w>
Vi etnam,</w>
Vajpaye e</w>
Vajpaye e,</w>
Va ishya,</w>
Va isakhi,</w>
Va igai</w>
V irtually</w>
V indhya</w>
V eda—the</w>
V arāhamihira,</w>
V -
V- Dem
V-Dem </w>
Urdu .</w>
Urdu ,</w>
Unt ouchability</w>
Unt il</w>
Un iversity</w>
Un der</w>
US$2 4.
US$24. 4
US$24.4 4</w>
US$2 ,7
US$2,7 3
US$2,73 1</w>
US$2 ,6
US$2,6 0
US$2,60 1,</w>
US$ 64</w>
US$ 42</w>
US$ 30
US$30 8</w>
US$ 3.
US$3. 94</w>
US$ 3,
US$3, 2
US$3,2 64</w>
US$ 1,
US$1, 3
US$1,3 80</w>
UP A
UPA ).</w>
U ttar</w>
U day</w>
U C
UC N
UCN -
UCN- designated</w>
Treat y</w>
Tibet an</w>
Tibet ,</w>
Thail and</w>
Thail and,</w>
Th roughout</w>
Th ree</w>
Th ousands</w>
Th anjavur</w>
Ter ukkuttu</w>
Ter ritory</w>
Tamil .</w>
Tamil ,</w>
T rophies.</w>
T rigonometry</w>
T rade</w>
T owards</w>
T oda</w>
T iger</w>
T ethyan</w>
T emperatures</w>
T elugu</w>
T echnological</w>
T ashkent</w>
T apti,</w>
T ai–Kadai,</w>
T </w>
T 20
T20 </w>
Stat istically,</w>
Stat es.</w>
St ill</w>
St ill,</w>
South ,</w>
Sing h,</w>
Sindh u,</w>
Sindh i</w>
Sikh ism</w>
Sikh ism.</w>
Sikh ism,</w>
Sikh ,</w>
Sik kim.</w>
Sha ivite</w>
Sh udra,</w>
Sh ekhar</w>
Sh ankar</w>
Sh alwars</w>
Se e</w>
Sch ool</w>
Sch edule</w>
Sarna th</w>
Sarna ism,</w>
Sant ali</w>
Sant al</w>
Sanskrit .</w>
Sanskrit )</w>
Sang eet</w>
Sang am</w>
S ūtras</w>
S uppliers</w>
S undarbans</w>
S rinivasa</w>
S ports</w>
S onia</w>
S ociety</w>
S ince</w>
S ignificant</w>
S ettled</w>
S eptember</w>
S atpura</w>
S anchi,</w>
S anamahism,</w>
Re port.</w>
Re organisation</w>
Re bellion</w>
Ram sar</w>
Ram anujan</w>
Raj ya</w>
R āmāyaṇa,</w>
R ussia,</w>
R ukmini</w>
R oman</w>
R iver</w>
R ig</w>
R idge</w>
R ice</w>
R evolution"</w>
R eserves;</w>
R eferences</w>
R aslila</w>
R ao,</w>
R ann</w>
R akhigarhi,</w>
Punjab i</w>
Punjab i,</w>
Presid ent</w>
Presid ent,</w>
Pr otection</w>
Pr ogressive</w>
Platea u</w>
Platea u.</w>
Plat e,</w>
Plain ;</w>
Plain .</w>
Persi anised</w>
Persi an-derived</w>
Persi a.</w>
Part y</w>
Part y,</w>
Par vati.</w>
Par sis</w>
Pallav as</w>
Pallav as,</w>
Pallav a</w>
Pakistan 's</w>
PP P
PPP ),</w>
P āṇini.</w>
P ythagorean</w>
P uducherry</w>
P roject</w>
P roclaiming</w>
P rimary</w>
P reamble</w>
P radesh</w>
P ost-Bhangra,</w>
P late</w>
P hilippines,</w>
P eace</w>
P ashupati</w>
P archeesi</w>
P andyas</w>
P anchatantra,</w>
P ali</w>
P ainted</w>
P achisi</w>
P )</w>
P );</w>
Out side</w>
Out line</w>
Oct ober</w>
Oct ober,</w>
Oc ean</w>
Oc ean,</w>
O xford</w>
O verview</w>
O ver</w>
O riya,</w>
O penStreetMap</w>
O nions,</w>
O lympics.</w>
O fficial</w>
O disha</w>
Non- A
Non-A ligned</w>
Nicob ar,</w>
New s</w>
New ly</w>
Net works</w>
Net work</w>
Nep ali,</w>
Nep al</w>
Nehru ,</w>
Nehru 's</w>
Nat araja</w>
Nat ak</w>
Na xalite</w>
Na du;</w>
ND A
NDA ),</w>
N uclear-Test-Ban</w>
N otes</w>
N oted</w>
N o</w>
N ihâl</w>
N iamtre.</w>
N avratri;</w>
N ations</w>
N armada</w>
N arendra</w>
N arasimha</w>
N ainsukh.</w>
N agpur</w>
N A</w>
Myanmar </w>
Muslim s</w>
Muslim s,</w>
Muslim -majority</w>
Mus ic</w>
Mugh als</w>
Mod erately</w>
Mo st</w>
Min isters—with</w>
Min imum</w>
Maur yan</w>
Marath i,</w>
Marath as,</w>
Mar riage</w>
Man mohan</w>
Man ipuri,</w>
Malay sia,</w>
Malay alam,</w>
Mal dives.</w>
Mah ābhārata</w>
Mah anadi,</w>
Ma thematics</w>
Ma oist-inspired</w>
Ma ithili,</w>
Ma havira</w>
Ma hatma</w>
Ma chine.</w>
M ulti-generational</w>
M ovement.</w>
M orarji</w>
M ongol</w>
M itochondrial</w>
M igration</w>
M ehrgarh</w>
M edieval</w>
M edical</w>
M easured</w>
M ay</w>
M adhava.</w>
Li braries</w>
Li beration</w>
Lat in</w>
Lat ika</w>
Lank a</w>
L ord</w>
L ong</w>
L ok</w>
L ocal</w>
L eft</w>
L aos,</w>
L al</w>
Kosi .</w>
Kosi 's</w>
Kaver i</w>
Kaver i,</w>
Kashmir .</w>
Kashmir ,</w>
Kash miri,</w>
Kal inga,</w>
Kal ighat</w>
Kal arippayattu</w>
K utch</w>
K shatriya,</w>
K rishna,</w>
K onkani</w>
K olkata,</w>
K ingdom,</w>
K ey</w>
K arnataka</w>
K arla</w>
K annada,</w>
K .</w>
Jharkh and</w>
Jharkh and,</w>
Jain s,</w>
Jain ism.</w>
Jain .</w>
J ustice</w>
J udaism,</w>
J apan.</w>
J ain</w>
Islam .</w>
Is lands</w>
Indu stries</w>
Indu s;</w>
Indu s'.</w>
Indonesi a</w>
Indo-Ar yan-speaking</w>
Indo- Islamic</w>
Indo- A
Indo-A ustralian</w>
Indo s</w>
Indo i,</w>
India –Pakistan</w>
India ;</w>
India :</w>
India "</w>
Indi an-owned</w>
Indi an,</w>
Inc reasingly,</w>
Inc reasing</w>
In telligence</w>
In stead,</w>
Im portant</w>
Im mediately</w>
I reland.</w>
I ranis)</w>
I dentified</w>
I UCN-designated</w>
I T</w>
I .</w>
Hindu –Arabic</w>
Hindu s</w>
Hindu s,</w>
Hindu ism—which</w>
Hindu -majority</w>
Hindu ,</w>
Hindi ,</w>
Hindi 's</w>
Himalay an-origin</w>
H yderabad</w>
H omo</w>
H ellenistic</w>
H arappa,</w>
H .</w>
Gup tas,</w>
Gujar ati,</w>
Guj ral</w>
Gree ks</w>
Gre en</w>
Govern or</w>
Ghat s;</w>
Ghat s.</w>
Geograph ic</w>
Gandh ian</w>
Gandh i.</w>
Gand hi,</w>
GD P)</w>
G roup,</w>
G radually</w>
G owda</w>
G ovPubs</w>
G olden</w>
G odavari,</w>
G arba</w>
G anweriwala,</w>
Fron t,</w>
For est</w>
For ecasts</w>
F utures</w>
F urther</w>
F ully</w>
F rom</w>
F rance,</w>
F our</w>
F icus</w>
F emale</w>
F ed</w>
F aith.</w>
F actbook.</w>
Ex ternal</w>
Ex panding</w>
Ex amples</w>
Europ e,</w>
Eurasi a</w>
Eurasi a,</w>
র </w>
े </w>
। </w>
ा </w>
ে </w>
ं </w>
্ র
া র
য ়
ी </w>
र </w>
্ য
ा र
् र
त </w>
म े
ি </w>
ు </w>
র ্
్ ర
ন ্
ह ै
া </w>
् य
ব ি
ত </w>
ా ర
ন </w>
ক ্
र ्
न </w>
क </w>
ও </w>
ি ক
ా ల
স ্
া ন
य </w>
ి </w>
স া
ব া
ि य
র া
स ्
र ा
क ा
ত ্
ভ া
ల ో
ত ি
भ ा
ত ে
ా </w>
స ్
ত া
क ्
ర ్
ম া
ो </w>
్ య
্ ব
ক া
ం </w>
ল </w>
व ि
న ్
त ्
দ ে
ा न
న </w>
न ्
ం ద
ద ే
ल </w>
स ा
ক </w>
র ে
क े
ి క
ि </w>
न ा
দ ্
ల ు
ন ি
म ा
ত ী
य ा
প র
ই </w>
ি ত
স ং
स ं
ল ে
্ ট
ि क
ক ে
ল ি
ర ా
হ া
ण </w>
ম </w>
म </w>
त ी
ক র
ి ం
త ్
క ్
ন া
= </w>
ో </w>
त ा
क र
প া
द ्
১ ৯
प ्
ह ु
প ্
व ा
্ চ
গ ু
ం గ
ব ে
ী </w>
द े
स े
न े
ज ा
स </w>
వ ి
হ ি
ా య
प र
व </w>
ड ़
प ा
थ ा
ह ा
న ి
त ि
न ि
ন ে
া ল
ণ </w>
ে ছ
య </w>
ా త
ई </w>
చ ి
জ া
ল া
్ ట
ా న
স ম
থ া
ে ক
ు ల
জ ন
स म
ম ি
భ ా
ర ి
द </w>
ద ్
য া
్ ల
শ </w>
ঙ ্
এ ক
ট ি
् ट
দ ি
শ ি
ं ग
ద ి
क ि
ধ া
ం డ
ে র
క ు
स क
আ ই
ल ा
স র
ह ि
ড ়
ा ल
ग </w>
র ি
్ </w>
ৃ ত
২ ০
ং </w>
অ ন
ं त
త </w>
श </w>
त थ
ज ि
ब ा
ষ ্
ल ि
য ু
উ প
্ প
श ा
ু </w>
మ ు
ম ধ
এ স
এ ব
ज न
ह </w>
স ি
వ ా
శ ం
श ्
ो ं
ం త
ট </w>
ర ు
र ि
న ు
త ి
म ि
শ ে
న ా
अ न
स र
క </w>
र ू
ए </w>
ే </w>
ব </w>
ప ా
े ं
স ে
र ी
ల </w>
प ू
দ া
ह ो
ষ ি
स ि
క ా
म ु
प </w>
ष ि
ध ि
প ূ
ा ज
क ी
ప ్
্ দ
ছ ে
ি ল
া স
य ो
త ా
స ం
ం ట
ु </w>
र त
ం చ
డ ి
় </w>
ষ া
ট া
స ా
ల ్
ल ो
ে শ
ব ৈ
ষ ে
ष ा
త ీ
क ो
র ত
మ ా
ल ी
ट </w>
ু র
ব ৃ
ष </w>
ं ध
ভ ূ
ল ্
గ ా
ీ </w>
চ ি
१ ९
त र
द ि
ত র
ী ন
০ -
দ ু
య ి
य ु
ब न
ष े
थ </w>
म ्
ো গ
ూ డ
इ स
् त
స ి
ध ा
द ा
अ प
త ు
ভ ি
প ি
ప ు
र ह
च ी
ँ </w>
শ া
శ ా
ట ి
অ ব
र ो
व ी
ి న
ष ्
্ ক
ల ి
া ত
ং শ
र े
ত ম
া দ
া ম
ై న
త ర
ক ৃ
গ ে
ি ব
ধ ি
ढ ़
০ </w>
ब स
क ृ
द ो
ঞ ্
প ে
ह ी
ম ে
ి త
క ి
১ </w>
् द
ब </w>
ज </w>
ै ं
ध </w>
ल े
া চ
অ ঞ
ম ্
० </w>
प ु
च </w>
थ ि
প ু
య ా
చ ్
চ ল
హ ి
క ో
ধ </w>
ি জ
ক ো
్ వ
ত ৃ
द ी
ন ী
স </w>
ড ি
ा य
ज ी
র ু
వ ర
మ ొ
৮ </w>
ম ু
দ ী
থ ে
व र
ग य
া জ
গ ণ
ল ো
ি ষ
্ ষ
গ া
ర ై
ব ল
ు గ
শ ী
খ া
ప ే
డ ు
జ ా
জ ্
ल ्
ख </w>
ి ల
మ ై
ग ा
త ం
ষ </w>
ড </w>
ద ా
া প
श ो
च ि
ে ল
ह र
ं ड
ি ম
গ ্
व ो
প </w>
অ ধ
్ న
য ে
ব স
জ ি
চ া
ক ি
ూ </w>
వ </w>
ఈ </w>
అ ధ
श ि
भ ी
ट ि
్ ‌
్ గ
র ী
न ी
क ु
ু ল
ম ত
ু প
व त
া ক
म ो
ब ी
ర త
ম ো
জ </w>
ा ं
দ </w>
म ी
শ ্
च ु
आ ध
स द
డ ్
ा द
గ ు
ప ట
క ొ
৭ </w>
গ ো
গ ঠ
} }
{ {
া ণ
थ ी
च ा
্ থ
भ ू
ম র
ব হ
చ ే
ূ ল
ప ర
त े
র ো
া ং
গ ত
न ो
ज ़
प न
ं द
న ే
২ </w>
ৈ ত
উ ৎ
प ह
ফ ল
ট ে
ణ ా
स ी
न क
ী ত
ज ्
শ ক
র ণ
వ ే
ल ग
থ ি
া ধ
त ृ
క ే
ম হ
ा म
र ु
उ प
ী র
০ ১
০ ০
জ ে
్ త
৯ ৯
ষ ণ
ে ন
স দ
a u
চ ্
0 0
ి .
మ ి
ছ ি
- এ
े श
ए श
ణ </w>
৬ </w>
৫ </w>
হ </w>
ব ছ
व े
प ी
i a
ু ষ
ల ా
ర ె
గ ి
ం బ
ै न
శ ్
ा त
া ট
ব ্
ি খ
చ ె
ষ ম
ত ু
আ র
ध ी
ग ी
N e
ధ ి
్ క
ి య
গ ী
ీ య
স ব
ু ট
ব র
२ ०
म न
্ ড
স ু
ప ె
৪ </w>
প শ
ట ు
ো </w>
ই উ
প ত
జ న
ा व
ं ब
ू </w>
अ र
ు న
ల క
্ ম
হ য
ম ন
ব ত
బ ్
h i
श ु
द श
च ्
ল ু
ो ग
ব ন
ज ो
వ ీ
క ృ
ृ त
ష ి
వ ల
చ ు
ব ী
त ु
- </w>
स भ
ং গ
ె ల
ি ণ
া গ
మ త
ష ్
ह े
ధ ా
৯ ৮
् म
థ ా
ప ం
క ూ
स ू
म ै
म ध
ो ल
ड </w>
అ త
থ ন
ा ष
క ీ
స భ
మ ధ
প ৃ
P p
এ ন
क े</w>
ि म
బ ా
ह त
ক ল
ী প
গ </w>
त क
ँ च
५ </w>
४ </w>
ग ु
ग ण
क ॉ
ద ు
শ ত
భ ి
ি শ
গ র
ग ्
హ ా
ट े
व ं
ं स
ప త
త ో
আ ন
ग ो
मे ं</w>
ా జ
ि त
च ल
ల ం
य ू
య ు
ద </w>
২ ১
দ ো
দ শ
থ </w>
ছ া
খ য
स न
म ह
ब ्
మ ీ
হ ক
े ज
అ న
ু ন
ी क
ा स
খ ে
श ी
ष ो
ग ठ
ি চ
ए व
ఒ క
ঁ চ
మ ే
ి గ
ि ण
్ మ
ু স
ঠ ি
వ ం
अ ध
భ ు
ప ూ
ব ো
অ জ
ర ో
మ న
ু ক
ল ী
भ ि
प े
వ ు
১ ১
ো ট
ভ ার
८ </w>
२ </w>
ै ल
फ ़
फ </w>
ण ्
ं क
ర క
క ర
৯ ৭
ষ র
ম ূ
् प
ी य
వ హ
ি র
भ ार
స మ
ई स
ा ँ
ल न
अ व
अ भ
ে ম
া ই
ম ী
ত ন
p p
ा प
ల న
চ ন
न त
్ థ
శ </w>
ప ో
৩ </w>
া ব
য় </w>
ভ </w>
వ ె
৫ ৬
ি ন
ర ం
প ্র
६ </w>
स ो
श े
స ు
వ త
ু ম
স ভ
स ह
अ ल
స ర
ে স
- ১
ি এ
ি দ
ু ত
ग त
ల ే
স ফ
ধ ী
এ ট
भ र
अ म
ట ా
గ ర
ূ র
চ ী
ং স
య ం
া ড
म ू
न व
औ र</w>
ప ి
ట ీ
న ద
হ ে
শ ন
ণ ি
ष ण
ీ డ
৪ ৪
ধ ৃ
জ ো
l d
ో ర
ై </w>
మ ల
ఇ ద
ী ক
া হ
থ ম
ণ ত
ট ো
भार त</w>
न द
ज ै
छ ो
आ </w>
ज ल
హ ద
ం ధ
ধ র
আ গ
प त
उ द
प ्र
क ी</w>
క ల
ন ত
ा क
् थ
अ स
ీ త
వ ై
బ ె
గ ో
ం ప
১ ৭
স ূ
স হ
ল ক
ত থ
ক ম
অ ভ
ड ि
इ ं
आ र
র ক
ा च
ज ब
अ ं
ধ ন
ণ ্
উ দ
ि न
৯ -
স ক
ণ ে
० ०
ी ल
ी त
ट ी
ं प
্ গ
া ষ
द ु
ష ల
ো জ
খ </w>
७ </w>
ॉ ल
स ु
म ौ
थ व
छ </w>
घ ो
आ द
ः </w>
ౌ క
ళ </w>
మ </w>
ఖ </w>
ভ ৌ
ব ু
ফ ে
উ চ
ख ा
| n
৪ ৫
জ ল
- ৩
ृ ष
य ह
ब े
त ो
িক </w>
है ।</w>
r n
क ा</w>
P a
ె స
ీ న
ణ ి
ে ষ
ে ত
প দ
ন ক
ঘ ট
र -
म ं
ब ड
s .
% )
ই ন
ी ं
द ू
ग र
इ न
ు ,
ा ।
బ హ
బ డ
ఉ ప
৪ .
০ ৬
ই ট
र ख
ज प
आ क
स े</w>
ీ ల
ద ర
క ట
ত ক
ক ট
् क
ా చ
ద ట
గ ్
স ল
আ দ
অ ত
( ১
ु स
स त
व ्
व श
द र
आ त
క ం
ప ్ర
३ </w>
१ </w>
ह थ
ब द
प ं
क त
2 6
ণ া
न े</w>
ो स
ा ए
प ै
थ े
న ె
ద ీ
১ -
ড ল
లో </w>
ा ण
य े
2 ,
— </w>
శ ప
భ ూ
ఇ వ
ఆ ధ
শ হ
শ ব
র ূ
জ ু
ই ং
আ ঞ
గ ం
স ন
এ ই
ই ল
े र
ि व
श ह
o h
- প
భ ార
e i
ు .
ి వ
ে র</w>
৯ ৫
৭ ৪
প ী
ত ব
्य </w>
ि र
प ो
ट ा
‌ </w>
ూ ర
మ ర
্ ভ
ৃ হ
হ ত
ই ত
ి .</w>
श क
্য </w>
े त
ై ల
ి ర
వ స
య ో
య మ
ధ </w>
త మ
৩ ৩
্ স
ু দ
1 6
তে র</w>
స ై
ర </w>
২ ৮
১ .
ো ম
হ ন
র ম
ভ ক
দ ক
ঠ ে
ট ি</w>
খ ন
ক ু
আ ধ
ौ द
प ि
ग ई
व ै
भ </w>
घ </w>
आ ग
अ फ
ం క
ৃ ষ
क ो</w>
ो ं</w>
व स
म त
ं ज
ँ क
ে ট
তী য়</w>
ు క
ु क
त ा</w>
ె ట
న ీ
న వ
న ం
ద ల
గ ణ
০ ৭
ৎ </w>
ো ষ
ি উ
হ য়
ল ন
ম ৌ
ম ব
ভার তের</w>
ব ব
ফ ি
ন গ
দ ৈ
ক ত
অ প
ं ख
( ২
c r
ं ट
৩ ৫
্ ন
ী ব
হ ল
চ ু
ঘ া
. ৭
है ं
చ ా
स ल
ल य
अ त
7 ,
' </w>
ఉ న
మ ం
৫ ১
৩ -
ু গ
র ব
এ র
ং খ
े ख
( |
ত ে</w>
ు వ
ర ీ
ర మ
( স
रा ज
్ ప
మ ె
ప ద
న డ
త ె
ట ె
২ -
১ ৪
ব ক
প ো
প ণ
ন ো
ড ে
ক ূ
এ ল
এ </w>
অ স
प र</w>
B o
. ৮
ो त
उ त
ాల ు</w>
దే శ
ా మ
. .
ంద ి.</w>
ত ্র
९ </w>
२ .
श त
फ ि
न ौ
ड ी
ठ </w>
ज ू
अ ग
ా స
ర ూ
ప ై
৬ ৫
১ ২
০ ৪
ী ল
ণ ী
ট ব
খ ি
খ ণ
আ ক
य ि
म ल
ब ै
ब ह
न ग
ती य</w>
िय ा</w>
े ल
E </w>
ా ప
ల ె
স ী
ম স
ই স
আ স
আ জ
- ব
న్ న
ক্ ষ
ा ट
क ह
ృ త
্ জ
ভার তীয়</w>
भार तीय</w>
ভার ত</w>
ी स
िय ा
य द
आ प
c y
हैं ।</w>
వ ృ
వ డ
వ గ
ళ ం
ప ొ
ప ల
ద గ
థ </w>
৩ ৭
ম দ
ঠ </w>
ঝ া
জ ৈ
ा ओ
़ </w>
2 4
ষ ্ট
तथ ा</w>
ళ ్
త న
జ ్
జ ల
৯ ৬
৯ ০
৮ ৫
৫ ৫
ল গ
র চ
ु म
ए न
9 6
- प
భార త
ए क</w>
१ ८
स श
र द
प ड
ध ु
च न
ు ట
ా బ
య వ
మ ూ
০ ৮
ল ে</w>
व र्
ल त
ध ्
1 2
ా డ
ా గ
১ ৩
ক ন
् न
এব ং</w>
भ ी</w>
బ ి
డ </w>
చ న
ఆ క
৬ ৬
৬ .
ো ব
য দ
চ ে
ং ল
४ .
० ,
है </w>
ब ौ
त ि</w>
घ ी
- ৮
ব ে</w>
4 0
েক ে</w>
দ ্র
থ েকে</w>
ो ड
स फ
ल ु
न र
ण ि
च ो
ऋ त
आ स
র থ
ন ৈ
্য া
এ ই</w>
ిక </w>
শ ্ব
ক রে
ీ క
ష ణ
ష ం
ల ీ
మ హ
ఫ ్
ప క
న ల
ధ ్
ధ ు
త ూ
జ ి
గ ే
గ ీ
అ వ
৯ </w>
২ ৩
ো ল
ভ ো
ভ ে
বি শ্ব
ড া
অ ক
का र</w>
क र</w>
- ৭
( ম
ক ্র
এস বি
আই এসবি
म र
ट न
आ य
A s
ভার তে</w>
क ार
ো র
মধ ্য
এক টি</w>
ह न
ब ि
क ल
ऊ ँ
आ ं
ं ह
P o
সা লে</w>
ी य</w>
1 4
ా ణ
జ క
గ ల
হয় ।</w>
শ ৈ
শ ু
রা ষ্ট
পূ র্
গ ৌ
উ ভ
উ ন
আ ফ
ु ल
व न
म द
ब ो
ब ढ
पू र्
त ग
त क</w>
ज म
| p
1 -
ন্ ত্র
न ा</w>
क् षि
B r
দে শ
এ ন</w>
আইএসবি এন</w>
उ न
ंत ्र
ీ ,
వ న
ద న
క ళ
৪ -
৩ ২
৩ ০
হ ু
ভ ু
থ ব
ঠ ী
ক স
. ৬
. ১
- আ
ব র্
क् षे
6 %
ాయ ి.</w>
দে র</w>
তা র</w>
ौ त
े स
े ड
हि न्
दे श</w>
द क्षि
ठ ा
ट र
ग ि
क् ष
क ं
उ त्
S a
2 3
్ స
ీ ర
ి శ
ల త
దే శం
ట ే
৯ ৪
৬ -
১ ৮
রাষ্ট ্র
রা জ
র দ
ফ ো
ন ব
ন দ
ধ ে
ত ি</w>
ঞ া
सा थ</w>
त् र</w>
- অ
স্ থ
লে র</w>
গু ল
स ै
त ं
9 7
ধা ন</w>
ঙ্ গ
बा द</w>
त े</w>
ओ ं</w>
0 2
ు ర
ণ ু
ী য়</w>
ত ম</w>
ক ার
्य ों</w>
ू ब
ह ॉ
व ृ
ल ौ
र च
ब ज
न य
दक्षि ण</w>
च े
ए ं
0 4
స్ థ
దేశ ం</w>
ంగ ా</w>
হয় েছ
সং খ
ন্ দ্র
গ ্র
অন ্য
स बस
सबस े</w>
य ह</w>
1 1
ె న
స ూ
ళ ి
ల ు</w>
ర ే
న ో
న న
ద ూ
త ే
ట ై
క న
৮ ৭
৪ ৭
৩ ৮
২ ৫
া উ
ল য
র হ
য় া
মধ্য ে</w>
ব ্য
প ন
ত -
চ </w>
ঘ ো
এ ম
উ ঠ
আ য
অ ং
२ ४
ौ ह
ष ्ट
ब हु
द ी</w>
त ्र
त ी</w>
त त
ञ ा
ज य
उ भ
4 6
, ৬
్య </w>
স্ থা
গুল ি</w>
ార ు
হা য
হায ্য
সা হায্য
য় ।</w>
ক্ ষি
কা র</w>
रू प</w>
म ान
ग ए
इ त
ंग ्र
2 %
৫ ০
ো দ
ল ব
ిం చి
ాల ు
ష ్ట
হ ল</w>
যু ক্
ব া</w>
है ,</w>
सक े</w>
राज ्य</w>
ब ंध
प्र ा
ध र्
K .
6 5
2 1
( সাহায্য
ుల ు</w>
లు ,</w>
న్ న</w>
న ి</w>
త ్ర
జ ాత
ে ।</w>
শ তা
ম হা
ত্ র</w>
অঞ ্চ
श न
रा ष्ट
भा षा
द ल
थ ा</w>
क िया</w>
अ धि
x i
2 2
ి ట
ా ఖ
శ ి
ప డ
న ు</w>
ధ త
ద ం
ట ం
చ ై
৯ ৩
৮ ২
৫ ৪
৫ .
৪ ১
০ ৫
ি -
স ৃ
শে র</w>
শ ো
র্ বা
র -
ব ধ
প্র ধান</w>
গু লি
ক -
এ র</w>
আ ব
অ র্
सर कार</w>
शा स
य ा</w>
त र</w>
) ।</w>
ీ య</w>
రా జ
ার া
য় ে</w>
ম ে</w>
ম ান
নে র</w>
দে শের</w>
ত া</w>
ক্ষ া</w>
ক্ ষে
করে ।</w>
উ ত্
६ ५
्य ा
् </w>
े द
िय ों</w>
वि श्
य -
म ग
भ ु
ध न
ण ु
उ स
భార తీ
భార త</w>
క ు</w>
ఉ న్న
সংখ ্য
মা ল
দ্ ধ
কে ন্দ্র
स् ता
ज ो</w>
b h
ో క
ీ ఠ
ీ -
హ ై
స హ
మ ౌ
భ ౌ
థ ి
జ మ
చ బ
చ ట
గ ె
క థ
ఎ ల
ఆ హ
అ హ
ం భ
হ ও
প ৌ
ন ৌ
থ -
ট ও
ছ </w>
ঘ </w>
গ ি
এ ফ
আ ট
ং হ
x x
k a
S B
N </w>
( ০
ాల </w>
వ ్య
২০ ০
্য ের</w>
য় েছ
ন্ ত
দ ্ব
्र ि
िक ा</w>
ा इ
स् था
शास न</w>
ब ड़
प् त</w>
नि र्
द स
क म
ిక ి</w>
ష్ట ్ర
వ ాత
రా ష్ట్ర
గ ా</w>
క ్ర
క ూడ
স ঙ্গ
প্র তি
शो ं</w>
राष्ट ्र
म ंत्र
पूर् व</w>
जा ता</w>
क्षे त्र</w>
ూ ప
ీ ష
ీ .
ారు .</w>
మ ార
భారతీ య</w>
భారత దేశం
బ ు
న ట
చ వ
ం లో</w>
৯ ১
৬ ৩
১ ০
ু ব
ার ে</w>
স্ বা
ম ণ
বৃ হ
বিশ্ব ের</w>
ণ -
ঠ া
চ র
গুলি র</w>
উ দ্
ु ष
िया ।</w>
ार ी</w>
स् कृ
विश् व</w>
व प
भ ग
त ट
ची न</w>
घ ा
इ स</w>
अन ु
ंग्र े
. ৪
B C
6 2
భారత దేశం</w>
ప ాల
జాత ీయ</w>
ంత ్ర
হি ন্
সং স্
মা ণ
ভা বে</w>
টা র</w>
জা তীয়</w>
কর ে</w>
কর া</w>
ि क</w>
सा म
राज ्यों</w>
या ।</w>
मे ं
ब ढ़
प ार
धा न</w>
ध ान
दे शों</w>
क ि</w>
}} :</w>
3 2
(সাহায্য )</w>
ాలు ,</w>
ৈত িক</w>
ি ত</w>
র য়েছ
ভা ষা
প ার
ধ ার
ক ে</w>
উ ল্
९ ६
९ .
२ ५
१ ७
१ ,
् ब
ौ र
ो ह
े ण
ि ष
ही ं</w>
सम य</w>
स मा
व ार
व स्
व ल
मु ख</w>
म हा
म ण
भ ो
फ ु
प्र मुख</w>
द् ध</w>
ज ु
च ौ
च र
ग ै
ख ्य
का ल</w>
उ ठ
आ न
अन ्य</w>
( C
ే క
చ ీ
৭ ১
৭ ০
হ ী
ন -
ট ক
ক গ
F o
- ৬
- স
( ব
వ చ్
ప్ర ా
ద్ ధ
క్ ష
ఉ ంది.</w>
্য ারা
্যারা মি
ী র</w>
ান ্য</w>
সর কার</w>
সর কার
সম ্প
বৃহ ত্
পর ি
প ্যারামি
ধ ান
ধ র্
দেশ ে</w>
দ ক্ষি
ত ার
উল্ লে
ই ন্
हैं ,</w>
हिन् दी</w>
ह ो</w>
सा र</w>
श् चि
वर् ष</w>
लि ए</w>
ना म</w>
द् र</w>
द ो</w>
गय ा</w>
कर ो
( A
లో ని</w>
ప ార
ప ంచ
ఉన్న ాయి.</w>
্র ি
সা লের</w>
সঙ্গ ে</w>
সংখ্য া</w>
প্র াচ
ন্ ধ
ন্ ত</w>
ধ ীন
ত র</w>
४ ७
् श
ी म
िय े</w>
है ं</w>
ह ी</w>
से ना</w>
सं स्कृ
वो ं</w>
ल े</w>
मा न</w>
म श
फ ल
प स
प म
न न
धर् म</w>
था ।</w>
ढ ा
ड ॉ
ड ा
ठ ि
ज ग
ख े
क्ष ा</w>
क् त</w>
कर ने</w>
क स
क प
क ट
ऐ स
ए स
इ ज
अ न्
T r
5 9
‌ ల
‌ క
ో ధ
ే జ
ె బ
ిం చ
ా ళ
హి ంద
స్ తు
స త
వ్య వ
వచ్ చి
ర చ
య త
మార ్గ
త ల
జ ె
జ ీ
క ార
৭ ৬
৭ ,
৭ %
৩ ৯
২ ৯
২ ৪
২ ,
১৯ ৯
িত ।</w>
ান ে</w>
হ ো
স্ তা
স -
শি ল
র ফ
ভ ট
বৃহত্ তম</w>
পশ ্চ
প থ
ন র
দে শ</w>
তি র</w>
ড ো
খ ো
খ া</w>
এ খ
আ খ
অন্য ান্য</w>
ान े</w>
हो ता</w>
हु ई</w>
स्ता न</w>
स् वत
स् त
व ्य
ल ी</w>
भा ष
पा कि
न हीं</w>
ति क</w>
चु ना
कार ण</w>
क ई</w>
इ सके</w>
अधि क</w>
- ৪
- ০
( ১৯
( 3
" భ
ిక ార
ాన ికి</w>
త ో</w>
ఖ ్య
కూడ ా</w>
క ాల
అధ ికార
ার ্ক
া য়</w>
হয়েছ ে</w>
শিল ্প
শ াস
শ ক্
ম ি</w>
ফল ে</w>
প র্
না ম</w>
ঞ ্চ
জা ত
ছে ।</w>
চি ত</w>
ক্ষে ত্র
ক র্
এ শি
এ ক</w>
्र ाज
् ‍
हु आ
साम ्राज
सं वि
संवि धान</w>
स ैन
वार ा</w>
रा जन
मा ण</w>
मंत्र ी</w>
म क
भाषा ओं</w>
पाकि स्तान</w>
ध ो
द ृ
ड़ </w>
जा ति</w>
ग या।</w>
ं च
- 0
( ২০
స్థ ాన
స్ త
వ ార
ప్రా ంత
ప్ర పంచ
ధ ిక</w>
ద క్
ట ్ట
ం ,</w>
িত ্র
হা র</w>
স্বা ধীন
স ার
য় া</w>
ব্য ব
বি স্
বা য়
প ুর
নি র্বা
ধ িক</w>
তা ন্ত্র
ক্ ষ</w>
ক ৃত
ং শ</w>
िया ँ</w>
स् थि
सि त</w>
सं बंध
षो ं</w>
वस् था</w>
ल य</w>
राष्ट्र ीय</w>
मि ल
बी च</w>
ब ना
पार ्ट
प श्चि
नो ं</w>
नि क</w>
द् वारा</w>
दे ख
दश क</w>
द ्र
द िया</w>
चुना वों</w>
ख्य ा</w>
क्षे त्र
उत् तर</w>
आ र्
अनु सार</w>
{{ c
{{c it
{{cit ation
{{citation }}:</w>
Pp .</w>
P res
Ne w</w>
4 ,
( P
ో ద
ా శ
య ల
జ ం
ం ఘ
৭ ২
৪ ৬
৪ ৩
৩ ৪
ৈ ল
ু জ
ী ম
ভ ৃ
ব প
জ র
( এ
ాత ్ర
రై లు</w>
మై న</w>
భారతదేశం లో</w>
భారత దే
పార ్ట
ప రి
న్న ి</w>
ది .</w>
దక్ షి
ద ాయ
తర </w>
ఆ ర్
ী ন</w>
ান া</w>
হয় ে</w>
হ য়</w>
স্থ া</w>
স্ ট
সা হ
সা মর
সামর িক</w>
সা ধার
স র্বা
শতা ংশ
লি ত</w>
ল িক</w>
য় ের</w>
য দি
যদি ও</w>
মাণ ু</w>
ম ার্ক
ভি ন্
বৈ চ
বৈচ িত্র
ব ল</w>
প্র থ
পূর্ ব</w>
পর মাণু</w>
ন্ত র্
নি য়
দ্ ধ</w>
দক্ষি ণ</w>
দ িক
তি তে</w>
ছা ড়
খয োগ
ক্ষেত্র ে</w>
কে র</w>
এ ছাড়
উল্লে খযোগ
আ ন্
५ ०
२ ६
१ ०
ॉ क
ै त
ी ब
सैन ्य</w>
सं ख्या</w>
यो ग</w>
में ,</w>
बहु त</w>
ब ल
फ ै
प्रा चीन</w>
प्र धान
प्र देश</w>
ने तृ
नेतृ त्
निर् माण</w>
न ी</w>
द् वी
दा न</w>
द ौ
द म
थी ।</w>
थ ल
त ल
क् ति</w>
क िया।</w>
क -
एश िया</w>
उ ल
ई ।</w>
आ ज
ंग्रे स</w>
7 4
- आ
( I
( B
8 3
6 ,
్య ం</w>
ించి ంది.</w>
ాల లో</w>
వ్యవ స్థ
రె ండ
రాజ ్య
ర ు</w>
భు త్
ప్ర భుత్
ప ు</w>
న్ </w>
నా భ
త ం</w>
జ నాభ
క్ కు
ఎ న్న
అ యి
১৯ -
্র ে
ি ন</w>
হি সে
সা ম
স মা
রাজ ্য</w>
রাজ ্য
রা জন
যুক্ ত
য া</w>
মার্ক িন</w>
ম ন্ত্র
বি ক</w>
বা হি
বা স
ফ ুট
প্রথ ম</w>
প্র ি
প্যারামি টার</w>
পর্ বত
পর ী
ন া</w>
দ্ধ ি</w>
থন ৈতিক</w>
তার িখ
তান্ত্র িক</w>
জন প্রি
ক্র িক
উত্ তর</w>
অর্ থনৈতিক</w>
অধ িক
অজ ানা</w>
्या या
िया ,</w>
ाल ी</w>
हुआ ।</w>
हु ए</w>
स् थ
साम्राज ्य</w>
वी ं</w>
व ी</w>
व ा</w>
लो ं</w>
रह ा</w>
र े</w>
मि ल</w>
मा ण
माण ु</w>
म ,</w>
भू म
भाष ा</w>
प्रधान मंत्री</w>
प्र ति
पर माणु</w>
प र्
न ्याया
थि क</w>
ढ़ </w>
जि स
जा ती</w>
कॉ ंग्रेस</w>
करो ड़</w>
क ्र
क र्
उ नक
आर् थिक</w>
अ र्
ंग ा</w>
H e
G u
్ర ా
ౌ ర
ో ళ
ో -
ు ళ
హ ో
స్ త్ర
స్ తా
స్ కృ
స </w>
ష ా
ష య
శ ీ
వచ్చి ంది.</w>
వ ర్
ల మ
మ ద
భ వ
బ ౌ
బ ై
పె ద్
న క
ధ ూ
ణ ా</w>
ఢ ా
డి న</w>
డ ై
డ ీ
డ వ
డ మ
చె ంద
చ ూ
ఘ </w>
ఖ మ
క బ
ఐ క
ఏ క
ఎ డ
ఈ శ
ఆ ఫ
ఆ గ
అ ణ
ంద ్ర
৯ %
৬ ০
১৯ ৫
১ ৫
০ ৯
ু -
ী দ
া ঠ
া ঘ
হিন্ দু
হি সা
স্থ ান
সাহ িত
সংস্ কৃ
শি ষ্ট
শ -
রয়েছ ে</w>
য় ে
য় ী</w>
মা ন</w>
ম ্ব
ভূ মি</w>
ভিন্ ন</w>
ভ র
বি চ
বা হ
বা ণ
বাণ িজ
ব ্যা
ব ৌ
ফুট বল</w>
প্রাচ ীন</w>
প্র স্তা
প্র যুক্
প্র ধান
পূর্ ণ</w>
পশ্চ িম
পর ্য
প ল
থ র
ত ।</w>
জন সংখ্যা</w>
জ স
জ ন</w>
ঙ্ গী
গে র</w>
কা প</w>
ক ী
ও প
ঐ তি
এশি য়া
এ ঁ
ই ড
আ র্
আ ম
আ ছ
আ </w>
অন ু
অঞ্চ ল
অ ক্
ঁ দ
४ ०
१९ ९
१ ५
१ ४
० ४
्द ी</w>
ार िक</w>
हा ला
सर कार
सं स
स र्
श ्र
श ै
श ता
शता ब
शताब ्दी</w>
वि का
वर् षों</w>
ल िये</w>
रू </w>
रि क</w>
र क्षा</w>
ब ्रि
प्रा प्त</w>
पूर् ण</w>
पह ले</w>
प द
प ड़
नेतृत् व</w>
नि र
ध ि</w>
द्वी प</w>
ट क
जिस में</w>
जन जाति</w>
ज ा</w>
च् च</w>
गण राज्य</w>
ग ्र
क्षेत्र ीय</w>
के ंद
के ं
कार ्य
ओ र</w>
उत् तर
इ सक
इ न</w>
अर ब</w>
C I
7 /
. 6
- ఢ
( ৪
& </w>
9 %
’ </w>
ుగ ా</w>
ిల ్ల
వా ణా</w>
వ ంట
రు వాత
మార్గ ాలు</w>
మధ ్య</w>
బ ్ర
పే రు</w>
పట ్ట
ని ర్
త రువాత
ట ్ల
ట ు</w>
జ రి
క్ర ీడ
కే ంద్ర
ఒ క</w>
ఉ న్న</w>
ఉ త్
ఉ ంట
ఇ ండ
১৯ ৮
০- ১৯-
্র িষ
্রিষ ্ট
্য ।</w>
েশ ন</w>
ে ট</w>
হিসে বে</w>
হিসা বে</w>
স্ থি
সরকার ি</w>
সং বি
স র্
শী ল</w>
লি য়
লা র</w>
রাষ্ট্র ।</w>
যা র</w>
য োগ
মধ ্য</w>
বিশ্ব ে</w>
বি ভিন্ন</w>
বি ত
বা র</w>
বহ ু
বর্ তম
বছ র</w>
ব ্দ
প্র ায়</w>
ন ।</w>
দ্ব ী
দে খা</w>
দু ই</w>
দ ি</w>
তৃ ত্
তা য়</w>
চ ্চ
গণ তান্ত্রিক</w>
খ ্রিষ্ট
ক্রিক েট</w>
ক্র া
কর তে</w>
ক ংগ
এট ি</w>
উদ্ ধৃ
উত্ তর
हे ं</w>
हा ँ</w>
स्वत ंत्र
स्वतंत्र ता</w>
स्थि त</w>
स्था न</w>
सा ल</w>
सद स
संस्कृ ति</w>
संबंध </w>
वि दे
लो क
लग भ
लगभ ग</w>
राज ्य
यु क्त</w>
मध ्य
भूम िका</w>
ब्रि टि
ब्रिटि श</w>
बंध न</w>
प्र भा
प् ले
पश्चि म</w>
न् हें</w>
नि भा
दो नों</w>
त ्य
जन संख्या</w>
ज ान
चा र</w>
केंद ्र
कें द्र</w>
कु ल</w>
कु छ</w>
एव ं</w>
इ ंड
T o
S I
R i
D o
8 ,
7 5
- 1
” </w>
ీ ,</w>
ి న</w>
ాల ్
ాల ను</w>
సా ధ
స ిం
స ార
స రి
స ంగ
శ ్ర
లు .</w>
ర వాణా</w>
మ ంత్ర
భారతదే శ</w>
భార త్
ప్ర స్తు
ప్ర ధా
ప్రధా న</w>
పెద్ ద</w>
పా కి
దేశ ానికి</w>
ణ ం</w>
జనాభ ా</w>
కా ంగ
కాంగ ్ర
క లి
ఏ ర్
ఎన్న ో</w>
ఎ క్కు
ఇద ి</w>
ఇ తర</w>
২০০ ৮</w>
১৯ ৭
্র ুপ
্যা র</w>
্য ু
্য ,</w>
ে ক্ষা</w>
ু ন</w>
ী ।</w>
িল ।</w>
িত ে</w>
ার ের</w>
ান ি</w>
ান ি
সি ত</w>
সাধার ণ</w>
সম্প র্
সং স
স ঙ্গী
স ক্ষ
সক্ষ ম</w>
শী য়</w>
শা সিত</w>
লা ভ</w>
যুক্ত রাষ্ট্র
মো ট</w>
মূ ল</w>
বৃ দ্ধি</w>
বিত )</w>
বল ে</w>
প্রস্তা বিত)</w>
প্রধান মন্ত্র
প্র াণ
পরী ক্ষা</w>
পর িব
প ে</w>
ন িক
ন দী
ধ ্রুপ
দ্ব ীপ
দ্ র</w>
দ্ বি
দিক ে</w>
ড় ে</w>
গ ত</w>
ক্ ষম
কেন্দ্র ীয়</w>
ঐতি হ
এছাড় া
এ কা
উল্লেখযোগ ্য</w>
উপ েক্ষা</w>
উচ ্চ
९ ४
९ १
६ २
६ ०
५ ४
ु निक</w>
ी ट
िक ी</w>
िक ारिक</w>
ि त</w>
ार म्
ान ,</w>
हु आ</w>
हि मा
ह ट
स् व
समा ज</w>
सं युक्त</w>
स ी</w>
शा सित</w>
विदे श
वा य
व ज
ल ै
ल न</w>
र ा</w>
यु द्ध</w>
य श
म ा</w>
भाषा ए
बड़ ा</w>
ब ू
फ ा
प्ले ट</w>
प्र ारम्
प्र कार</w>
पार्ट ी</w>
न् त
न्त ु</w>
न िय
था ,</w>
त -
ण -
ड र
ठ ी
जि सक
जा ते</w>
छ ू
गठ बंधन</w>
ग ़
ग ंगा</w>
के न्
औ स
ईस ा</w>
इस ी</w>
आध ुनिक</w>
आध िकारिक</w>
आ ठ
अप ्र
अप ने</w>
अप नी</w>
अ ह
अ मे
अ ंग्रे
ं थ
| </w>
au thor
P A
. ३
. /
(সাহায্য );</w>
‌ వ
‌ ক
ే ష
ూ న
ూ ట
స ే
ల ప
మ స
ట </w>
ఘ న
ఒ ల
అ ల
అ ర
৫ ,
৪ ২
৩ ৬
৩ %
২ ২
ৈ র
স ো
ল জ
ভ ব
ন ভ
জ গ
চ ক
ঘ ্
খ র
ক ব
E .
9 -
" স
ు లు,</w>
ించి న</w>
హ ద్
స్కృ త
స్ థా
స్ </w>
సి య
సి ని
సిని మ
సరి హద్
శా స్త్ర
శప ు</w>
వి ధ
లో ,</w>
ర్ య
ర్ </w>
ము ఖ్య
భా ష
ప్ పట
ను ండ
దక్షి ణా
ద ి</w>
ద ం</w>
డ ు</w>
చి న్న</w>
గ ల</w>
క్ </w>
కు ంట
ఆర్ ధిక</w>
అత ్య
ంగ ్ల
০-১৯- ৫৬
্রি টি
্চ লিক</w>
েছ ে।</w>
িব ীর</w>
িণ ত</w>
া র</w>
হি মাল
হয়েছ ে।</w>
স্বাধীন তা</w>
স্থি ত</w>
সি ন্ধ
সিন্ধ ু</w>
সদ স
সং র
সং গ্র
ষ্ ঠ
ষি ত</w>
ষ া</w>
শব ্দ
শতা ংশ</w>
শক্ তি
লিয় ন</w>
রাজন ৈতিক</w>
যু দ্ধ
য় ার
মাল া</w>
ম ,</w>
ভূ মি
ব্যব স্থা
বৈচিত্র ্য
বে শ
বর্তম ানে</w>
প্ ত</w>
পৃ থ
পৃথ িবীর</w>
পা ঁচ
পর িণত</w>
প র</w>
ন্ ন
ন্ ড
নির্বা চিত</w>
নি য়ে</w>
থা কে
তী </w>
তি হা
তি ত</w>
ত ,</w>
টে র</w>
ট ্র
ট ারে</w>
জাত িক</w>
জল বায়
জ ি</w>
জ য়
গু লো
গঠ িত</w>
গঠ ন</w>
খ েল
ক্ষ র</w>
ক্ ষা
ক্ ষর
ক্ ষণ
কা ল</w>
কংগ ্রে
ক ূল
ক য়
এছাড়া ও</w>
উপ কূল
উত্তর -
উ ড</w>
ইন্ ডি
ই তিহা
আঞ ্চলিক</w>
আ য়
অন্য তম</w>
२० ०
१९ ८
१९ ७
्य ोग
् र</w>
ॉल र</w>
ैल ी</w>
ेज ी</w>
े ं</w>
ान ों</w>
हो ती</w>
हिमा लय</w>
हिन् द
हर ी</w>
स् तृ
स्तृ त</w>
सम र्
सभ ा</w>
संस द</w>
सं घ</w>
शे ष</w>
शु रू</w>
व्य वस्था</w>
विदेश ी</w>
विका स</w>
वि स्तृत</w>
वाय ु</w>
वा द</w>
वर् ग</w>
व ल</w>
ल ा</w>
रो ं</w>
रह े</w>
यु ग</w>
मो ं</w>
मै दान</w>
मु ख
म ी</w>
म त</w>
भा जप
भाजप ा</w>
बहु मत</w>
बड़ े</w>
बड़ ी</w>
प हा
न् न</w>
धी रे</w>
ध ्य
दो लन</w>
द र्
द र</w>
थव ्य
ति हा
ण् ड
ड़ ी</w>
ड ॉलर</w>
जि सके</w>
ज़ ी</w>
गा ंध
ग त</w>
क् ष</w>
की ।</w>
कर् ज</w>
कर ना</w>
कर ण</w>
अल ग</w>
अर् थव्य
अ ंग्र
अंग्र ेजी</w>
or k
ork :</w>
Y ork:</w>
Pres s.</w>
P ubl
195 0</w>
$ 2
J u
0 -
– 1
ుల </w>
ియ ా</w>
ిక ,</w>
ి ,</w>
ాల్ లో</w>
ాల ో</w>
ాల తో</w>
హింద ూ
స్ వా
సా మ
సరిహద్ ద
స ౌక
స ము
స మా
వి వి
వివి ధ</w>
లక ు</w>
రాజ కీ
రాజకీ య</w>
ర హద
ర ంగ
మొ దల
మొ దట
మొదట ి</w>
మ ూడ
మ ాత్ర
భా గ
బ్ర ి
బె ంగ
ప్ర ాచ
ప్ర ము
ప్ర తి
ప్పట ిక
పే ర్
ప ండ
నుండ ి</w>
న ే</w>
న డి
ధ ాన
ద్ధ ి</w>
దేశం లోని</w>
దేశం లో</w>
దేశ ాల</w>
ద ్ర
త్ వ
జా బ
జరి గి
చ ే</w>
క్ క
కో ర్
కాల ంలో</w>
కాంగ్ర ెస
అత్య ధిక</w>
ంత ో</w>
২০ ১
০- এর</w>
্রিটি শ</w>
্র াজ
্য িক</w>
্য াদ
্ট ি</w>
ো মি
ুর ু</w>
ু র</w>
িল োমি
ার ী</w>
াং শ</w>
হে র</w>
হ লে
স্থান ীয়</w>
স্থা পত
স্ ত্র
স্ ত
স্ ট</w>
সে র</w>
সাম ্রাজ
সা ং
সর্বা ধিক</w>
সম্পর্ ক</w>
সম্প ্র
সঙ্গী ত</w>
সংখ ্যার</w>
সং ক্রা
ষ্ ঠি
ষ্ঠি ত</w>
ষে র</w>
শতাংশ ।</w>
শতা ব্দ
শতাব্দ ীর</w>
শ ্র
রে র</w>
র ে</w>
যুক্ ত</w>
যা য়।</w>
য়া য়</w>
মান :</w>
মাণ বিক</w>
মহা কা
মত া</w>
ম ্প
ভাষা য়</w>
ভা গ</w>
ভ ক্
ব্যব স্থা</w>
বৈ শিষ্ট
বৈ ধ</w>
বে শ</w>
বৃ দ্
বৃদ্ ধি
বি শে
বি ভক্
বি বে
বি বা
বি জে
বাহি নী
বা দ
বা ং
বাং লা
ব ই</w>
প্র তি</w>
প্র জাত
প্যারামি টারে</w>
পে র</w>
পূর্ বা
পার মাণবিক</w>
পা কি
পর্য ন্ত</w>
পর্বত মালা</w>
ন্তর্ জাতিক</w>
ন্ দ্র</w>
ন্ ত্র</w>
নে তৃত্
না র</w>
না মে</w>
না ম
ন ৃত
ন =</w>
ধ র</w>
দ্বী প</w>
দু টি</w>
দা ন</w>
দ শক
থে কে
থাকে ।</w>
ত্ ব
ত্ ত্
তৃ তীয়</w>
তি }}:</w>
তারিখ ে</w>
তা মি
ণ ে</w>
ঢ ়</w>
জ্ ঞ
জো ট</w>
জন ্য</w>
ছ ে</w>
চল চ্চ
চ ন্দ্র
গ্র া
গত ভাবে</w>
ক্ষি ত</w>
ক্ষর তার</w>
ক্ষ মতা</w>
ক্র মে</w>
কেন্দ্র শাসিত</w>
কৃত ি</w>
করে ছে।</w>
কর ুন</w>
কংগ্রে স</w>
ক িলোমি
এশিয়া র</w>
একা ধিক</w>
উপ র</w>
উপ মহা
উদ্ধৃ তি}}:</w>
ইন্ দো
ইং রে
আন্ দো
আইএসবি ন=</w>
আই ন</w>
আ ন্তর্জাতিক</w>
অব স্থিত</w>
অন্য দিকে</w>
অধিক াংশ</w>
অ ্য
অ ভি
অ বৈধ</w>
অ ন্তর্
অ নে
অ ক্ষর</w>
८ ९
५ २
५ ,
१९ ५
्र ीक
्रीक ा</w>
्य ो
्य ता</w>
ोस ी</w>
ो ज
ै ल</w>
ृष ्ट
ी तिक</w>
िया र</w>
ार ्
ान ी</w>
हो ते</w>
हिन्द ू</w>
हाला ँक
हालाँक ि</w>
हथ ियार</w>
हत े</w>
ह ू
स्था पन
स्थापन ा</w>
स् तर</w>
स् ट
सह योग</w>
सर् वो
सर्वो च्च</w>
समर् थ
समर्थ न</w>
संस्कृ त</w>
सं घ
शी ल</w>
शा ंत
शांत ि</w>
श न</w>
वि वाद</w>
वि भि
वि भा
वा दी</w>
वर् त
वर्त मान</w>
वर ी</w>
व ्या
व न</w>
ली न</w>
ली ,</w>
लि त</w>
ला ,</w>
ल ू
ल िया</w>
ल िका</w>
र् ष</w>
रो पी
रोपी य</w>
राजन ीतिक</w>
यो ं</w>
यू रोपीय</w>
या स</w>
म् ब
मै द
मुख ्य</w>
मध ्य</w>
बा र</w>
बन ाने</w>
ब ोल
ब न</w>
प्र यास</w>
प्र त्य
पु र्
पा स</w>
पा लिका</w>
पर ंप
परंप रा
पड़ ोसी</w>
प ण
ना ग
न ई
द ृष्ट
द िया।</w>
थ ी</w>
ती सर
त ो</w>
त मिल</w>
ड ु
ट े</w>
झ ौ
जान ा</w>
जल वायु</w>
जब कि</w>
ज ी</w>
ज लो
च ं
गो ं</w>
गांध ी</w>
गत ि</w>
ख ो
के वल</w>
उत् पा
ई द
इसक ी</w>
इ स्
आद ि</w>
आ न्
अर्थव्य वस्था</w>
अमे र
अम री
अभ ी</w>
अफ ्रीका</w>
अप्र ैल</w>
अ ब</w>
| আইএসবিন=</w>
{{ বই</w>
edi tor
8 %
194 7</w>
. २
-এ র</w>
-এ </w>
- फ
, ०
( c
% ),</w>
- 2
్ల ను</w>
్ల </w>
ే మ
ే ట
ె </w>
ు ంది.</w>
ీ న</w>
ీ ;</w>
ి త</w>
ాలు .</w>
ాల కు</w>
ారు లు,</w>
ార ు</w>
ా వర
ావర ణం</w>
హింద ూ</w>
హ న
స్తా న్</w>
స్ వాత
స్వాత ంత్ర
స్ వత
సౌక ర్య
సియ ా</w>
సి ంది.</w>
సా ం
సము ద్ర
సభ </w>
స ె
స ల
స ర్
శ ో
శ ే
శ ర
శ తా
శతా బ్
వాత ావరణం</w>
వగ ా</w>
వంట ి</w>
వ ో
వ త్
ల లో</w>
రై ల్
రెండ ు</w>
రి త్ర
రాష్ట్ర పత
ర ‌
మొ త్
మొత్ తం</w>
మ ైన
మ ు</w>
మ హా
మ య
మ ణ
భి న్న</w>
భారత దేశానికి</w>
భా షల
బెంగ ాల
బహ ు
ఫ ర
ప్రాచ ీన</w>
ప్రాంత ాలు</w>
ప్రస్తు తం</w>
ప్రభుత్ వ
ప్రపంచ </w>
ప్ర ధాన
ప్రధాన మంత్ర
ప్ర జా
పూ ర్
పార్ట ీ</w>
పట్ట ణ
ప స
న్న ాయి.</w>
న్ ను
న్ ,</w>
నే క</w>
నిర్ వహ
నా ,</w>
నడి ప
న గర
ధ ర
దేశ ాలలో</w>
ది న
ద ు</w>
తి ,</w>
తరువాత </w>
తం ,</w>
త మి
డ ి</w>
జాబ ిత
జరిగి న</w>
జ ో
చ ార
చ రిత్ర
గా ,</w>
గ ంగా</w>
ఖ ్య</w>
ఖ ో
కూడ ు
ఏర్ ప
ఎక్కు వగా</w>
ఎ న్ను
ఉ ండ
ఇండ ియా</w>
ఆ వ
ఆ ల
ఆ న
అయి న</w>
అధ ిక</w>
అ భి
అ నేక</w>
అ తి
ంద ి</w>
ంత్ర </w>
৮ .
৭ ৯
৬ ৮
৪ ৮
২০০ ৭</w>
২ ৭
১৯৯ ১</w>
১৯৫ ০</w>
১ ,
্র া
্র ত
্য ে</w>
্য া</w>
্য মে</w>
্প ্রত
্ র</w>
ো র্
ৃত ।</w>
ুস ারে</w>
ুষ দের</w>
ুপ ্র
ুন িক</w>
ু ষের</w>
ী ,</w>
ি ল</w>
ি ম</w>
ি ত্র</w>
ার েশন</w>
ানি র</w>
ান ের</w>
ান ু
ান িক</w>
হা য়
হন ।</w>
হক ি</w>
হক ারী</w>
স্থ িত।</w>
স্ কৃত
স্কৃত িক</w>
সে ম্ব
সাম ্প্রত
সাং স্কৃতিক</w>
সা গর
সা গ
সা ক্ষরতার</w>
সম্প্র দা
সম ্
সফ োর্
সংবি ধান</w>
সংগ্র হের</w>
স ি</w>
ষ্ট </w>
ষ্ ঠ</w>
ষ ু
শাস ন
শক্তি ধর</w>
শ ুরু</w>
লি উড</w>
র্ থ
রাষ্ট্র পত
রাষ্ট্রপত ি</w>
রাষ্ট ্র</w>
রয়েছ ে
য থা
মে র</w>
মু সল
মু ঘ
মুঘ ল</w>
মা ধ
মাধ ্যমে</w>
মা ত্র</w>
মত ো</w>
ম শ
ভৌ গো
ভাষা র</w>
ভা ষা</w>
ভা ব</w>
ভা গ
ব্য াপ
বৈ দেশ
বৈদেশ িক</w>
বৃদ্ধি র</w>
বিস্ তার</w>
বিশ্ব </w>
বিজে পি
বিচ ারে</w>
বিচ ার
বি রো
বি চ্
বি ংশ</w>
বাহি ন
বাহিন ী</w>
বাস ী</w>
ব ্রিটিশ</w>
ব শ
ব রা
ব র</w>
ব ঙ্
প্রাচ ীন
প্রযুক্ তি</w>
প্র ত
প্রত ্য
প্র চ
প্ ত
পূর্ ব
পুর ুষদের</w>
পুর স্
পি ত</w>
পা দ
পা ত</w>
পশ্চ িম</w>
পরি ষে
পর িচ
প ি</w>
ন্ ব
নেতৃত্ বে</w>
নি র্
নি জ</w>
না ট
ন িক</w>
ন ার
ন য়</w>
ন ও</w>
ধ্রুপ দি</w>
ধর্ ম</w>
দি য়ে</w>
দ ূ
দ ল</w>
দ র্
দ গ
থ ক
ত্ ম
ত্ ব</w>
তি ,</w>
তারিখ </w>
ত নের</w>
ডি সেম্ব
ড় </w>
টি র</w>
ঞ্ জা
জা তি
জনপ্রি য়</w>
জন সংখ্যার</w>
ছি ল</w>
চলচ্চ িত্র</w>
চ ার
চ তু
ঘা ট</w>
গুলো র</w>
গুল িতে</w>
গু রু
গা ঢ়</w>
গত ।</w>
গ ড়ে</w>
খেল া</w>
ক্ষে ত্র</w>
ক্ষম তায়</w>
ক্র য়
কো ম্প
কো নও</w>
কো টি</w>
কিলোমি টার</w>
কা লের</w>
কর্ তৃ
উৎ স
ই হ
ই প
আন্দো ল
আদ াল
আ জ</w>
অর্ থ
অব স্থিত।</w>
অন্তর্ গত।</w>
অনু মো
অঞ্চ লের</w>
অঞ্চ ল</w>
অক্ সফোর্
२० १
्यो ग</w>
्य ाद
्य ट
्त न
्तन त</w>
ौद ्योग
ी ,</w>
ार ,</w>
ा ,</w>
हु ई।</w>
हिन् दु
हि स्
ह र</w>
स्व रूप</w>
स्ता र</w>
स् लि
स् त्र</w>
स् त्र
से ना
सू न</w>
सि ने
सा मा
सामा जि
सामाजि क</w>
सल ्तनत</w>
सरकार ें</w>
सम ्प
सम ्
संघ र्ष</w>
सं घी
संघी य</w>
सं गी
संगी त</w>
स ,</w>
षि त</w>
शु रु
श त</w>
व्या पा
व्यापा र</w>
विभि न्न</w>
वि स्तार</w>
वि क
विक सित</w>
व िय
व ,</w>
लो गों</w>
ला वा</w>
ल ड़
रू प
राष्ट ्र</w>
राज धान
राजधान ी</w>
र हा
य क</w>
मू ल
मु स्लि
मु ख्य
मिल िय
मान ा</w>
मान सून</w>
मा ध्य
माध्य म</w>
महा द्वीप</w>
भी ल</w>
भाषाए ँ</w>
बा हरी</w>
बढ़ कर</w>
ब र</w>
ब ंग
फ ्र
प्रारम् भ</w>
प्रति शत</w>
प्र ौद्योग
पूर् वी</w>
पु रा
पर ्यट
पं जा
प हु
न्याया लय</w>
न् ह
निर पे
निभा ई</w>
नद ियाँ</w>
न ्य
द् ध
दो ं</w>
देख ा</w>
दृष्ट ि</w>
दि ल्
दा र</w>
थे ।</w>
ता ंत्र
त ियों</w>
त ना
जै से</w>
जिसक ा</w>
जि न
जलो ढ़</w>
जन ता</w>
ज हाँ</w>
ज न</w>
ची फ</w>
च ी</w>
घो षण
गु प्त</w>
गई ।</w>
ग र</w>
ग ए</w>
ग ई</w>
को ई</w>
केन् द्र
कृ ष
कि न्तु</w>
का म
का ,</w>
कर ता</w>
क िये</w>
क िया,</w>
क हते</w>
क म</w>
उप महाद्वीप</w>
उद ्योग</w>
उ सके</w>
इ तिहा
आक र्
अन् त
अधि कार</w>
अध िक
अंग्रे ज़ी</w>
ं त्र</w>
ँच ी</w>
ul </w>
bri d
am brid
Publ ic
J oh
India ।</w>
F .
4 9
4 5
2 6</w>
197 1</w>
- জ
- 5
( ৩
( ড
( জ
( ক
( editor
( )
P I
B S
‍ य
్‌ </w>
్ర ాజ
్ర దాయ
్య ాయ
ె స్</w>
ుల కు</w>
ీల ు</w>
ిత ్ర
ించి ,</w>
ించ ే</w>
ి ంది.</w>
ాల ె
ాల ుగా</w>
ాత్ర </w>
ా ,</w>
స్వా మ
స్త ారు.</w>
స్ లా
స్ య
స్ థ</w>
సినిమ ా</w>
సామ ్రాజ
సా ంప
సాంప ్రదాయ
సర్ వీ
సర్వీ స
సభ ్య
సంగ ీత
సం స్కృత
సం వత్
సం ప్ర
సంప్ర దాయ
శ్ చి
శా ఖ</w>
శతాబ్ దం</w>
వ్యవ స్థ</w>
వే గంగా</w>
వె బ
వి .</w>
వార స
ళ ్లను</w>
ల్ ప
లు గు
ల ్</w>
ర్ త
రో డ్
రు ష
రాష్ట్రపత ి</w>
రాష్ట్ర ాల</w>
రహద ారులు,</w>
రక ాల</w>
మూడ ు</w>
ముఖ్య మైన</w>
ము లో</w>
ము ంబ
ము .</w>
మాత్ర ం</w>
మల ు</w>
మధ ్య
మ ాల
మ ాన
మ త</w>
భారత్ </w>
భారతదేశం లోని</w>
భారతదే శపు</w>
భాగ ం</w>
బ్రి టి
బ్రిటి ష
బా ద్
ప్రము ఖ</w>
ప్ర ార
ప్ర కార
పొ ంద
పై గా</w>
పే రు
పు ట్ట
పాల ిత</w>
పాకి స్థా
పరి శ్ర
పర ంగా</w>
పత క
ప ాత్ర</w>
ప శ్చి
ప ర్
న్న ారు.</w>
న్ ని
న ్యాయ
న ాల
న ాయ
ద్ వీ
త్ </w>
త ి</w>
త న</w>
ఢ ిల్ల
టు ంబ
టి లో</w>
జాబిత ా</w>
జ ల</w>
చే య
చెంద ిన</w>
చు కో
చరిత్ర </w>
గ ి</w>
ఖ ండ
క్ష రా
క్ర మ
కేంద్ర పాలిత</w>
కూ డిన</w>
కు టుంబ
కార ్య
కాంగ్రెస ు</w>
క ్య
క ుల
క ను
ఉంట ాయి.</w>
ఆర్ థ
ఆధ ార
ఆక ్ర
అభి వృ
అధికార ిక</w>
అత ి</w>
అ ను
ంట ే</w>
ంచ ి</w>
১৯৯ ৮</w>
্র িক
্র াস
্যু ষিত</w>
্যাদ া</w>
েক টি</w>
ে ই</w>
ৃত ি</w>
ুম ানিক</w>
ু ত</w>
ী ণ</w>
ি তা
াল িক</w>
াল ি</w>
ার ্
ার া</w>
া ,</w>
হিমাল য়ের</w>
হলে ন</w>
হয়েছ িল</w>
হয় ,</w>
স্থাপত ্য</w>
স্থা পিত</w>
স্থা প
স্তা ন</w>
স্ তন
সি য়
সাম্রাজ ্যের</w>
সাম্প্রত িক</w>
সাধার ণত
সর্ বো
সরকার ের</w>
সমা জ
সম ৃ
সম য়</w>
সম য়
সম গ্
সমগ্ র</w>
সভ ্য
সভ া</w>
সংস্ কৃতি</w>
সংবি ধান
সংক্রা ন্ত</w>
সং ঘ
শিষ্ট </w>
শত কে</w>
শক্ তির</w>
শ ন</w>
লে খা</w>
লা ,</w>
ল ক্ষ</w>
র্ ষ
র্ থ</w>
রো পী
রে খা
রেখা র</w>
রূ পে</w>
রাজ ্যের</w>
রা ঞ্চ
র পে
র ক্ষা</w>
যোগ িতা
যুদ্ধ ের</w>
যুক্তরাষ্ট্র ীয়</w>
যু গের</w>
যথা ক্রমে</w>
মান ুষের</w>
মা ণ</w>
মা ইল
মহ ান
মর ্যাদা</w>
ম ূল
ম য়</w>
ভৌগো লিক</w>
ভূ ত</w>
ভার তে
ভার তক
ভারতক ে</w>
ভাগ ে</w>
ভ ৃতি</w>
ব্য বহ
বৈশিষ্ট ্য</w>
বৈচিত্র ্যের</w>
বিস্ ত
বিশ্ব কাপ</w>
বিশ্ব কা
বিবে চিত</w>
বিবা হ</w>
বি ষ
বি শিষ্ট</w>
বি লিয়ন</w>
বি গত</w>
বাণিজ ্যিক</w>
বাণিজ ্য</w>
বা স</w>
বা দ</w>
বহু ল</w>
বর্ ণ
ব ্র
ব ার
ব হি
ফে ড
ফি ,</w>
প্রাণ ী</w>
প্রাচীন তম</w>
প্রধানমন্ত্র ী</w>
প্রত্য ক্ষ</w>
প্রতি যোগিতা
প্রজাত ন্ত্র
প্রচ লিত</w>
প্র ভৃতি</w>
প্র ভাব</w>
প্র বর্
প্র থম
প্র চল
পো শা
পৃ .</w>
পূর্ বে</w>
পুরস্ কার</w>
পি পি
পার ্টি</w>
পাকি স্তান</w>
পা তের</w>
পশ্চিম ঘাট</w>
পর্বত মা
পরিব র্
পর ে</w>
প রে
ন্ধ ী</w>
ন্ ড</w>
ন্ ট</w>
নী তি</w>
নি রপে
নি ম্
নি দর্
নি জে
ন ,</w>
ধর্ ম
ধন শীল</w>
ধ ারা
দ্র ুত</w>
দ্র া
দ্ব ারা</w>
দে শীয়</w>
দে য়।</w>
দি ত</w>
দ ী</w>
দ িক</w>
দ ার
দ লের</w>
থেকে ই</w>
থ ে</w>
থ ান
ত্ব পূর্ণ</w>
তি ন
ণ ।</w>
ডিসেম্ব র</w>
ড লার</w>
ঠে ।</w>
ট্র ফি,</w>
ট িক
ট ,</w>
জি ত</w>
জি ডি
জনপ্রি য়।</w>
জ ীব
জ িক</w>
জ রা
চার টি</w>
গ্র হ</w>
গুরু ত্বপূর্ণ</w>
গা ন্ধী</w>
খণ ্ড
খ ্যা
ক্ষণ ের</w>
ক্ষ ণ</w>
ক্রয় ক্ষমতা</w>
ক্ ত</w>
কে ন্দ্র</w>
কৃ ষি
কা লে</w>
কা ই
কাই ভক
কর্তৃ ক</w>
করে ন।</w>
কয় েকটি</w>
ও ঠে।</w>
এশিয়া ন</w>
এশি য়া</w>
এছাড় া</w>
উৎস ব</w>
উপ গ্রহ</w>
উদ্ ভি
উত্তর- পূর্ব</w>
ইট ালিক</w>
ইউ রোপী
ইউ নি
ইংরে জি</w>
ই ,</w>
আর্ কাইভক
আফ ্রিক
আন্ দা
আন ুমানিক</w>
আধ ুনিক</w>
আ বার</w>
অনে ক</w>
অনুমো দিত</w>
অনু যা
অন ুসারে</w>
অধ ্যুষিত</w>
অত ্য
অক্সফোর্ ড</w>
অক্ টো
অ রণ
অ ংশ
६ ४
३ ८
२ ९
१९५ ०</w>
१९ ६
१ ५</w>
०० ०</w>
्रि य</w>
ौ ल
ों ,</w>
ो ण
ैं क</w>
ै तिक</w>
े क</w>
ील ंक
ीलंक ा</w>
ी ।</w>
ी क्ष
ीक्ष ण</w>
िया ं</w>
िम ण्ड
िमण्ड ल</w>
िण ाम
िक ों</w>
ि य</w>
ाल र</w>
ार ों</w>
ार े</w>
ा ।</w>
हो ना</w>
हॉ की</w>
हु ए
हिन् दी
हा ल</w>
हा यक</w>
स्वत ंत्र</w>
स्थ ान
स्त ान,</w>
स्कृ तिक</w>
स् त</w>
सो विय
सोविय त</w>
सो ं</w>
से वा
से ,</w>
सू ची</w>
सि ंध
सि ं
सिं ह</w>
साम रिक</w>
सा मन
सा थ
सा गर</w>
सा ं
सां स्कृतिक</w>
समा प्त</w>
सम ृ
सभ ्यता</w>
सफ ल</w>
सन े</w>
सदस ्यों</w>
सदस ्य</w>
सद न</w>
सक ्रिय</w>
संबंध ों</w>
स ॉ
स ा</w>
स हायक</w>
ष् ण</w>
ष् ठ</w>
ष् क</w>
श्र ीलंका</w>
श् मी
श्मी र</w>
शुरु आ
शुरुआ त</w>
शु ष्क</w>
श िय
श क्ति</w>
श क्
वि रो
वि क</w>
वा स्त
वा ली</w>
वश ाली</w>
वर् ष
वं श</w>
व े</w>
लोक प्र
लोकप्र िय</w>
लो ग</w>
ले कर</w>
ली वि
लि क</w>
लन ा</w>
ल ंब
लंब े</w>
रू स</w>
री ,</w>
राजन ैतिक</w>
रहा ।</w>
रत ा</w>
र ्य</w>
य हाँ</w>
मौ र्य</w>
मैद ानी</w>
मुस्लि म</w>
मिल ा</w>
मंत्र िमण्डल</w>
म न</w>
म ण</w>
भाष ी</w>
भार ती
भार त
भा गी
भा ग</w>
भर ा</w>
भ े
भ र</w>
बौ द्ध</w>
बन े</w>
बन ी</w>
बन ा</w>
बढ़ ती</w>
बज ट</w>
बंध ीय</w>
ब ्र
ब ॉ
ब ने
फ्र ां
फ ैली</w>
फ े
प्रौद्योग िकी</w>
प्रत्य ेक</w>
प्र दान</w>
प्र ण
प्रण ाली</w>
प्र का
पू रे</w>
पू रा</w>
पुर् तग
पु रु
पा या</w>
पश्चि मी</w>
पर्यट न</w>
पर् वत
पर् व</w>
परंपरा गत</w>
पर ीक्षण</w>
पर िणाम
पंजा ब</w>
प ि</w>
प त्
प ट
ने क</w>
नि वे
नि म्
नग र</w>
धि कार</w>
धि क</w>
धा र</w>
ध ार
द् धि</w>
दिल् ली</w>
दि रा</w>
तो ं</w>
ती न</w>
तांत्र िक</w>
तर ह</w>
त ौ
ण त
ण क
ड़ ा</w>
ड ालर</w>
ड स
ठ क</w>
टे लीवि
टि बंधीय</w>
ट ी</w>
जो ं</w>
जू न</w>
जी वन</w>
जिन में</w>
जि न्हें</w>
जि त</w>
जम ा</w>
जन वरी</w>
ज रा
छो ड़
छो टे</w>
छ ा
च् छ
चन ा</w>
च ाल
घोषण ा</w>
गु जरा
ग ति
ख ु
ख ि
क् ट
को ं</w>
कृष ि</w>
कि सी</w>
कि ए</w>
कार्य पालिका</w>
कार्य काल</w>
का लीन</w>
कर ते</w>
कर ती</w>
क श्मीर</w>
क थ
ओ ड
ए फ
ऋत ु</w>
ऊ ँची</w>
उप योग</w>
उनक े</w>
उनक ी</w>
उत्तर ी</w>
उ से</w>
उ न्हें</w>
उ च्च</w>
ई ,</w>
इस् ला
इसक ा</w>
इस े</w>
इस में</w>
इतिहा स</w>
इंड िया</w>
इं दिरा</w>
आन् दोलन</w>
आग मन</w>
आ या
आ य</w>
अमरी की</w>
अप ना</w>
अ ल्
अ नेक</w>
अ द
ंड </w>
ंग </w>
ं पर
|p ubl
|publ ish
|publish er
|publisher =
|publisher= -এ</w>
|n opp
|nopp =</w>
|n o-
|no- pp
|no-pp =</w>
| co
|co author
|coauthor s
|coauthors =</w>
s ।</w>
author =</w>
ambrid ge</w>
Public ation
Pres s,</w>
Pa ul</w>
L ond
Ch ang
An th
6 8
4 1
3 3
20 20
2 2</w>
198 0</w>
0 ,</w>
. ६
. ४
- १
, ६
(২০ ০১
(| author=</w>
( भ
( |no-pp=</w>
ί α
S p
K i
B B
్‌ సై
్‌సై టు</w>
్ల ు</w>
్ ,</w>
ెట ్</w>
ూర ు</w>
ుల ను</w>
ున ు</w>
ుగ ు</w>
ిల్ల ీ-
ిన ది.</w>
ిత ి</w>
ిగ ా</w>
ిక ్</w>
ించ ాల
ిం చబ
ాలె ండ
ాల ా</w>
ార ి</w>
ార </w>
ాయ ి</w>
ాత ో</w>
ా ంగ
హి మాల
స్వామ ్య</w>
స్వత ంత్ర</w>
స్లా మా
స్లామా బాద్
స్య త</w>
స్థాన ంలో</w>
స్కృత ిక</w>
స్ ట
స్ ,</w>
సాం స్కృతిక</w>
సర్వీస ులు</w>
సమా ఖ్య
సంస్కృత ి</w>
సంవత్ సర
సంప్రదాయ ాలు</w>
సంగీత ం</w>
సంగ ీ
సం స్కృ
సం బ
సంబ ంధ
సం ఘ
సం ఖ్య
సం కీ
సంకీ ర్
స ైన
శ్ర ీ
శ్ మీ
శాస్త్ర ీయ</w>
శాస్త్ర ం,</w>
శ ెల
వ్యవస్థ లో</w>
వ్య ాప
వై విధ
వెబ ్‌సైటు</w>
వె ను
వెను కట
వెనుకట ి</w>
వీ టిలో</w>
వి స్
వి భిన్న</w>
వి ద
విద ్య
వార ా</w>
వా ణి
వాణి జ
వల ్ల</w>
వల ం</w>
వర ి</w>
వర ాలు</w>
వడ ం</w>
వం లో</w>
వ ే</w>
ల్ లో</w>
లో ను</w>
లే ద
లేద ా</w>
లన ు</w>
ల ్ల
ల క్ష
ర్ ,</w>
రోడ్ డు</w>
రైల్ వే</w>
రై ళ్లను</w>
రు పు
రాజ్య ాంగ
ర ం</w>
మొదల ైన
మొ ట్ట
మొట్ట మొదటి</w>
మైన ది.</w>
ము ఖ్య</w>
మ ే</w>
మ ిం
మ ంది</w>
భాషల ు</w>
భా వి
బహు ళ</w>
బడ త
బ ంగ్ల
బంగ్ల ా
బ ంగ
ఫ్ ఘ
ప్రార ంభ
ప్రభుత్వ ం</w>
ప్రపంచ ం
ప్రధానమంత్ర ి</w>
ప్రతి పా
ప్రతిపా దన
ప్రకార ం</w>
ప్ర జల
ప్పటిక ీ,</w>
పేర్ లు</w>
పేర్ కొ
పు రుష
పాల ించ
పాల న</w>
పా టు</w>
పా క్</w>
పరిశ్ర మలు</w>
పతక ాలు</w>
పండ ుగ
ప ీఠ
ప ా</w>
ప ద్ధ
ప క్ష
న్న ది.</w>
న్ మ
న్ నడ
నే పాల
ను ంచి</w>
నాల ుగు</w>
నాయ క
నా గర
నాగర ిక
నడిప ిం
ద్ధ ం</w>
ద్ వారా</w>
దేశ ంగా</w>
దే శపు</w>
దిన ాలు</w>
దా దా
దగ ా</w>
దక్షిణా సియా</w>
దక్షిణా న</w>
దక్షి ణ</w>
త్ వ</w>
త్ మ
త్ తా
తో ,</w>
తె లుగు
తు ంది.</w>
తి గా</w>
తరువాత ి</w>
తమి ళం
తం లో</w>
త ్య
త ూ</w>
త రా
త క్కు
ణ ంగా</w>
డి ంది.</w>
ట్ల ు</w>
ట ి</w>
ట ర్
జరి గ
జన గణ
జ ాలు</w>
జ రుపు
జ న్మ
జ ంబ
జంబ ూ</w>
చు .</w>
చి న</w>
చి త్ర
చి ంది.</w>
చార ిత్ర
చ ైన
చ ాలా</w>
గు ర్త
గా ంధ
గాంధ ీ</w>
క్షరా స్యత</w>
క్రీడ లు</w>
క్య ాలెండ
క్ ‌
కోర్ ట
కో ల్
కో ట్ల
కొ న్ని</w>
కేంద్ర </w>
కే వలం</w>
కూడు కు
కుంట ారు.</w>
కి ంద
కార్య క్రమ
కా శ్మీ
కలి గి</w>
కర ణ
కం పె
క న్నడ
ఒక టి
ఏర్ప డ్
ఎన్న ిక
ఉప ఖండ
ఉన్న ారు.</w>
ఉత్ తరా
ఉత్ తర</w>
ఉంట ుంది.</w>
ఇవ ి</w>
ఇ స్లామాబాద్
ఇ తర
ఇ ంగ్ల
ఆహ ార
ఆర్థ ిక</w>
ఆ ఫ్ఘ
అభివృ ద్ధి</w>
అన ే</w>
అన ి</w>
ంగ ా,</w>
ం లో,</w>
ం .</w>
৯৯ ),</w>
৮ ।</w>
৫ ২১
৪ ৭</w>
২১ ৬
২০১ ১</w>
২০ </w>
২ ৮</w>
১৯৯ ০-এর</w>
১৯ ৪৭</w>
০০ ০</w>
০ ১৯
্ষ িক</w>
্রি ম</w>
্র েস
্যা ন্ড</w>
্যা ন্ড
্য ো
্যো তি
্য ব
্যব স্থা</w>
্য পা
্ব ভৌ
্প িউ
্ট </w>
্চ </w>
্ সি
োজ ক</w>
োগ ের</w>
োগ </w>
ো জিত</w>
ের ু</w>
েম ্ব
েন ।</w>
ে ,</w>
ৃত িক</w>
ৃত ,</w>
ৃ ত</w>
ীত ি</w>
ীত ।</w>
িদ ্র
িত ি</w>
িত ,</w>
িক ভাবে</w>
িক ।</w>
ি ,</w>
ানু য়ার
ানুয়ার ি</w>
াগ রি
াক ৃতিক</w>
হিমাল য়</w>
হিন্দু ,</w>
হিন্ দি</w>
হিন্ দি
হয়েছ িল।</w>
হয় ;</w>
হ ারের</w>
হ ত</w>
স্বাধীন তার</w>
স্থাপ ন</w>
স্তন ্যপা
স্ট ্র
সে না</w>
সে ই</w>
সী মা
সি ংহ
সার ্বভৌ
সার া</w>
সাগর ে</w>
সাগ র</w>
সা ল</w>
সা ল
সা মা
সামা জিক</w>
সা থে</w>
সা উ
সর্বো চ্চ
সর্বোচ্চ </w>
সর্বা পে
সর্বাপে ক্ষা</w>
সর্ ব
সর ণ</w>
সম্ মি
সময় কালের</w>
সম র্থ
সম য়ে</w>
সভ্য তার</w>
সক ল</w>
সংস্কৃ তির</w>
সংস্কৃ তিতে</w>
সংস্কৃ ত</w>
সংস দের</w>
সংস দী
সংসদী য়</w>
সংর ক্ষণ</w>
সংঘ র্
সংখ্য াগরি
সংখ্য ক</w>
সং স্থা</w>
সং সদ
স ৃষ
স ুপ
স হায়
স হ</w>
স ,</w>
ষ্ ঠী
ষণ া</w>
শাস না
শাস ন</w>
শহ রে</w>
শব্দ টি</w>
শক্ তি</w>
শ াল
ল্ ল
লো কস
লো ক
লু গু
লী ন</w>
লি ,</w>
লা য়</w>
ল ন</w>
র্ ধ
র্ তী</w>
রে শীয়</w>
রি জ
রাষ্ট্র ে</w>
রাজ্য ে</w>
রাজন ীতি</w>
রয়েছে :</w>
রয়েছ ে।</w>
র া</w>
র ন্
রন্ ধন
র ও</w>
যোগ </w>
যু দ্ধ</w>
য়ে ন্
য় ান
য় ,</w>
য ে</w>
য ন্ত্র
মুসল মান</w>
মান ুষ
মা ঝ
মা ই
মধ্য বর্
মধ্যবর্ তী</w>
ম িক
ম া</w>
ম সূ
ম রু
ভূমি র</w>
ভূ মিক
ভূ খণ্ড
ভি ত্
ভাষা গো
ভার ্সি
ভার ত-
ভার ত,</w>
ভা গের</w>
ভ ি</w>
ব্যাপ ক</w>
ব্যবহ ৃত</w>
ব্যবস্থা র</w>
বৈচিত্র্য পূর্ণ</w>
বৃহ ৎ</w>
বৃ ক্ষ
বু দ্ধ</w>
বিস্ত ৃত।</w>
বিশে ষ</w>
বিশে ষ
বিরো ধ
বিরোধ ী</w>
বিভক্ ত।</w>
বিজেপি -
বিচ্ ছি
বিচার ব্যবস্থা</w>
বি ভাগ</w>
বি বাহ
বি দেশ
বিদেশ ি</w>
বি দ</w>
বি দ
বি জয়
বি জ
বাহিনী র</w>
বার ্ষিক</w>
বায় ুপ্র
বা ল
বা দী
বস তি</w>
বর্ ধনশীল</w>
বন ্য
বঙ্ গো
বঙ্গো প
ব ্য</w>
ফেড ারেশন</w>
ফ ্র
ফ িল
প্রযুক্ তি
প্রবর্ তিত</w>
প্রতি ষ্ঠিত</w>
প্রতি ষ্ঠ
প্র াধ
প্র াকৃতিক</w>
প্র া
প্র স্
প্র দেশের</w>
প্ তর
পূর্বা ব্দ
পূর্বা ঞ্চ
পু ন
পু ঞ্
পাঁচ </w>
পা লিত</w>
পা ল</w>
পা ত
পা ও
পশ্চিম ে</w>
পরে ই</w>
পরিচ াল
প ্ট
প তিত</w>
প ড়
প ,</w>
ন্ব য়ে</w>
ন্ন য়
ন্ত্র ণ</w>
ন্ স</w>
নো বে
নৃত ্য
নির্বা চন
নির্বাচন ে</w>
নিরপে ক্ষ</w>
নিয় ন্ত্রণ</w>
নিম্ নক
নিদর্ শন
নিজে দের</w>
নি যুক্ত</w>
ন ে</w>
ধি ষ্ঠিত</w>
ধা ঁচ
ধর্ মী
ধর্ মা
ধ ি</w>
দ্র ো
দ্বীপ পুঞ্
দ্বী পের</w>
দৈ নিক</w>
দেশ টির</w>
দেশ ।</w>
দু র্
দি ন</w>
দার িদ্র
দা য়
দা ক্ষি
দাক্ষি ণ
দাক্ষিণ াত
দা ঁ
দাঁ ড়
দশক ে</w>
দশক গুলিতে</w>
দশ কের</w>
দশ ক</w>
থা কত
থ র</w>
ত্ তি</w>
তে লুগু
তৃত্ ব</w>
তী য়
তি ।</w>
তামি ল
তা ই</w>
তম ।</w>
তব ে</w>
তথ ্য</w>
তথ া</w>
ত ুল
ণ্ ড</w>
ণে র</w>
ড় ুর</w>
ড় া</w>
ডল ারের</w>
টিক ে</w>
টি ।</w>
জু ন</w>
জা র</w>
জা তি</w>
জা ত</w>
জন তা</w>
জ ্যোতি
জ ,</w>
ছ োট
ছ িল।</w>
ছ িল
চু ক্
চুক্ তি</w>
চা লিত</w>
চা র</w>
চন া</w>
চতু র্থ</w>
চ াল
ঙ্গ াল
ঙ্ গে
ঙ্ গ</w>
গী য়</w>
গণ িত
গ বে
গ ণ</w>
খ্রিষ্ট ীয়</w>
খ্রিষ্ট পূর্বাব্দ
খা তের</w>
খা ত</w>
খন ো</w>
খ ্রি
খ ে</w>
খ ালি</w>
খ ণ্ড</w>
ক্ষা র</w>
ক্রা ন্
ক্ তি
কেন্দ্র ের</w>
কে র
কূ ল</w>
কার ্য
কার ণে</w>
কা শ্
কা শ</w>
কা লীন</w>
কা বা
কল কা
কর্ মসূ
কর ণ</w>
কম ্পিউ
ক লা
ক ক্ষ
ক ।</w>
ঐতিহ ্য</w>
ঐতিহ ্য
এস এল
এক ই</w>
এ দেশের</w>
এ গুলি</w>
উৎ সব
উৎ পাদ
উৎ প
উল্লে খ</w>
উপমহা দেশের</w>
উপ নি
উপ কূল</w>
উদ্ধৃ তিতে</w>
উ ন্নয়
উ ন্
ইন্ডি য়া
ইন্ দি
ইউরোপী য়</w>
ইউনি ভার্সি
ইউ রেশীয়</w>
ইউ নিয়
ই স্ট</w>
আর্কাইভক ৃত,</w>
আর ব</w>
আর ও</w>
আন্দোল নের</w>
আন্দা মান</w>
আদাল তের</w>
আ মদ
আ বাস
আ ধা
আ দি
আ গে
অ্য াড
অব স্থা
অব দান</w>
অনুযা য়ী</w>
অধিক ার
অত্য ন্ত</w>
অঞ্চ লে
অক্টো বর</w>
অ স্
অ ধিষ্ঠিত</w>
অ তি
অ গ্র
४ ०</w>
२०१ ४</w>
२०० ४</w>
१९९ १</w>
१९८ ४</w>
्रि त</w>
्याद ा</w>
्य ा</w>
्य पि</w>
ों ने</w>
ेश न</w>
े ।</w>
े क्षा</w>
ूब र</w>
ू ह</w>
ु प</w>
ीत ि</w>
िया न</w>
िया ई</w>
िय स</w>
िक ,</w>
ाष ्ट
ाल य</w>
ार ख
ाट ी</w>
ाच ल</w>
हो ने</w>
हैं :</w>
हुआ ,</w>
हिस् सा</w>
हि ं
हा र</w>
हर ा</w>
हत ्या</w>
हत ी</w>
ह ारी</w>
ह रू</w>
ह रा
ह न</w>
स्थि ति</w>
स्थान ीय</w>
स्था पि
स्थापि त</w>
स् टा
स्टा फ</w>
स् ट</w>
सेवा ओं</w>
सेना ओं</w>
से वा</w>
सू चना</w>
सी मा</w>
सिने मा</w>
सिंध ु</w>
सि त
साम्राज ्यों</w>
साथ ,</w>
सा हि
सा मान
सा क्ष
साक्ष रता</w>
सा ई</w>
सश स्त्र</w>
सरकार ों</w>
सर े</w>
सम्प ्र
सम् पूर्ण</w>
समृ द्ध</w>
सम ूह</w>
सम झ
सभ ी</w>
सद ी</w>
सत पु
सतपु ड़ा</w>
सक ते</w>
सक ता</w>
संस दी
संसदी य</w>
स ौह
स ारी</w>
स ार
स हि
स शील</w>
स न्
षण ,</w>
श्र ेण
शे ष
शि क्षा</w>
शा स्त्र
शा ल</w>
शा मिल</w>
श ैली</w>
श िया</w>
व्य ाप
वै दि
वैदि क</w>
वृ द्धि</w>
विश् व
विरो ध</w>
विका सशील</w>
वि शाल</w>
वि द्र
वि त</w>
वि ज्
वास्त विक</w>
वा स</w>
वर्ष ा</w>
वर् णि
वर् ण
वर्ण न</w>
वर् गी
व पूर्ण</w>
व त</w>
लोक तांत्रिक</w>
ली य</w>
लि स</w>
ला ल</w>
ला या।</w>
ला ख</w>
ला ख
ल दी
ल गा
लगा ता
लगाता र</w>
र् त
र् च
रे -
रे- धीरे</w>
राज्य सभा</w>
राजन ीति</w>
राज स्थान</w>
राज वंश</w>
राज भाषा</w>
रा जा
रह ी</w>
रख ा</w>
र िय
र त्
यो ग
या ,</w>
यद ्यपि</w>
य े</w>
य र</w>
य न</w>
मो हन</w>
मो र्च
मो दी</w>
मूल ्य</w>
मू ल</w>
मी ल</w>
मी ण
मिलिय न
मि क</w>
मान व</w>
मा लदी
मा मल
मा ंड
महा सागर</w>
मन मोहन</w>
म ्य
म ार्
म ही
म ना
म क</w>
भू मि
भि क</w>
भाषाए ं</w>
भारती यों</w>
भागी द
भागीद ारी</w>
बै ठक</w>
बहु मूल्य</w>
बने ।</w>
बन ने</w>
बद ल</w>
बढ़ ने</w>
बड ी</w>
ब ी</w>
प्रारम् भिक</w>
प्रा ची
प्राची नत
प्राचीनत म</w>
प्रभा वशाली</w>
प्रभा व</w>
प्र शासन</w>
प्र देशों</w>
प्र ति</w>
प्र च
प्रच लित</w>
प् ति</w>
पै मान
पुर्तग ाली</w>
पुरु षों</w>
पु लिस</w>
पु न
पार्ट ियों</w>
पा ल</w>
पहु ँच
पहा ड़ी</w>
पहा ड़
पह ली</w>
परिणाम स्वरूप</w>
पर ेशन</w>
पत् ति</w>
पत ्य</w>
पं थी</w>
प ठा
पठा र</w>
न्ह ोंने</w>
न्य ाय
न् त्र
नौ सेना</w>
ने हरू</w>
ने ट</w>
निरपे क्ष</w>
निय ु
निय ंत्र
निभा ई।</w>
नि वास</w>
नाग ा</w>
ना ड
ना ट
ना गर
नद ियों</w>
नक ा</w>
न ृत
न म</w>
न ,</w>
धी रे-धीरे</w>
धर् मों</w>
धर् म,</w>
धर् म
दर् शन</w>
द ा</w>
द ,</w>
थी ,</w>
था न</w>
त्र ि
त्र ,</w>
तु लना</w>
तीसर ी</w>
ती स</w>
ति म</w>
ता ,</w>
तना व</w>
तत ः</w>
त रा
त ब</w>
ण ी</w>
ट ल</w>
झ ारख
जै न</w>
जी त</w>
जिसक ी</w>
जि सने</w>
ज ाने</w>
ज वा
ज ब</w>
ज न्
छोड़ कर</w>
छ ह</w>
चु की</w>
चि त</w>
चा ई</w>
घो षित</w>
घ ाटी</w>
गै र-
गुजरा त</w>
गति शील</w>
ग ों
ग या,</w>
ग ढ़</w>
ख ान
ख र</w>
क्षेत्र ों</w>
क्षे प</w>
क्ट ूबर</w>
केन्द्र शासित</w>
केन् द्र</w>
काम का
कामका ज</w>
करो ड़
कर े
कं पन
क ्रि
क मांड
क प</w>
क टिबंधीय</w>
ऑ फ</w>
ऑ परेशन</w>
एश न</w>
ऊँ चाई</w>
ऊ पर</w>
उनक ा</w>
उत्पा द</w>
उत्तर -प
उत्तर-प श्चि
उ ष्ण</w>
इंड ो
आस पास</w>
आत े</w>
आग े</w>
आकर् मण</w>
आं दोलन</w>
आ धार</w>
आ ज</w>
आ ई</w>
आ ंत
आंत रिक</w>
अव शेष</w>
अव धि</w>
अमेर िका</w>
अभ ियान</w>
अन्त र्
अन् तर
अन् ततः</w>
अन् त</w>
अत ि</w>
अ लावा</w>
अ नि
अ च्छ
अ क्टूबर</w>
ंज न</w>
ं ।</w>
ँ च</w>
| mon
|mon th
|month =</w>
| last
|last 2
|last2 =</w>
| fir
|fir st
|first 1
|first1 =</w>
umb ai
umbai :</w>
s ),</w>
oun try</w>
on :</w>
om b
omb ay</w>
ol um
ii i,</w>
es h</w>
col our</w>
bo ok</w>
W ild
SB N</w>
S .</w>
R .</w>
P ress</w>
Nat ural</w>
M umbai:</w>
M ill
M ac
Lond on:</w>
Joh n</w>
J .</w>
I SBN</w>
Chang e</w>
C ountry</w>
C ambridge</w>
Bo ok
B ra
B ombay</w>
Ar chived</w>
Anth olog
3 0</w>
200 3</w>
200 0,</w>
2 7
199 9</w>
199 0</w>
196 2</w>
196 0</w>
195 1</w>
19 </w>
19 2,</w>
1 2</w>
.৬ %</w>
- ধাঁচ
(২০০১ ),</w>
(২০ ০৬
(২০ ০৪
(১৯ ৯৯),</w>
( వెనుకటి</w>
( হিন্দি
( এন
( ०,
( W
%) ।</w>
‌ ఫ
ొ మ
ే ధ
ృ హ
ృ </w>
ూ —
హ ొ
స ొ
వ ూ
వ జ
ళ వ
ల భ
ల ఘ
ర ొ
ర బ
య ూ
య థ
మ ో
భ జ
ప ౌ
ప -
న బ
ద ృ
ద స
ద శ
ద ప
త గ
డ బ
ఞ ా
జ ౌ
చ .
ఔ ట
ఓ డ
ఏ ట
ఏ .
ఎ మ
ఇ య
ఆ య
ఆ ట
ఆ </w>
ః </w>
ం థ
৬ °
১ –
ৌ হ
ৌ শ
ৌ </w>
হ ট
স ৈ
স ও
ষ ো
ষ ল
ষ চ
শ র
র ঙ
র ং
য ৌ
য খ
ব -
ফ ৌ
ফ </w>
প ঁ
দ ৃ
দ ণ
দ খ
দ ং
থ প
ত ৎ
ত হ
ত খ
ড ু
ঠ ো
ট )
চ ো
খ —
ও ষ
ও ন
ও ণ
ঐ ক
ঋ ত
ঊ ন
উ ই
ই র
ই -
আ হ
আ ও
অ -
ο ί
ā n
° ৭
e è
e ´
^ </w>
Z </w>
Y v
X </w>
N )
M </w>
L </w>
G l
G </w>
D </w>
C .
B /
A P
? </w>
8 -
. మ
- ఇ
) -
( శ
( ట
( గ
( ఉ
( ఇ
( ఆ
( ভ
( উ
( ই
( আ
† </w>
“ R
‘ द
— এই</w>
‍ व</w>
‍ प
‌క ాత
‌కాత ా</w>
‌ లో</w>
్వ త్ర
్వత్ర ిక</w>
్ల మె
్లమె ంట
్రా బ్
్రా న్
్ర ో
్ర ి
్య ా
్య ం,</w>
్మ ూ</w>
ోర ల్</w>
ే .</w>
ెల ్ల
ెల కొ
ూడ ండ
ుల తో</w>
ు త్</w>
ు తు
ుతు న్న</w>
ు త</w>
ు .</w>
ీష ు</w>
ీ. పూ
ీ.పూ .
ీ ం</w>
ీ .</w>
ివ ర్
ిల్లీ- లా
ిల్లీ-లా హో
ిల ్</w>
ిన ీ</w>
ిక ్‌</w>
ిక ్క
ిక లు</w>
ిక ంగా</w>
ించి నట
ించినట ్లు</w>
ించి న
ించాల నే</w>
ించ ి</w>
ిం ప
ిం చుకో
ాలు :</w>
ాల ్</w>
ాయ ుత</w>
ాయ ు</w>
ాయ ి
ాయ ాలు</w>
ాన ్య</w>
ాన ు</w>
ాన ీ</w>
ాత ం</w>
ా క</w>
హై ద
హైద రా
హిమాల య</w>
హిందూ దేశం</w>
హి ళ
హ ార</w>
స్వాతంత్ర ్యం</w>
స్వాతంత్ర ్య</w>
స్థాన ాలను</w>
స్థాన ం</w>
స్థా వరాలు</w>
స్థ ితి</w>
స్త్ర ీలు</w>
స్తా న్
స్త ారు</w>
స్త ాయి.</w>
స్ట ్</w>
స్ వీ
స్ లి
స్లి ం</w>
స్ కరణ
సౌకర్య ాలు</w>
సౌకర్య ాలలో</w>
సైన ిక</w>
సూ చ
సూచ ించినట్లు</w>
సు ప్ర
సుప్ర ీం</w>
సియ ాలో</w>
సినిమ ాలు</w>
సిం ధూ
సింధూ నద
సిం ధు
సి ద్ధి</w>
సార ్వత్రిక</w>
సామ ర్
సామర్ థ
సామర్థ ్యం</w>
సాధ ించిన</w>
సాధ ించ
సాంప్రదాయ ిక</w>
సాం కే
సాంకే త
సాంకేత ిక</w>
సా హ
సా మా
సామా జ
సామాజ ిక,</w>
సహ స
సహస ్రాబ్
సరిహద్ద ుగా</w>
సముద్ర తీ
సముద్ర ం,</w>
సమాఖ్య .</w>
సభ్య ులు</w>
సభ ను</w>
సం స్కరణ
సం ఖ్య</w>
స ిక్క
స ి</w>
స న</w>
ష్ ణ</w>
షయ ాలు</w>
శెల వు
శెలవు దినాలు</w>
శా సన</w>
శా ఖ
శ ్వ
శ ైల
శ క్
శ కు
వ్యాప ార
వైవిధ ్య
వే ల</w>
వే ద
వే .</w>
వు లు,</w>
వు తుంది.</w>
విస్ తీ
విస్తీ ర్
విద్య ుత్</w>
వి షయాలు</w>
వి లు
వి దేశ
విదేశ ీ</w>
వి త్ర
వారస త్వ
వాణిజ ్య</w>
వా హ
వా న్ని</w>
వా దం</w>
వల స</w>
వల న</w>
వర్ గ
వర ీ</w>
వన ాలు</w>
వచ్చి న</w>
వ ెల్ల
వ ి</w>
వ ాయు</w>
ళ్ ళ
ళి ,</w>
ళ ిక</w>
లో య</w>
లో మీ
లోమీ టర్
లోమీటర్ లకు</w>
లో నే</w>
లో క్‌
లో క్</w>
లు చుకో
లుచుకో వడం</w>
లు గా</w>
లు :</w>
లం ప
లం క
ల ౌక
ల తో,</w>
ర్య ాయాలు</w>
ర్ ‌
ర్ షణ
ర్ వాత
ర్ య</w>
ర్ జాతీయ</w>
రో పా</w>
రైల్ వే
రెండ ు
రెండ వ</w>
రూ పా
రూపా ంత
రు గు
రుగు బా
రుగుబా టు</w>
రి .</w>
రాష్ట్ర ాలు</w>
రాష్ట్ర ాలు,</w>
రాష్ట్ర ప
రాష్ట్ర </w>
రాజ్యాంగ ం</w>
రాజ్య ాలుగా</w>
రాజ్య ాలు</w>
రాజ్య ంగా</w>
రాజ ్య</w>
రాజ ు</w>
రా జక
రాజక ీయ
రహద ార
రచ యి
రచయి త
ర ిక
యో జన
యో గి
యి ంది.</w>
యా ళం
యమ ించబ
య ుగ
య ాత్ర
మౌ ర్య</w>
మొదల గు
మొ ద
మొద టి
మై </w>
మే నన
మేనన ి</w>
మే .</w>
మె రిక
ముఖ్య ంగా</w>
ముంబ ై</w>
ము స్లిం</w>
ము డి</w>
ము ,</w>
మీ దగా</w>
మి స్తు
మాత్ర మే</w>
మా న</w>
మా ట్ల
మాట్ల ాడ
మహా త్మ
మహాత్మ ా</w>
మల యాళం
మర ో</w>
మన దేశం</w>
మత ి</w>
మ ిత
మ ారు
మ హిళ
భౌ గో
భౌగో ళిక</w>
భూ భాగం</w>
భూ టా
భాష ా</w>
భాష లను</w>
భారత్ ‌లో</w>
భారత్ ,</w>
భారతీ య
భారతదేశం .</w>
భారత దేశ
భార తం,</w>
భా గా
భాగా న్ని</w>
భా గం
భ క్
బ్రిటిష ్</w>
బ్రిటిష ు</w>
బ్రి టీ
బ్రిటీ ష
బౌ ద్ధ
బెంగాల ీ</w>
బా దు</w>
బడత ారు.</w>
బంగ్లా దేశ
బంగ్లాదేశ ్‌
బంగ ారు</w>
ప్రాంత ీయ</w>
ప్రాంత ాల్లో</w>
ప్రస్తు తమ
ప్రస్తుతమ ు</w>
ప్రము ఖమ
ప్రముఖమ ైన
ప్రభుత్ వాన్ని</w>
ప్రభుత్ వ</w>
ప్రపంచం లోని</w>
ప్రపంచ ములో</w>
ప్రపంచ ంలో</w>
ప్రతిపాదన కు</w>
ప్రతి పక్ష
ప్రజా స్వామ్య</w>
ప్రజా దర
ప్రజాదర ణ</w>
ప్రజల ు</w>
ప్ర ిల్</w>
ప్ర ాయ
ప్ర సిద్ధి</w>
ప్ర యోజన
ప్ర దేశ
ప్ర త్య
ప్ర జల</w>
ప్పటిక ినీ</w>
ప్ పు
ప్పు కో
ప్ ప
పో యింది.</w>
పొంద ిన</w>
పేరు ,</w>
పూర్ వ
పూర్ తిగా</w>
పూ .</w>
పుట్ట ి
పు తూ</w>
పు ణ
పుణ ులు</w>
పీఠ భూ
పాలించ ారు.</w>
పాల న
పార్ట ీ,</w>
పార్ట ీ
పార ్లమెంట
పాకిస్థా న్,</w>
పాకి స్తాన్</w>
పా వ
పా డు
పాడు కుంట
పా ండ
పశ్చి మ</w>
పల ్ల
పల ు</w>
పరి పాలన</w>
పర ీ
పద్ధ తి
పట్టణ ాలు,</w>
పండుగ లు</w>
పండ ు</w>
ప ్ల
ప ై</w>
ప విత్ర
ప ర్యాయాలు</w>
ప ద్
పద్ ధత
ప తా
ప డు
ప డిన</w>
ప క్క
పక్క న</w>
న్న ై</w>
న్న ీ</w>
నేపాల ్,</w>
నే రే
నె హ
ను లు,</w>
నిర్వహ ించింది.</w>
నిర్వహ ణ</w>
ని స్తాన్</w>
ని యమించబ
ని పుణులు</w>
ని డి
నిడి వి
ని జాలు</w>
నాయక త్
నాగరిక త
నా థ
నడిపిం చట
నగర ాలు</w>
నగర ాల
న ెలకొ
న ీ</w>
న ప్పటికినీ</w>
ధ ి</w>
దేశం .</w>
దేశ ాలను</w>
దే శా
దే శ</w>
దాయ ంలో</w>
దాదా పు</w>
దర ంగ
దక్షి ణ
ద ుగా</w>
ద ండ
తెలుగు ,</w>
తూ ర్
తు లు
తి రుగుబాటు</w>
తి ని</w>
తన ు</w>
త ా</w>
త ర్వాత
త ంత్ర</w>
త ంగా</w>
ఢిల్ల ీ</w>
ఢా కా
ఢాకా -ఢ
ఢాకా-ఢ ిల్లీ-లాహో
డ్ డీ
డై న</w>
డు కు</w>
డి స్
డ ాయి.</w>
టై టి
ట ోరల్</w>
ట ిక
ట క</w>
ట ం</w>
జాత ులు,</w>
జరుపు కుంటారు.</w>
జరిగ ే</w>
జమ ్మూ</w>
జనాభ ాతో</w>
జనగణ న</w>
జన వరి</w>
జన తా</w>
జ ైన
చ్ చు.</w>
చైన ాను</w>
చై నా,</w>
చే సింది.</w>
చెంద ుతున్న</w>
చెంద ాయి.</w>
చె ప్పుకో
చె న్నై</w>
చు కు
చారిత్ర క</w>
చన ి</w>
చ ూడండ
చ వి
చ దరంగ
గో దా
గె లుచుకోవడం</w>
గుర్త ిం
గు వ</w>
గణ తంత్ర</w>
గ ్రా
గ ్ర
గ లు
గ మన
గ త</w>
గ ంగ
ఖ నిజాలు</w>
క్రీడ ా</w>
క్రీడ లలో</w>
క్ర ీ.పూ.
క్యాలెండ ర్
క్ టోరల్</w>
క్ ,</w>
కోల్ ‌కాతా</w>
కోర్ట ులు</w>
కోర్ టు
కోట్ల కు</w>
కో బడతారు.</w>
కృ ష్
కూడుకు ని</w>
కూడు కొ
కూడ ి</w>
కుటుంబ </w>
కు ,</w>
కింద కు</w>
కి లోమీటర్లకు</w>
కాల ేజ
కాల ంలో,</w>
కార్యక్రమ ాలు</w>
కార ణంగా</w>
కాంగ్ర ెస్</w>
కా హార</w>
కా పాడుకుంట
కా గా</w>
కలి సి</w>
కలి గి
కబ డ్డీ
కను క</w>
కంపె నీ</w>
క ూ</w>
క ల్ప
క ల్
క ంటే</w>
ఒకటి గా</w>
ఒక టి</w>
ఒ లంప
ఒ కే
ఐ రోపా</w>
ఏర్పడ్ డాయి.</w>
ఏ ప్రిల్</w>
ఎల క్టోరల్</w>
ఎన్ను కోబడతారు.</w>
ఎన్నిక ల్లో</w>
ఎక్కు వ</w>
ఉప యోగి
ఉత్తరా న</w>
ఈశ ాన్య</w>
ఈ స్ట్</w>
ఇవ ిక
ఇంగ్ల ీషు</w>
ఇ టీ
ఇ క్క
ఇ ంద
ఆధార పడిన</w>
అయి నా,</w>
అధికార ం</w>
అధికార </w>
అతి పెద్ద</w>
అ వి
అ మెరిక
అ క్షరాస్యత</w>
అ ంద
అ ంత
అంత ర్జాతీయ</w>
అ ంట
ంద ్</w>
ండ ా</w>
ంట ు
ం :</w>
৯৯ </w>
৯৮ ),</w>
৯৭ ৮
৯৭৮ -৩
৯৭৮-৩ -৮
৯৭ ),</w>
৯৪ )।</w>
৯০ )।</w>
৯% )</w>
৯ ৩-
৮ ১৭
৮১৭ ০১
৭, ৫১
৭,৫১ ৭</w>
৭ ১</w>
৬ ০</w>
৫ ৪৪
৪ ০১
৪০১ ৩৮
৩৭ ০</w>
৩২ ।</w>
২৮ টি</w>
২১ .
২০০ ৪</w>
২০০ ৩</w>
২ ৬</w>
২ ।</w>
১৯৯ ৬</w>
১৯৮ ০</w>
১৯৭ ৫</w>
১৯৭ ৪</w>
১৯৭ ১</w>
১৯৫ ১</w>
১৯৫ ০-এর</w>
১৯ ৯৯</w>
১৯ ৬
১২ .৬%</w>
১ ৮</w>
১ ৬.
০৭ )।</w>
০১ ৪০১৩৮
০-১৯-৫৬ ৪৫
০-১৯-৫৬ ২১৬
০-১৯- ২৮
০- ৮
০- ৭৬
০- ৫২১
্স ি</w>
্রে ণী
্রেণী র</w>
্রি লিয়ন</w>
্রাস ন</w>
্রাস </w>
্রা ন্স</w>
্র িজ
্রিজ </w>
্র াট
্র মে</w>
্র প্রদেশের</w>
্যাদ ি</w>
্যা লে
্যা ল</w>
্যা য়</w>
্যা ন</w>
্য স্
্য ভাবে</w>
্য ভট
্য ন্
্যন্ তর
্যন্তর ীণ</w>
্ট ্র
্ট ি
োম ি</w>
োব র</w>
ো সিয়
োসিয় েশন</w>
ো ত্
োত্ তর</w>
ো ক্ষ
োক্ষ ভাবে</w>
েস ।</w>
েশ নের</w>
েল প
েলপ মে
েলপমে ন্ট</w>
ের ণ</w>
েম্ব র</w>
েছ ে</w>
েছ িল।</w>
ে ও</w>
ৃত ্য
ৃত :</w>
ুক ে</w>
ীল ঙ্
ীলঙ্ কা
ীর ে</w>
ীর া</w>
ীত ,</w>
ীক ৃত:</w>
ী সৃ
ী ষ্
ী দের</w>
ি র</w>
াস োসিয়েশন</w>
ার ্সি</w>
ার ্থ
ার ্চ</w>
ার ি
ার ণ
ার কম্পিউ
ার ও</w>
ার ।</w>
াম ীণ</w>
ান -১
াদ ্য</w>
াদ ে</w>
াত া</w>
াই না
হিসে ব</w>
হিন্দু স্ত
হিন্দু ধর্ম</w>
হিন্ দ
হিন্দ ু</w>
হি লা
হিলা দের</w>
হায় দ্রা
হা স
হাস িক</w>
হা জার</w>
হা ইড
হাইড ্র
হয়েছ েন।</w>
হয োগ
হত ে</w>
হও য়া</w>
হ ্রাস</w>
হ েরু</w>
হ ি</w>
হ ারও</w>
হ ন</w>
স্বাধীন োত্তর</w>
স্বা ‌
স্বা ভা
স্বাভা বিক</w>
স্থাপত ্য
স্থান ের</w>
স্থান ।</w>
স্থা য়ী</w>
স্থ ল
স্ত্র ীয়</w>
স্তন্যপা য়ী</w>
স্ত ানের</w>
স্ট িক</w>
স্ মাই
স্মাই লি
স্মাইলি ং</w>
স্ বত
স্বত ন্ত্র</w>
স্ ব</w>
স্ প
স্ থ</w>
সে প্ট
সে না
সৃষ ্টি</w>
সূ ত্র
সূত্র পাত</w>
সুপ ারকম্পিউ
সু মি</w>
সীমা ন্ত</w>
সিংহ ভাগ</w>
সি সি</w>
সি রিজ
সি পা
সিপা হি</w>
সি দ্ধ</w>
সাহিত ্যিক</w>
সাহিত ্য</w>
সাহিত ্য
সাধারণত ন্ত্র</w>
সাধারণত ন্ত্র
সাধারণতন্ত্র ।</w>
সাউ থ</w>
সা র</w>
সা য়
সা ক্ষ
সহায় তা</w>
সহ -আ
সহ-আ য়
সহ-আয় োজক</w>
সর ীসৃ
সর বরা
সরবরা হকারী</w>
সর ঞ্জা
সম্মি লিত</w>
সম্প্রদা য়ের</w>
সম্প্রদা য়</w>
সম্পর্ কের</w>
সমৃ দ্ধি</w>
সমৃ দ্ধ</w>
সমাজ তান্ত্র
সমাজতান্ত্র িক
সমা ন্ত
সমান্ত রা
সম ্রাট
সম ভূমির</w>
সম ভূমি</w>
সম তার</w>
সম তা</w>
সম ত
সমত ূল
সফ টও
সফটও য়
সফটওয় ্যার</w>
সদস ্য।</w>
সদস ্য</w>
সদস ্য
সঙ্গী তের</w>
সঙ্গ ীত,</w>
সংস্ কার</w>
সংস্ কার
সংস্কার ের</w>
সংসদ ে</w>
সংস দ</w>
সংর ক্ষণের</w>
সংবিধান ের</w>
সংঘর্ ষ</w>
সং স্থা
সং যোগ</w>
সং ক্ষি
সংক্ষি প্ত</w>
স- প্র
স-প্র সিদ্ধ</w>
স ে</w>
স হযোগ
স হকারী</w>
স ত্ত্
সত্ত্ বে
সত্ত্বে ও</w>
স ড</w>
স ঞ্চ
স কল
সকল কে
সকলকে ই</w>
ষ্ঠ ী</w>
ষ্ ণা
ষণ ারণ
ষ ি</w>
ষ ষ্ঠ</w>
শ্র ীলঙ্কা
শৈ লি
শিল্প ।</w>
শিল্প </w>
শি শু
শি ক্ষিত</w>
শাসনা ধীন
শা স্ত্রীয়</w>
শা ল</w>
শা ন্
শান্ তি
শহ রাঞ্চ
শব্দ </w>
শতাংশ ে</w>
শতাংশ ,</w>
শক ে</w>
শ ী</w>
ল্ল ি</w>
লোকস ভা
লে ,</w>
লু প্ত
লী য়</w>
লি খি
লিখি ত</w>
লা ক্ষা
লক ্রমে</w>
লক ে</w>
ল ী</w>
ল গুলি</w>
র্ধ মান</w>
র্ ভ
র্ভ স্থ</w>
র্ ণ</w>
র্ ঘ
র্ঘ ্য</w>
রো ধ</w>
রি খে</w>
রাষ্ট্র ের</w>
রাষ্ট্র প
রাজ া</w>
রা সায়
রা র</w>
রা য়</w>
রা মন
রা ণ</w>
রা ণ
রাণ িক</w>
রন্ধন শৈ
রত া</w>
র ্য</w>
র বী
রবী ন্দ্র
র প্ত
র ত্
র ক্ষার</w>
র ক্ষ
রক্ষ ী</w>
র ।</w>
র ,</w>
যে টি</w>
যে খ
যেখ ানে</w>
যুক্তরাষ্ট্র ের</w>
যু গীয়</w>
যু গ
যা য়
যায় :</w>
যা ত্র
যাত্র া,</w>
য়েন্ টি
য়েন্টি -
য়েন্টি- ২০</w>
য়েছ ে।</w>
য়ে ই</w>
য়া ল</w>
য়া র</w>
য়া ম</w>
য় ী,</w>
য় াল
য় াদে</w>
য় াট
য় তা</w>
য় টি</w>
য ান-১
য থে
যথে ষ্ট</w>
ম্ব ী</w>
ম্ব ই</w>
মৌ সুমি</w>
মৌ র্য</w>
মো দী</w>
মে য়াদে</w>
মুসল মান
মু ম্বই</w>
মু খ
মু ক্ত</w>
মি নি
মাল য়াল
মাল ভূমি</w>
মান ব
মান ,</w>
মাঝ ি</w>
মাইল )।</w>
মাইল )</w>
মা পে</w>
মা ন্বয়ে</w>
মা থা
মাথা পি
মাথাপি ছ
মাথাপিছ ু</w>
মা ত্র
মাত্র ায়</w>
মা ঞ্চ
মাঞ্চ লে</w>
মা ঝা
মাঝা মাঝি</w>
মহান গ
মহানগ রী
মহাকা শ</w>
মহাকা ব্য</w>
মহা সাগর
মহা মত
মহামত ি</w>
মরু ভূমি</w>
মব ্রিজ</w>
মব র্ধমান</w>
মন্ত্র ী</w>
মন ে</w>
মধ্য েই</w>
মধ্য যুগীয়</w>
ম ্যা
ম ীর
ম হিলাদের</w>
ম ণি
মণি পু
ভূমিক া</w>
ভূমি ।</w>
ভূ তা
ভূতা ত্ত্
ভূতাত্ত্ বিক</w>
ভূ গো
ভূগো ল</w>
ভূ গ
ভূগ র্ভস্থ</w>
ভিত্ তিতে</w>
ভি ,</w>
ভাষাগো ষ্ঠী
ভাষা কে</w>
ভারত- চী
ভারত-চী ন</w>
ভার তব
ভারতব র্ষ
ভার ত।</w>
ভার ত
ভারত বাসী</w>
ভা ভ
ভাভ া</w>
ভা ন্
ভান্ সড</w>
ভ েষ
ভ েলপমেন্ট</w>
ভ রত
ভ ব</w>
ব্যা ঙ্
ব্যা খ্যা
বো ধি
বো ঝা
বোঝা য়।</w>
বৈচিত্র্য ময়</w>
বৈচিত্র্য ম
বৈ ষম
বৈ দিক</w>
বেশ ী</w>
বে সরকারি</w>
বে ষ্ট
বে ড়
বে ঙ্গাল
বৃহত্ তম।</w>
বু দ্ধ
বিস্ তার
বিস্তার িত</w>
বিশ্বকা পের</w>
বিরো ধ</w>
বিভক্ ত</w>
বিজেপি- বিরোধী</w>
বিজয় ী।</w>
বিজ য়ী</w>
বিচ্ছি ন্
বিচ্ ছে
বি নিয়
বিনিয় োগের</w>
বি দ্রো
বিদ্রো হ</w>
বি ড়</w>
বি জ্ঞ
বি জ্
বিজ্ ঞা
বিজ্ঞা ন</w>
বি চার</w>
বাহ ী</w>
বাহ িক
বাল ্য
বায়ুপ্র বাহ
বাদ শ</w>
বাণিজ ্য
বা হা
বা ংল
বাংল া</w>
বহি র্
বহ ু</w>
বস বাস</w>
বস বা
বল ম্বী</w>
বর্ণ ীকৃত:</w>
বর্ ষা</w>
বর্ ষণারণ
বর্ ণি
বর্ণি ত</w>
বরা বর</w>
বন্য প্রাণী</w>
বন ্যা</w>
বধ ানে</w>
বছ রের</w>
বছ রে</w>
বছ র।</w>
বঙ্গোপ সাগরে</w>
বঙ্ গের</w>
ব স্ত্র
ব লিউড</w>
ব য়
ব ন্ধ
বন্ধ ন</w>
ব জা
বজা য়</w>
ব ঙ্গ
ব ক্ষেত্র</w>
ব ংশ
ফ্র ন্ট</w>
ফে র</w>
ফিল ্
ফ ্রান্স</w>
ফ ার্সি</w>
ফ াইনা
ফ র</w>
প্রাধ ান্য</w>
প্রথম ে</w>
প্রতিষ্ঠ াতা</w>
প্রতিযোগিতা ,</w>
প্রতি হত</w>
প্রতি রোধ</w>
প্রতি রক্ষা</w>
প্রতি বেশী</w>
প্রতি বর্ণীকৃত:</w>
প্রজাতন্ত্র ,</w>
প্রজাত ন্ত্র</w>
প্রচল িত।</w>
প্র েস।</w>
প্র েরণ</w>
প্র শাসন</w>
প্র য়
প্র ভূত</w>
প্র বেশ</w>
প্র দেশ</w>
প্র থা
প্রথা গতভাবে</w>
প্র ণ
প্র জাতি</w>
প্র জাতি
প্র ক্র
প্রক্র ি
প্র কাশ</w>
প্ তি</w>
পৌ রাণিক</w>
পোশা কের</w>
পোশা ক</w>
পে য়ে</w>
পূর্ব নাম</w>
পূর্ বে
পূ জা
পুন রায়</w>
পু ষ্ট
পিপি পি
পিপিপি )</w>
পার সি</w>
পাত টি</w>
পাকি স্তানের</w>
পাও য়ায়</w>
পাঁচ টি</w>
পা লন</w>
পা র</w>
পা ত,</w>
পা ঞ্জা
পা খি
পা ক-
পাক- ভারত</w>
পশ্চিম বঙ্গের</w>
পর্বতমা লার</w>
পর্বতমা লা
পর্ বে</w>
পরিষে বার</w>
পরিষে বা</w>
পরিবর্ তনের</w>
পরিব ার
পরিচাল নার</w>
পরিচ িত।</w>
পরি মাপে</w>
পরি মাণ</w>
পরি বেশ
পরি চালিত</w>
পর োক্ষভাবে</w>
পর িষ
পর িক
পর ি</w>
পদ ার্থ
পথ ে</w>
পণ ্যের</w>
ন্ন ড়
ন্ধ ্রপ্রদেশের</w>
ন্ত্র ের</w>
ন্ত ু</w>
ন্ড া</w>
ন্ দ
ন্ তী
ন্ ডো
ন্ডো য়ান
নোবে ল</w>
নে হেরু</w>
নে য়।</w>
নে মে</w>
নৃত্য কলা
নৃত ্য</w>
নী তির</w>
নির্বা চ
নির্ ধার
নিদর্শন ।</w>
নিক োবর</w>
নিক টব
নিকটব র্তী</w>
নি ষে
নি রিখে</w>
নি জ
নিজ স্ব</w>
নি ।</w>
নাম মাত্র</w>
নাম ক</w>
নাট ক</w>
না য়</w>
না ত্ম
নাত্ম ক</w>
না ড়ুর</w>
না গ
নদী গুলির</w>
নদী গুলি</w>
নত ি</w>
নগ রাঞ্চ
ন ্যস্
ন ান
ন য়।</w>
ধ্রুপ দী</w>
ধী ন</w>
ধি ত</w>
ধর্মী য়</w>
ধর া</w>
ধ ীরে</w>
দ্রা বিড়</w>
দ্র ুত
দ্র ব্য
দ্বীপ ীয়</w>
দ্বি তীয়</w>
দ্বি গু
দ্বিগু ণ।</w>
দ্বি কক্ষ
দ্বিকক্ষ বিশিষ্ট</w>
দ্ বাদশ</w>
দৈ র্ঘ্য</w>
দেশ জ</w>
দেশ গুলির</w>
দে শকে</w>
দে ও
দু ল</w>
দি ল্
দি য়েছে।</w>
দি ।</w>
দি ,</w>
দারিদ্র ্য
দাক্ষিণাত ্য</w>
দা বা</w>
দক্ষি ণে</w>
দক্ষি ণ-
দ প্তর
থেকে ,</w>
থান শীল</w>
থাকত ে</w>
থা ন</w>
থা কে</w>
থব ্যবস্থা</w>
থ- সামাজিক</w>
থ িক</w>
তেলুগু </w>
তে ল
তে ও</w>
তে ই</w>
তে ।</w>
তে ,</w>
তুল নায়</w>
তিন ি</w>
তিন টি</w>
তি ন</w>
তার া</w>
তার পর</w>
তামিল নাড়ুর</w>
তামি ল</w>
তা মা
তা -
তা ,</w>
তথ ্য
ত ানি</w>
ত ন্ত্রের</w>
ত ন</w>
ত ত্ত্
ণ ী</w>
ণ াট
ণ ,</w>
ডে ভেলপমেন্ট</w>
ডি এ
ডিএ )</w>
ড ি</w>
টো য়েন্টি-২০</w>
টে ।</w>
টা য়।</w>
টা ন</w>
ট ্রিলিয়ন</w>
ট ে</w>
ট িতে</w>
ঞ্ জি</w>
জ্যোতি র্
জো টের</w>
জৈ বক্ষেত্র</w>
জৈ ন</w>
জে র</w>
জু ড়ে</w>
জীব বৈচিত্র্যের</w>
জিডি পি</w>
জলবায় ুর</w>
জলবায় ু</w>
জরা থ
জরা টের</w>
জয় লাভ</w>
জয় ন্তী
জনপ্রি য়তা</w>
জন ্য
জন বহুল</w>
জন বসতি</w>
জ ে</w>
জ ানুয়ারি</w>
জ লা
জ মি
জ ন্
ছোট ো</w>
ছে র</w>
ছিল ,</w>
ছি লে
চ্ ছে।</w>
চী নের</w>
চি র</w>
চাল ু</w>
চন্দ্র যান-১
চ ্যালে
চ ীন
ঙ্গে য়</w>
ঙ্ ক
ঘো ষিত</w>
ঘট ে</w>
ঘট না
ঘ াট
ঘ টে।</w>
ঘ টায়।</w>
গ্রা মাঞ্চলে</w>
গ্রা ম</w>
গ্র ীষ্
গ্র িক</w>
গ্র ামীণ</w>
গ্র ন্
গৌ তম</w>
গুলি ও</w>
গু প্ত</w>
গু জরাটের</w>
গা ন</w>
গা ছ</w>
গা ঙ্গেয়</w>
গবে ষণা</w>
গণ ্য</w>
গণ -
গঠ িত।</w>
গঠ ন
গ ্য
গ ৃহ
গ ন্ডোয়ান
খ্রিষ্টপূর্বাব্দ ।</w>
খ্রি স্ট
খ্যা ত</w>
খে লা
খ ্য,</w>
খ াদ্য</w>
খ াত
খ নিজ</w>
ক্ষে র</w>
ক্ষম তা
ক্ষ ে</w>
ক্রিক েট
ক্রান্ তীয়</w>
ক্র ো
ক্র ী
ক্র মান্বয়ে</w>
ক্র মবর্ধমান</w>
ক্ লি
কোম্প ানির</w>
কোম্প ানি
কো শী</w>
কে মব্রিজ</w>
কৃত ্রিম</w>
কৃ ষি</w>
কি ন্তু</w>
কাশ্ মীর
কার ী</w>
কার ণ।</w>
কাবা ডি</w>
কা লে,</w>
কা লক্রমে</w>
কা ল
কা জে</w>
কা জ</w>
কল ্প
কর্মসূ চির</w>
কর্ তৃত্ব</w>
কর্ ণাট
করে ছে</w>
করে ছে
করে ছিলে
করে ছিল।</w>
কর তেও</w>
কর ণ,</w>
কর ছে।</w>
কর ছে</w>
কংগ ্রেস
ক ্যা
ক ী</w>
ক রার</w>
ক ম</w>
ক থা
ক খনো</w>
ওপ র</w>
ও য়
ও ড়
ও ,</w>
ঐতিহ্য বাহী</w>
ঐতিহ ্যের</w>
ঐতি হাসিক</w>
এসএল ভি,</w>
এস েছে।</w>
এঁ দের</w>
এ দেশে</w>
এ ক্তি
উৎসব ও</w>
উৎপাদ ন</w>
উৎপ ত্তি</w>
উৎ ক্ষে
উল্লেখযোগ ্যভাবে</w>
উল্লেখযোগ ্য।</w>
উল্লে খ্য,</w>
উভ য়েই</w>
উভ চর
উপমহা দেশ</w>
উপনি বেশ
উপকূল রেখার</w>
উপ িএ
উপ দ্বীপের</w>
উপ দ্বীপীয়</w>
উপ দ্বীপ</w>
উদ্ভি দের</w>
উদ্ ভব</w>
উত্তর- পূর্বাঞ্চ
উত্ থানশীল</w>
উচ্চ ার
উচ্চ </w>
ঈ দুল</w>
ইস লা
ইল ,</w>
ইন্দি আ</w>
ইন্ডিয়া ন</w>
ইন্ডি য়া</w>
ইতিহা সে</w>
ইতিহা স</w>
ইতিহা স-প্রসিদ্ধ</w>
ইত ্যাদি</w>
ইট ,</w>
ইউনিভার্সি টি</w>
ইংরে জি
ই ।</w>
আস ে</w>
আর্ থিক</w>
আর্ থ-সামাজিক</w>
আর ্যভট
আয় োজিত</w>
আয় তনের</w>
আমদ ানির</w>
আফ্রিক ার</w>
আফ্রিক া</w>
আন্ তর
আধা -
আদি বাসী</w>
আট টি</w>
আজ ও</w>
আগ ্রাসন</w>
আগ স্ট</w>
আগ ত</w>
আই সিসি</w>
আই ন
আ সা
আ সন
আ য়</w>
আ ছে।</w>
আ কর
অ্যাড ভান্সড</w>
অ্য াসোসিয়েশন</w>
অর্থ নীতি</w>
অর্থ নী
অর্ থব্যবস্থা</w>
অর্ জন</w>
অরণ ্য</w>
অরণ ্য
অভ ্যন্তরীণ</w>
অবস্থা ন</w>
অব লু
অব বাহিক
অপ ারেশন</w>
অধিকার ী।</w>
অঞ্চলে ই</w>
অঞ্চল গুলি</w>
অঞ্চ লকে</w>
অংশ ে</w>
অং শ</w>
অ ্যান্ড</w>
অ স্থি
অ স্ত্র
অ ন্ধ্রপ্রদেশের</w>
ং শে
॰ </w>
८ ५</w>
७ ९.
६ ६</w>
५ -
३ २</w>
३ ,
२०१ १</w>
२० ०</w>
२ ८</w>
२ ४</w>
२ ३</w>
२ २.
२ ०</w>
१९९ ८</w>
१९९ ६</w>
१९९ ०</w>
१९८ ९</w>
१९८ ०</w>
१९७ ७</w>
१९७ १</w>
१९ ४७
१८ ५
१, ७
१ –
१ ८</w>
१ ३</w>
१ ०००</w>
१ ०</w>
्रि क</w>
्र ो
्रो त</w>
्र ा
्रा ट</w>
्र वा
्रवा ई</w>
्र णी</w>
्याद ि</w>
्या दा
्यादा तर</w>
्य ों
्यों कि</w>
्य ु</w>
्य ात
्य ाचल</w>
्म पु
्द पूर्ण</w>
्ट वे
्टवे यर</w>
्क ट
्कट िका</w>
् षि
्षि क</w>
् ला
्ला देश</w>
ौत े</w>
ो ह</w>
ो ख
ैं तीस</w>
ै निक</w>
ेर ल
ेरल )</w>
ेद ारी</w>
ेड ेरल)</w>
ेख ा</w>
ें द्र</w>
ें ,</w>
ृत ्यु</w>
ू त</w>
ुस ार,</w>
ुक ्यों</w>
ु ण्
ुण् ण</w>
ीस ा</w>
ीं ।</w>
ी ण</w>
ी करण</w>
िया चि
ियाचि न</w>
िय ो</w>
िय ानों</w>
िक ारी</w>
िक र्
िकर् ता</w>
ास तों</w>
ाष्ट ्र</w>
ाव र्त
ाव धान</w>
ाल ,</w>
ार ्दपूर्ण</w>
ार ्कटिका</w>
ार ित</w>
ार ाष्ट्र</w>
ाय ा</w>
ाय द्वीप</w>
ाय दा</w>
ाक ू</w>
ाए ँ</w>
ा ल</w>
ा म</w>
ा ई</w>
ा ंत
़ ग
हो ली,</w>
हुए ।</w>
हुए ,</w>
हिस् सों</w>
हिन्दु स्तान,</w>
हिन्दी -
हिन् द</w>
हिं सा
हिंसा वादी</w>
हि ला
हि ंस
हिंस क</w>
हाला ंक
हालांक ि</w>
हाला ँ
हालाँ कि
हालाँकि ,</w>
हा ं</w>
हर लाल</w>
हन न</w>
हथ िय
ह ्मपु
ह स्ता
हस्ता क्ष
हस्ताक्ष र</w>
ह स्त
हस्त क्षेप</w>
ह वे
हवे ली</w>
ह द</w>
ह -
स्वत न्त्र
स्वतन्त्र ता</w>
स्था ई</w>
स्थ ानों</w>
स्थ ल</w>
स्ट र</w>
स् वर
स्वर ुप</w>
सौह ार्दपूर्ण</w>
सो सि
सोसि एशन</w>
सैन िकों</w>
सेना ,</w>
से ल्
सेल् स
सेल्स ियस</w>
से मी
सू त्र
सु धार
सी ,</w>
सिने मा
सि न्
सिन् धु
सिन्धु -
सिन्धु- गंगा</w>
सि ख</w>
सि ंह
साहि त
साहित ्य</w>
सामन े</w>
सामन ा</w>
सा यन</w>
सा फ़
सा झ
साझ ेदारी</w>
सहि त</w>
सर् वा
सरकार ी</w>
सर ा</w>
सम्प्र भु
सम् मि
सम्मि लित</w>
समा न</w>
समझ ौते</w>
सम ्राट</w>
सम य-
समय- समय</w>
सत र</w>
सक ल</w>
सक र</w>
सं सार</w>
सं बो
संबो धि
संबोधि त</w>
सं बर</w>
सं चाल
संचाल ित</w>
सं ग्र
संग्र ाम</w>
सं गठ
संगठ न</w>
सं ग
संग म</w>
सं क्षि
संक्षि प्त</w>
स ्रोत</w>
स ृ
स ियाचिन</w>
स म</w>
स भा
स च
स क्ष
सक्ष म</w>
ष्ट </w>
षा ण</w>
ष भ
श्रेण ी</w>
शो क</w>
शिय र</w>
शिय न</w>
शि खर</w>
शि कार</w>
शास निक</w>
शा ही</w>
शा सक
शा ं
शह रों</w>
शह री
शहरी करण</w>
शह र</w>
शक् तियों</w>
शक् त
श ्रित</w>
श ृ
श ि</w>
श हरी</w>
श र
श ब्
शब् द</w>
व्य क्ति</w>
वो त्
वोत् तर</w>
वै श्
वे ं</w>
वी न</w>
विभा जित</w>
विभा जन</w>
विभा ग</w>
विद्र ोह</w>
विज् ञा
विज्ञा न</w>
वि शेष</w>
वि शेष
वि मान</w>
वि धि</w>
वि धा
वि त्
वि जय
विजय नगर</w>
वि ज
विज य</w>
वि का</w>
वि ंध
विंध ्याचल</w>
वार ्षिक</w>
वार ्य</w>
वा लों</w>
वा ले</w>
वा ली,</w>
वा ला</w>
वा र</w>
वा यु
वायु सेना</w>
वा म
वाम पंथी</w>
वा ँ</w>
वा ,</w>
वस् तु
वस ,</w>
वश ्य
वर्णि त</w>
वर्गी करण</w>
वज ह</w>
वं श
व ्य</w>
व ाने</w>
व रि
वरि ष्ठ</w>
व क्त</w>
ल् म</w>
लौ ट
लोक सभा</w>
लो कत
लो क</w>
ले शियर</w>
ले ख
ली ।</w>
लि ख
लाख ),</w>
ला वा,</w>
ला ई</w>
ला इ
लत ी</w>
लड़ ाकू</w>
ल ू</w>
ल िया।</w>
ल यों</w>
ल झ
ल घ
र् श</w>
र् मद
र्मद ा</w>
र् जा</w>
रे शियन</w>
रे लू</w>
रे जि
रेजि में
रेजिमें ट</w>
रूप ए</w>
रू पर
रूपर ेखा</w>
री ति
रिय ासतों</w>
रि वा
रि का,</w>
राष्ट्र ों</w>
राष्ट्र पत
राष्ट्रपत ि</w>
राज्य ,</w>
राजा ओं</w>
रा ।</w>
रा शि</w>
रा य
राय ल</w>
रा म</w>
रह ी।</w>
रत् न,</w>
रख ने</w>
र- इन
र-इन -
र-इन- चीफ</w>
र ैंक</w>
र ह</w>
र सायन</w>
र ल</w>
र ंजन</w>
योग ्य</w>
ये ं</w>
यू रेशियन</w>
यू पी
यु द्ध
युद्ध ों</w>
यि क</w>
या ब</w>
यह ू
यश क्ति</w>
य ी</w>
य हां</w>
म्ब े</w>
म् र</w>
मौ सम</w>
मोर्च ा</w>
मैद ानों</w>
में ।</w>
में )</w>
मूल ्यों</w>
मुख्य रूप</w>
मु म्ब
मु द्र
मुद्र ा</w>
मु क्त</w>
मीण ा</w>
मिलियन )</w>
मिलिय न</w>
मिल नाड
मिलनाड ु</w>
मि श्रित</w>
मि ला,</w>
मालदी व,</w>
मार् च</w>
मामल े</w>
मान ी</w>
मा ला</w>
मा ल</w>
मा त्र</w>
मा ता</w>
मा ता
मही ने</w>
महा द्वी
महाद्वी पो
महाद्वीपो ं</w>
महा त्
महात् मा</w>
मह ाराष्ट्र</w>
मह त्
महत् वपूर्ण</w>
मश ः</w>
मना ए</w>
मध्य म
मध्य प्रदेश</w>
मध्य कालीन</w>
मग ध</w>
मंत्र ण</w>
मं च
मंच ों,</w>
म ृत्यु</w>
म ियों</w>
म ार
म हिला
म शी
म नो
मनो रंजन</w>
म जब
मजब ूत</w>
भूम ि</w>
भू -आ
भू-आ कृ
भार त-
भारत- चीन</w>
भा बर</w>
भा ग
भा ई</w>
भर ी</w>
भ ौ
भ क्ति</w>
ब्र ह्मपु
ब् ब
बोल ी</w>
बोल ा</w>
बे टे</w>
बी स
बी ,</w>
बा ल</w>
बा ढ़</w>
बा ंट
बा ंग
बांग ्लादेश</w>
बहु प
बहुप क्ष
बहुपक्ष ीय</w>
बना ।</w>
बना या</w>
बना ए</w>
बना ई।</w>
बना ई,</w>
बन ीं।</w>
बढ़ ो
बढ़ ा।</w>
बंग ाल</w>
ब ैंक</w>
ब ु
ब हा
ब हती</w>
ब लों</w>
ब ल</w>
ब न्
ब ँ
फ्रां स</w>
फ्रां स,</w>
फु ट</w>
फि ल्म</w>
फि र</w>
फ़ ेडेरल)</w>
फ ायदा</w>
फ ल</w>
प्रा प्ति</w>
प्रभा वित</w>
प्रका श</w>
प्र ावधान</w>
प्र ायद्वीप</w>
प्र सि
प्र सार
प्र शासनिक</w>
प्र माण</w>
प्र धान</w>
प्र दर्शन</w>
प्र थ
प्रथ म</w>
प्र चल
प्रचल न</w>
प्र गति</w>
पो र्
पैमान े</w>
पे न</w>
पूर् त
पूर्त िकर्ता</w>
पुरा ने</w>
पुरा ना</w>
पार ंपर
पारंपर िक</w>
पा न</w>
पा त</w>
पा त
पात काल</w>
पा ई</w>
पा इन</w>
पा ंड
पा ँच</w>
पा ँच
पहाड़ ियाँ</w>
पस न्
पसन् द</w>
पर्वत श्रेणी</w>
पर्वत माला</w>
पर् वत</w>
पर न्तु</w>
पर ंपर
परंपर ा</w>
पर ंत
परंत ु</w>
पत ्र
पड़ ा</w>
प ॉ
प ैंतीस</w>
प ी</w>
प रा
प मान</w>
प द</w>
प थ
न्ह े</w>
न्याया लयों</w>
न्याया धिकार</w>
न्याय पालिका</w>
न् न
न् द्र</w>
न् तु
नेतृत् ‍व</w>
ने शिया</w>
ने पाल</w>
नृत ्य</w>
निवे श</w>
निर् माता
निर् भर</w>
निरपे क्ष
निर ्यात
नियु क्ति</w>
नियंत्र ण</w>
निम् नव
निम्नव त</w>
निम् न
नि ष्ठ</w>
नाट क</w>
नागर िकों</w>
नाग रिक</w>
ना मों</w>
ना म
ना त्
नात् मक</w>
ना ,</w>
नव गठ
नवगठ ित</w>
नर ेंद्र</w>
नय े</w>
नय ा</w>
नद ी</w>
नत ि</w>
नक े</w>
न ।</w>
न ो</w>
न ू
न ारे</w>
न वीन</w>
न र्मदा</w>
न ई</w>
धर्म निरपेक्ष
ध ी</w>
ध -
द् वि
द् </w>
दौ र</w>
देख ो</w>
देख ने</w>
देख ते</w>
दे व</w>
दे ते</w>
दे ता</w>
दू सरे</w>
दी ,</w>
दि संबर</w>
दि वाली,</w>
दि वस,</w>
दि ए</w>
दा दर
दादर ा</w>
दर् ज़
दम न</w>
दक्षि ण-
दक्षिण- पूर्व</w>
द लों</w>
द न</w>
थे ,</w>
थव ा</w>
थ े</w>
थ ल</w>
त् व</w>
त् पत्ति</w>
त् कालीन</w>
ते माल</w>
ते ज़ी</w>
तीसर े</w>
ती ,</w>
ता ।</w>
ता पमान</w>
तरा ई</w>
तर ी</w>
तट ों</w>
तक ,</w>
त ह
त मिलनाडु</w>
त त्कालीन</w>
त ट</w>
त ः</w>
ण् ड</w>
ण ,</w>
ढ ि
डी ए
डि ग्र
डिग्र ी</w>
ड़ ीसा</w>
ड़ ा,</w>
ड व
ड च
ठि त</w>
टेलीवि ज़
टेलीविज़ न</w>
टेलीवि जन</w>
टन ा</w>
ट ार्कटिका</w>
ट ा</w>
ट ब
झारख ंड</w>
जो र</w>
जी विका</w>
जी डी
जी -
जि से</w>
जि स</w>
जि न्हे</w>
जि नके</w>
जा तीय</w>
जा त
ज़ ्यादा</w>
जवा हरलाल</w>
ज ारी</w>
ज ंग
जंग लों</w>
ज ,</w>
छू ट</w>
छ ठ
च् च
चाल ुक्यों</w>
चल ने</w>
चर म</w>
च े</w>
च ू
च ली।</w>
च लाया।</w>
च ला,</w>
च म
च ट
घा ट</w>
घ ू
घ रेलू</w>
घ रा
घ निष्ठ</w>
घ ट
ग्र ह</w>
ग् लेशियर</w>
गों ड</w>
गो वा</w>
गु ट</w>
गा ँ
ग़ री
गए ।</w>
ग ॉ
ग ू</w>
ग ंग
ग ,</w>
खा सकर</w>
ख ा</w>
ख ग
क्ष ुण्ण</w>
क्रि के
क्रिके ट</w>
क्र यशक्ति</w>
क्र मशः</w>
क् षा
को पेन</w>
केन्द्र ीय</w>
केंद्र ीय</w>
केंद्र शासित</w>
केंद्र -
कृ त</w>
कु लीन</w>
की र्
कि न्तु
कि नारे</w>
कार ्रवाई</w>
कार ्य</w>
काम याब</w>
का लिक</w>
का म</w>
का ं
कां श</w>
कर् मियों</w>
कर् नाटक</w>
करोड़ ),</w>
करो ड</w>
करे गी
कर वाने</w>
कमांड र-इन-चीफ</w>
कंपन ियों</w>
क ्योंकि</w>
क ै
क िय
क हीं</w>
क ंक
कंक ड</w>
क ,</w>
औस त</w>
औ प
औ द
ओ ण
ओ </w>
ऐस ी</w>
ऐ से</w>
एश ियाई</w>
एव म</w>
एन एस
एं ,</w>
ए सोसिएशन</w>
ए ड
ए ज
ए ँ</w>
ऋ तु
ऊ र्जा</w>
उल -
उभ रा।</w>
उप ग्रह</w>
उद य</w>
उत्पा दन</w>
उत्तर-पश्चि म</w>
उत्तर दा
उत् थान</w>
उठ ाया</w>
उ न्होंने</w>
उ ध
उ ड़ीसा</w>
उ ं
ई स्ट</w>
ई साई</w>
ई ल
ई द</w>
ई ं
इस्ला म</w>
इस् तेमाल</w>
इस ने</w>
इत ्यादि</w>
इज रायल</w>
इंडो नेशिया</w>
इ लावा</w>
इ नका</w>
इ ण्ड
इ ओ
आर ्य
आया तक</w>
आप के</w>
आन् दो
आध ारित</w>
आद र्श</w>
आठ वीं</w>
आकर् षित</w>
आक ्र
आ वश्य
आ वं
आ म</w>
आ पूर्तिकर्ता</w>
आ पातकाल</w>
आ ने</w>
आ ए</w>
अस ैनिक</w>
अस म</w>
अस फल</w>
अव सा
अल् पाइन</w>
अमेर िकी</w>
अमे रिका,</w>
अभ ियानों</w>
अप ेक्षा</w>
अन्तर् गत</w>
अन्त रि
अनु सूची</w>
अनि वार्य</w>
अन ुसार,</w>
अधिक ारी</w>
अधि कांश</w>
अत ्य
अग ्रणी</w>
अग स्त</w>
अंग्रे जों</w>
अं तिम</w>
अ हिंसावादी</w>
अ सम
अ सं
अ शोक</w>
अ शांति</w>
अ लावा,</w>
अ थवा</w>
अ ज
अ क्षुण्ण</w>
अ -
ंब र</w>
ंग ीण</w>
y ।</w>
x iii,</w>
x i,</w>
u in</w>
tbo ok</w>
t on</w>
ss :</w>
s )</w>
s ).</w>
pl ates</w>
out l
outl ed
or ld
orld 's</w>
olum e</w>
ol lin
oc ial</w>
m un
lif e:</w>
l ag
lag ,</w>
in s</w>
in av
inav </w>
ic s).</w>
hi :</w>
form ation</w>
es )।</w>
er lag,</w>
eng uin</w>
e dition
cy cl
cycl op
c ise</w>
bh inav</w>
ass ics).</w>
araj an,</w>
ang arajan,</w>
ad hy
ac tbook</w>
a :</w>
Wild life:</w>
W orld's</w>
W .</w>
V olume</w>
V erlag,</w>
T T
T I
S ub
S ocial</w>
R outled
R angarajan,</w>
Publication s,</w>
Publ ish
Pres s।</w>
Pr of
Po ems</w>
P enguin</w>
P K
Mill an,</w>
Mah esh</w>
Mac Millan,</w>
M as
Joh n
H istor
H ar
F actbook</w>
En cyclop
E ight</w>
Dis covery</w>
Del hi:</w>
D emocracy</w>
Con cise</w>
Com mun
Cl assics).</w>
Ch andra</w>
CE E</w>
C ollin
C inem
Bra ss:</w>
Book s।</w>
B ar
Antholog y</w>
Ac t,</w>
A bhinav</w>
9 3,
9 ,000</w>
8 లో</w>
7, 5
7,5 17</w>
7 –
7 లో</w>
7 4.
7 2.
7 000</w>
5 -0
4 th</w>
4 4
4 -
30 ,000</w>
3. 8
3 6.
26 న</w>
202 2</w>
202 1</w>
201 4</w>
201 2
200 8</w>
200 7</w>
200 7,</w>
200 6,</w>
200 4</w>
20 </w>
20 19</w>
2 nd</w>
2 9</w>
2 1</w>
199 8</w>
198 4</w>
197 5,</w>
197 4</w>
196 7</w>
195 8</w>
19 00</w>
17 .
16. 6%</w>
10 0,000</w>
1, 93,
1, 200</w>
1 000</w>
.৮ %
.৭ %</w>
.৭ %),</w>
./ वर्ष</w>
.. .
. ৯%)</w>
. ,</w>
-ব র্
-ধাঁচ ের</w>
- ২</w>
- অধ্যুষিত</w>
,৬ ৭১</w>
+ </w>
(Ἰνδ ός),</w>
(৪ ,৬৭১</w>
(২০০৬ ),</w>
(২০০৪ ),</w>
(২০ ০৭)।</w>
(১৯ ৯৮),</w>
(১৯ ৯৭),</w>
(১৯ ৯৪)।</w>
(১৯ ৯০)।</w>
(হিন্দি :</w>
(এন ডিএ)</w>
(editor s),</w>
(editor )</w>
( সি
( মোট</w>
( বিশ্বে</w>
( পূর্বনাম</w>
( পিপিপি)</w>
( ध
( कॉ
( कुल</w>
( ओ
( S
( Oxford</w>
( M
( India
( E
( 7
( 4
( 196
( 0.
' ।</w>
$ ६
" ।</w>
" ,</w>
” ।</w>
“R oyal
“Royal ”</w>
“ প্রথম</w>
“ नेट</w>
’ ,</w>
‘द लि
‘दलि तों</w>
‘ আধা-
‘আধা- যুক্তরাষ্ট্র
‘আধা-যুক্তরাষ্ট্র ী
‘আধা-যুক্তরাষ্ট্রী য়
‘আধা-যুক্তরাষ্ট্রীয় ’</w>
‘ संविधान</w>
‘ आधुनिक</w>
— हट
—हट ा</w>
— जैसे</w>
–201 2</w>
–200 4</w>
–200 0
–2000 ).</w>
–1 3</w>
– 20</w>
– 0</w>
‍य ीय</w>
‍प कालिक</w>
‍ ্যে</w>
‍ या
‍या व
‍याव सा
‍यावसा यिक</w>
‍ तरी</w>
‌వ ‌
‌వ‌ స్థ
‌వ‌స్థ ‌</w>
‌ల ాల్</w>
‌ఫ ర్
‌ఫర్ మే
‌ఫర్మే ష
‌ఫర్మేష న్</w>
‌ক ্য</w>
‌ తంలో</w>
‌ కు</w>
‌ বলম্বী</w>
ṣ ag
ṣag ān
ṣagān a,</w>
్‌ సొ
్‌సొ ర్
్‌సొర్ సిం
్‌సొర్సిం గ
్‌సొర్సింగ ్</w>
్‌ వే
్‌వే ర్,</w>
్‌ మహ
్‌మహ ల్</w>
్‌ బ
్‌బ ాల
్‌బాల ్‌</w>
్‌ గే
్‌గే జ
్‌గేజ ి</w>
్‌ ,</w>
్స ీ
్సీ లు,</w>
్వ ాల్</w>
్వ స్త్ర
్వస్త్ర </w>
్వ బ
్వబ డిన</w>
్ల లో</w>
్ల లుగా</w>
్రో లి
్రోలి యం
్రోలియం ,</w>
్రో పాల
్రోపాల ిట
్రోపాలిట న్</w>
్రి ద్ధి</w>
్రి చె
్రిచె ట్ట
్రిచెట్ట ు.</w>
్రాన్ స్,</w>
్రాన్ -ఇ
్రాన్-ఇ స్తా
్రాన్-ఇస్తా ంబ
్రాన్-ఇస్తాంబ ుల
్రాన్-ఇస్తాంబుల ్</w>
్రా సు
్రాసు ),</w>
్రా వి
్రావి డ</w>
్రా ఫ
్రాఫ ిక్</w>
్రా )</w>
్ర ై
్రై వర
్రైవర ు</w>
్ర ూ—
్రూ— ISBN</w>
్ర ాలు,</w>
్ర ామ
్రామ ిక</w>
్ర య
్రయ ాలు</w>
్యా త్మ
్యాత్మ ిక
్యాత్మిక త</w>
్యా డ్
్యాడ్ మిం
్యాడ్మిం ట
్యాడ్మింట న్
్యాడ్మింటన్ ‌</w>
్య ులు</w>
్య ులు,</w>
్య ాలు</w>
్య ాలు
్యాలు న్నాయి.</w>
్య ానికి</w>
్య ా</w>
్య రాజ్య
్యరాజ్య సమ
్యరాజ్యసమ ితి</w>
్య మైన</w>
్య మం
్యమం లో</w>
్య ప్ర
్యప్ర ాణ
్యప్రాణ ుల</w>
్య పరంగా</w>
్య జి
్యజి త్</w>
్య చిత్ర
్యచిత్ర ాలు</w>
్య ంలో</w>
్య ,</w>
్మ పు
్మపు త్ర
్మపుత్ర ,</w>
్మ దా
్మదా బాదు</w>
్మ ద
్మద ీయ
్మదీయ ులు,</w>
్మ .</w>
్ప స్,</w>
్న ే
్నే య</w>
్న ాలు</w>
్న లు:</w>
్న ం</w>
్థ ాలు,</w>
్థ నల
్థనల లో</w>
్త ె</w>
్త ాన
్తాన ులు,</w>
్త దేశపు</w>
్ట ్‌వేర్,</w>
్ట డ
్టడ ాలు,</w>
్ట ం,</w>
్గ ు
్గు లు:</w>
్గ ి
్గి పోయింది.</w>
్గ ర
్గర లో</w>
్క ెట్</w>
్క ుల</w>
్క ా</w>
్ స్</w>
్ క్‌
్క్‌ టిక
్క్‌టిక ాలో</w>
్ క్</w>
ౌర వి
ౌరవి స్తారు.</w>
ోళ ులు,</w>
ోర ారి</w>
ోర మ</w>
ోర </w>
ోధ ాల</w>
ోధ న
ోధన ా</w>
ోద ్యమంలో</w>
ోక ్యం</w>
ో- ఖో
ో-ఖో ,</w>
ో- ఆర్
ో-ఆర్ య
ో-ఆర్య న్,</w>
ో య</w>
ో నే
ోనే సియా</w>
ో ది.</w>
ో త్ర
ోత్ర ి,</w>
ో క్ష
ోక్ష </w>
ో ంది.</w>
ో ,</w>
ొమ ్మ.</w>
ైన ె
ైనె ర్</w>
ైన ప్పటికీ,</w>
ైన ది.</w>
ైన ంద
ైనంద ిన</w>
ై స్త
ైస్త వ
ైస్తవ ులు</w>
ై లో</w>
ై టె
ైటె డ
ైటెడ ్</w>
ై క</w>
ేష ్</w>
ేమ ాత
ేమాత రం
ేమాతరం ...
ేమాతరం... .</w>
ేధ ం,</w>
ేట ్</w>
ేక మైన</w>
ే యు
ేయు లు
ేయులు )</w>
ే నన
ేనన ీ</w>
ే తర</w>
ే త</w>
ే కాగా</w>
ే :</w>
ే ...
ే... ).</w>
ే ,</w>
ే ),</w>
ెల ్</w>
ెల ు</w>
ెబ ియ
ెబియ స్</w>
ెన ే</w>
ెట ్రోపాలిటన్</w>
ె ల్
ెల్ లోని</w>
ె లు.</w>
ె ల</w>
ె డ్
ెడ్ ,</w>
ె ,</w>
ృహ ాలు,</w>
ృత ్య</w>
ృత ంగా</w>
ూర త్</w>
ూప బ
ూపబ డి
ూపబడి ంది</w>
ూన ే</w>
ూడ ా</w>
ూట నల
ూటనల బై
ూటనలబై రెండు
ూటనలబైరెండు కోట్లకు</w>
ూ లా
ూలా దాయంలో</w>
ూ పం
ూపం ,</w>
ువ ుల
ువుల ైనప్పటికీ,</w>
ుళ ూరు</w>
ుల ్స్</w>
ుల ్తానులు,</w>
ుల ి</w>
ుల ా</w>
ుల లో</w>
ుల చే</w>
ుల కాల
ులకాల ం</w>
ుర ాలు.</w>
ున ైటెడ్</w>
ున ిక</w>
ున ి</w>
ుట ్‌బాల్‌</w>
ుట చే</w>
ుగ ల్
ుగల్ ,</w>
ుక ్యులు,</w>
ు. ప్రస్తుతము</w>
ు, భాష
ు,భాష లు,</w>
ు వు
ువు :</w>
ు వల్ల</w>
ు లో</w>
ు పూర్
ుపూర్ వో
ుపూర్వో త్
ుపూర్వోత్ తర
ుపూర్వోత్తర ాలు</w>
ు కుంట
ుకుంట ోంది.</w>
ు కు
ుకు న్నాయి.</w>
ీల తో</w>
ీర ,</w>
ీయ వాదం</w>
ీన ోద్యమంలో</w>
ీన ికి</w>
ీన ములో</w>
ీన ంలో</w>
ీన ం</w>
ీత ులు</w>
ీత ల</w>
ీక ులు</w>
ీక ి</w>
ీ, పాండ
ీ,పాండ ి
ీ,పాండి చ్
ీ,పాండిచ్ చే
ీ,పాండిచ్చే రి
ీ,పాండిచ్చేరి ,</w>
ీ యా
ీయా దాయంలో</w>
ీ కృ
ీకృ త
ీకృత మై</w>
ీ కర
ీకర ణ</w>
ిశ ్రామిక</w>
ివర్ ణ</w>
ివర్ గ
ివర్గ ం</w>
ిల్లీ- దండ
ిల్లీ-దండ ా
ిల్లీ-దండా )</w>
ిల్ల ిన</w>
ిల్ల ా</w>
ిల ేట్</w>
ిల ాగ
ిలాగ ృహాలు,</w>
ిర ా</w>
ిర మైన</w>
ియ ాలో</w>
ియ నులు,</w>
ిన ేత</w>
ిన ెస్</w>
ిన ి</w>
ిన హ
ినహ ాయ
ినహాయ ించి,</w>
ిత్ర ,</w>
ిత ్యం</w>
ిత మై</w>
ిత ం,</w>
ిగ మ
ిగమ ించి</w>
ిక ేననీ</w>
ిక ులు</w>
ిక ుల</w>
ిక ికి</w>
ిక ి,</w>
ిక మైనది.</w>
ిక మైన</w>
ిక ం,</w>
ింప ిక్‌</w>
ింప బడ
ింపబడ ి</w>
ించుకో వడ
ించుకోవడ ాన
ించుకోవడాన ికి,</w>
ించుకో వచ్
ించుకోవచ్ చని</w>
ించిన వే.</w>
ించిన ంద
ించినంద ువల్ల</w>
ించి పె
ించిపె ట్ట
ించిపెట్ట ార
ించిపెట్టార ు.ప్రస్తుతము</w>
ించాల ని</w>
ించబ డింది.</w>
ించ లే
ించలే దు
ించలేదు .</w>
ిం స
ింస ాయుత</w>
ిం బె
ింబె ట
ింబెట ్కా</w>
ిం చా
ించా ము.</w>
ిం గ్
ింగ్ డమ
ింగ్డమ ్</w>
ి. పూ.</w>
ి. ఢాకా-ఢిల్లీ-లాహో
ి.ఢాకా-ఢిల్లీ-లాహో ర్‌
ి.ఢాకా-ఢిల్లీ-లాహోర్‌ ల</w>
ి స్తారు.</w>
ి స్
ిస్ టా
ిస్టా ట
ిస్టాట స్
ిస్టాటస్ .</w>
ి ళ్
ిళ్ ళ</w>
ి యా
ియా ,</w>
ి పేర్లు</w>
ి పి
ిపి త</w>
ి త్వ</w>
ి :</w>
ాస ెస్</w>
ాశ ్రయాలు</w>
ాళ ాఖ
ాళాఖ ాతం</w>
ాల్ లో
ాల్లో న
ాల్లోన ూ</w>
ాల్ దీ
ాల్దీ వులు,</w>
ాలె క్క
ాలెక్క ను
ాలెక్కను ంది.</w>
ాలు గా,</w>
ాల ్యంలో</w>
ాల ోయ</w>
ాల ేకాగా</w>
ాల ే.</w>
ాల ు,భాషలు,</w>
ాల ాలు,</w>
ాల లోను</w>
ాల ర్
ాలర్ లు.</w>
ాల పై</w>
ాల న్నీ</w>
ాల కూ</w>
ారు ,</w>
ార ్లలో</w>
ార ్థాలు,</w>
ార ్క్‌టికాలో</w>
ార ్</w>
ార ాల</w>
ార మ
ారమ ్‌,</w>
ార తమ
ారతమ ్యాలున్నాయి.</w>
ార ణంగా</w>
ాయి లో</w>
ాయి డ్
ాయిడ్ స్</w>
ాయ ీలు</w>
ాయ ని</w>
ాయ తి</w>
ాయ ణం</w>
ాయ కార
ాయకార ిగా</w>
ాయ ం</w>
ాయ ",</w>
ాబ ల
ాబల ్యం</w>
ాన ే</w>
ాన ెట్</w>
ాన ాలతో</w>
ాన ప
ానప ద</w>
ాన ంతో</w>
ాన ం:</w>
ాన ,</w>
ాత ృ</w>
ాత ి</w>
ాత థ</w>
ాడ ్‌గేజి</w>
ా న్ని</w>
ా నిస్తాన్</w>
ా ంత
ాంత ి,</w>
హొ లీ
హొలీ ,</w>
హైదరా బాద్
హైదరాబాద్ ,</w>
హైదరా బాదు</w>
హై కోర్టులు</w>
హిమాల య
హిమాలయ ాలు,</w>
హిందూ స్తాన్</w>
హిందూ స్త
హిందూస్త ానీ</w>
హిందూ దేశం
హిందూదేశం ,</w>
హిందూ ,</w>
హింద ువులైనప్పటికీ,</w>
హింద ీ</w>
హింద ీ;</w>
హింద ీ,</w>
హి స్తాయి.</w>
హి రంగ
హిరంగ ంగా</w>
హా స
హాస ాలపై</w>
హా కీ
హాకీ లో</w>
హా క
హాక ీ</w>
హన ాలు</w>
హ ్రాన్-ఇస్తాంబుల్</w>
హ ్మపుత్ర,</w>
హ ్నాలు</w>
హ ెబియస్</w>
హ ా</w>
హ స్
హస్ త</w>
హ ర్
హర్ గ
హర్గ ర్,</w>
హ పు</w>
హ క్క
హక్క ులకు</w>
స్వీ కార
స్వీకార ం</w>
స్వీ కర
స్వీకర ించింది.</w>
స్వామ ్య,</w>
స్వాతంత్ర ్యానికి</w>
స్వా ము
స్వాము లు.</w>
స్వా ధ
స్వాధ ీనం</w>
స్వత ంత్ర
స్వతంత్ర ం</w>
స్వత ం</w>
స్లా మ
స్లామ ్</w>
స్య ం</w>
స్థాన ే...).</w>
స్థాన ిక</w>
స్థాన ాలు</w>
స్థాన మైన</w>
స్థాన ంలో,</w>
స్థాన ం.</w>
స్థా ప
స్థాప క</w>
స్థ ూలాదాయంలో</w>
స్థ ిరమైన</w>
స్థ ాయిలో</w>
స్థ లు</w>
స్తు లు.</w>
స్తు న్నారు.</w>
స్తు న్నది.</w>
స్తు ంది.</w>
స్తు ంద
స్తుంద ని</w>
స్తాన్ ‌కు</w>
స్తాన్ తో</w>
స్తా మన
స్తామన ి</w>
స్తా న్,</w>
స్త ృతంగా</w>
స్త ులు</w>
స్త ారు,</w>
స్ట లు</w>
స్ సా
స్సా మీ
స్సామీ ;</w>
స్ వే
స్వే చ్
స్వేచ్ ఛ
స్వేచ్ఛ ాయుత</w>
స్ వర్
స్వర్ ణ</w>
స్ వర
స్వర ూపం,</w>
స్ వ
స్వ తం,</w>
స్ లో</w>
స్ లే
స్లే చ
స్లేచ ర్,</w>
స్ యత
స్యత ,</w>
స్ య</w>
స్ తూ
స్తూ ,</w>
స్ టే
స్టే ట
స్టేట ాయిడ్స్</w>
స్ ,
స్, మహ
స్,మహ ేష్</w>
సౌకర్య ము.</w>
సౌక ర్
సౌకర్ యవ
సౌకర్యవ ంత
సౌకర్యవంత ంగా,</w>
సైన ా</w>
సై తం</w>
సై ట్లు</w>
సే వ</w>
సె ర్
సెర్ టి
సెర్టి య
సెర్టియ ోరారి</w>
సూ చన
సూచన లు,</w>
సు మార
సుమార ు</w>
సు దీ
సుదీ ర్
సుదీర్ ఘ</w>
సు కో
సుకో వడ
సుకోవడ ంతో</w>
సినిమ ాలు,</w>
సిక్క ులు</w>
సిక్క ు</w>
సింధూనద ికి</w>
సింధూనద ి</w>
సింధు ాలోయ</w>
సింధు లోయ</w>
సిం హపు</w>
సిం ధ్
సింధ్ ;</w>
సిం ధ
సింధ ు</w>
సి వ
సివ స్తుందని</w>
సి న</w>
సి ద్ధం</w>
సి ద్ధ
సిద్ధ ించింది.</w>
సి గ
సిగ ్నలు:</w>
సి ంద
సింద ి.ఢాకా-ఢిల్లీ-లాహోర్‌ల</w>
సాహ ిత్యం</w>
సాహ ంగా,</w>
సార ్క్</w>
సార ిగా</w>
సార ాల</w>
సార స్వతం</w>
సార స్వతం,</w>
సార వ
సారవ ంత
సారవంత మైన</w>
సామ్రాజ ్యాలు</w>
సామ్రాజ ్యం</w>
సామ్రాజ ్యం,</w>
సామ్రాజ ్య</w>
సాధించ గా,</w>
సాధించ గ
సాధించగ లి
సాధించగలి గ
సాధించగలిగ ినది.</w>
సాధ ించిపెట్టారు.ప్రస్తుతము</w>
సాధ ించింది.</w>
సాధ ించాము.</w>
సాధ ారణంగా</w>
సాంప్రదాయ ికమైన</w>
సాంప్రదాయ </w>
సా ఫ
సాఫ ్ట్‌వేర్,</w>
సా ని
సాని య
సానియ ా</w>
సా గు
సాగు తో
సాగుతో ంది.</w>
సా క
సాక ర్‌
సాకర్‌ )</w>
సా ంఘ
సాంఘ ిక,</w>
సహస్రాబ్ ది</w>
సహస్రాబ్ ది
సహస్రాబ్ది లో</w>
సహ ాయకారిగా</w>
సల హా</w>
సర్వీస ును</w>
సర్ వస
సర్వస త్తా
సర్వసత్తా క
సర్వసత్తాక ,</w>
సరిహద్ద ులు</w>
సరిహద్ద ులలో</w>
సరిహద్ద ులను</w>
సరిహద్ద ు</w>
సరిహద్ దు
సరిహద్దు న</w>
సరి స్తూ,</w>
సర మై
సరమై త
సరమైత ే</w>
సర ఫర
సరఫర ా</w>
సముద్రతీ రమ
సముద్రతీరమ ు</w>
సముద్రతీ రం</w>
సముద్ర ం</w>
సము చి
సముచి త</w>
సమాఖ్య లు</w>
సమా జమ
సమాజమ ు</w>
సమా జం
సమాజం .</w>
సమా చార
సమాచార ం</w>
సమ ష్ట
సమష్ట ి</w>
సమ శీ
సమశీ తో
సమశీతో ష్ణ</w>
సమ రం</w>
సమ రం
సమరం )</w>
సమ యం
సమయం లో,</w>
సభ్య ులను</w>
సభ్య ురాలు.</w>
సభ ా</w>
సభ లో</w>
సత ్యజిత్</w>
సంస్కృత ులతో</w>
సంస్కృ తీ
సంస్కృతీ ,</w>
సంస్కృ తి
సంస్కృతి లో</w>
సంస్కృ తం,</w>
సంస్కరణ లు</w>
సంస్కరణ లత
సంస్కరణలత ో</w>
సంవత్సర ాలలో</w>
సంవత్సర ాల</w>
సంవత్సర ం</w>
సంవత్ సారాల</w>
సంబంధ ించిన</w>
సంబంధ ాలు</w>
సంబంధ </w>
సంప్రదాయ ాలను</w>
సంఘ ర్షణ
సంఘర్షణ లను</w>
సంఘ ము.</w>
సంఘ ం</w>
సంగీత ము</w>
సంగీ తంలో</w>
సంగీ తం
సంగీతం .</w>
సంగీ త</w>
సంగ మ</w>
సంఖ్య ాక</w>
సంఖ్య ా</w>
సంఖ్య లో</w>
సంకీర్ ణం</w>
సంకీర్ ణ</w>
సంకీర్ ణ
సంకీర్ణ ాలేకాగా</w>
సం స్థలు</w>
సం ధి</w>
సం ఘ</w>
సం క్ర
సంక్ర ాంతి,</w>
సం .</w>
స ే</w>
స ూరత్</w>
స ుల్తానులు,</w>
స ీ</w>
స ీ,</w>
స ాలు</w>
స వా
సవా ళ్లను</w>
స ల్
సల్ వార
సల్వార ్</w>
స గా</w>
స ంద
సంద ర్
సందర్ శ
సందర్శ ించే</w>
స ం</w>
ష్ట ్యా</w>
ష్ట ు</w>
ష్ట మైన
ష్టమైన ,</w>
ష్ట ం
ష్టం కాగా</w>
ష్ట </w>
ష్ పం
ష్పం :</w>
షి :</w>
షా ,</w>
షల ు</w>
షణ ాలు</w>
షం :</w>
షం .</w>
షం ",</w>
ష ేధం,</w>
ష ియనులు,</w>
ష ాలు</w>
ష కాహార</w>
శ్వ నాథ
శ్వనాథ న్</w>
శ్వ త</w>
శ్రీ శైల
శ్రీశైల స్య</w>
శ్రీ లంక
శ్రీలంక ,</w>
శ్రీ రా
శ్రీరా మన
శ్రీరామన వ
శ్రీరామనవ మి
శ్రీరామనవమి ,</w>
శ్ర ద్ధ
శ్రద్ధ లతో,</w>
శ్ వా
శ్వా మ
శ్వామ ిత్ర,</w>
శ్ లో
శ్లో కాల
శ్లోకాల తో</w>
శ్ ,</w>
శో కు
శోకు డు</w>
శైల ీ</w>
శే షం.</w>
శెల వ
శెలవ ు</w>
శి ష్ట</w>
శి ల్
శిల్ పక
శిల్పక ళ</w>
శాస్త్ర ం</w>
శాఖ పట
శాఖపట ్నం</w>
శాఖ కు</w>
శా శ్వత</w>
శా కాహార</w>
శర ద్
శరద్ </w>
శతాబ్ దం
శతాబ్దం ,</w>
శక్ తులు
శక్తులు ;</w>
శక్ తిగా</w>
శకు డైన</w>
శకు ంత
శకుంత ల</w>
శం లోని</w>
శ ోధనా</w>
శ ీతల</w>
శ ిలాగృహాలు,</w>
శ ాల్యంలో</w>
శ ాతం</w>
శ క</w>
వ్యాపార వే
వ్యాపారవే త్
వ్యాపారవేత్ త
వ్యాపారవేత్త ల</w>
వ్యాపార ం</w>
వ్యాప ార</w>
వ్యవస్థ ీకరణ</w>
వ్యవస్థ లోని</w>
వ్యవస్థ ల</w>
వ్యవస్థ గా</w>
వ్యవస్థ కు</w>
వ్యవస్థ కు,</w>
వ్యవస్థ ,</w>
వ్యవస్థ )</w>
వ్య ‌వ‌స్థ‌</w>
వ్య వహ
వ్యవహ ారాల</w>
వ్య వస
వ్యవస ాయం</w>
వ్య య
వ్యయ ంతో</w>
వైవిధ్య మైనది.</w>
వైవిధ్య మైన
వైవిధ్యమైన వి.</w>
వైవిధ ్యం</w>
వై శాల్యంలో</w>
వై పో
వైపో తు
వైపోతు న్న
వైపోతున్న ప్పటికీ,</w>
వై పా
వైపా క్ష
వైపాక్ష ిక</w>
వై ప
వైప ులా</w>
వై న</w>
వేద ాలు,</w>
వేద ాలలో</w>
వే రత
వేరత ాయని</w>
వెల్ల ూరు</w>
వెల్ల డ
వెల్లడ ించింది.</w>
వెబ ్</w>
వె లు
వెలు పల
వెలుపల ి</w>
వె బ్
వెబ్ సైట్లు</w>
వృ క్
వృక్ షం:</w>
వూ పి
వూపి ంది.</w>
వు న్
వున్ నా,</w>
వు ంట
వుంట ుంది.</w>
వీ ంద్ర
వీంద్ర నాథ
వీంద్రనాథ ్</w>
విస్తీర్ ణం</w>
విస్తీర్ ణ
విస్తీర్ణ ంతో</w>
విస్ తర
విస్తర ించిన</w>
విలు వైన</w>
విలు వల
విలువల ను</w>
విధ ించిన</w>
విధ ి</w>
విధ ానాలతో</w>
విధ ంగా</w>
విద్య ను</w>
వి స్తృతంగా</w>
వి సభా</w>
వి శ్వామిత్ర,</w>
వి శ్వనాథన్</w>
వి శేషం.</w>
వి శిష్ట</w>
వి శాఖపట్నం</w>
వి వాదం</w>
వి వరాలు</w>
వి ల్ల
విల్ల ాయి.</w>
వి ర్
విర్ భవ
విర్భవ ించింది.</w>
వి మాన</w>
వి మాన
విమాన ాశ్రయాలు</w>
వి భజ
విభజ ితమై</w>
వి ఫ
విఫ ల</w>
వి నాయ
వినాయ క</w>
వి తంలో</w>
వి డి
విడి పోయింది.</w>
వి జ్
విజ్ ఞా
విజ్ఞా న</w>
వి జ
విజ న్</w>
వి ంద్</w>
వి ).</w>
వాహ నం
వాహనం లో</w>
వాహ క</w>
వారసత్వ ానికి</w>
వారసత్వ ంగా</w>
వారస త్వ</w>
వారస త్
వారసత్ వా
వారసత్వా న్ని
వారసత్వాన్ని ,</w>
వార ు</w>
వార ిస్తారు.</w>
వార ిగా</w>
వార ి</w>
వార ంట
వారంట ో,</w>
వాణిజ ్యపరంగా</w>
వా హనాలు</w>
వా సాలు</w>
వా న</w>
వా ద</w>
వా ద
వాద న</w>
వా టిలో</w>
వా టి
వాటి ల్ల
వాటిల్ల ింది.</w>
వహ ించే</w>
వహ ించింది.</w>
వహ ించి</w>
వహ ర్
వహర్ ‌లాల్</w>
వల ెనే</w>
వల ి</w>
వర్గ ాలు</w>
వర్గ ాలలోను</w>
వర్ షాలు</w>
వర్ షం",</w>
వర్ ధ
వర్ధ ిల్లిన</w>
వర్ తి</w>
వర్ తి
వర్తి త్వ
వర్తిత్వ ం</w>
వర్ ణ
వర్ణ ించబడింది.</w>
వర్ గీ
వర్గీ కరణ
వర్గీకరణ లో</w>
వర ోధాల</w>
వర లోనే</w>
వర కూ</w>
వన ్యప్రాణుల</w>
వత్ ‌</w>
వత ాలతో</w>
వజ ్రాలు,</w>
వచ్చి నవ
వచ్చినవ ారి</w>
వచ్చి న
వచ్చిన ది
వచ్చినది ,</w>
వచ్చి ,</w>
వచ్ చు.</w>
వంట లు</w>
వంట లకు</w>
వంట క
వంటక ాలు</w>
వంట </w>
వం శంలోని</w>
వం ,</w>
వ ైనది.</w>
వ ుని</w>
వ హిస్తాయి.</w>
వ ల</w>
వ రు
వరు సగా</w>
వ రి.</w>
వ ద్
వద్ ద</w>
వ దిన
వదిన ాలు,</w>
వ ంద
వంద ేమాతరం....</w>
వ .</w>
ళ్ళ ు</w>
ళ్ళ పాటు</w>
ళవ ింపబడి</w>
ళ ్ల</w>
ళ ుక్యులు,</w>
ళ ికలు</w>
ళ నా
ళనా డుకు</w>
ల్ల యి
ల్లయి న</w>
ల్ప ం</w>
ల్ప </w>
ల్ లు.</w>
లౌక ిక</w>
లౌక ిక,</w>
లోక్‌ సభలో</w>
లోక్‌ సభ</w>
లో ప
లోప ం</w>
లో న్
లోన్ ల
లోన్ల ీ</w>
లో ను
లోను ,</w>
లో చ
లోచ న</w>
లో క
లోక ి</w>
లో )</w>
లే ని
లేని వి.</w>
లే దు</w>
లె జి
లెజి స్లేచర్,</w>
లె క్
లెక్ కల
లెక్కల ు</w>
లె ంద
లెంద ర
లెందర ో</w>
లుగు త
లుగుత ాయి.</w>
లు పుతూ</w>
లి సింది.</w>
లి విజన్</w>
లి యా
లియా ండ
లియాండ ర్</w>
లి పావ
లిపావ ో</w>
లి న</w>
లి థ
లిథ ిక్</w>
లి తంగా</w>
లి చిన</w>
లి చింది.</w>
లి చ
లిచ ారు.</w>
లి ;</w>
లా భ
లాభ దాయ
లాభదాయ క
లాభదాయక మే
లాభదాయకమే న
లాభదాయకమేన నీ
లాభదాయకమేననీ ,</w>
లా ంట
లాంట ి</w>
లమ ానం:</w>
లభ ్యమైన</w>
లప ై</w>
లఘ ు</w>
లక్ష ల</w>
లక్ష ణా
లక్షణా న్ని</w>
లక్ష .</w>
లక త్తా
లకత్తా ),</w>
లంక ెలు</w>
లం పు
లంపు తో</w>
లం కార
లంకార </w>
లం :</w>
ల ికేననీ</w>
ల ాలు</w>
ల బె
లబె ట్ట
లబెట్ట ుకున్నాయి.</w>
ల క్
లక్ షణాలు</w>
ల ,</w>
ర‌ వాణా</w>
ర్షణ ను</w>
ర్త ా</w>
ర్ శకుడైన</w>
ర్ వ్యవస్థీకరణ</w>
ర్ యమ
ర్యమ ు</w>
ర్ దూ
ర్దూ ;</w>
ర్ ణా
ర్ణా టక</w>
ర్ జె
ర్జె న్
ర్జెన్ సీ</w>
ర్ జాలు</w>
ర్ చు
ర్చు తో</w>
ర్ చిన</w>
ర్ చ
ర్చ ుగల్,</w>
ర్ కొ
ర్కొ ంటు
ర్కొంటు న్నది.</w>
ర్ ).</w>
రోడ్ డుకు</w>
రో డ
రోడ ్ల</w>
రో ః</w>
రొ ట్ట
రొట్ట ెల</w>
రైల్వే శాఖకు</w>
రైల్వే శాఖ</w>
రై ళ్ల</w>
రై లు.</w>
రే బ
రేబ ియా</w>
రెండు వైపులా</w>
రెండ ోది.</w>
రెండ ో</w>
రె న్న
రెన్న ో</w>
రూపాంత రం</w>
రూపాంత ర
రూపాంతర మే.</w>
రూ పొంద
రూపొంద ింది.</w>
రూ పం
రూపం లో)</w>
రుష ్కుల</w>
రు నా
రునా మ
రునామ ాలు</w>
రు దుగా</w>
రు చు
రుచు లు,</w>
రు గా</w>
రు ,</w>
రీ ;</w>
రి స్తారు</w>
రి యా
రియా ;</w>
రి ట్లు</w>
రి ట్ల
రిట్ల లో</w>
రి గా</w>
రి గ
రిగ ే</w>
రాష్ట్రపత ులు</w>
రాష్ట్రప తి,</w>
రాష్ట్రప తి
రాష్ట్రపతి చే</w>
రాష్ట్ర ాలుగా,</w>
రాష్ట్ర ాలు:</w>
రాష్ట్ర ానికి</w>
రాష్ట్ర పు</w>
రాజ్యాంగ </w>
రాజ్య ాలను</w>
రాజకీయ ాల్లో</w>
రాజకీయ ాలు</w>
రాజ ు.</w>
రాజ య
రాజయ ం</w>
రాజ ధాన
రాజధాన ులు,</w>
రా సిన</w>
రా యల
రాయల ్</w>
రా మ
రామ ాయణం</w>
రా తి
రాతి యుగ
రాతియుగ పు</w>
రా ణ
రాణ ించలేదు.</w>
రా ఠ
రాఠ ీ;</w>
రా టం</w>
రా చీ
రాచీ ,</w>
రా .</w>
రహదార ులు</w>
రహదార ులను</w>
రబ ద్ధం</w>
రత వర్షం",</w>
రత నా
రతనా ట
రతనాట ్యం,</w>
రచయిత లెందరో</w>
రచయిత .</w>
రక ాలుగా</w>
రక ాలు.</w>
రంగ ాల్లో</w>
రంగ ాల</w>
రంగ ానికి</w>
రంగ ంలో</w>
రంగ ం</w>
ర ే</w>
ర ూ</w>
ర ీతులు</w>
ర ీ</w>
ర వేరతాయని</w>
ర వీంద్రనాథ్</w>
ర తు
రతు డు
రతుడు ".</w>
ర క్షరా
రక్షరా స్యత,</w>
ర క్ష
రక్ష ణ</w>
ర కు,</w>
ర ,</w>
యో లిథిక్</w>
యో చన
యోచన లో</w>
యూ దు
యూదు లు,</w>
యుగ ం</w>
యు ద్ధం</w>
యు ద్ధ
యుద్ధ ాలు</w>
యు డైన</w>
యు క్
యుక్ త</w>
యు .
యు. ఏ.
యు.ఏ. ఇ
యు.ఏ.ఇ ,</w>
యి స్తారు.</w>
యి ంది</w>
యాత్ర ికులు</w>
యాత్ర లతో,</w>
యా వత్‌</w>
యా ణ
యాణ ికుల</w>
యా టక</w>
యథ ాతథ</w>
యం :</w>
య ునైటెడ్</w>
య ము
యము న
యమున ,</w>
మౌ ఖ
మౌఖ ికమైనది.</w>
మో న్న
మోన్న త</w>
మొదలైన వి</w>
మొదలైన వి.</w>
మొదలైన టు
మొదలైనటు వంటి</w>
మొదలగు వారు</w>
మొదలగు న
మొదలగున వి).</w>
మొదల వుతుంది.</w>
మొదటి సారిగా</w>
మొదటి ది</w>
మొ గలు
మొగలు లు</w>
మొ గల
మొగల ు</w>
మై ద
మైద ానంతో</w>
మై థి
మైథి లి;</w>
మై త్ర
మైత్ర ి</w>
మై ంది.</w>
మే ళవింపబడి</w>
మే రోః</w>
మే రకు,</w>
మే నక
మేనక ల</w>
మె హర్గర్,</w>
మూడ ే.</w>
మూడ వ</w>
మూ లాలు</w>
మూ ల</w>
ముఖ్య తను</w>
ముంబ ైలో</w>
ముంబ ాయి</w>
ము లు,</w>
ము రు,</w>
ము ద్ర
ముద్ర :</w>
ము త్య
ముత్య ం.</w>
ము డ్
ముడ్ చుకు
ముడ్చుకు ంది.</w>
ము ంద
ముంద ుగా</w>
మీ ర్జాలు</w>
మీ దుగా</w>
మీ జ
మీజ ్</w>
మిస్తు న్నాయి.</w>
మిస్తు న్న</w>
మిత ో</w>
మిత ికి</w>
మిం చే
మించే ది</w>
మిం చుకు
మించుకు న్నారు.</w>
మి డి</w>
మి గి
మిగి లిన</w>
మాల ిక</w>
మార్గ ాలే.</w>
మార్గ ాలలో</w>
మార్గ ాలను</w>
మార్గ ము</w>
మార్గ ంలో</w>
మార్గ ం</w>
మారు మూల</w>
మారు డు
మారుడు .</w>
మార ్తె</w>
మార ్కెట్</w>
మార ్,</w>
మార ింది.</w>
మాన వుని</w>
మాన ం:</w>
మాన ,</w>
మాట్లాడ ే</w>
మాట్లాడ ే:</w>
మా మిడి</w>
మా ది
మాది రిగా</w>
మా ణ</w>
మా ండ
మాండ మ
మాండమ స్,</w>
మహిళ ా</w>
మహిళ ల</w>
మహా సముద్రం</w>
మహా సముద్రం,</w>
మహా భారతం,</w>
మస ాలాలు,</w>
మలయాళం ;</w>
మలయాళం ,</w>
మల వుతుంది.</w>
మల ము</w>
మర ్రిచెట్టు.</w>
మర )</w>
మయ న్
మయన్ మార్,</w>
మన ోరమ</w>
మన మే</w>
మన దేశంలో</w>
మన .</w>
మధ్య వర్తిత్వం</w>
మధ్య ల,</w>
మధ్య కాలంలో</w>
మధ్య ,</w>
మద ్రాసు),</w>
మత ాలు</w>
మత ాలు:</w>
మత ాలు,</w>
మత ాలతో</w>
మత ాలకు</w>
మత ాల</w>
మత స్తులు</w>
మత ములు,</w>
మత మ
మతమ ులకు</w>
మణ ద
మణద ారులు,</w>
మంత్ర ులచే</w>
మంత్ర ివర్గం</w>
మంత్ర ిత్వ</w>
మం జ
మంజ ూరు</w>
మ ్మదాబాదు</w>
మ ెట్రోపాలిటన్</w>
మ ూ</w>
మ ీ</w>
మ ినహాయించి,</w>
మ ికి</w>
మ ించినందువల్ల</w>
మ ించిన</w>
మ ాల్దీవులు,</w>
మ ాతృ</w>
మ లు,</w>
మ లిపావో</w>
మ రెన్నో</w>
మ రాఠీ;</w>
మ న</w>
మ తిని</w>
మ తం,</w>
మ ణి
మణి పు
మణిపు రి.</w>
మ ంత
మంత ట
మంతట ా</w>
మ ంచి</w>
మ .</w>
భౌ త
భౌత ిక,</w>
భూటా న్</w>
భూటా న్,</w>
భూ ప
భూప తి,</w>
భి న్న
భిన్న త్వ
భిన్నత్వ ాలు</w>
భాషల లోను,</w>
భాషల తో,</w>
భాష లు.</w>
భాష ,</w>
భావి స్తున్నది.</w>
భావి స్తారు.</w>
భావి స్తారు,</w>
భారతీయ ులు</w>
భారతీయ ుల</w>
భారతీ యుడైన</w>
భారతదేశం ,</w>
భారతదేశం "</w>
భారతదేశ మే.</w>
భారతదేశ ము</w>
భారత ,</w>
భార ‌తంలో</w>
భార ్తదేశపు</w>
భార తం
భారతం లో,</w>
భాగం .</w>
భాగం ,</w>
భాగ స్వాములు.</w>
భాగ మేనని</w>
భా షా,</w>
భా జ
భాజ పా</w>
భా గే
భాగే ,</w>
భవ ించినవే.</w>
భక్ తి,</w>
భక్ తి
భక్తి శ్రద్ధలతో,</w>
భ ింబెట్కా</w>
భ రతనాట్యం,</w>
భ ంగ
భంగ ం</w>
బ్రిటీష ్</w>
బ్రిటీష ు</w>
బ్ర ెడ్,</w>
బ్ర ాడ్‌గేజి</w>
బ్ర హ్మపుత్ర,</w>
బ్ డ
బ్డ ే</w>
బౌద్ధ ులు</w>
బౌద్ధ ,</w>
బెంగాల ్</w>
బెంగాల ీ;</w>
బెంగాల ీ.</w>
బెంగ ుళూరు</w>
బు ని
బుని స్తున్నారు.</w>
బు క్</w>
బి న్న
బిన్న త్
బిన్నత్ వంలో</w>
బి జ
బిజ ినెస్</w>
బా బ్డే</w>
బా గా</w>
బా ంబ
బాంబ ే),</w>
బహు మతి</w>
బహు భాషా,</w>
బహ ు</w>
బహ ాయీలు</w>
బడత ాయి.</w>
బంగ్లాదేశ్‌ లలో</w>
బంగ్లాదేశ్‌ ల</w>
బంగ్లా దే
బంగ్లాదే శ్,</w>
బంగ ాళాఖాతం</w>
బ ్యాడ్మింటన్‌</w>
బ ొమ్మ.</w>
బ ెల్</w>
బ హిరంగంగా</w>
బ డ్
బడ్ జ
బడ్జ ెట్</w>
బ డింది.</w>
బ ండ
బండ ్లను</w>
ఫ ్రాన్స్,</w>
ఫ ుట్‌బాల్‌</w>
ఫ లితంగా</w>
ఫ లం:</w>
ప్ల ానెట్</w>
ప్ల గ
ప్లగ ్గులు:</w>
ప్రారంభ ించాలనే</w>
ప్రారంభ ించాలని</w>
ప్రారంభ మైన</w>
ప్రార ్థనలలో</w>
ప్రాయ మైనది.</w>
ప్రాయ పడు
ప్రాయపడు తు
ప్రాయపడుతు న్నారు.</w>
ప్రాచ ్య</w>
ప్రాంత ాలు.</w>
ప్రాంత ాలతో</w>
ప్రాంత ాలకు</w>
ప్రాంత ాల</w>
ప్రా ముఖ్యతను</w>
ప్రా దేశ
ప్రాదేశ ిక</w>
ప్రా జా
ప్రాజా స్వామ్య</w>
ప్రా చు
ప్రాచు ర్యము</w>
ప్రస్తు త</w>
ప్రయోజన ాలు</w>
ప్రయోజన కర
ప్రయోజనకర మేనని</w>
ప్రముఖమైన దే
ప్రముఖమైనదే .</w>
ప్రముఖమైన ది</w>
ప్రభుత్వ ాలన్నీ</w>
ప్రభుత్వ ంచ
ప్రభుత్వంచ ే</w>
ప్రభుత్ వంలో</w>
ప్రభుత్ వం,</w>
ప్రపంచం లోనే</w>
ప్రపంచ దేశాలలో</w>
ప్రధానమంత్ర ిని</w>
ప్రధానమంత్ర ికి</w>
ప్రదేశ ్‌</w>
ప్రదేశ ే,</w>
ప్రత్య ేకమైన</w>
ప్రత్య క్ష
ప్రత్యక్ష ంగా</w>
ప్రతిపాదన ల్లో</w>
ప్రతిపక్ష మైంది.</w>
ప్రతిపక్ష ం</w>
ప్రతి ని
ప్రతిని ధి
ప్రతినిధి చే</w>
ప్రజా స్వామ్య,</w>
ప్రజల చే</w>
ప్రకార ం,</w>
ప్ర ాసెస్</w>
ప్ర ాబల్యం</w>
ప్ర యాణికుల</w>
ప్ర మాణ</w>
ప్ర దేశాల</w>
ప్ర థ
ప్రథ మ</w>
ప్ర తి</w>
ప్ర ణా
ప్రణా ళికలు</w>
ప్ర జ
ప్రజ లకు</w>
ప్ర గ
ప్రగ తిని</w>
ప్ర ఖ్య
ప్రఖ్య ాతి</w>
ప్పటిక ీ</w>
ప్పట ి</w>
ప్ప ిలేట్</w>
ప్ప ించుకోవడానికి,</w>
ప్ త
ప్త ులకాలం</w>
పౌ ర</w>
పో స్టలు</w>
పో షకాహార</w>
పో లో,</w>
పో ర్చుగల్,</w>
పో రాటం</w>
పో తూ</w>
పో టీ
పోటీ లలో</w>
పొంద ినది.</w>
పొ డి
పొడి గ
పొడిగ ించుకోవచ్చని</w>
పేర్కొ న్నాయి.</w>
పేర్కొ నవ
పేర్కొనవ చ్చు.</w>
పేర్కొ ంటు
పేర్కొంటు న్నారు.</w>
పేరు మీదుగా</w>
పేరు తో</w>
పే స్,మహేష్</w>
పే దర
పేదర ికం,</w>
పే ,</w>
పెద్ దప
పెద్దప ులి</w>
పెద్ దగా</w>
పె ట
పెట ్రోలియం,</w>
పూర్వ పు</w>
పూర్వ ం</w>
పూ ణ
పూణ ే</w>
పూ డి
పూడి ,</w>
పురుష ులు</w>
పురుష ులకు</w>
పురుష ుల</w>
పుట్టి ల్లు.</w>
పుట్టి ని
పుట్టిని ల్లయిన</w>
పుట్ట ుపూర్వోత్తరాలు</w>
పుట్ట ాయి.</w>
పు ష్పం:</w>
పు న</w>
పు న
పున ర్వ్యవస్థీకరణ</w>
పు గా</w>
పీఠభూ మితో</w>
పీఠభూ మికి</w>
పీఠ ిక</w>
పి స్తామని</w>
పి లిచారు.</w>
పి న</w>
పావ ళి,</w>
పాలించ </w>
పాలన లోకి</w>
పాలన లో</w>
పాల యింది</w>
పాల కుల
పాలకుల నుండి</w>
పాల క
పాలక ులు</w>
పార్లమెంట ు</w>
పార్లమెంట రీ</w>
పార్టీ ల</w>
పార్టీ గా</w>
పార్ట ీలు</w>
పార్ట ీలతో</w>
పార్ట ీకి</w>
పార ్సీలు,</w>
పార ిశ్రామిక</w>
పాకిస్థా న్</w>
పాకిస్థా న్
పాకిస్థాన్ కు</w>
పాకి స్తాన్తో</w>
పాకి స్తాన్,</w>
పాండ ్యులు</w>
పా ధి</w>
పా ద</w>
పా క్,</w>
పస ్రిద్ధి</w>
పశ్చి మాన</w>
పశ్చి మాన,</w>
పవిత్ర ంగా</w>
పవిత్ర </w>
పల్ల ెల్లోని</w>
పల్ల వులు,</w>
పర్ షియనులు,</w>
పర్ వదినాలు,</w>
పర్ వతాలతో</w>
పర్ యాటక</w>
పరీ క్ష
పరీక్ష ను</w>
పరీ క్
పరీక్ షలు</w>
పరిశ్ర మ.</w>
పరి స్థితి</w>
పరి శోధనా</w>
పరి మితికి</w>
పరి పాలించ</w>
పరి ధి
పరిధి లో</w>
పరి ఢ
పరిఢ విల్లాయి.</w>
పర ోక్ష</w>
పర ి</w>
పర మోన్నత</w>
పర మైన</w>
పర చింది.</w>
పద్ధతి లో</w>
పద్ధతి :</w>
పద్ధత ులతో</w>
పద్ధత ి</w>
పద్ధ తులు
పద్ధతులు న్నాయి.</w>
పద ార్థాలు,</w>
పద వి</w>
పద వి.</w>
పతా కం
పతాకం :</w>
పతా క
పతాక ము.</w>
పతక ం</w>
పత ్యం</w>
పడు తుంది.</w>
పడ ే</w>
పట్టణ ాలు</w>
పట్టణ ాలను</w>
పట్టణ ాల</w>
పట్ట ును</w>
పట్ట ాలెక్కనుంది.</w>
పట్ట ాలు</w>
పట్ట ణ</w>
పట ంలో</w>
పట ం</w>
పక్ష ం</w>
పక ల్పం</w>
పండుగ లు,</w>
పండ ్లు</w>
పంచ ె,</w>
పంచ ుకుంటోంది.</w>
పంచ ాయతి</w>
పం పిన</w>
పం జాబ
పంజాబ ీ;</w>
పం .</w>
ప- దేశ
ప-దేశ ాలు.</w>
ప ించింది.</w>
ప వనాలు</w>
ప రాజయం</w>
ప ది
పది శాతం</w>
ప చ్
పచ్ చ
పచ్చ జె
పచ్చజె ండా</w>
ప క్
పక్ షి:</w>
న్యాయ స్థానమైన</w>
న్యాయ వ్యవస్థలో</w>
న్యాయ వ్యవస్థ,</w>
న్యాయ </w>
న్ని స్లో</w>
న్ని టిక
న్నిటిక ంటే</w>
న్ని :</w>
న్ ‌ఫర్మేషన్</w>
న్ లుగా</w>
న్ నె
న్నె </w>
న్ నవ
న్నవ ార్లలో</w>
న్ నం
న్నం ,</w>
నో బెల్</w>
నేరే డు</w>
నేరే డు
నేరేడు "</w>
నేపాల ీ;</w>
నే రుగా</w>
నెహ ్వాల్</w>
నెహ ్రూ—ISBN</w>
నెలకొ న్న</w>
నెలకొ ని</w>
నె రవేరతాయని</w>
నె మలిపావో</w>
నుండ ి,</w>
ను ము,</w>
ను న్న</w>
నీ పై</w>
నీ తి,</w>
నిర్వహ ణ
నిర్వహణ లో</w>
నిర్ వాహక</w>
నిర్ మిస్తున్న</w>
నిర్ మించేది</w>
నిర్ మించినందువల్ల</w>
నియమించబ డ్
నియమించబడ్ డ</w>
నియమించబ డిన</w>
నిడివి లో</w>
నిడివి ని</w>
ని స్తాన్‌కు</w>
ని షేధం,</w>
ని వాసాలు</w>
ని వారిస్తారు.</w>
ని వల్ల</w>
ని లిచింది.</w>
ని లబెట్టుకున్నాయి.</w>
ని రక్షరాస్యత,</w>
ని యోలిథిక్</w>
ని పించింది.</w>
ని నప్పటికినీ</w>
ని చ్
నిచ్ చింది.</w>
ని ,</w>
నాల జీ
నాలజీ ,</w>
నాయకత్ వాన</w>
నాయకత్ వంలో</w>
నాయక ుల</w>
నాగరికత కు</w>
నాగరికత .</w>
నాగరిక త</w>
నా ది</w>
నా టి</w>
నబ డిన</w>
నద ులు</w>
నద ి</w>
నడిపించట మూ</w>
