{
  "<unk>": 0,
  "<pad>": 1,
  "I": 2,
  "n": 3,
  "d": 4,
  "i": 5,
  "a": 6,
  ",": 7,
  "</w>": 8,
  "o": 9,
  "f": 10,
  "c": 11,
  "l": 12,
  "y": 13,
  "t": 14,
  "h": 15,
  "e": 16,
  "R": 17,
  "p": 18,
  "u": 19,
  "b": 20,
  "s": 21,
  "r": 22,
  "S": 23,
  "A": 24,
  ".": 25,
  "v": 26,
  "-": 27,
  "g": 28,
  "m": 29,
  "w": 30,
  "1": 31,
  "9": 32,
  "4": 33,
  "7": 34,
  "'": 35,
  "B": 36,
  "O": 37,
  "P": 38,
  "k": 39,
  ";": 40,
  "C": 41,
  "N": 42,
  "M": 43,
  "L": 44,
  "T": 45,
  "5": 46,
  "0": 47,
  "V": 48,
  "E": 49,
  "2": 50,
  "H": 51,
  "x": 52,
  "D": 53,
  "J": 54,
  "G": 55,
  "Z": 56,
  "j": 57,
  "8": 58,
  "3": 59,
  "6": 60,
  "U": 61,
  "$": 62,
  "%": 63,
  "q": 64,
  "K": 65,
  "=": 66,
  "\"": 67,
  "F": 68,
  ":": 69,
  "(": 70,
  "Ἰ": 71,
  "ν": 72,
  "δ": 73,
  "ί": 74,
  "α": 75,
  ")": 76,
  "ό": 77,
  "ς": 78,
  "ā": 79,
  "[": 80,
  "ˈ": 81,
  "ʱ": 82,
  "ː": 83,
  "ɾ": 84,
  "ə": 85,
  "]": 86,
  "ɦ": 87,
  "ɪ": 88,
  "ʊ": 89,
  "Y": 90,
  "z": 91,
  "–": 92,
  "—": 93,
  "ṣ": 94,
  "ṭ": 95,
  "ī": 96,
  "ṇ": 97,
  "W": 98,
  "°": 99,
  "′": 100,
  "₹": 101,
  "á": 102,
  "í": 103,
  "â": 104,
  "Ś": 105,
  "ū": 106,
  "Ö": 107,
  "ṅ": 108,
  "भ": 109,
  "ा": 110,
  "र": 111,
  "त": 112,
  "आ": 113,
  "ध": 114,
  "ि": 115,
  "क": 116,
  "न": 117,
  "म": 118,
  "ग": 119,
  "ण": 120,
  "ज": 121,
  "्": 122,
  "य": 123,
  "अ": 124,
  "ं": 125,
  "े": 126,
  "़": 127,
  "ी": 128,
  "ल": 129,
  "प": 130,
  "ब": 131,
  "ऑ": 132,
  "फ": 133,
  "इ": 134,
  "ड": 135,
  "द": 136,
  "ष": 137,
  "ए": 138,
  "श": 139,
  "स": 140,
  "थ": 141,
  "उ": 142,
  "ह": 143,
  "व": 144,
  "ै": 145,
  "।": 146,
  "ौ": 147,
  "ो": 148,
  "ृ": 149,
  "ट": 150,
  "ँ": 151,
  "ख": 152,
  "च": 153,
  "ू": 154,
  "औ": 155,
  "ु": 156,
  "ई": 157,
  "ऋ": 158,
  "ओ": 159,
  "ः": 160,
  "१": 161,
  "८": 162,
  "५": 163,
  "घ": 164,
  "ढ": 165,
  "‌": 166,
  "|": 167,
  "+": 168,
  "ञ": 169,
  "ऊ": 170,
  "छ": 171,
  "ठ": 172,
  "६": 173,
  "०": 174,
  "२": 175,
  "४": 176,
  "७": 177,
  "३": 178,
  "‍": 179,
  "ॉ": 180,
  "॰": 181,
  "‘": 182,
  "’": 183,
  "९": 184,
  "झ": 185,
  "/": 186,
  "ऐ": 187,
  "†": 188,
  "“": 189,
  "”": 190,
  "భ": 191,
  "ా": 192,
  "ర": 193,
  "త": 194,
  "ద": 195,
  "ే": 196,
  "శ": 197,
  "ం": 198,
  "క": 199,
  "ో": 200,
  "ట": 201,
  "్": 202,
  "ల": 203,
  "ు": 204,
  "ప": 205,
  "ై": 206,
  "గ": 207,
  "జ": 208,
  "న": 209,
  "చ": 210,
  "మ": 211,
  "ొ": 212,
  "ి": 213,
  "స": 214,
  "థ": 215,
  "ీ": 216,
  "వ": 217,
  "ణ": 218,
  "య": 219,
  "ఏ": 220,
  "డ": 221,
  "ఉ": 222,
  "అ": 223,
  "ె": 224,
  "ఛ": 225,
  "ఈ": 226,
  "ష": 227,
  "ఒ": 228,
  "ఖ": 229,
  "ఎ": 230,
  "ధ": 231,
  "ూ": 232,
  "హ": 233,
  "బ": 234,
  "ళ": 235,
  "ఆ": 236,
  "ఫ": 237,
  "ఘ": 238,
  "ఇ": 239,
  "ౌ": 240,
  "ృ": 241,
  "ః": 242,
  "ఞ": 243,
  "ఢ": 244,
  "ఐ": 245,
  "ఓ": 246,
  "ఠ": 247,
  "ఋ": 248,
  "ఔ": 249,
  "&": 250,
  "^": 251,
  "ভ": 252,
  "া": 253,
  "র": 254,
  "ত": 255,
  "য": 256,
  "স": 257,
  "ক": 258,
  "ি": 259,
  "ন": 260,
  "ম": 261,
  "ী": 262,
  "়": 263,
  "প": 264,
  "্": 265,
  "জ": 266,
  "দ": 267,
  "ষ": 268,
  "ণ": 269,
  "এ": 270,
  "শ": 271,
  "ট": 272,
  "ৌ": 273,
  "গ": 274,
  "ো": 275,
  "ল": 276,
  "আ": 277,
  "ে": 278,
  "ব": 279,
  "চ": 280,
  "ৃ": 281,
  "হ": 282,
  "ং": 283,
  "অ": 284,
  "খ": 285,
  "ধ": 286,
  "ু": 287,
  "থ": 288,
  "উ": 289,
  "ূ": 290,
  "ও": 291,
  "ছ": 292,
  "ড": 293,
  "ঙ": 294,
  "ই": 295,
  "ৈ": 296,
  "ঘ": 297,
  "৭": 298,
  "৫": 299,
  "১": 300,
  "৪": 301,
  "৬": 302,
  "ঐ": 303,
  "ঞ": 304,
  "ঠ": 305,
  "ৎ": 306,
  "ঃ": 307,
  "৯": 308,
  "০": 309,
  "২": 310,
  "৮": 311,
  "ফ": 312,
  "৩": 313,
  "ঁ": 314,
  "ঝ": 315,
  "ঊ": 316,
  "ο": 317,
  "ঢ": 318,
  "ঋ": 319,
  "ঈ": 320,
  "{": 321,
  "}": 322,
  "´": 323,
  "?": 324,
  "ß": 325,
  "æ": 326,
  "X": 327,
  "è": 328,
  "র</w>": 329,
  "े</w>": 330,
  "।</w>": 331,
  "ा</w>": 332,
  "ে</w>": 333,
  "ं</w>": 334,
  "্র": 335,
  "ার": 336,
  "য়": 337,
  "ी</w>": 338,
  "र</w>": 339,
  "্য": 340,
  "ार": 341,
  "्र": 342,
  "त</w>": 343,
  "मे": 344,
  "ি</w>": 345,
  "ు</w>": 346,
  "র্": 347,
  "్ర": 348,
  "ন্": 349,
  "है": 350,
  "া</w>": 351,
  "्य": 352,
  "বি": 353,
  "ত</w>": 354,
  "ార": 355,
  "ন</w>": 356,
  "ক্": 357,
  "र्": 358,
  "न</w>": 359,
  "क</w>": 360,
  "ও</w>": 361,
  "িক": 362,
  "ాల": 363,
  "স্": 364,
  "ান": 365,
  "य</w>": 366,
  "ి</w>": 367,
  "সা": 368,
  "বা": 369,
  "िय": 370,
  "রা": 371,
  "स्": 372,
  "रा": 373,
  "का": 374,
  "ত্": 375,
  "ভা": 376,
  "లో": 377,
  "তি": 378,
  "भा": 379,
  "তে": 380,
  "ా</w>": 381,
  "స్": 382,
  "তা": 383,
  "क्": 384,
  "ర్": 385,
  "মা": 386,
  "ो</w>": 387,
  "్య": 388,
  "্ব": 389,
  "কা": 390,
  "ం</w>": 391,
  "ল</w>": 392,
  "वि": 393,
  "న్": 394,
  "त्": 395,
  "দে": 396,
  "ान": 397,
  "న</w>": 398,
  "न्": 399,
  "ంద": 400,
  "దే": 401,
  "ल</w>": 402,
  "सा": 403,
  "ক</w>": 404,
  "রে": 405,
  "के": 406,
  "ిక": 407,
  "ि</w>": 408,
  "ना": 409,
  "দ্": 410,
  "లు": 411,
  "নি": 412,
  "मा": 413,
  "তী": 414,
  "या": 415,
  "পর": 416,
  "ই</w>": 417,
  "িত": 418,
  "সং": 419,
  "सं": 420,
  "লে": 421,
  "্ট": 422,
  "िक": 423,
  "কে": 424,
  "লি": 425,
  "రా": 426,
  "হা": 427,
  "ण</w>": 428,
  "ম</w>": 429,
  "म</w>": 430,
  "ती": 431,
  "কর": 432,
  "ిం": 433,
  "త్": 434,
  "క్": 435,
  "না": 436,
  "=</w>": 437,
  "ో</w>": 438,
  "ता": 439,
  "कर": 440,
  "পা": 441,
  "द्": 442,
  "১৯": 443,
  "प्": 444,
  "हु": 445,
  "প্": 446,
  "वा": 447,
  "্চ": 448,
  "গু": 449,
  "ంగ": 450,
  "বে": 451,
  "ী</w>": 452,
  "दे": 453,
  "से": 454,
  "ने": 455,
  "जा": 456,
  "स</w>": 457,
  "వి": 458,
  "হি": 459,
  "ాయ": 460,
  "पर": 461,
  "व</w>": 462,
  "ड़": 463,
  "पा": 464,
  "था": 465,
  "हा": 466,
  "ని": 467,
  "ति": 468,
  "नि": 469,
  "নে": 470,
  "াল": 471,
  "ণ</w>": 472,
  "েছ": 473,
  "య</w>": 474,
  "ాత": 475,
  "ई</w>": 476,
  "చి": 477,
  "জা": 478,
  "লা": 479,
  "్ట": 480,
  "ాన": 481,
  "সম": 482,
  "থা": 483,
  "েক": 484,
  "ుల": 485,
  "জন": 486,
  "सम": 487,
  "মি": 488,
  "భా": 489,
  "రి": 490,
  "द</w>": 491,
  "ద్": 492,
  "যা": 493,
  "్ల": 494,
  "শ</w>": 495,
  "ঙ্": 496,
  "এক": 497,
  "টি": 498,
  "्ट": 499,
  "দি": 500,
  "শি": 501,
  "ंग": 502,
  "ది": 503,
  "कि": 504,
  "ধা": 505,
  "ండ": 506,
  "ের": 507,
  "కు": 508,
  "सक": 509,
  "আই": 510,
  "ला": 511,
  "সর": 512,
  "हि": 513,
  "ড়": 514,
  "ाल": 515,
  "ग</w>": 516,
  "রি": 517,
  "్</w>": 518,
  "ৃত": 519,
  "২০": 520,
  "ং</w>": 521,
  "অন": 522,
  "ंत": 523,
  "త</w>": 524,
  "श</w>": 525,
  "तथ": 526,
  "जि": 527,
  "बा": 528,
  "ষ্": 529,
  "लि": 530,
  "যু": 531,
  "উপ": 532,
  "্প": 533,
  "शा": 534,
  "ু</w>": 535,
  "ము": 536,
  "মধ": 537,
  "এস": 538,
  "এব": 539,
  "जन": 540,
  "ह</w>": 541,
  "সি": 542,
  "వా": 543,
  "శం": 544,
  "श्": 545,
  "ों": 546,
  "ంత": 547,
  "ট</w>": 548,
  "రు": 549,
  "रि": 550,
  "ను": 551,
  "తి": 552,
  "मि": 553,
  "শে": 554,
  "నా": 555,
  "अन": 556,
  "सर": 557,
  "క</w>": 558,
  "रू": 559,
  "ए</w>": 560,
  "ే</w>": 561,
  "ব</w>": 562,
  "పా": 563,
  "ें": 564,
  "সে": 565,
  "री": 566,
  "ల</w>": 567,
  "पू": 568,
  "দা": 569,
  "हो": 570,
  "ষি": 571,
  "सि": 572,
  "కా": 573,
  "मु": 574,
  "प</w>": 575,
  "षि": 576,
  "धि": 577,
  "পূ": 578,
  "ाज": 579,
  "की": 580,
  "ప్": 581,
  "্দ": 582,
  "ছে": 583,
  "িল": 584,
  "াস": 585,
  "यो": 586,
  "తా": 587,
  "సం": 588,
  "ంట": 589,
  "ु</w>": 590,
  "रत": 591,
  "ంచ": 592,
  "డి": 593,
  "়</w>": 594,
  "ষা": 595,
  "টা": 596,
  "సా": 597,
  "ల్": 598,
  "लो": 599,
  "েশ": 600,
  "বৈ": 601,
  "ষে": 602,
  "षा": 603,
  "తీ": 604,
  "को": 605,
  "রত": 606,
  "మా": 607,
  "ली": 608,
  "ट</w>": 609,
  "ুর": 610,
  "বৃ": 611,
  "ष</w>": 612,
  "ंध": 613,
  "ভূ": 614,
  "ল্": 615,
  "గా": 616,
  "ీ</w>": 617,
  "চি": 618,
  "१९": 619,
  "तर": 620,
  "दि": 621,
  "তর": 622,
  "ীন": 623,
  "০-": 624,
  "দু": 625,
  "యి": 626,
  "यु": 627,
  "बन": 628,
  "षे": 629,
  "थ</w>": 630,
  "म्": 631,
  "োগ": 632,
  "ూడ": 633,
  "इस": 634,
  "्त": 635,
  "సి": 636,
  "धा": 637,
  "दा": 638,
  "अप": 639,
  "తు": 640,
  "ভি": 641,
  "পি": 642,
  "పు": 643,
  "रह": 644,
  "ची": 645,
  "ँ</w>": 646,
  "শা": 647,
  "శా": 648,
  "టి": 649,
  "অব": 650,
  "रो": 651,
  "वी": 652,
  "ిన": 653,
  "ष्": 654,
  "্ক": 655,
  "లి": 656,
  "াত": 657,
  "ংশ": 658,
  "रे": 659,
  "তম": 660,
  "াদ": 661,
  "াম": 662,
  "ైన": 663,
  "తర": 664,
  "কৃ": 665,
  "গে": 666,
  "িব": 667,
  "ধি": 668,
  "ढ़": 669,
  "০</w>": 670,
  "बस": 671,
  "कृ": 672,
  "दो": 673,
  "ঞ্": 674,
  "পে": 675,
  "ही": 676,
  "মে": 677,
  "ిత": 678,
  "కి": 679,
  "১</w>": 680,
  "्द": 681,
  "ब</w>": 682,
  "ज</w>": 683,
  "ैं": 684,
  "ध</w>": 685,
  "ले": 686,
  "াচ": 687,
  "অঞ": 688,
  "ম্": 689,
  "०</w>": 690,
  "पु": 691,
  "च</w>": 692,
  "थि": 693,
  "পু": 694,
  "యా": 695,
  "చ్": 696,
  "চল": 697,
  "హి": 698,
  "కో": 699,
  "ধ</w>": 700,
  "িজ": 701,
  "কো": 702,
  "్వ": 703,
  "তৃ": 704,
  "दी": 705,
  "নী": 706,
  "স</w>": 707,
  "ডি": 708,
  "ाय": 709,
  "जी": 710,
  "রু": 711,
  "వర": 712,
  "మొ": 713,
  "৮</w>": 714,
  "মু": 715,
  "দী": 716,
  "থে": 717,
  "वर": 718,
  "गय": 719,
  "াজ": 720,
  "গণ": 721,
  "লো": 722,
  "িষ": 723,
  "্ষ": 724,
  "গা": 725,
  "రై": 726,
  "বল": 727,
  "ుగ": 728,
  "শী": 729,
  "খা": 730,
  "పే": 731,
  "డు": 732,
  "జా": 733,
  "জ্": 734,
  "ल्": 735,
  "ख</w>": 736,
  "ిల": 737,
  "మై": 738,
  "गा": 739,
  "తం": 740,
  "ষ</w>": 741,
  "ড</w>": 742,
  "దా": 743,
  "াপ": 744,
  "शो": 745,
  "चि": 746,
  "েল": 747,
  "हर": 748,
  "ंड": 749,
  "িম": 750,
  "গ্": 751,
  "वो": 752,
  "প</w>": 753,
  "অধ": 754,
  "్న": 755,
  "যে": 756,
  "বস": 757,
  "জি": 758,
  "চা": 759,
  "কি": 760,
  "ూ</w>": 761,
  "వ</w>": 762,
  "ఈ</w>": 763,
  "అధ": 764,
  "शि": 765,
  "भी": 766,
  "टि": 767,
  "్‌": 768,
  "్గ": 769,
  "রী": 770,
  "नी": 771,
  "कु": 772,
  "ুল": 773,
  "মত": 774,
  "ুপ": 775,
  "वत": 776,
  "াক": 777,
  "मो": 778,
  "बी": 779,
  "రత": 780,
  "মো": 781,
  "জ</w>": 782,
  "ां": 783,
  "দ</w>": 784,
  "मी": 785,
  "শ্": 786,
  "चु": 787,
  "आध": 788,
  "सद": 789,
  "డ్": 790,
  "ाद": 791,
  "గు": 792,
  "పట": 793,
  "కొ": 794,
  "৭</w>": 795,
  "গো": 796,
  "গঠ": 797,
  "}}": 798,
  "{{": 799,
  "াণ": 800,
  "थी": 801,
  "चा": 802,
  "্থ": 803,
  "भू": 804,
  "মর": 805,
  "বহ": 806,
  "చే": 807,
  "ূল": 808,
  "పర": 809,
  "ते": 810,
  "রো": 811,
  "াং": 812,
  "গত": 813,
  "नो": 814,
  "ज़": 815,
  "पन": 816,
  "ंद": 817,
  "నే": 818,
  "২</w>": 819,
  "ৈত": 820,
  "উৎ": 821,
  "पह": 822,
  "ফল": 823,
  "টে": 824,
  "ణా": 825,
  "सी": 826,
  "नक": 827,
  "ীত": 828,
  "ज्": 829,
  "শক": 830,
  "রণ": 831,
  "వే": 832,
  "लग": 833,
  "থি": 834,
  "াধ": 835,
  "तृ": 836,
  "కే": 837,
  "মহ": 838,
  "ाम": 839,
  "रु": 840,
  "उप": 841,
  "ীর": 842,
  "০১": 843,
  "০০": 844,
  "জে": 845,
  "్త": 846,
  "৯৯": 847,
  "ষণ": 848,
  "েন": 849,
  "সদ": 850,
  "au": 851,
  "চ্": 852,
  "00": 853,
  "ి.": 854,
  "మి": 855,
  "ছি": 856,
  "-এ": 857,
  "ेश": 858,
  "एश": 859,
  "ణ</w>": 860,
  "৬</w>": 861,
  "৫</w>": 862,
  "হ</w>": 863,
  "বছ": 864,
  "वे": 865,
  "पी": 866,
  "ia": 867,
  "ুষ": 868,
  "లా": 869,
  "రె": 870,
  "గి": 871,
  "ంబ": 872,
  "ैन": 873,
  "శ్": 874,
  "ात": 875,
  "াট": 876,
  "ব্": 877,
  "িখ": 878,
  "చె": 879,
  "ষম": 880,
  "তু": 881,
  "আর": 882,
  "धी": 883,
  "गी": 884,
  "Ne": 885,
  "ధి": 886,
  "్క": 887,
  "ియ": 888,
  "গী": 889,
  "ీయ": 890,
  "সব": 891,
  "ুট": 892,
  "বর": 893,
  "२०": 894,
  "मन": 895,
  "্ড": 896,
  "সু": 897,
  "పె": 898,
  "৪</w>": 899,
  "পশ": 900,
  "టు": 901,
  "ো</w>": 902,
  "ইউ": 903,
  "পত": 904,
  "జన": 905,
  "ाव": 906,
  "ंब": 907,
  "ू</w>": 908,
  "अर": 909,
  "ున": 910,
  "లక": 911,
  "্ম": 912,
  "হয": 913,
  "মন": 914,
  "বত": 915,
  "బ్": 916,
  "hi": 917,
  "शु": 918,
  "दश": 919,
  "च्": 920,
  "লু": 921,
  "ोग": 922,
  "বন": 923,
  "जो": 924,
  "వీ": 925,
  "కృ": 926,
  "ृत": 927,
  "షి": 928,
  "వల": 929,
  "చు": 930,
  "বী": 931,
  "तु": 932,
  "-</w>": 933,
  "सभ": 934,
  "ংগ": 935,
  "ెల": 936,
  "িণ": 937,
  "াগ": 938,
  "మత": 939,
  "ష్": 940,
  "हे": 941,
  "ధా": 942,
  "৯৮": 943,
  "्म": 944,
  "థా": 945,
  "పం": 946,
  "కూ": 947,
  "सू": 948,
  "मै": 949,
  "मध": 950,
  "ोल": 951,
  "ड</w>": 952,
  "అత": 953,
  "থন": 954,
  "ाष": 955,
  "కీ": 956,
  "సభ": 957,
  "మధ": 958,
  "পৃ": 959,
  "Pp": 960,
  "এন": 961,
  "के</w>": 962,
  "िम": 963,
  "బా": 964,
  "हत": 965,
  "কল": 966,
  "ীপ": 967,
  "গ</w>": 968,
  "तक": 969,
  "ँच": 970,
  "५</w>": 971,
  "४</w>": 972,
  "गु": 973,
  "गण": 974,
  "कॉ": 975,
  "దు": 976,
  "শত": 977,
  "భి": 978,
  "িশ": 979,
  "গর": 980,
  "ग्": 981,
  "హా": 982,
  "टे": 983,
  "वं": 984,
  "ंस": 985,
  "పత": 986,
  "తో": 987,
  "আন": 988,
  "गो": 989,
  "में</w>": 990,
  "ాజ": 991,
  "ित": 992,
  "चल": 993,
  "లం": 994,
  "यू": 995,
  "యు": 996,
  "ద</w>": 997,
  "২১": 998,
  "দো": 999,
  "দশ": 1000,
  "থ</w>": 1001,
  "ছা": 1002,
  "খয": 1003,
  "सन": 1004,
  "मह": 1005,
  "ब्": 1006,
  "మీ": 1007,
  "হক": 1008,
  "ेज": 1009,
  "అన": 1010,
  "ুন": 1011,
  "ीक": 1012,
  "ास": 1013,
  "খে": 1014,
  "शी": 1015,
  "षो": 1016,
  "गठ": 1017,
  "িচ": 1018,
  "एव": 1019,
  "ఒక": 1020,
  "ঁচ": 1021,
  "మే": 1022,
  "ిగ": 1023,
  "िण": 1024,
  "్మ": 1025,
  "ুস": 1026,
  "ঠি": 1027,
  "వం": 1028,
  "अध": 1029,
  "భు": 1030,
  "పూ": 1031,
  "বো": 1032,
  "অজ": 1033,
  "రో": 1034,
  "మన": 1035,
  "ুক": 1036,
  "লী": 1037,
  "भि": 1038,
  "पे": 1039,
  "వు": 1040,
  "১১": 1041,
  "োট": 1042,
  "ভার": 1043,
  "८</w>": 1044,
  "२</w>": 1045,
  "ैल": 1046,
  "फ़": 1047,
  "फ</w>": 1048,
  "ण्": 1049,
  "ंक": 1050,
  "రక": 1051,
  "కర": 1052,
  "৯৭": 1053,
  "ষর": 1054,
  "মূ": 1055,
  "्प": 1056,
  "ीय": 1057,
  "వహ": 1058,
  "ির": 1059,
  "भार": 1060,
  "సమ": 1061,
  "ईस": 1062,
  "ाँ": 1063,
  "लन": 1064,
  "अव": 1065,
  "अभ": 1066,
  "েম": 1067,
  "াই": 1068,
  "মী": 1069,
  "তন": 1070,
  "pp": 1071,
  "ाप": 1072,
  "లన": 1073,
  "চন": 1074,
  "नत": 1075,
  "్థ": 1076,
  "శ</w>": 1077,
  "పో": 1078,
  "৩</w>": 1079,
  "াব": 1080,
  "য়</w>": 1081,
  "ভ</w>": 1082,
  "వె": 1083,
  "৫৬": 1084,
  "িন": 1085,
  "రం": 1086,
  "প্র": 1087,
  "६</w>": 1088,
  "सो": 1089,
  "शे": 1090,
  "సు": 1091,
  "వత": 1092,
  "ুম": 1093,
  "সভ": 1094,
  "सह": 1095,
  "अल": 1096,
  "సర": 1097,
  "েস": 1098,
  "-১": 1099,
  "িএ": 1100,
  "িদ": 1101,
  "ুত": 1102,
  "गत": 1103,
  "లే": 1104,
  "সফ": 1105,
  "ধী": 1106,
  "এট": 1107,
  "भर": 1108,
  "अम": 1109,
  "టా": 1110,
  "గర": 1111,
  "ূর": 1112,
  "চী": 1113,
  "ংস": 1114,
  "యం": 1115,
  "াড": 1116,
  "मू": 1117,
  "नव": 1118,
  "और</w>": 1119,
  "పి": 1120,
  "టీ": 1121,
  "నద": 1122,
  "হে": 1123,
  "শন": 1124,
  "ণি": 1125,
  "षण": 1126,
  "ీడ": 1127,
  "৪৪": 1128,
  "ধৃ": 1129,
  "জো": 1130,
  "ld": 1131,
  "ోర": 1132,
  "ై</w>": 1133,
  "మల": 1134,
  "ఇద": 1135,
  "ীক": 1136,
  "াহ": 1137,
  "থম": 1138,
  "ণত": 1139,
  "টো": 1140,
  "भारत</w>": 1141,
  "नद": 1142,
  "जै": 1143,
  "छो": 1144,
  "आ</w>": 1145,
  "जल": 1146,
  "హద": 1147,
  "ంధ": 1148,
  "ধর": 1149,
  "আগ": 1150,
  "पत": 1151,
  "उद": 1152,
  "प्र": 1153,
  "की</w>": 1154,
  "కల": 1155,
  "নত": 1156,
  "ाक": 1157,
  "्थ": 1158,
  "अस": 1159,
  "ీత": 1160,
  "వై": 1161,
  "బె": 1162,
  "గో": 1163,
  "ంప": 1164,
  "১৭": 1165,
  "সূ": 1166,
  "সহ": 1167,
  "লক": 1168,
  "তথ": 1169,
  "কম": 1170,
  "অভ": 1171,
  "डि": 1172,
  "इं": 1173,
  "आर": 1174,
  "রক": 1175,
  "ाच": 1176,
  "जब": 1177,
  "अं": 1178,
  "ধন": 1179,
  "ণ্": 1180,
  "উদ": 1181,
  "िन": 1182,
  "৯-": 1183,
  "সক": 1184,
  "ণে": 1185,
  "००": 1186,
  "ील": 1187,
  "ीत": 1188,
  "टी": 1189,
  "ंप": 1190,
  "্গ": 1191,
  "াষ": 1192,
  "दु": 1193,
  "షల": 1194,
  "োজ": 1195,
  "খ</w>": 1196,
  "७</w>": 1197,
  "ॉल": 1198,
  "सु": 1199,
  "मौ": 1200,
  "थव": 1201,
  "छ</w>": 1202,
  "घो": 1203,
  "आद": 1204,
  "ः</w>": 1205,
  "ౌక": 1206,
  "ళ</w>": 1207,
  "మ</w>": 1208,
  "ఖ</w>": 1209,
  "ভৌ": 1210,
  "বু": 1211,
  "ফে": 1212,
  "উচ": 1213,
  "खा": 1214,
  "|n": 1215,
  "৪৫": 1216,
  "জল": 1217,
  "-৩": 1218,
  "ृष": 1219,
  "यह": 1220,
  "बे": 1221,
  "तो": 1222,
  "িক</w>": 1223,
  "है।</w>": 1224,
  "rn": 1225,
  "का</w>": 1226,
  "Pa": 1227,
  "ెస": 1228,
  "ీన": 1229,
  "ణి": 1230,
  "েষ": 1231,
  "েত": 1232,
  "পদ": 1233,
  "নক": 1234,
  "ঘট": 1235,
  "र-": 1236,
  "मं": 1237,
  "बड": 1238,
  "s.": 1239,
  "%)": 1240,
  "ইন": 1241,
  "ीं": 1242,
  "दू": 1243,
  "गर": 1244,
  "इन": 1245,
  "ు,": 1246,
  "ा।": 1247,
  "బహ": 1248,
  "బడ": 1249,
  "ఉప": 1250,
  "৪.": 1251,
  "০৬": 1252,
  "ইট": 1253,
  "रख": 1254,
  "जप": 1255,
  "आक": 1256,
  "से</w>": 1257,
  "ీల": 1258,
  "దర": 1259,
  "కట": 1260,
  "তক": 1261,
  "কট": 1262,
  "्क": 1263,
  "ాచ": 1264,
  "దట": 1265,
  "గ్": 1266,
  "সল": 1267,
  "আদ": 1268,
  "অত": 1269,
  "(১": 1270,
  "ुस": 1271,
  "सत": 1272,
  "व्": 1273,
  "वश": 1274,
  "दर": 1275,
  "आत": 1276,
  "కం": 1277,
  "ప్ర": 1278,
  "३</w>": 1279,
  "१</w>": 1280,
  "हथ": 1281,
  "बद": 1282,
  "पं": 1283,
  "कत": 1284,
  "26": 1285,
  "ণা": 1286,
  "ने</w>": 1287,
  "ोस": 1288,
  "ाए": 1289,
  "पै": 1290,
  "थे": 1291,
  "నె": 1292,
  "దీ": 1293,
  "১-": 1294,
  "ডল": 1295,
  "లో</w>": 1296,
  "ाण": 1297,
  "ये": 1298,
  "2,": 1299,
  "—</w>": 1300,
  "శప": 1301,
  "భూ": 1302,
  "ఇవ": 1303,
  "ఆధ": 1304,
  "শহ": 1305,
  "শব": 1306,
  "রূ": 1307,
  "জু": 1308,
  "ইং": 1309,
  "আঞ": 1310,
  "గం": 1311,
  "সন": 1312,
  "এই": 1313,
  "ইল": 1314,
  "ेर": 1315,
  "िव": 1316,
  "शह": 1317,
  "oh": 1318,
  "-প": 1319,
  "భార": 1320,
  "ei": 1321,
  "ు.": 1322,
  "ివ": 1323,
  "ের</w>": 1324,
  "৯৫": 1325,
  "৭৪": 1326,
  "পী": 1327,
  "তব": 1328,
  "्य</w>": 1329,
  "िर": 1330,
  "पो": 1331,
  "टा": 1332,
  "‌</w>": 1333,
  "ూర": 1334,
  "మర": 1335,
  "্ভ": 1336,
  "ৃহ": 1337,
  "হত": 1338,
  "ইত": 1339,
  "ి.</w>": 1340,
  "शक": 1341,
  "্য</w>": 1342,
  "ेत": 1343,
  "ైల": 1344,
  "ిర": 1345,
  "వస": 1346,
  "యో": 1347,
  "యమ": 1348,
  "ధ</w>": 1349,
  "తమ": 1350,
  "৩৩": 1351,
  "্স": 1352,
  "ুদ": 1353,
  "16": 1354,
  "তের</w>": 1355,
  "సై": 1356,
  "ర</w>": 1357,
  "২৮": 1358,
  "১.": 1359,
  "োম": 1360,
  "হন": 1361,
  "রম": 1362,
  "ভক": 1363,
  "দক": 1364,
  "ঠে": 1365,
  "টি</w>": 1366,
  "খন": 1367,
  "কু": 1368,
  "আধ": 1369,
  "ौद": 1370,
  "पि": 1371,
  "गई": 1372,
  "वै": 1373,
  "भ</w>": 1374,
  "घ</w>": 1375,
  "आग": 1376,
  "अफ": 1377,
  "ంక": 1378,
  "ৃষ": 1379,
  "को</w>": 1380,
  "ों</w>": 1381,
  "वस": 1382,
  "मत": 1383,
  "ंज": 1384,
  "ँक": 1385,
  "েট": 1386,
  "তীয়</w>": 1387,
  "ుక": 1388,
  "ुक": 1389,
  "ता</w>": 1390,
  "ెట": 1391,
  "నీ": 1392,
  "నవ": 1393,
  "నం": 1394,
  "దల": 1395,
  "గణ": 1396,
  "০৭": 1397,
  "ৎ</w>": 1398,
  "োষ": 1399,
  "িউ": 1400,
  "হয়": 1401,
  "লন": 1402,
  "মৌ": 1403,
  "মব": 1404,
  "ভারতের</w>": 1405,
  "বব": 1406,
  "ফি": 1407,
  "নগ": 1408,
  "দৈ": 1409,
  "কত": 1410,
  "অপ": 1411,
  "ंख": 1412,
  "(২": 1413,
  "cr": 1414,
  "ंट": 1415,
  "৩৫": 1416,
  "্ন": 1417,
  "ীব": 1418,
  "হল": 1419,
  "চু": 1420,
  "ঘা": 1421,
  ".৭": 1422,
  "हैं": 1423,
  "చా": 1424,
  "सल": 1425,
  "लय": 1426,
  "अत": 1427,
  "7,": 1428,
  "'</w>": 1429,
  "ఉన": 1430,
  "మం": 1431,
  "৫১": 1432,
  "৩-": 1433,
  "ুগ": 1434,
  "রব": 1435,
  "এর": 1436,
  "ংখ": 1437,
  "ेख": 1438,
  "(|": 1439,
  "তে</w>": 1440,
  "ువ": 1441,
  "రీ": 1442,
  "రమ": 1443,
  "(স": 1444,
  "राज": 1445,
  "్ప": 1446,
  "మె": 1447,
  "పద": 1448,
  "నడ": 1449,
  "తె": 1450,
  "టె": 1451,
  "২-": 1452,
  "১৪": 1453,
  "বক": 1454,
  "পো": 1455,
  "পণ": 1456,
  "নো": 1457,
  "ডে": 1458,
  "কূ": 1459,
  "এল": 1460,
  "এ</w>": 1461,
  "অস": 1462,
  "पर</w>": 1463,
  "Bo": 1464,
  ".৮": 1465,
  "ोत": 1466,
  "उत": 1467,
  "ాలు</w>": 1468,
  "దేశ": 1469,
  "ామ": 1470,
  "..": 1471,
  "ంది.</w>": 1472,
  "ত্র": 1473,
  "९</w>": 1474,
  "२.": 1475,
  "शत": 1476,
  "फि": 1477,
  "नौ": 1478,
  "डी": 1479,
  "ठ</w>": 1480,
  "जू": 1481,
  "अग": 1482,
  "ాస": 1483,
  "రూ": 1484,
  "పై": 1485,
  "৬৫": 1486,
  "১২": 1487,
  "০৪": 1488,
  "ীল": 1489,
  "ণী": 1490,
  "টব": 1491,
  "খি": 1492,
  "খণ": 1493,
  "আক": 1494,
  "यि": 1495,
  "मल": 1496,
  "बै": 1497,
  "बह": 1498,
  "नग": 1499,
  "तीय</w>": 1500,
  "िया</w>": 1501,
  "ेल": 1502,
  "E</w>": 1503,
  "ాప": 1504,
  "లె": 1505,
  "সী": 1506,
  "মস": 1507,
  "ইস": 1508,
  "আস": 1509,
  "আজ": 1510,
  "-ব": 1511,
  "న్న": 1512,
  "ক্ষ": 1513,
  "ाट": 1514,
  "कह": 1515,
  "ృత": 1516,
  "্জ": 1517,
  "ভারতীয়</w>": 1518,
  "भारतीय</w>": 1519,
  "ভারত</w>": 1520,
  "ीस": 1521,
  "िया": 1522,
  "यद": 1523,
  "आप": 1524,
  "cy": 1525,
  "हैं।</w>": 1526,
  "వృ": 1527,
  "వడ": 1528,
  "వగ": 1529,
  "ళం": 1530,
  "పొ": 1531,
  "పల": 1532,
  "దగ": 1533,
  "థ</w>": 1534,
  "৩৭": 1535,
  "মদ": 1536,
  "ঠ</w>": 1537,
  "ঝা": 1538,
  "জৈ": 1539,
  "ाओ": 1540,
  "़</w>": 1541,
  "24": 1542,
  "ষ্ট": 1543,
  "तथा</w>": 1544,
  "ళ్": 1545,
  "తన": 1546,
  "జ్": 1547,
  "జల": 1548,
  "৯৬": 1549,
  "৯০": 1550,
  "৮৫": 1551,
  "৫৫": 1552,
  "লগ": 1553,
  "রচ": 1554,
  "ुम": 1555,
  "एन": 1556,
  "96": 1557,
  "-प": 1558,
  "భారత": 1559,
  "एक</w>": 1560,
  "१८": 1561,
  "सश": 1562,
  "रद": 1563,
  "पड": 1564,
  "धु": 1565,
  "चन": 1566,
  "ుట": 1567,
  "ాబ": 1568,
  "యవ": 1569,
  "మూ": 1570,
  "০৮": 1571,
  "লে</w>": 1572,
  "वर्": 1573,
  "लत": 1574,
  "ध्": 1575,
  "12": 1576,
  "ాడ": 1577,
  "ాగ": 1578,
  "১৩": 1579,
  "কন": 1580,
  "्न": 1581,
  "এবং</w>": 1582,
  "भी</w>": 1583,
  "బి": 1584,
  "డ</w>": 1585,
  "చన": 1586,
  "ఆక": 1587,
  "৬৬": 1588,
  "৬.": 1589,
  "োব": 1590,
  "যদ": 1591,
  "চে": 1592,
  "ংল": 1593,
  "४.": 1594,
  "०,": 1595,
  "है</w>": 1596,
  "बौ": 1597,
  "ति</w>": 1598,
  "घी": 1599,
  "-৮": 1600,
  "বে</w>": 1601,
  "40": 1602,
  "েকে</w>": 1603,
  "দ্র": 1604,
  "থেকে</w>": 1605,
  "ोड": 1606,
  "सफ": 1607,
  "लु": 1608,
  "नर": 1609,
  "णि": 1610,
  "चो": 1611,
  "ऋत": 1612,
  "आस": 1613,
  "রথ": 1614,
  "নৈ": 1615,
  "্যা": 1616,
  "এই</w>": 1617,
  "ిక</w>": 1618,
  "শ্ব": 1619,
  "করে": 1620,
  "ీక": 1621,
  "షణ": 1622,
  "షం": 1623,
  "లీ": 1624,
  "మహ": 1625,
  "ఫ్": 1626,
  "పక": 1627,
  "నల": 1628,
  "ధ్": 1629,
  "ధు": 1630,
  "తూ": 1631,
  "జి": 1632,
  "గే": 1633,
  "గీ": 1634,
  "అవ": 1635,
  "৯</w>": 1636,
  "২৩": 1637,
  "োল": 1638,
  "ভো": 1639,
  "ভে": 1640,
  "বিশ্ব": 1641,
  "ডা": 1642,
  "অক": 1643,
  "कार</w>": 1644,
  "कर</w>": 1645,
  "-৭": 1646,
  "(ম": 1647,
  "ক্র": 1648,
  "এসবি": 1649,
  "আইএসবি": 1650,
  "मर": 1651,
  "टन": 1652,
  "आय": 1653,
  "As": 1654,
  "ভারতে</w>": 1655,
  "कार": 1656,
  "োর": 1657,
  "মধ্য": 1658,
  "একটি</w>": 1659,
  "हन": 1660,
  "बि": 1661,
  "कल": 1662,
  "ऊँ": 1663,
  "आं": 1664,
  "ंह": 1665,
  "Po": 1666,
  "সালে</w>": 1667,
  "ीय</w>": 1668,
  "14": 1669,
  "ాణ": 1670,
  "జక": 1671,
  "గల": 1672,
  "হয়।</w>": 1673,
  "শৈ": 1674,
  "শু": 1675,
  "রাষ্ট": 1676,
  "পূর্": 1677,
  "গৌ": 1678,
  "উভ": 1679,
  "উন": 1680,
  "আফ": 1681,
  "ुल": 1682,
  "वन": 1683,
  "मद": 1684,
  "बो": 1685,
  "बढ": 1686,
  "पूर्": 1687,
  "तग": 1688,
  "तक</w>": 1689,
  "जम": 1690,
  "|p": 1691,
  "1-": 1692,
  "ন্ত্র": 1693,
  "ना</w>": 1694,
  "क्षि": 1695,
  "Br": 1696,
  "দেশ": 1697,
  "এন</w>": 1698,
  "আইএসবিএন</w>": 1699,
  "उन": 1700,
  "ंत्र": 1701,
  "ీ,": 1702,
  "వన": 1703,
  "దన": 1704,
  "కళ": 1705,
  "৪-": 1706,
  "৩২": 1707,
  "৩০": 1708,
  "হু": 1709,
  "ভু": 1710,
  "থব": 1711,
  "ঠী": 1712,
  "কস": 1713,
  ".৬": 1714,
  ".১": 1715,
  "-আ": 1716,
  "বর্": 1717,
  "क्षे": 1718,
  "6%": 1719,
  "ాయి.</w>": 1720,
  "দের</w>": 1721,
  "তার</w>": 1722,
  "ौत": 1723,
  "ेस": 1724,
  "ेड": 1725,
  "हिन्": 1726,
  "देश</w>": 1727,
  "दक्षि": 1728,
  "ठा": 1729,
  "टर": 1730,
  "गि": 1731,
  "क्ष": 1732,
  "कं": 1733,
  "उत्": 1734,
  "Sa": 1735,
  "23": 1736,
  "్స": 1737,
  "ీర": 1738,
  "ిశ": 1739,
  "లత": 1740,
  "దేశం": 1741,
  "టే": 1742,
  "৯৪": 1743,
  "৬-": 1744,
  "১৮": 1745,
  "রাষ্ট্র": 1746,
  "রাজ": 1747,
  "রদ": 1748,
  "ফো": 1749,
  "নব": 1750,
  "নদ": 1751,
  "ধে": 1752,
  "তি</w>": 1753,
  "ঞা": 1754,
  "साथ</w>": 1755,
  "त्र</w>": 1756,
  "-অ": 1757,
  "স্থ": 1758,
  "লের</w>": 1759,
  "গুল": 1760,
  "सै": 1761,
  "तं": 1762,
  "97": 1763,
  "ধান</w>": 1764,
  "ঙ্গ": 1765,
  "बाद</w>": 1766,
  "ते</w>": 1767,
  "ओं</w>": 1768,
  "02": 1769,
  "ుర": 1770,
  "ণু": 1771,
  "ীয়</w>": 1772,
  "তম</w>": 1773,
  "কার": 1774,
  "्यों</w>": 1775,
  "ूब": 1776,
  "हॉ": 1777,
  "वृ": 1778,
  "लौ": 1779,
  "रच": 1780,
  "बज": 1781,
  "नय": 1782,
  "दक्षिण</w>": 1783,
  "चे": 1784,
  "एं": 1785,
  "04": 1786,
  "స్థ": 1787,
  "దేశం</w>": 1788,
  "ంగా</w>": 1789,
  "হয়েছ": 1790,
  "সংখ": 1791,
  "ন্দ্র": 1792,
  "গ্র": 1793,
  "অন্য": 1794,
  "सबस": 1795,
  "सबसे</w>": 1796,
  "यह</w>": 1797,
  "11": 1798,
  "ెన": 1799,
  "సూ": 1800,
  "ళి": 1801,
  "లు</w>": 1802,
  "రే": 1803,
  "నో": 1804,
  "నన": 1805,
  "దూ": 1806,
  "తే": 1807,
  "టై": 1808,
  "కన": 1809,
  "৮৭": 1810,
  "৪৭": 1811,
  "৩৮": 1812,
  "২৫": 1813,
  "াউ": 1814,
  "লয": 1815,
  "রহ": 1816,
  "য়া": 1817,
  "মধ্যে</w>": 1818,
  "ব্য": 1819,
  "পন": 1820,
  "ত-": 1821,
  "চ</w>": 1822,
  "ঘো": 1823,
  "এম": 1824,
  "উঠ": 1825,
  "আয": 1826,
  "অং": 1827,
  "२४": 1828,
  "ौह": 1829,
  "ष्ट": 1830,
  "बहु": 1831,
  "दी</w>": 1832,
  "त्र": 1833,
  "ती</w>": 1834,
  "तत": 1835,
  "ञा": 1836,
  "जय": 1837,
  "उभ": 1838,
  "46": 1839,
  ",৬": 1840,
  "్య</w>": 1841,
  "স্থা": 1842,
  "গুলি</w>": 1843,
  "ారు": 1844,
  "হায": 1845,
  "হায্য": 1846,
  "সাহায্য": 1847,
  "য়।</w>": 1848,
  "ক্ষি": 1849,
  "কার</w>": 1850,
  "रूप</w>": 1851,
  "मान": 1852,
  "गए": 1853,
  "इत": 1854,
  "ंग्र": 1855,
  "2%": 1856,
  "৫০": 1857,
  "োদ": 1858,
  "লব": 1859,
  "ించి": 1860,
  "ాలు": 1861,
  "ష్ట": 1862,
  "হল</w>": 1863,
  "যুক্": 1864,
  "বা</w>": 1865,
  "है,</w>": 1866,
  "सके</w>": 1867,
  "राज्य</w>": 1868,
  "बंध": 1869,
  "प्रा": 1870,
  "धर्": 1871,
  "K.": 1872,
  "65": 1873,
  "21": 1874,
  "(সাহায্য": 1875,
  "ులు</w>": 1876,
  "లు,</w>": 1877,
  "న్న</w>": 1878,
  "ని</w>": 1879,
  "త్ర": 1880,
  "జాత": 1881,
  "ে।</w>": 1882,
  "শতা": 1883,
  "মহা": 1884,
  "ত্র</w>": 1885,
  "অঞ্চ": 1886,
  "शन": 1887,
  "राष्ट": 1888,
  "भाषा": 1889,
  "दल": 1890,
  "था</w>": 1891,
  "किया</w>": 1892,
  "अधि": 1893,
  "xi": 1894,
  "22": 1895,
  "ిట": 1896,
  "ాఖ": 1897,
  "శి": 1898,
  "పడ": 1899,
  "ను</w>": 1900,
  "ధత": 1901,
  "దం": 1902,
  "టం": 1903,
  "చై": 1904,
  "৯৩": 1905,
  "৮২": 1906,
  "৫৪": 1907,
  "৫.": 1908,
  "৪১": 1909,
  "০৫": 1910,
  "ি-": 1911,
  "সৃ": 1912,
  "শের</w>": 1913,
  "শো": 1914,
  "র্বা": 1915,
  "র-": 1916,
  "বধ": 1917,
  "প্রধান</w>": 1918,
  "গুলি": 1919,
  "ক-": 1920,
  "এর</w>": 1921,
  "আব": 1922,
  "অর্": 1923,
  "सरकार</w>": 1924,
  "शास": 1925,
  "या</w>": 1926,
  "तर</w>": 1927,
  ")।</w>": 1928,
  "ీయ</w>": 1929,
  "రాజ": 1930,
  "ারা": 1931,
  "য়ে</w>": 1932,
  "মে</w>": 1933,
  "মান": 1934,
  "নের</w>": 1935,
  "দেশের</w>": 1936,
  "তা</w>": 1937,
  "ক্ষা</w>": 1938,
  "ক্ষে": 1939,
  "করে।</w>": 1940,
  "উত্": 1941,
  "६५": 1942,
  "्या": 1943,
  "्</w>": 1944,
  "ेद": 1945,
  "ियों</w>": 1946,
  "विश्": 1947,
  "य-": 1948,
  "मग": 1949,
  "भु": 1950,
  "धन": 1951,
  "णु": 1952,
  "उस": 1953,
  "భారతీ": 1954,
  "భారత</w>": 1955,
  "కు</w>": 1956,
  "ఉన్న": 1957,
  "সংখ্য": 1958,
  "মাল": 1959,
  "দ্ধ": 1960,
  "কেন্দ্র": 1961,
  "स्ता": 1962,
  "जो</w>": 1963,
  "bh": 1964,
  "ోక": 1965,
  "ీఠ": 1966,
  "ీ-": 1967,
  "హై": 1968,
  "సహ": 1969,
  "మౌ": 1970,
  "భౌ": 1971,
  "థి": 1972,
  "జమ": 1973,
  "చబ": 1974,
  "చట": 1975,
  "గె": 1976,
  "కథ": 1977,
  "ఎల": 1978,
  "ఆహ": 1979,
  "అహ": 1980,
  "ంభ": 1981,
  "হও": 1982,
  "পৌ": 1983,
  "নৌ": 1984,
  "থ-": 1985,
  "টও": 1986,
  "ছ</w>": 1987,
  "ঘ</w>": 1988,
  "গি": 1989,
  "এফ": 1990,
  "আট": 1991,
  "ংহ": 1992,
  "xx": 1993,
  "ka": 1994,
  "SB": 1995,
  "N</w>": 1996,
  "(০": 1997,
  "ాల</w>": 1998,
  "వ్య": 1999,
  "২০০": 2000,
  "্যের</w>": 2001,
  "য়েছ": 2002,
  "ন্ত": 2003,
  "দ্ব": 2004,
  "्रि": 2005,
  "िका</w>": 2006,
  "ाइ": 2007,
  "स्था": 2008,
  "शासन</w>": 2009,
  "बड़": 2010,
  "प्त</w>": 2011,
  "निर्": 2012,
  "दस": 2013,
  "कम": 2014,
  "ికి</w>": 2015,
  "ష్ట్ర": 2016,
  "వాత": 2017,
  "రాష్ట్ర": 2018,
  "గా</w>": 2019,
  "క్ర": 2020,
  "కూడ": 2021,
  "সঙ্গ": 2022,
  "প্রতি": 2023,
  "शों</w>": 2024,
  "राष्ट्र": 2025,
  "मंत्र": 2026,
  "पूर्व</w>": 2027,
  "जाता</w>": 2028,
  "क्षेत्र</w>": 2029,
  "ూప": 2030,
  "ీష": 2031,
  "ీ.": 2032,
  "ారు.</w>": 2033,
  "మార": 2034,
  "భారతీయ</w>": 2035,
  "భారతదేశం": 2036,
  "బు": 2037,
  "నట": 2038,
  "చవ": 2039,
  "ంలో</w>": 2040,
  "৯১": 2041,
  "৬৩": 2042,
  "১০": 2043,
  "ুব": 2044,
  "ারে</w>": 2045,
  "স্বা": 2046,
  "মণ": 2047,
  "বৃহ": 2048,
  "বিশ্বের</w>": 2049,
  "ণ-": 2050,
  "ঠা": 2051,
  "চর": 2052,
  "গুলির</w>": 2053,
  "উদ্": 2054,
  "ुष": 2055,
  "िया।</w>": 2056,
  "ारी</w>": 2057,
  "स्कृ": 2058,
  "विश्व</w>": 2059,
  "वप": 2060,
  "भग": 2061,
  "तट": 2062,
  "चीन</w>": 2063,
  "घा": 2064,
  "इस</w>": 2065,
  "अनु": 2066,
  "ंग्रे": 2067,
  ".৪": 2068,
  "BC": 2069,
  "62": 2070,
  "భారతదేశం</w>": 2071,
  "పాల": 2072,
  "జాతీయ</w>": 2073,
  "ంత్ర": 2074,
  "হিন্": 2075,
  "সংস্": 2076,
  "মাণ": 2077,
  "ভাবে</w>": 2078,
  "টার</w>": 2079,
  "জাতীয়</w>": 2080,
  "করে</w>": 2081,
  "করা</w>": 2082,
  "िक</w>": 2083,
  "साम": 2084,
  "राज्यों</w>": 2085,
  "या।</w>": 2086,
  "में": 2087,
  "बढ़": 2088,
  "पार": 2089,
  "धान</w>": 2090,
  "धान": 2091,
  "देशों</w>": 2092,
  "कि</w>": 2093,
  "}}:</w>": 2094,
  "32": 2095,
  "(সাহায্য)</w>": 2096,
  "ాలు,</w>": 2097,
  "ৈতিক</w>": 2098,
  "িত</w>": 2099,
  "রয়েছ": 2100,
  "ভাষা": 2101,
  "পার": 2102,
  "ধার": 2103,
  "কে</w>": 2104,
  "উল্": 2105,
  "९६": 2106,
  "९.": 2107,
  "२५": 2108,
  "१७": 2109,
  "१,": 2110,
  "्ब": 2111,
  "ौर": 2112,
  "ोह": 2113,
  "ेण": 2114,
  "िष": 2115,
  "हीं</w>": 2116,
  "समय</w>": 2117,
  "समा": 2118,
  "वार": 2119,
  "वस्": 2120,
  "वल": 2121,
  "मुख</w>": 2122,
  "महा": 2123,
  "मण": 2124,
  "भो": 2125,
  "फु": 2126,
  "प्रमुख</w>": 2127,
  "द्ध</w>": 2128,
  "जु": 2129,
  "चौ": 2130,
  "चर": 2131,
  "गै": 2132,
  "ख्य": 2133,
  "काल</w>": 2134,
  "उठ": 2135,
  "आन": 2136,
  "अन्य</w>": 2137,
  "(C": 2138,
  "ేక": 2139,
  "చీ": 2140,
  "৭১": 2141,
  "৭০": 2142,
  "হী": 2143,
  "ন-": 2144,
  "টক": 2145,
  "কগ": 2146,
  "Fo": 2147,
  "-৬": 2148,
  "-স": 2149,
  "(ব": 2150,
  "వచ్": 2151,
  "ప్రా": 2152,
  "ద్ధ": 2153,
  "క్ష": 2154,
  "ఉంది.</w>": 2155,
  "্যারা": 2156,
  "্যারামি": 2157,
  "ীর</w>": 2158,
  "ান্য</w>": 2159,
  "সরকার</w>": 2160,
  "সরকার": 2161,
  "সম্প": 2162,
  "বৃহত্": 2163,
  "পরি": 2164,
  "প্যারামি": 2165,
  "ধান": 2166,
  "ধর্": 2167,
  "দেশে</w>": 2168,
  "দক্ষি": 2169,
  "তার": 2170,
  "উল্লে": 2171,
  "ইন্": 2172,
  "हैं,</w>": 2173,
  "हिन्दी</w>": 2174,
  "हो</w>": 2175,
  "सार</w>": 2176,
  "श्चि": 2177,
  "वर्ष</w>": 2178,
  "लिए</w>": 2179,
  "नाम</w>": 2180,
  "द्र</w>": 2181,
  "दो</w>": 2182,
  "गया</w>": 2183,
  "करो": 2184,
  "(A": 2185,
  "లోని</w>": 2186,
  "పార": 2187,
  "పంచ": 2188,
  "ఉన్నాయి.</w>": 2189,
  "্রি": 2190,
  "সালের</w>": 2191,
  "সঙ্গে</w>": 2192,
  "সংখ্যা</w>": 2193,
  "প্রাচ": 2194,
  "ন্ধ": 2195,
  "ন্ত</w>": 2196,
  "ধীন": 2197,
  "তর</w>": 2198,
  "४७": 2199,
  "्श": 2200,
  "ीम": 2201,
  "िये</w>": 2202,
  "हैं</w>": 2203,
  "ही</w>": 2204,
  "सेना</w>": 2205,
  "संस्कृ": 2206,
  "वों</w>": 2207,
  "ले</w>": 2208,
  "मान</w>": 2209,
  "मश": 2210,
  "फल": 2211,
  "पस": 2212,
  "पम": 2213,
  "नन": 2214,
  "धर्म</w>": 2215,
  "था।</w>": 2216,
  "ढा": 2217,
  "डॉ": 2218,
  "डा": 2219,
  "ठि": 2220,
  "जग": 2221,
  "खे": 2222,
  "क्षा</w>": 2223,
  "क्त</w>": 2224,
  "करने</w>": 2225,
  "कस": 2226,
  "कप": 2227,
  "कट": 2228,
  "ऐस": 2229,
  "एस": 2230,
  "इज": 2231,
  "अन्": 2232,
  "Tr": 2233,
  "59": 2234,
  "‌ల": 2235,
  "‌క": 2236,
  "ోధ": 2237,
  "ేజ": 2238,
  "ెబ": 2239,
  "ించ": 2240,
  "ాళ": 2241,
  "హింద": 2242,
  "స్తు": 2243,
  "సత": 2244,
  "వ్యవ": 2245,
  "వచ్చి": 2246,
  "రచ": 2247,
  "యత": 2248,
  "మార్గ": 2249,
  "తల": 2250,
  "జె": 2251,
  "జీ": 2252,
  "కార": 2253,
  "৭৬": 2254,
  "৭,": 2255,
  "৭%": 2256,
  "৩৯": 2257,
  "২৯": 2258,
  "২৪": 2259,
  "২,": 2260,
  "১৯৯": 2261,
  "িত।</w>": 2262,
  "ানে</w>": 2263,
  "হো": 2264,
  "স্তা": 2265,
  "স-": 2266,
  "শিল": 2267,
  "রফ": 2268,
  "ভট": 2269,
  "বৃহত্তম</w>": 2270,
  "পশ্চ": 2271,
  "পথ": 2272,
  "নর": 2273,
  "দেশ</w>": 2274,
  "তির</w>": 2275,
  "ডো": 2276,
  "খো": 2277,
  "খা</w>": 2278,
  "এখ": 2279,
  "আখ": 2280,
  "অন্যান্য</w>": 2281,
  "ाने</w>": 2282,
  "होता</w>": 2283,
  "हुई</w>": 2284,
  "स्तान</w>": 2285,
  "स्वत": 2286,
  "स्त": 2287,
  "व्य": 2288,
  "ली</w>": 2289,
  "भाष": 2290,
  "पाकि": 2291,
  "नहीं</w>": 2292,
  "तिक</w>": 2293,
  "चुना": 2294,
  "कारण</w>": 2295,
  "कई</w>": 2296,
  "इसके</w>": 2297,
  "अधिक</w>": 2298,
  "-৪": 2299,
  "-০": 2300,
  "(১৯": 2301,
  "(3": 2302,
  "\"భ": 2303,
  "ికార": 2304,
  "ానికి</w>": 2305,
  "తో</w>": 2306,
  "ఖ్య": 2307,
  "కూడా</w>": 2308,
  "కాల": 2309,
  "అధికార": 2310,
  "ার্ক": 2311,
  "ায়</w>": 2312,
  "হয়েছে</w>": 2313,
  "শিল্প": 2314,
  "শাস": 2315,
  "শক্": 2316,
  "মি</w>": 2317,
  "ফলে</w>": 2318,
  "পর্": 2319,
  "নাম</w>": 2320,
  "ঞ্চ": 2321,
  "জাত": 2322,
  "ছে।</w>": 2323,
  "চিত</w>": 2324,
  "ক্ষেত্র": 2325,
  "কর্": 2326,
  "এশি": 2327,
  "এক</w>": 2328,
  "्राज": 2329,
  "्‍": 2330,
  "हुआ": 2331,
  "साम्राज": 2332,
  "संवि": 2333,
  "संविधान</w>": 2334,
  "सैन": 2335,
  "वारा</w>": 2336,
  "राजन": 2337,
  "माण</w>": 2338,
  "मंत्री</w>": 2339,
  "मक": 2340,
  "भाषाओं</w>": 2341,
  "पाकिस्तान</w>": 2342,
  "धो": 2343,
  "दृ": 2344,
  "ड़</w>": 2345,
  "जाति</w>": 2346,
  "गया।</w>": 2347,
  "ंच": 2348,
  "-0": 2349,
  "(২০": 2350,
  "స్థాన": 2351,
  "స్త": 2352,
  "వార": 2353,
  "ప్రాంత": 2354,
  "ప్రపంచ": 2355,
  "ధిక</w>": 2356,
  "దక్": 2357,
  "ట్ట": 2358,
  "ం,</w>": 2359,
  "িত্র": 2360,
  "হার</w>": 2361,
  "স্বাধীন": 2362,
  "সার": 2363,
  "য়া</w>": 2364,
  "ব্যব": 2365,
  "বিস্": 2366,
  "বায়": 2367,
  "পুর": 2368,
  "নির্বা": 2369,
  "ধিক</w>": 2370,
  "তান্ত্র": 2371,
  "ক্ষ</w>": 2372,
  "কৃত": 2373,
  "ংশ</w>": 2374,
  "ियाँ</w>": 2375,
  "स्थि": 2376,
  "सित</w>": 2377,
  "संबंध": 2378,
  "षों</w>": 2379,
  "वस्था</w>": 2380,
  "लय</w>": 2381,
  "राष्ट्रीय</w>": 2382,
  "मिल": 2383,
  "बीच</w>": 2384,
  "बना": 2385,
  "पार्ट": 2386,
  "पश्चि": 2387,
  "नों</w>": 2388,
  "निक</w>": 2389,
  "द्वारा</w>": 2390,
  "देख": 2391,
  "दशक</w>": 2392,
  "द्र": 2393,
  "दिया</w>": 2394,
  "चुनावों</w>": 2395,
  "ख्या</w>": 2396,
  "क्षेत्र": 2397,
  "उत्तर</w>": 2398,
  "आर्": 2399,
  "अनुसार</w>": 2400,
  "{{c": 2401,
  "{{cit": 2402,
  "{{citation": 2403,
  "{{citation}}:</w>": 2404,
  "Pp.</w>": 2405,
  "Pres": 2406,
  "New</w>": 2407,
  "4,": 2408,
  "(P": 2409,
  "ోద": 2410,
  "ాశ": 2411,
  "యల": 2412,
  "జం": 2413,
  "ంఘ": 2414,
  "৭২": 2415,
  "৪৬": 2416,
  "৪৩": 2417,
  "৩৪": 2418,
  "ৈল": 2419,
  "ুজ": 2420,
  "ীম": 2421,
  "ভৃ": 2422,
  "বপ": 2423,
  "জর": 2424,
  "(এ": 2425,
  "ాత్ర": 2426,
  "రైలు</w>": 2427,
  "మైన</w>": 2428,
  "భారతదేశంలో</w>": 2429,
  "భారతదే": 2430,
  "పార్ట": 2431,
  "పరి": 2432,
  "న్ని</w>": 2433,
  "ది.</w>": 2434,
  "దక్షి": 2435,
  "దాయ": 2436,
  "తర</w>": 2437,
  "ఆర్": 2438,
  "ীন</w>": 2439,
  "ানা</w>": 2440,
  "হয়ে</w>": 2441,
  "হয়</w>": 2442,
  "স্থা</w>": 2443,
  "স্ট": 2444,
  "সাহ": 2445,
  "সামর": 2446,
  "সামরিক</w>": 2447,
  "সাধার": 2448,
  "সর্বা": 2449,
  "শতাংশ": 2450,
  "লিত</w>": 2451,
  "লিক</w>": 2452,
  "য়ের</w>": 2453,
  "যদি": 2454,
  "যদিও</w>": 2455,
  "মাণু</w>": 2456,
  "মার্ক": 2457,
  "ভিন্": 2458,
  "বৈচ": 2459,
  "বৈচিত্র": 2460,
  "বল</w>": 2461,
  "প্রথ": 2462,
  "পূর্ব</w>": 2463,
  "পরমাণু</w>": 2464,
  "ন্তর্": 2465,
  "নিয়": 2466,
  "দ্ধ</w>": 2467,
  "দক্ষিণ</w>": 2468,
  "দিক": 2469,
  "তিতে</w>": 2470,
  "ছাড়": 2471,
  "খযোগ": 2472,
  "ক্ষেত্রে</w>": 2473,
  "কের</w>": 2474,
  "এছাড়": 2475,
  "উল্লেখযোগ": 2476,
  "আন্": 2477,
  "५०": 2478,
  "२६": 2479,
  "१०": 2480,
  "ॉक": 2481,
  "ैत": 2482,
  "ीब": 2483,
  "सैन्य</w>": 2484,
  "संख्या</w>": 2485,
  "योग</w>": 2486,
  "में,</w>": 2487,
  "बहुत</w>": 2488,
  "बल": 2489,
  "फै": 2490,
  "प्राचीन</w>": 2491,
  "प्रधान": 2492,
  "प्रदेश</w>": 2493,
  "नेतृ": 2494,
  "नेतृत्": 2495,
  "निर्माण</w>": 2496,
  "नी</w>": 2497,
  "द्वी": 2498,
  "दान</w>": 2499,
  "दौ": 2500,
  "दम": 2501,
  "थी।</w>": 2502,
  "थल": 2503,
  "तल": 2504,
  "क्ति</w>": 2505,
  "किया।</w>": 2506,
  "क-": 2507,
  "एशिया</w>": 2508,
  "उल": 2509,
  "ई।</w>": 2510,
  "आज": 2511,
  "ंग्रेस</w>": 2512,
  "74": 2513,
  "-आ": 2514,
  "(I": 2515,
  "(B": 2516,
  "83": 2517,
  "6,": 2518,
  "్యం</w>": 2519,
  "ించింది.</w>": 2520,
  "ాలలో</w>": 2521,
  "వ్యవస్థ": 2522,
  "రెండ": 2523,
  "రాజ్య": 2524,
  "రు</w>": 2525,
  "భుత్": 2526,
  "ప్రభుత్": 2527,
  "పు</w>": 2528,
  "న్</w>": 2529,
  "నాభ": 2530,
  "తం</w>": 2531,
  "జనాభ": 2532,
  "క్కు": 2533,
  "ఎన్న": 2534,
  "అయి": 2535,
  "১৯-": 2536,
  "্রে": 2537,
  "িন</w>": 2538,
  "হিসে": 2539,
  "সাম": 2540,
  "সমা": 2541,
  "রাজ্য</w>": 2542,
  "রাজ্য": 2543,
  "রাজন": 2544,
  "যুক্ত": 2545,
  "যা</w>": 2546,
  "মার্কিন</w>": 2547,
  "মন্ত্র": 2548,
  "বিক</w>": 2549,
  "বাহি": 2550,
  "বাস": 2551,
  "ফুট": 2552,
  "প্রথম</w>": 2553,
  "প্রি": 2554,
  "প্যারামিটার</w>": 2555,
  "পর্বত": 2556,
  "পরী": 2557,
  "না</w>": 2558,
  "দ্ধি</w>": 2559,
  "থনৈতিক</w>": 2560,
  "তারিখ": 2561,
  "তান্ত্রিক</w>": 2562,
  "জনপ্রি": 2563,
  "ক্রিক": 2564,
  "উত্তর</w>": 2565,
  "অর্থনৈতিক</w>": 2566,
  "অধিক": 2567,
  "অজানা</w>": 2568,
  "्याया": 2569,
  "िया,</w>": 2570,
  "ाली</w>": 2571,
  "हुआ।</w>": 2572,
  "हुए</w>": 2573,
  "स्थ": 2574,
  "साम्राज्य</w>": 2575,
  "वीं</w>": 2576,
  "वी</w>": 2577,
  "वा</w>": 2578,
  "लों</w>": 2579,
  "रहा</w>": 2580,
  "रे</w>": 2581,
  "मिल</w>": 2582,
  "माण": 2583,
  "माणु</w>": 2584,
  "म,</w>": 2585,
  "भूम": 2586,
  "भाषा</w>": 2587,
  "प्रधानमंत्री</w>": 2588,
  "प्रति": 2589,
  "परमाणु</w>": 2590,
  "पर्": 2591,
  "न्याया": 2592,
  "थिक</w>": 2593,
  "ढ़</w>": 2594,
  "जिस": 2595,
  "जाती</w>": 2596,
  "कॉंग्रेस</w>": 2597,
  "करोड़</w>": 2598,
  "क्र": 2599,
  "कर्": 2600,
  "उनक": 2601,
  "आर्थिक</w>": 2602,
  "अर्": 2603,
  "ंगा</w>": 2604,
  "He": 2605,
  "Gu": 2606,
  "్రా": 2607,
  "ౌర": 2608,
  "ోళ": 2609,
  "ో-": 2610,
  "ుళ": 2611,
  "హో": 2612,
  "స్త్ర": 2613,
  "స్తా": 2614,
  "స్కృ": 2615,
  "స</w>": 2616,
  "షా": 2617,
  "షయ": 2618,
  "శీ": 2619,
  "వచ్చింది.</w>": 2620,
  "వర్": 2621,
  "లమ": 2622,
  "మద": 2623,
  "భవ": 2624,
  "బౌ": 2625,
  "బై": 2626,
  "పెద్": 2627,
  "నక": 2628,
  "ధూ": 2629,
  "ణా</w>": 2630,
  "ఢా": 2631,
  "డిన</w>": 2632,
  "డై": 2633,
  "డీ": 2634,
  "డవ": 2635,
  "డమ": 2636,
  "చెంద": 2637,
  "చూ": 2638,
  "ఘ</w>": 2639,
  "ఖమ": 2640,
  "కబ": 2641,
  "ఐక": 2642,
  "ఏక": 2643,
  "ఎడ": 2644,
  "ఈశ": 2645,
  "ఆఫ": 2646,
  "ఆగ": 2647,
  "అణ": 2648,
  "ంద్ర": 2649,
  "৯%": 2650,
  "৬০": 2651,
  "১৯৫": 2652,
  "১৫": 2653,
  "০৯": 2654,
  "ু-": 2655,
  "ীদ": 2656,
  "াঠ": 2657,
  "াঘ": 2658,
  "হিন্দু": 2659,
  "হিসা": 2660,
  "স্থান": 2661,
  "সাহিত": 2662,
  "সংস্কৃ": 2663,
  "শিষ্ট": 2664,
  "শ-": 2665,
  "রয়েছে</w>": 2666,
  "য়ে": 2667,
  "য়ী</w>": 2668,
  "মান</w>": 2669,
  "ম্ব": 2670,
  "ভূমি</w>": 2671,
  "ভিন্ন</w>": 2672,
  "ভর": 2673,
  "বিচ": 2674,
  "বাহ": 2675,
  "বাণ": 2676,
  "বাণিজ": 2677,
  "ব্যা": 2678,
  "বৌ": 2679,
  "ফুটবল</w>": 2680,
  "প্রাচীন</w>": 2681,
  "প্রস্তা": 2682,
  "প্রযুক্": 2683,
  "প্রধান": 2684,
  "পূর্ণ</w>": 2685,
  "পশ্চিম": 2686,
  "পর্য": 2687,
  "পল": 2688,
  "থর": 2689,
  "ত।</w>": 2690,
  "জনসংখ্যা</w>": 2691,
  "জস": 2692,
  "জন</w>": 2693,
  "ঙ্গী": 2694,
  "গের</w>": 2695,
  "কাপ</w>": 2696,
  "কী": 2697,
  "ওপ": 2698,
  "ঐতি": 2699,
  "এশিয়া": 2700,
  "এঁ": 2701,
  "ইড": 2702,
  "আর্": 2703,
  "আম": 2704,
  "আছ": 2705,
  "আ</w>": 2706,
  "অনু": 2707,
  "অঞ্চল": 2708,
  "অক্": 2709,
  "ঁদ": 2710,
  "४०": 2711,
  "१९९": 2712,
  "१५": 2713,
  "१४": 2714,
  "०४": 2715,
  "्दी</w>": 2716,
  "ारिक</w>": 2717,
  "हाला": 2718,
  "सरकार": 2719,
  "संस": 2720,
  "सर्": 2721,
  "श्र": 2722,
  "शै": 2723,
  "शता": 2724,
  "शताब": 2725,
  "शताब्दी</w>": 2726,
  "विका": 2727,
  "वर्षों</w>": 2728,
  "लिये</w>": 2729,
  "रू</w>": 2730,
  "रिक</w>": 2731,
  "रक्षा</w>": 2732,
  "ब्रि": 2733,
  "प्राप्त</w>": 2734,
  "पूर्ण</w>": 2735,
  "पहले</w>": 2736,
  "पद": 2737,
  "पड़": 2738,
  "नेतृत्व</w>": 2739,
  "निर": 2740,
  "धि</w>": 2741,
  "द्वीप</w>": 2742,
  "टक": 2743,
  "जिसमें</w>": 2744,
  "जनजाति</w>": 2745,
  "जा</w>": 2746,
  "च्च</w>": 2747,
  "गणराज्य</w>": 2748,
  "ग्र": 2749,
  "क्षेत्रीय</w>": 2750,
  "केंद": 2751,
  "कें": 2752,
  "कार्य": 2753,
  "ओर</w>": 2754,
  "उत्तर": 2755,
  "इसक": 2756,
  "इन</w>": 2757,
  "अरब</w>": 2758,
  "CI": 2759,
  "7/": 2760,
  ".6": 2761,
  "-ఢ": 2762,
  "(৪": 2763,
  "&</w>": 2764,
  "9%": 2765,
  "’</w>": 2766,
  "ుగా</w>": 2767,
  "ిల్ల": 2768,
  "వాణా</w>": 2769,
  "వంట": 2770,
  "రువాత": 2771,
  "మార్గాలు</w>": 2772,
  "మధ్య</w>": 2773,
  "బ్ర": 2774,
  "పేరు</w>": 2775,
  "పట్ట": 2776,
  "నిర్": 2777,
  "తరువాత": 2778,
  "ట్ల": 2779,
  "టు</w>": 2780,
  "జరి": 2781,
  "క్రీడ": 2782,
  "కేంద్ర": 2783,
  "ఒక</w>": 2784,
  "ఉన్న</w>": 2785,
  "ఉత్": 2786,
  "ఉంట": 2787,
  "ఇండ": 2788,
  "১৯৮": 2789,
  "০-১৯-": 2790,
  "্রিষ": 2791,
  "্রিষ্ট": 2792,
  "্য।</w>": 2793,
  "েশন</w>": 2794,
  "েট</w>": 2795,
  "হিসেবে</w>": 2796,
  "হিসাবে</w>": 2797,
  "স্থি": 2798,
  "সরকারি</w>": 2799,
  "সংবি": 2800,
  "সর্": 2801,
  "শীল</w>": 2802,
  "লিয়": 2803,
  "লার</w>": 2804,
  "রাষ্ট্র।</w>": 2805,
  "যার</w>": 2806,
  "যোগ": 2807,
  "মধ্য</w>": 2808,
  "বিশ্বে</w>": 2809,
  "বিভিন্ন</w>": 2810,
  "বিত": 2811,
  "বার</w>": 2812,
  "বহু": 2813,
  "বর্তম": 2814,
  "বছর</w>": 2815,
  "ব্দ": 2816,
  "প্রায়</w>": 2817,
  "ন।</w>": 2818,
  "দ্বী": 2819,
  "দেখা</w>": 2820,
  "দুই</w>": 2821,
  "দি</w>": 2822,
  "তৃত্": 2823,
  "তায়</w>": 2824,
  "চ্চ": 2825,
  "গণতান্ত্রিক</w>": 2826,
  "খ্রিষ্ট": 2827,
  "ক্রিকেট</w>": 2828,
  "ক্রা": 2829,
  "করতে</w>": 2830,
  "কংগ": 2831,
  "এটি</w>": 2832,
  "উদ্ধৃ": 2833,
  "উত্তর": 2834,
  "हें</w>": 2835,
  "हाँ</w>": 2836,
  "स्वतंत्र": 2837,
  "स्वतंत्रता</w>": 2838,
  "स्थित</w>": 2839,
  "स्थान</w>": 2840,
  "साल</w>": 2841,
  "सदस": 2842,
  "संस्कृति</w>": 2843,
  "संबंध</w>": 2844,
  "विदे": 2845,
  "लोक": 2846,
  "लगभ": 2847,
  "लगभग</w>": 2848,
  "राज्य": 2849,
  "युक्त</w>": 2850,
  "मध्य": 2851,
  "भूमिका</w>": 2852,
  "ब्रिटि": 2853,
  "ब्रिटिश</w>": 2854,
  "बंधन</w>": 2855,
  "प्रभा": 2856,
  "प्ले": 2857,
  "पश्चिम</w>": 2858,
  "न्हें</w>": 2859,
  "निभा": 2860,
  "दोनों</w>": 2861,
  "त्य": 2862,
  "जनसंख्या</w>": 2863,
  "जान": 2864,
  "चार</w>": 2865,
  "केंद्र": 2866,
  "केंद्र</w>": 2867,
  "कुल</w>": 2868,
  "कुछ</w>": 2869,
  "एवं</w>": 2870,
  "इंड": 2871,
  "To": 2872,
  "SI": 2873,
  "Ri": 2874,
  "Do": 2875,
  "8,": 2876,
  "75": 2877,
  "-1": 2878,
  "”</w>": 2879,
  "ీ,</w>": 2880,
  "ిన</w>": 2881,
  "ాల్": 2882,
  "ాలను</w>": 2883,
  "సాధ": 2884,
  "సిం": 2885,
  "సార": 2886,
  "సరి": 2887,
  "సంగ": 2888,
  "శ్ర": 2889,
  "లు.</w>": 2890,
  "రవాణా</w>": 2891,
  "మంత్ర": 2892,
  "భారతదేశ</w>": 2893,
  "భారత్": 2894,
  "ప్రస్తు": 2895,
  "ప్రధా": 2896,
  "ప్రధాన</w>": 2897,
  "పెద్ద</w>": 2898,
  "పాకి": 2899,
  "దేశానికి</w>": 2900,
  "ణం</w>": 2901,
  "జనాభా</w>": 2902,
  "కాంగ": 2903,
  "కాంగ్ర": 2904,
  "కలి": 2905,
  "ఏర్": 2906,
  "ఎన్నో</w>": 2907,
  "ఎక్కు": 2908,
  "ఇది</w>": 2909,
  "ఇతర</w>": 2910,
  "২০০৮</w>": 2911,
  "১৯৭": 2912,
  "্রুপ": 2913,
  "্যার</w>": 2914,
  "্যু": 2915,
  "্য,</w>": 2916,
  "েক্ষা</w>": 2917,
  "ুন</w>": 2918,
  "ী।</w>": 2919,
  "িল।</w>": 2920,
  "িতে</w>": 2921,
  "ারের</w>": 2922,
  "ানি</w>": 2923,
  "ানি": 2924,
  "সিত</w>": 2925,
  "সাধারণ</w>": 2926,
  "সম্পর্": 2927,
  "সংস": 2928,
  "সঙ্গী": 2929,
  "সক্ষ": 2930,
  "সক্ষম</w>": 2931,
  "শীয়</w>": 2932,
  "শাসিত</w>": 2933,
  "লাভ</w>": 2934,
  "যুক্তরাষ্ট্র": 2935,
  "মোট</w>": 2936,
  "মূল</w>": 2937,
  "বৃদ্ধি</w>": 2938,
  "বিত)</w>": 2939,
  "বলে</w>": 2940,
  "প্রস্তাবিত)</w>": 2941,
  "প্রধানমন্ত্র": 2942,
  "প্রাণ": 2943,
  "পরীক্ষা</w>": 2944,
  "পরিব": 2945,
  "পে</w>": 2946,
  "নিক": 2947,
  "নদী": 2948,
  "ধ্রুপ": 2949,
  "দ্বীপ": 2950,
  "দ্র</w>": 2951,
  "দ্বি": 2952,
  "দিকে</w>": 2953,
  "ড়ে</w>": 2954,
  "গত</w>": 2955,
  "ক্ষম": 2956,
  "কেন্দ্রীয়</w>": 2957,
  "ঐতিহ": 2958,
  "এছাড়া": 2959,
  "একা": 2960,
  "উল্লেখযোগ্য</w>": 2961,
  "উপেক্ষা</w>": 2962,
  "উচ্চ": 2963,
  "९४": 2964,
  "९१": 2965,
  "६२": 2966,
  "६०": 2967,
  "५४": 2968,
  "ुनिक</w>": 2969,
  "ीट": 2970,
  "िकी</w>": 2971,
  "िकारिक</w>": 2972,
  "ित</w>": 2973,
  "ारम्": 2974,
  "ान,</w>": 2975,
  "हुआ</w>": 2976,
  "हिमा": 2977,
  "हट": 2978,
  "स्व": 2979,
  "समाज</w>": 2980,
  "संयुक्त</w>": 2981,
  "सी</w>": 2982,
  "शासित</w>": 2983,
  "विदेश": 2984,
  "वाय": 2985,
  "वज": 2986,
  "लै": 2987,
  "लन</w>": 2988,
  "रा</w>": 2989,
  "युद्ध</w>": 2990,
  "यश": 2991,
  "मा</w>": 2992,
  "भाषाए": 2993,
  "बड़ा</w>": 2994,
  "बू": 2995,
  "फा": 2996,
  "प्लेट</w>": 2997,
  "प्रारम्": 2998,
  "प्रकार</w>": 2999,
  "पार्टी</w>": 3000,
  "न्त": 3001,
  "न्तु</w>": 3002,
  "निय": 3003,
  "था,</w>": 3004,
  "त-": 3005,
  "ण-": 3006,
  "डर": 3007,
  "ठी": 3008,
  "जिसक": 3009,
  "जाते</w>": 3010,
  "छू": 3011,
  "गठबंधन</w>": 3012,
  "ग़": 3013,
  "गंगा</w>": 3014,
  "केन्": 3015,
  "औस": 3016,
  "ईसा</w>": 3017,
  "इसी</w>": 3018,
  "आधुनिक</w>": 3019,
  "आधिकारिक</w>": 3020,
  "आठ": 3021,
  "अप्र": 3022,
  "अपने</w>": 3023,
  "अपनी</w>": 3024,
  "अह": 3025,
  "अमे": 3026,
  "अंग्रे": 3027,
  "ंथ": 3028,
  "|</w>": 3029,
  "author": 3030,
  "PA": 3031,
  ".३": 3032,
  "./": 3033,
  "(সাহায্য);</w>": 3034,
  "‌వ": 3035,
  "‌ক": 3036,
  "ేష": 3037,
  "ూన": 3038,
  "ూట": 3039,
  "సే": 3040,
  "లప": 3041,
  "మస": 3042,
  "ట</w>": 3043,
  "ఘన": 3044,
  "ఒల": 3045,
  "అల": 3046,
  "అర": 3047,
  "৫,": 3048,
  "৪২": 3049,
  "৩৬": 3050,
  "৩%": 3051,
  "২২": 3052,
  "ৈর": 3053,
  "সো": 3054,
  "লজ": 3055,
  "ভব": 3056,
  "নভ": 3057,
  "জগ": 3058,
  "চক": 3059,
  "ঘ্": 3060,
  "খর": 3061,
  "কব": 3062,
  "E.": 3063,
  "9-": 3064,
  "\"স": 3065,
  "ులు,</w>": 3066,
  "ించిన</w>": 3067,
  "హద్": 3068,
  "స్కృత": 3069,
  "స్థా": 3070,
  "స్</w>": 3071,
  "సియ": 3072,
  "సిని": 3073,
  "సినిమ": 3074,
  "సరిహద్": 3075,
  "శాస్త్ర": 3076,
  "శపు</w>": 3077,
  "విధ": 3078,
  "లో,</w>": 3079,
  "ర్య": 3080,
  "ర్</w>": 3081,
  "ముఖ్య": 3082,
  "భాష": 3083,
  "ప్పట": 3084,
  "నుండ": 3085,
  "దక్షిణా": 3086,
  "ది</w>": 3087,
  "దం</w>": 3088,
  "డు</w>": 3089,
  "చిన్న</w>": 3090,
  "గల</w>": 3091,
  "క్</w>": 3092,
  "కుంట": 3093,
  "ఆర్ధిక</w>": 3094,
  "అత్య": 3095,
  "ంగ్ల": 3096,
  "০-১৯-৫৬": 3097,
  "্রিটি": 3098,
  "্চলিক</w>": 3099,
  "েছে।</w>": 3100,
  "িবীর</w>": 3101,
  "িণত</w>": 3102,
  "ার</w>": 3103,
  "হিমাল": 3104,
  "হয়েছে।</w>": 3105,
  "স্বাধীনতা</w>": 3106,
  "স্থিত</w>": 3107,
  "সিন্ধ": 3108,
  "সিন্ধু</w>": 3109,
  "সদস": 3110,
  "সংর": 3111,
  "সংগ্র": 3112,
  "ষ্ঠ": 3113,
  "ষিত</w>": 3114,
  "ষা</w>": 3115,
  "শব্দ": 3116,
  "শতাংশ</w>": 3117,
  "শক্তি": 3118,
  "লিয়ন</w>": 3119,
  "রাজনৈতিক</w>": 3120,
  "যুদ্ধ": 3121,
  "য়ার": 3122,
  "মালা</w>": 3123,
  "ম,</w>": 3124,
  "ভূমি": 3125,
  "ব্যবস্থা": 3126,
  "বৈচিত্র্য": 3127,
  "বেশ": 3128,
  "বর্তমানে</w>": 3129,
  "প্ত</w>": 3130,
  "পৃথ": 3131,
  "পৃথিবীর</w>": 3132,
  "পাঁচ": 3133,
  "পরিণত</w>": 3134,
  "পর</w>": 3135,
  "ন্ন": 3136,
  "ন্ড": 3137,
  "নির্বাচিত</w>": 3138,
  "নিয়ে</w>": 3139,
  "থাকে": 3140,
  "তী</w>": 3141,
  "তিহা": 3142,
  "তিত</w>": 3143,
  "ত,</w>": 3144,
  "টের</w>": 3145,
  "ট্র": 3146,
  "টারে</w>": 3147,
  "জাতিক</w>": 3148,
  "জলবায়": 3149,
  "জি</w>": 3150,
  "জয়": 3151,
  "গুলো": 3152,
  "গঠিত</w>": 3153,
  "গঠন</w>": 3154,
  "খেল": 3155,
  "ক্ষর</w>": 3156,
  "ক্ষা": 3157,
  "ক্ষর": 3158,
  "ক্ষণ": 3159,
  "কাল</w>": 3160,
  "কংগ্রে": 3161,
  "কূল": 3162,
  "কয়": 3163,
  "এছাড়াও</w>": 3164,
  "উপকূল": 3165,
  "উত্তর-": 3166,
  "উড</w>": 3167,
  "ইন্ডি": 3168,
  "ইতিহা": 3169,
  "আঞ্চলিক</w>": 3170,
  "আয়": 3171,
  "অন্যতম</w>": 3172,
  "२००": 3173,
  "१९८": 3174,
  "१९७": 3175,
  "्योग": 3176,
  "्र</w>": 3177,
  "ॉलर</w>": 3178,
  "ैली</w>": 3179,
  "ेजी</w>": 3180,
  "ें</w>": 3181,
  "ानों</w>": 3182,
  "होती</w>": 3183,
  "हिमालय</w>": 3184,
  "हिन्द": 3185,
  "हरी</w>": 3186,
  "स्तृ": 3187,
  "स्तृत</w>": 3188,
  "समर्": 3189,
  "सभा</w>": 3190,
  "संसद</w>": 3191,
  "संघ</w>": 3192,
  "शेष</w>": 3193,
  "शुरू</w>": 3194,
  "व्यवस्था</w>": 3195,
  "विदेशी</w>": 3196,
  "विकास</w>": 3197,
  "विस्तृत</w>": 3198,
  "वायु</w>": 3199,
  "वाद</w>": 3200,
  "वर्ग</w>": 3201,
  "वल</w>": 3202,
  "ला</w>": 3203,
  "रों</w>": 3204,
  "रहे</w>": 3205,
  "युग</w>": 3206,
  "मों</w>": 3207,
  "मैदान</w>": 3208,
  "मुख": 3209,
  "मी</w>": 3210,
  "मत</w>": 3211,
  "भाजप": 3212,
  "भाजपा</w>": 3213,
  "बहुमत</w>": 3214,
  "बड़े</w>": 3215,
  "बड़ी</w>": 3216,
  "पहा": 3217,
  "न्न</w>": 3218,
  "धीरे</w>": 3219,
  "ध्य": 3220,
  "दोलन</w>": 3221,
  "दर्": 3222,
  "दर</w>": 3223,
  "थव्य": 3224,
  "तिहा": 3225,
  "ण्ड": 3226,
  "ड़ी</w>": 3227,
  "डॉलर</w>": 3228,
  "जिसके</w>": 3229,
  "ज़ी</w>": 3230,
  "गांध": 3231,
  "गत</w>": 3232,
  "क्ष</w>": 3233,
  "की।</w>": 3234,
  "कर्ज</w>": 3235,
  "करना</w>": 3236,
  "करण</w>": 3237,
  "अलग</w>": 3238,
  "अर्थव्य": 3239,
  "अंग्र": 3240,
  "अंग्रेजी</w>": 3241,
  "ork": 3242,
  "ork:</w>": 3243,
  "York:</w>": 3244,
  "Press.</w>": 3245,
  "Publ": 3246,
  "1950</w>": 3247,
  "$2": 3248,
  "Ju": 3249,
  "0-": 3250,
  "–1": 3251,
  "ుల</w>": 3252,
  "ియా</w>": 3253,
  "ిక,</w>": 3254,
  "ి,</w>": 3255,
  "ాల్లో</w>": 3256,
  "ాలో</w>": 3257,
  "ాలతో</w>": 3258,
  "హిందూ": 3259,
  "స్వా": 3260,
  "సామ": 3261,
  "సరిహద్ద": 3262,
  "సౌక": 3263,
  "సము": 3264,
  "సమా": 3265,
  "వివి": 3266,
  "వివిధ</w>": 3267,
  "లకు</w>": 3268,
  "రాజకీ": 3269,
  "రాజకీయ</w>": 3270,
  "రహద": 3271,
  "రంగ": 3272,
  "మొదల": 3273,
  "మొదట": 3274,
  "మొదటి</w>": 3275,
  "మూడ": 3276,
  "మాత్ర": 3277,
  "భాగ": 3278,
  "బ్రి": 3279,
  "బెంగ": 3280,
  "ప్రాచ": 3281,
  "ప్రము": 3282,
  "ప్రతి": 3283,
  "ప్పటిక": 3284,
  "పేర్": 3285,
  "పండ": 3286,
  "నుండి</w>": 3287,
  "నే</w>": 3288,
  "నడి": 3289,
  "ధాన": 3290,
  "ద్ధి</w>": 3291,
  "దేశంలోని</w>": 3292,
  "దేశంలో</w>": 3293,
  "దేశాల</w>": 3294,
  "ద్ర": 3295,
  "త్వ": 3296,
  "జాబ": 3297,
  "జరిగి": 3298,
  "చే</w>": 3299,
  "క్క": 3300,
  "కోర్": 3301,
  "కాలంలో</w>": 3302,
  "కాంగ్రెస": 3303,
  "అత్యధిక</w>": 3304,
  "ంతో</w>": 3305,
  "২০১": 3306,
  "০-এর</w>": 3307,
  "্রিটিশ</w>": 3308,
  "্রাজ": 3309,
  "্যিক</w>": 3310,
  "্যাদ": 3311,
  "্টি</w>": 3312,
  "োমি": 3313,
  "ুরু</w>": 3314,
  "ুর</w>": 3315,
  "িলোমি": 3316,
  "ারী</w>": 3317,
  "াংশ</w>": 3318,
  "হের</w>": 3319,
  "হলে": 3320,
  "স্থানীয়</w>": 3321,
  "স্থাপত": 3322,
  "স্ত্র": 3323,
  "স্ত": 3324,
  "স্ট</w>": 3325,
  "সের</w>": 3326,
  "সাম্রাজ": 3327,
  "সাং": 3328,
  "সর্বাধিক</w>": 3329,
  "সম্পর্ক</w>": 3330,
  "সম্প্র": 3331,
  "সঙ্গীত</w>": 3332,
  "সংখ্যার</w>": 3333,
  "সংক্রা": 3334,
  "ষ্ঠি": 3335,
  "ষ্ঠিত</w>": 3336,
  "ষের</w>": 3337,
  "শতাংশ।</w>": 3338,
  "শতাব্দ": 3339,
  "শতাব্দীর</w>": 3340,
  "শ্র": 3341,
  "রের</w>": 3342,
  "রে</w>": 3343,
  "যুক্ত</w>": 3344,
  "যায়।</w>": 3345,
  "য়ায়</w>": 3346,
  "মান:</w>": 3347,
  "মাণবিক</w>": 3348,
  "মহাকা": 3349,
  "মতা</w>": 3350,
  "ম্প": 3351,
  "ভাষায়</w>": 3352,
  "ভাগ</w>": 3353,
  "ভক্": 3354,
  "ব্যবস্থা</w>": 3355,
  "বৈশিষ্ট": 3356,
  "বৈধ</w>": 3357,
  "বেশ</w>": 3358,
  "বৃদ্": 3359,
  "বৃদ্ধি": 3360,
  "বিশে": 3361,
  "বিভক্": 3362,
  "বিবে": 3363,
  "বিবা": 3364,
  "বিজে": 3365,
  "বাহিনী": 3366,
  "বাদ": 3367,
  "বাং": 3368,
  "বাংলা": 3369,
  "বই</w>": 3370,
  "প্রতি</w>": 3371,
  "প্রজাত": 3372,
  "প্যারামিটারে</w>": 3373,
  "পের</w>": 3374,
  "পূর্বা": 3375,
  "পারমাণবিক</w>": 3376,
  "পাকি": 3377,
  "পর্যন্ত</w>": 3378,
  "পর্বতমালা</w>": 3379,
  "ন্তর্জাতিক</w>": 3380,
  "ন্দ্র</w>": 3381,
  "ন্ত্র</w>": 3382,
  "নেতৃত্": 3383,
  "নার</w>": 3384,
  "নামে</w>": 3385,
  "নাম": 3386,
  "নৃত": 3387,
  "ন=</w>": 3388,
  "ধর</w>": 3389,
  "দ্বীপ</w>": 3390,
  "দুটি</w>": 3391,
  "দান</w>": 3392,
  "দশক": 3393,
  "থেকে": 3394,
  "থাকে।</w>": 3395,
  "ত্ব": 3396,
  "ত্ত্": 3397,
  "তৃতীয়</w>": 3398,
  "তি}}:</w>": 3399,
  "তারিখে</w>": 3400,
  "তামি": 3401,
  "ণে</w>": 3402,
  "ঢ়</w>": 3403,
  "জ্ঞ": 3404,
  "জোট</w>": 3405,
  "জন্য</w>": 3406,
  "ছে</w>": 3407,
  "চলচ্চ": 3408,
  "চন্দ্র": 3409,
  "গ্রা": 3410,
  "গতভাবে</w>": 3411,
  "ক্ষিত</w>": 3412,
  "ক্ষরতার</w>": 3413,
  "ক্ষমতা</w>": 3414,
  "ক্রমে</w>": 3415,
  "কেন্দ্রশাসিত</w>": 3416,
  "কৃতি</w>": 3417,
  "করেছে।</w>": 3418,
  "করুন</w>": 3419,
  "কংগ্রেস</w>": 3420,
  "কিলোমি": 3421,
  "এশিয়ার</w>": 3422,
  "একাধিক</w>": 3423,
  "উপর</w>": 3424,
  "উপমহা": 3425,
  "উদ্ধৃতি}}:</w>": 3426,
  "ইন্দো": 3427,
  "ইংরে": 3428,
  "আন্দো": 3429,
  "আইএসবিন=</w>": 3430,
  "আইন</w>": 3431,
  "আন্তর্জাতিক</w>": 3432,
  "অবস্থিত</w>": 3433,
  "অন্যদিকে</w>": 3434,
  "অধিকাংশ</w>": 3435,
  "অ্য": 3436,
  "অভি": 3437,
  "অবৈধ</w>": 3438,
  "অন্তর্": 3439,
  "অনে": 3440,
  "অক্ষর</w>": 3441,
  "८९": 3442,
  "५२": 3443,
  "५,": 3444,
  "१९५": 3445,
  "्रीक": 3446,
  "्रीका</w>": 3447,
  "्यो": 3448,
  "्यता</w>": 3449,
  "ोसी</w>": 3450,
  "ोज": 3451,
  "ैल</w>": 3452,
  "ृष्ट": 3453,
  "ीतिक</w>": 3454,
  "ियार</w>": 3455,
  "ार्": 3456,
  "ानी</w>": 3457,
  "होते</w>": 3458,
  "हिन्दू</w>": 3459,
  "हालाँक": 3460,
  "हालाँकि</w>": 3461,
  "हथियार</w>": 3462,
  "हते</w>": 3463,
  "हू": 3464,
  "स्थापन": 3465,
  "स्थापना</w>": 3466,
  "स्तर</w>": 3467,
  "स्ट": 3468,
  "सहयोग</w>": 3469,
  "सर्वो": 3470,
  "सर्वोच्च</w>": 3471,
  "समर्थ": 3472,
  "समर्थन</w>": 3473,
  "संस्कृत</w>": 3474,
  "संघ": 3475,
  "शील</w>": 3476,
  "शांत": 3477,
  "शांति</w>": 3478,
  "शन</w>": 3479,
  "विवाद</w>": 3480,
  "विभि": 3481,
  "विभा": 3482,
  "वादी</w>": 3483,
  "वर्त": 3484,
  "वर्तमान</w>": 3485,
  "वरी</w>": 3486,
  "व्या": 3487,
  "वन</w>": 3488,
  "लीन</w>": 3489,
  "ली,</w>": 3490,
  "लित</w>": 3491,
  "ला,</w>": 3492,
  "लू": 3493,
  "लिया</w>": 3494,
  "लिका</w>": 3495,
  "र्ष</w>": 3496,
  "रोपी": 3497,
  "रोपीय</w>": 3498,
  "राजनीतिक</w>": 3499,
  "यों</w>": 3500,
  "यूरोपीय</w>": 3501,
  "यास</w>": 3502,
  "म्ब": 3503,
  "मैद": 3504,
  "मुख्य</w>": 3505,
  "मध्य</w>": 3506,
  "बार</w>": 3507,
  "बनाने</w>": 3508,
  "बोल": 3509,
  "बन</w>": 3510,
  "प्रयास</w>": 3511,
  "प्रत्य": 3512,
  "पुर्": 3513,
  "पास</w>": 3514,
  "पालिका</w>": 3515,
  "परंप": 3516,
  "परंपरा": 3517,
  "पड़ोसी</w>": 3518,
  "पण": 3519,
  "नाग": 3520,
  "नई": 3521,
  "दृष्ट": 3522,
  "दिया।</w>": 3523,
  "थी</w>": 3524,
  "तीसर": 3525,
  "तो</w>": 3526,
  "तमिल</w>": 3527,
  "डु": 3528,
  "टे</w>": 3529,
  "झौ": 3530,
  "जाना</w>": 3531,
  "जलवायु</w>": 3532,
  "जबकि</w>": 3533,
  "जी</w>": 3534,
  "जलो": 3535,
  "चं": 3536,
  "गों</w>": 3537,
  "गांधी</w>": 3538,
  "गति</w>": 3539,
  "खो": 3540,
  "केवल</w>": 3541,
  "उत्पा": 3542,
  "ईद": 3543,
  "इसकी</w>": 3544,
  "इस्": 3545,
  "आदि</w>": 3546,
  "आन्": 3547,
  "अर्थव्यवस्था</w>": 3548,
  "अमेर": 3549,
  "अमरी": 3550,
  "अभी</w>": 3551,
  "अफ्रीका</w>": 3552,
  "अप्रैल</w>": 3553,
  "अब</w>": 3554,
  "|আইএসবিন=</w>": 3555,
  "{{বই</w>": 3556,
  "editor": 3557,
  "8%": 3558,
  "1947</w>": 3559,
  ".२": 3560,
  "-এর</w>": 3561,
  "-এ</w>": 3562,
  "-फ": 3563,
  ",०": 3564,
  "(c": 3565,
  "%),</w>": 3566,
  "-2": 3567,
  "్లను</w>": 3568,
  "్ల</w>": 3569,
  "ేమ": 3570,
  "ేట": 3571,
  "ె</w>": 3572,
  "ుంది.</w>": 3573,
  "ీన</w>": 3574,
  "ీ;</w>": 3575,
  "ిత</w>": 3576,
  "ాలు.</w>": 3577,
  "ాలకు</w>": 3578,
  "ారులు,</w>": 3579,
  "ారు</w>": 3580,
  "ావర": 3581,
  "ావరణం</w>": 3582,
  "హిందూ</w>": 3583,
  "హన": 3584,
  "స్తాన్</w>": 3585,
  "స్వాత": 3586,
  "స్వాతంత్ర": 3587,
  "స్వత": 3588,
  "సౌకర్య": 3589,
  "సియా</w>": 3590,
  "సింది.</w>": 3591,
  "సాం": 3592,
  "సముద్ర": 3593,
  "సభ</w>": 3594,
  "సె": 3595,
  "సల": 3596,
  "సర్": 3597,
  "శో": 3598,
  "శే": 3599,
  "శర": 3600,
  "శతా": 3601,
  "శతాబ్": 3602,
  "వాతావరణం</w>": 3603,
  "వగా</w>": 3604,
  "వంటి</w>": 3605,
  "వో": 3606,
  "వత్": 3607,
  "లలో</w>": 3608,
  "రైల్": 3609,
  "రెండు</w>": 3610,
  "రిత్ర": 3611,
  "రాష్ట్రపత": 3612,
  "ర‌": 3613,
  "మొత్": 3614,
  "మొత్తం</w>": 3615,
  "మైన": 3616,
  "ము</w>": 3617,
  "మహా": 3618,
  "మయ": 3619,
  "మణ": 3620,
  "భిన్న</w>": 3621,
  "భారతదేశానికి</w>": 3622,
  "భాషల": 3623,
  "బెంగాల": 3624,
  "బహు": 3625,
  "ఫర": 3626,
  "ప్రాచీన</w>": 3627,
  "ప్రాంతాలు</w>": 3628,
  "ప్రస్తుతం</w>": 3629,
  "ప్రభుత్వ": 3630,
  "ప్రపంచ</w>": 3631,
  "ప్రధాన": 3632,
  "ప్రధానమంత్ర": 3633,
  "ప్రజా": 3634,
  "పూర్": 3635,
  "పార్టీ</w>": 3636,
  "పట్టణ": 3637,
  "పస": 3638,
  "న్నాయి.</w>": 3639,
  "న్ను": 3640,
  "న్,</w>": 3641,
  "నేక</w>": 3642,
  "నిర్వహ": 3643,
  "నా,</w>": 3644,
  "నడిప": 3645,
  "నగర": 3646,
  "ధర": 3647,
  "దేశాలలో</w>": 3648,
  "దిన": 3649,
  "దు</w>": 3650,
  "తి,</w>": 3651,
  "తరువాత</w>": 3652,
  "తం,</w>": 3653,
  "తమి": 3654,
  "డి</w>": 3655,
  "జాబిత": 3656,
  "జరిగిన</w>": 3657,
  "జో": 3658,
  "చార": 3659,
  "చరిత్ర": 3660,
  "గా,</w>": 3661,
  "గంగా</w>": 3662,
  "ఖ్య</w>": 3663,
  "ఖో": 3664,
  "కూడు": 3665,
  "ఏర్ప": 3666,
  "ఎక్కువగా</w>": 3667,
  "ఎన్ను": 3668,
  "ఉండ": 3669,
  "ఇండియా</w>": 3670,
  "ఆవ": 3671,
  "ఆల": 3672,
  "ఆన": 3673,
  "అయిన</w>": 3674,
  "అధిక</w>": 3675,
  "అభి": 3676,
  "అనేక</w>": 3677,
  "అతి": 3678,
  "ంది</w>": 3679,
  "ంత్ర</w>": 3680,
  "৮.": 3681,
  "৭৯": 3682,
  "৬৮": 3683,
  "৪৮": 3684,
  "২০০৭</w>": 3685,
  "২৭": 3686,
  "১৯৯১</w>": 3687,
  "১৯৫০</w>": 3688,
  "১,": 3689,
  "্রা": 3690,
  "্রত": 3691,
  "্যে</w>": 3692,
  "্যা</w>": 3693,
  "্যমে</w>": 3694,
  "্প্রত": 3695,
  "্র</w>": 3696,
  "োর্": 3697,
  "ৃত।</w>": 3698,
  "ুসারে</w>": 3699,
  "ুষদের</w>": 3700,
  "ুপ্র": 3701,
  "ুনিক</w>": 3702,
  "ুষের</w>": 3703,
  "ী,</w>": 3704,
  "িল</w>": 3705,
  "িম</w>": 3706,
  "িত্র</w>": 3707,
  "ারেশন</w>": 3708,
  "ানির</w>": 3709,
  "ানের</w>": 3710,
  "ানু": 3711,
  "ানিক</w>": 3712,
  "হায়": 3713,
  "হন।</w>": 3714,
  "হকি</w>": 3715,
  "হকারী</w>": 3716,
  "স্থিত।</w>": 3717,
  "স্কৃত": 3718,
  "স্কৃতিক</w>": 3719,
  "সেম্ব": 3720,
  "সাম্প্রত": 3721,
  "সাংস্কৃতিক</w>": 3722,
  "সাগর": 3723,
  "সাগ": 3724,
  "সাক্ষরতার</w>": 3725,
  "সম্প্রদা": 3726,
  "সম্": 3727,
  "সফোর্": 3728,
  "সংবিধান</w>": 3729,
  "সংগ্রহের</w>": 3730,
  "সি</w>": 3731,
  "ষ্ট</w>": 3732,
  "ষ্ঠ</w>": 3733,
  "ষু": 3734,
  "শাসন": 3735,
  "শক্তিধর</w>": 3736,
  "শুরু</w>": 3737,
  "লিউড</w>": 3738,
  "র্থ": 3739,
  "রাষ্ট্রপত": 3740,
  "রাষ্ট্রপতি</w>": 3741,
  "রাষ্ট্র</w>": 3742,
  "রয়েছে": 3743,
  "যথা": 3744,
  "মের</w>": 3745,
  "মুসল": 3746,
  "মুঘ": 3747,
  "মুঘল</w>": 3748,
  "মাধ": 3749,
  "মাধ্যমে</w>": 3750,
  "মাত্র</w>": 3751,
  "মতো</w>": 3752,
  "মশ": 3753,
  "ভৌগো": 3754,
  "ভাষার</w>": 3755,
  "ভাষা</w>": 3756,
  "ভাব</w>": 3757,
  "ভাগ": 3758,
  "ব্যাপ": 3759,
  "বৈদেশ": 3760,
  "বৈদেশিক</w>": 3761,
  "বৃদ্ধির</w>": 3762,
  "বিস্তার</w>": 3763,
  "বিশ্ব</w>": 3764,
  "বিজেপি": 3765,
  "বিচারে</w>": 3766,
  "বিচার": 3767,
  "বিরো": 3768,
  "বিচ্": 3769,
  "বিংশ</w>": 3770,
  "বাহিন": 3771,
  "বাহিনী</w>": 3772,
  "বাসী</w>": 3773,
  "ব্রিটিশ</w>": 3774,
  "বশ": 3775,
  "বরা": 3776,
  "বর</w>": 3777,
  "বঙ্": 3778,
  "প্রাচীন": 3779,
  "প্রযুক্তি</w>": 3780,
  "প্রত": 3781,
  "প্রত্য": 3782,
  "প্রচ": 3783,
  "প্ত": 3784,
  "পূর্ব": 3785,
  "পুরুষদের</w>": 3786,
  "পুরস্": 3787,
  "পিত</w>": 3788,
  "পাদ": 3789,
  "পাত</w>": 3790,
  "পশ্চিম</w>": 3791,
  "পরিষে": 3792,
  "পরিচ": 3793,
  "পি</w>": 3794,
  "ন্ব": 3795,
  "নেতৃত্বে</w>": 3796,
  "নির্": 3797,
  "নিজ</w>": 3798,
  "নাট": 3799,
  "নিক</w>": 3800,
  "নার": 3801,
  "নয়</w>": 3802,
  "নও</w>": 3803,
  "ধ্রুপদি</w>": 3804,
  "ধর্ম</w>": 3805,
  "দিয়ে</w>": 3806,
  "দূ": 3807,
  "দল</w>": 3808,
  "দর্": 3809,
  "দগ": 3810,
  "থক": 3811,
  "ত্ম": 3812,
  "ত্ব</w>": 3813,
  "তি,</w>": 3814,
  "তারিখ</w>": 3815,
  "তনের</w>": 3816,
  "ডিসেম্ব": 3817,
  "ড়</w>": 3818,
  "টির</w>": 3819,
  "ঞ্জা": 3820,
  "জাতি": 3821,
  "জনপ্রিয়</w>": 3822,
  "জনসংখ্যার</w>": 3823,
  "ছিল</w>": 3824,
  "চলচ্চিত্র</w>": 3825,
  "চার": 3826,
  "চতু": 3827,
  "ঘাট</w>": 3828,
  "গুলোর</w>": 3829,
  "গুলিতে</w>": 3830,
  "গুরু": 3831,
  "গাঢ়</w>": 3832,
  "গত।</w>": 3833,
  "গড়ে</w>": 3834,
  "খেলা</w>": 3835,
  "ক্ষেত্র</w>": 3836,
  "ক্ষমতায়</w>": 3837,
  "ক্রয়": 3838,
  "কোম্প": 3839,
  "কোনও</w>": 3840,
  "কোটি</w>": 3841,
  "কিলোমিটার</w>": 3842,
  "কালের</w>": 3843,
  "কর্তৃ": 3844,
  "উৎস": 3845,
  "ইহ": 3846,
  "ইপ": 3847,
  "আন্দোল": 3848,
  "আদাল": 3849,
  "আজ</w>": 3850,
  "অর্থ": 3851,
  "অবস্থিত।</w>": 3852,
  "অন্তর্গত।</w>": 3853,
  "অনুমো": 3854,
  "অঞ্চলের</w>": 3855,
  "অঞ্চল</w>": 3856,
  "অক্সফোর্": 3857,
  "२०१": 3858,
  "्योग</w>": 3859,
  "्याद": 3860,
  "्यट": 3861,
  "्तन": 3862,
  "्तनत</w>": 3863,
  "ौद्योग": 3864,
  "ी,</w>": 3865,
  "ार,</w>": 3866,
  "ा,</w>": 3867,
  "हुई।</w>": 3868,
  "हिन्दु": 3869,
  "हिस्": 3870,
  "हर</w>": 3871,
  "स्वरूप</w>": 3872,
  "स्तार</w>": 3873,
  "स्लि": 3874,
  "स्त्र</w>": 3875,
  "स्त्र": 3876,
  "सेना": 3877,
  "सून</w>": 3878,
  "सिने": 3879,
  "सामा": 3880,
  "सामाजि": 3881,
  "सामाजिक</w>": 3882,
  "सल्तनत</w>": 3883,
  "सरकारें</w>": 3884,
  "सम्प": 3885,
  "सम्": 3886,
  "संघर्ष</w>": 3887,
  "संघी": 3888,
  "संघीय</w>": 3889,
  "संगी": 3890,
  "संगीत</w>": 3891,
  "स,</w>": 3892,
  "षित</w>": 3893,
  "शुरु": 3894,
  "शत</w>": 3895,
  "व्यापा": 3896,
  "व्यापार</w>": 3897,
  "विभिन्न</w>": 3898,
  "विस्तार</w>": 3899,
  "विक": 3900,
  "विकसित</w>": 3901,
  "विय": 3902,
  "व,</w>": 3903,
  "लोगों</w>": 3904,
  "लावा</w>": 3905,
  "लड़": 3906,
  "रूप": 3907,
  "राष्ट्र</w>": 3908,
  "राजधान": 3909,
  "राजधानी</w>": 3910,
  "रहा": 3911,
  "यक</w>": 3912,
  "मूल": 3913,
  "मुस्लि": 3914,
  "मुख्य": 3915,
  "मिलिय": 3916,
  "माना</w>": 3917,
  "मानसून</w>": 3918,
  "माध्य": 3919,
  "माध्यम</w>": 3920,
  "महाद्वीप</w>": 3921,
  "भील</w>": 3922,
  "भाषाएँ</w>": 3923,
  "बाहरी</w>": 3924,
  "बढ़कर</w>": 3925,
  "बर</w>": 3926,
  "बंग": 3927,
  "फ्र": 3928,
  "प्रारम्भ</w>": 3929,
  "प्रतिशत</w>": 3930,
  "प्रौद्योग": 3931,
  "पूर्वी</w>": 3932,
  "पुरा": 3933,
  "पर्यट": 3934,
  "पंजा": 3935,
  "पहु": 3936,
  "न्यायालय</w>": 3937,
  "न्ह": 3938,
  "निरपे": 3939,
  "निभाई</w>": 3940,
  "नदियाँ</w>": 3941,
  "न्य": 3942,
  "द्ध": 3943,
  "दों</w>": 3944,
  "देखा</w>": 3945,
  "दृष्टि</w>": 3946,
  "दिल्": 3947,
  "दार</w>": 3948,
  "थे।</w>": 3949,
  "तांत्र": 3950,
  "तियों</w>": 3951,
  "तना": 3952,
  "जैसे</w>": 3953,
  "जिसका</w>": 3954,
  "जिन": 3955,
  "जलोढ़</w>": 3956,
  "जनता</w>": 3957,
  "जहाँ</w>": 3958,
  "जन</w>": 3959,
  "चीफ</w>": 3960,
  "ची</w>": 3961,
  "घोषण": 3962,
  "गुप्त</w>": 3963,
  "गई।</w>": 3964,
  "गर</w>": 3965,
  "गए</w>": 3966,
  "गई</w>": 3967,
  "कोई</w>": 3968,
  "केन्द्र": 3969,
  "कृष": 3970,
  "किन्तु</w>": 3971,
  "काम": 3972,
  "का,</w>": 3973,
  "करता</w>": 3974,
  "किये</w>": 3975,
  "किया,</w>": 3976,
  "कहते</w>": 3977,
  "कम</w>": 3978,
  "उपमहाद्वीप</w>": 3979,
  "उद्योग</w>": 3980,
  "उसके</w>": 3981,
  "इतिहा": 3982,
  "आकर्": 3983,
  "अन्त": 3984,
  "अधिकार</w>": 3985,
  "अधिक": 3986,
  "अंग्रेज़ी</w>": 3987,
  "ंत्र</w>": 3988,
  "ँची</w>": 3989,
  "ul</w>": 3990,
  "brid": 3991,
  "ambrid": 3992,
  "Public": 3993,
  "Joh": 3994,
  "India।</w>": 3995,
  "F.": 3996,
  "49": 3997,
  "45": 3998,
  "26</w>": 3999,
  "1971</w>": 4000,
  "-জ": 4001,
  "-5": 4002,
  "(৩": 4003,
  "(ড": 4004,
  "(জ": 4005,
  "(ক": 4006,
  "(editor": 4007,
  "()": 4008,
  "PI": 4009,
  "BS": 4010,
  "‍य": 4011,
  "్‌</w>": 4012,
  "్రాజ": 4013,
  "్రదాయ": 4014,
  "్యాయ": 4015,
  "ెస్</w>": 4016,
  "ులకు</w>": 4017,
  "ీలు</w>": 4018,
  "ిత్ర": 4019,
  "ించి,</w>": 4020,
  "ించే</w>": 4021,
  "ింది.</w>": 4022,
  "ాలె": 4023,
  "ాలుగా</w>": 4024,
  "ాత్ర</w>": 4025,
  "ా,</w>": 4026,
  "స్వామ": 4027,
  "స్తారు.</w>": 4028,
  "స్లా": 4029,
  "స్య": 4030,
  "స్థ</w>": 4031,
  "సినిమా</w>": 4032,
  "సామ్రాజ": 4033,
  "సాంప": 4034,
  "సాంప్రదాయ": 4035,
  "సర్వీ": 4036,
  "సర్వీస": 4037,
  "సభ్య": 4038,
  "సంగీత": 4039,
  "సంస్కృత": 4040,
  "సంవత్": 4041,
  "సంప్ర": 4042,
  "సంప్రదాయ": 4043,
  "శ్చి": 4044,
  "శాఖ</w>": 4045,
  "శతాబ్దం</w>": 4046,
  "వ్యవస్థ</w>": 4047,
  "వేగంగా</w>": 4048,
  "వెబ": 4049,
  "వి.</w>": 4050,
  "వారస": 4051,
  "ళ్లను</w>": 4052,
  "ల్ప": 4053,
  "లుగు": 4054,
  "ల్</w>": 4055,
  "ర్త": 4056,
  "రోడ్": 4057,
  "రుష": 4058,
  "రాష్ట్రపతి</w>": 4059,
  "రాష్ట్రాల</w>": 4060,
  "రహదారులు,</w>": 4061,
  "రకాల</w>": 4062,
  "మూడు</w>": 4063,
  "ముఖ్యమైన</w>": 4064,
  "ములో</w>": 4065,
  "ముంబ": 4066,
  "ము.</w>": 4067,
  "మాత్రం</w>": 4068,
  "మలు</w>": 4069,
  "మధ్య": 4070,
  "మాల": 4071,
  "మాన": 4072,
  "మత</w>": 4073,
  "భారత్</w>": 4074,
  "భారతదేశంలోని</w>": 4075,
  "భారతదేశపు</w>": 4076,
  "భాగం</w>": 4077,
  "బ్రిటి": 4078,
  "బ్రిటిష": 4079,
  "బాద్": 4080,
  "ప్రముఖ</w>": 4081,
  "ప్రార": 4082,
  "ప్రకార": 4083,
  "పొంద": 4084,
  "పైగా</w>": 4085,
  "పేరు": 4086,
  "పుట్ట": 4087,
  "పాలిత</w>": 4088,
  "పాకిస్థా": 4089,
  "పరిశ్ర": 4090,
  "పరంగా</w>": 4091,
  "పతక": 4092,
  "పాత్ర</w>": 4093,
  "పశ్చి": 4094,
  "పర్": 4095,
  "న్నారు.</w>": 4096,
  "న్ని": 4097,
  "న్యాయ": 4098,
  "నాల": 4099,
  "నాయ": 4100,
  "ద్వీ": 4101,
  "త్</w>": 4102,
  "తి</w>": 4103,
  "తన</w>": 4104,
  "ఢిల్ల": 4105,
  "టుంబ": 4106,
  "టిలో</w>": 4107,
  "జాబితా</w>": 4108,
  "జల</w>": 4109,
  "చేయ": 4110,
  "చెందిన</w>": 4111,
  "చుకో": 4112,
  "చరిత్ర</w>": 4113,
  "గి</w>": 4114,
  "ఖండ": 4115,
  "క్షరా": 4116,
  "క్రమ": 4117,
  "కేంద్రపాలిత</w>": 4118,
  "కూడిన</w>": 4119,
  "కుటుంబ": 4120,
  "కార్య": 4121,
  "కాంగ్రెసు</w>": 4122,
  "క్య": 4123,
  "కుల": 4124,
  "కను": 4125,
  "ఉంటాయి.</w>": 4126,
  "ఆర్థ": 4127,
  "ఆధార": 4128,
  "ఆక్ర": 4129,
  "అభివృ": 4130,
  "అధికారిక</w>": 4131,
  "అతి</w>": 4132,
  "అను": 4133,
  "ంటే</w>": 4134,
  "ంచి</w>": 4135,
  "১৯৯৮</w>": 4136,
  "্রিক": 4137,
  "্রাস": 4138,
  "্যুষিত</w>": 4139,
  "্যাদা</w>": 4140,
  "েকটি</w>": 4141,
  "েই</w>": 4142,
  "ৃতি</w>": 4143,
  "ুমানিক</w>": 4144,
  "ুত</w>": 4145,
  "ীণ</w>": 4146,
  "িতা": 4147,
  "ালিক</w>": 4148,
  "ালি</w>": 4149,
  "ার্": 4150,
  "ারা</w>": 4151,
  "া,</w>": 4152,
  "হিমালয়ের</w>": 4153,
  "হলেন</w>": 4154,
  "হয়েছিল</w>": 4155,
  "হয়,</w>": 4156,
  "স্থাপত্য</w>": 4157,
  "স্থাপিত</w>": 4158,
  "স্থাপ": 4159,
  "স্তান</w>": 4160,
  "স্তন": 4161,
  "সিয়": 4162,
  "সাম্রাজ্যের</w>": 4163,
  "সাম্প্রতিক</w>": 4164,
  "সাধারণত": 4165,
  "সর্বো": 4166,
  "সরকারের</w>": 4167,
  "সমাজ": 4168,
  "সমৃ": 4169,
  "সময়</w>": 4170,
  "সময়": 4171,
  "সমগ্": 4172,
  "সমগ্র</w>": 4173,
  "সভ্য": 4174,
  "সভা</w>": 4175,
  "সংস্কৃতি</w>": 4176,
  "সংবিধান": 4177,
  "সংক্রান্ত</w>": 4178,
  "সংঘ": 4179,
  "শিষ্ট</w>": 4180,
  "শতকে</w>": 4181,
  "শক্তির</w>": 4182,
  "শন</w>": 4183,
  "লেখা</w>": 4184,
  "লা,</w>": 4185,
  "লক্ষ</w>": 4186,
  "র্ষ": 4187,
  "র্থ</w>": 4188,
  "রোপী": 4189,
  "রেখা": 4190,
  "রেখার</w>": 4191,
  "রূপে</w>": 4192,
  "রাজ্যের</w>": 4193,
  "রাঞ্চ": 4194,
  "রপে": 4195,
  "রক্ষা</w>": 4196,
  "যোগিতা": 4197,
  "যুদ্ধের</w>": 4198,
  "যুক্তরাষ্ট্রীয়</w>": 4199,
  "যুগের</w>": 4200,
  "যথাক্রমে</w>": 4201,
  "মানুষের</w>": 4202,
  "মাণ</w>": 4203,
  "মাইল": 4204,
  "মহান": 4205,
  "মর্যাদা</w>": 4206,
  "মূল": 4207,
  "ময়</w>": 4208,
  "ভৌগোলিক</w>": 4209,
  "ভূত</w>": 4210,
  "ভারতে": 4211,
  "ভারতক": 4212,
  "ভারতকে</w>": 4213,
  "ভাগে</w>": 4214,
  "ভৃতি</w>": 4215,
  "ব্যবহ": 4216,
  "বৈশিষ্ট্য</w>": 4217,
  "বৈচিত্র্যের</w>": 4218,
  "বিস্ত": 4219,
  "বিশ্বকাপ</w>": 4220,
  "বিশ্বকা": 4221,
  "বিবেচিত</w>": 4222,
  "বিবাহ</w>": 4223,
  "বিষ": 4224,
  "বিশিষ্ট</w>": 4225,
  "বিলিয়ন</w>": 4226,
  "বিগত</w>": 4227,
  "বাণিজ্যিক</w>": 4228,
  "বাণিজ্য</w>": 4229,
  "বাস</w>": 4230,
  "বাদ</w>": 4231,
  "বহুল</w>": 4232,
  "বর্ণ": 4233,
  "ব্র": 4234,
  "বার": 4235,
  "বহি": 4236,
  "ফেড": 4237,
  "ফি,</w>": 4238,
  "প্রাণী</w>": 4239,
  "প্রাচীনতম</w>": 4240,
  "প্রধানমন্ত্রী</w>": 4241,
  "প্রত্যক্ষ</w>": 4242,
  "প্রতিযোগিতা": 4243,
  "প্রজাতন্ত্র": 4244,
  "প্রচলিত</w>": 4245,
  "প্রভৃতি</w>": 4246,
  "প্রভাব</w>": 4247,
  "প্রবর্": 4248,
  "প্রথম": 4249,
  "প্রচল": 4250,
  "পোশা": 4251,
  "পৃ.</w>": 4252,
  "পূর্বে</w>": 4253,
  "পুরস্কার</w>": 4254,
  "পিপি": 4255,
  "পার্টি</w>": 4256,
  "পাকিস্তান</w>": 4257,
  "পাতের</w>": 4258,
  "পশ্চিমঘাট</w>": 4259,
  "পর্বতমা": 4260,
  "পরিবর্": 4261,
  "পরে</w>": 4262,
  "পরে": 4263,
  "ন্ধী</w>": 4264,
  "ন্ড</w>": 4265,
  "ন্ট</w>": 4266,
  "নীতি</w>": 4267,
  "নিরপে": 4268,
  "নিম্": 4269,
  "নিদর্": 4270,
  "নিজে": 4271,
  "ন,</w>": 4272,
  "ধর্ম": 4273,
  "ধনশীল</w>": 4274,
  "ধারা": 4275,
  "দ্রুত</w>": 4276,
  "দ্রা": 4277,
  "দ্বারা</w>": 4278,
  "দেশীয়</w>": 4279,
  "দেয়।</w>": 4280,
  "দিত</w>": 4281,
  "দী</w>": 4282,
  "দিক</w>": 4283,
  "দার": 4284,
  "দলের</w>": 4285,
  "থেকেই</w>": 4286,
  "থে</w>": 4287,
  "থান": 4288,
  "ত্বপূর্ণ</w>": 4289,
  "তিন": 4290,
  "ণ।</w>": 4291,
  "ডিসেম্বর</w>": 4292,
  "ডলার</w>": 4293,
  "ঠে।</w>": 4294,
  "ট্রফি,</w>": 4295,
  "টিক": 4296,
  "ট,</w>": 4297,
  "জিত</w>": 4298,
  "জিডি": 4299,
  "জনপ্রিয়।</w>": 4300,
  "জীব": 4301,
  "জিক</w>": 4302,
  "জরা": 4303,
  "চারটি</w>": 4304,
  "গ্রহ</w>": 4305,
  "গুরুত্বপূর্ণ</w>": 4306,
  "গান্ধী</w>": 4307,
  "খণ্ড": 4308,
  "খ্যা": 4309,
  "ক্ষণের</w>": 4310,
  "ক্ষণ</w>": 4311,
  "ক্রয়ক্ষমতা</w>": 4312,
  "ক্ত</w>": 4313,
  "কেন্দ্র</w>": 4314,
  "কৃষি": 4315,
  "কালে</w>": 4316,
  "কাই": 4317,
  "কাইভক": 4318,
  "কর্তৃক</w>": 4319,
  "করেন।</w>": 4320,
  "কয়েকটি</w>": 4321,
  "ওঠে।</w>": 4322,
  "এশিয়ান</w>": 4323,
  "এশিয়া</w>": 4324,
  "এছাড়া</w>": 4325,
  "উৎসব</w>": 4326,
  "উপগ্রহ</w>": 4327,
  "উদ্ভি": 4328,
  "উত্তর-পূর্ব</w>": 4329,
  "ইটালিক</w>": 4330,
  "ইউরোপী": 4331,
  "ইউনি": 4332,
  "ইংরেজি</w>": 4333,
  "ই,</w>": 4334,
  "আর্কাইভক": 4335,
  "আফ্রিক": 4336,
  "আন্দা": 4337,
  "আনুমানিক</w>": 4338,
  "আধুনিক</w>": 4339,
  "আবার</w>": 4340,
  "অনেক</w>": 4341,
  "অনুমোদিত</w>": 4342,
  "অনুযা": 4343,
  "অনুসারে</w>": 4344,
  "অধ্যুষিত</w>": 4345,
  "অত্য": 4346,
  "অক্সফোর্ড</w>": 4347,
  "অক্টো": 4348,
  "অরণ": 4349,
  "অংশ": 4350,
  "६४": 4351,
  "३८": 4352,
  "२९": 4353,
  "१९५०</w>": 4354,
  "१९६": 4355,
  "१५</w>": 4356,
  "०००</w>": 4357,
  "्रिय</w>": 4358,
  "ौल": 4359,
  "ों,</w>": 4360,
  "ोण": 4361,
  "ैंक</w>": 4362,
  "ैतिक</w>": 4363,
  "ेक</w>": 4364,
  "ीलंक": 4365,
  "ीलंका</w>": 4366,
  "ी।</w>": 4367,
  "ीक्ष": 4368,
  "ीक्षण</w>": 4369,
  "ियां</w>": 4370,
  "िमण्ड": 4371,
  "िमण्डल</w>": 4372,
  "िणाम": 4373,
  "िकों</w>": 4374,
  "िय</w>": 4375,
  "ालर</w>": 4376,
  "ारों</w>": 4377,
  "ारे</w>": 4378,
  "ा।</w>": 4379,
  "होना</w>": 4380,
  "हॉकी</w>": 4381,
  "हुए": 4382,
  "हिन्दी": 4383,
  "हाल</w>": 4384,
  "हायक</w>": 4385,
  "स्वतंत्र</w>": 4386,
  "स्थान": 4387,
  "स्तान,</w>": 4388,
  "स्कृतिक</w>": 4389,
  "स्त</w>": 4390,
  "सोविय": 4391,
  "सोवियत</w>": 4392,
  "सों</w>": 4393,
  "सेवा": 4394,
  "से,</w>": 4395,
  "सूची</w>": 4396,
  "सिंध": 4397,
  "सिं": 4398,
  "सिंह</w>": 4399,
  "सामरिक</w>": 4400,
  "सामन": 4401,
  "साथ": 4402,
  "सागर</w>": 4403,
  "सां": 4404,
  "सांस्कृतिक</w>": 4405,
  "समाप्त</w>": 4406,
  "समृ": 4407,
  "सभ्यता</w>": 4408,
  "सफल</w>": 4409,
  "सने</w>": 4410,
  "सदस्यों</w>": 4411,
  "सदस्य</w>": 4412,
  "सदन</w>": 4413,
  "सक्रिय</w>": 4414,
  "संबंधों</w>": 4415,
  "सॉ": 4416,
  "सा</w>": 4417,
  "सहायक</w>": 4418,
  "ष्ण</w>": 4419,
  "ष्ठ</w>": 4420,
  "ष्क</w>": 4421,
  "श्रीलंका</w>": 4422,
  "श्मी": 4423,
  "श्मीर</w>": 4424,
  "शुरुआ": 4425,
  "शुरुआत</w>": 4426,
  "शुष्क</w>": 4427,
  "शिय": 4428,
  "शक्ति</w>": 4429,
  "शक्": 4430,
  "विरो": 4431,
  "विक</w>": 4432,
  "वास्त": 4433,
  "वाली</w>": 4434,
  "वशाली</w>": 4435,
  "वर्ष": 4436,
  "वंश</w>": 4437,
  "वे</w>": 4438,
  "लोकप्र": 4439,
  "लोकप्रिय</w>": 4440,
  "लोग</w>": 4441,
  "लेकर</w>": 4442,
  "लीवि": 4443,
  "लिक</w>": 4444,
  "लना</w>": 4445,
  "लंब": 4446,
  "लंबे</w>": 4447,
  "रूस</w>": 4448,
  "री,</w>": 4449,
  "राजनैतिक</w>": 4450,
  "रहा।</w>": 4451,
  "रता</w>": 4452,
  "र्य</w>": 4453,
  "यहाँ</w>": 4454,
  "मौर्य</w>": 4455,
  "मैदानी</w>": 4456,
  "मुस्लिम</w>": 4457,
  "मिला</w>": 4458,
  "मंत्रिमण्डल</w>": 4459,
  "मन</w>": 4460,
  "मण</w>": 4461,
  "भाषी</w>": 4462,
  "भारती": 4463,
  "भारत": 4464,
  "भागी": 4465,
  "भाग</w>": 4466,
  "भरा</w>": 4467,
  "भे": 4468,
  "भर</w>": 4469,
  "बौद्ध</w>": 4470,
  "बने</w>": 4471,
  "बनी</w>": 4472,
  "बना</w>": 4473,
  "बढ़ती</w>": 4474,
  "बजट</w>": 4475,
  "बंधीय</w>": 4476,
  "ब्र": 4477,
  "बॉ": 4478,
  "बने": 4479,
  "फ्रां": 4480,
  "फैली</w>": 4481,
  "फे": 4482,
  "प्रौद्योगिकी</w>": 4483,
  "प्रत्येक</w>": 4484,
  "प्रदान</w>": 4485,
  "प्रण": 4486,
  "प्रणाली</w>": 4487,
  "प्रका": 4488,
  "पूरे</w>": 4489,
  "पूरा</w>": 4490,
  "पुर्तग": 4491,
  "पुरु": 4492,
  "पाया</w>": 4493,
  "पश्चिमी</w>": 4494,
  "पर्यटन</w>": 4495,
  "पर्वत": 4496,
  "पर्व</w>": 4497,
  "परंपरागत</w>": 4498,
  "परीक्षण</w>": 4499,
  "परिणाम": 4500,
  "पंजाब</w>": 4501,
  "पि</w>": 4502,
  "पत्": 4503,
  "पट": 4504,
  "नेक</w>": 4505,
  "निवे": 4506,
  "निम्": 4507,
  "नगर</w>": 4508,
  "धिकार</w>": 4509,
  "धिक</w>": 4510,
  "धार</w>": 4511,
  "धार": 4512,
  "द्धि</w>": 4513,
  "दिल्ली</w>": 4514,
  "दिरा</w>": 4515,
  "तों</w>": 4516,
  "तीन</w>": 4517,
  "तांत्रिक</w>": 4518,
  "तरह</w>": 4519,
  "तौ": 4520,
  "णत": 4521,
  "णक": 4522,
  "ड़ा</w>": 4523,
  "डालर</w>": 4524,
  "डस": 4525,
  "ठक</w>": 4526,
  "टेलीवि": 4527,
  "टिबंधीय</w>": 4528,
  "टी</w>": 4529,
  "जों</w>": 4530,
  "जून</w>": 4531,
  "जीवन</w>": 4532,
  "जिनमें</w>": 4533,
  "जिन्हें</w>": 4534,
  "जित</w>": 4535,
  "जमा</w>": 4536,
  "जनवरी</w>": 4537,
  "जरा": 4538,
  "छोड़": 4539,
  "छोटे</w>": 4540,
  "छा": 4541,
  "च्छ": 4542,
  "चना</w>": 4543,
  "चाल": 4544,
  "घोषणा</w>": 4545,
  "गुजरा": 4546,
  "गति": 4547,
  "खु": 4548,
  "खि": 4549,
  "क्ट": 4550,
  "कों</w>": 4551,
  "कृषि</w>": 4552,
  "किसी</w>": 4553,
  "किए</w>": 4554,
  "कार्यपालिका</w>": 4555,
  "कार्यकाल</w>": 4556,
  "कालीन</w>": 4557,
  "करते</w>": 4558,
  "करती</w>": 4559,
  "कश्मीर</w>": 4560,
  "कथ": 4561,
  "ओड": 4562,
  "एफ": 4563,
  "ऋतु</w>": 4564,
  "ऊँची</w>": 4565,
  "उपयोग</w>": 4566,
  "उनके</w>": 4567,
  "उनकी</w>": 4568,
  "उत्तरी</w>": 4569,
  "उसे</w>": 4570,
  "उन्हें</w>": 4571,
  "उच्च</w>": 4572,
  "ई,</w>": 4573,
  "इस्ला": 4574,
  "इसका</w>": 4575,
  "इसे</w>": 4576,
  "इसमें</w>": 4577,
  "इतिहास</w>": 4578,
  "इंडिया</w>": 4579,
  "इंदिरा</w>": 4580,
  "आन्दोलन</w>": 4581,
  "आगमन</w>": 4582,
  "आया": 4583,
  "आय</w>": 4584,
  "अमरीकी</w>": 4585,
  "अपना</w>": 4586,
  "अल्": 4587,
  "अनेक</w>": 4588,
  "अद": 4589,
  "ंड</w>": 4590,
  "ंग</w>": 4591,
  "ंपर": 4592,
  "|publ": 4593,
  "|publish": 4594,
  "|publisher": 4595,
  "|publisher=": 4596,
  "|publisher=-এ</w>": 4597,
  "|nopp": 4598,
  "|nopp=</w>": 4599,
  "|no-": 4600,
  "|no-pp": 4601,
  "|no-pp=</w>": 4602,
  "|co": 4603,
  "|coauthor": 4604,
  "|coauthors": 4605,
  "|coauthors=</w>": 4606,
  "s।</w>": 4607,
  "author=</w>": 4608,
  "ambridge</w>": 4609,
  "Publication": 4610,
  "Press,</w>": 4611,
  "Paul</w>": 4612,
  "Lond": 4613,
  "Chang": 4614,
  "Anth": 4615,
  "68": 4616,
  "41": 4617,
  "33": 4618,
  "2020": 4619,
  "22</w>": 4620,
  "1980</w>": 4621,
  "0,</w>": 4622,
  ".६": 4623,
  ".४": 4624,
  "-१": 4625,
  ",६": 4626,
  "(২০০১": 4627,
  "(|author=</w>": 4628,
  "(भ": 4629,
  "(|no-pp=</w>": 4630,
  "ία": 4631,
  "Sp": 4632,
  "Ki": 4633,
  "BB": 4634,
  "్‌సై": 4635,
  "్‌సైటు</w>": 4636,
  "్లు</w>": 4637,
  "్,</w>": 4638,
  "ెట్</w>": 4639,
  "ూరు</w>": 4640,
  "ులను</w>": 4641,
  "ును</w>": 4642,
  "ుగు</w>": 4643,
  "ిల్లీ-": 4644,
  "ినది.</w>": 4645,
  "ితి</w>": 4646,
  "ిగా</w>": 4647,
  "ిక్</w>": 4648,
  "ించాల": 4649,
  "ించబ": 4650,
  "ాలెండ": 4651,
  "ాలా</w>": 4652,
  "ారి</w>": 4653,
  "ార</w>": 4654,
  "ాయి</w>": 4655,
  "ాతో</w>": 4656,
  "ాంగ": 4657,
  "హిమాల": 4658,
  "స్వామ్య</w>": 4659,
  "స్వతంత్ర</w>": 4660,
  "స్లామా": 4661,
  "స్లామాబాద్": 4662,
  "స్యత</w>": 4663,
  "స్థానంలో</w>": 4664,
  "స్కృతిక</w>": 4665,
  "స్ట": 4666,
  "స్,</w>": 4667,
  "సాంస్కృతిక</w>": 4668,
  "సర్వీసులు</w>": 4669,
  "సమాఖ్య": 4670,
  "సంస్కృతి</w>": 4671,
  "సంవత్సర": 4672,
  "సంప్రదాయాలు</w>": 4673,
  "సంగీతం</w>": 4674,
  "సంగీ": 4675,
  "సంస్కృ": 4676,
  "సంబ": 4677,
  "సంబంధ": 4678,
  "సంఘ": 4679,
  "సంఖ్య": 4680,
  "సంకీ": 4681,
  "సంకీర్": 4682,
  "సైన": 4683,
  "శ్రీ": 4684,
  "శ్మీ": 4685,
  "శాస్త్రీయ</w>": 4686,
  "శాస్త్రం,</w>": 4687,
  "శెల": 4688,
  "వ్యవస్థలో</w>": 4689,
  "వ్యాప": 4690,
  "వైవిధ": 4691,
  "వెబ్‌సైటు</w>": 4692,
  "వెను": 4693,
  "వెనుకట": 4694,
  "వెనుకటి</w>": 4695,
  "వీటిలో</w>": 4696,
  "విస్": 4697,
  "విభిన్న</w>": 4698,
  "విద": 4699,
  "విద్య": 4700,
  "వారా</w>": 4701,
  "వాణి": 4702,
  "వాణిజ": 4703,
  "వల్ల</w>": 4704,
  "వలం</w>": 4705,
  "వరి</w>": 4706,
  "వరాలు</w>": 4707,
  "వడం</w>": 4708,
  "వంలో</w>": 4709,
  "వే</w>": 4710,
  "ల్లో</w>": 4711,
  "లోను</w>": 4712,
  "లేద": 4713,
  "లేదా</w>": 4714,
  "లను</w>": 4715,
  "ల్ల": 4716,
  "లక్ష": 4717,
  "ర్,</w>": 4718,
  "రోడ్డు</w>": 4719,
  "రైల్వే</w>": 4720,
  "రైళ్లను</w>": 4721,
  "రుపు": 4722,
  "రాజ్యాంగ": 4723,
  "రం</w>": 4724,
  "మొదలైన": 4725,
  "మొట్ట": 4726,
  "మొట్టమొదటి</w>": 4727,
  "మైనది.</w>": 4728,
  "ముఖ్య</w>": 4729,
  "మే</w>": 4730,
  "మిం": 4731,
  "మంది</w>": 4732,
  "భాషలు</w>": 4733,
  "భావి": 4734,
  "బహుళ</w>": 4735,
  "బడత": 4736,
  "బంగ్ల": 4737,
  "బంగ్లా": 4738,
  "బంగ": 4739,
  "ఫ్ఘ": 4740,
  "ప్రారంభ": 4741,
  "ప్రభుత్వం</w>": 4742,
  "ప్రపంచం": 4743,
  "ప్రధానమంత్రి</w>": 4744,
  "ప్రతిపా": 4745,
  "ప్రతిపాదన": 4746,
  "ప్రకారం</w>": 4747,
  "ప్రజల": 4748,
  "ప్పటికీ,</w>": 4749,
  "పేర్లు</w>": 4750,
  "పేర్కొ": 4751,
  "పురుష": 4752,
  "పాలించ": 4753,
  "పాలన</w>": 4754,
  "పాటు</w>": 4755,
  "పాక్</w>": 4756,
  "పరిశ్రమలు</w>": 4757,
  "పతకాలు</w>": 4758,
  "పండుగ": 4759,
  "పీఠ": 4760,
  "పా</w>": 4761,
  "పద్ధ": 4762,
  "పక్ష": 4763,
  "న్నది.</w>": 4764,
  "న్మ": 4765,
  "న్నడ": 4766,
  "నేపాల": 4767,
  "నుంచి</w>": 4768,
  "నాలుగు</w>": 4769,
  "నాయక": 4770,
  "నాగర": 4771,
  "నాగరిక": 4772,
  "నడిపిం": 4773,
  "ద్ధం</w>": 4774,
  "ద్వారా</w>": 4775,
  "దేశంగా</w>": 4776,
  "దేశపు</w>": 4777,
  "దినాలు</w>": 4778,
  "దాదా": 4779,
  "దగా</w>": 4780,
  "దక్షిణాసియా</w>": 4781,
  "దక్షిణాన</w>": 4782,
  "దక్షిణ</w>": 4783,
  "త్వ</w>": 4784,
  "త్మ": 4785,
  "త్తా": 4786,
  "తో,</w>": 4787,
  "తెలుగు": 4788,
  "తుంది.</w>": 4789,
  "తిగా</w>": 4790,
  "తరువాతి</w>": 4791,
  "తమిళం": 4792,
  "తంలో</w>": 4793,
  "త్య": 4794,
  "తూ</w>": 4795,
  "తరా": 4796,
  "తక్కు": 4797,
  "ణంగా</w>": 4798,
  "డింది.</w>": 4799,
  "ట్లు</w>": 4800,
  "టి</w>": 4801,
  "టర్": 4802,
  "జరిగ": 4803,
  "జనగణ": 4804,
  "జాలు</w>": 4805,
  "జరుపు": 4806,
  "జన్మ": 4807,
  "జంబ": 4808,
  "జంబూ</w>": 4809,
  "చు.</w>": 4810,
  "చిన</w>": 4811,
  "చిత్ర": 4812,
  "చింది.</w>": 4813,
  "చారిత్ర": 4814,
  "చైన": 4815,
  "చాలా</w>": 4816,
  "గుర్త": 4817,
  "గాంధ": 4818,
  "గాంధీ</w>": 4819,
  "క్షరాస్యత</w>": 4820,
  "క్రీడలు</w>": 4821,
  "క్యాలెండ": 4822,
  "క్‌": 4823,
  "కోర్ట": 4824,
  "కోల్": 4825,
  "కోట్ల": 4826,
  "కొన్ని</w>": 4827,
  "కేంద్ర</w>": 4828,
  "కేవలం</w>": 4829,
  "కూడుకు": 4830,
  "కుంటారు.</w>": 4831,
  "కింద": 4832,
  "కార్యక్రమ": 4833,
  "కాశ్మీ": 4834,
  "కలిగి</w>": 4835,
  "కరణ": 4836,
  "కంపె": 4837,
  "కన్నడ": 4838,
  "ఒకటి": 4839,
  "ఏర్పడ్": 4840,
  "ఎన్నిక": 4841,
  "ఉపఖండ": 4842,
  "ఉన్నారు.</w>": 4843,
  "ఉత్తరా": 4844,
  "ఉత్తర</w>": 4845,
  "ఉంటుంది.</w>": 4846,
  "ఇవి</w>": 4847,
  "ఇస్లామాబాద్": 4848,
  "ఇతర": 4849,
  "ఇంగ్ల": 4850,
  "ఆహార": 4851,
  "ఆర్థిక</w>": 4852,
  "ఆఫ్ఘ": 4853,
  "అభివృద్ధి</w>": 4854,
  "అనే</w>": 4855,
  "అని</w>": 4856,
  "ంగా,</w>": 4857,
  "ంలో,</w>": 4858,
  "ం.</w>": 4859,
  "৯৯),</w>": 4860,
  "৮।</w>": 4861,
  "৫২১": 4862,
  "৪৭</w>": 4863,
  "২১৬": 4864,
  "২০১১</w>": 4865,
  "২০</w>": 4866,
  "২৮</w>": 4867,
  "১৯৯০-এর</w>": 4868,
  "১৯৪৭</w>": 4869,
  "০০০</w>": 4870,
  "০১৯": 4871,
  "্ষিক</w>": 4872,
  "্রিম</w>": 4873,
  "্রেস": 4874,
  "্যান্ড</w>": 4875,
  "্যান্ড": 4876,
  "্যো": 4877,
  "্যোতি": 4878,
  "্যব": 4879,
  "্যবস্থা</w>": 4880,
  "্যপা": 4881,
  "্বভৌ": 4882,
  "্পিউ": 4883,
  "্ট</w>": 4884,
  "্চ</w>": 4885,
  "্সি": 4886,
  "োজক</w>": 4887,
  "োগের</w>": 4888,
  "োগ</w>": 4889,
  "োজিত</w>": 4890,
  "েরু</w>": 4891,
  "েম্ব": 4892,
  "েন।</w>": 4893,
  "ে,</w>": 4894,
  "ৃতিক</w>": 4895,
  "ৃত,</w>": 4896,
  "ৃত</w>": 4897,
  "ীতি</w>": 4898,
  "ীত।</w>": 4899,
  "িদ্র": 4900,
  "িতি</w>": 4901,
  "িত,</w>": 4902,
  "িকভাবে</w>": 4903,
  "িক।</w>": 4904,
  "ি,</w>": 4905,
  "ানুয়ার": 4906,
  "ানুয়ারি</w>": 4907,
  "াগরি": 4908,
  "াকৃতিক</w>": 4909,
  "হিমালয়</w>": 4910,
  "হিন্দু,</w>": 4911,
  "হিন্দি</w>": 4912,
  "হিন্দি": 4913,
  "হয়েছিল।</w>": 4914,
  "হয়;</w>": 4915,
  "হারের</w>": 4916,
  "হত</w>": 4917,
  "স্বাধীনতার</w>": 4918,
  "স্থাপন</w>": 4919,
  "স্তন্যপা": 4920,
  "স্ট্র": 4921,
  "সেনা</w>": 4922,
  "সেই</w>": 4923,
  "সীমা": 4924,
  "সিংহ": 4925,
  "সার্বভৌ": 4926,
  "সারা</w>": 4927,
  "সাগরে</w>": 4928,
  "সাগর</w>": 4929,
  "সাল</w>": 4930,
  "সাল": 4931,
  "সামা": 4932,
  "সামাজিক</w>": 4933,
  "সাথে</w>": 4934,
  "সাউ": 4935,
  "সর্বোচ্চ": 4936,
  "সর্বোচ্চ</w>": 4937,
  "সর্বাপে": 4938,
  "সর্বাপেক্ষা</w>": 4939,
  "সর্ব": 4940,
  "সরণ</w>": 4941,
  "সম্মি": 4942,
  "সময়কালের</w>": 4943,
  "সমর্থ": 4944,
  "সময়ে</w>": 4945,
  "সভ্যতার</w>": 4946,
  "সকল</w>": 4947,
  "সংস্কৃতির</w>": 4948,
  "সংস্কৃতিতে</w>": 4949,
  "সংস্কৃত</w>": 4950,
  "সংসদের</w>": 4951,
  "সংসদী": 4952,
  "সংসদীয়</w>": 4953,
  "সংরক্ষণ</w>": 4954,
  "সংঘর্": 4955,
  "সংখ্যাগরি": 4956,
  "সংখ্যক</w>": 4957,
  "সংস্থা</w>": 4958,
  "সংসদ": 4959,
  "সৃষ": 4960,
  "সুপ": 4961,
  "সহায়": 4962,
  "সহ</w>": 4963,
  "স,</w>": 4964,
  "ষ্ঠী": 4965,
  "ষণা</w>": 4966,
  "শাসনা": 4967,
  "শাসন</w>": 4968,
  "শহরে</w>": 4969,
  "শব্দটি</w>": 4970,
  "শক্তি</w>": 4971,
  "শাল": 4972,
  "ল্ল": 4973,
  "লোকস": 4974,
  "লোক": 4975,
  "লুগু": 4976,
  "লীন</w>": 4977,
  "লি,</w>": 4978,
  "লায়</w>": 4979,
  "লন</w>": 4980,
  "র্ধ": 4981,
  "র্তী</w>": 4982,
  "রেশীয়</w>": 4983,
  "রিজ": 4984,
  "রাষ্ট্রে</w>": 4985,
  "রাজ্যে</w>": 4986,
  "রাজনীতি</w>": 4987,
  "রয়েছে:</w>": 4988,
  "রয়েছে।</w>": 4989,
  "রা</w>": 4990,
  "রন্": 4991,
  "রন্ধন": 4992,
  "রও</w>": 4993,
  "যোগ</w>": 4994,
  "যুদ্ধ</w>": 4995,
  "য়েন্": 4996,
  "য়ান": 4997,
  "য়,</w>": 4998,
  "যে</w>": 4999,
  "যন্ত্র": 5000,
  "মুসলমান</w>": 5001,
  "মানুষ": 5002,
  "মাঝ": 5003,
  "মাই": 5004,
  "মধ্যবর্": 5005,
  "মধ্যবর্তী</w>": 5006,
  "মিক": 5007,
  "মা</w>": 5008,
  "মসূ": 5009,
  "মরু": 5010,
  "ভূমির</w>": 5011,
  "ভূমিক": 5012,
  "ভূখণ্ড": 5013,
  "ভিত্": 5014,
  "ভাষাগো": 5015,
  "ভার্সি": 5016,
  "ভারত-": 5017,
  "ভারত,</w>": 5018,
  "ভাগের</w>": 5019,
  "ভি</w>": 5020,
  "ব্যাপক</w>": 5021,
  "ব্যবহৃত</w>": 5022,
  "ব্যবস্থার</w>": 5023,
  "বৈচিত্র্যপূর্ণ</w>": 5024,
  "বৃহৎ</w>": 5025,
  "বৃক্ষ": 5026,
  "বুদ্ধ</w>": 5027,
  "বিস্তৃত।</w>": 5028,
  "বিশেষ</w>": 5029,
  "বিশেষ": 5030,
  "বিরোধ": 5031,
  "বিরোধী</w>": 5032,
  "বিভক্ত।</w>": 5033,
  "বিজেপি-": 5034,
  "বিচ্ছি": 5035,
  "বিচারব্যবস্থা</w>": 5036,
  "বিভাগ</w>": 5037,
  "বিবাহ": 5038,
  "বিদেশ": 5039,
  "বিদেশি</w>": 5040,
  "বিদ</w>": 5041,
  "বিদ": 5042,
  "বিজয়": 5043,
  "বিজ": 5044,
  "বাহিনীর</w>": 5045,
  "বার্ষিক</w>": 5046,
  "বায়ুপ্র": 5047,
  "বাল": 5048,
  "বাদী": 5049,
  "বসতি</w>": 5050,
  "বর্ধনশীল</w>": 5051,
  "বন্য": 5052,
  "বঙ্গো": 5053,
  "বঙ্গোপ": 5054,
  "ব্য</w>": 5055,
  "ফেডারেশন</w>": 5056,
  "ফ্র": 5057,
  "ফিল": 5058,
  "প্রযুক্তি": 5059,
  "প্রবর্তিত</w>": 5060,
  "প্রতিষ্ঠিত</w>": 5061,
  "প্রতিষ্ঠ": 5062,
  "প্রাধ": 5063,
  "প্রাকৃতিক</w>": 5064,
  "প্রা": 5065,
  "প্রস্": 5066,
  "প্রদেশের</w>": 5067,
  "প্তর": 5068,
  "পূর্বাব্দ": 5069,
  "পূর্বাঞ্চ": 5070,
  "পুন": 5071,
  "পুঞ্": 5072,
  "পাঁচ</w>": 5073,
  "পালিত</w>": 5074,
  "পাল</w>": 5075,
  "পাত": 5076,
  "পাও": 5077,
  "পশ্চিমে</w>": 5078,
  "পরেই</w>": 5079,
  "পরিচাল": 5080,
  "প্ট": 5081,
  "পতিত</w>": 5082,
  "পড়": 5083,
  "প,</w>": 5084,
  "ন্বয়ে</w>": 5085,
  "ন্নয়": 5086,
  "ন্ত্রণ</w>": 5087,
  "ন্স</w>": 5088,
  "নোবে": 5089,
  "নৃত্য": 5090,
  "নির্বাচন": 5091,
  "নির্বাচনে</w>": 5092,
  "নিরপেক্ষ</w>": 5093,
  "নিয়ন্ত্রণ</w>": 5094,
  "নিম্নক": 5095,
  "নিদর্শন": 5096,
  "নিজেদের</w>": 5097,
  "নিযুক্ত</w>": 5098,
  "নে</w>": 5099,
  "ধিষ্ঠিত</w>": 5100,
  "ধাঁচ": 5101,
  "ধর্মী": 5102,
  "ধর্মা": 5103,
  "ধি</w>": 5104,
  "দ্রো": 5105,
  "দ্বীপপুঞ্": 5106,
  "দ্বীপের</w>": 5107,
  "দৈনিক</w>": 5108,
  "দেশটির</w>": 5109,
  "দেশ।</w>": 5110,
  "দুর্": 5111,
  "দিন</w>": 5112,
  "দারিদ্র": 5113,
  "দায়": 5114,
  "দাক্ষি": 5115,
  "দাক্ষিণ": 5116,
  "দাক্ষিণাত": 5117,
  "দাঁ": 5118,
  "দাঁড়": 5119,
  "দশকে</w>": 5120,
  "দশকগুলিতে</w>": 5121,
  "দশকের</w>": 5122,
  "দশক</w>": 5123,
  "থাকত": 5124,
  "থর</w>": 5125,
  "ত্তি</w>": 5126,
  "তেলুগু": 5127,
  "তৃত্ব</w>": 5128,
  "তীয়": 5129,
  "তি।</w>": 5130,
  "তামিল": 5131,
  "তাই</w>": 5132,
  "তম।</w>": 5133,
  "তবে</w>": 5134,
  "তথ্য</w>": 5135,
  "তথা</w>": 5136,
  "তুল": 5137,
  "ণ্ড</w>": 5138,
  "ণের</w>": 5139,
  "ড়ুর</w>": 5140,
  "ড়া</w>": 5141,
  "ডলারের</w>": 5142,
  "টিকে</w>": 5143,
  "টি।</w>": 5144,
  "জুন</w>": 5145,
  "জার</w>": 5146,
  "জাতি</w>": 5147,
  "জাত</w>": 5148,
  "জনতা</w>": 5149,
  "জ্যোতি": 5150,
  "জ,</w>": 5151,
  "ছোট": 5152,
  "ছিল।</w>": 5153,
  "ছিল": 5154,
  "চুক্": 5155,
  "চুক্তি</w>": 5156,
  "চালিত</w>": 5157,
  "চার</w>": 5158,
  "চনা</w>": 5159,
  "চতুর্থ</w>": 5160,
  "চাল": 5161,
  "ঙ্গাল": 5162,
  "ঙ্গে": 5163,
  "ঙ্গ</w>": 5164,
  "গীয়</w>": 5165,
  "গণিত": 5166,
  "গবে": 5167,
  "গণ</w>": 5168,
  "খ্রিষ্টীয়</w>": 5169,
  "খ্রিষ্টপূর্বাব্দ": 5170,
  "খাতের</w>": 5171,
  "খাত</w>": 5172,
  "খনো</w>": 5173,
  "খ্রি": 5174,
  "খে</w>": 5175,
  "খালি</w>": 5176,
  "খণ্ড</w>": 5177,
  "ক্ষার</w>": 5178,
  "ক্রান্": 5179,
  "ক্তি": 5180,
  "কেন্দ্রের</w>": 5181,
  "কের": 5182,
  "কূল</w>": 5183,
  "কার্য": 5184,
  "কারণে</w>": 5185,
  "কাশ্": 5186,
  "কাশ</w>": 5187,
  "কালীন</w>": 5188,
  "কাবা": 5189,
  "কলকা": 5190,
  "কর্মসূ": 5191,
  "করণ</w>": 5192,
  "কম্পিউ": 5193,
  "কলা": 5194,
  "কক্ষ": 5195,
  "ক।</w>": 5196,
  "ঐতিহ্য</w>": 5197,
  "ঐতিহ্য": 5198,
  "এসএল": 5199,
  "একই</w>": 5200,
  "এদেশের</w>": 5201,
  "এগুলি</w>": 5202,
  "উৎসব": 5203,
  "উৎপাদ": 5204,
  "উৎপ": 5205,
  "উল্লেখ</w>": 5206,
  "উপমহাদেশের</w>": 5207,
  "উপনি": 5208,
  "উপকূল</w>": 5209,
  "উদ্ধৃতিতে</w>": 5210,
  "উন্নয়": 5211,
  "উন্": 5212,
  "ইন্ডিয়া": 5213,
  "ইন্দি": 5214,
  "ইউরোপীয়</w>": 5215,
  "ইউনিভার্সি": 5216,
  "ইউরেশীয়</w>": 5217,
  "ইউনিয়": 5218,
  "ইস্ট</w>": 5219,
  "আর্কাইভকৃত,</w>": 5220,
  "আরব</w>": 5221,
  "আরও</w>": 5222,
  "আন্দোলনের</w>": 5223,
  "আন্দামান</w>": 5224,
  "আদালতের</w>": 5225,
  "আমদ": 5226,
  "আবাস": 5227,
  "আধা": 5228,
  "আদি": 5229,
  "আগে": 5230,
  "অ্যাড": 5231,
  "অবস্থা": 5232,
  "অবদান</w>": 5233,
  "অনুযায়ী</w>": 5234,
  "অধিকার": 5235,
  "অত্যন্ত</w>": 5236,
  "অঞ্চলে": 5237,
  "অক্টোবর</w>": 5238,
  "অস্": 5239,
  "অধিষ্ঠিত</w>": 5240,
  "অতি": 5241,
  "অগ্র": 5242,
  "४०</w>": 5243,
  "२०१४</w>": 5244,
  "२००४</w>": 5245,
  "१९९१</w>": 5246,
  "१९८४</w>": 5247,
  "्रित</w>": 5248,
  "्यादा</w>": 5249,
  "्या</w>": 5250,
  "्यपि</w>": 5251,
  "ोंने</w>": 5252,
  "ेशन</w>": 5253,
  "े।</w>": 5254,
  "ेक्षा</w>": 5255,
  "ूबर</w>": 5256,
  "ूह</w>": 5257,
  "ुप</w>": 5258,
  "ीति</w>": 5259,
  "ियान</w>": 5260,
  "ियाई</w>": 5261,
  "ियस</w>": 5262,
  "िक,</w>": 5263,
  "ाष्ट": 5264,
  "ालय</w>": 5265,
  "ारख": 5266,
  "ाटी</w>": 5267,
  "ाचल</w>": 5268,
  "होने</w>": 5269,
  "हैं:</w>": 5270,
  "हुआ,</w>": 5271,
  "हिस्सा</w>": 5272,
  "हिं": 5273,
  "हार</w>": 5274,
  "हरा</w>": 5275,
  "हत्या</w>": 5276,
  "हती</w>": 5277,
  "हारी</w>": 5278,
  "हरू</w>": 5279,
  "हरा": 5280,
  "हन</w>": 5281,
  "स्थिति</w>": 5282,
  "स्थानीय</w>": 5283,
  "स्थापि": 5284,
  "स्थापित</w>": 5285,
  "स्टा": 5286,
  "स्टाफ</w>": 5287,
  "स्ट</w>": 5288,
  "सेवाओं</w>": 5289,
  "सेनाओं</w>": 5290,
  "सेवा</w>": 5291,
  "सूचना</w>": 5292,
  "सीमा</w>": 5293,
  "सिनेमा</w>": 5294,
  "सिंधु</w>": 5295,
  "सित": 5296,
  "साम्राज्यों</w>": 5297,
  "साथ,</w>": 5298,
  "साहि": 5299,
  "सामान": 5300,
  "साक्ष": 5301,
  "साक्षरता</w>": 5302,
  "साई</w>": 5303,
  "सशस्त्र</w>": 5304,
  "सरकारों</w>": 5305,
  "सरे</w>": 5306,
  "सम्प्र": 5307,
  "सम्पूर्ण</w>": 5308,
  "समृद्ध</w>": 5309,
  "समूह</w>": 5310,
  "समझ": 5311,
  "सभी</w>": 5312,
  "सदी</w>": 5313,
  "सतपु": 5314,
  "सतपुड़ा</w>": 5315,
  "सकते</w>": 5316,
  "सकता</w>": 5317,
  "संसदी": 5318,
  "संसदीय</w>": 5319,
  "सौह": 5320,
  "सारी</w>": 5321,
  "सार": 5322,
  "सहि": 5323,
  "सशील</w>": 5324,
  "सन्": 5325,
  "षण,</w>": 5326,
  "श्रेण": 5327,
  "शेष": 5328,
  "शिक्षा</w>": 5329,
  "शास्त्र": 5330,
  "शाल</w>": 5331,
  "शामिल</w>": 5332,
  "शैली</w>": 5333,
  "शिया</w>": 5334,
  "व्याप": 5335,
  "वैदि": 5336,
  "वैदिक</w>": 5337,
  "वृद्धि</w>": 5338,
  "विश्व": 5339,
  "विरोध</w>": 5340,
  "विकासशील</w>": 5341,
  "विशाल</w>": 5342,
  "विद्र": 5343,
  "वित</w>": 5344,
  "विज्": 5345,
  "वास्तविक</w>": 5346,
  "वास</w>": 5347,
  "वर्षा</w>": 5348,
  "वर्णि": 5349,
  "वर्ण": 5350,
  "वर्णन</w>": 5351,
  "वर्गी": 5352,
  "वपूर्ण</w>": 5353,
  "वत</w>": 5354,
  "लोकतांत्रिक</w>": 5355,
  "लीय</w>": 5356,
  "लिस</w>": 5357,
  "लाल</w>": 5358,
  "लाया।</w>": 5359,
  "लाख</w>": 5360,
  "लाख": 5361,
  "लदी": 5362,
  "लगा": 5363,
  "लगाता": 5364,
  "लगातार</w>": 5365,
  "र्त": 5366,
  "र्च": 5367,
  "रे-": 5368,
  "रे-धीरे</w>": 5369,
  "राज्यसभा</w>": 5370,
  "राजनीति</w>": 5371,
  "राजस्थान</w>": 5372,
  "राजवंश</w>": 5373,
  "राजभाषा</w>": 5374,
  "राजा": 5375,
  "रही</w>": 5376,
  "रखा</w>": 5377,
  "रिय": 5378,
  "रत्": 5379,
  "योग": 5380,
  "या,</w>": 5381,
  "यद्यपि</w>": 5382,
  "ये</w>": 5383,
  "यर</w>": 5384,
  "यन</w>": 5385,
  "मोहन</w>": 5386,
  "मोर्च": 5387,
  "मोदी</w>": 5388,
  "मूल्य</w>": 5389,
  "मूल</w>": 5390,
  "मील</w>": 5391,
  "मीण": 5392,
  "मिलियन": 5393,
  "मिक</w>": 5394,
  "मानव</w>": 5395,
  "मालदी": 5396,
  "मामल": 5397,
  "मांड": 5398,
  "महासागर</w>": 5399,
  "मनमोहन</w>": 5400,
  "म्य": 5401,
  "मार्": 5402,
  "मही": 5403,
  "मना": 5404,
  "मक</w>": 5405,
  "भूमि": 5406,
  "भिक</w>": 5407,
  "भाषाएं</w>": 5408,
  "भारतीयों</w>": 5409,
  "भागीद": 5410,
  "भागीदारी</w>": 5411,
  "बैठक</w>": 5412,
  "बहुमूल्य</w>": 5413,
  "बने।</w>": 5414,
  "बनने</w>": 5415,
  "बदल</w>": 5416,
  "बढ़ने</w>": 5417,
  "बडी</w>": 5418,
  "बी</w>": 5419,
  "प्रारम्भिक</w>": 5420,
  "प्राची": 5421,
  "प्राचीनत": 5422,
  "प्राचीनतम</w>": 5423,
  "प्रभावशाली</w>": 5424,
  "प्रभाव</w>": 5425,
  "प्रशासन</w>": 5426,
  "प्रदेशों</w>": 5427,
  "प्रति</w>": 5428,
  "प्रच": 5429,
  "प्रचलित</w>": 5430,
  "प्ति</w>": 5431,
  "पैमान": 5432,
  "पुर्तगाली</w>": 5433,
  "पुरुषों</w>": 5434,
  "पुलिस</w>": 5435,
  "पुन": 5436,
  "पार्टियों</w>": 5437,
  "पाल</w>": 5438,
  "पहुँच": 5439,
  "पहाड़ी</w>": 5440,
  "पहाड़": 5441,
  "पहली</w>": 5442,
  "परिणामस्वरूप</w>": 5443,
  "परेशन</w>": 5444,
  "पत्ति</w>": 5445,
  "पत्य</w>": 5446,
  "पंथी</w>": 5447,
  "पठा": 5448,
  "पठार</w>": 5449,
  "न्होंने</w>": 5450,
  "न्याय": 5451,
  "न्त्र": 5452,
  "नौसेना</w>": 5453,
  "नेहरू</w>": 5454,
  "नेट</w>": 5455,
  "निरपेक्ष</w>": 5456,
  "नियु": 5457,
  "नियंत्र": 5458,
  "निभाई।</w>": 5459,
  "निवास</w>": 5460,
  "नागा</w>": 5461,
  "नाड": 5462,
  "नाट": 5463,
  "नागर": 5464,
  "नदियों</w>": 5465,
  "नका</w>": 5466,
  "नृत": 5467,
  "नम</w>": 5468,
  "न,</w>": 5469,
  "धीरे-धीरे</w>": 5470,
  "धर्मों</w>": 5471,
  "धर्म,</w>": 5472,
  "धर्म": 5473,
  "दर्शन</w>": 5474,
  "दा</w>": 5475,
  "द,</w>": 5476,
  "थी,</w>": 5477,
  "थान</w>": 5478,
  "त्रि": 5479,
  "त्र,</w>": 5480,
  "तुलना</w>": 5481,
  "तीसरी</w>": 5482,
  "तीस</w>": 5483,
  "तिम</w>": 5484,
  "ता,</w>": 5485,
  "तनाव</w>": 5486,
  "ततः</w>": 5487,
  "तरा": 5488,
  "तब</w>": 5489,
  "णी</w>": 5490,
  "टल</w>": 5491,
  "झारख": 5492,
  "जैन</w>": 5493,
  "जीत</w>": 5494,
  "जिसकी</w>": 5495,
  "जिसने</w>": 5496,
  "जाने</w>": 5497,
  "जवा": 5498,
  "जब</w>": 5499,
  "जन्": 5500,
  "छोड़कर</w>": 5501,
  "छह</w>": 5502,
  "चुकी</w>": 5503,
  "चित</w>": 5504,
  "चाई</w>": 5505,
  "घोषित</w>": 5506,
  "घाटी</w>": 5507,
  "गैर-": 5508,
  "गुजरात</w>": 5509,
  "गतिशील</w>": 5510,
  "गों": 5511,
  "गया,</w>": 5512,
  "गढ़</w>": 5513,
  "खान": 5514,
  "खर</w>": 5515,
  "क्षेत्रों</w>": 5516,
  "क्षेप</w>": 5517,
  "क्टूबर</w>": 5518,
  "केन्द्रशासित</w>": 5519,
  "केन्द्र</w>": 5520,
  "कामका": 5521,
  "कामकाज</w>": 5522,
  "करोड़": 5523,
  "करे": 5524,
  "कंपन": 5525,
  "क्रि": 5526,
  "कमांड": 5527,
  "कप</w>": 5528,
  "कटिबंधीय</w>": 5529,
  "ऑफ</w>": 5530,
  "ऑपरेशन</w>": 5531,
  "एशन</w>": 5532,
  "ऊँचाई</w>": 5533,
  "ऊपर</w>": 5534,
  "उनका</w>": 5535,
  "उत्पाद</w>": 5536,
  "उत्तर-प": 5537,
  "उत्तर-पश्चि": 5538,
  "उष्ण</w>": 5539,
  "इंडो": 5540,
  "आसपास</w>": 5541,
  "आते</w>": 5542,
  "आगे</w>": 5543,
  "आकर्मण</w>": 5544,
  "आंदोलन</w>": 5545,
  "आधार</w>": 5546,
  "आज</w>": 5547,
  "आई</w>": 5548,
  "आंत": 5549,
  "आंतरिक</w>": 5550,
  "अवशेष</w>": 5551,
  "अवधि</w>": 5552,
  "अमेरिका</w>": 5553,
  "अभियान</w>": 5554,
  "अन्तर्": 5555,
  "अन्तर": 5556,
  "अन्ततः</w>": 5557,
  "अन्त</w>": 5558,
  "अति</w>": 5559,
  "अलावा</w>": 5560,
  "अनि": 5561,
  "अच्छ": 5562,
  "अक्टूबर</w>": 5563,
  "ंजन</w>": 5564,
  "ं।</w>": 5565,
  "ँच</w>": 5566,
  "|mon": 5567,
  "|month": 5568,
  "|month=</w>": 5569,
  "|last": 5570,
  "|last2": 5571,
  "|last2=</w>": 5572,
  "|fir": 5573,
  "|first": 5574,
  "|first1": 5575,
  "|first1=</w>": 5576,
  "umbai": 5577,
  "umbai:</w>": 5578,
  "s),</w>": 5579,
  "ountry</w>": 5580,
  "on:</w>": 5581,
  "omb": 5582,
  "ombay</w>": 5583,
  "olum": 5584,
  "iii,</w>": 5585,
  "esh</w>": 5586,
  "colour</w>": 5587,
  "book</w>": 5588,
  "Wild": 5589,
  "SBN</w>": 5590,
  "S.</w>": 5591,
  "R.</w>": 5592,
  "Press</w>": 5593,
  "Natural</w>": 5594,
  "Mumbai:</w>": 5595,
  "Mill": 5596,
  "Mac": 5597,
  "London:</w>": 5598,
  "John</w>": 5599,
  "J.</w>": 5600,
  "ISBN</w>": 5601,
  "Change</w>": 5602,
  "Country</w>": 5603,
  "Cambridge</w>": 5604,
  "Book": 5605,
  "Bra": 5606,
  "Bombay</w>": 5607,
  "Archived</w>": 5608,
  "Antholog": 5609,
  "30</w>": 5610,
  "2003</w>": 5611,
  "2000,</w>": 5612,
  "27": 5613,
  "1999</w>": 5614,
  "1990</w>": 5615,
  "1962</w>": 5616,
  "1960</w>": 5617,
  "1951</w>": 5618,
  "19</w>": 5619,
  "192,</w>": 5620,
  "12</w>": 5621,
  ".৬%</w>": 5622,
  "-ধাঁচ": 5623,
  "(২০০১),</w>": 5624,
  "(২০০৬": 5625,
  "(২০০৪": 5626,
  "(১৯৯৯),</w>": 5627,
  "(వెనుకటి</w>": 5628,
  "(হিন্দি": 5629,
  "(এন": 5630,
  "(०,": 5631,
  "(W": 5632,
  "%)।</w>": 5633,
  "‌ఫ": 5634,
  "ొమ": 5635,
  "ేధ": 5636,
  "ృహ": 5637,
  "ృ</w>": 5638,
  "ూ—": 5639,
  "హొ": 5640,
  "సొ": 5641,
  "వూ": 5642,
  "వజ": 5643,
  "ళవ": 5644,
  "లభ": 5645,
  "లఘ": 5646,
  "రొ": 5647,
  "రబ": 5648,
  "యూ": 5649,
  "యథ": 5650,
  "మో": 5651,
  "భజ": 5652,
  "పౌ": 5653,
  "ప-": 5654,
  "నబ": 5655,
  "దృ": 5656,
  "దస": 5657,
  "దశ": 5658,
  "దప": 5659,
  "తగ": 5660,
  "డబ": 5661,
  "ఞా": 5662,
  "జౌ": 5663,
  "చ.": 5664,
  "ఔట": 5665,
  "ఓడ": 5666,
  "ఏట": 5667,
  "ఏ.": 5668,
  "ఎమ": 5669,
  "ఇయ": 5670,
  "ఆయ": 5671,
  "ఆట": 5672,
  "ఆ</w>": 5673,
  "ః</w>": 5674,
  "ంథ": 5675,
  "৬°": 5676,
  "১–": 5677,
  "ৌহ": 5678,
  "ৌশ": 5679,
  "ৌ</w>": 5680,
  "হট": 5681,
  "সৈ": 5682,
  "সও": 5683,
  "ষো": 5684,
  "ষল": 5685,
  "ষচ": 5686,
  "শর": 5687,
  "রঙ": 5688,
  "রং": 5689,
  "যৌ": 5690,
  "যখ": 5691,
  "ব-": 5692,
  "ফৌ": 5693,
  "ফ</w>": 5694,
  "পঁ": 5695,
  "দৃ": 5696,
  "দণ": 5697,
  "দখ": 5698,
  "দং": 5699,
  "থপ": 5700,
  "তৎ": 5701,
  "তহ": 5702,
  "তখ": 5703,
  "ডু": 5704,
  "ঠো": 5705,
  "ট)": 5706,
  "চো": 5707,
  "খ—": 5708,
  "ওষ": 5709,
  "ওন": 5710,
  "ওণ": 5711,
  "ঐক": 5712,
  "ঋত": 5713,
  "ঊন": 5714,
  "উই": 5715,
  "ইর": 5716,
  "ই-": 5717,
  "আহ": 5718,
  "আও": 5719,
  "অ-": 5720,
  "οί": 5721,
  "ān": 5722,
  "°৭": 5723,
  "eè": 5724,
  "e´": 5725,
  "^</w>": 5726,
  "Z</w>": 5727,
  "Yv": 5728,
  "X</w>": 5729,
  "N)": 5730,
  "M</w>": 5731,
  "L</w>": 5732,
  "Gl": 5733,
  "G</w>": 5734,
  "D</w>": 5735,
  "C.": 5736,
  "B/": 5737,
  "AP": 5738,
  "?</w>": 5739,
  "8-": 5740,
  ".మ": 5741,
  "-ఇ": 5742,
  ")-": 5743,
  "(శ": 5744,
  "(ట": 5745,
  "(గ": 5746,
  "(ఉ": 5747,
  "(ఇ": 5748,
  "(ఆ": 5749,
  "(ভ": 5750,
  "(উ": 5751,
  "(ই": 5752,
  "(আ": 5753,
  "†</w>": 5754,
  "“R": 5755,
  "‘द": 5756,
  "—এই</w>": 5757,
  "‍व</w>": 5758,
  "‍प": 5759,
  "‌కాత": 5760,
  "‌కాతా</w>": 5761,
  "‌లో</w>": 5762,
  "్వత్ర": 5763,
  "్వత్రిక</w>": 5764,
  "్లమె": 5765,
  "్లమెంట": 5766,
  "్రాబ్": 5767,
  "్రాన్": 5768,
  "్రో": 5769,
  "్రి": 5770,
  "్యా": 5771,
  "్యం,</w>": 5772,
  "్మూ</w>": 5773,
  "ోరల్</w>": 5774,
  "ే.</w>": 5775,
  "ెల్ల": 5776,
  "ెలకొ": 5777,
  "ూడండ": 5778,
  "ులతో</w>": 5779,
  "ుత్</w>": 5780,
  "ుతు": 5781,
  "ుతున్న</w>": 5782,
  "ుత</w>": 5783,
  "ు.</w>": 5784,
  "ీషు</w>": 5785,
  "ీ.పూ": 5786,
  "ీ.పూ.": 5787,
  "ీం</w>": 5788,
  "ీ.</w>": 5789,
  "ివర్": 5790,
  "ిల్లీ-లా": 5791,
  "ిల్లీ-లాహో": 5792,
  "ిల్</w>": 5793,
  "ినీ</w>": 5794,
  "ిక్‌</w>": 5795,
  "ిక్క": 5796,
  "ికలు</w>": 5797,
  "ికంగా</w>": 5798,
  "ించినట": 5799,
  "ించినట్లు</w>": 5800,
  "ించిన": 5801,
  "ించాలనే</w>": 5802,
  "ించి</w>": 5803,
  "ింప": 5804,
  "ించుకో": 5805,
  "ాలు:</w>": 5806,
  "ాల్</w>": 5807,
  "ాయుత</w>": 5808,
  "ాయు</w>": 5809,
  "ాయి": 5810,
  "ాయాలు</w>": 5811,
  "ాన్య</w>": 5812,
  "ాను</w>": 5813,
  "ానీ</w>": 5814,
  "ాతం</w>": 5815,
  "ాక</w>": 5816,
  "హైద": 5817,
  "హైదరా": 5818,
  "హిమాలయ</w>": 5819,
  "హిందూదేశం</w>": 5820,
  "హిళ": 5821,
  "హార</w>": 5822,
  "స్వాతంత్ర్యం</w>": 5823,
  "స్వాతంత్ర్య</w>": 5824,
  "స్థానాలను</w>": 5825,
  "స్థానం</w>": 5826,
  "స్థావరాలు</w>": 5827,
  "స్థితి</w>": 5828,
  "స్త్రీలు</w>": 5829,
  "స్తాన్": 5830,
  "స్తారు</w>": 5831,
  "స్తాయి.</w>": 5832,
  "స్ట్</w>": 5833,
  "స్వీ": 5834,
  "స్లి": 5835,
  "స్లిం</w>": 5836,
  "స్కరణ": 5837,
  "సౌకర్యాలు</w>": 5838,
  "సౌకర్యాలలో</w>": 5839,
  "సైనిక</w>": 5840,
  "సూచ": 5841,
  "సూచించినట్లు</w>": 5842,
  "సుప్ర": 5843,
  "సుప్రీం</w>": 5844,
  "సియాలో</w>": 5845,
  "సినిమాలు</w>": 5846,
  "సింధూ": 5847,
  "సింధూనద": 5848,
  "సింధు": 5849,
  "సిద్ధి</w>": 5850,
  "సార్వత్రిక</w>": 5851,
  "సామర్": 5852,
  "సామర్థ": 5853,
  "సామర్థ్యం</w>": 5854,
  "సాధించిన</w>": 5855,
  "సాధించ": 5856,
  "సాంప్రదాయిక</w>": 5857,
  "సాంకే": 5858,
  "సాంకేత": 5859,
  "సాంకేతిక</w>": 5860,
  "సాహ": 5861,
  "సామా": 5862,
  "సామాజ": 5863,
  "సామాజిక,</w>": 5864,
  "సహస": 5865,
  "సహస్రాబ్": 5866,
  "సరిహద్దుగా</w>": 5867,
  "సముద్రతీ": 5868,
  "సముద్రం,</w>": 5869,
  "సమాఖ్య.</w>": 5870,
  "సభ్యులు</w>": 5871,
  "సభను</w>": 5872,
  "సంస్కరణ": 5873,
  "సంఖ్య</w>": 5874,
  "సిక్క": 5875,
  "సి</w>": 5876,
  "సన</w>": 5877,
  "ష్ణ</w>": 5878,
  "షయాలు</w>": 5879,
  "శెలవు": 5880,
  "శెలవుదినాలు</w>": 5881,
  "శాసన</w>": 5882,
  "శాఖ": 5883,
  "శ్వ": 5884,
  "శైల": 5885,
  "శక్": 5886,
  "శకు": 5887,
  "వ్యాపార": 5888,
  "వైవిధ్య": 5889,
  "వేల</w>": 5890,
  "వేద": 5891,
  "వే.</w>": 5892,
  "వులు,</w>": 5893,
  "వుతుంది.</w>": 5894,
  "విస్తీ": 5895,
  "విస్తీర్": 5896,
  "విద్యుత్</w>": 5897,
  "విషయాలు</w>": 5898,
  "విలు": 5899,
  "విదేశ": 5900,
  "విదేశీ</w>": 5901,
  "విత్ర": 5902,
  "వారసత్వ": 5903,
  "వాణిజ్య</w>": 5904,
  "వాహ": 5905,
  "వాన్ని</w>": 5906,
  "వాదం</w>": 5907,
  "వలస</w>": 5908,
  "వలన</w>": 5909,
  "వర్గ": 5910,
  "వరీ</w>": 5911,
  "వనాలు</w>": 5912,
  "వచ్చిన</w>": 5913,
  "వెల్ల": 5914,
  "వి</w>": 5915,
  "వాయు</w>": 5916,
  "ళ్ళ": 5917,
  "ళి,</w>": 5918,
  "ళిక</w>": 5919,
  "లోయ</w>": 5920,
  "లోమీ": 5921,
  "లోమీటర్": 5922,
  "లోమీటర్లకు</w>": 5923,
  "లోనే</w>": 5924,
  "లోక్‌": 5925,
  "లోక్</w>": 5926,
  "లుచుకో": 5927,
  "లుచుకోవడం</w>": 5928,
  "లుగా</w>": 5929,
  "లు:</w>": 5930,
  "లంప": 5931,
  "లంక": 5932,
  "లౌక": 5933,
  "లతో,</w>": 5934,
  "ర్యాయాలు</w>": 5935,
  "ర్‌": 5936,
  "ర్షణ": 5937,
  "ర్వాత": 5938,
  "ర్య</w>": 5939,
  "ర్జాతీయ</w>": 5940,
  "రోపా</w>": 5941,
  "రైల్వే": 5942,
  "రెండు": 5943,
  "రెండవ</w>": 5944,
  "రూపా": 5945,
  "రూపాంత": 5946,
  "రుగు": 5947,
  "రుగుబా": 5948,
  "రుగుబాటు</w>": 5949,
  "రి.</w>": 5950,
  "రాష్ట్రాలు</w>": 5951,
  "రాష్ట్రాలు,</w>": 5952,
  "రాష్ట్రప": 5953,
  "రాష్ట్ర</w>": 5954,
  "రాజ్యాంగం</w>": 5955,
  "రాజ్యాలుగా</w>": 5956,
  "రాజ్యాలు</w>": 5957,
  "రాజ్యంగా</w>": 5958,
  "రాజ్య</w>": 5959,
  "రాజు</w>": 5960,
  "రాజక": 5961,
  "రాజకీయ": 5962,
  "రహదార": 5963,
  "రచయి": 5964,
  "రచయిత": 5965,
  "రిక": 5966,
  "యోజన": 5967,
  "యోగి": 5968,
  "యింది.</w>": 5969,
  "యాళం": 5970,
  "యమించబ": 5971,
  "యుగ": 5972,
  "యాత్ర": 5973,
  "మౌర్య</w>": 5974,
  "మొదలగు": 5975,
  "మొద": 5976,
  "మొదటి": 5977,
  "మై</w>": 5978,
  "మేనన": 5979,
  "మేనని</w>": 5980,
  "మే.</w>": 5981,
  "మెరిక": 5982,
  "ముఖ్యంగా</w>": 5983,
  "ముంబై</w>": 5984,
  "ముస్లిం</w>": 5985,
  "ముడి</w>": 5986,
  "ము,</w>": 5987,
  "మీదగా</w>": 5988,
  "మిస్తు": 5989,
  "మాత్రమే</w>": 5990,
  "మాన</w>": 5991,
  "మాట్ల": 5992,
  "మాట్లాడ": 5993,
  "మహాత్మ": 5994,
  "మహాత్మా</w>": 5995,
  "మలయాళం": 5996,
  "మరో</w>": 5997,
  "మనదేశం</w>": 5998,
  "మతి</w>": 5999,
  "మిత": 6000,
  "మారు": 6001,
  "మహిళ": 6002,
  "భౌగో": 6003,
  "భౌగోళిక</w>": 6004,
  "భూభాగం</w>": 6005,
  "భూటా": 6006,
  "భాషా</w>": 6007,
  "భాషలను</w>": 6008,
  "భారత్‌లో</w>": 6009,
  "భారత్,</w>": 6010,
  "భారతీయ": 6011,
  "భారతదేశం.</w>": 6012,
  "భారతదేశ": 6013,
  "భారతం,</w>": 6014,
  "భాగా": 6015,
  "భాగాన్ని</w>": 6016,
  "భాగం": 6017,
  "భక్": 6018,
  "బ్రిటిష్</w>": 6019,
  "బ్రిటిషు</w>": 6020,
  "బ్రిటీ": 6021,
  "బ్రిటీష": 6022,
  "బౌద్ధ": 6023,
  "బెంగాలీ</w>": 6024,
  "బాదు</w>": 6025,
  "బడతారు.</w>": 6026,
  "బంగ్లాదేశ": 6027,
  "బంగ్లాదేశ్‌": 6028,
  "బంగారు</w>": 6029,
  "ప్రాంతీయ</w>": 6030,
  "ప్రాంతాల్లో</w>": 6031,
  "ప్రస్తుతమ": 6032,
  "ప్రస్తుతము</w>": 6033,
  "ప్రముఖమ": 6034,
  "ప్రముఖమైన": 6035,
  "ప్రభుత్వాన్ని</w>": 6036,
  "ప్రభుత్వ</w>": 6037,
  "ప్రపంచంలోని</w>": 6038,
  "ప్రపంచములో</w>": 6039,
  "ప్రపంచంలో</w>": 6040,
  "ప్రతిపాదనకు</w>": 6041,
  "ప్రతిపక్ష": 6042,
  "ప్రజాస్వామ్య</w>": 6043,
  "ప్రజాదర": 6044,
  "ప్రజాదరణ</w>": 6045,
  "ప్రజలు</w>": 6046,
  "ప్రిల్</w>": 6047,
  "ప్రాయ": 6048,
  "ప్రసిద్ధి</w>": 6049,
  "ప్రయోజన": 6050,
  "ప్రదేశ": 6051,
  "ప్రత్య": 6052,
  "ప్రజల</w>": 6053,
  "ప్పటికినీ</w>": 6054,
  "ప్పు": 6055,
  "ప్పుకో": 6056,
  "ప్ప": 6057,
  "పోయింది.</w>": 6058,
  "పొందిన</w>": 6059,
  "పేరు,</w>": 6060,
  "పూర్వ": 6061,
  "పూర్తిగా</w>": 6062,
  "పూ.</w>": 6063,
  "పుట్టి": 6064,
  "పుతూ</w>": 6065,
  "పుణ": 6066,
  "పుణులు</w>": 6067,
  "పీఠభూ": 6068,
  "పాలించారు.</w>": 6069,
  "పాలన": 6070,
  "పార్టీ,</w>": 6071,
  "పార్టీ": 6072,
  "పార్లమెంట": 6073,
  "పాకిస్థాన్,</w>": 6074,
  "పాకిస్తాన్</w>": 6075,
  "పావ": 6076,
  "పాడు": 6077,
  "పాడుకుంట": 6078,
  "పాండ": 6079,
  "పశ్చిమ</w>": 6080,
  "పల్ల": 6081,
  "పలు</w>": 6082,
  "పరిపాలన</w>": 6083,
  "పరీ": 6084,
  "పద్ధతి": 6085,
  "పట్టణాలు,</w>": 6086,
  "పండుగలు</w>": 6087,
  "పండు</w>": 6088,
  "ప్ల": 6089,
  "పై</w>": 6090,
  "పవిత్ర": 6091,
  "పర్యాయాలు</w>": 6092,
  "పద్": 6093,
  "పద్ధత": 6094,
  "పతా": 6095,
  "పడు": 6096,
  "పడిన</w>": 6097,
  "పక్క": 6098,
  "పక్కన</w>": 6099,
  "న్నై</w>": 6100,
  "న్నీ</w>": 6101,
  "నేపాల్,</w>": 6102,
  "నేరే": 6103,
  "నెహ": 6104,
  "నులు,</w>": 6105,
  "నిర్వహించింది.</w>": 6106,
  "నిర్వహణ</w>": 6107,
  "నిస్తాన్</w>": 6108,
  "నియమించబ": 6109,
  "నిపుణులు</w>": 6110,
  "నిడి": 6111,
  "నిడివి": 6112,
  "నిజాలు</w>": 6113,
  "నాయకత్": 6114,
  "నాగరికత": 6115,
  "నాథ": 6116,
  "నడిపించట": 6117,
  "నగరాలు</w>": 6118,
  "నగరాల": 6119,
  "నెలకొ": 6120,
  "నీ</w>": 6121,
  "నప్పటికినీ</w>": 6122,
  "ధి</w>": 6123,
  "దేశం.</w>": 6124,
  "దేశాలను</w>": 6125,
  "దేశా": 6126,
  "దేశ</w>": 6127,
  "దాయంలో</w>": 6128,
  "దాదాపు</w>": 6129,
  "దరంగ": 6130,
  "దక్షిణ": 6131,
  "దుగా</w>": 6132,
  "దండ": 6133,
  "తెలుగు,</w>": 6134,
  "తూర్": 6135,
  "తులు": 6136,
  "తిరుగుబాటు</w>": 6137,
  "తిని</w>": 6138,
  "తను</w>": 6139,
  "తా</w>": 6140,
  "తర్వాత": 6141,
  "తంత్ర</w>": 6142,
  "తంగా</w>": 6143,
  "ఢిల్లీ</w>": 6144,
  "ఢాకా": 6145,
  "ఢాకా-ఢ": 6146,
  "ఢాకా-ఢిల్లీ-లాహో": 6147,
  "డ్డీ": 6148,
  "డైన</w>": 6149,
  "డుకు</w>": 6150,
  "డిస్": 6151,
  "డాయి.</w>": 6152,
  "టైటి": 6153,
  "టోరల్</w>": 6154,
  "టిక": 6155,
  "టక</w>": 6156,
  "టం</w>": 6157,
  "జాతులు,</w>": 6158,
  "జరుపుకుంటారు.</w>": 6159,
  "జరిగే</w>": 6160,
  "జమ్మూ</w>": 6161,
  "జనాభాతో</w>": 6162,
  "జనగణన</w>": 6163,
  "జనవరి</w>": 6164,
  "జనతా</w>": 6165,
  "జైన": 6166,
  "చ్చు.</w>": 6167,
  "చైనాను</w>": 6168,
  "చైనా,</w>": 6169,
  "చేసింది.</w>": 6170,
  "చెందుతున్న</w>": 6171,
  "చెందాయి.</w>": 6172,
  "చెప్పుకో": 6173,
  "చెన్నై</w>": 6174,
  "చుకు": 6175,
  "చారిత్రక</w>": 6176,
  "చని</w>": 6177,
  "చూడండ": 6178,
  "చవి": 6179,
  "చదరంగ": 6180,
  "గోదా": 6181,
  "గెలుచుకోవడం</w>": 6182,
  "గుర్తిం": 6183,
  "గువ</w>": 6184,
  "గణతంత్ర</w>": 6185,
  "గ్రా": 6186,
  "గ్ర": 6187,
  "గలు": 6188,
  "గమన": 6189,
  "గత</w>": 6190,
  "గంగ": 6191,
  "ఖనిజాలు</w>": 6192,
  "క్రీడా</w>": 6193,
  "క్రీడలలో</w>": 6194,
  "క్రీ.పూ.": 6195,
  "క్యాలెండర్": 6196,
  "క్టోరల్</w>": 6197,
  "క్,</w>": 6198,
  "కోల్‌కాతా</w>": 6199,
  "కోర్టులు</w>": 6200,
  "కోర్టు": 6201,
  "కోట్లకు</w>": 6202,
  "కోబడతారు.</w>": 6203,
  "కృష్": 6204,
  "కూడుకుని</w>": 6205,
  "కూడుకొ": 6206,
  "కూడి</w>": 6207,
  "కుటుంబ</w>": 6208,
  "కు,</w>": 6209,
  "కిందకు</w>": 6210,
  "కిలోమీటర్లకు</w>": 6211,
  "కాలేజ": 6212,
  "కాలంలో,</w>": 6213,
  "కార్యక్రమాలు</w>": 6214,
  "కారణంగా</w>": 6215,
  "కాంగ్రెస్</w>": 6216,
  "కాహార</w>": 6217,
  "కాపాడుకుంట": 6218,
  "కాగా</w>": 6219,
  "కలిసి</w>": 6220,
  "కలిగి": 6221,
  "కబడ్డీ": 6222,
  "కనుక</w>": 6223,
  "కంపెనీ</w>": 6224,
  "కూ</w>": 6225,
  "కల్ప": 6226,
  "కల్": 6227,
  "కంటే</w>": 6228,
  "ఒకటిగా</w>": 6229,
  "ఒకటి</w>": 6230,
  "ఒలంప": 6231,
  "ఒకే": 6232,
  "ఐరోపా</w>": 6233,
  "ఏర్పడ్డాయి.</w>": 6234,
  "ఏప్రిల్</w>": 6235,
  "ఎలక్టోరల్</w>": 6236,
  "ఎన్నుకోబడతారు.</w>": 6237,
  "ఎన్నికల్లో</w>": 6238,
  "ఎక్కువ</w>": 6239,
  "ఉపయోగి": 6240,
  "ఉత్తరాన</w>": 6241,
  "ఈశాన్య</w>": 6242,
  "ఈస్ట్</w>": 6243,
  "ఇవిక": 6244,
  "ఇంగ్లీషు</w>": 6245,
  "ఇటీ": 6246,
  "ఇక్క": 6247,
  "ఇంద": 6248,
  "ఆధారపడిన</w>": 6249,
  "అయినా,</w>": 6250,
  "అధికారం</w>": 6251,
  "అధికార</w>": 6252,
  "అతిపెద్ద</w>": 6253,
  "అవి": 6254,
  "అమెరిక": 6255,
  "అక్షరాస్యత</w>": 6256,
  "అంద": 6257,
  "అంత": 6258,
  "అంతర్జాతీయ</w>": 6259,
  "అంట": 6260,
  "ంద్</w>": 6261,
  "ండా</w>": 6262,
  "ంటు": 6263,
  "ం:</w>": 6264,
  "৯৯</w>": 6265,
  "৯৮),</w>": 6266,
  "৯৭৮": 6267,
  "৯৭৮-৩": 6268,
  "৯৭৮-৩-৮": 6269,
  "৯৭),</w>": 6270,
  "৯৪)।</w>": 6271,
  "৯০)।</w>": 6272,
  "৯%)</w>": 6273,
  "৯৩-": 6274,
  "৮১৭": 6275,
  "৮১৭০১": 6276,
  "৭,৫১": 6277,
  "৭,৫১৭</w>": 6278,
  "৭১</w>": 6279,
  "৬০</w>": 6280,
  "৫৪৪": 6281,
  "৪০১": 6282,
  "৪০১৩৮": 6283,
  "৩৭০</w>": 6284,
  "৩২।</w>": 6285,
  "২৮টি</w>": 6286,
  "২১.": 6287,
  "২০০৪</w>": 6288,
  "২০০৩</w>": 6289,
  "২৬</w>": 6290,
  "২।</w>": 6291,
  "১৯৯৬</w>": 6292,
  "১৯৮০</w>": 6293,
  "১৯৭৫</w>": 6294,
  "১৯৭৪</w>": 6295,
  "১৯৭১</w>": 6296,
  "১৯৫১</w>": 6297,
  "১৯৫০-এর</w>": 6298,
  "১৯৯৯</w>": 6299,
  "১৯৬": 6300,
  "১২.৬%</w>": 6301,
  "১৮</w>": 6302,
  "১৬.": 6303,
  "০৭)।</w>": 6304,
  "০১৪০১৩৮": 6305,
  "০-১৯-৫৬৪৫": 6306,
  "০-১৯-৫৬২১৬": 6307,
  "০-১৯-২৮": 6308,
  "০-৮": 6309,
  "০-৭৬": 6310,
  "০-৫২১": 6311,
  "্সি</w>": 6312,
  "্রেণী": 6313,
  "্রেণীর</w>": 6314,
  "্রিলিয়ন</w>": 6315,
  "্রাসন</w>": 6316,
  "্রাস</w>": 6317,
  "্রান্স</w>": 6318,
  "্রিজ": 6319,
  "্রিজ</w>": 6320,
  "্রাট": 6321,
  "্রমে</w>": 6322,
  "্রপ্রদেশের</w>": 6323,
  "্যাদি</w>": 6324,
  "্যালে": 6325,
  "্যাল</w>": 6326,
  "্যায়</w>": 6327,
  "্যান</w>": 6328,
  "্যস্": 6329,
  "্যভাবে</w>": 6330,
  "্যভট": 6331,
  "্যন্": 6332,
  "্যন্তর": 6333,
  "্যন্তরীণ</w>": 6334,
  "্ট্র": 6335,
  "্টি": 6336,
  "োমি</w>": 6337,
  "োবর</w>": 6338,
  "োসিয়": 6339,
  "োসিয়েশন</w>": 6340,
  "োত্": 6341,
  "োত্তর</w>": 6342,
  "োক্ষ": 6343,
  "োক্ষভাবে</w>": 6344,
  "েস।</w>": 6345,
  "েশনের</w>": 6346,
  "েলপ": 6347,
  "েলপমে": 6348,
  "েলপমেন্ট</w>": 6349,
  "েরণ</w>": 6350,
  "েম্বর</w>": 6351,
  "েছে</w>": 6352,
  "েছিল।</w>": 6353,
  "েও</w>": 6354,
  "ৃত্য": 6355,
  "ৃত:</w>": 6356,
  "ুকে</w>": 6357,
  "ীলঙ্": 6358,
  "ীলঙ্কা": 6359,
  "ীরে</w>": 6360,
  "ীরা</w>": 6361,
  "ীত,</w>": 6362,
  "ীকৃত:</w>": 6363,
  "ীসৃ": 6364,
  "ীষ্": 6365,
  "ীদের</w>": 6366,
  "ির</w>": 6367,
  "াসোসিয়েশন</w>": 6368,
  "ার্সি</w>": 6369,
  "ার্থ": 6370,
  "ার্চ</w>": 6371,
  "ারি": 6372,
  "ারণ": 6373,
  "ারকম্পিউ": 6374,
  "ারও</w>": 6375,
  "ার।</w>": 6376,
  "ামীণ</w>": 6377,
  "ান-১": 6378,
  "াদ্য</w>": 6379,
  "াদে</w>": 6380,
  "াতা</w>": 6381,
  "াইনা": 6382,
  "হিসেব</w>": 6383,
  "হিন্দুস্ত": 6384,
  "হিন্দুধর্ম</w>": 6385,
  "হিন্দ": 6386,
  "হিন্দু</w>": 6387,
  "হিলা": 6388,
  "হিলাদের</w>": 6389,
  "হায়দ্রা": 6390,
  "হাস": 6391,
  "হাসিক</w>": 6392,
  "হাজার</w>": 6393,
  "হাইড": 6394,
  "হাইড্র": 6395,
  "হয়েছেন।</w>": 6396,
  "হযোগ": 6397,
  "হতে</w>": 6398,
  "হওয়া</w>": 6399,
  "হ্রাস</w>": 6400,
  "হেরু</w>": 6401,
  "হি</w>": 6402,
  "হারও</w>": 6403,
  "হন</w>": 6404,
  "স্বাধীনোত্তর</w>": 6405,
  "স্বা‌": 6406,
  "স্বাভা": 6407,
  "স্বাভাবিক</w>": 6408,
  "স্থাপত্য": 6409,
  "স্থানের</w>": 6410,
  "স্থান।</w>": 6411,
  "স্থায়ী</w>": 6412,
  "স্থল": 6413,
  "স্ত্রীয়</w>": 6414,
  "স্তন্যপায়ী</w>": 6415,
  "স্তানের</w>": 6416,
  "স্টিক</w>": 6417,
  "স্মাই": 6418,
  "স্মাইলি": 6419,
  "স্মাইলিং</w>": 6420,
  "স্বত": 6421,
  "স্বতন্ত্র</w>": 6422,
  "স্ব</w>": 6423,
  "স্প": 6424,
  "স্থ</w>": 6425,
  "সেপ্ট": 6426,
  "সেনা": 6427,
  "সৃষ্টি</w>": 6428,
  "সূত্র": 6429,
  "সূত্রপাত</w>": 6430,
  "সুপারকম্পিউ": 6431,
  "সুমি</w>": 6432,
  "সীমান্ত</w>": 6433,
  "সিংহভাগ</w>": 6434,
  "সিসি</w>": 6435,
  "সিরিজ": 6436,
  "সিপা": 6437,
  "সিপাহি</w>": 6438,
  "সিদ্ধ</w>": 6439,
  "সাহিত্যিক</w>": 6440,
  "সাহিত্য</w>": 6441,
  "সাহিত্য": 6442,
  "সাধারণতন্ত্র</w>": 6443,
  "সাধারণতন্ত্র": 6444,
  "সাধারণতন্ত্র।</w>": 6445,
  "সাউথ</w>": 6446,
  "সার</w>": 6447,
  "সায়": 6448,
  "সাক্ষ": 6449,
  "সহায়তা</w>": 6450,
  "সহ-আ": 6451,
  "সহ-আয়": 6452,
  "সহ-আয়োজক</w>": 6453,
  "সরীসৃ": 6454,
  "সরবরা": 6455,
  "সরবরাহকারী</w>": 6456,
  "সরঞ্জা": 6457,
  "সম্মিলিত</w>": 6458,
  "সম্প্রদায়ের</w>": 6459,
  "সম্প্রদায়</w>": 6460,
  "সম্পর্কের</w>": 6461,
  "সমৃদ্ধি</w>": 6462,
  "সমৃদ্ধ</w>": 6463,
  "সমাজতান্ত্র": 6464,
  "সমাজতান্ত্রিক": 6465,
  "সমান্ত": 6466,
  "সমান্তরা": 6467,
  "সম্রাট": 6468,
  "সমভূমির</w>": 6469,
  "সমভূমি</w>": 6470,
  "সমতার</w>": 6471,
  "সমতা</w>": 6472,
  "সমত": 6473,
  "সমতূল": 6474,
  "সফটও": 6475,
  "সফটওয়": 6476,
  "সফটওয়্যার</w>": 6477,
  "সদস্য।</w>": 6478,
  "সদস্য</w>": 6479,
  "সদস্য": 6480,
  "সঙ্গীতের</w>": 6481,
  "সঙ্গীত,</w>": 6482,
  "সংস্কার</w>": 6483,
  "সংস্কার": 6484,
  "সংস্কারের</w>": 6485,
  "সংসদে</w>": 6486,
  "সংসদ</w>": 6487,
  "সংরক্ষণের</w>": 6488,
  "সংবিধানের</w>": 6489,
  "সংঘর্ষ</w>": 6490,
  "সংস্থা": 6491,
  "সংযোগ</w>": 6492,
  "সংক্ষি": 6493,
  "সংক্ষিপ্ত</w>": 6494,
  "স-প্র": 6495,
  "স-প্রসিদ্ধ</w>": 6496,
  "সে</w>": 6497,
  "সহযোগ": 6498,
  "সহকারী</w>": 6499,
  "সত্ত্": 6500,
  "সত্ত্বে": 6501,
  "সত্ত্বেও</w>": 6502,
  "সড</w>": 6503,
  "সঞ্চ": 6504,
  "সকল": 6505,
  "সকলকে": 6506,
  "সকলকেই</w>": 6507,
  "ষ্ঠী</w>": 6508,
  "ষ্ণা": 6509,
  "ষণারণ": 6510,
  "ষি</w>": 6511,
  "ষষ্ঠ</w>": 6512,
  "শ্রীলঙ্কা": 6513,
  "শৈলি": 6514,
  "শিল্প।</w>": 6515,
  "শিল্প</w>": 6516,
  "শিশু": 6517,
  "শিক্ষিত</w>": 6518,
  "শাসনাধীন": 6519,
  "শাস্ত্রীয়</w>": 6520,
  "শাল</w>": 6521,
  "শান্": 6522,
  "শান্তি": 6523,
  "শহরাঞ্চ": 6524,
  "শব্দ</w>": 6525,
  "শতাংশে</w>": 6526,
  "শতাংশ,</w>": 6527,
  "শকে</w>": 6528,
  "শী</w>": 6529,
  "ল্লি</w>": 6530,
  "লোকসভা": 6531,
  "লে,</w>": 6532,
  "লুপ্ত": 6533,
  "লীয়</w>": 6534,
  "লিখি": 6535,
  "লিখিত</w>": 6536,
  "লাক্ষা": 6537,
  "লক্রমে</w>": 6538,
  "লকে</w>": 6539,
  "লী</w>": 6540,
  "লগুলি</w>": 6541,
  "র্ধমান</w>": 6542,
  "র্ভ": 6543,
  "র্ভস্থ</w>": 6544,
  "র্ণ</w>": 6545,
  "র্ঘ": 6546,
  "র্ঘ্য</w>": 6547,
  "রোধ</w>": 6548,
  "রিখে</w>": 6549,
  "রাষ্ট্রের</w>": 6550,
  "রাষ্ট্রপ": 6551,
  "রাজা</w>": 6552,
  "রাসায়": 6553,
  "রার</w>": 6554,
  "রায়</w>": 6555,
  "রামন": 6556,
  "রাণ</w>": 6557,
  "রাণ": 6558,
  "রাণিক</w>": 6559,
  "রন্ধনশৈ": 6560,
  "রতা</w>": 6561,
  "র্য</w>": 6562,
  "রবী": 6563,
  "রবীন্দ্র": 6564,
  "রপ্ত": 6565,
  "রত্": 6566,
  "রক্ষার</w>": 6567,
  "রক্ষ": 6568,
  "রক্ষী</w>": 6569,
  "র।</w>": 6570,
  "র,</w>": 6571,
  "যেটি</w>": 6572,
  "যেখ": 6573,
  "যেখানে</w>": 6574,
  "যুক্তরাষ্ট্রের</w>": 6575,
  "যুগীয়</w>": 6576,
  "যুগ": 6577,
  "যায়": 6578,
  "যায়:</w>": 6579,
  "যাত্র": 6580,
  "যাত্রা,</w>": 6581,
  "য়েন্টি": 6582,
  "য়েন্টি-": 6583,
  "য়েন্টি-২০</w>": 6584,
  "য়েছে।</w>": 6585,
  "য়েই</w>": 6586,
  "য়াল</w>": 6587,
  "য়ার</w>": 6588,
  "য়াম</w>": 6589,
  "য়ী,</w>": 6590,
  "য়াল": 6591,
  "য়াদে</w>": 6592,
  "য়াট": 6593,
  "য়তা</w>": 6594,
  "য়টি</w>": 6595,
  "যান-১": 6596,
  "যথে": 6597,
  "যথেষ্ট</w>": 6598,
  "ম্বী</w>": 6599,
  "ম্বই</w>": 6600,
  "মৌসুমি</w>": 6601,
  "মৌর্য</w>": 6602,
  "মোদী</w>": 6603,
  "মেয়াদে</w>": 6604,
  "মুসলমান": 6605,
  "মুম্বই</w>": 6606,
  "মুখ": 6607,
  "মুক্ত</w>": 6608,
  "মিনি": 6609,
  "মালয়াল": 6610,
  "মালভূমি</w>": 6611,
  "মানব": 6612,
  "মান,</w>": 6613,
  "মাঝি</w>": 6614,
  "মাইল)।</w>": 6615,
  "মাইল)</w>": 6616,
  "মাপে</w>": 6617,
  "মান্বয়ে</w>": 6618,
  "মাথা": 6619,
  "মাথাপি": 6620,
  "মাথাপিছ": 6621,
  "মাথাপিছু</w>": 6622,
  "মাত্র": 6623,
  "মাত্রায়</w>": 6624,
  "মাঞ্চ": 6625,
  "মাঞ্চলে</w>": 6626,
  "মাঝা": 6627,
  "মাঝামাঝি</w>": 6628,
  "মহানগ": 6629,
  "মহানগরী": 6630,
  "মহাকাশ</w>": 6631,
  "মহাকাব্য</w>": 6632,
  "মহাসাগর": 6633,
  "মহামত": 6634,
  "মহামতি</w>": 6635,
  "মরুভূমি</w>": 6636,
  "মব্রিজ</w>": 6637,
  "মবর্ধমান</w>": 6638,
  "মন্ত্রী</w>": 6639,
  "মনে</w>": 6640,
  "মধ্যেই</w>": 6641,
  "মধ্যযুগীয়</w>": 6642,
  "ম্যা": 6643,
  "মীর": 6644,
  "মহিলাদের</w>": 6645,
  "মণি": 6646,
  "মণিপু": 6647,
  "ভূমিকা</w>": 6648,
  "ভূমি।</w>": 6649,
  "ভূতা": 6650,
  "ভূতাত্ত্": 6651,
  "ভূতাত্ত্বিক</w>": 6652,
  "ভূগো": 6653,
  "ভূগোল</w>": 6654,
  "ভূগ": 6655,
  "ভূগর্ভস্থ</w>": 6656,
  "ভিত্তিতে</w>": 6657,
  "ভি,</w>": 6658,
  "ভাষাগোষ্ঠী": 6659,
  "ভাষাকে</w>": 6660,
  "ভারত-চী": 6661,
  "ভারত-চীন</w>": 6662,
  "ভারতব": 6663,
  "ভারতবর্ষ": 6664,
  "ভারত।</w>": 6665,
  "ভারত": 6666,
  "ভারতবাসী</w>": 6667,
  "ভাভ": 6668,
  "ভাভা</w>": 6669,
  "ভান্": 6670,
  "ভান্সড</w>": 6671,
  "ভেষ": 6672,
  "ভেলপমেন্ট</w>": 6673,
  "ভরত": 6674,
  "ভব</w>": 6675,
  "ব্যাঙ্": 6676,
  "ব্যাখ্যা": 6677,
  "বোধি": 6678,
  "বোঝা": 6679,
  "বোঝায়।</w>": 6680,
  "বৈচিত্র্যময়</w>": 6681,
  "বৈচিত্র্যম": 6682,
  "বৈষম": 6683,
  "বৈদিক</w>": 6684,
  "বেশী</w>": 6685,
  "বেসরকারি</w>": 6686,
  "বেষ্ট": 6687,
  "বেড়": 6688,
  "বেঙ্গাল": 6689,
  "বৃহত্তম।</w>": 6690,
  "বুদ্ধ": 6691,
  "বিস্তার": 6692,
  "বিস্তারিত</w>": 6693,
  "বিশ্বকাপের</w>": 6694,
  "বিরোধ</w>": 6695,
  "বিভক্ত</w>": 6696,
  "বিজেপি-বিরোধী</w>": 6697,
  "বিজয়ী।</w>": 6698,
  "বিজয়ী</w>": 6699,
  "বিচ্ছিন্": 6700,
  "বিচ্ছে": 6701,
  "বিনিয়": 6702,
  "বিনিয়োগের</w>": 6703,
  "বিদ্রো": 6704,
  "বিদ্রোহ</w>": 6705,
  "বিড়</w>": 6706,
  "বিজ্ঞ": 6707,
  "বিজ্": 6708,
  "বিজ্ঞা": 6709,
  "বিজ্ঞান</w>": 6710,
  "বিচার</w>": 6711,
  "বাহী</w>": 6712,
  "বাহিক": 6713,
  "বাল্য": 6714,
  "বায়ুপ্রবাহ": 6715,
  "বাদশ</w>": 6716,
  "বাণিজ্য": 6717,
  "বাহা": 6718,
  "বাংল": 6719,
  "বাংলা</w>": 6720,
  "বহির্": 6721,
  "বহু</w>": 6722,
  "বসবাস</w>": 6723,
  "বসবা": 6724,
  "বলম্বী</w>": 6725,
  "বর্ণীকৃত:</w>": 6726,
  "বর্ষা</w>": 6727,
  "বর্ষণারণ": 6728,
  "বর্ণি": 6729,
  "বর্ণিত</w>": 6730,
  "বরাবর</w>": 6731,
  "বন্যপ্রাণী</w>": 6732,
  "বন্যা</w>": 6733,
  "বধানে</w>": 6734,
  "বছরের</w>": 6735,
  "বছরে</w>": 6736,
  "বছর।</w>": 6737,
  "বঙ্গোপসাগরে</w>": 6738,
  "বঙ্গের</w>": 6739,
  "বস্ত্র": 6740,
  "বলিউড</w>": 6741,
  "বয়": 6742,
  "বন্ধ": 6743,
  "বন্ধন</w>": 6744,
  "বজা": 6745,
  "বজায়</w>": 6746,
  "বঙ্গ": 6747,
  "বক্ষেত্র</w>": 6748,
  "বংশ": 6749,
  "ফ্রন্ট</w>": 6750,
  "ফের</w>": 6751,
  "ফিল্": 6752,
  "ফ্রান্স</w>": 6753,
  "ফার্সি</w>": 6754,
  "ফাইনা": 6755,
  "ফর</w>": 6756,
  "প্রাধান্য</w>": 6757,
  "প্রথমে</w>": 6758,
  "প্রতিষ্ঠাতা</w>": 6759,
  "প্রতিযোগিতা,</w>": 6760,
  "প্রতিহত</w>": 6761,
  "প্রতিরোধ</w>": 6762,
  "প্রতিরক্ষা</w>": 6763,
  "প্রতিবেশী</w>": 6764,
  "প্রতিবর্ণীকৃত:</w>": 6765,
  "প্রজাতন্ত্র,</w>": 6766,
  "প্রজাতন্ত্র</w>": 6767,
  "প্রচলিত।</w>": 6768,
  "প্রেস।</w>": 6769,
  "প্রেরণ</w>": 6770,
  "প্রশাসন</w>": 6771,
  "প্রয়": 6772,
  "প্রভূত</w>": 6773,
  "প্রবেশ</w>": 6774,
  "প্রদেশ</w>": 6775,
  "প্রথা": 6776,
  "প্রথাগতভাবে</w>": 6777,
  "প্রণ": 6778,
  "প্রজাতি</w>": 6779,
  "প্রজাতি": 6780,
  "প্রক্র": 6781,
  "প্রক্রি": 6782,
  "প্রকাশ</w>": 6783,
  "প্তি</w>": 6784,
  "পৌরাণিক</w>": 6785,
  "পোশাকের</w>": 6786,
  "পোশাক</w>": 6787,
  "পেয়ে</w>": 6788,
  "পূর্বনাম</w>": 6789,
  "পূর্বে": 6790,
  "পূজা": 6791,
  "পুনরায়</w>": 6792,
  "পুষ্ট": 6793,
  "পিপিপি": 6794,
  "পিপিপি)</w>": 6795,
  "পারসি</w>": 6796,
  "পাতটি</w>": 6797,
  "পাকিস্তানের</w>": 6798,
  "পাওয়ায়</w>": 6799,
  "পাঁচটি</w>": 6800,
  "পালন</w>": 6801,
  "পার</w>": 6802,
  "পাত,</w>": 6803,
  "পাঞ্জা": 6804,
  "পাখি": 6805,
  "পাক-": 6806,
  "পাক-ভারত</w>": 6807,
  "পশ্চিমবঙ্গের</w>": 6808,
  "পর্বতমালার</w>": 6809,
  "পর্বতমালা": 6810,
  "পর্বে</w>": 6811,
  "পরিষেবার</w>": 6812,
  "পরিষেবা</w>": 6813,
  "পরিবর্তনের</w>": 6814,
  "পরিবার": 6815,
  "পরিচালনার</w>": 6816,
  "পরিচিত।</w>": 6817,
  "পরিমাপে</w>": 6818,
  "পরিমাণ</w>": 6819,
  "পরিবেশ": 6820,
  "পরিচালিত</w>": 6821,
  "পরোক্ষভাবে</w>": 6822,
  "পরিষ": 6823,
  "পরিক": 6824,
  "পরি</w>": 6825,
  "পদার্থ": 6826,
  "পথে</w>": 6827,
  "পণ্যের</w>": 6828,
  "ন্নড়": 6829,
  "ন্ধ্রপ্রদেশের</w>": 6830,
  "ন্ত্রের</w>": 6831,
  "ন্তু</w>": 6832,
  "ন্ডা</w>": 6833,
  "ন্দ": 6834,
  "ন্তী": 6835,
  "ন্ডো": 6836,
  "ন্ডোয়ান": 6837,
  "নোবেল</w>": 6838,
  "নেহেরু</w>": 6839,
  "নেয়।</w>": 6840,
  "নেমে</w>": 6841,
  "নৃত্যকলা": 6842,
  "নৃত্য</w>": 6843,
  "নীতির</w>": 6844,
  "নির্বাচ": 6845,
  "নির্ধার": 6846,
  "নিদর্শন।</w>": 6847,
  "নিকোবর</w>": 6848,
  "নিকটব": 6849,
  "নিকটবর্তী</w>": 6850,
  "নিষে": 6851,
  "নিরিখে</w>": 6852,
  "নিজ": 6853,
  "নিজস্ব</w>": 6854,
  "নি।</w>": 6855,
  "নামমাত্র</w>": 6856,
  "নামক</w>": 6857,
  "নাটক</w>": 6858,
  "নায়</w>": 6859,
  "নাত্ম": 6860,
  "নাত্মক</w>": 6861,
  "নাড়ুর</w>": 6862,
  "নাগ": 6863,
  "নদীগুলির</w>": 6864,
  "নদীগুলি</w>": 6865,
  "নতি</w>": 6866,
  "নগরাঞ্চ": 6867,
  "ন্যস্": 6868,
  "নান": 6869,
  "নয়।</w>": 6870,
  "ধ্রুপদী</w>": 6871,
  "ধীন</w>": 6872,
  "ধিত</w>": 6873,
  "ধর্মীয়</w>": 6874,
  "ধরা</w>": 6875,
  "ধীরে</w>": 6876,
  "দ্রাবিড়</w>": 6877,
  "দ্রুত": 6878,
  "দ্রব্য": 6879,
  "দ্বীপীয়</w>": 6880,
  "দ্বিতীয়</w>": 6881,
  "দ্বিগু": 6882,
  "দ্বিগুণ।</w>": 6883,
  "দ্বিকক্ষ": 6884,
  "দ্বিকক্ষবিশিষ্ট</w>": 6885,
  "দ্বাদশ</w>": 6886,
  "দৈর্ঘ্য</w>": 6887,
  "দেশজ</w>": 6888,
  "দেশগুলির</w>": 6889,
  "দেশকে</w>": 6890,
  "দেও": 6891,
  "দুল</w>": 6892,
  "দিল্": 6893,
  "দিয়েছে।</w>": 6894,
  "দি।</w>": 6895,
  "দি,</w>": 6896,
  "দারিদ্র্য": 6897,
  "দাক্ষিণাত্য</w>": 6898,
  "দাবা</w>": 6899,
  "দক্ষিণে</w>": 6900,
  "দক্ষিণ-": 6901,
  "দপ্তর": 6902,
  "থেকে,</w>": 6903,
  "থানশীল</w>": 6904,
  "থাকতে</w>": 6905,
  "থান</w>": 6906,
  "থাকে</w>": 6907,
  "থব্যবস্থা</w>": 6908,
  "থ-সামাজিক</w>": 6909,
  "থিক</w>": 6910,
  "তেলুগু</w>": 6911,
  "তেল": 6912,
  "তেও</w>": 6913,
  "তেই</w>": 6914,
  "তে।</w>": 6915,
  "তে,</w>": 6916,
  "তুলনায়</w>": 6917,
  "তিনি</w>": 6918,
  "তিনটি</w>": 6919,
  "তিন</w>": 6920,
  "তারা</w>": 6921,
  "তারপর</w>": 6922,
  "তামিলনাড়ুর</w>": 6923,
  "তামিল</w>": 6924,
  "তামা": 6925,
  "তা-": 6926,
  "তা,</w>": 6927,
  "তথ্য": 6928,
  "তানি</w>": 6929,
  "তন্ত্রের</w>": 6930,
  "তন</w>": 6931,
  "তত্ত্": 6932,
  "ণী</w>": 6933,
  "ণাট": 6934,
  "ণ,</w>": 6935,
  "ডেভেলপমেন্ট</w>": 6936,
  "ডিএ": 6937,
  "ডিএ)</w>": 6938,
  "ডি</w>": 6939,
  "টোয়েন্টি-২০</w>": 6940,
  "টে।</w>": 6941,
  "টায়।</w>": 6942,
  "টান</w>": 6943,
  "ট্রিলিয়ন</w>": 6944,
  "টে</w>": 6945,
  "টিতে</w>": 6946,
  "ঞ্জি</w>": 6947,
  "জ্যোতির্": 6948,
  "জোটের</w>": 6949,
  "জৈবক্ষেত্র</w>": 6950,
  "জৈন</w>": 6951,
  "জের</w>": 6952,
  "জুড়ে</w>": 6953,
  "জীববৈচিত্র্যের</w>": 6954,
  "জিডিপি</w>": 6955,
  "জলবায়ুর</w>": 6956,
  "জলবায়ু</w>": 6957,
  "জরাথ": 6958,
  "জরাটের</w>": 6959,
  "জয়লাভ</w>": 6960,
  "জয়ন্তী": 6961,
  "জনপ্রিয়তা</w>": 6962,
  "জন্য": 6963,
  "জনবহুল</w>": 6964,
  "জনবসতি</w>": 6965,
  "জে</w>": 6966,
  "জানুয়ারি</w>": 6967,
  "জলা": 6968,
  "জমি": 6969,
  "জন্": 6970,
  "ছোটো</w>": 6971,
  "ছের</w>": 6972,
  "ছিল,</w>": 6973,
  "ছিলে": 6974,
  "চ্ছে।</w>": 6975,
  "চীনের</w>": 6976,
  "চির</w>": 6977,
  "চালু</w>": 6978,
  "চন্দ্রযান-১": 6979,
  "চ্যালে": 6980,
  "চীন": 6981,
  "ঙ্গেয়</w>": 6982,
  "ঙ্ক": 6983,
  "ঘোষিত</w>": 6984,
  "ঘটে</w>": 6985,
  "ঘটনা": 6986,
  "ঘাট": 6987,
  "ঘটে।</w>": 6988,
  "ঘটায়।</w>": 6989,
  "গ্রামাঞ্চলে</w>": 6990,
  "গ্রাম</w>": 6991,
  "গ্রীষ্": 6992,
  "গ্রিক</w>": 6993,
  "গ্রামীণ</w>": 6994,
  "গ্রন্": 6995,
  "গৌতম</w>": 6996,
  "গুলিও</w>": 6997,
  "গুপ্ত</w>": 6998,
  "গুজরাটের</w>": 6999,
  "গান</w>": 7000,
  "গাছ</w>": 7001,
  "গাঙ্গেয়</w>": 7002,
  "গবেষণা</w>": 7003,
  "গণ্য</w>": 7004,
  "গণ-": 7005,
  "গঠিত।</w>": 7006,
  "গঠন": 7007,
  "গ্য": 7008,
  "গৃহ": 7009,
  "গন্ডোয়ান": 7010,
  "খ্রিষ্টপূর্বাব্দ।</w>": 7011,
  "খ্রিস্ট": 7012,
  "খ্যাত</w>": 7013,
  "খেলা": 7014,
  "খ্য,</w>": 7015,
  "খাদ্য</w>": 7016,
  "খাত": 7017,
  "খনিজ</w>": 7018,
  "ক্ষের</w>": 7019,
  "ক্ষমতা": 7020,
  "ক্ষে</w>": 7021,
  "ক্রিকেট": 7022,
  "ক্রান্তীয়</w>": 7023,
  "ক্রো": 7024,
  "ক্রী": 7025,
  "ক্রমান্বয়ে</w>": 7026,
  "ক্রমবর্ধমান</w>": 7027,
  "ক্লি": 7028,
  "কোম্পানির</w>": 7029,
  "কোম্পানি": 7030,
  "কোশী</w>": 7031,
  "কেমব্রিজ</w>": 7032,
  "কৃত্রিম</w>": 7033,
  "কৃষি</w>": 7034,
  "কিন্তু</w>": 7035,
  "কাশ্মীর": 7036,
  "কারী</w>": 7037,
  "কারণ।</w>": 7038,
  "কাবাডি</w>": 7039,
  "কালে,</w>": 7040,
  "কালক্রমে</w>": 7041,
  "কাল": 7042,
  "কাজে</w>": 7043,
  "কাজ</w>": 7044,
  "কল্প": 7045,
  "কর্মসূচির</w>": 7046,
  "কর্তৃত্ব</w>": 7047,
  "কর্ণাট": 7048,
  "করেছে</w>": 7049,
  "করেছে": 7050,
  "করেছিলে": 7051,
  "করেছিল।</w>": 7052,
  "করতেও</w>": 7053,
  "করণ,</w>": 7054,
  "করছে।</w>": 7055,
  "করছে</w>": 7056,
  "কংগ্রেস": 7057,
  "ক্যা": 7058,
  "কী</w>": 7059,
  "করার</w>": 7060,
  "কম</w>": 7061,
  "কথা": 7062,
  "কখনো</w>": 7063,
  "ওপর</w>": 7064,
  "ওয়": 7065,
  "ওড়": 7066,
  "ও,</w>": 7067,
  "ঐতিহ্যবাহী</w>": 7068,
  "ঐতিহ্যের</w>": 7069,
  "ঐতিহাসিক</w>": 7070,
  "এসএলভি,</w>": 7071,
  "এসেছে।</w>": 7072,
  "এঁদের</w>": 7073,
  "এদেশে</w>": 7074,
  "এক্তি": 7075,
  "উৎসবও</w>": 7076,
  "উৎপাদন</w>": 7077,
  "উৎপত্তি</w>": 7078,
  "উৎক্ষে": 7079,
  "উল্লেখযোগ্যভাবে</w>": 7080,
  "উল্লেখযোগ্য।</w>": 7081,
  "উল্লেখ্য,</w>": 7082,
  "উভয়েই</w>": 7083,
  "উভচর": 7084,
  "উপমহাদেশ</w>": 7085,
  "উপনিবেশ": 7086,
  "উপকূলরেখার</w>": 7087,
  "উপিএ": 7088,
  "উপদ্বীপের</w>": 7089,
  "উপদ্বীপীয়</w>": 7090,
  "উপদ্বীপ</w>": 7091,
  "উদ্ভিদের</w>": 7092,
  "উদ্ভব</w>": 7093,
  "উত্তর-পূর্বাঞ্চ": 7094,
  "উত্থানশীল</w>": 7095,
  "উচ্চার": 7096,
  "উচ্চ</w>": 7097,
  "ঈদুল</w>": 7098,
  "ইসলা": 7099,
  "ইল,</w>": 7100,
  "ইন্দিআ</w>": 7101,
  "ইন্ডিয়ান</w>": 7102,
  "ইন্ডিয়া</w>": 7103,
  "ইতিহাসে</w>": 7104,
  "ইতিহাস</w>": 7105,
  "ইতিহাস-প্রসিদ্ধ</w>": 7106,
  "ইত্যাদি</w>": 7107,
  "ইট,</w>": 7108,
  "ইউনিভার্সিটি</w>": 7109,
  "ইংরেজি": 7110,
  "ই।</w>": 7111,
  "আসে</w>": 7112,
  "আর্থিক</w>": 7113,
  "আর্থ-সামাজিক</w>": 7114,
  "আর্যভট": 7115,
  "আয়োজিত</w>": 7116,
  "আয়তনের</w>": 7117,
  "আমদানির</w>": 7118,
  "আফ্রিকার</w>": 7119,
  "আফ্রিকা</w>": 7120,
  "আন্তর": 7121,
  "আধা-": 7122,
  "আদিবাসী</w>": 7123,
  "আটটি</w>": 7124,
  "আজও</w>": 7125,
  "আগ্রাসন</w>": 7126,
  "আগস্ট</w>": 7127,
  "আগত</w>": 7128,
  "আইসিসি</w>": 7129,
  "আইন": 7130,
  "আসা": 7131,
  "আসন": 7132,
  "আয়</w>": 7133,
  "আছে।</w>": 7134,
  "আকর": 7135,
  "অ্যাডভান্সড</w>": 7136,
  "অ্যাসোসিয়েশন</w>": 7137,
  "অর্থনীতি</w>": 7138,
  "অর্থনী": 7139,
  "অর্থব্যবস্থা</w>": 7140,
  "অর্জন</w>": 7141,
  "অরণ্য</w>": 7142,
  "অরণ্য": 7143,
  "অভ্যন্তরীণ</w>": 7144,
  "অবস্থান</w>": 7145,
  "অবলু": 7146,
  "অববাহিক": 7147,
  "অপারেশন</w>": 7148,
  "অধিকারী।</w>": 7149,
  "অঞ্চলেই</w>": 7150,
  "অঞ্চলগুলি</w>": 7151,
  "অঞ্চলকে</w>": 7152,
  "অংশে</w>": 7153,
  "অংশ</w>": 7154,
  "অ্যান্ড</w>": 7155,
  "অস্থি": 7156,
  "অস্ত্র": 7157,
  "অন্ধ্রপ্রদেশের</w>": 7158,
  "ংশে": 7159,
  "॰</w>": 7160,
  "८५</w>": 7161,
  "७९.": 7162,
  "६६</w>": 7163,
  "५-": 7164,
  "३२</w>": 7165,
  "३,": 7166,
  "२०११</w>": 7167,
  "२००</w>": 7168,
  "२८</w>": 7169,
  "२४</w>": 7170,
  "२३</w>": 7171,
  "२२.": 7172,
  "२०</w>": 7173,
  "१९९८</w>": 7174,
  "१९९६</w>": 7175,
  "१९९०</w>": 7176,
  "१९८९</w>": 7177,
  "१९८०</w>": 7178,
  "१९७७</w>": 7179,
  "१९७१</w>": 7180,
  "१९४७": 7181,
  "१८५": 7182,
  "१,७": 7183,
  "१–": 7184,
  "१८</w>": 7185,
  "१३</w>": 7186,
  "१०००</w>": 7187,
  "१०</w>": 7188,
  "्रिक</w>": 7189,
  "्रो": 7190,
  "्रोत</w>": 7191,
  "्रा": 7192,
  "्राट</w>": 7193,
  "्रवा": 7194,
  "्रवाई</w>": 7195,
  "्रणी</w>": 7196,
  "्यादि</w>": 7197,
  "्यादा": 7198,
  "्यादातर</w>": 7199,
  "्यों": 7200,
  "्योंकि</w>": 7201,
  "्यु</w>": 7202,
  "्यात": 7203,
  "्याचल</w>": 7204,
  "्मपु": 7205,
  "्दपूर्ण</w>": 7206,
  "्टवे": 7207,
  "्टवेयर</w>": 7208,
  "्कट": 7209,
  "्कटिका</w>": 7210,
  "्षि": 7211,
  "्षिक</w>": 7212,
  "्ला": 7213,
  "्लादेश</w>": 7214,
  "ौते</w>": 7215,
  "ोह</w>": 7216,
  "ोख": 7217,
  "ैंतीस</w>": 7218,
  "ैनिक</w>": 7219,
  "ेरल": 7220,
  "ेरल)</w>": 7221,
  "ेदारी</w>": 7222,
  "ेडेरल)</w>": 7223,
  "ेखा</w>": 7224,
  "ेंद्र</w>": 7225,
  "ें,</w>": 7226,
  "ृत्यु</w>": 7227,
  "ूत</w>": 7228,
  "ुसार,</w>": 7229,
  "ुक्यों</w>": 7230,
  "ुण्": 7231,
  "ुण्ण</w>": 7232,
  "ीसा</w>": 7233,
  "ीं।</w>": 7234,
  "ीण</w>": 7235,
  "ीकरण</w>": 7236,
  "ियाचि": 7237,
  "ियाचिन</w>": 7238,
  "ियो</w>": 7239,
  "ियानों</w>": 7240,
  "िकारी</w>": 7241,
  "िकर्": 7242,
  "िकर्ता</w>": 7243,
  "ासतों</w>": 7244,
  "ाष्ट्र</w>": 7245,
  "ावर्त": 7246,
  "ावधान</w>": 7247,
  "ाल,</w>": 7248,
  "ार्दपूर्ण</w>": 7249,
  "ार्कटिका</w>": 7250,
  "ारित</w>": 7251,
  "ाराष्ट्र</w>": 7252,
  "ाया</w>": 7253,
  "ायद्वीप</w>": 7254,
  "ायदा</w>": 7255,
  "ाकू</w>": 7256,
  "ाएँ</w>": 7257,
  "ाल</w>": 7258,
  "ाम</w>": 7259,
  "ाई</w>": 7260,
  "ांत": 7261,
  "़ग": 7262,
  "होली,</w>": 7263,
  "हुए।</w>": 7264,
  "हुए,</w>": 7265,
  "हिस्सों</w>": 7266,
  "हिन्दुस्तान,</w>": 7267,
  "हिन्दी-": 7268,
  "हिन्द</w>": 7269,
  "हिंसा": 7270,
  "हिंसावादी</w>": 7271,
  "हिला": 7272,
  "हिंस": 7273,
  "हिंसक</w>": 7274,
  "हालांक": 7275,
  "हालांकि</w>": 7276,
  "हालाँ": 7277,
  "हालाँकि": 7278,
  "हालाँकि,</w>": 7279,
  "हां</w>": 7280,
  "हरलाल</w>": 7281,
  "हनन</w>": 7282,
  "हथिय": 7283,
  "ह्मपु": 7284,
  "हस्ता": 7285,
  "हस्ताक्ष": 7286,
  "हस्ताक्षर</w>": 7287,
  "हस्त": 7288,
  "हस्तक्षेप</w>": 7289,
  "हवे": 7290,
  "हवेली</w>": 7291,
  "हद</w>": 7292,
  "ह-": 7293,
  "स्वतन्त्र": 7294,
  "स्वतन्त्रता</w>": 7295,
  "स्थाई</w>": 7296,
  "स्थानों</w>": 7297,
  "स्थल</w>": 7298,
  "स्टर</w>": 7299,
  "स्वर": 7300,
  "स्वरुप</w>": 7301,
  "सौहार्दपूर्ण</w>": 7302,
  "सोसि": 7303,
  "सोसिएशन</w>": 7304,
  "सैनिकों</w>": 7305,
  "सेना,</w>": 7306,
  "सेल्": 7307,
  "सेल्स": 7308,
  "सेल्सियस</w>": 7309,
  "सेमी": 7310,
  "सूत्र": 7311,
  "सुधार": 7312,
  "सी,</w>": 7313,
  "सिनेमा": 7314,
  "सिन्": 7315,
  "सिन्धु": 7316,
  "सिन्धु-": 7317,
  "सिन्धु-गंगा</w>": 7318,
  "सिख</w>": 7319,
  "सिंह": 7320,
  "साहित": 7321,
  "साहित्य</w>": 7322,
  "सामने</w>": 7323,
  "सामना</w>": 7324,
  "सायन</w>": 7325,
  "साफ़": 7326,
  "साझ": 7327,
  "साझेदारी</w>": 7328,
  "सहित</w>": 7329,
  "सर्वा": 7330,
  "सरकारी</w>": 7331,
  "सरा</w>": 7332,
  "सम्प्रभु": 7333,
  "सम्मि": 7334,
  "सम्मिलित</w>": 7335,
  "समान</w>": 7336,
  "समझौते</w>": 7337,
  "सम्राट</w>": 7338,
  "समय-": 7339,
  "समय-समय</w>": 7340,
  "सतर</w>": 7341,
  "सकल</w>": 7342,
  "सकर</w>": 7343,
  "संसार</w>": 7344,
  "संबो": 7345,
  "संबोधि": 7346,
  "संबोधित</w>": 7347,
  "संबर</w>": 7348,
  "संचाल": 7349,
  "संचालित</w>": 7350,
  "संग्र": 7351,
  "संग्राम</w>": 7352,
  "संगठ": 7353,
  "संगठन</w>": 7354,
  "संग": 7355,
  "संगम</w>": 7356,
  "संक्षि": 7357,
  "संक्षिप्त</w>": 7358,
  "स्रोत</w>": 7359,
  "सृ": 7360,
  "सियाचिन</w>": 7361,
  "सम</w>": 7362,
  "सभा": 7363,
  "सच": 7364,
  "सक्ष": 7365,
  "सक्षम</w>": 7366,
  "ष्ट</w>": 7367,
  "षाण</w>": 7368,
  "षभ": 7369,
  "श्रेणी</w>": 7370,
  "शोक</w>": 7371,
  "शियर</w>": 7372,
  "शियन</w>": 7373,
  "शिखर</w>": 7374,
  "शिकार</w>": 7375,
  "शासनिक</w>": 7376,
  "शाही</w>": 7377,
  "शासक": 7378,
  "शां": 7379,
  "शहरों</w>": 7380,
  "शहरी": 7381,
  "शहरीकरण</w>": 7382,
  "शहर</w>": 7383,
  "शक्तियों</w>": 7384,
  "शक्त": 7385,
  "श्रित</w>": 7386,
  "शृ": 7387,
  "शि</w>": 7388,
  "शहरी</w>": 7389,
  "शर": 7390,
  "शब्": 7391,
  "शब्द</w>": 7392,
  "व्यक्ति</w>": 7393,
  "वोत्": 7394,
  "वोत्तर</w>": 7395,
  "वैश्": 7396,
  "वें</w>": 7397,
  "वीन</w>": 7398,
  "विभाजित</w>": 7399,
  "विभाजन</w>": 7400,
  "विभाग</w>": 7401,
  "विद्रोह</w>": 7402,
  "विज्ञा": 7403,
  "विज्ञान</w>": 7404,
  "विशेष</w>": 7405,
  "विशेष": 7406,
  "विमान</w>": 7407,
  "विधि</w>": 7408,
  "विधा": 7409,
  "वित्": 7410,
  "विजय": 7411,
  "विजयनगर</w>": 7412,
  "विज": 7413,
  "विजय</w>": 7414,
  "विका</w>": 7415,
  "विंध": 7416,
  "विंध्याचल</w>": 7417,
  "वार्षिक</w>": 7418,
  "वार्य</w>": 7419,
  "वालों</w>": 7420,
  "वाले</w>": 7421,
  "वाली,</w>": 7422,
  "वाला</w>": 7423,
  "वार</w>": 7424,
  "वायु": 7425,
  "वायुसेना</w>": 7426,
  "वाम": 7427,
  "वामपंथी</w>": 7428,
  "वाँ</w>": 7429,
  "वा,</w>": 7430,
  "वस्तु": 7431,
  "वस,</w>": 7432,
  "वश्य": 7433,
  "वर्णित</w>": 7434,
  "वर्गीकरण</w>": 7435,
  "वजह</w>": 7436,
  "वंश": 7437,
  "व्य</w>": 7438,
  "वाने</w>": 7439,
  "वरि": 7440,
  "वरिष्ठ</w>": 7441,
  "वक्त</w>": 7442,
  "ल्म</w>": 7443,
  "लौट": 7444,
  "लोकसभा</w>": 7445,
  "लोकत": 7446,
  "लोक</w>": 7447,
  "लेशियर</w>": 7448,
  "लेख": 7449,
  "ली।</w>": 7450,
  "लिख": 7451,
  "लाख),</w>": 7452,
  "लावा,</w>": 7453,
  "लाई</w>": 7454,
  "लाइ": 7455,
  "लती</w>": 7456,
  "लड़ाकू</w>": 7457,
  "लू</w>": 7458,
  "लिया।</w>": 7459,
  "लयों</w>": 7460,
  "लझ": 7461,
  "लघ": 7462,
  "र्श</w>": 7463,
  "र्मद": 7464,
  "र्मदा</w>": 7465,
  "र्जा</w>": 7466,
  "रेशियन</w>": 7467,
  "रेलू</w>": 7468,
  "रेजि": 7469,
  "रेजिमें": 7470,
  "रेजिमेंट</w>": 7471,
  "रूपए</w>": 7472,
  "रूपर": 7473,
  "रूपरेखा</w>": 7474,
  "रीति": 7475,
  "रियासतों</w>": 7476,
  "रिवा": 7477,
  "रिका,</w>": 7478,
  "राष्ट्रों</w>": 7479,
  "राष्ट्रपत": 7480,
  "राष्ट्रपति</w>": 7481,
  "राज्य,</w>": 7482,
  "राजाओं</w>": 7483,
  "रा।</w>": 7484,
  "राशि</w>": 7485,
  "राय": 7486,
  "रायल</w>": 7487,
  "राम</w>": 7488,
  "रही।</w>": 7489,
  "रत्न,</w>": 7490,
  "रखने</w>": 7491,
  "र-इन": 7492,
  "र-इन-": 7493,
  "र-इन-चीफ</w>": 7494,
  "रैंक</w>": 7495,
  "रह</w>": 7496,
  "रसायन</w>": 7497,
  "रल</w>": 7498,
  "रंजन</w>": 7499,
  "योग्य</w>": 7500,
  "यें</w>": 7501,
  "यूरेशियन</w>": 7502,
  "यूपी": 7503,
  "युद्ध": 7504,
  "युद्धों</w>": 7505,
  "यिक</w>": 7506,
  "याब</w>": 7507,
  "यहू": 7508,
  "यशक्ति</w>": 7509,
  "यी</w>": 7510,
  "यहां</w>": 7511,
  "म्बे</w>": 7512,
  "म्र</w>": 7513,
  "मौसम</w>": 7514,
  "मोर्चा</w>": 7515,
  "मैदानों</w>": 7516,
  "में।</w>": 7517,
  "में)</w>": 7518,
  "मूल्यों</w>": 7519,
  "मुख्यरूप</w>": 7520,
  "मुम्ब": 7521,
  "मुद्र": 7522,
  "मुद्रा</w>": 7523,
  "मुक्त</w>": 7524,
  "मीणा</w>": 7525,
  "मिलियन)</w>": 7526,
  "मिलियन</w>": 7527,
  "मिलनाड": 7528,
  "मिलनाडु</w>": 7529,
  "मिश्रित</w>": 7530,
  "मिला,</w>": 7531,
  "मालदीव,</w>": 7532,
  "मार्च</w>": 7533,
  "मामले</w>": 7534,
  "मानी</w>": 7535,
  "माला</w>": 7536,
  "माल</w>": 7537,
  "मात्र</w>": 7538,
  "माता</w>": 7539,
  "माता": 7540,
  "महीने</w>": 7541,
  "महाद्वी": 7542,
  "महाद्वीपो": 7543,
  "महाद्वीपों</w>": 7544,
  "महात्": 7545,
  "महात्मा</w>": 7546,
  "महाराष्ट्र</w>": 7547,
  "महत्": 7548,
  "महत्वपूर्ण</w>": 7549,
  "मशः</w>": 7550,
  "मनाए</w>": 7551,
  "मध्यम": 7552,
  "मध्यप्रदेश</w>": 7553,
  "मध्यकालीन</w>": 7554,
  "मगध</w>": 7555,
  "मंत्रण</w>": 7556,
  "मंच": 7557,
  "मंचों,</w>": 7558,
  "मृत्यु</w>": 7559,
  "मियों</w>": 7560,
  "मार": 7561,
  "महिला": 7562,
  "मशी": 7563,
  "मनो": 7564,
  "मनोरंजन</w>": 7565,
  "मजब": 7566,
  "मजबूत</w>": 7567,
  "भूमि</w>": 7568,
  "भू-आ": 7569,
  "भू-आकृ": 7570,
  "भारत-": 7571,
  "भारत-चीन</w>": 7572,
  "भाबर</w>": 7573,
  "भाग": 7574,
  "भाई</w>": 7575,
  "भरी</w>": 7576,
  "भौ": 7577,
  "भक्ति</w>": 7578,
  "ब्रह्मपु": 7579,
  "ब्ब": 7580,
  "बोली</w>": 7581,
  "बोला</w>": 7582,
  "बेटे</w>": 7583,
  "बीस": 7584,
  "बी,</w>": 7585,
  "बाल</w>": 7586,
  "बाढ़</w>": 7587,
  "बांट": 7588,
  "बांग": 7589,
  "बांग्लादेश</w>": 7590,
  "बहुप": 7591,
  "बहुपक्ष": 7592,
  "बहुपक्षीय</w>": 7593,
  "बना।</w>": 7594,
  "बनाया</w>": 7595,
  "बनाए</w>": 7596,
  "बनाई।</w>": 7597,
  "बनाई,</w>": 7598,
  "बनीं।</w>": 7599,
  "बढ़ो": 7600,
  "बढ़ा।</w>": 7601,
  "बंगाल</w>": 7602,
  "बैंक</w>": 7603,
  "बु": 7604,
  "बहा": 7605,
  "बहती</w>": 7606,
  "बलों</w>": 7607,
  "बल</w>": 7608,
  "बन्": 7609,
  "बँ": 7610,
  "फ्रांस</w>": 7611,
  "फ्रांस,</w>": 7612,
  "फुट</w>": 7613,
  "फिल्म</w>": 7614,
  "फिर</w>": 7615,
  "फ़ेडेरल)</w>": 7616,
  "फायदा</w>": 7617,
  "फल</w>": 7618,
  "प्राप्ति</w>": 7619,
  "प्रभावित</w>": 7620,
  "प्रकाश</w>": 7621,
  "प्रावधान</w>": 7622,
  "प्रायद्वीप</w>": 7623,
  "प्रसि": 7624,
  "प्रसार": 7625,
  "प्रशासनिक</w>": 7626,
  "प्रमाण</w>": 7627,
  "प्रधान</w>": 7628,
  "प्रदर्शन</w>": 7629,
  "प्रथ": 7630,
  "प्रथम</w>": 7631,
  "प्रचल": 7632,
  "प्रचलन</w>": 7633,
  "प्रगति</w>": 7634,
  "पोर्": 7635,
  "पैमाने</w>": 7636,
  "पेन</w>": 7637,
  "पूर्त": 7638,
  "पूर्तिकर्ता</w>": 7639,
  "पुराने</w>": 7640,
  "पुराना</w>": 7641,
  "पारंपर": 7642,
  "पारंपरिक</w>": 7643,
  "पान</w>": 7644,
  "पात</w>": 7645,
  "पात": 7646,
  "पातकाल</w>": 7647,
  "पाई</w>": 7648,
  "पाइन</w>": 7649,
  "पांड": 7650,
  "पाँच</w>": 7651,
  "पाँच": 7652,
  "पहाड़ियाँ</w>": 7653,
  "पसन्": 7654,
  "पसन्द</w>": 7655,
  "पर्वतश्रेणी</w>": 7656,
  "पर्वतमाला</w>": 7657,
  "पर्वत</w>": 7658,
  "परन्तु</w>": 7659,
  "परंपर": 7660,
  "परंपरा</w>": 7661,
  "परंत": 7662,
  "परंतु</w>": 7663,
  "पत्र": 7664,
  "पड़ा</w>": 7665,
  "पॉ": 7666,
  "पैंतीस</w>": 7667,
  "पी</w>": 7668,
  "परा": 7669,
  "पमान</w>": 7670,
  "पद</w>": 7671,
  "पथ": 7672,
  "न्हे</w>": 7673,
  "न्यायालयों</w>": 7674,
  "न्यायाधिकार</w>": 7675,
  "न्यायपालिका</w>": 7676,
  "न्न": 7677,
  "न्द्र</w>": 7678,
  "न्तु": 7679,
  "नेतृत्‍व</w>": 7680,
  "नेशिया</w>": 7681,
  "नेपाल</w>": 7682,
  "नृत्य</w>": 7683,
  "निवेश</w>": 7684,
  "निर्माता": 7685,
  "निर्भर</w>": 7686,
  "निरपेक्ष": 7687,
  "निर्यात": 7688,
  "नियुक्ति</w>": 7689,
  "नियंत्रण</w>": 7690,
  "निम्नव": 7691,
  "निम्नवत</w>": 7692,
  "निम्न": 7693,
  "निष्ठ</w>": 7694,
  "नाटक</w>": 7695,
  "नागरिकों</w>": 7696,
  "नागरिक</w>": 7697,
  "नामों</w>": 7698,
  "नाम": 7699,
  "नात्": 7700,
  "नात्मक</w>": 7701,
  "ना,</w>": 7702,
  "नवगठ": 7703,
  "नवगठित</w>": 7704,
  "नरेंद्र</w>": 7705,
  "नये</w>": 7706,
  "नया</w>": 7707,
  "नदी</w>": 7708,
  "नति</w>": 7709,
  "नके</w>": 7710,
  "न।</w>": 7711,
  "नो</w>": 7712,
  "नू": 7713,
  "नारे</w>": 7714,
  "नवीन</w>": 7715,
  "नर्मदा</w>": 7716,
  "नई</w>": 7717,
  "धर्मनिरपेक्ष": 7718,
  "धी</w>": 7719,
  "ध-": 7720,
  "द्वि": 7721,
  "द्</w>": 7722,
  "दौर</w>": 7723,
  "देखो</w>": 7724,
  "देखने</w>": 7725,
  "देखते</w>": 7726,
  "देव</w>": 7727,
  "देते</w>": 7728,
  "देता</w>": 7729,
  "दूसरे</w>": 7730,
  "दी,</w>": 7731,
  "दिसंबर</w>": 7732,
  "दिवाली,</w>": 7733,
  "दिवस,</w>": 7734,
  "दिए</w>": 7735,
  "दादर": 7736,
  "दादरा</w>": 7737,
  "दर्ज़": 7738,
  "दमन</w>": 7739,
  "दक्षिण-": 7740,
  "दक्षिण-पूर्व</w>": 7741,
  "दलों</w>": 7742,
  "दन</w>": 7743,
  "थे,</w>": 7744,
  "थवा</w>": 7745,
  "थे</w>": 7746,
  "थल</w>": 7747,
  "त्व</w>": 7748,
  "त्पत्ति</w>": 7749,
  "त्कालीन</w>": 7750,
  "तेमाल</w>": 7751,
  "तेज़ी</w>": 7752,
  "तीसरे</w>": 7753,
  "ती,</w>": 7754,
  "ता।</w>": 7755,
  "तापमान</w>": 7756,
  "तराई</w>": 7757,
  "तरी</w>": 7758,
  "तटों</w>": 7759,
  "तक,</w>": 7760,
  "तह": 7761,
  "तमिलनाडु</w>": 7762,
  "तत्कालीन</w>": 7763,
  "तट</w>": 7764,
  "तः</w>": 7765,
  "ण्ड</w>": 7766,
  "ण,</w>": 7767,
  "ढि": 7768,
  "डीए": 7769,
  "डिग्र": 7770,
  "डिग्री</w>": 7771,
  "ड़ीसा</w>": 7772,
  "ड़ा,</w>": 7773,
  "डव": 7774,
  "डच": 7775,
  "ठित</w>": 7776,
  "टेलीविज़": 7777,
  "टेलीविज़न</w>": 7778,
  "टेलीविजन</w>": 7779,
  "टना</w>": 7780,
  "टार्कटिका</w>": 7781,
  "टा</w>": 7782,
  "टब": 7783,
  "झारखंड</w>": 7784,
  "जोर</w>": 7785,
  "जीविका</w>": 7786,
  "जीडी": 7787,
  "जी-": 7788,
  "जिसे</w>": 7789,
  "जिस</w>": 7790,
  "जिन्हे</w>": 7791,
  "जिनके</w>": 7792,
  "जातीय</w>": 7793,
  "जात": 7794,
  "ज़्यादा</w>": 7795,
  "जवाहरलाल</w>": 7796,
  "जारी</w>": 7797,
  "जंग": 7798,
  "जंगलों</w>": 7799,
  "ज,</w>": 7800,
  "छूट</w>": 7801,
  "छठ": 7802,
  "च्च": 7803,
  "चालुक्यों</w>": 7804,
  "चलने</w>": 7805,
  "चरम</w>": 7806,
  "चे</w>": 7807,
  "चू": 7808,
  "चली।</w>": 7809,
  "चलाया।</w>": 7810,
  "चला,</w>": 7811,
  "चम": 7812,
  "चट": 7813,
  "घाट</w>": 7814,
  "घू": 7815,
  "घरेलू</w>": 7816,
  "घरा": 7817,
  "घनिष्ठ</w>": 7818,
  "घट": 7819,
  "ग्रह</w>": 7820,
  "ग्लेशियर</w>": 7821,
  "गोंड</w>": 7822,
  "गोवा</w>": 7823,
  "गुट</w>": 7824,
  "गाँ": 7825,
  "ग़री": 7826,
  "गए।</w>": 7827,
  "गॉ": 7828,
  "गू</w>": 7829,
  "गंग": 7830,
  "ग,</w>": 7831,
  "खासकर</w>": 7832,
  "खा</w>": 7833,
  "खग": 7834,
  "क्षुण्ण</w>": 7835,
  "क्रिके": 7836,
  "क्रिकेट</w>": 7837,
  "क्रयशक्ति</w>": 7838,
  "क्रमशः</w>": 7839,
  "क्षा": 7840,
  "कोपेन</w>": 7841,
  "केन्द्रीय</w>": 7842,
  "केंद्रीय</w>": 7843,
  "केंद्रशासित</w>": 7844,
  "केंद्र-": 7845,
  "कृत</w>": 7846,
  "कुलीन</w>": 7847,
  "कीर्": 7848,
  "किन्तु": 7849,
  "किनारे</w>": 7850,
  "कार्रवाई</w>": 7851,
  "कार्य</w>": 7852,
  "कामयाब</w>": 7853,
  "कालिक</w>": 7854,
  "काम</w>": 7855,
  "कां": 7856,
  "कांश</w>": 7857,
  "कर्मियों</w>": 7858,
  "कर्नाटक</w>": 7859,
  "करोड़),</w>": 7860,
  "करोड</w>": 7861,
  "करेगी": 7862,
  "करवाने</w>": 7863,
  "कमांडर-इन-चीफ</w>": 7864,
  "कंपनियों</w>": 7865,
  "क्योंकि</w>": 7866,
  "कै": 7867,
  "किय": 7868,
  "कहीं</w>": 7869,
  "कंक": 7870,
  "कंकड</w>": 7871,
  "क,</w>": 7872,
  "औसत</w>": 7873,
  "औप": 7874,
  "औद": 7875,
  "ओण": 7876,
  "ओ</w>": 7877,
  "ऐसी</w>": 7878,
  "ऐसे</w>": 7879,
  "एशियाई</w>": 7880,
  "एवम</w>": 7881,
  "एनएस": 7882,
  "एं,</w>": 7883,
  "एसोसिएशन</w>": 7884,
  "एड": 7885,
  "एज": 7886,
  "एँ</w>": 7887,
  "ऋतु": 7888,
  "ऊर्जा</w>": 7889,
  "उल-": 7890,
  "उभरा।</w>": 7891,
  "उपग्रह</w>": 7892,
  "उदय</w>": 7893,
  "उत्पादन</w>": 7894,
  "उत्तर-पश्चिम</w>": 7895,
  "उत्तरदा": 7896,
  "उत्थान</w>": 7897,
  "उठाया</w>": 7898,
  "उन्होंने</w>": 7899,
  "उध": 7900,
  "उड़ीसा</w>": 7901,
  "उं": 7902,
  "ईस्ट</w>": 7903,
  "ईसाई</w>": 7904,
  "ईल": 7905,
  "ईद</w>": 7906,
  "ईं": 7907,
  "इस्लाम</w>": 7908,
  "इस्तेमाल</w>": 7909,
  "इसने</w>": 7910,
  "इत्यादि</w>": 7911,
  "इजरायल</w>": 7912,
  "इंडोनेशिया</w>": 7913,
  "इलावा</w>": 7914,
  "इनका</w>": 7915,
  "इण्ड": 7916,
  "इओ": 7917,
  "आर्य": 7918,
  "आयातक</w>": 7919,
  "आपके</w>": 7920,
  "आन्दो": 7921,
  "आधारित</w>": 7922,
  "आदर्श</w>": 7923,
  "आठवीं</w>": 7924,
  "आकर्षित</w>": 7925,
  "आक्र": 7926,
  "आवश्य": 7927,
  "आवं": 7928,
  "आम</w>": 7929,
  "आपूर्तिकर्ता</w>": 7930,
  "आपातकाल</w>": 7931,
  "आने</w>": 7932,
  "आए</w>": 7933,
  "असैनिक</w>": 7934,
  "असम</w>": 7935,
  "असफल</w>": 7936,
  "अवसा": 7937,
  "अल्पाइन</w>": 7938,
  "अमेरिकी</w>": 7939,
  "अमेरिका,</w>": 7940,
  "अभियानों</w>": 7941,
  "अपेक्षा</w>": 7942,
  "अन्तर्गत</w>": 7943,
  "अन्तरि": 7944,
  "अनुसूची</w>": 7945,
  "अनिवार्य</w>": 7946,
  "अनुसार,</w>": 7947,
  "अधिकारी</w>": 7948,
  "अधिकांश</w>": 7949,
  "अत्य": 7950,
  "अग्रणी</w>": 7951,
  "अगस्त</w>": 7952,
  "अंग्रेजों</w>": 7953,
  "अंतिम</w>": 7954,
  "अहिंसावादी</w>": 7955,
  "असम": 7956,
  "असं": 7957,
  "अशोक</w>": 7958,
  "अशांति</w>": 7959,
  "अलावा,</w>": 7960,
  "अथवा</w>": 7961,
  "अज": 7962,
  "अक्षुण्ण</w>": 7963,
  "अ-": 7964,
  "ंबर</w>": 7965,
  "ंगीण</w>": 7966,
  "y।</w>": 7967,
  "xiii,</w>": 7968,
  "xi,</w>": 7969,
  "uin</w>": 7970,
  "tbook</w>": 7971,
  "ton</w>": 7972,
  "ss:</w>": 7973,
  "s)</w>": 7974,
  "s).</w>": 7975,
  "plates</w>": 7976,
  "outl": 7977,
  "outled": 7978,
  "orld": 7979,
  "orld's</w>": 7980,
  "olume</w>": 7981,
  "ollin": 7982,
  "ocial</w>": 7983,
  "mun": 7984,
  "life:</w>": 7985,
  "lag": 7986,
  "lag,</w>": 7987,
  "ins</w>": 7988,
  "inav": 7989,
  "inav</w>": 7990,
  "ics).</w>": 7991,
  "hi:</w>": 7992,
  "formation</w>": 7993,
  "es)।</w>": 7994,
  "erlag,</w>": 7995,
  "enguin</w>": 7996,
  "edition": 7997,
  "cycl": 7998,
  "cyclop": 7999,
  "cise</w>": 8000,
  "bhinav</w>": 8001,
  "assics).</w>": 8002,
  "arajan,</w>": 8003,
  "angarajan,</w>": 8004,
  "adhy": 8005,
  "actbook</w>": 8006,
  "a:</w>": 8007,
  "Wildlife:</w>": 8008,
  "World's</w>": 8009,
  "W.</w>": 8010,
  "Volume</w>": 8011,
  "Verlag,</w>": 8012,
  "TT": 8013,
  "TI": 8014,
  "Sub": 8015,
  "Social</w>": 8016,
  "Routled": 8017,
  "Rangarajan,</w>": 8018,
  "Publications,</w>": 8019,
  "Publish": 8020,
  "Press।</w>": 8021,
  "Prof": 8022,
  "Poems</w>": 8023,
  "Penguin</w>": 8024,
  "PK": 8025,
  "Millan,</w>": 8026,
  "Mahesh</w>": 8027,
  "MacMillan,</w>": 8028,
  "Mas": 8029,
  "John": 8030,
  "Histor": 8031,
  "Har": 8032,
  "Factbook</w>": 8033,
  "Encyclop": 8034,
  "Eight</w>": 8035,
  "Discovery</w>": 8036,
  "Delhi:</w>": 8037,
  "Democracy</w>": 8038,
  "Concise</w>": 8039,
  "Commun": 8040,
  "Classics).</w>": 8041,
  "Chandra</w>": 8042,
  "CEE</w>": 8043,
  "Collin": 8044,
  "Cinem": 8045,
  "Brass:</w>": 8046,
  "Books।</w>": 8047,
  "Bar": 8048,
  "Anthology</w>": 8049,
  "Act,</w>": 8050,
  "Abhinav</w>": 8051,
  "93,": 8052,
  "9,000</w>": 8053,
  "8లో</w>": 8054,
  "7,5": 8055,
  "7,517</w>": 8056,
  "7–": 8057,
  "7లో</w>": 8058,
  "74.": 8059,
  "72.": 8060,
  "7000</w>": 8061,
  "5-0": 8062,
  "4th</w>": 8063,
  "44": 8064,
  "4-": 8065,
  "30,000</w>": 8066,
  "3.8": 8067,
  "36.": 8068,
  "26న</w>": 8069,
  "2022</w>": 8070,
  "2021</w>": 8071,
  "2014</w>": 8072,
  "2012": 8073,
  "2008</w>": 8074,
  "2007</w>": 8075,
  "2007,</w>": 8076,
  "2006,</w>": 8077,
  "2004</w>": 8078,
  "20</w>": 8079,
  "2019</w>": 8080,
  "2nd</w>": 8081,
  "29</w>": 8082,
  "21</w>": 8083,
  "1998</w>": 8084,
  "1984</w>": 8085,
  "1975,</w>": 8086,
  "1974</w>": 8087,
  "1967</w>": 8088,
  "1958</w>": 8089,
  "1900</w>": 8090,
  "17.": 8091,
  "16.6%</w>": 8092,
  "100,000</w>": 8093,
  "1,93,": 8094,
  "1,200</w>": 8095,
  "1000</w>": 8096,
  ".৮%": 8097,
  ".৭%</w>": 8098,
  ".৭%),</w>": 8099,
  "./वर्ष</w>": 8100,
  "...": 8101,
  ".৯%)</w>": 8102,
  ".,</w>": 8103,
  "-বর্": 8104,
  "-ধাঁচের</w>": 8105,
  "-২</w>": 8106,
  "-অধ্যুষিত</w>": 8107,
  ",৬৭১</w>": 8108,
  "+</w>": 8109,
  "(Ἰνδός),</w>": 8110,
  "(৪,৬৭১</w>": 8111,
  "(২০০৬),</w>": 8112,
  "(২০০৪),</w>": 8113,
  "(২০০৭)।</w>": 8114,
  "(১৯৯৮),</w>": 8115,
  "(১৯৯৭),</w>": 8116,
  "(১৯৯৪)।</w>": 8117,
  "(১৯৯০)।</w>": 8118,
  "(হিন্দি:</w>": 8119,
  "(এনডিএ)</w>": 8120,
  "(editors),</w>": 8121,
  "(editor)</w>": 8122,
  "(সি": 8123,
  "(মোট</w>": 8124,
  "(বিশ্বে</w>": 8125,
  "(পূর্বনাম</w>": 8126,
  "(পিপিপি)</w>": 8127,
  "(ध": 8128,
  "(कॉ": 8129,
  "(कुल</w>": 8130,
  "(ओ": 8131,
  "(S": 8132,
  "(Oxford</w>": 8133,
  "(M": 8134,
  "(India": 8135,
  "(E": 8136,
  "(7": 8137,
  "(4": 8138,
  "(196": 8139,
  "(0.": 8140,
  "'।</w>": 8141,
  "$६": 8142,
  "\"।</w>": 8143,
  "\",</w>": 8144,
  "”।</w>": 8145,
  "“Royal": 8146,
  "“Royal”</w>": 8147,
  "“প্রথম</w>": 8148,
  "“नेट</w>": 8149,
  "’,</w>": 8150,
  "‘दलि": 8151,
  "‘दलितों</w>": 8152,
  "‘আধা-": 8153,
  "‘আধা-যুক্তরাষ্ট্র": 8154,
  "‘আধা-যুক্তরাষ্ট্রী": 8155,
  "‘আধা-যুক্তরাষ্ট্রীয়": 8156,
  "‘আধা-যুক্তরাষ্ট্রীয়’</w>": 8157,
  "‘संविधान</w>": 8158,
  "‘आधुनिक</w>": 8159,
  "—हट": 8160,
  "—हटा</w>": 8161,
  "—जैसे</w>": 8162,
  "–2012</w>": 8163,
  "–2004</w>": 8164,
  "–2000": 8165,
  "–2000).</w>": 8166,
  "–13</w>": 8167,
  "–20</w>": 8168,
  "–0</w>": 8169,
  "‍यीय</w>": 8170,
  "‍पकालिक</w>": 8171,
  "‍্যে</w>": 8172,
  "‍या": 8173,
  "‍याव": 8174,
  "‍यावसा": 8175,
  "‍यावसायिक</w>": 8176,
  "‍तरी</w>": 8177,
  "‌వ‌": 8178,
  "‌వ‌స్థ": 8179,
  "‌వ‌స్థ‌</w>": 8180,
  "‌లాల్</w>": 8181,
  "‌ఫర్": 8182,
  "‌ఫర్మే": 8183,
  "‌ఫర్మేష": 8184,
  "‌ఫర్మేషన్</w>": 8185,
  "‌ক্য</w>": 8186,
  "‌తంలో</w>": 8187,
  "‌కు</w>": 8188,
  "‌বলম্বী</w>": 8189,
  "ṣag": 8190,
  "ṣagān": 8191,
  "ṣagāna,</w>": 8192,
  "్‌సొ": 8193,
  "్‌సొర్": 8194,
  "్‌సొర్సిం": 8195,
  "్‌సొర్సింగ": 8196,
  "్‌సొర్సింగ్</w>": 8197,
  "్‌వే": 8198,
  "్‌వేర్,</w>": 8199,
  "్‌మహ": 8200,
  "్‌మహల్</w>": 8201,
  "్‌బ": 8202,
  "్‌బాల": 8203,
  "్‌బాల్‌</w>": 8204,
  "్‌గే": 8205,
  "్‌గేజ": 8206,
  "్‌గేజి</w>": 8207,
  "్‌,</w>": 8208,
  "్సీ": 8209,
  "్సీలు,</w>": 8210,
  "్వాల్</w>": 8211,
  "్వస్త్ర": 8212,
  "్వస్త్ర</w>": 8213,
  "్వబ": 8214,
  "్వబడిన</w>": 8215,
  "్లలో</w>": 8216,
  "్లలుగా</w>": 8217,
  "్రోలి": 8218,
  "్రోలియం": 8219,
  "్రోలియం,</w>": 8220,
  "్రోపాల": 8221,
  "్రోపాలిట": 8222,
  "్రోపాలిటన్</w>": 8223,
  "్రిద్ధి</w>": 8224,
  "్రిచె": 8225,
  "్రిచెట్ట": 8226,
  "్రిచెట్టు.</w>": 8227,
  "్రాన్స్,</w>": 8228,
  "్రాన్-ఇ": 8229,
  "్రాన్-ఇస్తా": 8230,
  "్రాన్-ఇస్తాంబ": 8231,
  "్రాన్-ఇస్తాంబుల": 8232,
  "్రాన్-ఇస్తాంబుల్</w>": 8233,
  "్రాసు": 8234,
  "్రాసు),</w>": 8235,
  "్రావి": 8236,
  "్రావిడ</w>": 8237,
  "్రాఫ": 8238,
  "్రాఫిక్</w>": 8239,
  "్రా)</w>": 8240,
  "్రై": 8241,
  "్రైవర": 8242,
  "్రైవరు</w>": 8243,
  "్రూ—": 8244,
  "్రూ—ISBN</w>": 8245,
  "్రాలు,</w>": 8246,
  "్రామ": 8247,
  "్రామిక</w>": 8248,
  "్రయ": 8249,
  "్రయాలు</w>": 8250,
  "్యాత్మ": 8251,
  "్యాత్మిక": 8252,
  "్యాత్మికత</w>": 8253,
  "్యాడ్": 8254,
  "్యాడ్మిం": 8255,
  "్యాడ్మింట": 8256,
  "్యాడ్మింటన్": 8257,
  "్యాడ్మింటన్‌</w>": 8258,
  "్యులు</w>": 8259,
  "్యులు,</w>": 8260,
  "్యాలు</w>": 8261,
  "్యాలు": 8262,
  "్యాలున్నాయి.</w>": 8263,
  "్యానికి</w>": 8264,
  "్యా</w>": 8265,
  "్యరాజ్య": 8266,
  "్యరాజ్యసమ": 8267,
  "్యరాజ్యసమితి</w>": 8268,
  "్యమైన</w>": 8269,
  "్యమం": 8270,
  "్యమంలో</w>": 8271,
  "్యప్ర": 8272,
  "్యప్రాణ": 8273,
  "్యప్రాణుల</w>": 8274,
  "్యపరంగా</w>": 8275,
  "్యజి": 8276,
  "్యజిత్</w>": 8277,
  "్యచిత్ర": 8278,
  "్యచిత్రాలు</w>": 8279,
  "్యంలో</w>": 8280,
  "్య,</w>": 8281,
  "్మపు": 8282,
  "్మపుత్ర": 8283,
  "్మపుత్ర,</w>": 8284,
  "్మదా": 8285,
  "్మదాబాదు</w>": 8286,
  "్మద": 8287,
  "్మదీయ": 8288,
  "్మదీయులు,</w>": 8289,
  "్మ.</w>": 8290,
  "్పస్,</w>": 8291,
  "్నే": 8292,
  "్నేయ</w>": 8293,
  "్నాలు</w>": 8294,
  "్నలు:</w>": 8295,
  "్నం</w>": 8296,
  "్థాలు,</w>": 8297,
  "్థనల": 8298,
  "్థనలలో</w>": 8299,
  "్తె</w>": 8300,
  "్తాన": 8301,
  "్తానులు,</w>": 8302,
  "్తదేశపు</w>": 8303,
  "్ట్‌వేర్,</w>": 8304,
  "్టడ": 8305,
  "్టడాలు,</w>": 8306,
  "్టం,</w>": 8307,
  "్గు": 8308,
  "్గులు:</w>": 8309,
  "్గి": 8310,
  "్గిపోయింది.</w>": 8311,
  "్గర": 8312,
  "్గరలో</w>": 8313,
  "్కెట్</w>": 8314,
  "్కుల</w>": 8315,
  "్కా</w>": 8316,
  "్స్</w>": 8317,
  "్క్‌": 8318,
  "్క్‌టిక": 8319,
  "్క్‌టికాలో</w>": 8320,
  "్క్</w>": 8321,
  "ౌరవి": 8322,
  "ౌరవిస్తారు.</w>": 8323,
  "ోళులు,</w>": 8324,
  "ోరారి</w>": 8325,
  "ోరమ</w>": 8326,
  "ోర</w>": 8327,
  "ోధాల</w>": 8328,
  "ోధన": 8329,
  "ోధనా</w>": 8330,
  "ోద్యమంలో</w>": 8331,
  "ోక్యం</w>": 8332,
  "ో-ఖో": 8333,
  "ో-ఖో,</w>": 8334,
  "ో-ఆర్": 8335,
  "ో-ఆర్య": 8336,
  "ో-ఆర్యన్,</w>": 8337,
  "ోయ</w>": 8338,
  "ోనే": 8339,
  "ోనేసియా</w>": 8340,
  "ోది.</w>": 8341,
  "ోత్ర": 8342,
  "ోత్రి,</w>": 8343,
  "ోక్ష": 8344,
  "ోక్ష</w>": 8345,
  "ోంది.</w>": 8346,
  "ో,</w>": 8347,
  "ొమ్మ.</w>": 8348,
  "ైనె": 8349,
  "ైనెర్</w>": 8350,
  "ైనప్పటికీ,</w>": 8351,
  "ైనది.</w>": 8352,
  "ైనంద": 8353,
  "ైనందిన</w>": 8354,
  "ైస్త": 8355,
  "ైస్తవ": 8356,
  "ైస్తవులు</w>": 8357,
  "ైలో</w>": 8358,
  "ైటె": 8359,
  "ైటెడ": 8360,
  "ైటెడ్</w>": 8361,
  "ైక</w>": 8362,
  "ేష్</w>": 8363,
  "ేమాత": 8364,
  "ేమాతరం": 8365,
  "ేమాతరం...": 8366,
  "ేమాతరం....</w>": 8367,
  "ేధం,</w>": 8368,
  "ేట్</w>": 8369,
  "ేకమైన</w>": 8370,
  "ేయు": 8371,
  "ేయులు": 8372,
  "ేయులు)</w>": 8373,
  "ేనన": 8374,
  "ేననీ</w>": 8375,
  "ేతర</w>": 8376,
  "ేత</w>": 8377,
  "ేకాగా</w>": 8378,
  "ే:</w>": 8379,
  "ే...": 8380,
  "ే...).</w>": 8381,
  "ే,</w>": 8382,
  "ే),</w>": 8383,
  "ెల్</w>": 8384,
  "ెలు</w>": 8385,
  "ెబియ": 8386,
  "ెబియస్</w>": 8387,
  "ెనే</w>": 8388,
  "ెట్రోపాలిటన్</w>": 8389,
  "ెల్": 8390,
  "ెల్లోని</w>": 8391,
  "ెలు.</w>": 8392,
  "ెల</w>": 8393,
  "ెడ్": 8394,
  "ెడ్,</w>": 8395,
  "ె,</w>": 8396,
  "ృహాలు,</w>": 8397,
  "ృత్య</w>": 8398,
  "ృతంగా</w>": 8399,
  "ూరత్</w>": 8400,
  "ూపబ": 8401,
  "ూపబడి": 8402,
  "ూపబడింది</w>": 8403,
  "ూనే</w>": 8404,
  "ూడా</w>": 8405,
  "ూటనల": 8406,
  "ూటనలబై": 8407,
  "ూటనలబైరెండు": 8408,
  "ూటనలబైరెండుకోట్లకు</w>": 8409,
  "ూలా": 8410,
  "ూలాదాయంలో</w>": 8411,
  "ూపం": 8412,
  "ూపం,</w>": 8413,
  "ువుల": 8414,
  "ువులైనప్పటికీ,</w>": 8415,
  "ుళూరు</w>": 8416,
  "ుల్స్</w>": 8417,
  "ుల్తానులు,</w>": 8418,
  "ులి</w>": 8419,
  "ులా</w>": 8420,
  "ులలో</w>": 8421,
  "ులచే</w>": 8422,
  "ులకాల": 8423,
  "ులకాలం</w>": 8424,
  "ురాలు.</w>": 8425,
  "ునైటెడ్</w>": 8426,
  "ునిక</w>": 8427,
  "ుని</w>": 8428,
  "ుట్‌బాల్‌</w>": 8429,
  "ుటచే</w>": 8430,
  "ుగల్": 8431,
  "ుగల్,</w>": 8432,
  "ుక్యులు,</w>": 8433,
  "ు.ప్రస్తుతము</w>": 8434,
  "ు,భాష": 8435,
  "ు,భాషలు,</w>": 8436,
  "ువు": 8437,
  "ువు:</w>": 8438,
  "ువల్ల</w>": 8439,
  "ులో</w>": 8440,
  "ుపూర్": 8441,
  "ుపూర్వో": 8442,
  "ుపూర్వోత్": 8443,
  "ుపూర్వోత్తర": 8444,
  "ుపూర్వోత్తరాలు</w>": 8445,
  "ుకుంట": 8446,
  "ుకుంటోంది.</w>": 8447,
  "ుకు": 8448,
  "ుకున్నాయి.</w>": 8449,
  "ీలతో</w>": 8450,
  "ీర,</w>": 8451,
  "ీయవాదం</w>": 8452,
  "ీనోద్యమంలో</w>": 8453,
  "ీనికి</w>": 8454,
  "ీనములో</w>": 8455,
  "ీనంలో</w>": 8456,
  "ీనం</w>": 8457,
  "ీతులు</w>": 8458,
  "ీతల</w>": 8459,
  "ీకులు</w>": 8460,
  "ీకి</w>": 8461,
  "ీ,పాండ": 8462,
  "ీ,పాండి": 8463,
  "ీ,పాండిచ్": 8464,
  "ీ,పాండిచ్చే": 8465,
  "ీ,పాండిచ్చేరి": 8466,
  "ీ,పాండిచ్చేరి,</w>": 8467,
  "ీయా": 8468,
  "ీయాదాయంలో</w>": 8469,
  "ీకృ": 8470,
  "ీకృత": 8471,
  "ీకృతమై</w>": 8472,
  "ీకర": 8473,
  "ీకరణ</w>": 8474,
  "ిశ్రామిక</w>": 8475,
  "ివర్ణ</w>": 8476,
  "ివర్గ": 8477,
  "ివర్గం</w>": 8478,
  "ిల్లీ-దండ": 8479,
  "ిల్లీ-దండా": 8480,
  "ిల్లీ-దండా)</w>": 8481,
  "ిల్లిన</w>": 8482,
  "ిల్లా</w>": 8483,
  "ిలేట్</w>": 8484,
  "ిలాగ": 8485,
  "ిలాగృహాలు,</w>": 8486,
  "ిరా</w>": 8487,
  "ిరమైన</w>": 8488,
  "ియాలో</w>": 8489,
  "ియనులు,</w>": 8490,
  "ినేత</w>": 8491,
  "ినెస్</w>": 8492,
  "ిని</w>": 8493,
  "ినహ": 8494,
  "ినహాయ": 8495,
  "ినహాయించి,</w>": 8496,
  "ిత్ర,</w>": 8497,
  "ిత్యం</w>": 8498,
  "ితమై</w>": 8499,
  "ితం,</w>": 8500,
  "ిగమ": 8501,
  "ిగమించి</w>": 8502,
  "ికేననీ</w>": 8503,
  "ికులు</w>": 8504,
  "ికుల</w>": 8505,
  "ికికి</w>": 8506,
  "ికి,</w>": 8507,
  "ికమైనది.</w>": 8508,
  "ికమైన</w>": 8509,
  "ికం,</w>": 8510,
  "ింపిక్‌</w>": 8511,
  "ింపబడ": 8512,
  "ింపబడి</w>": 8513,
  "ించుకోవడ": 8514,
  "ించుకోవడాన": 8515,
  "ించుకోవడానికి,</w>": 8516,
  "ించుకోవచ్": 8517,
  "ించుకోవచ్చని</w>": 8518,
  "ించినవే.</w>": 8519,
  "ించినంద": 8520,
  "ించినందువల్ల</w>": 8521,
  "ించిపె": 8522,
  "ించిపెట్ట": 8523,
  "ించిపెట్టార": 8524,
  "ించిపెట్టారు.ప్రస్తుతము</w>": 8525,
  "ించాలని</w>": 8526,
  "ించబడింది.</w>": 8527,
  "ించలే": 8528,
  "ించలేదు": 8529,
  "ించలేదు.</w>": 8530,
  "ింస": 8531,
  "ింసాయుత</w>": 8532,
  "ింబె": 8533,
  "ింబెట": 8534,
  "ింబెట్కా</w>": 8535,
  "ించా": 8536,
  "ించాము.</w>": 8537,
  "ింగ్": 8538,
  "ింగ్డమ": 8539,
  "ింగ్డమ్</w>": 8540,
  "ి.పూ.</w>": 8541,
  "ి.ఢాకా-ఢిల్లీ-లాహో": 8542,
  "ి.ఢాకా-ఢిల్లీ-లాహోర్‌": 8543,
  "ి.ఢాకా-ఢిల్లీ-లాహోర్‌ల</w>": 8544,
  "ిస్తారు.</w>": 8545,
  "ిస్": 8546,
  "ిస్టా": 8547,
  "ిస్టాట": 8548,
  "ిస్టాటస్": 8549,
  "ిస్టాటస్.</w>": 8550,
  "ిళ్": 8551,
  "ిళ్ళ</w>": 8552,
  "ియా": 8553,
  "ియా,</w>": 8554,
  "ిపేర్లు</w>": 8555,
  "ిపి": 8556,
  "ిపిత</w>": 8557,
  "ిత్వ</w>": 8558,
  "ి:</w>": 8559,
  "ాసెస్</w>": 8560,
  "ాశ్రయాలు</w>": 8561,
  "ాళాఖ": 8562,
  "ాళాఖాతం</w>": 8563,
  "ాల్లో": 8564,
  "ాల్లోన": 8565,
  "ాల్లోనూ</w>": 8566,
  "ాల్దీ": 8567,
  "ాల్దీవులు,</w>": 8568,
  "ాలెక్క": 8569,
  "ాలెక్కను": 8570,
  "ాలెక్కనుంది.</w>": 8571,
  "ాలుగా,</w>": 8572,
  "ాల్యంలో</w>": 8573,
  "ాలోయ</w>": 8574,
  "ాలేకాగా</w>": 8575,
  "ాలే.</w>": 8576,
  "ాలు,భాషలు,</w>": 8577,
  "ాలాలు,</w>": 8578,
  "ాలలోను</w>": 8579,
  "ాలర్": 8580,
  "ాలర్లు.</w>": 8581,
  "ాలపై</w>": 8582,
  "ాలన్నీ</w>": 8583,
  "ాలకూ</w>": 8584,
  "ారు,</w>": 8585,
  "ార్లలో</w>": 8586,
  "ార్థాలు,</w>": 8587,
  "ార్క్‌టికాలో</w>": 8588,
  "ార్</w>": 8589,
  "ారాల</w>": 8590,
  "ారమ": 8591,
  "ారమ్‌,</w>": 8592,
  "ారతమ": 8593,
  "ారతమ్యాలున్నాయి.</w>": 8594,
  "ారణంగా</w>": 8595,
  "ాయిలో</w>": 8596,
  "ాయిడ్": 8597,
  "ాయిడ్స్</w>": 8598,
  "ాయీలు</w>": 8599,
  "ాయని</w>": 8600,
  "ాయతి</w>": 8601,
  "ాయణం</w>": 8602,
  "ాయకార": 8603,
  "ాయకారిగా</w>": 8604,
  "ాయం</w>": 8605,
  "ాయ\",</w>": 8606,
  "ాబల": 8607,
  "ాబల్యం</w>": 8608,
  "ానే</w>": 8609,
  "ానెట్</w>": 8610,
  "ానాలతో</w>": 8611,
  "ానప": 8612,
  "ానపద</w>": 8613,
  "ానంతో</w>": 8614,
  "ానం:</w>": 8615,
  "ాన,</w>": 8616,
  "ాతృ</w>": 8617,
  "ాతి</w>": 8618,
  "ాతథ</w>": 8619,
  "ాడ్‌గేజి</w>": 8620,
  "ాన్ని</w>": 8621,
  "ానిస్తాన్</w>": 8622,
  "ాంత": 8623,
  "ాంతి,</w>": 8624,
  "హొలీ": 8625,
  "హొలీ,</w>": 8626,
  "హైదరాబాద్": 8627,
  "హైదరాబాద్,</w>": 8628,
  "హైదరాబాదు</w>": 8629,
  "హైకోర్టులు</w>": 8630,
  "హిమాలయ": 8631,
  "హిమాలయాలు,</w>": 8632,
  "హిందూస్తాన్</w>": 8633,
  "హిందూస్త": 8634,
  "హిందూస్తానీ</w>": 8635,
  "హిందూదేశం": 8636,
  "హిందూదేశం,</w>": 8637,
  "హిందూ,</w>": 8638,
  "హిందువులైనప్పటికీ,</w>": 8639,
  "హిందీ</w>": 8640,
  "హిందీ;</w>": 8641,
  "హిందీ,</w>": 8642,
  "హిస్తాయి.</w>": 8643,
  "హిరంగ": 8644,
  "హిరంగంగా</w>": 8645,
  "హాస": 8646,
  "హాసాలపై</w>": 8647,
  "హాకీ": 8648,
  "హాకీలో</w>": 8649,
  "హాక": 8650,
  "హాకీ</w>": 8651,
  "హనాలు</w>": 8652,
  "హ్రాన్-ఇస్తాంబుల్</w>": 8653,
  "హ్మపుత్ర,</w>": 8654,
  "హ్నాలు</w>": 8655,
  "హెబియస్</w>": 8656,
  "హా</w>": 8657,
  "హస్": 8658,
  "హస్త</w>": 8659,
  "హర్": 8660,
  "హర్గ": 8661,
  "హర్గర్,</w>": 8662,
  "హపు</w>": 8663,
  "హక్క": 8664,
  "హక్కులకు</w>": 8665,
  "స్వీకార": 8666,
  "స్వీకారం</w>": 8667,
  "స్వీకర": 8668,
  "స్వీకరించింది.</w>": 8669,
  "స్వామ్య,</w>": 8670,
  "స్వాతంత్ర్యానికి</w>": 8671,
  "స్వాము": 8672,
  "స్వాములు.</w>": 8673,
  "స్వాధ": 8674,
  "స్వాధీనం</w>": 8675,
  "స్వతంత్ర": 8676,
  "స్వతంత్రం</w>": 8677,
  "స్వతం</w>": 8678,
  "స్లామ": 8679,
  "స్లామ్</w>": 8680,
  "స్యం</w>": 8681,
  "స్థానే...).</w>": 8682,
  "స్థానిక</w>": 8683,
  "స్థానాలు</w>": 8684,
  "స్థానమైన</w>": 8685,
  "స్థానంలో,</w>": 8686,
  "స్థానం.</w>": 8687,
  "స్థాప": 8688,
  "స్థాపక</w>": 8689,
  "స్థూలాదాయంలో</w>": 8690,
  "స్థిరమైన</w>": 8691,
  "స్థాయిలో</w>": 8692,
  "స్థలు</w>": 8693,
  "స్తులు.</w>": 8694,
  "స్తున్నారు.</w>": 8695,
  "స్తున్నది.</w>": 8696,
  "స్తుంది.</w>": 8697,
  "స్తుంద": 8698,
  "స్తుందని</w>": 8699,
  "స్తాన్‌కు</w>": 8700,
  "స్తాన్తో</w>": 8701,
  "స్తామన": 8702,
  "స్తామని</w>": 8703,
  "స్తాన్,</w>": 8704,
  "స్తృతంగా</w>": 8705,
  "స్తులు</w>": 8706,
  "స్తారు,</w>": 8707,
  "స్టలు</w>": 8708,
  "స్సా": 8709,
  "స్సామీ": 8710,
  "స్సామీ;</w>": 8711,
  "స్వే": 8712,
  "స్వేచ్": 8713,
  "స్వేచ్ఛ": 8714,
  "స్వేచ్ఛాయుత</w>": 8715,
  "స్వర్": 8716,
  "స్వర్ణ</w>": 8717,
  "స్వర": 8718,
  "స్వరూపం,</w>": 8719,
  "స్వ": 8720,
  "స్వతం,</w>": 8721,
  "స్లో</w>": 8722,
  "స్లే": 8723,
  "స్లేచ": 8724,
  "స్లేచర్,</w>": 8725,
  "స్యత": 8726,
  "స్యత,</w>": 8727,
  "స్య</w>": 8728,
  "స్తూ": 8729,
  "స్తూ,</w>": 8730,
  "స్టే": 8731,
  "స్టేట": 8732,
  "స్టేటాయిడ్స్</w>": 8733,
  "స్,": 8734,
  "స్,మహ": 8735,
  "స్,మహేష్</w>": 8736,
  "సౌకర్యము.</w>": 8737,
  "సౌకర్": 8738,
  "సౌకర్యవ": 8739,
  "సౌకర్యవంత": 8740,
  "సౌకర్యవంతంగా,</w>": 8741,
  "సైనా</w>": 8742,
  "సైతం</w>": 8743,
  "సైట్లు</w>": 8744,
  "సేవ</w>": 8745,
  "సెర్": 8746,
  "సెర్టి": 8747,
  "సెర్టియ": 8748,
  "సెర్టియోరారి</w>": 8749,
  "సూచన": 8750,
  "సూచనలు,</w>": 8751,
  "సుమార": 8752,
  "సుమారు</w>": 8753,
  "సుదీ": 8754,
  "సుదీర్": 8755,
  "సుదీర్ఘ</w>": 8756,
  "సుకో": 8757,
  "సుకోవడ": 8758,
  "సుకోవడంతో</w>": 8759,
  "సినిమాలు,</w>": 8760,
  "సిక్కులు</w>": 8761,
  "సిక్కు</w>": 8762,
  "సింధూనదికి</w>": 8763,
  "సింధూనది</w>": 8764,
  "సింధుాలోయ</w>": 8765,
  "సింధులోయ</w>": 8766,
  "సింహపు</w>": 8767,
  "సింధ్": 8768,
  "సింధ్;</w>": 8769,
  "సింధ": 8770,
  "సింధు</w>": 8771,
  "సివ": 8772,
  "సివస్తుందని</w>": 8773,
  "సిన</w>": 8774,
  "సిద్ధం</w>": 8775,
  "సిద్ధ": 8776,
  "సిద్ధించింది.</w>": 8777,
  "సిగ": 8778,
  "సిగ్నలు:</w>": 8779,
  "సింద": 8780,
  "సింది.ఢాకా-ఢిల్లీ-లాహోర్‌ల</w>": 8781,
  "సాహిత్యం</w>": 8782,
  "సాహంగా,</w>": 8783,
  "సార్క్</w>": 8784,
  "సారిగా</w>": 8785,
  "సారాల</w>": 8786,
  "సారస్వతం</w>": 8787,
  "సారస్వతం,</w>": 8788,
  "సారవ": 8789,
  "సారవంత": 8790,
  "సారవంతమైన</w>": 8791,
  "సామ్రాజ్యాలు</w>": 8792,
  "సామ్రాజ్యం</w>": 8793,
  "సామ్రాజ్యం,</w>": 8794,
  "సామ్రాజ్య</w>": 8795,
  "సాధించగా,</w>": 8796,
  "సాధించగ": 8797,
  "సాధించగలి": 8798,
  "సాధించగలిగ": 8799,
  "సాధించగలిగినది.</w>": 8800,
  "సాధించిపెట్టారు.ప్రస్తుతము</w>": 8801,
  "సాధించింది.</w>": 8802,
  "సాధించాము.</w>": 8803,
  "సాధారణంగా</w>": 8804,
  "సాంప్రదాయికమైన</w>": 8805,
  "సాంప్రదాయ</w>": 8806,
  "సాఫ": 8807,
  "సాఫ్ట్‌వేర్,</w>": 8808,
  "సాని": 8809,
  "సానియ": 8810,
  "సానియా</w>": 8811,
  "సాగు": 8812,
  "సాగుతో": 8813,
  "సాగుతోంది.</w>": 8814,
  "సాక": 8815,
  "సాకర్‌": 8816,
  "సాకర్‌)</w>": 8817,
  "సాంఘ": 8818,
  "సాంఘిక,</w>": 8819,
  "సహస్రాబ్ది</w>": 8820,
  "సహస్రాబ్ది": 8821,
  "సహస్రాబ్దిలో</w>": 8822,
  "సహాయకారిగా</w>": 8823,
  "సలహా</w>": 8824,
  "సర్వీసును</w>": 8825,
  "సర్వస": 8826,
  "సర్వసత్తా": 8827,
  "సర్వసత్తాక": 8828,
  "సర్వసత్తాక,</w>": 8829,
  "సరిహద్దులు</w>": 8830,
  "సరిహద్దులలో</w>": 8831,
  "సరిహద్దులను</w>": 8832,
  "సరిహద్దు</w>": 8833,
  "సరిహద్దు": 8834,
  "సరిహద్దున</w>": 8835,
  "సరిస్తూ,</w>": 8836,
  "సరమై": 8837,
  "సరమైత": 8838,
  "సరమైతే</w>": 8839,
  "సరఫర": 8840,
  "సరఫరా</w>": 8841,
  "సముద్రతీరమ": 8842,
  "సముద్రతీరము</w>": 8843,
  "సముద్రతీరం</w>": 8844,
  "సముద్రం</w>": 8845,
  "సముచి": 8846,
  "సముచిత</w>": 8847,
  "సమాఖ్యలు</w>": 8848,
  "సమాజమ": 8849,
  "సమాజము</w>": 8850,
  "సమాజం": 8851,
  "సమాజం.</w>": 8852,
  "సమాచార": 8853,
  "సమాచారం</w>": 8854,
  "సమష్ట": 8855,
  "సమష్టి</w>": 8856,
  "సమశీ": 8857,
  "సమశీతో": 8858,
  "సమశీతోష్ణ</w>": 8859,
  "సమరం</w>": 8860,
  "సమరం": 8861,
  "సమరం)</w>": 8862,
  "సమయం": 8863,
  "సమయంలో,</w>": 8864,
  "సభ్యులను</w>": 8865,
  "సభ్యురాలు.</w>": 8866,
  "సభా</w>": 8867,
  "సభలో</w>": 8868,
  "సత్యజిత్</w>": 8869,
  "సంస్కృతులతో</w>": 8870,
  "సంస్కృతీ": 8871,
  "సంస్కృతీ,</w>": 8872,
  "సంస్కృతి": 8873,
  "సంస్కృతిలో</w>": 8874,
  "సంస్కృతం,</w>": 8875,
  "సంస్కరణలు</w>": 8876,
  "సంస్కరణలత": 8877,
  "సంస్కరణలతో</w>": 8878,
  "సంవత్సరాలలో</w>": 8879,
  "సంవత్సరాల</w>": 8880,
  "సంవత్సరం</w>": 8881,
  "సంవత్సారాల</w>": 8882,
  "సంబంధించిన</w>": 8883,
  "సంబంధాలు</w>": 8884,
  "సంబంధ</w>": 8885,
  "సంప్రదాయాలను</w>": 8886,
  "సంఘర్షణ": 8887,
  "సంఘర్షణలను</w>": 8888,
  "సంఘము.</w>": 8889,
  "సంఘం</w>": 8890,
  "సంగీతము</w>": 8891,
  "సంగీతంలో</w>": 8892,
  "సంగీతం": 8893,
  "సంగీతం.</w>": 8894,
  "సంగీత</w>": 8895,
  "సంగమ</w>": 8896,
  "సంఖ్యాక</w>": 8897,
  "సంఖ్యా</w>": 8898,
  "సంఖ్యలో</w>": 8899,
  "సంకీర్ణం</w>": 8900,
  "సంకీర్ణ</w>": 8901,
  "సంకీర్ణ": 8902,
  "సంకీర్ణాలేకాగా</w>": 8903,
  "సంస్థలు</w>": 8904,
  "సంధి</w>": 8905,
  "సంఘ</w>": 8906,
  "సంక్ర": 8907,
  "సంక్రాంతి,</w>": 8908,
  "సం.</w>": 8909,
  "సే</w>": 8910,
  "సూరత్</w>": 8911,
  "సుల్తానులు,</w>": 8912,
  "సీ</w>": 8913,
  "సీ,</w>": 8914,
  "సాలు</w>": 8915,
  "సవా": 8916,
  "సవాళ్లను</w>": 8917,
  "సల్": 8918,
  "సల్వార": 8919,
  "సల్వార్</w>": 8920,
  "సగా</w>": 8921,
  "సంద": 8922,
  "సందర్": 8923,
  "సందర్శ": 8924,
  "సందర్శించే</w>": 8925,
  "సం</w>": 8926,
  "ష్ట్యా</w>": 8927,
  "ష్టు</w>": 8928,
  "ష్టమైన": 8929,
  "ష్టమైన,</w>": 8930,
  "ష్టం": 8931,
  "ష్టంకాగా</w>": 8932,
  "ష్ట</w>": 8933,
  "ష్పం": 8934,
  "ష్పం:</w>": 8935,
  "షి:</w>": 8936,
  "షా,</w>": 8937,
  "షలు</w>": 8938,
  "షణాలు</w>": 8939,
  "షం:</w>": 8940,
  "షం.</w>": 8941,
  "షం\",</w>": 8942,
  "షేధం,</w>": 8943,
  "షియనులు,</w>": 8944,
  "షాలు</w>": 8945,
  "షకాహార</w>": 8946,
  "శ్వనాథ": 8947,
  "శ్వనాథన్</w>": 8948,
  "శ్వత</w>": 8949,
  "శ్రీశైల": 8950,
  "శ్రీశైలస్య</w>": 8951,
  "శ్రీలంక": 8952,
  "శ్రీలంక,</w>": 8953,
  "శ్రీరా": 8954,
  "శ్రీరామన": 8955,
  "శ్రీరామనవ": 8956,
  "శ్రీరామనవమి": 8957,
  "శ్రీరామనవమి,</w>": 8958,
  "శ్రద్ధ": 8959,
  "శ్రద్ధలతో,</w>": 8960,
  "శ్వా": 8961,
  "శ్వామ": 8962,
  "శ్వామిత్ర,</w>": 8963,
  "శ్లో": 8964,
  "శ్లోకాల": 8965,
  "శ్లోకాలతో</w>": 8966,
  "శ్,</w>": 8967,
  "శోకు": 8968,
  "శోకుడు</w>": 8969,
  "శైలీ</w>": 8970,
  "శేషం.</w>": 8971,
  "శెలవ": 8972,
  "శెలవు</w>": 8973,
  "శిష్ట</w>": 8974,
  "శిల్": 8975,
  "శిల్పక": 8976,
  "శిల్పకళ</w>": 8977,
  "శాస్త్రం</w>": 8978,
  "శాఖపట": 8979,
  "శాఖపట్నం</w>": 8980,
  "శాఖకు</w>": 8981,
  "శాశ్వత</w>": 8982,
  "శాకాహార</w>": 8983,
  "శరద్": 8984,
  "శరద్</w>": 8985,
  "శతాబ్దం": 8986,
  "శతాబ్దం,</w>": 8987,
  "శక్తులు": 8988,
  "శక్తులు;</w>": 8989,
  "శక్తిగా</w>": 8990,
  "శకుడైన</w>": 8991,
  "శకుంత": 8992,
  "శకుంతల</w>": 8993,
  "శంలోని</w>": 8994,
  "శోధనా</w>": 8995,
  "శీతల</w>": 8996,
  "శిలాగృహాలు,</w>": 8997,
  "శాల్యంలో</w>": 8998,
  "శాతం</w>": 8999,
  "శక</w>": 9000,
  "వ్యాపారవే": 9001,
  "వ్యాపారవేత్": 9002,
  "వ్యాపారవేత్త": 9003,
  "వ్యాపారవేత్తల</w>": 9004,
  "వ్యాపారం</w>": 9005,
  "వ్యాపార</w>": 9006,
  "వ్యవస్థీకరణ</w>": 9007,
  "వ్యవస్థలోని</w>": 9008,
  "వ్యవస్థల</w>": 9009,
  "వ్యవస్థగా</w>": 9010,
  "వ్యవస్థకు</w>": 9011,
  "వ్యవస్థకు,</w>": 9012,
  "వ్యవస్థ,</w>": 9013,
  "వ్యవస్థ)</w>": 9014,
  "వ్య‌వ‌స్థ‌</w>": 9015,
  "వ్యవహ": 9016,
  "వ్యవహారాల</w>": 9017,
  "వ్యవస": 9018,
  "వ్యవసాయం</w>": 9019,
  "వ్యయ": 9020,
  "వ్యయంతో</w>": 9021,
  "వైవిధ్యమైనది.</w>": 9022,
  "వైవిధ్యమైన": 9023,
  "వైవిధ్యమైనవి.</w>": 9024,
  "వైవిధ్యం</w>": 9025,
  "వైశాల్యంలో</w>": 9026,
  "వైపో": 9027,
  "వైపోతు": 9028,
  "వైపోతున్న": 9029,
  "వైపోతున్నప్పటికీ,</w>": 9030,
  "వైపా": 9031,
  "వైపాక్ష": 9032,
  "వైపాక్షిక</w>": 9033,
  "వైప": 9034,
  "వైపులా</w>": 9035,
  "వైన</w>": 9036,
  "వేదాలు,</w>": 9037,
  "వేదాలలో</w>": 9038,
  "వేరత": 9039,
  "వేరతాయని</w>": 9040,
  "వెల్లూరు</w>": 9041,
  "వెల్లడ": 9042,
  "వెల్లడించింది.</w>": 9043,
  "వెబ్</w>": 9044,
  "వెలు": 9045,
  "వెలుపల": 9046,
  "వెలుపలి</w>": 9047,
  "వెబ్": 9048,
  "వెబ్సైట్లు</w>": 9049,
  "వృక్": 9050,
  "వృక్షం:</w>": 9051,
  "వూపి": 9052,
  "వూపింది.</w>": 9053,
  "వున్": 9054,
  "వున్నా,</w>": 9055,
  "వుంట": 9056,
  "వుంటుంది.</w>": 9057,
  "వీంద్ర": 9058,
  "వీంద్రనాథ": 9059,
  "వీంద్రనాథ్</w>": 9060,
  "విస్తీర్ణం</w>": 9061,
  "విస్తీర్ణ": 9062,
  "విస్తీర్ణంతో</w>": 9063,
  "విస్తర": 9064,
  "విస్తరించిన</w>": 9065,
  "విలువైన</w>": 9066,
  "విలువల": 9067,
  "విలువలను</w>": 9068,
  "విధించిన</w>": 9069,
  "విధి</w>": 9070,
  "విధానాలతో</w>": 9071,
  "విధంగా</w>": 9072,
  "విద్యను</w>": 9073,
  "విస్తృతంగా</w>": 9074,
  "విసభా</w>": 9075,
  "విశ్వామిత్ర,</w>": 9076,
  "విశ్వనాథన్</w>": 9077,
  "విశేషం.</w>": 9078,
  "విశిష్ట</w>": 9079,
  "విశాఖపట్నం</w>": 9080,
  "వివాదం</w>": 9081,
  "వివరాలు</w>": 9082,
  "విల్ల": 9083,
  "విల్లాయి.</w>": 9084,
  "విర్": 9085,
  "విర్భవ": 9086,
  "విర్భవించింది.</w>": 9087,
  "విమాన</w>": 9088,
  "విమాన": 9089,
  "విమానాశ్రయాలు</w>": 9090,
  "విభజ": 9091,
  "విభజితమై</w>": 9092,
  "విఫ": 9093,
  "విఫల</w>": 9094,
  "వినాయ": 9095,
  "వినాయక</w>": 9096,
  "వితంలో</w>": 9097,
  "విడి": 9098,
  "విడిపోయింది.</w>": 9099,
  "విజ్": 9100,
  "విజ్ఞా": 9101,
  "విజ్ఞాన</w>": 9102,
  "విజ": 9103,
  "విజన్</w>": 9104,
  "వింద్</w>": 9105,
  "వి).</w>": 9106,
  "వాహనం": 9107,
  "వాహనంలో</w>": 9108,
  "వాహక</w>": 9109,
  "వారసత్వానికి</w>": 9110,
  "వారసత్వంగా</w>": 9111,
  "వారసత్వ</w>": 9112,
  "వారసత్": 9113,
  "వారసత్వా": 9114,
  "వారసత్వాన్ని": 9115,
  "వారసత్వాన్ని,</w>": 9116,
  "వారు</w>": 9117,
  "వారిస్తారు.</w>": 9118,
  "వారిగా</w>": 9119,
  "వారి</w>": 9120,
  "వారంట": 9121,
  "వారంటో,</w>": 9122,
  "వాణిజ్యపరంగా</w>": 9123,
  "వాహనాలు</w>": 9124,
  "వాసాలు</w>": 9125,
  "వాన</w>": 9126,
  "వాద</w>": 9127,
  "వాద": 9128,
  "వాదన</w>": 9129,
  "వాటిలో</w>": 9130,
  "వాటి": 9131,
  "వాటిల్ల": 9132,
  "వాటిల్లింది.</w>": 9133,
  "వహించే</w>": 9134,
  "వహించింది.</w>": 9135,
  "వహించి</w>": 9136,
  "వహర్": 9137,
  "వహర్‌లాల్</w>": 9138,
  "వలెనే</w>": 9139,
  "వలి</w>": 9140,
  "వర్గాలు</w>": 9141,
  "వర్గాలలోను</w>": 9142,
  "వర్షాలు</w>": 9143,
  "వర్షం\",</w>": 9144,
  "వర్ధ": 9145,
  "వర్ధిల్లిన</w>": 9146,
  "వర్తి</w>": 9147,
  "వర్తి": 9148,
  "వర్తిత్వ": 9149,
  "వర్తిత్వం</w>": 9150,
  "వర్ణ": 9151,
  "వర్ణించబడింది.</w>": 9152,
  "వర్గీ": 9153,
  "వర్గీకరణ": 9154,
  "వర్గీకరణలో</w>": 9155,
  "వరోధాల</w>": 9156,
  "వరలోనే</w>": 9157,
  "వరకూ</w>": 9158,
  "వన్యప్రాణుల</w>": 9159,
  "వత్‌</w>": 9160,
  "వతాలతో</w>": 9161,
  "వజ్రాలు,</w>": 9162,
  "వచ్చినవ": 9163,
  "వచ్చినవారి</w>": 9164,
  "వచ్చిన": 9165,
  "వచ్చినది": 9166,
  "వచ్చినది,</w>": 9167,
  "వచ్చి,</w>": 9168,
  "వచ్చు.</w>": 9169,
  "వంటలు</w>": 9170,
  "వంటలకు</w>": 9171,
  "వంటక": 9172,
  "వంటకాలు</w>": 9173,
  "వంట</w>": 9174,
  "వంశంలోని</w>": 9175,
  "వం,</w>": 9176,
  "వైనది.</w>": 9177,
  "వుని</w>": 9178,
  "వహిస్తాయి.</w>": 9179,
  "వల</w>": 9180,
  "వరు": 9181,
  "వరుసగా</w>": 9182,
  "వరి.</w>": 9183,
  "వద్": 9184,
  "వద్ద</w>": 9185,
  "వదిన": 9186,
  "వదినాలు,</w>": 9187,
  "వంద": 9188,
  "వందేమాతరం....</w>": 9189,
  "వ.</w>": 9190,
  "ళ్ళు</w>": 9191,
  "ళ్ళపాటు</w>": 9192,
  "ళవింపబడి</w>": 9193,
  "ళ్ల</w>": 9194,
  "ళుక్యులు,</w>": 9195,
  "ళికలు</w>": 9196,
  "ళనా": 9197,
  "ళనాడుకు</w>": 9198,
  "ల్లయి": 9199,
  "ల్లయిన</w>": 9200,
  "ల్పం</w>": 9201,
  "ల్ప</w>": 9202,
  "ల్లు.</w>": 9203,
  "లౌకిక</w>": 9204,
  "లౌకిక,</w>": 9205,
  "లోక్‌సభలో</w>": 9206,
  "లోక్‌సభ</w>": 9207,
  "లోప": 9208,
  "లోపం</w>": 9209,
  "లోన్": 9210,
  "లోన్ల": 9211,
  "లోన్లీ</w>": 9212,
  "లోను": 9213,
  "లోను,</w>": 9214,
  "లోచ": 9215,
  "లోచన</w>": 9216,
  "లోక": 9217,
  "లోకి</w>": 9218,
  "లో)</w>": 9219,
  "లేని": 9220,
  "లేనివి.</w>": 9221,
  "లేదు</w>": 9222,
  "లెజి": 9223,
  "లెజిస్లేచర్,</w>": 9224,
  "లెక్": 9225,
  "లెక్కల": 9226,
  "లెక్కలు</w>": 9227,
  "లెంద": 9228,
  "లెందర": 9229,
  "లెందరో</w>": 9230,
  "లుగుత": 9231,
  "లుగుతాయి.</w>": 9232,
  "లుపుతూ</w>": 9233,
  "లిసింది.</w>": 9234,
  "లివిజన్</w>": 9235,
  "లియా": 9236,
  "లియాండ": 9237,
  "లియాండర్</w>": 9238,
  "లిపావ": 9239,
  "లిపావో</w>": 9240,
  "లిన</w>": 9241,
  "లిథ": 9242,
  "లిథిక్</w>": 9243,
  "లితంగా</w>": 9244,
  "లిచిన</w>": 9245,
  "లిచింది.</w>": 9246,
  "లిచ": 9247,
  "లిచారు.</w>": 9248,
  "లి;</w>": 9249,
  "లాభ": 9250,
  "లాభదాయ": 9251,
  "లాభదాయక": 9252,
  "లాభదాయకమే": 9253,
  "లాభదాయకమేన": 9254,
  "లాభదాయకమేననీ": 9255,
  "లాభదాయకమేననీ,</w>": 9256,
  "లాంట": 9257,
  "లాంటి</w>": 9258,
  "లమానం:</w>": 9259,
  "లభ్యమైన</w>": 9260,
  "లపై</w>": 9261,
  "లఘు</w>": 9262,
  "లక్షల</w>": 9263,
  "లక్షణా": 9264,
  "లక్షణాన్ని</w>": 9265,
  "లక్ష.</w>": 9266,
  "లకత్తా": 9267,
  "లకత్తా),</w>": 9268,
  "లంకెలు</w>": 9269,
  "లంపు": 9270,
  "లంపుతో</w>": 9271,
  "లంకార": 9272,
  "లంకార</w>": 9273,
  "లం:</w>": 9274,
  "లికేననీ</w>": 9275,
  "లాలు</w>": 9276,
  "లబె": 9277,
  "లబెట్ట": 9278,
  "లబెట్టుకున్నాయి.</w>": 9279,
  "లక్": 9280,
  "లక్షణాలు</w>": 9281,
  "ల,</w>": 9282,
  "ర‌వాణా</w>": 9283,
  "ర్షణను</w>": 9284,
  "ర్తా</w>": 9285,
  "ర్శకుడైన</w>": 9286,
  "ర్వ్యవస్థీకరణ</w>": 9287,
  "ర్యమ": 9288,
  "ర్యము</w>": 9289,
  "ర్దూ": 9290,
  "ర్దూ;</w>": 9291,
  "ర్ణా": 9292,
  "ర్ణాటక</w>": 9293,
  "ర్జె": 9294,
  "ర్జెన్": 9295,
  "ర్జెన్సీ</w>": 9296,
  "ర్జాలు</w>": 9297,
  "ర్చు": 9298,
  "ర్చుతో</w>": 9299,
  "ర్చిన</w>": 9300,
  "ర్చ": 9301,
  "ర్చుగల్,</w>": 9302,
  "ర్కొ": 9303,
  "ర్కొంటు": 9304,
  "ర్కొంటున్నది.</w>": 9305,
  "ర్).</w>": 9306,
  "రోడ్డుకు</w>": 9307,
  "రోడ": 9308,
  "రోడ్ల</w>": 9309,
  "రోః</w>": 9310,
  "రొట్ట": 9311,
  "రొట్టెల</w>": 9312,
  "రైల్వేశాఖకు</w>": 9313,
  "రైల్వేశాఖ</w>": 9314,
  "రైళ్ల</w>": 9315,
  "రైలు.</w>": 9316,
  "రేబ": 9317,
  "రేబియా</w>": 9318,
  "రెండువైపులా</w>": 9319,
  "రెండోది.</w>": 9320,
  "రెండో</w>": 9321,
  "రెన్న": 9322,
  "రెన్నో</w>": 9323,
  "రూపాంతరం</w>": 9324,
  "రూపాంతర": 9325,
  "రూపాంతరమే.</w>": 9326,
  "రూపొంద": 9327,
  "రూపొందింది.</w>": 9328,
  "రూపం": 9329,
  "రూపంలో)</w>": 9330,
  "రుష్కుల</w>": 9331,
  "రునా": 9332,
  "రునామ": 9333,
  "రునామాలు</w>": 9334,
  "రుదుగా</w>": 9335,
  "రుచు": 9336,
  "రుచులు,</w>": 9337,
  "రుగా</w>": 9338,
  "రు,</w>": 9339,
  "రీ;</w>": 9340,
  "రిస్తారు</w>": 9341,
  "రియా": 9342,
  "రియా;</w>": 9343,
  "రిట్లు</w>": 9344,
  "రిట్ల": 9345,
  "రిట్లలో</w>": 9346,
  "రిగా</w>": 9347,
  "రిగ": 9348,
  "రిగే</w>": 9349,
  "రాష్ట్రపతులు</w>": 9350,
  "రాష్ట్రపతి,</w>": 9351,
  "రాష్ట్రపతి": 9352,
  "రాష్ట్రపతిచే</w>": 9353,
  "రాష్ట్రాలుగా,</w>": 9354,
  "రాష్ట్రాలు:</w>": 9355,
  "రాష్ట్రానికి</w>": 9356,
  "రాష్ట్రపు</w>": 9357,
  "రాజ్యాంగ</w>": 9358,
  "రాజ్యాలను</w>": 9359,
  "రాజకీయాల్లో</w>": 9360,
  "రాజకీయాలు</w>": 9361,
  "రాజు.</w>": 9362,
  "రాజయ": 9363,
  "రాజయం</w>": 9364,
  "రాజధాన": 9365,
  "రాజధానులు,</w>": 9366,
  "రాసిన</w>": 9367,
  "రాయల": 9368,
  "రాయల్</w>": 9369,
  "రామ": 9370,
  "రామాయణం</w>": 9371,
  "రాతి": 9372,
  "రాతియుగ": 9373,
  "రాతియుగపు</w>": 9374,
  "రాణ": 9375,
  "రాణించలేదు.</w>": 9376,
  "రాఠ": 9377,
  "రాఠీ;</w>": 9378,
  "రాటం</w>": 9379,
  "రాచీ": 9380,
  "రాచీ,</w>": 9381,
  "రా.</w>": 9382,
  "రహదారులు</w>": 9383,
  "రహదారులను</w>": 9384,
  "రబద్ధం</w>": 9385,
  "రతవర్షం\",</w>": 9386,
  "రతనా": 9387,
  "రతనాట": 9388,
  "రతనాట్యం,</w>": 9389,
  "రచయితలెందరో</w>": 9390,
  "రచయిత.</w>": 9391,
  "రకాలుగా</w>": 9392,
  "రకాలు.</w>": 9393,
  "రంగాల్లో</w>": 9394,
  "రంగాల</w>": 9395,
  "రంగానికి</w>": 9396,
  "రంగంలో</w>": 9397,
  "రంగం</w>": 9398,
  "రే</w>": 9399,
  "రూ</w>": 9400,
  "రీతులు</w>": 9401,
  "రీ</w>": 9402,
  "రవేరతాయని</w>": 9403,
  "రవీంద్రనాథ్</w>": 9404,
  "రతు": 9405,
  "రతుడు": 9406,
  "రతుడు\".</w>": 9407,
  "రక్షరా": 9408,
  "రక్షరాస్యత,</w>": 9409,
  "రక్ష": 9410,
  "రక్షణ</w>": 9411,
  "రకు,</w>": 9412,
  "ర,</w>": 9413,
  "యోలిథిక్</w>": 9414,
  "యోచన": 9415,
  "యోచనలో</w>": 9416,
  "యూదు": 9417,
  "యూదులు,</w>": 9418,
  "యుగం</w>": 9419,
  "యుద్ధం</w>": 9420,
  "యుద్ధ": 9421,
  "యుద్ధాలు</w>": 9422,
  "యుడైన</w>": 9423,
  "యుక్": 9424,
  "యుక్త</w>": 9425,
  "యు.": 9426,
  "యు.ఏ.": 9427,
  "యు.ఏ.ఇ": 9428,
  "యు.ఏ.ఇ,</w>": 9429,
  "యిస్తారు.</w>": 9430,
  "యింది</w>": 9431,
  "యాత్రికులు</w>": 9432,
  "యాత్రలతో,</w>": 9433,
  "యావత్‌</w>": 9434,
  "యాణ": 9435,
  "యాణికుల</w>": 9436,
  "యాటక</w>": 9437,
  "యథాతథ</w>": 9438,
  "యం:</w>": 9439,
  "యునైటెడ్</w>": 9440,
  "యము": 9441,
  "యమున": 9442,
  "యమున,</w>": 9443,
  "మౌఖ": 9444,
  "మౌఖికమైనది.</w>": 9445,
  "మోన్న": 9446,
  "మోన్నత</w>": 9447,
  "మొదలైనవి</w>": 9448,
  "మొదలైనవి.</w>": 9449,
  "మొదలైనటు": 9450,
  "మొదలైనటువంటి</w>": 9451,
  "మొదలగువారు</w>": 9452,
  "మొదలగున": 9453,
  "మొదలగునవి).</w>": 9454,
  "మొదలవుతుంది.</w>": 9455,
  "మొదటిసారిగా</w>": 9456,
  "మొదటిది</w>": 9457,
  "మొగలు": 9458,
  "మొగలులు</w>": 9459,
  "మొగల": 9460,
  "మొగలు</w>": 9461,
  "మైద": 9462,
  "మైదానంతో</w>": 9463,
  "మైథి": 9464,
  "మైథిలి;</w>": 9465,
  "మైత్ర": 9466,
  "మైత్రి</w>": 9467,
  "మైంది.</w>": 9468,
  "మేళవింపబడి</w>": 9469,
  "మేరోః</w>": 9470,
  "మేరకు,</w>": 9471,
  "మేనక": 9472,
  "మేనకల</w>": 9473,
  "మెహర్గర్,</w>": 9474,
  "మూడే.</w>": 9475,
  "మూడవ</w>": 9476,
  "మూలాలు</w>": 9477,
  "మూల</w>": 9478,
  "ముఖ్యతను</w>": 9479,
  "ముంబైలో</w>": 9480,
  "ముంబాయి</w>": 9481,
  "ములు,</w>": 9482,
  "మురు,</w>": 9483,
  "ముద్ర": 9484,
  "ముద్ర:</w>": 9485,
  "ముత్య": 9486,
  "ముత్యం.</w>": 9487,
  "ముడ్": 9488,
  "ముడ్చుకు": 9489,
  "ముడ్చుకుంది.</w>": 9490,
  "ముంద": 9491,
  "ముందుగా</w>": 9492,
  "మీర్జాలు</w>": 9493,
  "మీదుగా</w>": 9494,
  "మీజ": 9495,
  "మీజ్</w>": 9496,
  "మిస్తున్నాయి.</w>": 9497,
  "మిస్తున్న</w>": 9498,
  "మితో</w>": 9499,
  "మితికి</w>": 9500,
  "మించే": 9501,
  "మించేది</w>": 9502,
  "మించుకు": 9503,
  "మించుకున్నారు.</w>": 9504,
  "మిడి</w>": 9505,
  "మిగి": 9506,
  "మిగిలిన</w>": 9507,
  "మాలిక</w>": 9508,
  "మార్గాలే.</w>": 9509,
  "మార్గాలలో</w>": 9510,
  "మార్గాలను</w>": 9511,
  "మార్గము</w>": 9512,
  "మార్గంలో</w>": 9513,
  "మార్గం</w>": 9514,
  "మారుమూల</w>": 9515,
  "మారుడు": 9516,
  "మారుడు.</w>": 9517,
  "మార్తె</w>": 9518,
  "మార్కెట్</w>": 9519,
  "మార్,</w>": 9520,
  "మారింది.</w>": 9521,
  "మానవుని</w>": 9522,
  "మానం:</w>": 9523,
  "మాన,</w>": 9524,
  "మాట్లాడే</w>": 9525,
  "మాట్లాడే:</w>": 9526,
  "మామిడి</w>": 9527,
  "మాది": 9528,
  "మాదిరిగా</w>": 9529,
  "మాణ</w>": 9530,
  "మాండ": 9531,
  "మాండమ": 9532,
  "మాండమస్,</w>": 9533,
  "మహిళా</w>": 9534,
  "మహిళల</w>": 9535,
  "మహాసముద్రం</w>": 9536,
  "మహాసముద్రం,</w>": 9537,
  "మహాభారతం,</w>": 9538,
  "మసాలాలు,</w>": 9539,
  "మలయాళం;</w>": 9540,
  "మలయాళం,</w>": 9541,
  "మలవుతుంది.</w>": 9542,
  "మలము</w>": 9543,
  "మర్రిచెట్టు.</w>": 9544,
  "మర)</w>": 9545,
  "మయన్": 9546,
  "మయన్మార్,</w>": 9547,
  "మనోరమ</w>": 9548,
  "మనమే</w>": 9549,
  "మనదేశంలో</w>": 9550,
  "మన.</w>": 9551,
  "మధ్యవర్తిత్వం</w>": 9552,
  "మధ్యల,</w>": 9553,
  "మధ్యకాలంలో</w>": 9554,
  "మధ్య,</w>": 9555,
  "మద్రాసు),</w>": 9556,
  "మతాలు</w>": 9557,
  "మతాలు:</w>": 9558,
  "మతాలు,</w>": 9559,
  "మతాలతో</w>": 9560,
  "మతాలకు</w>": 9561,
  "మతాల</w>": 9562,
  "మతస్తులు</w>": 9563,
  "మతములు,</w>": 9564,
  "మతమ": 9565,
  "మతములకు</w>": 9566,
  "మణద": 9567,
  "మణదారులు,</w>": 9568,
  "మంత్రులచే</w>": 9569,
  "మంత్రివర్గం</w>": 9570,
  "మంత్రిత్వ</w>": 9571,
  "మంజ": 9572,
  "మంజూరు</w>": 9573,
  "మ్మదాబాదు</w>": 9574,
  "మెట్రోపాలిటన్</w>": 9575,
  "మూ</w>": 9576,
  "మీ</w>": 9577,
  "మినహాయించి,</w>": 9578,
  "మికి</w>": 9579,
  "మించినందువల్ల</w>": 9580,
  "మించిన</w>": 9581,
  "మాల్దీవులు,</w>": 9582,
  "మాతృ</w>": 9583,
  "మలు,</w>": 9584,
  "మలిపావో</w>": 9585,
  "మరెన్నో</w>": 9586,
  "మరాఠీ;</w>": 9587,
  "మన</w>": 9588,
  "మతిని</w>": 9589,
  "మతం,</w>": 9590,
  "మణి": 9591,
  "మణిపు": 9592,
  "మణిపురి.</w>": 9593,
  "మంత": 9594,
  "మంతట": 9595,
  "మంతటా</w>": 9596,
  "మంచి</w>": 9597,
  "మ.</w>": 9598,
  "భౌత": 9599,
  "భౌతిక,</w>": 9600,
  "భూటాన్</w>": 9601,
  "భూటాన్,</w>": 9602,
  "భూప": 9603,
  "భూపతి,</w>": 9604,
  "భిన్న": 9605,
  "భిన్నత్వ": 9606,
  "భిన్నత్వాలు</w>": 9607,
  "భాషలలోను,</w>": 9608,
  "భాషలతో,</w>": 9609,
  "భాషలు.</w>": 9610,
  "భాష,</w>": 9611,
  "భావిస్తున్నది.</w>": 9612,
  "భావిస్తారు.</w>": 9613,
  "భావిస్తారు,</w>": 9614,
  "భారతీయులు</w>": 9615,
  "భారతీయుల</w>": 9616,
  "భారతీయుడైన</w>": 9617,
  "భారతదేశం,</w>": 9618,
  "భారతదేశం\"</w>": 9619,
  "భారతదేశమే.</w>": 9620,
  "భారతదేశము</w>": 9621,
  "భారత,</w>": 9622,
  "భార‌తంలో</w>": 9623,
  "భార్తదేశపు</w>": 9624,
  "భారతం": 9625,
  "భారతంలో,</w>": 9626,
  "భాగం.</w>": 9627,
  "భాగం,</w>": 9628,
  "భాగస్వాములు.</w>": 9629,
  "భాగమేనని</w>": 9630,
  "భాషా,</w>": 9631,
  "భాజ": 9632,
  "భాజపా</w>": 9633,
  "భాగే": 9634,
  "భాగే,</w>": 9635,
  "భవించినవే.</w>": 9636,
  "భక్తి,</w>": 9637,
  "భక్తి": 9638,
  "భక్తిశ్రద్ధలతో,</w>": 9639,
  "భింబెట్కా</w>": 9640,
  "భరతనాట్యం,</w>": 9641,
  "భంగ": 9642,
  "భంగం</w>": 9643,
  "బ్రిటీష్</w>": 9644,
  "బ్రిటీషు</w>": 9645,
  "బ్రెడ్,</w>": 9646,
  "బ్రాడ్‌గేజి</w>": 9647,
  "బ్రహ్మపుత్ర,</w>": 9648,
  "బ్డ": 9649,
  "బ్డే</w>": 9650,
  "బౌద్ధులు</w>": 9651,
  "బౌద్ధ,</w>": 9652,
  "బెంగాల్</w>": 9653,
  "బెంగాలీ;</w>": 9654,
  "బెంగాలీ.</w>": 9655,
  "బెంగుళూరు</w>": 9656,
  "బుని": 9657,
  "బునిస్తున్నారు.</w>": 9658,
  "బుక్</w>": 9659,
  "బిన్న": 9660,
  "బిన్నత్": 9661,
  "బిన్నత్వంలో</w>": 9662,
  "బిజ": 9663,
  "బిజినెస్</w>": 9664,
  "బాబ్డే</w>": 9665,
  "బాగా</w>": 9666,
  "బాంబ": 9667,
  "బాంబే),</w>": 9668,
  "బహుమతి</w>": 9669,
  "బహుభాషా,</w>": 9670,
  "బహు</w>": 9671,
  "బహాయీలు</w>": 9672,
  "బడతాయి.</w>": 9673,
  "బంగ్లాదేశ్‌లలో</w>": 9674,
  "బంగ్లాదేశ్‌ల</w>": 9675,
  "బంగ్లాదే": 9676,
  "బంగ్లాదేశ్,</w>": 9677,
  "బంగాళాఖాతం</w>": 9678,
  "బ్యాడ్మింటన్‌</w>": 9679,
  "బొమ్మ.</w>": 9680,
  "బెల్</w>": 9681,
  "బహిరంగంగా</w>": 9682,
  "బడ్": 9683,
  "బడ్జ": 9684,
  "బడ్జెట్</w>": 9685,
  "బడింది.</w>": 9686,
  "బండ": 9687,
  "బండ్లను</w>": 9688,
  "ఫ్రాన్స్,</w>": 9689,
  "ఫుట్‌బాల్‌</w>": 9690,
  "ఫలితంగా</w>": 9691,
  "ఫలం:</w>": 9692,
  "ప్లానెట్</w>": 9693,
  "ప్లగ": 9694,
  "ప్లగ్గులు:</w>": 9695,
  "ప్రారంభించాలనే</w>": 9696,
  "ప్రారంభించాలని</w>": 9697,
  "ప్రారంభమైన</w>": 9698,
  "ప్రార్థనలలో</w>": 9699,
  "ప్రాయమైనది.</w>": 9700,
  "ప్రాయపడు": 9701,
  "ప్రాయపడుతు": 9702,
  "ప్రాయపడుతున్నారు.</w>": 9703,
  "ప్రాచ్య</w>": 9704,
  "ప్రాంతాలు.</w>": 9705,
  "ప్రాంతాలతో</w>": 9706,
  "ప్రాంతాలకు</w>": 9707,
  "ప్రాంతాల</w>": 9708,
  "ప్రాముఖ్యతను</w>": 9709,
  "ప్రాదేశ": 9710,
  "ప్రాదేశిక</w>": 9711,
  "ప్రాజా": 9712,
  "ప్రాజాస్వామ్య</w>": 9713,
  "ప్రాచు": 9714,
  "ప్రాచుర్యము</w>": 9715,
  "ప్రస్తుత</w>": 9716,
  "ప్రయోజనాలు</w>": 9717,
  "ప్రయోజనకర": 9718,
  "ప్రయోజనకరమేనని</w>": 9719,
  "ప్రముఖమైనదే": 9720,
  "ప్రముఖమైనదే.</w>": 9721,
  "ప్రముఖమైనది</w>": 9722,
  "ప్రభుత్వాలన్నీ</w>": 9723,
  "ప్రభుత్వంచ": 9724,
  "ప్రభుత్వంచే</w>": 9725,
  "ప్రభుత్వంలో</w>": 9726,
  "ప్రభుత్వం,</w>": 9727,
  "ప్రపంచంలోనే</w>": 9728,
  "ప్రపంచదేశాలలో</w>": 9729,
  "ప్రధానమంత్రిని</w>": 9730,
  "ప్రధానమంత్రికి</w>": 9731,
  "ప్రదేశ్‌</w>": 9732,
  "ప్రదేశే,</w>": 9733,
  "ప్రత్యేకమైన</w>": 9734,
  "ప్రత్యక్ష": 9735,
  "ప్రత్యక్షంగా</w>": 9736,
  "ప్రతిపాదనల్లో</w>": 9737,
  "ప్రతిపక్షమైంది.</w>": 9738,
  "ప్రతిపక్షం</w>": 9739,
  "ప్రతిని": 9740,
  "ప్రతినిధి": 9741,
  "ప్రతినిధిచే</w>": 9742,
  "ప్రజాస్వామ్య,</w>": 9743,
  "ప్రజలచే</w>": 9744,
  "ప్రకారం,</w>": 9745,
  "ప్రాసెస్</w>": 9746,
  "ప్రాబల్యం</w>": 9747,
  "ప్రయాణికుల</w>": 9748,
  "ప్రమాణ</w>": 9749,
  "ప్రదేశాల</w>": 9750,
  "ప్రథ": 9751,
  "ప్రథమ</w>": 9752,
  "ప్రతి</w>": 9753,
  "ప్రణా": 9754,
  "ప్రణాళికలు</w>": 9755,
  "ప్రజ": 9756,
  "ప్రజలకు</w>": 9757,
  "ప్రగ": 9758,
  "ప్రగతిని</w>": 9759,
  "ప్రఖ్య": 9760,
  "ప్రఖ్యాతి</w>": 9761,
  "ప్పటికీ</w>": 9762,
  "ప్పటి</w>": 9763,
  "ప్పిలేట్</w>": 9764,
  "ప్పించుకోవడానికి,</w>": 9765,
  "ప్త": 9766,
  "ప్తులకాలం</w>": 9767,
  "పౌర</w>": 9768,
  "పోస్టలు</w>": 9769,
  "పోషకాహార</w>": 9770,
  "పోలో,</w>": 9771,
  "పోర్చుగల్,</w>": 9772,
  "పోరాటం</w>": 9773,
  "పోతూ</w>": 9774,
  "పోటీ": 9775,
  "పోటీలలో</w>": 9776,
  "పొందినది.</w>": 9777,
  "పొడి": 9778,
  "పొడిగ": 9779,
  "పొడిగించుకోవచ్చని</w>": 9780,
  "పేర్కొన్నాయి.</w>": 9781,
  "పేర్కొనవ": 9782,
  "పేర్కొనవచ్చు.</w>": 9783,
  "పేర్కొంటు": 9784,
  "పేర్కొంటున్నారు.</w>": 9785,
  "పేరుమీదుగా</w>": 9786,
  "పేరుతో</w>": 9787,
  "పేస్,మహేష్</w>": 9788,
  "పేదర": 9789,
  "పేదరికం,</w>": 9790,
  "పే,</w>": 9791,
  "పెద్దప": 9792,
  "పెద్దపులి</w>": 9793,
  "పెద్దగా</w>": 9794,
  "పెట": 9795,
  "పెట్రోలియం,</w>": 9796,
  "పూర్వపు</w>": 9797,
  "పూర్వం</w>": 9798,
  "పూణ": 9799,
  "పూణే</w>": 9800,
  "పూడి": 9801,
  "పూడి,</w>": 9802,
  "పురుషులు</w>": 9803,
  "పురుషులకు</w>": 9804,
  "పురుషుల</w>": 9805,
  "పుట్టిల్లు.</w>": 9806,
  "పుట్టిని": 9807,
  "పుట్టినిల్లయిన</w>": 9808,
  "పుట్టుపూర్వోత్తరాలు</w>": 9809,
  "పుట్టాయి.</w>": 9810,
  "పుష్పం:</w>": 9811,
  "పున</w>": 9812,
  "పున": 9813,
  "పునర్వ్యవస్థీకరణ</w>": 9814,
  "పుగా</w>": 9815,
  "పీఠభూమితో</w>": 9816,
  "పీఠభూమికి</w>": 9817,
  "పీఠిక</w>": 9818,
  "పిస్తామని</w>": 9819,
  "పిలిచారు.</w>": 9820,
  "పిన</w>": 9821,
  "పావళి,</w>": 9822,
  "పాలించ</w>": 9823,
  "పాలనలోకి</w>": 9824,
  "పాలనలో</w>": 9825,
  "పాలయింది</w>": 9826,
  "పాలకుల": 9827,
  "పాలకులనుండి</w>": 9828,
  "పాలక": 9829,
  "పాలకులు</w>": 9830,
  "పార్లమెంటు</w>": 9831,
  "పార్లమెంటరీ</w>": 9832,
  "పార్టీల</w>": 9833,
  "పార్టీగా</w>": 9834,
  "పార్టీలు</w>": 9835,
  "పార్టీలతో</w>": 9836,
  "పార్టీకి</w>": 9837,
  "పార్సీలు,</w>": 9838,
  "పారిశ్రామిక</w>": 9839,
  "పాకిస్థాన్</w>": 9840,
  "పాకిస్థాన్": 9841,
  "పాకిస్థాన్కు</w>": 9842,
  "పాకిస్తాన్తో</w>": 9843,
  "పాకిస్తాన్,</w>": 9844,
  "పాండ్యులు</w>": 9845,
  "పాధి</w>": 9846,
  "పాద</w>": 9847,
  "పాక్,</w>": 9848,
  "పస్రిద్ధి</w>": 9849,
  "పశ్చిమాన</w>": 9850,
  "పశ్చిమాన,</w>": 9851,
  "పవిత్రంగా</w>": 9852,
  "పవిత్ర</w>": 9853,
  "పల్లెల్లోని</w>": 9854,
  "పల్లవులు,</w>": 9855,
  "పర్షియనులు,</w>": 9856,
  "పర్వదినాలు,</w>": 9857,
  "పర్వతాలతో</w>": 9858,
  "పర్యాటక</w>": 9859,
  "పరీక్ష": 9860,
  "పరీక్షను</w>": 9861,
  "పరీక్": 9862,
  "పరీక్షలు</w>": 9863,
  "పరిశ్రమ.</w>": 9864,
  "పరిస్థితి</w>": 9865,
  "పరిశోధనా</w>": 9866,
  "పరిమితికి</w>": 9867,
  "పరిపాలించ</w>": 9868,
  "పరిధి": 9869,
  "పరిధిలో</w>": 9870,
  "పరిఢ": 9871,
  "పరిఢవిల్లాయి.</w>": 9872,
  "పరోక్ష</w>": 9873,
  "పరి</w>": 9874,
  "పరమోన్నత</w>": 9875,
  "పరమైన</w>": 9876,
  "పరచింది.</w>": 9877,
  "పద్ధతిలో</w>": 9878,
  "పద్ధతి:</w>": 9879,
  "పద్ధతులతో</w>": 9880,
  "పద్ధతి</w>": 9881,
  "పద్ధతులు": 9882,
  "పద్ధతులున్నాయి.</w>": 9883,
  "పదార్థాలు,</w>": 9884,
  "పదవి</w>": 9885,
  "పదవి.</w>": 9886,
  "పతాకం": 9887,
  "పతాకం:</w>": 9888,
  "పతాక": 9889,
  "పతాకము.</w>": 9890,
  "పతకం</w>": 9891,
  "పత్యం</w>": 9892,
  "పడుతుంది.</w>": 9893,
  "పడే</w>": 9894,
  "పట్టణాలు</w>": 9895,
  "పట్టణాలను</w>": 9896,
  "పట్టణాల</w>": 9897,
  "పట్టును</w>": 9898,
  "పట్టాలెక్కనుంది.</w>": 9899,
  "పట్టాలు</w>": 9900,
  "పట్టణ</w>": 9901,
  "పటంలో</w>": 9902,
  "పటం</w>": 9903,
  "పక్షం</w>": 9904,
  "పకల్పం</w>": 9905,
  "పండుగలు,</w>": 9906,
  "పండ్లు</w>": 9907,
  "పంచె,</w>": 9908,
  "పంచుకుంటోంది.</w>": 9909,
  "పంచాయతి</w>": 9910,
  "పంపిన</w>": 9911,
  "పంజాబ": 9912,
  "పంజాబీ;</w>": 9913,
  "పం.</w>": 9914,
  "ప-దేశ": 9915,
  "ప-దేశాలు.</w>": 9916,
  "పించింది.</w>": 9917,
  "పవనాలు</w>": 9918,
  "పరాజయం</w>": 9919,
  "పది": 9920,
  "పదిశాతం</w>": 9921,
  "పచ్": 9922,
  "పచ్చ": 9923,
  "పచ్చజె": 9924,
  "పచ్చజెండా</w>": 9925,
  "పక్": 9926,
  "పక్షి:</w>": 9927,
  "న్యాయస్థానమైన</w>": 9928,
  "న్యాయవ్యవస్థలో</w>": 9929,
  "న్యాయవ్యవస్థ,</w>": 9930,
  "న్యాయ</w>": 9931,
  "న్నిస్లో</w>": 9932,
  "న్నిటిక": 9933,
  "న్నిటికంటే</w>": 9934,
  "న్ని:</w>": 9935,
  "న్‌ఫర్మేషన్</w>": 9936,
  "న్లుగా</w>": 9937,
  "న్నె": 9938,
  "న్నె</w>": 9939,
  "న్నవ": 9940,
  "న్నవార్లలో</w>": 9941,
  "న్నం": 9942,
  "న్నం,</w>": 9943,
  "నోబెల్</w>": 9944,
  "నేరేడు</w>": 9945,
  "నేరేడు": 9946,
  "నేరేడు\"</w>": 9947,
  "నేపాలీ;</w>": 9948,
  "నేరుగా</w>": 9949,
  "నెహ్వాల్</w>": 9950,
  "నెహ్రూ—ISBN</w>": 9951,
  "నెలకొన్న</w>": 9952,
  "నెలకొని</w>": 9953,
  "నెరవేరతాయని</w>": 9954,
  "నెమలిపావో</w>": 9955,
  "నుండి,</w>": 9956,
  "నుము,</w>": 9957,
  "నున్న</w>": 9958,
  "నీపై</w>": 9959,
  "నీతి,</w>": 9960,
  "నిర్వహణ": 9961,
  "నిర్వహణలో</w>": 9962,
  "నిర్వాహక</w>": 9963,
  "నిర్మిస్తున్న</w>": 9964,
  "నిర్మించేది</w>": 9965,
  "నిర్మించినందువల్ల</w>": 9966,
  "నియమించబడ్": 9967,
  "నియమించబడ్డ</w>": 9968,
  "నియమించబడిన</w>": 9969,
  "నిడివిలో</w>": 9970,
  "నిడివిని</w>": 9971,
  "నిస్తాన్‌కు</w>": 9972,
  "నిషేధం,</w>": 9973,
  "నివాసాలు</w>": 9974,
  "నివారిస్తారు.</w>": 9975,
  "నివల్ల</w>": 9976,
  "నిలిచింది.</w>": 9977,
  "నిలబెట్టుకున్నాయి.</w>": 9978,
  "నిరక్షరాస్యత,</w>": 9979,
  "నియోలిథిక్</w>": 9980,
  "నిపించింది.</w>": 9981,
  "నినప్పటికినీ</w>": 9982,
  "నిచ్": 9983,
  "నిచ్చింది.</w>": 9984,
  "ని,</w>": 9985,
  "నాలజీ": 9986,
  "నాలజీ,</w>": 9987,
  "నాయకత్వాన</w>": 9988,
  "నాయకత్వంలో</w>": 9989,
  "నాయకుల</w>": 9990,
  "నాగరికతకు</w>": 9991,
  "నాగరికత.</w>": 9992,
  "నాగరికత</w>": 9993,
  "నాది</w>": 9994,
  "నాటి</w>": 9995,
  "నబడిన</w>": 9996,
  "నదులు</w>": 9997,
  "నది</w>": 9998,
  "నడిపించటమూ</w>": 9999
}