{
  "version": "1.0",
  "pretokenization": "whitespace",
  "special_tokens": {
    "<unk>": 0,
    "<pad>": 1
  },
  "vocab": {
    "<unk>": 0,
    "<pad>": 1,
    "I": 2,
    "n": 3,
    "d": 4,
    "i": 5,
    "a": 6,
    ",": 7,
    "</w>": 8,
    "o": 9,
    "f": 10,
    "c": 11,
    "l": 12,
    "y": 13,
    "t": 14,
    "h": 15,
    "e": 16,
    "R": 17,
    "p": 18,
    "u": 19,
    "b": 20,
    "s": 21,
    "r": 22,
    "S": 23,
    "A": 24,
    ".": 25,
    "v": 26,
    "-": 27,
    "g": 28,
    "m": 29,
    "w": 30,
    "1": 31,
    "9": 32,
    "4": 33,
    "7": 34,
    "'": 35,
    "B": 36,
    "O": 37,
    "P": 38,
    "k": 39,
    ";": 40,
    "C": 41,
    "N": 42,
    "M": 43,
    "L": 44,
    "T": 45,
    "5": 46,
    "0": 47,
    "V": 48,
    "E": 49,
    "2": 50,
    "H": 51,
    "x": 52,
    "D": 53,
    "J": 54,
    "G": 55,
    "Z": 56,
    "j": 57,
    "8": 58,
    "3": 59,
    "6": 60,
    "U": 61,
    "$": 62,
    "%": 63,
    "q": 64,
    "K": 65,
    "=": 66,
    "\"": 67,
    "F": 68,
    ":": 69,
    "(": 70,
    "Ἰ": 71,
    "ν": 72,
    "δ": 73,
    "ί": 74,
    "α": 75,
    ")": 76,
    "ό": 77,
    "ς": 78,
    "ā": 79,
    "[": 80,
    "ˈ": 81,
    "ʱ": 82,
    "ː": 83,
    "ɾ": 84,
    "ə": 85,
    "]": 86,
    "ɦ": 87,
    "ɪ": 88,
    "ʊ": 89,
    "Y": 90,
    "z": 91,
    "–": 92,
    "—": 93,
    "ṣ": 94,
    "ṭ": 95,
    "ī": 96,
    "ṇ": 97,
    "W": 98,
    "°": 99,
    "′": 100,
    "₹": 101,
    "á": 102,
    "í": 103,
    "â": 104,
    "Ś": 105,
    "ū": 106,
    "Ö": 107,
    "ṅ": 108,
    "भ": 109,
    "ा": 110,
    "र": 111,
    "त": 112,
    "आ": 113,
    "ध": 114,
    "ि": 115,
    "क": 116,
    "न": 117,
    "म": 118,
    "ग": 119,
    "ण": 120,
    "ज": 121,
    "्": 122,
    "य": 123,
    "अ": 124,
    "ं": 125,
    "े": 126,
    "़": 127,
    "ी": 128,
    "ल": 129,
    "प": 130,
    "ब": 131,
    "ऑ": 132,
    "फ": 133,
    "इ": 134,
    "ड": 135,
    "द": 136,
    "ष": 137,
    "ए": 138,
    "श": 139,
    "स": 140,
    "थ": 141,
    "उ": 142,
    "ह": 143,
    "व": 144,
    "ै": 145,
    "।": 146,
    "ौ": 147,
    "ो": 148,
    "ृ": 149,
    "ट": 150,
    "ँ": 151,
    "ख": 152,
    "च": 153,
    "ू": 154,
    "औ": 155,
    "ु": 156,
    "ई": 157,
    "ऋ": 158,
    "ओ": 159,
    "ः": 160,
    "१": 161,
    "८": 162,
    "५": 163,
    "घ": 164,
    "ढ": 165,
    "‌": 166,
    "|": 167,
    "+": 168,
    "ञ": 169,
    "ऊ": 170,
    "छ": 171,
    "ठ": 172,
    "६": 173,
    "०": 174,
    "२": 175,
    "४": 176,
    "७": 177,
    "३": 178,
    "‍": 179,
    "ॉ": 180,
    "॰": 181,
    "‘": 182,
    "’": 183,
    "९": 184,
    "झ": 185,
    "/": 186,
    "ऐ": 187,
    "†": 188,
    "“": 189,
    "”": 190,
    "భ": 191,
    "ా": 192,
    "ర": 193,
    "త": 194,
    "ద": 195,
    "ే": 196,
    "శ": 197,
    "ం": 198,
    "క": 199,
    "ో": 200,
    "ట": 201,
    "్": 202,
    "ల": 203,
    "ు": 204,
    "ప": 205,
    "ై": 206,
    "గ": 207,
    "జ": 208,
    "న": 209,
    "చ": 210,
    "మ": 211,
    "ొ": 212,
    "ి": 213,
    "స": 214,
    "థ": 215,
    "ీ": 216,
    "వ": 217,
    "ణ": 218,
    "య": 219,
    "ఏ": 220,
    "డ": 221,
    "ఉ": 222,
    "అ": 223,
    "ె": 224,
    "ఛ": 225,
    "ఈ": 226,
    "ష": 227,
    "ఒ": 228,
    "ఖ": 229,
    "ఎ": 230,
    "ధ": 231,
    "ూ": 232,
    "హ": 233,
    "బ": 234,
    "ళ": 235,
    "ఆ": 236,
    "ఫ": 237,
    "ఘ": 238,
    "ఇ": 239,
    "ౌ": 240,
    "ృ": 241,
    "ః": 242,
    "ఞ": 243,
    "ఢ": 244,
    "ఐ": 245,
    "ఓ": 246,
    "ఠ": 247,
    "ఋ": 248,
    "ఔ": 249,
    "&": 250,
    "^": 251,
    "ভ": 252,
    "া": 253,
    "র": 254,
    "ত": 255,
    "য": 256,
    "স": 257,
    "ক": 258,
    "ি": 259,
    "ন": 260,
    "ম": 261,
    "ী": 262,
    "়": 263,
    "প": 264,
    "্": 265,
    "জ": 266,
    "দ": 267,
    "ষ": 268,
    "ণ": 269,
    "এ": 270,
    "শ": 271,
    "ট": 272,
    "ৌ": 273,
    "গ": 274,
    "ো": 275,
    "ল": 276,
    "আ": 277,
    "ে": 278,
    "ব": 279,
    "চ": 280,
    "ৃ": 281,
    "হ": 282,
    "ং": 283,
    "অ": 284,
    "খ": 285,
    "ধ": 286,
    "ু": 287,
    "থ": 288,
    "উ": 289,
    "ূ": 290,
    "ও": 291,
    "ছ": 292,
    "ড": 293,
    "ঙ": 294,
    "ই": 295,
    "ৈ": 296,
    "ঘ": 297,
    "৭": 298,
    "৫": 299,
    "১": 300,
    "৪": 301,
    "৬": 302,
    "ঐ": 303,
    "ঞ": 304,
    "ঠ": 305,
    "ৎ": 306,
    "ঃ": 307,
    "৯": 308,
    "০": 309,
    "২": 310,
    "৮": 311,
    "ফ": 312,
    "৩": 313,
    "ঁ": 314,
    "ঝ": 315,
    "ঊ": 316,
    "ο": 317,
    "ঢ": 318,
    "ঋ": 319,
    "ঈ": 320,
    "{": 321,
    "}": 322,
    "´": 323,
    "?": 324,
    "ß": 325,
    "æ": 326,
    "X": 327,
    "è": 328,
    "র</w>": 329,
    "े</w>": 330,
    "।</w>": 331,
    "ा</w>": 332,
    "ে</w>": 333,
    "ं</w>": 334,
    "্র": 335,
    "ার": 336,
    "য়": 337,
    "ी</w>": 338,
    "र</w>": 339,
    "্য": 340,
    "ार": 341,
    "्र": 342,
    "त</w>": 343,
    "मे": 344,
    "ি</w>": 345,
    "ు</w>": 346,
    "র্": 347,
    "్ర": 348,
    "ন্": 349,
    "है": 350,
    "া</w>": 351,
    "्य": 352,
    "বি": 353,
    "ত</w>": 354,
    "ార": 355,
    "ন</w>": 356,
    "ক্": 357,
    "र्": 358,
    "न</w>": 359,
    "क</w>": 360,
    "ও</w>": 361,
    "িক": 362,
    "ాల": 363,
    "স্": 364,
    "ান": 365,
    "य</w>": 366,
    "ి</w>": 367,
    "সা": 368,
    "বা": 369,
    "िय": 370,
    "রা": 371,
    "स्": 372,
    "रा": 373,
    "का": 374,
    "ত্": 375,
    "ভা": 376,
    "లో": 377,
    "তি": 378,
    "भा": 379,
    "তে": 380,
    "ా</w>": 381,
    "స్": 382,
    "তা": 383,
    "क्": 384,
    "ర్": 385,
    "মা": 386,
    "ो</w>": 387,
    "్య": 388,
    "্ব": 389,
    "কা": 390,
    "ం</w>": 391,
    "ল</w>": 392,
    "वि": 393,
    "న్": 394,
    "त्": 395,
    "দে": 396,
    "ान": 397,
    "న</w>": 398,
    "न्": 399,
    "ంద": 400,
    "దే": 401,
    "ल</w>": 402,
    "सा": 403,
    "ক</w>": 404,
    "রে": 405,
    "के": 406,
    "ిక": 407,
    "ि</w>": 408,
    "ना": 409,
    "দ্": 410,
    "లు": 411,
    "নি": 412,
    "मा": 413,
    "তী": 414,
    "या": 415,
    "পর": 416,
    "ই</w>": 417,
    "িত": 418,
    "সং": 419,
    "सं": 420,
    "লে": 421,
    "্ট": 422,
    "िक": 423,
    "কে": 424,
    "লি": 425,
    "రా": 426,
    "হা": 427,
    "ण</w>": 428,
    "ম</w>": 429,
    "म</w>": 430,
    "ती": 431,
    "কর": 432,
    "ిం": 433,
    "త్": 434,
    "క్": 435,
    "না": 436,
    "=</w>": 437,
    "ో</w>": 438,
    "ता": 439,
    "कर": 440,
    "পা": 441,
    "द्": 442,
    "১৯": 443,
    "प्": 444,
    "हु": 445,
    "প্": 446,
    "वा": 447,
    "্চ": 448,
    "গু": 449,
    "ంగ": 450,
    "বে": 451,
    "ী</w>": 452,
    "दे": 453,
    "से": 454,
    "ने": 455,
    "जा": 456,
    "स</w>": 457,
    "వి": 458,
    "হি": 459,
    "ాయ": 460,
    "पर": 461,
    "व</w>": 462,
    "ड़": 463,
    "पा": 464,
    "था": 465,
    "हा": 466,
    "ని": 467,
    "ति": 468,
    "नि": 469,
    "নে": 470,
    "াল": 471,
    "ণ</w>": 472,
    "েছ": 473,
    "య</w>": 474,
    "ాత": 475,
    "ई</w>": 476,
    "చి": 477,
    "জা": 478,
    "লা": 479,
    "్ట": 480,
    "ాన": 481,
    "সম": 482,
    "থা": 483,
    "েক": 484,
    "ుల": 485,
    "জন": 486,
    "सम": 487,
    "মি": 488,
    "భా": 489,
    "రి": 490,
    "द</w>": 491,
    "ద్": 492,
    "যা": 493,
    "్ల": 494,
    "শ</w>": 495,
    "ঙ্": 496,
    "এক": 497,
    "টি": 498,
    "्ट": 499,
    "দি": 500,
    "শি": 501,
    "ंग": 502,
    "ది": 503,
    "कि": 504,
    "ধা": 505,
    "ండ": 506,
    "ের": 507,
    "కు": 508,
    "सक": 509,
    "আই": 510,
    "ला": 511,
    "সর": 512,
    "हि": 513,
    "ড়": 514,
    "ाल": 515,
    "ग</w>": 516,
    "রি": 517,
    "్</w>": 518,
    "ৃত": 519,
    "২০": 520,
    "ং</w>": 521,
    "অন": 522,
    "ंत": 523,
    "త</w>": 524,
    "श</w>": 525,
    "तथ": 526,
    "जि": 527,
    "बा": 528,
    "ষ্": 529,
    "लि": 530,
    "যু": 531,
    "উপ": 532,
    "্প": 533,
    "शा": 534,
    "ু</w>": 535,
    "ము": 536,
    "মধ": 537,
    "এস": 538,
    "এব": 539,
    "जन": 540,
    "ह</w>": 541,
    "সি": 542,
    "వా": 543,
    "శం": 544,
    "श्": 545,
    "ों": 546,
    "ంత": 547,
    "ট</w>": 548,
    "రు": 549,
    "रि": 550,
    "ను": 551,
    "తి": 552,
    "मि": 553,
    "শে": 554,
    "నా": 555,
    "अन": 556,
    "सर": 557,
    "క</w>": 558,
    "रू": 559,
    "ए</w>": 560,
    "ే</w>": 561,
    "ব</w>": 562,
    "పా": 563,
    "ें": 564,
    "সে": 565,
    "री": 566,
    "ల</w>": 567,
    "पू": 568,
    "দা": 569,
    "हो": 570,
    "ষি": 571,
    "सि": 572,
    "కా": 573,
    "मु": 574,
    "प</w>": 575,
    "षि": 576,
    "धि": 577,
    "পূ": 578,
    "ाज": 579,
    "की": 580,
    "ప్": 581,
    "্দ": 582,
    "ছে": 583,
    "িল": 584,
    "াস": 585,
    "यो": 586,
    "తా": 587,
    "సం": 588,
    "ంట": 589,
    "ु</w>": 590,
    "रत": 591,
    "ంచ": 592,
    "డి": 593,
    "়</w>": 594,
    "ষা": 595,
    "টা": 596,
    "సా": 597,
    "ల్": 598,
    "लो": 599,
    "েশ": 600,
    "বৈ": 601,
    "ষে": 602,
    "षा": 603,
    "తీ": 604,
    "को": 605,
    "রত": 606,
    "మా": 607,
    "ली": 608,
    "ट</w>": 609,
    "ুর": 610,
    "বৃ": 611,
    "ष</w>": 612,
    "ंध": 613,
    "ভূ": 614,
    "ল্": 615,
    "గా": 616,
    "ీ</w>": 617,
    "চি": 618,
    "१९": 619,
    "तर": 620,
    "दि": 621,
    "তর": 622,
    "ীন": 623,
    "০-": 624,
    "দু": 625,
    "యి": 626,
    "यु": 627,
    "बन": 628,
    "षे": 629,
    "थ</w>": 630,
    "म्": 631,
    "োগ": 632,
    "ూడ": 633,
    "इस": 634,
    "्त": 635,
    "సి": 636,
    "धा": 637,
    "दा": 638,
    "अप": 639,
    "తు": 640,
    "ভি": 641,
    "পি": 642,
    "పు": 643,
    "रह": 644,
    "ची": 645,
    "ँ</w>": 646,
    "শা": 647,
    "శా": 648,
    "టి": 649,
    "অব": 650,
    "रो": 651,
    "वी": 652,
    "ిన": 653,
    "ष्": 654,
    "্ক": 655,
    "లి": 656,
    "াত": 657,
    "ংশ": 658,
    "रे": 659,
    "তম": 660,
    "াদ": 661,
    "াম": 662,
    "ైన": 663,
    "తర": 664,
    "কৃ": 665,
    "গে": 666,
    "িব": 667,
    "ধি": 668,
    "ढ़": 669,
    "০</w>": 670,
    "बस": 671,
    "कृ": 672,
    "दो": 673,
    "ঞ্": 674,
    "পে": 675,
    "ही": 676,
    "মে": 677,
    "ిత": 678,
    "కి": 679,
    "১</w>": 680,
    "्द": 681,
    "ब</w>": 682,
    "ज</w>": 683,
    "ैं": 684,
    "ध</w>": 685,
    "ले": 686,
    "াচ": 687,
    "অঞ": 688,
    "ম্": 689,
    "०</w>": 690,
    "पु": 691,
    "च</w>": 692,
    "थि": 693,
    "পু": 694,
    "యా": 695,
    "చ్": 696,
    "চল": 697,
    "హి": 698,
    "కో": 699,
    "ধ</w>": 700,
    "িজ": 701,
    "কো": 702,
    "్వ": 703,
    "তৃ": 704,
    "दी": 705,
    "নী": 706,
    "স</w>": 707,
    "ডি": 708,
    "ाय": 709,
    "जी": 710,
    "রু": 711,
    "వర": 712,
    "మొ": 713,
    "৮</w>": 714,
    "মু": 715,
    "দী": 716,
    "থে": 717,
    "वर": 718,
    "गय": 719,
    "াজ": 720,
    "গণ": 721,
    "লো": 722,
    "িষ": 723,
    "্ষ": 724,
    "গা": 725,
    "రై": 726,
    "বল": 727,
    "ుగ": 728,
    "শী": 729,
    "খা": 730,
    "పే": 731,
    "డు": 732,
    "జా": 733,
    "জ্": 734,
    "ल्": 735,
    "ख</w>": 736,
    "ిల": 737,
    "మై": 738,
    "गा": 739,
    "తం": 740,
    "ষ</w>": 741,
    "ড</w>": 742,
    "దా": 743,
    "াপ": 744,
    "शो": 745,
    "चि": 746,
    "েল": 747,
    "हर": 748,
    "ंड": 749,
    "িম": 750,
    "গ্": 751,
    "वो": 752,
    "প</w>": 753,
    "অধ": 754,
    "్న": 755,
    "যে": 756,
    "বস": 757,
    "জি": 758,
    "চা": 759,
    "কি": 760,
    "ూ</w>": 761,
    "వ</w>": 762,
    "ఈ</w>": 763,
    "అధ": 764,
    "शि": 765,
    "भी": 766,
    "टि": 767,
    "్‌": 768,
    "్గ": 769,
    "রী": 770,
    "नी": 771,
    "कु": 772,
    "ুল": 773,
    "মত": 774,
    "ুপ": 775,
    "वत": 776,
    "াক": 777,
    "मो": 778,
    "बी": 779,
    "రత": 780,
    "মো": 781,
    "জ</w>": 782,
    "ां": 783,
    "দ</w>": 784,
    "मी": 785,
    "শ্": 786,
    "चु": 787,
    "आध": 788,
    "सद": 789,
    "డ్": 790,
    "ाद": 791,
    "గు": 792,
    "పట": 793,
    "కొ": 794,
    "৭</w>": 795,
    "গো": 796,
    "গঠ": 797,
    "}}": 798,
    "{{": 799,
    "াণ": 800,
    "थी": 801,
    "चा": 802,
    "্থ": 803,
    "भू": 804,
    "মর": 805,
    "বহ": 806,
    "చే": 807,
    "ূল": 808,
    "పర": 809,
    "ते": 810,
    "রো": 811,
    "াং": 812,
    "গত": 813,
    "नो": 814,
    "ज़": 815,
    "पन": 816,
    "ंद": 817,
    "నే": 818,
    "২</w>": 819,
    "ৈত": 820,
    "উৎ": 821,
    "पह": 822,
    "ফল": 823,
    "টে": 824,
    "ణా": 825,
    "सी": 826,
    "नक": 827,
    "ীত": 828,
    "ज्": 829,
    "শক": 830,
    "রণ": 831,
    "వే": 832,
    "लग": 833,
    "থি": 834,
    "াধ": 835,
    "तृ": 836,
    "కే": 837,
    "মহ": 838,
    "ाम": 839,
    "रु": 840,
    "उप": 841,
    "ীর": 842,
    "০১": 843,
    "০০": 844,
    "জে": 845,
    "్త": 846,
    "৯৯": 847,
    "ষণ": 848,
    "েন": 849,
    "সদ": 850,
    "au": 851,
    "চ্": 852,
    "00": 853,
    "ి.": 854,
    "మి": 855,
    "ছি": 856,
    "-এ": 857,
    "ेश": 858,
    "एश": 859,
    "ణ</w>": 860,
    "৬</w>": 861,
    "৫</w>": 862,
    "হ</w>": 863,
    "বছ": 864,
    "वे": 865,
    "पी": 866,
    "ia": 867,
    "ুষ": 868,
    "లా": 869,
    "రె": 870,
    "గి": 871,
    "ంబ": 872,
    "ैन": 873,
    "శ్": 874,
    "ात": 875,
    "াট": 876,
    "ব্": 877,
    "িখ": 878,
    "చె": 879,
    "ষম": 880,
    "তু": 881,
    "আর": 882,
    "धी": 883,
    "गी": 884,
    "Ne": 885,
    "ధి": 886,
    "్క": 887,
    "ియ": 888,
    "গী": 889,
    "ీయ": 890,
    "সব": 891,
    "ুট": 892,
    "বর": 893,
    "२०": 894,
    "मन": 895,
    "্ড": 896,
    "সু": 897,
    "పె": 898,
    "৪</w>": 899,
    "পশ": 900,
    "టు": 901,
    "ো</w>": 902,
    "ইউ": 903,
    "পত": 904,
    "జన": 905,
    "ाव": 906,
    "ंब": 907,
    "ू</w>": 908,
    "अर": 909,
    "ున": 910,
    "లక": 911,
    "্ম": 912,
    "হয": 913,
    "মন": 914,
    "বত": 915,
    "బ్": 916,
    "hi": 917,
    "शु": 918,
    "दश": 919,
    "च्": 920,
    "লু": 921,
    "ोग": 922,
    "বন": 923,
    "जो": 924,
    "వీ": 925,
    "కృ": 926,
    "ृत": 927,
    "షి": 928,
    "వల": 929,
    "చు": 930,
    "বী": 931,
    "तु": 932,
    "-</w>": 933,
    "सभ": 934,
    "ংগ": 935,
    "ెల": 936,
    "িণ": 937,
    "াগ": 938,
    "మత": 939,
    "ష్": 940,
    "हे": 941,
    "ధా": 942,
    "৯৮": 943,
    "्म": 944,
    "థా": 945,
    "పం": 946,
    "కూ": 947,
    "सू": 948,
    "मै": 949,
    "मध": 950,
    "ोल": 951,
    "ड</w>": 952,
    "అత": 953,
    "থন": 954,
    "ाष": 955,
    "కీ": 956,
    "సభ": 957,
    "మధ": 958,
    "পৃ": 959,
    "Pp": 960,
    "এন": 961,
    "के</w>": 962,
    "िम": 963,
    "బా": 964,
    "हत": 965,
    "কল": 966,
    "ীপ": 967,
    "গ</w>": 968,
    "तक": 969,
    "ँच": 970,
    "५</w>": 971,
    "४</w>": 972,
    "गु": 973,
    "गण": 974,
    "कॉ": 975,
    "దు": 976,
    "শত": 977,
    "భి": 978,
    "িশ": 979,
    "গর": 980,
    "ग्": 981,
    "హా": 982,
    "टे": 983,
    "वं": 984,
    "ंस": 985,
    "పత": 986,
    "తో": 987,
    "আন": 988,
    "गो": 989,
    "में</w>": 990,
    "ాజ": 991,
    "ित": 992,
    "चल": 993,
    "లం": 994,
    "यू": 995,
    "యు": 996,
    "ద</w>": 997,
    "২১": 998,
    "দো": 999,
    "দশ": 1000,
    "থ</w>": 1001,
    "ছা": 1002,
    "খয": 1003,
    "सन": 1004,
    "मह": 1005,
    "ब्": 1006,
    "మీ": 1007,
    "হক": 1008,
    "ेज": 1009,
    "అన": 1010,
    "ুন": 1011,
    "ीक": 1012,
    "ास": 1013,
    "খে": 1014,
    "शी": 1015,
    "षो": 1016,
    "गठ": 1017,
    "িচ": 1018,
    "एव": 1019,
    "ఒక": 1020,
    "ঁচ": 1021,
    "మే": 1022,
    "ిగ": 1023,
    "िण": 1024,
    "్మ": 1025,
    "ুস": 1026,
    "ঠি": 1027,
    "వం": 1028,
    "अध": 1029,
    "భు": 1030,
    "పూ": 1031,
    "বো": 1032,
    "অজ": 1033,
    "రో": 1034,
    "మన": 1035,
    "ুক": 1036,
    "লী": 1037,
    "भि": 1038,
    "पे": 1039,
    "వు": 1040,
    "১১": 1041,
    "োট": 1042,
    "ভার": 1043,
    "८</w>": 1044,
    "२</w>": 1045,
    "ैल": 1046,
    "फ़": 1047,
    "फ</w>": 1048,
    "ण्": 1049,
    "ंक": 1050,
    "రక": 1051,
    "కర": 1052,
    "৯৭": 1053,
    "ষর": 1054,
    "মূ": 1055,
    "्प": 1056,
    "ीय": 1057,
    "వహ": 1058,
    "ির": 1059,
    "भार": 1060,
    "సమ": 1061,
    "ईस": 1062,
    "ाँ": 1063,
    "लन": 1064,
    "अव": 1065,
    "अभ": 1066,
    "েম": 1067,
    "াই": 1068,
    "মী": 1069,
    "তন": 1070,
    "pp": 1071,
    "ाप": 1072,
    "లన": 1073,
    "চন": 1074,
    "नत": 1075,
    "్థ": 1076,
    "శ</w>": 1077,
    "పో": 1078,
    "৩</w>": 1079,
    "াব": 1080,
    "য়</w>": 1081,
    "ভ</w>": 1082,
    "వె": 1083,
    "৫৬": 1084,
    "িন": 1085,
    "రం": 1086,
    "প্র": 1087,
    "६</w>": 1088,
    "सो": 1089,
    "शे": 1090,
    "సు": 1091,
    "వత": 1092,
    "ুম": 1093,
    "সভ": 1094,
    "सह": 1095,
    "अल": 1096,
    "సర": 1097,
    "েস": 1098,
    "-১": 1099,
    "িএ": 1100,
    "িদ": 1101,
    "ুত": 1102,
    "गत": 1103,
    "లే": 1104,
    "সফ": 1105,
    "ধী": 1106,
    "এট": 1107,
    "भर": 1108,
    "अम": 1109,
    "టా": 1110,
    "గర": 1111,
    "ূর": 1112,
    "চী": 1113,
    "ংস": 1114,
    "యం": 1115,
    "াড": 1116,
    "मू": 1117,
    "नव": 1118,
    "और</w>": 1119,
    "పి": 1120,
    "టీ": 1121,
    "నద": 1122,
    "হে": 1123,
    "শন": 1124,
    "ণি": 1125,
    "षण": 1126,
    "ీడ": 1127,
    "৪৪": 1128,
    "ধৃ": 1129,
    "জো": 1130,
    "ld": 1131,
    "ోర": 1132,
    "ై</w>": 1133,
    "మల": 1134,
    "ఇద": 1135,
    "ীক": 1136,
    "াহ": 1137,
    "থম": 1138,
    "ণত": 1139,
    "টো": 1140,
    "भारत</w>": 1141,
    "नद": 1142,
    "जै": 1143,
    "छो": 1144,
    "आ</w>": 1145,
    "जल": 1146,
    "హద": 1147,
    "ంధ": 1148,
    "ধর": 1149,
    "আগ": 1150,
    "पत": 1151,
    "उद": 1152,
    "प्र": 1153,
    "की</w>": 1154,
    "కల": 1155,
    "নত": 1156,
    "ाक": 1157,
    "्थ": 1158,
    "अस": 1159,
    "ీత": 1160,
    "వై": 1161,
    "బె": 1162,
    "గో": 1163,
    "ంప": 1164,
    "১৭": 1165,
    "সূ": 1166,
    "সহ": 1167,
    "লক": 1168,
    "তথ": 1169,
    "কম": 1170,
    "অভ": 1171,
    "डि": 1172,
    "इं": 1173,
    "आर": 1174,
    "রক": 1175,
    "ाच": 1176,
    "जब": 1177,
    "अं": 1178,
    "ধন": 1179,
    "ণ্": 1180,
    "উদ": 1181,
    "िन": 1182,
    "৯-": 1183,
    "সক": 1184,
    "ণে": 1185,
    "००": 1186,
    "ील": 1187,
    "ीत": 1188,
    "टी": 1189,
    "ंप": 1190,
    "্গ": 1191,
    "াষ": 1192,
    "दु": 1193,
    "షల": 1194,
    "োজ": 1195,
    "খ</w>": 1196,
    "७</w>": 1197,
    "ॉल": 1198,
    "सु": 1199,
    "मौ": 1200,
    "थव": 1201,
    "छ</w>": 1202,
    "घो": 1203,
    "आद": 1204,
    "ः</w>": 1205,
    "ౌక": 1206,
    "ళ</w>": 1207,
    "మ</w>": 1208,
    "ఖ</w>": 1209,
    "ভৌ": 1210,
    "বু": 1211,
    "ফে": 1212,
    "উচ": 1213,
    "खा": 1214,
    "|n": 1215,
    "৪৫": 1216,
    "জল": 1217,
    "-৩": 1218,
    "ृष": 1219,
    "यह": 1220,
    "बे": 1221,
    "तो": 1222,
    "িক</w>": 1223,
    "है।</w>": 1224,
    "rn": 1225,
    "का</w>": 1226,
    "Pa": 1227,
    "ెస": 1228,
    "ీన": 1229,
    "ణి": 1230,
    "েষ": 1231,
    "েত": 1232,
    "পদ": 1233,
    "নক": 1234,
    "ঘট": 1235,
    "र-": 1236,
    "मं": 1237,
    "बड": 1238,
    "s.": 1239,
    "%)": 1240,
    "ইন": 1241,
    "ीं": 1242,
    "दू": 1243,
    "गर": 1244,
    "इन": 1245,
    "ు,": 1246,
    "ा।": 1247,
    "బహ": 1248,
    "బడ": 1249,
    "ఉప": 1250,
    "৪.": 1251,
    "০৬": 1252,
    "ইট": 1253,
    "रख": 1254,
    "जप": 1255,
    "आक": 1256,
    "से</w>": 1257,
    "ీల": 1258,
    "దర": 1259,
    "కట": 1260,
    "তক": 1261,
    "কট": 1262,
    "्क": 1263,
    "ాచ": 1264,
    "దట": 1265,
    "గ్": 1266,
    "সল": 1267,
    "আদ": 1268,
    "অত": 1269,
    "(১": 1270,
    "ुस": 1271,
    "सत": 1272,
    "व्": 1273,
    "वश": 1274,
    "दर": 1275,
    "आत": 1276,
    "కం": 1277,
    "ప్ర": 1278,
    "३</w>": 1279,
    "१</w>": 1280,
    "हथ": 1281,
    "बद": 1282,
    "पं": 1283,
    "कत": 1284,
    "26": 1285,
    "ণা": 1286,
    "ने</w>": 1287,
    "ोस": 1288,
    "ाए": 1289,
    "पै": 1290,
    "थे": 1291,
    "నె": 1292,
    "దీ": 1293,
    "১-": 1294,
    "ডল": 1295,
    "లో</w>": 1296,
    "ाण": 1297,
    "ये": 1298,
    "2,": 1299,
    "—</w>": 1300,
    "శప": 1301,
    "భూ": 1302,
    "ఇవ": 1303,
    "ఆధ": 1304,
    "শহ": 1305,
    "শব": 1306,
    "রূ": 1307,
    "জু": 1308,
    "ইং": 1309,
    "আঞ": 1310,
    "గం": 1311,
    "সন": 1312,
    "এই": 1313,
    "ইল": 1314,
    "ेर": 1315,
    "िव": 1316,
    "शह": 1317,
    "oh": 1318,
    "-প": 1319,
    "భార": 1320,
    "ei": 1321,
    "ు.": 1322,
    "ివ": 1323,
    "ের</w>": 1324,
    "৯৫": 1325,
    "৭৪": 1326,
    "পী": 1327,
    "তব": 1328,
    "्य</w>": 1329,
    "िर": 1330,
    "पो": 1331,
    "टा": 1332,
    "‌</w>": 1333,
    "ూర": 1334,
    "మర": 1335,
    "্ভ": 1336,
    "ৃহ": 1337,
    "হত": 1338,
    "ইত": 1339,
    "ి.</w>": 1340,
    "शक": 1341,
    "্য</w>": 1342,
    "ेत": 1343,
    "ైల": 1344,
    "ిర": 1345,
    "వస": 1346,
    "యో": 1347,
    "యమ": 1348,
    "ధ</w>": 1349,
    "తమ": 1350,
    "৩৩": 1351,
    "্স": 1352,
    "ুদ": 1353,
    "16": 1354,
    "তের</w>": 1355,
    "సై": 1356,
    "ర</w>": 1357,
    "২৮": 1358,
    "১.": 1359,
    "োম": 1360,
    "হন": 1361,
    "রম": 1362,
    "ভক": 1363,
    "দক": 1364,
    "ঠে": 1365,
    "টি</w>": 1366,
    "খন": 1367,
    "কু": 1368,
    "আধ": 1369,
    "ौद": 1370,
    "पि": 1371,
    "गई": 1372,
    "वै": 1373,
    "भ</w>": 1374,
    "घ</w>": 1375,
    "आग": 1376,
    "अफ": 1377,
    "ంక": 1378,
    "ৃষ": 1379,
    "को</w>": 1380,
    "ों</w>": 1381,
    "वस": 1382,
    "मत": 1383,
    "ंज": 1384,
    "ँक": 1385,
    "েট": 1386,
    "তীয়</w>": 1387,
    "ుక": 1388,
    "ुक": 1389,
    "ता</w>": 1390,
    "ెట": 1391,
    "నీ": 1392,
    "నవ": 1393,
    "నం": 1394,
    "దల": 1395,
    "గణ": 1396,
    "০৭": 1397,
    "ৎ</w>": 1398,
    "োষ": 1399,
    "িউ": 1400,
    "হয়": 1401,
    "লন": 1402,
    "মৌ": 1403,
    "মব": 1404,
    "ভারতের</w>": 1405,
    "বব": 1406,
    "ফি": 1407,
    "নগ": 1408,
    "দৈ": 1409,
    "কত": 1410,
    "অপ": 1411,
    "ंख": 1412,
    "(২": 1413,
    "cr": 1414,
    "ंट": 1415,
    "৩৫": 1416,
    "্ন": 1417,
    "ীব": 1418,
    "হল": 1419,
    "চু": 1420,
    "ঘা": 1421,
    ".৭": 1422,
    "हैं": 1423,
    "చా": 1424,
    "सल": 1425,
    "लय": 1426,
    "अत": 1427,
    "7,": 1428,
    "'</w>": 1429,
    "ఉన": 1430,
    "మం": 1431,
    "৫১": 1432,
    "৩-": 1433,
    "ুগ": 1434,
    "রব": 1435,
    "এর": 1436,
    "ংখ": 1437,
    "ेख": 1438,
    "(|": 1439,
    "তে</w>": 1440,
    "ువ": 1441,
    "రీ": 1442,
    "రమ": 1443,
    "(স": 1444,
    "राज": 1445,
    "్ప": 1446,
    "మె": 1447,
    "పద": 1448,
    "నడ": 1449,
    "తె": 1450,
    "టె": 1451,
    "২-": 1452,
    "১৪": 1453,
    "বক": 1454,
    "পো": 1455,
    "পণ": 1456,
    "নো": 1457,
    "ডে": 1458,
    "কূ": 1459,
    "এল": 1460,
    "এ</w>": 1461,
    "অস": 1462,
    "पर</w>": 1463,
    "Bo": 1464,
    ".৮": 1465,
    "ोत": 1466,
    "उत": 1467,
    "ాలు</w>": 1468,
    "దేశ": 1469,
    "ామ": 1470,
    "..": 1471,
    "ంది.</w>": 1472,
    "ত্র": 1473,
    "९</w>": 1474,
    "२.": 1475,
    "शत": 1476,
    "फि": 1477,
    "नौ": 1478,
    "डी": 1479,
    "ठ</w>": 1480,
    "जू": 1481,
    "अग": 1482,
    "ాస": 1483,
    "రూ": 1484,
    "పై": 1485,
    "৬৫": 1486,
    "১২": 1487,
    "০৪": 1488,
    "ীল": 1489,
    "ণী": 1490,
    "টব": 1491,
    "খি": 1492,
    "খণ": 1493,
    "আক": 1494,
    "यि": 1495,
    "मल": 1496,
    "बै": 1497,
    "बह": 1498,
    "नग": 1499,
    "तीय</w>": 1500,
    "िया</w>": 1501,
    "ेल": 1502,
    "E</w>": 1503,
    "ాప": 1504,
    "లె": 1505,
    "সী": 1506,
    "মস": 1507,
    "ইস": 1508,
    "আস": 1509,
    "আজ": 1510,
    "-ব": 1511,
    "న్న": 1512,
    "ক্ষ": 1513,
    "ाट": 1514,
    "कह": 1515,
    "ృత": 1516,
    "্জ": 1517,
    "ভারতীয়</w>": 1518,
    "भारतीय</w>": 1519,
    "ভারত</w>": 1520,
    "ीस": 1521,
    "िया": 1522,
    "यद": 1523,
    "आप": 1524,
    "cy": 1525,
    "हैं।</w>": 1526,
    "వృ": 1527,
    "వడ": 1528,
    "వగ": 1529,
    "ళం": 1530,
    "పొ": 1531,
    "పల": 1532,
    "దగ": 1533,
    "థ</w>": 1534,
    "৩৭": 1535,
    "মদ": 1536,
    "ঠ</w>": 1537,
    "ঝা": 1538,
    "জৈ": 1539,
    "ाओ": 1540,
    "़</w>": 1541,
    "24": 1542,
    "ষ্ট": 1543,
    "तथा</w>": 1544,
    "ళ్": 1545,
    "తన": 1546,
    "జ్": 1547,
    "జల": 1548,
    "৯৬": 1549,
    "৯০": 1550,
    "৮৫": 1551,
    "৫৫": 1552,
    "লগ": 1553,
    "রচ": 1554,
    "ुम": 1555,
    "एन": 1556,
    "96": 1557,
    "-प": 1558,
    "భారత": 1559,
    "एक</w>": 1560,
    "१८": 1561,
    "सश": 1562,
    "रद": 1563,
    "पड": 1564,
    "धु": 1565,
    "चन": 1566,
    "ుట": 1567,
    "ాబ": 1568,
    "యవ": 1569,
    "మూ": 1570,
    "০৮": 1571,
    "লে</w>": 1572,
    "वर्": 1573,
    "लत": 1574,
    "ध्": 1575,
    "12": 1576,
    "ాడ": 1577,
    "ాగ": 1578,
    "১৩": 1579,
    "কন": 1580,
    "्न": 1581,
    "এবং</w>": 1582,
    "भी</w>": 1583,
    "బి": 1584,
    "డ</w>": 1585,
    "చన": 1586,
    "ఆక": 1587,
    "৬৬": 1588,
    "৬.": 1589,
    "োব": 1590,
    "যদ": 1591,
    "চে": 1592,
    "ংল": 1593,
    "४.": 1594,
    "०,": 1595,
    "है</w>": 1596,
    "बौ": 1597,
    "ति</w>": 1598,
    "घी": 1599,
    "-৮": 1600,
    "বে</w>": 1601,
    "40": 1602,
    "েকে</w>": 1603,
    "দ্র": 1604,
    "থেকে</w>": 1605,
    "ोड": 1606,
    "सफ": 1607,
    "लु": 1608,
    "नर": 1609,
    "णि": 1610,
    "चो": 1611,
    "ऋत": 1612,
    "आस": 1613,
    "রথ": 1614,
    "নৈ": 1615,
    "্যা": 1616,
    "এই</w>": 1617,
    "ిక</w>": 1618,
    "শ্ব": 1619,
    "করে": 1620,
    "ీక": 1621,
    "షణ": 1622,
    "షం": 1623,
    "లీ": 1624,
    "మహ": 1625,
    "ఫ్": 1626,
    "పక": 1627,
    "నల": 1628,
    "ధ్": 1629,
    "ధు": 1630,
    "తూ": 1631,
    "జి": 1632,
    "గే": 1633,
    "గీ": 1634,
    "అవ": 1635,
    "৯</w>": 1636,
    "২৩": 1637,
    "োল": 1638,
    "ভো": 1639,
    "ভে": 1640,
    "বিশ্ব": 1641,
    "ডা": 1642,
    "অক": 1643,
    "कार</w>": 1644,
    "कर</w>": 1645,
    "-৭": 1646,
    "(ম": 1647,
    "ক্র": 1648,
    "এসবি": 1649,
    "আইএসবি": 1650,
    "मर": 1651,
    "टन": 1652,
    "आय": 1653,
    "As": 1654,
    "ভারতে</w>": 1655,
    "कार": 1656,
    "োর": 1657,
    "মধ্য": 1658,
    "একটি</w>": 1659,
    "हन": 1660,
    "बि": 1661,
    "कल": 1662,
    "ऊँ": 1663,
    "आं": 1664,
    "ंह": 1665,
    "Po": 1666,
    "সালে</w>": 1667,
    "ीय</w>": 1668,
    "14": 1669,
    "ాణ": 1670,
    "జక": 1671,
    "గల": 1672,
    "হয়।</w>": 1673,
    "শৈ": 1674,
    "শু": 1675,
    "রাষ্ট": 1676,
    "পূর্": 1677,
    "গৌ": 1678,
    "উভ": 1679,
    "উন": 1680,
    "আফ": 1681,
    "ुल": 1682,
    "वन": 1683,
    "मद": 1684,
    "बो": 1685,
    "बढ": 1686,
    "पूर्": 1687,
    "तग": 1688,
    "तक</w>": 1689,
    "जम": 1690,
    "|p": 1691,
    "1-": 1692,
    "ন্ত্র": 1693,
    "ना</w>": 1694,
    "क्षि": 1695,
    "Br": 1696,
    "দেশ": 1697,
    "এন</w>": 1698,
    "আইএসবিএন</w>": 1699,
    "उन": 1700,
    "ंत्र": 1701,
    "ీ,": 1702,
    "వన": 1703,
    "దన": 1704,
    "కళ": 1705,
    "৪-": 1706,
    "৩২": 1707,
    "৩০": 1708,
    "হু": 1709,
    "ভু": 1710,
    "থব": 1711,
    "ঠী": 1712,
    "কস": 1713,
    ".৬": 1714,
    ".১": 1715,
    "-আ": 1716,
    "বর্": 1717,
    "क्षे": 1718,
    "6%": 1719,
    "ాయి.</w>": 1720,
    "দের</w>": 1721,
    "তার</w>": 1722,
    "ौत": 1723,
    "ेस": 1724,
    "ेड": 1725,
    "हिन्": 1726,
    "देश</w>": 1727,
    "दक्षि": 1728,
    "ठा": 1729,
    "टर": 1730,
    "गि": 1731,
    "क्ष": 1732,
    "कं": 1733,
    "उत्": 1734,
    "Sa": 1735,
    "23": 1736,
    "్స": 1737,
    "ీర": 1738,
    "ిశ": 1739,
    "లత": 1740,
    "దేశం": 1741,
    "టే": 1742,
    "৯৪": 1743,
    "৬-": 1744,
    "১৮": 1745,
    "রাষ্ট্র": 1746,
    "রাজ": 1747,
    "রদ": 1748,
    "ফো": 1749,
    "নব": 1750,
    "নদ": 1751,
    "ধে": 1752,
    "তি</w>": 1753,
    "ঞা": 1754,
    "साथ</w>": 1755,
    "त्र</w>": 1756,
    "-অ": 1757,
    "স্থ": 1758,
    "লের</w>": 1759,
    "গুল": 1760,
    "सै": 1761,
    "तं": 1762,
    "97": 1763,
    "ধান</w>": 1764,
    "ঙ্গ": 1765,
    "बाद</w>": 1766,
    "ते</w>": 1767,
    "ओं</w>": 1768,
    "02": 1769,
    "ుర": 1770,
    "ণু": 1771,
    "ীয়</w>": 1772,
    "তম</w>": 1773,
    "কার": 1774,
    "्यों</w>": 1775,
    "ूब": 1776,
    "हॉ": 1777,
    "वृ": 1778,
    "लौ": 1779,
    "रच": 1780,
    "बज": 1781,
    "नय": 1782,
    "दक्षिण</w>": 1783,
    "चे": 1784,
    "एं": 1785,
    "04": 1786,
    "స్థ": 1787,
    "దేశం</w>": 1788,
    "ంగా</w>": 1789,
    "হয়েছ": 1790,
    "সংখ": 1791,
    "ন্দ্র": 1792,
    "গ্র": 1793,
    "অন্য": 1794,
    "सबस": 1795,
    "सबसे</w>": 1796,
    "यह</w>": 1797,
    "11": 1798,
    "ెన": 1799,
    "సూ": 1800,
    "ళి": 1801,
    "లు</w>": 1802,
    "రే": 1803,
    "నో": 1804,
    "నన": 1805,
    "దూ": 1806,
    "తే": 1807,
    "టై": 1808,
    "కన": 1809,
    "৮৭": 1810,
    "৪৭": 1811,
    "৩৮": 1812,
    "২৫": 1813,
    "াউ": 1814,
    "লয": 1815,
    "রহ": 1816,
    "য়া": 1817,
    "মধ্যে</w>": 1818,
    "ব্য": 1819,
    "পন": 1820,
    "ত-": 1821,
    "চ</w>": 1822,
    "ঘো": 1823,
    "এম": 1824,
    "উঠ": 1825,
    "আয": 1826,
    "অং": 1827,
    "२४": 1828,
    "ौह": 1829,
    "ष्ट": 1830,
    "बहु": 1831,
    "दी</w>": 1832,
    "त्र": 1833,
    "ती</w>": 1834,
    "तत": 1835,
    "ञा": 1836,
    "जय": 1837,
    "उभ": 1838,
    "46": 1839,
    ",৬": 1840,
    "్య</w>": 1841,
    "স্থা": 1842,
    "গুলি</w>": 1843,
    "ారు": 1844,
    "হায": 1845,
    "হায্য": 1846,
    "সাহায্য": 1847,
    "য়।</w>": 1848,
    "ক্ষি": 1849,
    "কার</w>": 1850,
    "रूप</w>": 1851,
    "मान": 1852,
    "गए": 1853,
    "इत": 1854,
    "ंग्र": 1855,
    "2%": 1856,
    "৫০": 1857,
    "োদ": 1858,
    "লব": 1859,
    "ించి": 1860,
    "ాలు": 1861,
    "ష్ట": 1862,
    "হল</w>": 1863,
    "যুক্": 1864,
    "বা</w>": 1865,
    "है,</w>": 1866,
    "सके</w>": 1867,
    "राज्य</w>": 1868,
    "बंध": 1869,
    "प्रा": 1870,
    "धर्": 1871,
    "K.": 1872,
    "65": 1873,
    "21": 1874,
    "(সাহায্য": 1875,
    "ులు</w>": 1876,
    "లు,</w>": 1877,
    "న్న</w>": 1878,
    "ని</w>": 1879,
    "త్ర": 1880,
    "జాత": 1881,
    "ে।</w>": 1882,
    "শতা": 1883,
    "মহা": 1884,
    "ত্র</w>": 1885,
    "অঞ্চ": 1886,
    "शन": 1887,
    "राष्ट": 1888,
    "भाषा": 1889,
    "दल": 1890,
    "था</w>": 1891,
    "किया</w>": 1892,
    "अधि": 1893,
    "xi": 1894,
    "Ra": 1895,
    "22": 1896,
    "ిట": 1897,
    "ాఖ": 1898,
    "శి": 1899,
    "పడ": 1900,
    "ను</w>": 1901,
    "ధత": 1902,
    "దం": 1903,
    "టం": 1904,
    "చై": 1905,
    "৯৩": 1906,
    "৮২": 1907,
    "৫৪": 1908,
    "৫.": 1909,
    "৪১": 1910,
    "০৫": 1911,
    "ি-": 1912,
    "সৃ": 1913,
    "শের</w>": 1914,
    "শো": 1915,
    "র্বা": 1916,
    "র-": 1917,
    "বধ": 1918,
    "প্রধান</w>": 1919,
    "গুলি": 1920,
    "ক-": 1921,
    "এর</w>": 1922,
    "আব": 1923,
    "অর্": 1924,
    "सरकार</w>": 1925,
    "शास": 1926,
    "या</w>": 1927,
    "तर</w>": 1928,
    ")।</w>": 1929,
    "ీయ</w>": 1930,
    "రాజ": 1931,
    "ারা": 1932,
    "য়ে</w>": 1933,
    "মে</w>": 1934,
    "মান": 1935,
    "নের</w>": 1936,
    "দেশের</w>": 1937,
    "তা</w>": 1938,
    "ক্ষা</w>": 1939,
    "ক্ষে": 1940,
    "করে।</w>": 1941,
    "উত্": 1942,
    "६५": 1943,
    "्या": 1944,
    "्</w>": 1945,
    "ेद": 1946,
    "ियों</w>": 1947,
    "विश्": 1948,
    "य-": 1949,
    "मग": 1950,
    "भु": 1951,
    "धन": 1952,
    "णु": 1953,
    "उस": 1954,
    "భారతీ": 1955,
    "భారత</w>": 1956,
    "కు</w>": 1957,
    "ఉన్న": 1958,
    "সংখ্য": 1959,
    "মাল": 1960,
    "দ্ধ": 1961,
    "কেন্দ্র": 1962,
    "स्ता": 1963,
    "जो</w>": 1964,
    "bh": 1965,
    "ోక": 1966,
    "ీఠ": 1967,
    "ీ-": 1968,
    "హై": 1969,
    "సహ": 1970,
    "మౌ": 1971,
    "భౌ": 1972,
    "థి": 1973,
    "జమ": 1974,
    "చబ": 1975,
    "చట": 1976,
    "గె": 1977,
    "కథ": 1978,
    "ఎల": 1979,
    "ఆహ": 1980,
    "అహ": 1981,
    "ంభ": 1982,
    "হও": 1983,
    "পৌ": 1984,
    "নৌ": 1985,
    "থ-": 1986,
    "টও": 1987,
    "ছ</w>": 1988,
    "ঘ</w>": 1989,
    "গি": 1990,
    "এফ": 1991,
    "আট": 1992,
    "ংহ": 1993,
    "xx": 1994,
    "ka": 1995,
    "SB": 1996,
    "N</w>": 1997,
    "(০": 1998,
    "ాల</w>": 1999,
    "వ్య": 2000,
    "২০০": 2001,
    "্যের</w>": 2002,
    "য়েছ": 2003,
    "ন্ত": 2004,
    "দ্ব": 2005,
    "्रि": 2006,
    "िका</w>": 2007,
    "ाइ": 2008,
    "स्था": 2009,
    "शासन</w>": 2010,
    "बड़": 2011,
    "प्त</w>": 2012,
    "निर्": 2013,
    "दस": 2014,
    "कम": 2015,
    "Be": 2016,
    "ికి</w>": 2017,
    "ష్ట్ర": 2018,
    "వాత": 2019,
    "రాష్ట్ర": 2020,
    "గా</w>": 2021,
    "క్ర": 2022,
    "కూడ": 2023,
    "সঙ্গ": 2024,
    "প্রতি": 2025,
    "शों</w>": 2026,
    "राष्ट्र": 2027,
    "मंत्र": 2028,
    "पूर्व</w>": 2029,
    "जाता</w>": 2030,
    "क्षेत्र</w>": 2031,
    "ూప": 2032,
    "ీష": 2033,
    "ీ.": 2034,
    "ారు.</w>": 2035,
    "మార": 2036,
    "భారతీయ</w>": 2037,
    "భారతదేశం": 2038,
    "బు": 2039,
    "నట": 2040,
    "చవ": 2041,
    "ంలో</w>": 2042,
    "৯১": 2043,
    "৬৩": 2044,
    "১০": 2045,
    "ুব": 2046,
    "ারে</w>": 2047,
    "স্বা": 2048,
    "মণ": 2049,
    "বৃহ": 2050,
    "বিশ্বের</w>": 2051,
    "ণ-": 2052,
    "ঠা": 2053,
    "চর": 2054,
    "গুলির</w>": 2055,
    "উদ্": 2056,
    "ुष": 2057,
    "िया।</w>": 2058,
    "ारी</w>": 2059,
    "स्कृ": 2060,
    "विश्व</w>": 2061,
    "वप": 2062,
    "भग": 2063,
    "तट": 2064,
    "चीन</w>": 2065,
    "घा": 2066,
    "इस</w>": 2067,
    "अनु": 2068,
    "ंग्रे": 2069,
    "Oxford</w>": 2070,
    ".৪": 2071,
    "BC": 2072,
    "62": 2073,
    "భారతదేశం</w>": 2074,
    "పాల": 2075,
    "జాతీయ</w>": 2076,
    "ంత్ర": 2077,
    "হিন্": 2078,
    "সংস্": 2079,
    "মাণ": 2080,
    "ভাবে</w>": 2081,
    "টার</w>": 2082,
    "জাতীয়</w>": 2083,
    "করে</w>": 2084,
    "করা</w>": 2085,
    "िक</w>": 2086,
    "साम": 2087,
    "राज्यों</w>": 2088,
    "या।</w>": 2089,
    "में": 2090,
    "बढ़": 2091,
    "पार": 2092,
    "धान</w>": 2093,
    "धान": 2094,
    "देशों</w>": 2095,
    "कि</w>": 2096,
    "}}:</w>": 2097,
    "32": 2098,
    "(সাহায্য)</w>": 2099,
    "La": 2100,
    "ాలు,</w>": 2101,
    "ৈতিক</w>": 2102,
    "িত</w>": 2103,
    "রয়েছ": 2104,
    "ভাষা": 2105,
    "পার": 2106,
    "ধার": 2107,
    "কে</w>": 2108,
    "উল্": 2109,
    "९६": 2110,
    "९.": 2111,
    "२५": 2112,
    "१७": 2113,
    "१,": 2114,
    "्ब": 2115,
    "ौर": 2116,
    "ोह": 2117,
    "ेण": 2118,
    "िष": 2119,
    "हीं</w>": 2120,
    "समय</w>": 2121,
    "समा": 2122,
    "वार": 2123,
    "वस्": 2124,
    "वल": 2125,
    "मुख</w>": 2126,
    "महा": 2127,
    "मण": 2128,
    "भो": 2129,
    "फु": 2130,
    "प्रमुख</w>": 2131,
    "द्ध</w>": 2132,
    "जु": 2133,
    "चौ": 2134,
    "चर": 2135,
    "गै": 2136,
    "ख्य": 2137,
    "काल</w>": 2138,
    "उठ": 2139,
    "आन": 2140,
    "अन्य</w>": 2141,
    "(C": 2142,
    "ేక": 2143,
    "చీ": 2144,
    "৭১": 2145,
    "৭০": 2146,
    "হী": 2147,
    "ন-": 2148,
    "টক": 2149,
    "কগ": 2150,
    "Fo": 2151,
    "-৬": 2152,
    "-স": 2153,
    "(ব": 2154,
    "వచ్": 2155,
    "ప్రా": 2156,
    "ద్ధ": 2157,
    "క్ష": 2158,
    "ఉంది.</w>": 2159,
    "্যারা": 2160,
    "্যারামি": 2161,
    "ীর</w>": 2162,
    "ান্য</w>": 2163,
    "সরকার</w>": 2164,
    "সরকার": 2165,
    "সম্প": 2166,
    "বৃহত্": 2167,
    "পরি": 2168,
    "প্যারামি": 2169,
    "ধান": 2170,
    "ধর্": 2171,
    "দেশে</w>": 2172,
    "দক্ষি": 2173,
    "তার": 2174,
    "উল্লে": 2175,
    "ইন্": 2176,
    "हैं,</w>": 2177,
    "हिन्दी</w>": 2178,
    "हो</w>": 2179,
    "सार</w>": 2180,
    "श्चि": 2181,
    "वर्ष</w>": 2182,
    "लिए</w>": 2183,
    "नाम</w>": 2184,
    "द्र</w>": 2185,
    "दो</w>": 2186,
    "गया</w>": 2187,
    "करो": 2188,
    "University</w>": 2189,
    "(A": 2190,
    "లోని</w>": 2191,
    "పార": 2192,
    "పంచ": 2193,
    "ఉన్నాయి.</w>": 2194,
    "্রি": 2195,
    "সালের</w>": 2196,
    "সঙ্গে</w>": 2197,
    "সংখ্যা</w>": 2198,
    "প্রাচ": 2199,
    "ন্ধ": 2200,
    "ন্ত</w>": 2201,
    "ধীন": 2202,
    "তর</w>": 2203,
    "४७": 2204,
    "्श": 2205,
    "ीम": 2206,
    "िये</w>": 2207,
    "हैं</w>": 2208,
    "ही</w>": 2209,
    "सेना</w>": 2210,
    "संस्कृ": 2211,
    "वों</w>": 2212,
    "ले</w>": 2213,
    "मान</w>": 2214,
    "मश": 2215,
    "फल": 2216,
    "पस": 2217,
    "पम": 2218,
    "नन": 2219,
    "धर्म</w>": 2220,
    "था।</w>": 2221,
    "ढा": 2222,
    "डॉ": 2223,
    "डा": 2224,
    "ठि": 2225,
    "जग": 2226,
    "खे": 2227,
    "क्षा</w>": 2228,
    "क्त</w>": 2229,
    "करने</w>": 2230,
    "कस": 2231,
    "कप": 2232,
    "कट": 2233,
    "ऐस": 2234,
    "एस": 2235,
    "इज": 2236,
    "अन्": 2237,
    "We": 2238,
    "Tr": 2239,
    "59": 2240,
    "‌ల": 2241,
    "‌క": 2242,
    "ోధ": 2243,
    "ేజ": 2244,
    "ెబ": 2245,
    "ించ": 2246,
    "ాళ": 2247,
    "హింద": 2248,
    "స్తు": 2249,
    "సత": 2250,
    "వ్యవ": 2251,
    "వచ్చి": 2252,
    "రచ": 2253,
    "యత": 2254,
    "మార్గ": 2255,
    "తల": 2256,
    "జె": 2257,
    "జీ": 2258,
    "కార": 2259,
    "৭৬": 2260,
    "৭,": 2261,
    "৭%": 2262,
    "৩৯": 2263,
    "২৯": 2264,
    "২৪": 2265,
    "২,": 2266,
    "১৯৯": 2267,
    "িত।</w>": 2268,
    "ানে</w>": 2269,
    "হো": 2270,
    "স্তা": 2271,
    "স-": 2272,
    "শিল": 2273,
    "রফ": 2274,
    "ভট": 2275,
    "বৃহত্তম</w>": 2276,
    "পশ্চ": 2277,
    "পথ": 2278,
    "নর": 2279,
    "দেশ</w>": 2280,
    "তির</w>": 2281,
    "ডো": 2282,
    "খো": 2283,
    "খা</w>": 2284,
    "এখ": 2285,
    "আখ": 2286,
    "অন্যান্য</w>": 2287,
    "ाने</w>": 2288,
    "होता</w>": 2289,
    "हुई</w>": 2290,
    "स्तान</w>": 2291,
    "स्वत": 2292,
    "स्त": 2293,
    "व्य": 2294,
    "ली</w>": 2295,
    "भाष": 2296,
    "पाकि": 2297,
    "नहीं</w>": 2298,
    "तिक</w>": 2299,
    "चुना": 2300,
    "कारण</w>": 2301,
    "कई</w>": 2302,
    "इसके</w>": 2303,
    "अधिक</w>": 2304,
    "-৪": 2305,
    "-০": 2306,
    "(১৯": 2307,
    "(3": 2308,
    "\"భ": 2309,
    "ికార": 2310,
    "ానికి</w>": 2311,
    "తో</w>": 2312,
    "ఖ్య": 2313,
    "కూడా</w>": 2314,
    "కాల": 2315,
    "అధికార": 2316,
    "ার্ক": 2317,
    "ায়</w>": 2318,
    "হয়েছে</w>": 2319,
    "শিল্প": 2320,
    "শাস": 2321,
    "শক্": 2322,
    "মি</w>": 2323,
    "ফলে</w>": 2324,
    "পর্": 2325,
    "নাম</w>": 2326,
    "ঞ্চ": 2327,
    "জাত": 2328,
    "ছে।</w>": 2329,
    "চিত</w>": 2330,
    "ক্ষেত্র": 2331,
    "কর্": 2332,
    "এশি": 2333,
    "এক</w>": 2334,
    "्राज": 2335,
    "्‍": 2336,
    "हुआ": 2337,
    "साम्राज": 2338,
    "संवि": 2339,
    "संविधान</w>": 2340,
    "सैन": 2341,
    "वारा</w>": 2342,
    "राजन": 2343,
    "माण</w>": 2344,
    "मंत्री</w>": 2345,
    "मक": 2346,
    "भाषाओं</w>": 2347,
    "पाकिस्तान</w>": 2348,
    "धो": 2349,
    "दृ": 2350,
    "ड़</w>": 2351,
    "जाति</w>": 2352,
    "गया।</w>": 2353,
    "ंच": 2354,
    "-0": 2355,
    "(২০": 2356,
    "స్థాన": 2357,
    "స్త": 2358,
    "వార": 2359,
    "ప్రాంత": 2360,
    "ప్రపంచ": 2361,
    "ధిక</w>": 2362,
    "దక్": 2363,
    "ట్ట": 2364,
    "ం,</w>": 2365,
    "িত্র": 2366,
    "হার</w>": 2367,
    "স্বাধীন": 2368,
    "সার": 2369,
    "য়া</w>": 2370,
    "ব্যব": 2371,
    "বিস্": 2372,
    "বায়": 2373,
    "পুর": 2374,
    "নির্বা": 2375,
    "ধিক</w>": 2376,
    "তান্ত্র": 2377,
    "ক্ষ</w>": 2378,
    "কৃত": 2379,
    "ংশ</w>": 2380,
    "ियाँ</w>": 2381,
    "स्थि": 2382,
    "सित</w>": 2383,
    "संबंध": 2384,
    "षों</w>": 2385,
    "वस्था</w>": 2386,
    "लय</w>": 2387,
    "राष्ट्रीय</w>": 2388,
    "मिल": 2389,
    "बीच</w>": 2390,
    "बना": 2391,
    "पार्ट": 2392,
    "पश्चि": 2393,
    "नों</w>": 2394,
    "निक</w>": 2395,
    "द्वारा</w>": 2396,
    "देख": 2397,
    "दशक</w>": 2398,
    "द्र": 2399,
    "दिया</w>": 2400,
    "चुनावों</w>": 2401,
    "ख्या</w>": 2402,
    "क्षेत्र": 2403,
    "उत्तर</w>": 2404,
    "आर्": 2405,
    "अनुसार</w>": 2406,
    "{{c": 2407,
    "{{cit": 2408,
    "{{citation": 2409,
    "{{citation}}:</w>": 2410,
    "Pp.</w>": 2411,
    "Pres": 2412,
    "New</w>": 2413,
    "4,": 2414,
    "(P": 2415,
    "ోద": 2416,
    "ాశ": 2417,
    "యల": 2418,
    "జం": 2419,
    "ంఘ": 2420,
    "৭২": 2421,
    "৪৬": 2422,
    "৪৩": 2423,
    "৩৪": 2424,
    "ৈল": 2425,
    "ুজ": 2426,
    "ীম": 2427,
    "ভৃ": 2428,
    "বপ": 2429,
    "জর": 2430,
    "(এ": 2431,
    "ాత్ర": 2432,
    "రైలు</w>": 2433,
    "మైన</w>": 2434,
    "భారతదేశంలో</w>": 2435,
    "భారతదే": 2436,
    "పార్ట": 2437,
    "పరి": 2438,
    "న్ని</w>": 2439,
    "ది.</w>": 2440,
    "దక్షి": 2441,
    "దాయ": 2442,
    "తర</w>": 2443,
    "ఆర్": 2444,
    "ীন</w>": 2445,
    "ানা</w>": 2446,
    "হয়ে</w>": 2447,
    "হয়</w>": 2448,
    "স্থা</w>": 2449,
    "স্ট": 2450,
    "সাহ": 2451,
    "সামর": 2452,
    "সামরিক</w>": 2453,
    "সাধার": 2454,
    "সর্বা": 2455,
    "শতাংশ": 2456,
    "লিত</w>": 2457,
    "লিক</w>": 2458,
    "য়ের</w>": 2459,
    "যদি": 2460,
    "যদিও</w>": 2461,
    "মাণু</w>": 2462,
    "মার্ক": 2463,
    "ভিন্": 2464,
    "বৈচ": 2465,
    "বৈচিত্র": 2466,
    "বল</w>": 2467,
    "প্রথ": 2468,
    "পূর্ব</w>": 2469,
    "পরমাণু</w>": 2470,
    "ন্তর্": 2471,
    "নিয়": 2472,
    "দ্ধ</w>": 2473,
    "দক্ষিণ</w>": 2474,
    "দিক": 2475,
    "তিতে</w>": 2476,
    "ছাড়": 2477,
    "খযোগ": 2478,
    "ক্ষেত্রে</w>": 2479,
    "কের</w>": 2480,
    "এছাড়": 2481,
    "উল্লেখযোগ": 2482,
    "আন্": 2483,
    "५०": 2484,
    "२६": 2485,
    "१०": 2486,
    "ॉक": 2487,
    "ैत": 2488,
    "ीब": 2489,
    "सैन्य</w>": 2490,
    "संख्या</w>": 2491,
    "योग</w>": 2492,
    "में,</w>": 2493,
    "बहुत</w>": 2494,
    "बल": 2495,
    "फै": 2496,
    "प्राचीन</w>": 2497,
    "प्रधान": 2498,
    "प्रदेश</w>": 2499,
    "नेतृ": 2500,
    "नेतृत्": 2501,
    "निर्माण</w>": 2502,
    "नी</w>": 2503,
    "द्वी": 2504,
    "दान</w>": 2505,
    "दौ": 2506,
    "दम": 2507,
    "थी।</w>": 2508,
    "थल": 2509,
    "तल": 2510,
    "क्ति</w>": 2511,
    "किया।</w>": 2512,
    "क-": 2513,
    "एशिया</w>": 2514,
    "उल": 2515,
    "ई।</w>": 2516,
    "आज": 2517,
    "ंग्रेस</w>": 2518,
    "74": 2519,
    "-आ": 2520,
    "(I": 2521,
    "(B": 2522,
    "83": 2523,
    "6,": 2524,
    "్యం</w>": 2525,
    "ించింది.</w>": 2526,
    "ాలలో</w>": 2527,
    "వ్యవస్థ": 2528,
    "రెండ": 2529,
    "రాజ్య": 2530,
    "రు</w>": 2531,
    "భుత్": 2532,
    "ప్రభుత్": 2533,
    "పు</w>": 2534,
    "న్</w>": 2535,
    "నాభ": 2536,
    "తం</w>": 2537,
    "జనాభ": 2538,
    "క్కు": 2539,
    "ఎన్న": 2540,
    "అయి": 2541,
    "১৯-": 2542,
    "্রে": 2543,
    "িন</w>": 2544,
    "হিসে": 2545,
    "সাম": 2546,
    "সমা": 2547,
    "রাজ্য</w>": 2548,
    "রাজ্য": 2549,
    "রাজন": 2550,
    "যুক্ত": 2551,
    "যা</w>": 2552,
    "মার্কিন</w>": 2553,
    "মন্ত্র": 2554,
    "বিক</w>": 2555,
    "বাহি": 2556,
    "বাস": 2557,
    "ফুট": 2558,
    "প্রথম</w>": 2559,
    "প্রি": 2560,
    "প্যারামিটার</w>": 2561,
    "পর্বত": 2562,
    "পরী": 2563,
    "না</w>": 2564,
    "দ্ধি</w>": 2565,
    "থনৈতিক</w>": 2566,
    "তারিখ": 2567,
    "তান্ত্রিক</w>": 2568,
    "জনপ্রি": 2569,
    "ক্রিক": 2570,
    "উত্তর</w>": 2571,
    "অর্থনৈতিক</w>": 2572,
    "অধিক": 2573,
    "অজানা</w>": 2574,
    "्याया": 2575,
    "िया,</w>": 2576,
    "ाली</w>": 2577,
    "हुआ।</w>": 2578,
    "हुए</w>": 2579,
    "स्थ": 2580,
    "साम्राज्य</w>": 2581,
    "वीं</w>": 2582,
    "वी</w>": 2583,
    "वा</w>": 2584,
    "लों</w>": 2585,
    "रहा</w>": 2586,
    "रे</w>": 2587,
    "मिल</w>": 2588,
    "माण": 2589,
    "माणु</w>": 2590,
    "म,</w>": 2591,
    "भूम": 2592,
    "भाषा</w>": 2593,
    "प्रधानमंत्री</w>": 2594,
    "प्रति": 2595,
    "परमाणु</w>": 2596,
    "पर्": 2597,
    "न्याया": 2598,
    "थिक</w>": 2599,
    "ढ़</w>": 2600,
    "जिस": 2601,
    "जाती</w>": 2602,
    "कॉंग्रेस</w>": 2603,
    "करोड़</w>": 2604,
    "क्र": 2605,
    "कर्": 2606,
    "उनक": 2607,
    "आर्थिक</w>": 2608,
    "अर्": 2609,
    "ंगा</w>": 2610,
    "He": 2611,
    "Gu": 2612,
    "్రా": 2613,
    "ౌర": 2614,
    "ోళ": 2615,
    "ో-": 2616,
    "ుళ": 2617,
    "హో": 2618,
    "స్త్ర": 2619,
    "స్తా": 2620,
    "స్కృ": 2621,
    "స</w>": 2622,
    "షా": 2623,
    "షయ": 2624,
    "శీ": 2625,
    "వచ్చింది.</w>": 2626,
    "వర్": 2627,
    "లమ": 2628,
    "మద": 2629,
    "భవ": 2630,
    "బౌ": 2631,
    "బై": 2632,
    "పెద్": 2633,
    "నక": 2634,
    "ధూ": 2635,
    "ణా</w>": 2636,
    "ఢా": 2637,
    "డిన</w>": 2638,
    "డై": 2639,
    "డీ": 2640,
    "డవ": 2641,
    "డమ": 2642,
    "చెంద": 2643,
    "చూ": 2644,
    "ఘ</w>": 2645,
    "ఖమ": 2646,
    "కబ": 2647,
    "ఐక": 2648,
    "ఏక": 2649,
    "ఎడ": 2650,
    "ఈశ": 2651,
    "ఆఫ": 2652,
    "ఆగ": 2653,
    "అణ": 2654,
    "ంద్ర": 2655,
    "৯%": 2656,
    "৬০": 2657,
    "১৯৫": 2658,
    "১৫": 2659,
    "০৯": 2660,
    "ু-": 2661,
    "ীদ": 2662,
    "াঠ": 2663,
    "াঘ": 2664,
    "হিন্দু": 2665,
    "হিসা": 2666,
    "স্থান": 2667,
    "সাহিত": 2668,
    "সংস্কৃ": 2669,
    "শিষ্ট": 2670,
    "শ-": 2671,
    "রয়েছে</w>": 2672,
    "য়ে": 2673,
    "য়ী</w>": 2674,
    "মান</w>": 2675,
    "ম্ব": 2676,
    "ভূমি</w>": 2677,
    "ভিন্ন</w>": 2678,
    "ভর": 2679,
    "বিচ": 2680,
    "বাহ": 2681,
    "বাণ": 2682,
    "বাণিজ": 2683,
    "ব্যা": 2684,
    "বৌ": 2685,
    "ফুটবল</w>": 2686,
    "প্রাচীন</w>": 2687,
    "প্রস্তা": 2688,
    "প্রযুক্": 2689,
    "প্রধান": 2690,
    "পূর্ণ</w>": 2691,
    "পশ্চিম": 2692,
    "পর্য": 2693,
    "পল": 2694,
    "থর": 2695,
    "ত।</w>": 2696,
    "জনসংখ্যা</w>": 2697,
    "জস": 2698,
    "জন</w>": 2699,
    "ঙ্গী": 2700,
    "গের</w>": 2701,
    "কাপ</w>": 2702,
    "কী": 2703,
    "ওপ": 2704,
    "ঐতি": 2705,
    "এশিয়া": 2706,
    "এঁ": 2707,
    "ইড": 2708,
    "আর্": 2709,
    "আম": 2710,
    "আছ": 2711,
    "আ</w>": 2712,
    "অনু": 2713,
    "অঞ্চল": 2714,
    "অক্": 2715,
    "ঁদ": 2716,
    "४०": 2717,
    "१९९": 2718,
    "१५": 2719,
    "१४": 2720,
    "०४": 2721,
    "्दी</w>": 2722,
    "ारिक</w>": 2723,
    "हाला": 2724,
    "सरकार": 2725,
    "संस": 2726,
    "सर्": 2727,
    "श्र": 2728,
    "शै": 2729,
    "शता": 2730,
    "शताब": 2731,
    "शताब्दी</w>": 2732,
    "विका": 2733,
    "वर्षों</w>": 2734,
    "लिये</w>": 2735,
    "रू</w>": 2736,
    "रिक</w>": 2737,
    "रक्षा</w>": 2738,
    "ब्रि": 2739,
    "प्राप्त</w>": 2740,
    "पूर्ण</w>": 2741,
    "पहले</w>": 2742,
    "पद": 2743,
    "पड़": 2744,
    "नेतृत्व</w>": 2745,
    "निर": 2746,
    "धि</w>": 2747,
    "द्वीप</w>": 2748,
    "टक": 2749,
    "जिसमें</w>": 2750,
    "जनजाति</w>": 2751,
    "जा</w>": 2752,
    "च्च</w>": 2753,
    "गणराज्य</w>": 2754,
    "ग्र": 2755,
    "क्षेत्रीय</w>": 2756,
    "केंद": 2757,
    "कें": 2758,
    "कार्य": 2759,
    "ओर</w>": 2760,
    "उत्तर": 2761,
    "इसक": 2762,
    "इन</w>": 2763,
    "अरब</w>": 2764,
    "CI": 2765,
    "7/": 2766,
    ".6": 2767,
    "-ఢ": 2768,
    "(৪": 2769,
    "&</w>": 2770,
    "9%": 2771,
    "’</w>": 2772,
    "ుగా</w>": 2773,
    "ిల్ల": 2774,
    "వాణా</w>": 2775,
    "వంట": 2776,
    "రువాత": 2777,
    "మార్గాలు</w>": 2778,
    "మధ్య</w>": 2779,
    "బ్ర": 2780,
    "పేరు</w>": 2781,
    "పట్ట": 2782,
    "నిర్": 2783,
    "తరువాత": 2784,
    "ట్ల": 2785,
    "టు</w>": 2786,
    "జరి": 2787,
    "క్రీడ": 2788,
    "కేంద్ర": 2789,
    "ఒక</w>": 2790,
    "ఉన్న</w>": 2791,
    "ఉత్": 2792,
    "ఉంట": 2793,
    "ఇండ": 2794,
    "১৯৮": 2795,
    "০-১৯-": 2796,
    "্রিষ": 2797,
    "্রিষ্ট": 2798,
    "্য।</w>": 2799,
    "েশন</w>": 2800,
    "েট</w>": 2801,
    "হিসেবে</w>": 2802,
    "হিসাবে</w>": 2803,
    "স্থি": 2804,
    "সরকারি</w>": 2805,
    "সংবি": 2806,
    "সর্": 2807,
    "শীল</w>": 2808,
    "লিয়": 2809,
    "লার</w>": 2810,
    "রাষ্ট্র।</w>": 2811,
    "যার</w>": 2812,
    "যোগ": 2813,
    "মধ্য</w>": 2814,
    "বিশ্বে</w>": 2815,
    "বিভিন্ন</w>": 2816,
    "বিত": 2817,
    "বার</w>": 2818,
    "বহু": 2819,
    "বর্তম": 2820,
    "বছর</w>": 2821,
    "ব্দ": 2822,
    "প্রায়</w>": 2823,
    "ন।</w>": 2824,
    "দ্বী": 2825,
    "দেখা</w>": 2826,
    "দুই</w>": 2827,
    "দি</w>": 2828,
    "তৃত্": 2829,
    "তায়</w>": 2830,
    "চ্চ": 2831,
    "গণতান্ত্রিক</w>": 2832,
    "খ্রিষ্ট": 2833,
    "ক্রিকেট</w>": 2834,
    "ক্রা": 2835,
    "করতে</w>": 2836,
    "কংগ": 2837,
    "এটি</w>": 2838,
    "উদ্ধৃ": 2839,
    "উত্তর": 2840,
    "हें</w>": 2841,
    "हाँ</w>": 2842,
    "स्वतंत्र": 2843,
    "स्वतंत्रता</w>": 2844,
    "स्थित</w>": 2845,
    "स्थान</w>": 2846,
    "साल</w>": 2847,
    "सदस": 2848,
    "संस्कृति</w>": 2849,
    "संबंध</w>": 2850,
    "विदे": 2851,
    "लोक": 2852,
    "लगभ": 2853,
    "लगभग</w>": 2854,
    "राज्य": 2855,
    "युक्त</w>": 2856,
    "मध्य": 2857,
    "भूमिका</w>": 2858,
    "ब्रिटि": 2859,
    "ब्रिटिश</w>": 2860,
    "बंधन</w>": 2861,
    "प्रभा": 2862,
    "प्ले": 2863,
    "पश्चिम</w>": 2864,
    "न्हें</w>": 2865,
    "निभा": 2866,
    "दोनों</w>": 2867,
    "त्य": 2868,
    "जनसंख्या</w>": 2869,
    "जान": 2870,
    "चार</w>": 2871,
    "केंद्र": 2872,
    "केंद्र</w>": 2873,
    "कुल</w>": 2874,
    "कुछ</w>": 2875,
    "एवं</w>": 2876,
    "इंड": 2877,
    "To": 2878,
    "SI": 2879,
    "Ri": 2880,
    "Do": 2881,
    "8,": 2882,
    "75": 2883,
    "-1": 2884,
    "”</w>": 2885,
    "ీ,</w>": 2886,
    "ిన</w>": 2887,
    "ాల్": 2888,
    "ాలను</w>": 2889,
    "సాధ": 2890,
    "సిం": 2891,
    "సార": 2892,
    "సరి": 2893,
    "సంగ": 2894,
    "శ్ర": 2895,
    "లు.</w>": 2896,
    "రవాణా</w>": 2897,
    "మంత్ర": 2898,
    "భారతదేశ</w>": 2899,
    "భారత్": 2900,
    "ప్రస్తు": 2901,
    "ప్రధా": 2902,
    "ప్రధాన</w>": 2903,
    "పెద్ద</w>": 2904,
    "పాకి": 2905,
    "దేశానికి</w>": 2906,
    "ణం</w>": 2907,
    "జనాభా</w>": 2908,
    "కాంగ": 2909,
    "కాంగ్ర": 2910,
    "కలి": 2911,
    "ఏర్": 2912,
    "ఎన్నో</w>": 2913,
    "ఎక్కు": 2914,
    "ఇది</w>": 2915,
    "ఇతర</w>": 2916,
    "২০০৮</w>": 2917,
    "১৯৭": 2918,
    "্রুপ": 2919,
    "্যার</w>": 2920,
    "্যু": 2921,
    "্য,</w>": 2922,
    "েক্ষা</w>": 2923,
    "ুন</w>": 2924,
    "ী।</w>": 2925,
    "িল।</w>": 2926,
    "িতে</w>": 2927,
    "ারের</w>": 2928,
    "ানি</w>": 2929,
    "ানি": 2930,
    "সিত</w>": 2931,
    "সাধারণ</w>": 2932,
    "সম্পর্": 2933,
    "সংস": 2934,
    "সঙ্গী": 2935,
    "সক্ষ": 2936,
    "সক্ষম</w>": 2937,
    "শীয়</w>": 2938,
    "শাসিত</w>": 2939,
    "লাভ</w>": 2940,
    "যুক্তরাষ্ট্র": 2941,
    "মোট</w>": 2942,
    "মূল</w>": 2943,
    "বৃদ্ধি</w>": 2944,
    "বিত)</w>": 2945,
    "বলে</w>": 2946,
    "প্রস্তাবিত)</w>": 2947,
    "প্রধানমন্ত্র": 2948,
    "প্রাণ": 2949,
    "পরীক্ষা</w>": 2950,
    "পরিব": 2951,
    "পে</w>": 2952,
    "নিক": 2953,
    "নদী": 2954,
    "ধ্রুপ": 2955,
    "দ্বীপ": 2956,
    "দ্র</w>": 2957,
    "দ্বি": 2958,
    "দিকে</w>": 2959,
    "ড়ে</w>": 2960,
    "গত</w>": 2961,
    "ক্ষম": 2962,
    "কেন্দ্রীয়</w>": 2963,
    "ঐতিহ": 2964,
    "এছাড়া": 2965,
    "একা": 2966,
    "উল্লেখযোগ্য</w>": 2967,
    "উপেক্ষা</w>": 2968,
    "উচ্চ": 2969,
    "९४": 2970,
    "९१": 2971,
    "६२": 2972,
    "६०": 2973,
    "५४": 2974,
    "ुनिक</w>": 2975,
    "ीट": 2976,
    "िकी</w>": 2977,
    "िकारिक</w>": 2978,
    "ित</w>": 2979,
    "ारम्": 2980,
    "ान,</w>": 2981,
    "हुआ</w>": 2982,
    "हिमा": 2983,
    "हट": 2984,
    "स्व": 2985,
    "समाज</w>": 2986,
    "संयुक्त</w>": 2987,
    "सी</w>": 2988,
    "शासित</w>": 2989,
    "विदेश": 2990,
    "वाय": 2991,
    "वज": 2992,
    "लै": 2993,
    "लन</w>": 2994,
    "रा</w>": 2995,
    "युद्ध</w>": 2996,
    "यश": 2997,
    "मा</w>": 2998,
    "भाषाए": 2999,
    "बड़ा</w>": 3000,
    "बू": 3001,
    "फा": 3002,
    "प्लेट</w>": 3003,
    "प्रारम्": 3004,
    "प्रकार</w>": 3005,
    "पार्टी</w>": 3006,
    "न्त": 3007,
    "न्तु</w>": 3008,
    "निय": 3009,
    "था,</w>": 3010,
    "त-": 3011,
    "ण-": 3012,
    "डर": 3013,
    "ठी": 3014,
    "जिसक": 3015,
    "जाते</w>": 3016,
    "छू": 3017,
    "गठबंधन</w>": 3018,
    "ग़": 3019,
    "गंगा</w>": 3020,
    "केन्": 3021,
    "औस": 3022,
    "ईसा</w>": 3023,
    "इसी</w>": 3024,
    "आधुनिक</w>": 3025,
    "आधिकारिक</w>": 3026,
    "आठ": 3027,
    "अप्र": 3028,
    "अपने</w>": 3029,
    "अपनी</w>": 3030,
    "अह": 3031,
    "अमे": 3032,
    "अंग्रे": 3033,
    "ंथ": 3034,
    "|</w>": 3035,
    "author": 3036,
    "PA": 3037,
    ".३": 3038,
    "./": 3039,
    "(সাহায্য);</w>": 3040,
    "‌వ": 3041,
    "‌ক": 3042,
    "ేష": 3043,
    "ూన": 3044,
    "ూట": 3045,
    "సే": 3046,
    "లప": 3047,
    "మస": 3048,
    "ట</w>": 3049,
    "ఘన": 3050,
    "ఒల": 3051,
    "అల": 3052,
    "అర": 3053,
    "৫,": 3054,
    "৪২": 3055,
    "৩৬": 3056,
    "৩%": 3057,
    "২২": 3058,
    "ৈর": 3059,
    "সো": 3060,
    "লজ": 3061,
    "ভব": 3062,
    "নভ": 3063,
    "জগ": 3064,
    "চক": 3065,
    "ঘ্": 3066,
    "খর": 3067,
    "কব": 3068,
    "E.": 3069,
    "9-": 3070,
    "\"স": 3071,
    "ులు,</w>": 3072,
    "ించిన</w>": 3073,
    "హద్": 3074,
    "స్కృత": 3075,
    "స్థా": 3076,
    "స్</w>": 3077,
    "సియ": 3078,
    "సిని": 3079,
    "సినిమ": 3080,
    "సరిహద్": 3081,
    "శాస్త్ర": 3082,
    "శపు</w>": 3083,
    "విధ": 3084,
    "లో,</w>": 3085,
    "ర్య": 3086,
    "ర్</w>": 3087,
    "ముఖ్య": 3088,
    "భాష": 3089,
    "ప్పట": 3090,
    "నుండ": 3091,
    "దక్షిణా": 3092,
    "ది</w>": 3093,
    "దం</w>": 3094,
    "డు</w>": 3095,
    "చిన్న</w>": 3096,
    "గల</w>": 3097,
    "క్</w>": 3098,
    "కుంట": 3099,
    "ఆర్ధిక</w>": 3100,
    "అత్య": 3101,
    "ంగ్ల": 3102,
    "০-১৯-৫৬": 3103,
    "্রিটি": 3104,
    "্চলিক</w>": 3105,
    "েছে।</w>": 3106,
    "িবীর</w>": 3107,
    "িণত</w>": 3108,
    "ার</w>": 3109,
    "হিমাল": 3110,
    "হয়েছে।</w>": 3111,
    "স্বাধীনতা</w>": 3112,
    "স্থিত</w>": 3113,
    "সিন্ধ": 3114,
    "সিন্ধু</w>": 3115,
    "সদস": 3116,
    "সংর": 3117,
    "সংগ্র": 3118,
    "ষ্ঠ": 3119,
    "ষিত</w>": 3120,
    "ষা</w>": 3121,
    "শব্দ": 3122,
    "শতাংশ</w>": 3123,
    "শক্তি": 3124,
    "লিয়ন</w>": 3125,
    "রাজনৈতিক</w>": 3126,
    "যুদ্ধ": 3127,
    "য়ার": 3128,
    "মালা</w>": 3129,
    "ম,</w>": 3130,
    "ভূমি": 3131,
    "ব্যবস্থা": 3132,
    "বৈচিত্র্য": 3133,
    "বেশ": 3134,
    "বর্তমানে</w>": 3135,
    "প্ত</w>": 3136,
    "পৃথ": 3137,
    "পৃথিবীর</w>": 3138,
    "পাঁচ": 3139,
    "পরিণত</w>": 3140,
    "পর</w>": 3141,
    "ন্ন": 3142,
    "ন্ড": 3143,
    "নির্বাচিত</w>": 3144,
    "নিয়ে</w>": 3145,
    "থাকে": 3146,
    "তী</w>": 3147,
    "তিহা": 3148,
    "তিত</w>": 3149,
    "ত,</w>": 3150,
    "টের</w>": 3151,
    "ট্র": 3152,
    "টারে</w>": 3153,
    "জাতিক</w>": 3154,
    "জলবায়": 3155,
    "জি</w>": 3156,
    "জয়": 3157,
    "গুলো": 3158,
    "গঠিত</w>": 3159,
    "গঠন</w>": 3160,
    "খেল": 3161,
    "ক্ষর</w>": 3162,
    "ক্ষা": 3163,
    "ক্ষর": 3164,
    "ক্ষণ": 3165,
    "কাল</w>": 3166,
    "কংগ্রে": 3167,
    "কূল": 3168,
    "কয়": 3169,
    "এছাড়াও</w>": 3170,
    "উপকূল": 3171,
    "উত্তর-": 3172,
    "উড</w>": 3173,
    "ইন্ডি": 3174,
    "ইতিহা": 3175,
    "আঞ্চলিক</w>": 3176,
    "আয়": 3177,
    "অন্যতম</w>": 3178,
    "२००": 3179,
    "१९८": 3180,
    "१९७": 3181,
    "्योग": 3182,
    "्र</w>": 3183,
    "ॉलर</w>": 3184,
    "ैली</w>": 3185,
    "ेजी</w>": 3186,
    "ें</w>": 3187,
    "ानों</w>": 3188,
    "होती</w>": 3189,
    "हिमालय</w>": 3190,
    "हिन्द": 3191,
    "हरी</w>": 3192,
    "स्तृ": 3193,
    "स्तृत</w>": 3194,
    "समर्": 3195,
    "सभा</w>": 3196,
    "संसद</w>": 3197,
    "संघ</w>": 3198,
    "शेष</w>": 3199,
    "शुरू</w>": 3200,
    "व्यवस्था</w>": 3201,
    "विदेशी</w>": 3202,
    "विकास</w>": 3203,
    "विस्तृत</w>": 3204,
    "वायु</w>": 3205,
    "वाद</w>": 3206,
    "वर्ग</w>": 3207,
    "वल</w>": 3208,
    "ला</w>": 3209,
    "रों</w>": 3210,
    "रहे</w>": 3211,
    "युग</w>": 3212,
    "मों</w>": 3213,
    "मैदान</w>": 3214,
    "मुख": 3215,
    "मी</w>": 3216,
    "मत</w>": 3217,
    "भाजप": 3218,
    "भाजपा</w>": 3219,
    "बहुमत</w>": 3220,
    "बड़े</w>": 3221,
    "बड़ी</w>": 3222,
    "पहा": 3223,
    "न्न</w>": 3224,
    "धीरे</w>": 3225,
    "ध्य": 3226,
    "दोलन</w>": 3227,
    "दर्": 3228,
    "दर</w>": 3229,
    "थव्य": 3230,
    "तिहा": 3231,
    "ण्ड": 3232,
    "ड़ी</w>": 3233,
    "डॉलर</w>": 3234,
    "जिसके</w>": 3235,
    "ज़ी</w>": 3236,
    "गांध": 3237,
    "गत</w>": 3238,
    "क्ष</w>": 3239,
    "की।</w>": 3240,
    "कर्ज</w>": 3241,
    "करना</w>": 3242,
    "करण</w>": 3243,
    "अलग</w>": 3244,
    "अर्थव्य": 3245,
    "अंग्र": 3246,
    "अंग्रेजी</w>": 3247,
    "ork": 3248,
    "ork:</w>": 3249,
    "b</w>": 3250,
    "York:</w>": 3251,
    "Press.</w>": 3252,
    "Publ": 3253,
    "1950</w>": 3254,
    "$2": 3255,
    "Ju": 3256,
    "0-": 3257,
    "–1": 3258,
    "ుల</w>": 3259,
    "ియా</w>": 3260,
    "ిక,</w>": 3261,
    "ి,</w>": 3262,
    "ాల్లో</w>": 3263,
    "ాలో</w>": 3264,
    "ాలతో</w>": 3265,
    "హిందూ": 3266,
    "స్వా": 3267,
    "సామ": 3268,
    "సరిహద్ద": 3269,
    "సౌక": 3270,
    "సము": 3271,
    "సమా": 3272,
    "వివి": 3273,
    "వివిధ</w>": 3274,
    "లకు</w>": 3275,
    "రాజకీ": 3276,
    "రాజకీయ</w>": 3277,
    "రహద": 3278,
    "రంగ": 3279,
    "మొదల": 3280,
    "మొదట": 3281,
    "మొదటి</w>": 3282,
    "మూడ": 3283,
    "మాత్ర": 3284,
    "భాగ": 3285,
    "బ్రి": 3286,
    "బెంగ": 3287,
    "ప్రాచ": 3288,
    "ప్రము": 3289,
    "ప్రతి": 3290,
    "ప్పటిక": 3291,
    "పేర్": 3292,
    "పండ": 3293,
    "నుండి</w>": 3294,
    "నే</w>": 3295,
    "నడి": 3296,
    "ధాన": 3297,
    "ద్ధి</w>": 3298,
    "దేశంలోని</w>": 3299,
    "దేశంలో</w>": 3300,
    "దేశాల</w>": 3301,
    "ద్ర": 3302,
    "త్వ": 3303,
    "జాబ": 3304,
    "జరిగి": 3305,
    "చే</w>": 3306,
    "క్క": 3307,
    "కోర్": 3308,
    "కాలంలో</w>": 3309,
    "కాంగ్రెస": 3310,
    "అత్యధిక</w>": 3311,
    "ంతో</w>": 3312,
    "২০১": 3313,
    "০-এর</w>": 3314,
    "্রিটিশ</w>": 3315,
    "্রাজ": 3316,
    "্যিক</w>": 3317,
    "্যাদ": 3318,
    "্টি</w>": 3319,
    "োমি": 3320,
    "ুরু</w>": 3321,
    "ুর</w>": 3322,
    "িলোমি": 3323,
    "ারী</w>": 3324,
    "াংশ</w>": 3325,
    "হের</w>": 3326,
    "হলে": 3327,
    "স্থানীয়</w>": 3328,
    "স্থাপত": 3329,
    "স্ত্র": 3330,
    "স্ত": 3331,
    "স্ট</w>": 3332,
    "সের</w>": 3333,
    "সাম্রাজ": 3334,
    "সাং": 3335,
    "সর্বাধিক</w>": 3336,
    "সম্পর্ক</w>": 3337,
    "সম্প্র": 3338,
    "সঙ্গীত</w>": 3339,
    "সংখ্যার</w>": 3340,
    "সংক্রা": 3341,
    "ষ্ঠি": 3342,
    "ষ্ঠিত</w>": 3343,
    "ষের</w>": 3344,
    "শতাংশ।</w>": 3345,
    "শতাব্দ": 3346,
    "শতাব্দীর</w>": 3347,
    "শ্র": 3348,
    "রের</w>": 3349,
    "রে</w>": 3350,
    "যুক্ত</w>": 3351,
    "যায়।</w>": 3352,
    "য়ায়</w>": 3353,
    "মান:</w>": 3354,
    "মাণবিক</w>": 3355,
    "মহাকা": 3356,
    "মতা</w>": 3357,
    "ম্প": 3358,
    "ভাষায়</w>": 3359,
    "ভাগ</w>": 3360,
    "ভক্": 3361,
    "ব্যবস্থা</w>": 3362,
    "বৈশিষ্ট": 3363,
    "বৈধ</w>": 3364,
    "বেশ</w>": 3365,
    "বৃদ্": 3366,
    "বৃদ্ধি": 3367,
    "বিশে": 3368,
    "বিভক্": 3369,
    "বিবে": 3370,
    "বিবা": 3371,
    "বিজে": 3372,
    "বাহিনী": 3373,
    "বাদ": 3374,
    "বাং": 3375,
    "বাংলা": 3376,
    "বই</w>": 3377,
    "প্রতি</w>": 3378,
    "প্রজাত": 3379,
    "প্যারামিটারে</w>": 3380,
    "পের</w>": 3381,
    "পূর্বা": 3382,
    "পারমাণবিক</w>": 3383,
    "পাকি": 3384,
    "পর্যন্ত</w>": 3385,
    "পর্বতমালা</w>": 3386,
    "ন্তর্জাতিক</w>": 3387,
    "ন্দ্র</w>": 3388,
    "ন্ত্র</w>": 3389,
    "নেতৃত্": 3390,
    "নার</w>": 3391,
    "নামে</w>": 3392,
    "নাম": 3393,
    "নৃত": 3394,
    "ন=</w>": 3395,
    "ধর</w>": 3396,
    "দ্বীপ</w>": 3397,
    "দুটি</w>": 3398,
    "দান</w>": 3399,
    "দশক": 3400,
    "থেকে": 3401,
    "থাকে।</w>": 3402,
    "ত্ব": 3403,
    "ত্ত্": 3404,
    "তৃতীয়</w>": 3405,
    "তি}}:</w>": 3406,
    "তারিখে</w>": 3407,
    "তামি": 3408,
    "ণে</w>": 3409,
    "ঢ়</w>": 3410,
    "জ্ঞ": 3411,
    "জোট</w>": 3412,
    "জন্য</w>": 3413,
    "ছে</w>": 3414,
    "চলচ্চ": 3415,
    "চন্দ্র": 3416,
    "গ্রা": 3417,
    "গতভাবে</w>": 3418,
    "ক্ষিত</w>": 3419,
    "ক্ষরতার</w>": 3420,
    "ক্ষমতা</w>": 3421,
    "ক্রমে</w>": 3422,
    "কেন্দ্রশাসিত</w>": 3423,
    "কৃতি</w>": 3424,
    "করেছে।</w>": 3425,
    "করুন</w>": 3426,
    "কংগ্রেস</w>": 3427,
    "কিলোমি": 3428,
    "এশিয়ার</w>": 3429,
    "একাধিক</w>": 3430,
    "উপর</w>": 3431,
    "উপমহা": 3432,
    "উদ্ধৃতি}}:</w>": 3433,
    "ইন্দো": 3434,
    "ইংরে": 3435,
    "আন্দো": 3436,
    "আইএসবিন=</w>": 3437,
    "আইন</w>": 3438,
    "আন্তর্জাতিক</w>": 3439,
    "অবস্থিত</w>": 3440,
    "অন্যদিকে</w>": 3441,
    "অধিকাংশ</w>": 3442,
    "অ্য": 3443,
    "অভি": 3444,
    "অবৈধ</w>": 3445,
    "অন্তর্": 3446,
    "অনে": 3447,
    "অক্ষর</w>": 3448,
    "८९": 3449,
    "५२": 3450,
    "५,": 3451,
    "१९५": 3452,
    "्रीक": 3453,
    "्रीका</w>": 3454,
    "्यो": 3455,
    "्यता</w>": 3456,
    "ोसी</w>": 3457,
    "ोज": 3458,
    "ैल</w>": 3459,
    "ृष्ट": 3460,
    "ीतिक</w>": 3461,
    "ियार</w>": 3462,
    "ार्": 3463,
    "ानी</w>": 3464,
    "होते</w>": 3465,
    "हिन्दू</w>": 3466,
    "हालाँक": 3467,
    "हालाँकि</w>": 3468,
    "हथियार</w>": 3469,
    "हते</w>": 3470,
    "हू": 3471,
    "स्थापन": 3472,
    "स्थापना</w>": 3473,
    "स्तर</w>": 3474,
    "स्ट": 3475,
    "सहयोग</w>": 3476,
    "सर्वो": 3477,
    "सर्वोच्च</w>": 3478,
    "समर्थ": 3479,
    "समर्थन</w>": 3480,
    "संस्कृत</w>": 3481,
    "संघ": 3482,
    "शील</w>": 3483,
    "शांत": 3484,
    "शांति</w>": 3485,
    "शन</w>": 3486,
    "विवाद</w>": 3487,
    "विभि": 3488,
    "विभा": 3489,
    "वादी</w>": 3490,
    "वर्त": 3491,
    "वर्तमान</w>": 3492,
    "वरी</w>": 3493,
    "व्या": 3494,
    "वन</w>": 3495,
    "लीन</w>": 3496,
    "ली,</w>": 3497,
    "लित</w>": 3498,
    "ला,</w>": 3499,
    "लू": 3500,
    "लिया</w>": 3501,
    "लिका</w>": 3502,
    "र्ष</w>": 3503,
    "रोपी": 3504,
    "रोपीय</w>": 3505,
    "राजनीतिक</w>": 3506,
    "यों</w>": 3507,
    "यूरोपीय</w>": 3508,
    "यास</w>": 3509,
    "म्ब": 3510,
    "मैद": 3511,
    "मुख्य</w>": 3512,
    "मध्य</w>": 3513,
    "बार</w>": 3514,
    "बनाने</w>": 3515,
    "बोल": 3516,
    "बन</w>": 3517,
    "प्रयास</w>": 3518,
    "प्रत्य": 3519,
    "पुर्": 3520,
    "पास</w>": 3521,
    "पालिका</w>": 3522,
    "परंप": 3523,
    "परंपरा": 3524,
    "पड़ोसी</w>": 3525,
    "पण": 3526,
    "नाग": 3527,
    "नई": 3528,
    "दृष्ट": 3529,
    "दिया।</w>": 3530,
    "थी</w>": 3531,
    "तीसर": 3532,
    "तो</w>": 3533,
    "तमिल</w>": 3534,
    "डु": 3535,
    "टे</w>": 3536,
    "झौ": 3537,
    "जाना</w>": 3538,
    "जलवायु</w>": 3539,
    "जबकि</w>": 3540,
    "जी</w>": 3541,
    "जलो": 3542,
    "चं": 3543,
    "गों</w>": 3544,
    "गांधी</w>": 3545,
    "गति</w>": 3546,
    "खो": 3547,
    "केवल</w>": 3548,
    "उत्पा": 3549,
    "ईद": 3550,
    "इसकी</w>": 3551,
    "इस्": 3552,
    "आदि</w>": 3553,
    "आन्": 3554,
    "अर्थव्यवस्था</w>": 3555,
    "अमेर": 3556,
    "अमरी": 3557,
    "अभी</w>": 3558,
    "अफ्रीका</w>": 3559,
    "अप्रैल</w>": 3560,
    "अब</w>": 3561,
    "|আইএসবিন=</w>": 3562,
    "{{বই</w>": 3563,
    "editor": 3564,
    "India:</w>": 3565,
    "Ab": 3566,
    "8%": 3567,
    "1947</w>": 3568,
    ".२": 3569,
    "-এর</w>": 3570,
    "-এ</w>": 3571,
    "-फ": 3572,
    ",०": 3573,
    "(c": 3574,
    "%),</w>": 3575,
    "-2": 3576,
    "్లను</w>": 3577,
    "్ల</w>": 3578,
    "ేమ": 3579,
    "ేట": 3580,
    "ె</w>": 3581,
    "ుంది.</w>": 3582,
    "ీన</w>": 3583,
    "ీ;</w>": 3584,
    "ిత</w>": 3585,
    "ాలు.</w>": 3586,
    "ాలకు</w>": 3587,
    "ారులు,</w>": 3588,
    "ారు</w>": 3589,
    "ావర": 3590,
    "ావరణం</w>": 3591,
    "హిందూ</w>": 3592,
    "హన": 3593,
    "స్తాన్</w>": 3594,
    "స్వాత": 3595,
    "స్వాతంత్ర": 3596,
    "స్వత": 3597,
    "సౌకర్య": 3598,
    "సియా</w>": 3599,
    "సింది.</w>": 3600,
    "సాం": 3601,
    "సముద్ర": 3602,
    "సభ</w>": 3603,
    "సె": 3604,
    "సల": 3605,
    "సర్": 3606,
    "శో": 3607,
    "శే": 3608,
    "శర": 3609,
    "శతా": 3610,
    "శతాబ్": 3611,
    "వాతావరణం</w>": 3612,
    "వగా</w>": 3613,
    "వంటి</w>": 3614,
    "వో": 3615,
    "వత్": 3616,
    "లలో</w>": 3617,
    "రైల్": 3618,
    "రెండు</w>": 3619,
    "రిత్ర": 3620,
    "రాష్ట్రపత": 3621,
    "ర‌": 3622,
    "మొత్": 3623,
    "మొత్తం</w>": 3624,
    "మైన": 3625,
    "ము</w>": 3626,
    "మహా": 3627,
    "మయ": 3628,
    "మణ": 3629,
    "భిన్న</w>": 3630,
    "భారతదేశానికి</w>": 3631,
    "భాషల": 3632,
    "బెంగాల": 3633,
    "బహు": 3634,
    "ఫర": 3635,
    "ప్రాచీన</w>": 3636,
    "ప్రాంతాలు</w>": 3637,
    "ప్రస్తుతం</w>": 3638,
    "ప్రభుత్వ": 3639,
    "ప్రపంచ</w>": 3640,
    "ప్రధాన": 3641,
    "ప్రధానమంత్ర": 3642,
    "ప్రజా": 3643,
    "పూర్": 3644,
    "పార్టీ</w>": 3645,
    "పట్టణ": 3646,
    "పస": 3647,
    "న్నాయి.</w>": 3648,
    "న్ను": 3649,
    "న్,</w>": 3650,
    "నేక</w>": 3651,
    "నిర్వహ": 3652,
    "నా,</w>": 3653,
    "నడిప": 3654,
    "నగర": 3655,
    "ధర": 3656,
    "దేశాలలో</w>": 3657,
    "దిన": 3658,
    "దు</w>": 3659,
    "తి,</w>": 3660,
    "తరువాత</w>": 3661,
    "తం,</w>": 3662,
    "తమి": 3663,
    "డి</w>": 3664,
    "జాబిత": 3665,
    "జరిగిన</w>": 3666,
    "జో": 3667,
    "చార": 3668,
    "చరిత్ర": 3669,
    "గా,</w>": 3670,
    "గంగా</w>": 3671,
    "ఖ్య</w>": 3672,
    "ఖో": 3673,
    "కూడు": 3674,
    "ఏర్ప": 3675,
    "ఎక్కువగా</w>": 3676,
    "ఎన్ను": 3677,
    "ఉండ": 3678,
    "ఇండియా</w>": 3679,
    "ఆవ": 3680,
    "ఆల": 3681,
    "ఆన": 3682,
    "అయిన</w>": 3683,
    "అధిక</w>": 3684,
    "అభి": 3685,
    "అనేక</w>": 3686,
    "అతి": 3687,
    "ంది</w>": 3688,
    "ంత్ర</w>": 3689,
    "৮.": 3690,
    "৭৯": 3691,
    "৬৮": 3692,
    "৪৮": 3693,
    "২০০৭</w>": 3694,
    "২৭": 3695,
    "১৯৯১</w>": 3696,
    "১৯৫০</w>": 3697,
    "১,": 3698,
    "্রা": 3699,
    "্রত": 3700,
    "্যে</w>": 3701,
    "্যা</w>": 3702,
    "্যমে</w>": 3703,
    "্প্রত": 3704,
    "্র</w>": 3705,
    "োর্": 3706,
    "ৃত।</w>": 3707,
    "ুসারে</w>": 3708,
    "ুষদের</w>": 3709,
    "ুপ্র": 3710,
    "ুনিক</w>": 3711,
    "ুষের</w>": 3712,
    "ী,</w>": 3713,
    "িল</w>": 3714,
    "িম</w>": 3715,
    "িত্র</w>": 3716,
    "ারেশন</w>": 3717,
    "ানির</w>": 3718,
    "ানের</w>": 3719,
    "ানু": 3720,
    "ানিক</w>": 3721,
    "হায়": 3722,
    "হন।</w>": 3723,
    "হকি</w>": 3724,
    "হকারী</w>": 3725,
    "স্থিত।</w>": 3726,
    "স্কৃত": 3727,
    "স্কৃতিক</w>": 3728,
    "সেম্ব": 3729,
    "সাম্প্রত": 3730,
    "সাংস্কৃতিক</w>": 3731,
    "সাগর": 3732,
    "সাগ": 3733,
    "সাক্ষরতার</w>": 3734,
    "সম্প্রদা": 3735,
    "সম্": 3736,
    "সফোর্": 3737,
    "সংবিধান</w>": 3738,
    "সংগ্রহের</w>": 3739,
    "সি</w>": 3740,
    "ষ্ট</w>": 3741,
    "ষ্ঠ</w>": 3742,
    "ষু": 3743,
    "শাসন": 3744,
    "শক্তিধর</w>": 3745,
    "শুরু</w>": 3746,
    "লিউড</w>": 3747,
    "র্থ": 3748,
    "রাষ্ট্রপত": 3749,
    "রাষ্ট্রপতি</w>": 3750,
    "রাষ্ট্র</w>": 3751,
    "রয়েছে": 3752,
    "যথা": 3753,
    "মের</w>": 3754,
    "মুসল": 3755,
    "মুঘ": 3756,
    "মুঘল</w>": 3757,
    "মাধ": 3758,
    "মাধ্যমে</w>": 3759,
    "মাত্র</w>": 3760,
    "মতো</w>": 3761,
    "মশ": 3762,
    "ভৌগো": 3763,
    "ভাষার</w>": 3764,
    "ভাষা</w>": 3765,
    "ভাব</w>": 3766,
    "ভাগ": 3767,
    "ব্যাপ": 3768,
    "বৈদেশ": 3769,
    "বৈদেশিক</w>": 3770,
    "বৃদ্ধির</w>": 3771,
    "বিস্তার</w>": 3772,
    "বিশ্ব</w>": 3773,
    "বিজেপি": 3774,
    "বিচারে</w>": 3775,
    "বিচার": 3776,
    "বিরো": 3777,
    "বিচ্": 3778,
    "বিংশ</w>": 3779,
    "বাহিন": 3780,
    "বাহিনী</w>": 3781,
    "বাসী</w>": 3782,
    "ব্রিটিশ</w>": 3783,
    "বশ": 3784,
    "বরা": 3785,
    "বর</w>": 3786,
    "বঙ্": 3787,
    "প্রাচীন": 3788,
    "প্রযুক্তি</w>": 3789,
    "প্রত": 3790,
    "প্রত্য": 3791,
    "প্রচ": 3792,
    "প্ত": 3793,
    "পূর্ব": 3794,
    "পুরুষদের</w>": 3795,
    "পুরস্": 3796,
    "পিত</w>": 3797,
    "পাদ": 3798,
    "পাত</w>": 3799,
    "পশ্চিম</w>": 3800,
    "পরিষে": 3801,
    "পরিচ": 3802,
    "পি</w>": 3803,
    "ন্ব": 3804,
    "নেতৃত্বে</w>": 3805,
    "নির্": 3806,
    "নিজ</w>": 3807,
    "নাট": 3808,
    "নিক</w>": 3809,
    "নার": 3810,
    "নয়</w>": 3811,
    "নও</w>": 3812,
    "ধ্রুপদি</w>": 3813,
    "ধর্ম</w>": 3814,
    "দিয়ে</w>": 3815,
    "দূ": 3816,
    "দল</w>": 3817,
    "দর্": 3818,
    "দগ": 3819,
    "থক": 3820,
    "ত্ম": 3821,
    "ত্ব</w>": 3822,
    "তি,</w>": 3823,
    "তারিখ</w>": 3824,
    "তনের</w>": 3825,
    "ডিসেম্ব": 3826,
    "ড়</w>": 3827,
    "টির</w>": 3828,
    "ঞ্জা": 3829,
    "জাতি": 3830,
    "জনপ্রিয়</w>": 3831,
    "জনসংখ্যার</w>": 3832,
    "ছিল</w>": 3833,
    "চলচ্চিত্র</w>": 3834,
    "চার": 3835,
    "চতু": 3836,
    "ঘাট</w>": 3837,
    "গুলোর</w>": 3838,
    "গুলিতে</w>": 3839,
    "গুরু": 3840,
    "গাঢ়</w>": 3841,
    "গত।</w>": 3842,
    "গড়ে</w>": 3843,
    "খেলা</w>": 3844,
    "ক্ষেত্র</w>": 3845,
    "ক্ষমতায়</w>": 3846,
    "ক্রয়": 3847,
    "কোম্প": 3848,
    "কোনও</w>": 3849,
    "কোটি</w>": 3850,
    "কিলোমিটার</w>": 3851,
    "কালের</w>": 3852,
    "কর্তৃ": 3853,
    "উৎস": 3854,
    "ইহ": 3855,
    "ইপ": 3856,
    "আন্দোল": 3857,
    "আদাল": 3858,
    "আজ</w>": 3859,
    "অর্থ": 3860,
    "অবস্থিত।</w>": 3861,
    "অন্তর্গত।</w>": 3862,
    "অনুমো": 3863,
    "অঞ্চলের</w>": 3864,
    "অঞ্চল</w>": 3865,
    "অক্সফোর্": 3866,
    "२०१": 3867,
    "्योग</w>": 3868,
    "्याद": 3869,
    "्यट": 3870,
    "्तन": 3871,
    "्तनत</w>": 3872,
    "ौद्योग": 3873,
    "ी,</w>": 3874,
    "ार,</w>": 3875,
    "ा,</w>": 3876,
    "हुई।</w>": 3877,
    "हिन्दु": 3878,
    "हिस्": 3879,
    "हर</w>": 3880,
    "स्वरूप</w>": 3881,
    "स्तार</w>": 3882,
    "स्लि": 3883,
    "स्त्र</w>": 3884,
    "स्त्र": 3885,
    "सेना": 3886,
    "सून</w>": 3887,
    "सिने": 3888,
    "सामा": 3889,
    "सामाजि": 3890,
    "सामाजिक</w>": 3891,
    "सल्तनत</w>": 3892,
    "सरकारें</w>": 3893,
    "सम्प": 3894,
    "सम्": 3895,
    "संघर्ष</w>": 3896,
    "संघी": 3897,
    "संघीय</w>": 3898,
    "संगी": 3899,
    "संगीत</w>": 3900,
    "स,</w>": 3901,
    "षित</w>": 3902,
    "शुरु": 3903,
    "शत</w>": 3904,
    "व्यापा": 3905,
    "व्यापार</w>": 3906,
    "विभिन्न</w>": 3907,
    "विस्तार</w>": 3908,
    "विक": 3909,
    "विकसित</w>": 3910,
    "विय": 3911,
    "व,</w>": 3912,
    "लोगों</w>": 3913,
    "लावा</w>": 3914,
    "लड़": 3915,
    "रूप": 3916,
    "राष्ट्र</w>": 3917,
    "राजधान": 3918,
    "राजधानी</w>": 3919,
    "रहा": 3920,
    "यक</w>": 3921,
    "मूल": 3922,
    "मुस्लि": 3923,
    "मुख्य": 3924,
    "मिलिय": 3925,
    "माना</w>": 3926,
    "मानसून</w>": 3927,
    "माध्य": 3928,
    "माध्यम</w>": 3929,
    "महाद्वीप</w>": 3930,
    "भील</w>": 3931,
    "भाषाएँ</w>": 3932,
    "बाहरी</w>": 3933,
    "बढ़कर</w>": 3934,
    "बर</w>": 3935,
    "बंग": 3936,
    "फ्र": 3937,
    "प्रारम्भ</w>": 3938,
    "प्रतिशत</w>": 3939,
    "प्रौद्योग": 3940,
    "पूर्वी</w>": 3941,
    "पुरा": 3942,
    "पर्यट": 3943,
    "पंजा": 3944,
    "पहु": 3945,
    "न्यायालय</w>": 3946,
    "न्ह": 3947,
    "निरपे": 3948,
    "निभाई</w>": 3949,
    "नदियाँ</w>": 3950,
    "न्य": 3951,
    "द्ध": 3952,
    "दों</w>": 3953,
    "देखा</w>": 3954,
    "दृष्टि</w>": 3955,
    "दिल्": 3956,
    "दार</w>": 3957,
    "थे।</w>": 3958,
    "तांत्र": 3959,
    "तियों</w>": 3960,
    "तना": 3961,
    "जैसे</w>": 3962,
    "जिसका</w>": 3963,
    "जिन": 3964,
    "जलोढ़</w>": 3965,
    "जनता</w>": 3966,
    "जहाँ</w>": 3967,
    "जन</w>": 3968,
    "चीफ</w>": 3969,
    "ची</w>": 3970,
    "घोषण": 3971,
    "गुप्त</w>": 3972,
    "गई।</w>": 3973,
    "गर</w>": 3974,
    "गए</w>": 3975,
    "गई</w>": 3976,
    "कोई</w>": 3977,
    "केन्द्र": 3978,
    "कृष": 3979,
    "किन्तु</w>": 3980,
    "काम": 3981,
    "का,</w>": 3982,
    "करता</w>": 3983,
    "किये</w>": 3984,
    "किया,</w>": 3985,
    "कहते</w>": 3986,
    "कम</w>": 3987,
    "उपमहाद्वीप</w>": 3988,
    "उद्योग</w>": 3989,
    "उसके</w>": 3990,
    "इतिहा": 3991,
    "आकर्": 3992,
    "अन्त": 3993,
    "अधिकार</w>": 3994,
    "अधिक": 3995,
    "अंग्रेज़ी</w>": 3996,
    "ंत्र</w>": 3997,
    "ँची</w>": 3998,
    "ul</w>": 3999,
    "brid": 4000,
    "ambrid": 4001,
    "Public": 4002,
    "Joh": 4003,
    "India।</w>": 4004,
    "F.": 4005,
    "49": 4006,
    "45": 4007,
    "26</w>": 4008,
    "1971</w>": 4009,
    "-জ": 4010,
    "-5": 4011,
    "(৩": 4012,
    "(ড": 4013,
    "(জ": 4014,
    "(ক": 4015,
    "(editor": 4016,
    "()": 4017,
    "PI": 4018,
    "BS": 4019,
    "‍य": 4020,
    "్‌</w>": 4021,
    "్రాజ": 4022,
    "్రదాయ": 4023,
    "్యాయ": 4024,
    "ెస్</w>": 4025,
    "ులకు</w>": 4026,
    "ీలు</w>": 4027,
    "ిత్ర": 4028,
    "ించి,</w>": 4029,
    "ించే</w>": 4030,
    "ింది.</w>": 4031,
    "ాలె": 4032,
    "ాలుగా</w>": 4033,
    "ాత్ర</w>": 4034,
    "ా,</w>": 4035,
    "స్వామ": 4036,
    "స్తారు.</w>": 4037,
    "స్లా": 4038,
    "స్య": 4039,
    "స్థ</w>": 4040,
    "సినిమా</w>": 4041,
    "సామ్రాజ": 4042,
    "సాంప": 4043,
    "సాంప్రదాయ": 4044,
    "సర్వీ": 4045,
    "సర్వీస": 4046,
    "సభ్య": 4047,
    "సంగీత": 4048,
    "సంస్కృత": 4049,
    "సంవత్": 4050,
    "సంప్ర": 4051,
    "సంప్రదాయ": 4052,
    "శ్చి": 4053,
    "శాఖ</w>": 4054,
    "శతాబ్దం</w>": 4055,
    "వ్యవస్థ</w>": 4056,
    "వేగంగా</w>": 4057,
    "వెబ": 4058,
    "వి.</w>": 4059,
    "వారస": 4060,
    "ళ్లను</w>": 4061,
    "ల్ప": 4062,
    "లుగు": 4063,
    "ల్</w>": 4064,
    "ర్త": 4065,
    "రోడ్": 4066,
    "రుష": 4067,
    "రాష్ట్రపతి</w>": 4068,
    "రాష్ట్రాల</w>": 4069,
    "రహదారులు,</w>": 4070,
    "రకాల</w>": 4071,
    "మూడు</w>": 4072,
    "ముఖ్యమైన</w>": 4073,
    "ములో</w>": 4074,
    "ముంబ": 4075,
    "ము.</w>": 4076,
    "మాత్రం</w>": 4077,
    "మలు</w>": 4078,
    "మధ్య": 4079,
    "మాల": 4080,
    "మాన": 4081,
    "మత</w>": 4082,
    "భారత్</w>": 4083,
    "భారతదేశంలోని</w>": 4084,
    "భారతదేశపు</w>": 4085,
    "భాగం</w>": 4086,
    "బ్రిటి": 4087,
    "బ్రిటిష": 4088,
    "బాద్": 4089,
    "ప్రముఖ</w>": 4090,
    "ప్రార": 4091,
    "ప్రకార": 4092,
    "పొంద": 4093,
    "పైగా</w>": 4094,
    "పేరు": 4095,
    "పుట్ట": 4096,
    "పాలిత</w>": 4097,
    "పాకిస్థా": 4098,
    "పరిశ్ర": 4099,
    "పరంగా</w>": 4100,
    "పతక": 4101,
    "పాత్ర</w>": 4102,
    "పశ్చి": 4103,
    "పర్": 4104,
    "న్నారు.</w>": 4105,
    "న్ని": 4106,
    "న్యాయ": 4107,
    "నాల": 4108,
    "నాయ": 4109,
    "ద్వీ": 4110,
    "త్</w>": 4111,
    "తి</w>": 4112,
    "తన</w>": 4113,
    "ఢిల్ల": 4114,
    "టుంబ": 4115,
    "టిలో</w>": 4116,
    "జాబితా</w>": 4117,
    "జల</w>": 4118,
    "చేయ": 4119,
    "చెందిన</w>": 4120,
    "చుకో": 4121,
    "చరిత్ర</w>": 4122,
    "గి</w>": 4123,
    "ఖండ": 4124,
    "క్షరా": 4125,
    "క్రమ": 4126,
    "కేంద్రపాలిత</w>": 4127,
    "కూడిన</w>": 4128,
    "కుటుంబ": 4129,
    "కార్య": 4130,
    "కాంగ్రెసు</w>": 4131,
    "క్య": 4132,
    "కుల": 4133,
    "కను": 4134,
    "ఉంటాయి.</w>": 4135,
    "ఆర్థ": 4136,
    "ఆధార": 4137,
    "ఆక్ర": 4138,
    "అభివృ": 4139,
    "అధికారిక</w>": 4140,
    "అతి</w>": 4141,
    "అను": 4142,
    "ంటే</w>": 4143,
    "ంచి</w>": 4144,
    "১৯৯৮</w>": 4145,
    "্রিক": 4146,
    "্রাস": 4147,
    "্যুষিত</w>": 4148,
    "্যাদা</w>": 4149,
    "েকটি</w>": 4150,
    "েই</w>": 4151,
    "ৃতি</w>": 4152,
    "ুমানিক</w>": 4153,
    "ুত</w>": 4154,
    "ীণ</w>": 4155,
    "িতা": 4156,
    "ালিক</w>": 4157,
    "ালি</w>": 4158,
    "ার্": 4159,
    "ারা</w>": 4160,
    "া,</w>": 4161,
    "হিমালয়ের</w>": 4162,
    "হলেন</w>": 4163,
    "হয়েছিল</w>": 4164,
    "হয়,</w>": 4165,
    "স্থাপত্য</w>": 4166,
    "স্থাপিত</w>": 4167,
    "স্থাপ": 4168,
    "স্তান</w>": 4169,
    "স্তন": 4170,
    "সিয়": 4171,
    "সাম্রাজ্যের</w>": 4172,
    "সাম্প্রতিক</w>": 4173,
    "সাধারণত": 4174,
    "সর্বো": 4175,
    "সরকারের</w>": 4176,
    "সমাজ": 4177,
    "সমৃ": 4178,
    "সময়</w>": 4179,
    "সময়": 4180,
    "সমগ্": 4181,
    "সমগ্র</w>": 4182,
    "সভ্য": 4183,
    "সভা</w>": 4184,
    "সংস্কৃতি</w>": 4185,
    "সংবিধান": 4186,
    "সংক্রান্ত</w>": 4187,
    "সংঘ": 4188,
    "শিষ্ট</w>": 4189,
    "শতকে</w>": 4190,
    "শক্তির</w>": 4191,
    "শন</w>": 4192,
    "লেখা</w>": 4193,
    "লা,</w>": 4194,
    "লক্ষ</w>": 4195,
    "র্ষ": 4196,
    "র্থ</w>": 4197,
    "রোপী": 4198,
    "রেখা": 4199,
    "রেখার</w>": 4200,
    "রূপে</w>": 4201,
    "রাজ্যের</w>": 4202,
    "রাঞ্চ": 4203,
    "রপে": 4204,
    "রক্ষা</w>": 4205,
    "যোগিতা": 4206,
    "যুদ্ধের</w>": 4207,
    "যুক্তরাষ্ট্রীয়</w>": 4208,
    "যুগের</w>": 4209,
    "যথাক্রমে</w>": 4210,
    "মানুষের</w>": 4211,
    "মাণ</w>": 4212,
    "মাইল": 4213,
    "মহান": 4214,
    "মর্যাদা</w>": 4215,
    "মূল": 4216,
    "ময়</w>": 4217,
    "ভৌগোলিক</w>": 4218,
    "ভূত</w>": 4219,
    "ভারতে": 4220,
    "ভারতক": 4221,
    "ভারতকে</w>": 4222,
    "ভাগে</w>": 4223,
    "ভৃতি</w>": 4224,
    "ব্যবহ": 4225,
    "বৈশিষ্ট্য</w>": 4226,
    "বৈচিত্র্যের</w>": 4227,
    "বিস্ত": 4228,
    "বিশ্বকাপ</w>": 4229,
    "বিশ্বকা": 4230,
    "বিবেচিত</w>": 4231,
    "বিবাহ</w>": 4232,
    "বিষ": 4233,
    "বিশিষ্ট</w>": 4234,
    "বিলিয়ন</w>": 4235,
    "বিগত</w>": 4236,
    "বাণিজ্যিক</w>": 4237,
    "বাণিজ্য</w>": 4238,
    "বাস</w>": 4239,
    "বাদ</w>": 4240,
    "বহুল</w>": 4241,
    "বর্ণ": 4242,
    "ব্র": 4243,
    "বার": 4244,
    "বহি": 4245,
    "ফেড": 4246,
    "ফি,</w>": 4247,
    "প্রাণী</w>": 4248,
    "প্রাচীনতম</w>": 4249,
    "প্রধানমন্ত্রী</w>": 4250,
    "প্রত্যক্ষ</w>": 4251,
    "প্রতিযোগিতা": 4252,
    "প্রজাতন্ত্র": 4253,
    "প্রচলিত</w>": 4254,
    "প্রভৃতি</w>": 4255,
    "প্রভাব</w>": 4256,
    "প্রবর্": 4257,
    "প্রথম": 4258,
    "প্রচল": 4259,
    "পোশা": 4260,
    "পৃ.</w>": 4261,
    "পূর্বে</w>": 4262,
    "পুরস্কার</w>": 4263,
    "পিপি": 4264,
    "পার্টি</w>": 4265,
    "পাকিস্তান</w>": 4266,
    "পাতের</w>": 4267,
    "পশ্চিমঘাট</w>": 4268,
    "পর্বতমা": 4269,
    "পরিবর্": 4270,
    "পরে</w>": 4271,
    "পরে": 4272,
    "ন্ধী</w>": 4273,
    "ন্ড</w>": 4274,
    "ন্ট</w>": 4275,
    "নীতি</w>": 4276,
    "নিরপে": 4277,
    "নিম্": 4278,
    "নিদর্": 4279,
    "নিজে": 4280,
    "ন,</w>": 4281,
    "ধর্ম": 4282,
    "ধনশীল</w>": 4283,
    "ধারা": 4284,
    "দ্রুত</w>": 4285,
    "দ্রা": 4286,
    "দ্বারা</w>": 4287,
    "দেশীয়</w>": 4288,
    "দেয়।</w>": 4289,
    "দিত</w>": 4290,
    "দী</w>": 4291,
    "দিক</w>": 4292,
    "দার": 4293,
    "দলের</w>": 4294,
    "থেকেই</w>": 4295,
    "থে</w>": 4296,
    "থান": 4297,
    "ত্বপূর্ণ</w>": 4298,
    "তিন": 4299,
    "ণ।</w>": 4300,
    "ডিসেম্বর</w>": 4301,
    "ডলার</w>": 4302,
    "ঠে।</w>": 4303,
    "ট্রফি,</w>": 4304,
    "টিক": 4305,
    "ট,</w>": 4306,
    "জিত</w>": 4307,
    "জিডি": 4308,
    "জনপ্রিয়।</w>": 4309,
    "জীব": 4310,
    "জিক</w>": 4311,
    "জরা": 4312,
    "চারটি</w>": 4313,
    "গ্রহ</w>": 4314,
    "গুরুত্বপূর্ণ</w>": 4315,
    "গান্ধী</w>": 4316,
    "খণ্ড": 4317,
    "খ্যা": 4318,
    "ক্ষণের</w>": 4319,
    "ক্ষণ</w>": 4320,
    "ক্রয়ক্ষমতা</w>": 4321,
    "ক্ত</w>": 4322,
    "কেন্দ্র</w>": 4323,
    "কৃষি": 4324,
    "কালে</w>": 4325,
    "কাই": 4326,
    "কাইভক": 4327,
    "কর্তৃক</w>": 4328,
    "করেন।</w>": 4329,
    "কয়েকটি</w>": 4330,
    "ওঠে।</w>": 4331,
    "এশিয়ান</w>": 4332,
    "এশিয়া</w>": 4333,
    "এছাড়া</w>": 4334,
    "উৎসব</w>": 4335,
    "উপগ্রহ</w>": 4336,
    "উদ্ভি": 4337,
    "উত্তর-পূর্ব</w>": 4338,
    "ইটালিক</w>": 4339,
    "ইউরোপী": 4340,
    "ইউনি": 4341,
    "ইংরেজি</w>": 4342,
    "ই,</w>": 4343,
    "আর্কাইভক": 4344,
    "আফ্রিক": 4345,
    "আন্দা": 4346,
    "আনুমানিক</w>": 4347,
    "আধুনিক</w>": 4348,
    "আবার</w>": 4349,
    "অনেক</w>": 4350,
    "অনুমোদিত</w>": 4351,
    "অনুযা": 4352,
    "অনুসারে</w>": 4353,
    "অধ্যুষিত</w>": 4354,
    "অত্য": 4355,
    "অক্সফোর্ড</w>": 4356,
    "অক্টো": 4357,
    "অরণ": 4358,
    "অংশ": 4359,
    "६४": 4360,
    "३८": 4361,
    "२९": 4362,
    "१९५०</w>": 4363,
    "१९६": 4364,
    "१५</w>": 4365,
    "०००</w>": 4366,
    "्रिय</w>": 4367,
    "ौल": 4368,
    "ों,</w>": 4369,
    "ोण": 4370,
    "ैंक</w>": 4371,
    "ैतिक</w>": 4372,
    "ेक</w>": 4373,
    "ीलंक": 4374,
    "ीलंका</w>": 4375,
    "ी।</w>": 4376,
    "ीक्ष": 4377,
    "ीक्षण</w>": 4378,
    "ियां</w>": 4379,
    "िमण्ड": 4380,
    "िमण्डल</w>": 4381,
    "िणाम": 4382,
    "िकों</w>": 4383,
    "िय</w>": 4384,
    "ालर</w>": 4385,
    "ारों</w>": 4386,
    "ारे</w>": 4387,
    "ा।</w>": 4388,
    "होना</w>": 4389,
    "हॉकी</w>": 4390,
    "हुए": 4391,
    "हिन्दी": 4392,
    "हाल</w>": 4393,
    "हायक</w>": 4394,
    "स्वतंत्र</w>": 4395,
    "स्थान": 4396,
    "स्तान,</w>": 4397,
    "स्कृतिक</w>": 4398,
    "स्त</w>": 4399,
    "सोविय": 4400,
    "सोवियत</w>": 4401,
    "सों</w>": 4402,
    "सेवा": 4403,
    "से,</w>": 4404,
    "सूची</w>": 4405,
    "सिंध": 4406,
    "सिं": 4407,
    "सिंह</w>": 4408,
    "सामरिक</w>": 4409,
    "सामन": 4410,
    "साथ": 4411,
    "सागर</w>": 4412,
    "सां": 4413,
    "सांस्कृतिक</w>": 4414,
    "समाप्त</w>": 4415,
    "समृ": 4416,
    "सभ्यता</w>": 4417,
    "सफल</w>": 4418,
    "सने</w>": 4419,
    "सदस्यों</w>": 4420,
    "सदस्य</w>": 4421,
    "सदन</w>": 4422,
    "सक्रिय</w>": 4423,
    "संबंधों</w>": 4424,
    "सॉ": 4425,
    "सा</w>": 4426,
    "सहायक</w>": 4427,
    "ष्ण</w>": 4428,
    "ष्ठ</w>": 4429,
    "ष्क</w>": 4430,
    "श्रीलंका</w>": 4431,
    "श्मी": 4432,
    "श्मीर</w>": 4433,
    "शुरुआ": 4434,
    "शुरुआत</w>": 4435,
    "शुष्क</w>": 4436,
    "शिय": 4437,
    "शक्ति</w>": 4438,
    "शक्": 4439,
    "विरो": 4440,
    "विक</w>": 4441,
    "वास्त": 4442,
    "वाली</w>": 4443,
    "वशाली</w>": 4444,
    "वर्ष": 4445,
    "वंश</w>": 4446,
    "वे</w>": 4447,
    "लोकप्र": 4448,
    "लोकप्रिय</w>": 4449,
    "लोग</w>": 4450,
    "लेकर</w>": 4451,
    "लीवि": 4452,
    "लिक</w>": 4453,
    "लना</w>": 4454,
    "लंब": 4455,
    "लंबे</w>": 4456,
    "रूस</w>": 4457,
    "री,</w>": 4458,
    "राजनैतिक</w>": 4459,
    "रहा।</w>": 4460,
    "रता</w>": 4461,
    "र्य</w>": 4462,
    "यहाँ</w>": 4463,
    "मौर्य</w>": 4464,
    "मैदानी</w>": 4465,
    "मुस्लिम</w>": 4466,
    "मिला</w>": 4467,
    "मंत्रिमण्डल</w>": 4468,
    "मन</w>": 4469,
    "मण</w>": 4470,
    "भाषी</w>": 4471,
    "भारती": 4472,
    "भारत": 4473,
    "भागी": 4474,
    "भाग</w>": 4475,
    "भरा</w>": 4476,
    "भे": 4477,
    "भर</w>": 4478,
    "बौद्ध</w>": 4479,
    "बने</w>": 4480,
    "बनी</w>": 4481,
    "बना</w>": 4482,
    "बढ़ती</w>": 4483,
    "बजट</w>": 4484,
    "बंधीय</w>": 4485,
    "ब्र": 4486,
    "बॉ": 4487,
    "बने": 4488,
    "फ्रां": 4489,
    "फैली</w>": 4490,
    "फे": 4491,
    "प्रौद्योगिकी</w>": 4492,
    "प्रत्येक</w>": 4493,
    "प्रदान</w>": 4494,
    "प्रण": 4495,
    "प्रणाली</w>": 4496,
    "प्रका": 4497,
    "पूरे</w>": 4498,
    "पूरा</w>": 4499,
    "पुर्तग": 4500,
    "पुरु": 4501,
    "पाया</w>": 4502,
    "पश्चिमी</w>": 4503,
    "पर्यटन</w>": 4504,
    "पर्वत": 4505,
    "पर्व</w>": 4506,
    "परंपरागत</w>": 4507,
    "परीक्षण</w>": 4508,
    "परिणाम": 4509,
    "पंजाब</w>": 4510,
    "पि</w>": 4511,
    "पत्": 4512,
    "पट": 4513,
    "नेक</w>": 4514,
    "निवे": 4515,
    "निम्": 4516,
    "नगर</w>": 4517,
    "धिकार</w>": 4518,
    "धिक</w>": 4519,
    "धार</w>": 4520,
    "धार": 4521,
    "द्धि</w>": 4522,
    "दिल्ली</w>": 4523,
    "दिरा</w>": 4524,
    "तों</w>": 4525,
    "तीन</w>": 4526,
    "तांत्रिक</w>": 4527,
    "तरह</w>": 4528,
    "तौ": 4529,
    "णत": 4530,
    "णक": 4531,
    "ड़ा</w>": 4532,
    "डालर</w>": 4533,
    "डस": 4534,
    "ठक</w>": 4535,
    "टेलीवि": 4536,
    "टिबंधीय</w>": 4537,
    "टी</w>": 4538,
    "जों</w>": 4539,
    "जून</w>": 4540,
    "जीवन</w>": 4541,
    "जिनमें</w>": 4542,
    "जिन्हें</w>": 4543,
    "जित</w>": 4544,
    "जमा</w>": 4545,
    "जनवरी</w>": 4546,
    "जरा": 4547,
    "छोड़": 4548,
    "छोटे</w>": 4549,
    "छा": 4550,
    "च्छ": 4551,
    "चना</w>": 4552,
    "चाल": 4553,
    "घोषणा</w>": 4554,
    "गुजरा": 4555,
    "गति": 4556,
    "खु": 4557,
    "खि": 4558,
    "क्ट": 4559,
    "कों</w>": 4560,
    "कृषि</w>": 4561,
    "किसी</w>": 4562,
    "किए</w>": 4563,
    "कार्यपालिका</w>": 4564,
    "कार्यकाल</w>": 4565,
    "कालीन</w>": 4566,
    "करते</w>": 4567,
    "करती</w>": 4568,
    "कश्मीर</w>": 4569,
    "कथ": 4570,
    "ओड": 4571,
    "एफ": 4572,
    "ऋतु</w>": 4573,
    "ऊँची</w>": 4574,
    "उपयोग</w>": 4575,
    "उनके</w>": 4576,
    "उनकी</w>": 4577,
    "उत्तरी</w>": 4578,
    "उसे</w>": 4579,
    "उन्हें</w>": 4580,
    "उच्च</w>": 4581,
    "ई,</w>": 4582,
    "इस्ला": 4583,
    "इसका</w>": 4584,
    "इसे</w>": 4585,
    "इसमें</w>": 4586,
    "इतिहास</w>": 4587,
    "इंडिया</w>": 4588,
    "इंदिरा</w>": 4589,
    "आन्दोलन</w>": 4590,
    "आगमन</w>": 4591,
    "आया": 4592,
    "आय</w>": 4593,
    "अमरीकी</w>": 4594,
    "अपना</w>": 4595,
    "अल्": 4596,
    "अनेक</w>": 4597,
    "अद": 4598,
    "ंड</w>": 4599,
    "ंग</w>": 4600,
    "ंपर": 4601,
    "|publ": 4602,
    "|publish": 4603,
    "|publisher": 4604,
    "|publisher=": 4605,
    "|publisher=-এ</w>": 4606,
    "|nopp": 4607,
    "|nopp=</w>": 4608,
    "|no-": 4609,
    "|no-pp": 4610,
    "|no-pp=</w>": 4611,
    "|co": 4612,
    "|coauthor": 4613,
    "|coauthors": 4614,
    "|coauthors=</w>": 4615,
    "s।</w>": 4616,
    "author=</w>": 4617,
    "ambridge</w>": 4618,
    "Society</w>": 4619,
    "Publication": 4620,
    "Press,</w>": 4621,
    "Paul</w>": 4622,
    "Lond": 4623,
    "K.</w>": 4624,
    "Chang": 4625,
    "Anth": 4626,
    "68": 4627,
    "41": 4628,
    "33": 4629,
    "20</w>": 4630,
    "22</w>": 4631,
    "1980</w>": 4632,
    "0,</w>": 4633,
    ".६": 4634,
    ".४": 4635,
    "-१": 4636,
    ",६": 4637,
    "(২০০১": 4638,
    "(|author=</w>": 4639,
    "(भ": 4640,
    "(|no-pp=</w>": 4641,
    "ία": 4642,
    "Sp": 4643,
    "Ki": 4644,
    "BB": 4645,
    "్‌సై": 4646,
    "్‌సైటు</w>": 4647,
    "్లు</w>": 4648,
    "్,</w>": 4649,
    "ెట్</w>": 4650,
    "ూరు</w>": 4651,
    "ులను</w>": 4652,
    "ును</w>": 4653,
    "ుగు</w>": 4654,
    "ిల్లీ-": 4655,
    "ినది.</w>": 4656,
    "ితి</w>": 4657,
    "ిగా</w>": 4658,
    "ిక్</w>": 4659,
    "ించాల": 4660,
    "ించబ": 4661,
    "ాలెండ": 4662,
    "ాలా</w>": 4663,
    "ారి</w>": 4664,
    "ార</w>": 4665,
    "ాయి</w>": 4666,
    "ాతో</w>": 4667,
    "ాంగ": 4668,
    "హిమాల": 4669,
    "స్వామ్య</w>": 4670,
    "స్వతంత్ర</w>": 4671,
    "స్లామా": 4672,
    "స్లామాబాద్": 4673,
    "స్యత</w>": 4674,
    "స్థానంలో</w>": 4675,
    "స్కృతిక</w>": 4676,
    "స్ట": 4677,
    "స్,</w>": 4678,
    "సాంస్కృతిక</w>": 4679,
    "సర్వీసులు</w>": 4680,
    "సమాఖ్య": 4681,
    "సంస్కృతి</w>": 4682,
    "సంవత్సర": 4683,
    "సంప్రదాయాలు</w>": 4684,
    "సంగీతం</w>": 4685,
    "సంగీ": 4686,
    "సంస్కృ": 4687,
    "సంబ": 4688,
    "సంబంధ": 4689,
    "సంఘ": 4690,
    "సంఖ్య": 4691,
    "సంకీ": 4692,
    "సంకీర్": 4693,
    "సైన": 4694,
    "శ్రీ": 4695,
    "శ్మీ": 4696,
    "శాస్త్రీయ</w>": 4697,
    "శాస్త్రం,</w>": 4698,
    "శెల": 4699,
    "వ్యవస్థలో</w>": 4700,
    "వ్యాప": 4701,
    "వైవిధ": 4702,
    "వెబ్‌సైటు</w>": 4703,
    "వెను": 4704,
    "వెనుకట": 4705,
    "వెనుకటి</w>": 4706,
    "వీటిలో</w>": 4707,
    "విస్": 4708,
    "విభిన్న</w>": 4709,
    "విద": 4710,
    "విద్య": 4711,
    "వారా</w>": 4712,
    "వాణి": 4713,
    "వాణిజ": 4714,
    "వల్ల</w>": 4715,
    "వలం</w>": 4716,
    "వరి</w>": 4717,
    "వరాలు</w>": 4718,
    "వడం</w>": 4719,
    "వంలో</w>": 4720,
    "వే</w>": 4721,
    "ల్లో</w>": 4722,
    "లోను</w>": 4723,
    "లేద": 4724,
    "లేదా</w>": 4725,
    "లను</w>": 4726,
    "ల్ల": 4727,
    "లక్ష": 4728,
    "ర్,</w>": 4729,
    "రోడ్డు</w>": 4730,
    "రైల్వే</w>": 4731,
    "రైళ్లను</w>": 4732,
    "రుపు": 4733,
    "రాజ్యాంగ": 4734,
    "రం</w>": 4735,
    "మొదలైన": 4736,
    "మొట్ట": 4737,
    "మొట్టమొదటి</w>": 4738,
    "మైనది.</w>": 4739,
    "ముఖ్య</w>": 4740,
    "మే</w>": 4741,
    "మిం": 4742,
    "మంది</w>": 4743,
    "భాషలు</w>": 4744,
    "భావి": 4745,
    "బహుళ</w>": 4746,
    "బడత": 4747,
    "బంగ్ల": 4748,
    "బంగ్లా": 4749,
    "బంగ": 4750,
    "ఫ్ఘ": 4751,
    "ప్రారంభ": 4752,
    "ప్రభుత్వం</w>": 4753,
    "ప్రపంచం": 4754,
    "ప్రధానమంత్రి</w>": 4755,
    "ప్రతిపా": 4756,
    "ప్రతిపాదన": 4757,
    "ప్రకారం</w>": 4758,
    "ప్రజల": 4759,
    "ప్పటికీ,</w>": 4760,
    "పేర్లు</w>": 4761,
    "పేర్కొ": 4762,
    "పురుష": 4763,
    "పాలించ": 4764,
    "పాలన</w>": 4765,
    "పాటు</w>": 4766,
    "పాక్</w>": 4767,
    "పరిశ్రమలు</w>": 4768,
    "పతకాలు</w>": 4769,
    "పండుగ": 4770,
    "పీఠ": 4771,
    "పా</w>": 4772,
    "పద్ధ": 4773,
    "పక్ష": 4774,
    "న్నది.</w>": 4775,
    "న్మ": 4776,
    "న్నడ": 4777,
    "నేపాల": 4778,
    "నుంచి</w>": 4779,
    "నాలుగు</w>": 4780,
    "నాయక": 4781,
    "నాగర": 4782,
    "నాగరిక": 4783,
    "నడిపిం": 4784,
    "ద్ధం</w>": 4785,
    "ద్వారా</w>": 4786,
    "దేశంగా</w>": 4787,
    "దేశపు</w>": 4788,
    "దినాలు</w>": 4789,
    "దాదా": 4790,
    "దగా</w>": 4791,
    "దక్షిణాసియా</w>": 4792,
    "దక్షిణాన</w>": 4793,
    "దక్షిణ</w>": 4794,
    "త్వ</w>": 4795,
    "త్మ": 4796,
    "త్తా": 4797,
    "తో,</w>": 4798,
    "తెలుగు": 4799,
    "తుంది.</w>": 4800,
    "తిగా</w>": 4801,
    "తరువాతి</w>": 4802,
    "తమిళం": 4803,
    "తంలో</w>": 4804,
    "త్య": 4805,
    "తూ</w>": 4806,
    "తరా": 4807,
    "తక్కు": 4808,
    "ణంగా</w>": 4809,
    "డింది.</w>": 4810,
    "ట్లు</w>": 4811,
    "టి</w>": 4812,
    "టర్": 4813,
    "జరిగ": 4814,
    "జనగణ": 4815,
    "జాలు</w>": 4816,
    "జరుపు": 4817,
    "జన్మ": 4818,
    "జంబ": 4819,
    "జంబూ</w>": 4820,
    "చు.</w>": 4821,
    "చిన</w>": 4822,
    "చిత్ర": 4823,
    "చింది.</w>": 4824,
    "చారిత్ర": 4825,
    "చైన": 4826,
    "చాలా</w>": 4827,
    "గుర్త": 4828,
    "గాంధ": 4829,
    "గాంధీ</w>": 4830,
    "క్షరాస్యత</w>": 4831,
    "క్రీడలు</w>": 4832,
    "క్యాలెండ": 4833,
    "క్‌": 4834,
    "కోర్ట": 4835,
    "కోల్": 4836,
    "కోట్ల": 4837,
    "కొన్ని</w>": 4838,
    "కేంద్ర</w>": 4839,
    "కేవలం</w>": 4840,
    "కూడుకు": 4841,
    "కుంటారు.</w>": 4842,
    "కింద": 4843,
    "కార్యక్రమ": 4844,
    "కాశ్మీ": 4845,
    "కలిగి</w>": 4846,
    "కరణ": 4847,
    "కంపె": 4848,
    "కన్నడ": 4849,
    "ఒకటి": 4850,
    "ఏర్పడ్": 4851,
    "ఎన్నిక": 4852,
    "ఉపఖండ": 4853,
    "ఉన్నారు.</w>": 4854,
    "ఉత్తరా": 4855,
    "ఉత్తర</w>": 4856,
    "ఉంటుంది.</w>": 4857,
    "ఇవి</w>": 4858,
    "ఇస్లామాబాద్": 4859,
    "ఇతర": 4860,
    "ఇంగ్ల": 4861,
    "ఆహార": 4862,
    "ఆర్థిక</w>": 4863,
    "ఆఫ్ఘ": 4864,
    "అభివృద్ధి</w>": 4865,
    "అనే</w>": 4866,
    "అని</w>": 4867,
    "ంగా,</w>": 4868,
    "ంలో,</w>": 4869,
    "ం.</w>": 4870,
    "৯৯),</w>": 4871,
    "৮।</w>": 4872,
    "৫২১": 4873,
    "৪৭</w>": 4874,
    "২১৬": 4875,
    "২০১১</w>": 4876,
    "২০</w>": 4877,
    "২৮</w>": 4878,
    "১৯৯০-এর</w>": 4879,
    "১৯৪৭</w>": 4880,
    "০০০</w>": 4881,
    "০১৯": 4882,
    "্ষিক</w>": 4883,
    "্রিম</w>": 4884,
    "্রেস": 4885,
    "্যান্ড</w>": 4886,
    "্যান্ড": 4887,
    "্যো": 4888,
    "্যোতি": 4889,
    "্যব": 4890,
    "্যবস্থা</w>": 4891,
    "্যপা": 4892,
    "্বভৌ": 4893,
    "্পিউ": 4894,
    "্ট</w>": 4895,
    "্চ</w>": 4896,
    "্সি": 4897,
    "োজক</w>": 4898,
    "োগের</w>": 4899,
    "োগ</w>": 4900,
    "োজিত</w>": 4901,
    "েরু</w>": 4902,
    "েম্ব": 4903,
    "েন।</w>": 4904,
    "ে,</w>": 4905,
    "ৃতিক</w>": 4906,
    "ৃত,</w>": 4907,
    "ৃত</w>": 4908,
    "ীতি</w>": 4909,
    "ীত।</w>": 4910,
    "িদ্র": 4911,
    "িতি</w>": 4912,
    "িত,</w>": 4913,
    "িকভাবে</w>": 4914,
    "িক।</w>": 4915,
    "ি,</w>": 4916,
    "ানুয়ার": 4917,
    "ানুয়ারি</w>": 4918,
    "াগরি": 4919,
    "াকৃতিক</w>": 4920,
    "হিমালয়</w>": 4921,
    "হিন্দু,</w>": 4922,
    "হিন্দি</w>": 4923,
    "হিন্দি": 4924,
    "হয়েছিল।</w>": 4925,
    "হয়;</w>": 4926,
    "হারের</w>": 4927,
    "হত</w>": 4928,
    "স্বাধীনতার</w>": 4929,
    "স্থাপন</w>": 4930,
    "স্তন্যপা": 4931,
    "স্ট্র": 4932,
    "সেনা</w>": 4933,
    "সেই</w>": 4934,
    "সীমা": 4935,
    "সিংহ": 4936,
    "সার্বভৌ": 4937,
    "সারা</w>": 4938,
    "সাগরে</w>": 4939,
    "সাগর</w>": 4940,
    "সাল</w>": 4941,
    "সাল": 4942,
    "সামা": 4943,
    "সামাজিক</w>": 4944,
    "সাথে</w>": 4945,
    "সাউ": 4946,
    "সর্বোচ্চ": 4947,
    "সর্বোচ্চ</w>": 4948,
    "সর্বাপে": 4949,
    "সর্বাপেক্ষা</w>": 4950,
    "সর্ব": 4951,
    "সরণ</w>": 4952,
    "সম্মি": 4953,
    "সময়কালের</w>": 4954,
    "সমর্থ": 4955,
    "সময়ে</w>": 4956,
    "সভ্যতার</w>": 4957,
    "সকল</w>": 4958,
    "সংস্কৃতির</w>": 4959,
    "সংস্কৃতিতে</w>": 4960,
    "সংস্কৃত</w>": 4961,
    "সংসদের</w>": 4962,
    "সংসদী": 4963,
    "সংসদীয়</w>": 4964,
    "সংরক্ষণ</w>": 4965,
    "সংঘর্": 4966,
    "সংখ্যাগরি": 4967,
    "সংখ্যক</w>": 4968,
    "সংস্থা</w>": 4969,
    "সংসদ": 4970,
    "সৃষ": 4971,
    "সুপ": 4972,
    "সহায়": 4973,
    "সহ</w>": 4974,
    "স,</w>": 4975,
    "ষ্ঠী": 4976,
    "ষণা</w>": 4977,
    "শাসনা": 4978,
    "শাসন</w>": 4979,
    "শহরে</w>": 4980,
    "শব্দটি</w>": 4981,
    "শক্তি</w>": 4982,
    "শাল": 4983,
    "ল্ল": 4984,
    "লোকস": 4985,
    "লোক": 4986,
    "লুগু": 4987,
    "লীন</w>": 4988,
    "লি,</w>": 4989,
    "লায়</w>": 4990,
    "লন</w>": 4991,
    "র্ধ": 4992,
    "র্তী</w>": 4993,
    "রেশীয়</w>": 4994,
    "রিজ": 4995,
    "রাষ্ট্রে</w>": 4996,
    "রাজ্যে</w>": 4997,
    "রাজনীতি</w>": 4998,
    "রয়েছে:</w>": 4999,
    "রয়েছে।</w>": 5000,
    "রা</w>": 5001,
    "রন্": 5002,
    "রন্ধন": 5003,
    "রও</w>": 5004,
    "যোগ</w>": 5005,
    "যুদ্ধ</w>": 5006,
    "য়েন্": 5007,
    "য়ান": 5008,
    "য়,</w>": 5009,
    "যে</w>": 5010,
    "যন্ত্র": 5011,
    "মুসলমান</w>": 5012,
    "মানুষ": 5013,
    "মাঝ": 5014,
    "মাই": 5015,
    "মধ্যবর্": 5016,
    "মধ্যবর্তী</w>": 5017,
    "মিক": 5018,
    "মা</w>": 5019,
    "মসূ": 5020,
    "মরু": 5021,
    "ভূমির</w>": 5022,
    "ভূমিক": 5023,
    "ভূখণ্ড": 5024,
    "ভিত্": 5025,
    "ভাষাগো": 5026,
    "ভার্সি": 5027,
    "ভারত-": 5028,
    "ভারত,</w>": 5029,
    "ভাগের</w>": 5030,
    "ভি</w>": 5031,
    "ব্যাপক</w>": 5032,
    "ব্যবহৃত</w>": 5033,
    "ব্যবস্থার</w>": 5034,
    "বৈচিত্র্যপূর্ণ</w>": 5035,
    "বৃহৎ</w>": 5036,
    "বৃক্ষ": 5037,
    "বুদ্ধ</w>": 5038,
    "বিস্তৃত।</w>": 5039,
    "বিশেষ</w>": 5040,
    "বিশেষ": 5041,
    "বিরোধ": 5042,
    "বিরোধী</w>": 5043,
    "বিভক্ত।</w>": 5044,
    "বিজেপি-": 5045,
    "বিচ্ছি": 5046,
    "বিচারব্যবস্থা</w>": 5047,
    "বিভাগ</w>": 5048,
    "বিবাহ": 5049,
    "বিদেশ": 5050,
    "বিদেশি</w>": 5051,
    "বিদ</w>": 5052,
    "বিদ": 5053,
    "বিজয়": 5054,
    "বিজ": 5055,
    "বাহিনীর</w>": 5056,
    "বার্ষিক</w>": 5057,
    "বায়ুপ্র": 5058,
    "বাল": 5059,
    "বাদী": 5060,
    "বসতি</w>": 5061,
    "বর্ধনশীল</w>": 5062,
    "বন্য": 5063,
    "বঙ্গো": 5064,
    "বঙ্গোপ": 5065,
    "ব্য</w>": 5066,
    "ফেডারেশন</w>": 5067,
    "ফ্র": 5068,
    "ফিল": 5069,
    "প্রযুক্তি": 5070,
    "প্রবর্তিত</w>": 5071,
    "প্রতিষ্ঠিত</w>": 5072,
    "প্রতিষ্ঠ": 5073,
    "প্রাধ": 5074,
    "প্রাকৃতিক</w>": 5075,
    "প্রা": 5076,
    "প্রস্": 5077,
    "প্রদেশের</w>": 5078,
    "প্তর": 5079,
    "পূর্বাব্দ": 5080,
    "পূর্বাঞ্চ": 5081,
    "পুন": 5082,
    "পুঞ্": 5083,
    "পাঁচ</w>": 5084,
    "পালিত</w>": 5085,
    "পাল</w>": 5086,
    "পাত": 5087,
    "পাও": 5088,
    "পশ্চিমে</w>": 5089,
    "পরেই</w>": 5090,
    "পরিচাল": 5091,
    "প্ট": 5092,
    "পতিত</w>": 5093,
    "পড়": 5094,
    "প,</w>": 5095,
    "ন্বয়ে</w>": 5096,
    "ন্নয়": 5097,
    "ন্ত্রণ</w>": 5098,
    "ন্স</w>": 5099,
    "নোবে": 5100,
    "নৃত্য": 5101,
    "নির্বাচন": 5102,
    "নির্বাচনে</w>": 5103,
    "নিরপেক্ষ</w>": 5104,
    "নিয়ন্ত্রণ</w>": 5105,
    "নিম্নক": 5106,
    "নিদর্শন": 5107,
    "নিজেদের</w>": 5108,
    "নিযুক্ত</w>": 5109,
    "নে</w>": 5110,
    "ধিষ্ঠিত</w>": 5111,
    "ধাঁচ": 5112,
    "ধর্মী": 5113,
    "ধর্মা": 5114,
    "ধি</w>": 5115,
    "দ্রো": 5116,
    "দ্বীপপুঞ্": 5117,
    "দ্বীপের</w>": 5118,
    "দৈনিক</w>": 5119,
    "দেশটির</w>": 5120,
    "দেশ।</w>": 5121,
    "দুর্": 5122,
    "দিন</w>": 5123,
    "দারিদ্র": 5124,
    "দায়": 5125,
    "দাক্ষি": 5126,
    "দাক্ষিণ": 5127,
    "দাক্ষিণাত": 5128,
    "দাঁ": 5129,
    "দাঁড়": 5130,
    "দশকে</w>": 5131,
    "দশকগুলিতে</w>": 5132,
    "দশকের</w>": 5133,
    "দশক</w>": 5134,
    "থাকত": 5135,
    "থর</w>": 5136,
    "ত্তি</w>": 5137,
    "তেলুগু": 5138,
    "তৃত্ব</w>": 5139,
    "তীয়": 5140,
    "তি।</w>": 5141,
    "তামিল": 5142,
    "তাই</w>": 5143,
    "তম।</w>": 5144,
    "তবে</w>": 5145,
    "তথ্য</w>": 5146,
    "তথা</w>": 5147,
    "তুল": 5148,
    "ণ্ড</w>": 5149,
    "ণের</w>": 5150,
    "ড়ুর</w>": 5151,
    "ড়া</w>": 5152,
    "ডলারের</w>": 5153,
    "টিকে</w>": 5154,
    "টি।</w>": 5155,
    "জুন</w>": 5156,
    "জার</w>": 5157,
    "জাতি</w>": 5158,
    "জাত</w>": 5159,
    "জনতা</w>": 5160,
    "জ্যোতি": 5161,
    "জ,</w>": 5162,
    "ছোট": 5163,
    "ছিল।</w>": 5164,
    "ছিল": 5165,
    "চুক্": 5166,
    "চুক্তি</w>": 5167,
    "চালিত</w>": 5168,
    "চার</w>": 5169,
    "চনা</w>": 5170,
    "চতুর্থ</w>": 5171,
    "চাল": 5172,
    "ঙ্গাল": 5173,
    "ঙ্গে": 5174,
    "ঙ্গ</w>": 5175,
    "গীয়</w>": 5176,
    "গণিত": 5177,
    "গবে": 5178,
    "গণ</w>": 5179,
    "খ্রিষ্টীয়</w>": 5180,
    "খ্রিষ্টপূর্বাব্দ": 5181,
    "খাতের</w>": 5182,
    "খাত</w>": 5183,
    "খনো</w>": 5184,
    "খ্রি": 5185,
    "খে</w>": 5186,
    "খালি</w>": 5187,
    "খণ্ড</w>": 5188,
    "ক্ষার</w>": 5189,
    "ক্রান্": 5190,
    "ক্তি": 5191,
    "কেন্দ্রের</w>": 5192,
    "কের": 5193,
    "কূল</w>": 5194,
    "কার্য": 5195,
    "কারণে</w>": 5196,
    "কাশ্": 5197,
    "কাশ</w>": 5198,
    "কালীন</w>": 5199,
    "কাবা": 5200,
    "কলকা": 5201,
    "কর্মসূ": 5202,
    "করণ</w>": 5203,
    "কম্পিউ": 5204,
    "কলা": 5205,
    "কক্ষ": 5206,
    "ক।</w>": 5207,
    "ঐতিহ্য</w>": 5208,
    "ঐতিহ্য": 5209,
    "এসএল": 5210,
    "একই</w>": 5211,
    "এদেশের</w>": 5212,
    "এগুলি</w>": 5213,
    "উৎসব": 5214,
    "উৎপাদ": 5215,
    "উৎপ": 5216,
    "উল্লেখ</w>": 5217,
    "উপমহাদেশের</w>": 5218,
    "উপনি": 5219,
    "উপকূল</w>": 5220,
    "উদ্ধৃতিতে</w>": 5221,
    "উন্নয়": 5222,
    "উন্": 5223,
    "ইন্ডিয়া": 5224,
    "ইন্দি": 5225,
    "ইউরোপীয়</w>": 5226,
    "ইউনিভার্সি": 5227,
    "ইউরেশীয়</w>": 5228,
    "ইউনিয়": 5229,
    "ইস্ট</w>": 5230,
    "আর্কাইভকৃত,</w>": 5231,
    "আরব</w>": 5232,
    "আরও</w>": 5233,
    "আন্দোলনের</w>": 5234,
    "আন্দামান</w>": 5235,
    "আদালতের</w>": 5236,
    "আমদ": 5237,
    "আবাস": 5238,
    "আধা": 5239,
    "আদি": 5240,
    "আগে": 5241,
    "অ্যাড": 5242,
    "অবস্থা": 5243,
    "অবদান</w>": 5244,
    "অনুযায়ী</w>": 5245,
    "অধিকার": 5246,
    "অত্যন্ত</w>": 5247,
    "অঞ্চলে": 5248,
    "অক্টোবর</w>": 5249,
    "অস্": 5250,
    "অধিষ্ঠিত</w>": 5251,
    "অতি": 5252,
    "অগ্র": 5253,
    "४०</w>": 5254,
    "२०१४</w>": 5255,
    "२००४</w>": 5256,
    "१९९१</w>": 5257,
    "१९८४</w>": 5258,
    "्रित</w>": 5259,
    "्यादा</w>": 5260,
    "्या</w>": 5261,
    "्यपि</w>": 5262,
    "ोंने</w>": 5263,
    "ेशन</w>": 5264,
    "े।</w>": 5265,
    "ेक्षा</w>": 5266,
    "ूबर</w>": 5267,
    "ूह</w>": 5268,
    "ुप</w>": 5269,
    "ीति</w>": 5270,
    "ियान</w>": 5271,
    "ियाई</w>": 5272,
    "ियस</w>": 5273,
    "िक,</w>": 5274,
    "ाष्ट": 5275,
    "ालय</w>": 5276,
    "ारख": 5277,
    "ाटी</w>": 5278,
    "ाचल</w>": 5279,
    "होने</w>": 5280,
    "हैं:</w>": 5281,
    "हुआ,</w>": 5282,
    "हिस्सा</w>": 5283,
    "हिं": 5284,
    "हार</w>": 5285,
    "हरा</w>": 5286,
    "हत्या</w>": 5287,
    "हती</w>": 5288,
    "हारी</w>": 5289,
    "हरू</w>": 5290,
    "हरा": 5291,
    "हन</w>": 5292,
    "स्थिति</w>": 5293,
    "स्थानीय</w>": 5294,
    "स्थापि": 5295,
    "स्थापित</w>": 5296,
    "स्टा": 5297,
    "स्टाफ</w>": 5298,
    "स्ट</w>": 5299,
    "सेवाओं</w>": 5300,
    "सेनाओं</w>": 5301,
    "सेवा</w>": 5302,
    "सूचना</w>": 5303,
    "सीमा</w>": 5304,
    "सिनेमा</w>": 5305,
    "सिंधु</w>": 5306,
    "सित": 5307,
    "साम्राज्यों</w>": 5308,
    "साथ,</w>": 5309,
    "साहि": 5310,
    "सामान": 5311,
    "साक्ष": 5312,
    "साक्षरता</w>": 5313,
    "साई</w>": 5314,
    "सशस्त्र</w>": 5315,
    "सरकारों</w>": 5316,
    "सरे</w>": 5317,
    "सम्प्र": 5318,
    "सम्पूर्ण</w>": 5319,
    "समृद्ध</w>": 5320,
    "समूह</w>": 5321,
    "समझ": 5322,
    "सभी</w>": 5323,
    "सदी</w>": 5324,
    "सतपु": 5325,
    "सतपुड़ा</w>": 5326,
    "सकते</w>": 5327,
    "सकता</w>": 5328,
    "संसदी": 5329,
    "संसदीय</w>": 5330,
    "सौह": 5331,
    "सारी</w>": 5332,
    "सार": 5333,
    "सहि": 5334,
    "सशील</w>": 5335,
    "सन्": 5336,
    "षण,</w>": 5337,
    "श्रेण": 5338,
    "शेष": 5339,
    "शिक्षा</w>": 5340,
    "शास्त्र": 5341,
    "शाल</w>": 5342,
    "शामिल</w>": 5343,
    "शैली</w>": 5344,
    "शिया</w>": 5345,
    "व्याप": 5346,
    "वैदि": 5347,
    "वैदिक</w>": 5348,
    "वृद्धि</w>": 5349,
    "विश्व": 5350,
    "विरोध</w>": 5351,
    "विकासशील</w>": 5352,
    "विशाल</w>": 5353,
    "विद्र": 5354,
    "वित</w>": 5355,
    "विज्": 5356,
    "वास्तविक</w>": 5357,
    "वास</w>": 5358,
    "वर्षा</w>": 5359,
    "वर्णि": 5360,
    "वर्ण": 5361,
    "वर्णन</w>": 5362,
    "वर्गी": 5363,
    "वपूर्ण</w>": 5364,
    "वत</w>": 5365,
    "लोकतांत्रिक</w>": 5366,
    "लीय</w>": 5367,
    "लिस</w>": 5368,
    "लाल</w>": 5369,
    "लाया।</w>": 5370,
    "लाख</w>": 5371,
    "लाख": 5372,
    "लदी": 5373,
    "लगा": 5374,
    "लगाता": 5375,
    "लगातार</w>": 5376,
    "र्त": 5377,
    "र्च": 5378,
    "रे-": 5379,
    "रे-धीरे</w>": 5380,
    "राज्यसभा</w>": 5381,
    "राजनीति</w>": 5382,
    "राजस्थान</w>": 5383,
    "राजवंश</w>": 5384,
    "राजभाषा</w>": 5385,
    "राजा": 5386,
    "रही</w>": 5387,
    "रखा</w>": 5388,
    "रिय": 5389,
    "रत्": 5390,
    "योग": 5391,
    "या,</w>": 5392,
    "यद्यपि</w>": 5393,
    "ये</w>": 5394,
    "यर</w>": 5395,
    "यन</w>": 5396,
    "मोहन</w>": 5397,
    "मोर्च": 5398,
    "मोदी</w>": 5399,
    "मूल्य</w>": 5400,
    "मूल</w>": 5401,
    "मील</w>": 5402,
    "मीण": 5403,
    "मिलियन": 5404,
    "मिक</w>": 5405,
    "मानव</w>": 5406,
    "मालदी": 5407,
    "मामल": 5408,
    "मांड": 5409,
    "महासागर</w>": 5410,
    "मनमोहन</w>": 5411,
    "म्य": 5412,
    "मार्": 5413,
    "मही": 5414,
    "मना": 5415,
    "मक</w>": 5416,
    "भूमि": 5417,
    "भिक</w>": 5418,
    "भाषाएं</w>": 5419,
    "भारतीयों</w>": 5420,
    "भागीद": 5421,
    "भागीदारी</w>": 5422,
    "बैठक</w>": 5423,
    "बहुमूल्य</w>": 5424,
    "बने।</w>": 5425,
    "बनने</w>": 5426,
    "बदल</w>": 5427,
    "बढ़ने</w>": 5428,
    "बडी</w>": 5429,
    "बी</w>": 5430,
    "प्रारम्भिक</w>": 5431,
    "प्राची": 5432,
    "प्राचीनत": 5433,
    "प्राचीनतम</w>": 5434,
    "प्रभावशाली</w>": 5435,
    "प्रभाव</w>": 5436,
    "प्रशासन</w>": 5437,
    "प्रदेशों</w>": 5438,
    "प्रति</w>": 5439,
    "प्रच": 5440,
    "प्रचलित</w>": 5441,
    "प्ति</w>": 5442,
    "पैमान": 5443,
    "पुर्तगाली</w>": 5444,
    "पुरुषों</w>": 5445,
    "पुलिस</w>": 5446,
    "पुन": 5447,
    "पार्टियों</w>": 5448,
    "पाल</w>": 5449,
    "पहुँच": 5450,
    "पहाड़ी</w>": 5451,
    "पहाड़": 5452,
    "पहली</w>": 5453,
    "परिणामस्वरूप</w>": 5454,
    "परेशन</w>": 5455,
    "पत्ति</w>": 5456,
    "पत्य</w>": 5457,
    "पंथी</w>": 5458,
    "पठा": 5459,
    "पठार</w>": 5460,
    "न्होंने</w>": 5461,
    "न्याय": 5462,
    "न्त्र": 5463,
    "नौसेना</w>": 5464,
    "नेहरू</w>": 5465,
    "नेट</w>": 5466,
    "निरपेक्ष</w>": 5467,
    "नियु": 5468,
    "नियंत्र": 5469,
    "निभाई।</w>": 5470,
    "निवास</w>": 5471,
    "नागा</w>": 5472,
    "नाड": 5473,
    "नाट": 5474,
    "नागर": 5475,
    "नदियों</w>": 5476,
    "नका</w>": 5477,
    "नृत": 5478,
    "नम</w>": 5479,
    "न,</w>": 5480,
    "धीरे-धीरे</w>": 5481,
    "धर्मों</w>": 5482,
    "धर्म,</w>": 5483,
    "धर्म": 5484,
    "दर्शन</w>": 5485,
    "दा</w>": 5486,
    "द,</w>": 5487,
    "थी,</w>": 5488,
    "थान</w>": 5489,
    "त्रि": 5490,
    "त्र,</w>": 5491,
    "तुलना</w>": 5492,
    "तीसरी</w>": 5493,
    "तीस</w>": 5494,
    "तिम</w>": 5495,
    "ता,</w>": 5496,
    "तनाव</w>": 5497,
    "ततः</w>": 5498,
    "तरा": 5499,
    "तब</w>": 5500,
    "णी</w>": 5501,
    "टल</w>": 5502,
    "झारख": 5503,
    "जैन</w>": 5504,
    "जीत</w>": 5505,
    "जिसकी</w>": 5506,
    "जिसने</w>": 5507,
    "जाने</w>": 5508,
    "जवा": 5509,
    "जब</w>": 5510,
    "जन्": 5511,
    "छोड़कर</w>": 5512,
    "छह</w>": 5513,
    "चुकी</w>": 5514,
    "चित</w>": 5515,
    "चाई</w>": 5516,
    "घोषित</w>": 5517,
    "घाटी</w>": 5518,
    "गैर-": 5519,
    "गुजरात</w>": 5520,
    "गतिशील</w>": 5521,
    "गों": 5522,
    "गया,</w>": 5523,
    "गढ़</w>": 5524,
    "खान": 5525,
    "खर</w>": 5526,
    "क्षेत्रों</w>": 5527,
    "क्षेप</w>": 5528,
    "क्टूबर</w>": 5529,
    "केन्द्रशासित</w>": 5530,
    "केन्द्र</w>": 5531,
    "कामका": 5532,
    "कामकाज</w>": 5533,
    "करोड़": 5534,
    "करे": 5535,
    "कंपन": 5536,
    "क्रि": 5537,
    "कमांड": 5538,
    "कप</w>": 5539,
    "कटिबंधीय</w>": 5540,
    "ऑफ</w>": 5541,
    "ऑपरेशन</w>": 5542,
    "एशन</w>": 5543,
    "ऊँचाई</w>": 5544,
    "ऊपर</w>": 5545,
    "उनका</w>": 5546,
    "उत्पाद</w>": 5547,
    "उत्तर-प": 5548,
    "उत्तर-पश्चि": 5549,
    "उष्ण</w>": 5550,
    "इंडो": 5551,
    "आसपास</w>": 5552,
    "आते</w>": 5553,
    "आगे</w>": 5554,
    "आकर्मण</w>": 5555,
    "आंदोलन</w>": 5556,
    "आधार</w>": 5557,
    "आज</w>": 5558,
    "आई</w>": 5559,
    "आंत": 5560,
    "आंतरिक</w>": 5561,
    "अवशेष</w>": 5562,
    "अवधि</w>": 5563,
    "अमेरिका</w>": 5564,
    "अभियान</w>": 5565,
    "अन्तर्": 5566,
    "अन्तर": 5567,
    "अन्ततः</w>": 5568,
    "अन्त</w>": 5569,
    "अति</w>": 5570,
    "अलावा</w>": 5571,
    "अनि": 5572,
    "अच्छ": 5573,
    "अक्टूबर</w>": 5574,
    "ंजन</w>": 5575,
    "ं।</w>": 5576,
    "ँच</w>": 5577,
    "|mon": 5578,
    "|month": 5579,
    "|month=</w>": 5580,
    "|last": 5581,
    "|last2": 5582,
    "|last2=</w>": 5583,
    "|fir": 5584,
    "|first": 5585,
    "|first1": 5586,
    "|first1=</w>": 5587,
    "umbai": 5588,
    "umbai:</w>": 5589,
    "s),</w>": 5590,
    "ountry</w>": 5591,
    "on:</w>": 5592,
    "omb": 5593,
    "ombay</w>": 5594,
    "olum": 5595,
    "iii,</w>": 5596,
    "esh</w>": 5597,
    "colour</w>": 5598,
    "chived</w>": 5599,
    "book</w>": 5600,
    "araj": 5601,
    "Wild": 5602,
    "SBN</w>": 5603,
    "S.</w>": 5604,
    "R.</w>": 5605,
    "Press</w>": 5606,
    "Natural</w>": 5607,
    "Mumbai:</w>": 5608,
    "Mill": 5609,
    "Mac": 5610,
    "London:</w>": 5611,
    "John</w>": 5612,
    "J.</w>": 5613,
    "ISBN</w>": 5614,
    "Har": 5615,
    "H.</w>": 5616,
    "Fac": 5617,
    "Change</w>": 5618,
    "Country</w>": 5619,
    "Cambridge</w>": 5620,
    "Book": 5621,
    "Bra": 5622,
    "Bombay</w>": 5623,
    "Archived</w>": 5624,
    "Antholog": 5625,
    "30</w>": 5626,
    "2003</w>": 5627,
    "2000,</w>": 5628,
    "2020": 5629,
    "27": 5630,
    "1999</w>": 5631,
    "1990</w>": 5632,
    "1962</w>": 5633,
    "1960</w>": 5634,
    "1951</w>": 5635,
    "19</w>": 5636,
    "192,</w>": 5637,
    "12</w>": 5638,
    ".৬%</w>": 5639,
    "-ধাঁচ": 5640,
    "(২০০১),</w>": 5641,
    "(২০০৬": 5642,
    "(২০০৪": 5643,
    "(১৯৯৯),</w>": 5644,
    "(వెనుకటి</w>": 5645,
    "(হিন্দি": 5646,
    "(এন": 5647,
    "(०,": 5648,
    "(W": 5649,
    "%)।</w>": 5650,
    "‌ఫ": 5651,
    "ొమ": 5652,
    "ేధ": 5653,
    "ృహ": 5654,
    "ృ</w>": 5655,
    "ూ—": 5656,
    "హొ": 5657,
    "సొ": 5658,
    "వూ": 5659,
    "వజ": 5660,
    "ళవ": 5661,
    "లభ": 5662,
    "లఘ": 5663,
    "రొ": 5664,
    "రబ": 5665,
    "యూ": 5666,
    "యథ": 5667,
    "మో": 5668,
    "భజ": 5669,
    "పౌ": 5670,
    "ప-": 5671,
    "నబ": 5672,
    "దృ": 5673,
    "దస": 5674,
    "దశ": 5675,
    "దప": 5676,
    "తగ": 5677,
    "డబ": 5678,
    "ఞా": 5679,
    "జౌ": 5680,
    "చ.": 5681,
    "ఔట": 5682,
    "ఓడ": 5683,
    "ఏట": 5684,
    "ఏ.": 5685,
    "ఎమ": 5686,
    "ఇయ": 5687,
    "ఆయ": 5688,
    "ఆట": 5689,
    "ఆ</w>": 5690,
    "ః</w>": 5691,
    "ంథ": 5692,
    "৬°": 5693,
    "১–": 5694,
    "ৌহ": 5695,
    "ৌশ": 5696,
    "ৌ</w>": 5697,
    "হট": 5698,
    "সৈ": 5699,
    "সও": 5700,
    "ষো": 5701,
    "ষল": 5702,
    "ষচ": 5703,
    "শর": 5704,
    "রঙ": 5705,
    "রং": 5706,
    "যৌ": 5707,
    "যখ": 5708,
    "ব-": 5709,
    "ফৌ": 5710,
    "ফ</w>": 5711,
    "পঁ": 5712,
    "দৃ": 5713,
    "দণ": 5714,
    "দখ": 5715,
    "দং": 5716,
    "থপ": 5717,
    "তৎ": 5718,
    "তহ": 5719,
    "তখ": 5720,
    "ডু": 5721,
    "ঠো": 5722,
    "ট)": 5723,
    "চো": 5724,
    "খ—": 5725,
    "ওষ": 5726,
    "ওন": 5727,
    "ওণ": 5728,
    "ঐক": 5729,
    "ঋত": 5730,
    "ঊন": 5731,
    "উই": 5732,
    "ইর": 5733,
    "ই-": 5734,
    "আহ": 5735,
    "আও": 5736,
    "অ-": 5737,
    "οί": 5738,
    "ān": 5739,
    "°৭": 5740,
    "eè": 5741,
    "e´": 5742,
    "^</w>": 5743,
    "Z</w>": 5744,
    "Yv": 5745,
    "X</w>": 5746,
    "N)": 5747,
    "M</w>": 5748,
    "L</w>": 5749,
    "Gl": 5750,
    "G</w>": 5751,
    "D</w>": 5752,
    "C.": 5753,
    "B/": 5754,
    "AP": 5755,
    "?</w>": 5756,
    "8-": 5757,
    ".మ": 5758,
    "-ఇ": 5759,
    ")-": 5760,
    "(శ": 5761,
    "(ట": 5762,
    "(గ": 5763,
    "(ఉ": 5764,
    "(ఇ": 5765,
    "(ఆ": 5766,
    "(ভ": 5767,
    "(উ": 5768,
    "(ই": 5769,
    "(আ": 5770,
    "†</w>": 5771,
    "“R": 5772,
    "‘द": 5773,
    "—এই</w>": 5774,
    "‍व</w>": 5775,
    "‍प": 5776,
    "‌కాత": 5777,
    "‌కాతా</w>": 5778,
    "‌లో</w>": 5779,
    "్వత్ర": 5780,
    "్వత్రిక</w>": 5781,
    "్లమె": 5782,
    "్లమెంట": 5783,
    "్రాబ్": 5784,
    "్రాన్": 5785,
    "్రో": 5786,
    "్రి": 5787,
    "్యా": 5788,
    "్యం,</w>": 5789,
    "్మూ</w>": 5790,
    "ోరల్</w>": 5791,
    "ే.</w>": 5792,
    "ెల్ల": 5793,
    "ెలకొ": 5794,
    "ూడండ": 5795,
    "ులతో</w>": 5796,
    "ుత్</w>": 5797,
    "ుతు": 5798,
    "ుతున్న</w>": 5799,
    "ుత</w>": 5800,
    "ు.</w>": 5801,
    "ీషు</w>": 5802,
    "ీ.పూ": 5803,
    "ీ.పూ.": 5804,
    "ీం</w>": 5805,
    "ీ.</w>": 5806,
    "ివర్": 5807,
    "ిల్లీ-లా": 5808,
    "ిల్లీ-లాహో": 5809,
    "ిల్</w>": 5810,
    "ినీ</w>": 5811,
    "ిక్‌</w>": 5812,
    "ిక్క": 5813,
    "ికలు</w>": 5814,
    "ికంగా</w>": 5815,
    "ించినట": 5816,
    "ించినట్లు</w>": 5817,
    "ించిన": 5818,
    "ించాలనే</w>": 5819,
    "ించి</w>": 5820,
    "ింప": 5821,
    "ించుకో": 5822,
    "ాలు:</w>": 5823,
    "ాల్</w>": 5824,
    "ాయుత</w>": 5825,
    "ాయు</w>": 5826,
    "ాయి": 5827,
    "ాయాలు</w>": 5828,
    "ాన్య</w>": 5829,
    "ాను</w>": 5830,
    "ానీ</w>": 5831,
    "ాతం</w>": 5832,
    "ాక</w>": 5833,
    "హైద": 5834,
    "హైదరా": 5835,
    "హిమాలయ</w>": 5836,
    "హిందూదేశం</w>": 5837,
    "హిళ": 5838,
    "హార</w>": 5839,
    "స్వాతంత్ర్యం</w>": 5840,
    "స్వాతంత్ర్య</w>": 5841,
    "స్థానాలను</w>": 5842,
    "స్థానం</w>": 5843,
    "స్థావరాలు</w>": 5844,
    "స్థితి</w>": 5845,
    "స్త్రీలు</w>": 5846,
    "స్తాన్": 5847,
    "స్తారు</w>": 5848,
    "స్తాయి.</w>": 5849,
    "స్ట్</w>": 5850,
    "స్వీ": 5851,
    "స్లి": 5852,
    "స్లిం</w>": 5853,
    "స్కరణ": 5854,
    "సౌకర్యాలు</w>": 5855,
    "సౌకర్యాలలో</w>": 5856,
    "సైనిక</w>": 5857,
    "సూచ": 5858,
    "సూచించినట్లు</w>": 5859,
    "సుప్ర": 5860,
    "సుప్రీం</w>": 5861,
    "సియాలో</w>": 5862,
    "సినిమాలు</w>": 5863,
    "సింధూ": 5864,
    "సింధూనద": 5865,
    "సింధు": 5866,
    "సిద్ధి</w>": 5867,
    "సార్వత్రిక</w>": 5868,
    "సామర్": 5869,
    "సామర్థ": 5870,
    "సామర్థ్యం</w>": 5871,
    "సాధించిన</w>": 5872,
    "సాధించ": 5873,
    "సాంప్రదాయిక</w>": 5874,
    "సాంకే": 5875,
    "సాంకేత": 5876,
    "సాంకేతిక</w>": 5877,
    "సాహ": 5878,
    "సామా": 5879,
    "సామాజ": 5880,
    "సామాజిక,</w>": 5881,
    "సహస": 5882,
    "సహస్రాబ్": 5883,
    "సరిహద్దుగా</w>": 5884,
    "సముద్రతీ": 5885,
    "సముద్రం,</w>": 5886,
    "సమాఖ్య.</w>": 5887,
    "సభ్యులు</w>": 5888,
    "సభను</w>": 5889,
    "సంస్కరణ": 5890,
    "సంఖ్య</w>": 5891,
    "సిక్క": 5892,
    "సి</w>": 5893,
    "సన</w>": 5894,
    "ష్ణ</w>": 5895,
    "షయాలు</w>": 5896,
    "శెలవు": 5897,
    "శెలవుదినాలు</w>": 5898,
    "శాసన</w>": 5899,
    "శాఖ": 5900,
    "శ్వ": 5901,
    "శైల": 5902,
    "శక్": 5903,
    "శకు": 5904,
    "వ్యాపార": 5905,
    "వైవిధ్య": 5906,
    "వేల</w>": 5907,
    "వేద": 5908,
    "వే.</w>": 5909,
    "వులు,</w>": 5910,
    "వుతుంది.</w>": 5911,
    "విస్తీ": 5912,
    "విస్తీర్": 5913,
    "విద్యుత్</w>": 5914,
    "విషయాలు</w>": 5915,
    "విలు": 5916,
    "విదేశ": 5917,
    "విదేశీ</w>": 5918,
    "విత్ర": 5919,
    "వారసత్వ": 5920,
    "వాణిజ్య</w>": 5921,
    "వాహ": 5922,
    "వాన్ని</w>": 5923,
    "వాదం</w>": 5924,
    "వలస</w>": 5925,
    "వలన</w>": 5926,
    "వర్గ": 5927,
    "వరీ</w>": 5928,
    "వనాలు</w>": 5929,
    "వచ్చిన</w>": 5930,
    "వెల్ల": 5931,
    "వి</w>": 5932,
    "వాయు</w>": 5933,
    "ళ్ళ": 5934,
    "ళి,</w>": 5935,
    "ళిక</w>": 5936,
    "లోయ</w>": 5937,
    "లోమీ": 5938,
    "లోమీటర్": 5939,
    "లోమీటర్లకు</w>": 5940,
    "లోనే</w>": 5941,
    "లోక్‌": 5942,
    "లోక్</w>": 5943,
    "లుచుకో": 5944,
    "లుచుకోవడం</w>": 5945,
    "లుగా</w>": 5946,
    "లు:</w>": 5947,
    "లంప": 5948,
    "లంక": 5949,
    "లౌక": 5950,
    "లతో,</w>": 5951,
    "ర్యాయాలు</w>": 5952,
    "ర్‌": 5953,
    "ర్షణ": 5954,
    "ర్వాత": 5955,
    "ర్య</w>": 5956,
    "ర్జాతీయ</w>": 5957,
    "రోపా</w>": 5958,
    "రైల్వే": 5959,
    "రెండు": 5960,
    "రెండవ</w>": 5961,
    "రూపా": 5962,
    "రూపాంత": 5963,
    "రుగు": 5964,
    "రుగుబా": 5965,
    "రుగుబాటు</w>": 5966,
    "రి.</w>": 5967,
    "రాష్ట్రాలు</w>": 5968,
    "రాష్ట్రాలు,</w>": 5969,
    "రాష్ట్రప": 5970,
    "రాష్ట్ర</w>": 5971,
    "రాజ్యాంగం</w>": 5972,
    "రాజ్యాలుగా</w>": 5973,
    "రాజ్యాలు</w>": 5974,
    "రాజ్యంగా</w>": 5975,
    "రాజ్య</w>": 5976,
    "రాజు</w>": 5977,
    "రాజక": 5978,
    "రాజకీయ": 5979,
    "రహదార": 5980,
    "రచయి": 5981,
    "రచయిత": 5982,
    "రిక": 5983,
    "యోజన": 5984,
    "యోగి": 5985,
    "యింది.</w>": 5986,
    "యాళం": 5987,
    "యమించబ": 5988,
    "యుగ": 5989,
    "యాత్ర": 5990,
    "మౌర్య</w>": 5991,
    "మొదలగు": 5992,
    "మొద": 5993,
    "మొదటి": 5994,
    "మై</w>": 5995,
    "మేనన": 5996,
    "మేనని</w>": 5997,
    "మే.</w>": 5998,
    "మెరిక": 5999,
    "ముఖ్యంగా</w>": 6000,
    "ముంబై</w>": 6001,
    "ముస్లిం</w>": 6002,
    "ముడి</w>": 6003,
    "ము,</w>": 6004,
    "మీదగా</w>": 6005,
    "మిస్తు": 6006,
    "మాత్రమే</w>": 6007,
    "మాన</w>": 6008,
    "మాట్ల": 6009,
    "మాట్లాడ": 6010,
    "మహాత్మ": 6011,
    "మహాత్మా</w>": 6012,
    "మలయాళం": 6013,
    "మరో</w>": 6014,
    "మనదేశం</w>": 6015,
    "మతి</w>": 6016,
    "మిత": 6017,
    "మారు": 6018,
    "మహిళ": 6019,
    "భౌగో": 6020,
    "భౌగోళిక</w>": 6021,
    "భూభాగం</w>": 6022,
    "భూటా": 6023,
    "భాషా</w>": 6024,
    "భాషలను</w>": 6025,
    "భారత్‌లో</w>": 6026,
    "భారత్,</w>": 6027,
    "భారతీయ": 6028,
    "భారతదేశం.</w>": 6029,
    "భారతదేశ": 6030,
    "భారతం,</w>": 6031,
    "భాగా": 6032,
    "భాగాన్ని</w>": 6033,
    "భాగం": 6034,
    "భక్": 6035,
    "బ్రిటిష్</w>": 6036,
    "బ్రిటిషు</w>": 6037,
    "బ్రిటీ": 6038,
    "బ్రిటీష": 6039,
    "బౌద్ధ": 6040,
    "బెంగాలీ</w>": 6041,
    "బాదు</w>": 6042,
    "బడతారు.</w>": 6043,
    "బంగ్లాదేశ": 6044,
    "బంగ్లాదేశ్‌": 6045,
    "బంగారు</w>": 6046,
    "ప్రాంతీయ</w>": 6047,
    "ప్రాంతాల్లో</w>": 6048,
    "ప్రస్తుతమ": 6049,
    "ప్రస్తుతము</w>": 6050,
    "ప్రముఖమ": 6051,
    "ప్రముఖమైన": 6052,
    "ప్రభుత్వాన్ని</w>": 6053,
    "ప్రభుత్వ</w>": 6054,
    "ప్రపంచంలోని</w>": 6055,
    "ప్రపంచములో</w>": 6056,
    "ప్రపంచంలో</w>": 6057,
    "ప్రతిపాదనకు</w>": 6058,
    "ప్రతిపక్ష": 6059,
    "ప్రజాస్వామ్య</w>": 6060,
    "ప్రజాదర": 6061,
    "ప్రజాదరణ</w>": 6062,
    "ప్రజలు</w>": 6063,
    "ప్రిల్</w>": 6064,
    "ప్రాయ": 6065,
    "ప్రసిద్ధి</w>": 6066,
    "ప్రయోజన": 6067,
    "ప్రదేశ": 6068,
    "ప్రత్య": 6069,
    "ప్రజల</w>": 6070,
    "ప్పటికినీ</w>": 6071,
    "ప్పు": 6072,
    "ప్పుకో": 6073,
    "ప్ప": 6074,
    "పోయింది.</w>": 6075,
    "పొందిన</w>": 6076,
    "పేరు,</w>": 6077,
    "పూర్వ": 6078,
    "పూర్తిగా</w>": 6079,
    "పూ.</w>": 6080,
    "పుట్టి": 6081,
    "పుతూ</w>": 6082,
    "పుణ": 6083,
    "పుణులు</w>": 6084,
    "పీఠభూ": 6085,
    "పాలించారు.</w>": 6086,
    "పాలన": 6087,
    "పార్టీ,</w>": 6088,
    "పార్టీ": 6089,
    "పార్లమెంట": 6090,
    "పాకిస్థాన్,</w>": 6091,
    "పాకిస్తాన్</w>": 6092,
    "పావ": 6093,
    "పాడు": 6094,
    "పాడుకుంట": 6095,
    "పాండ": 6096,
    "పశ్చిమ</w>": 6097,
    "పల్ల": 6098,
    "పలు</w>": 6099,
    "పరిపాలన</w>": 6100,
    "పరీ": 6101,
    "పద్ధతి": 6102,
    "పట్టణాలు,</w>": 6103,
    "పండుగలు</w>": 6104,
    "పండు</w>": 6105,
    "ప్ల": 6106,
    "పై</w>": 6107,
    "పవిత్ర": 6108,
    "పర్యాయాలు</w>": 6109,
    "పద్": 6110,
    "పద్ధత": 6111,
    "పతా": 6112,
    "పడు": 6113,
    "పడిన</w>": 6114,
    "పక్క": 6115,
    "పక్కన</w>": 6116,
    "న్నై</w>": 6117,
    "న్నీ</w>": 6118,
    "నేపాల్,</w>": 6119,
    "నేరే": 6120,
    "నెహ": 6121,
    "నులు,</w>": 6122,
    "నిర్వహించింది.</w>": 6123,
    "నిర్వహణ</w>": 6124,
    "నిస్తాన్</w>": 6125,
    "నియమించబ": 6126,
    "నిపుణులు</w>": 6127,
    "నిడి": 6128,
    "నిడివి": 6129,
    "నిజాలు</w>": 6130,
    "నాయకత్": 6131,
    "నాగరికత": 6132,
    "నాథ": 6133,
    "నడిపించట": 6134,
    "నగరాలు</w>": 6135,
    "నగరాల": 6136,
    "నెలకొ": 6137,
    "నీ</w>": 6138,
    "నప్పటికినీ</w>": 6139,
    "ధి</w>": 6140,
    "దేశం.</w>": 6141,
    "దేశాలను</w>": 6142,
    "దేశా": 6143,
    "దేశ</w>": 6144,
    "దాయంలో</w>": 6145,
    "దాదాపు</w>": 6146,
    "దరంగ": 6147,
    "దక్షిణ": 6148,
    "దుగా</w>": 6149,
    "దండ": 6150,
    "తెలుగు,</w>": 6151,
    "తూర్": 6152,
    "తులు": 6153,
    "తిరుగుబాటు</w>": 6154,
    "తిని</w>": 6155,
    "తను</w>": 6156,
    "తా</w>": 6157,
    "తర్వాత": 6158,
    "తంత్ర</w>": 6159,
    "తంగా</w>": 6160,
    "ఢిల్లీ</w>": 6161,
    "ఢాకా": 6162,
    "ఢాకా-ఢ": 6163,
    "ఢాకా-ఢిల్లీ-లాహో": 6164,
    "డ్డీ": 6165,
    "డైన</w>": 6166,
    "డుకు</w>": 6167,
    "డిస్": 6168,
    "డాయి.</w>": 6169,
    "టైటి": 6170,
    "టోరల్</w>": 6171,
    "టిక": 6172,
    "టక</w>": 6173,
    "టం</w>": 6174,
    "జాతులు,</w>": 6175,
    "జరుపుకుంటారు.</w>": 6176,
    "జరిగే</w>": 6177,
    "జమ్మూ</w>": 6178,
    "జనాభాతో</w>": 6179,
    "జనగణన</w>": 6180,
    "జనవరి</w>": 6181,
    "జనతా</w>": 6182,
    "జైన": 6183,
    "చ్చు.</w>": 6184,
    "చైనాను</w>": 6185,
    "చైనా,</w>": 6186,
    "చేసింది.</w>": 6187,
    "చెందుతున్న</w>": 6188,
    "చెందాయి.</w>": 6189,
    "చెప్పుకో": 6190,
    "చెన్నై</w>": 6191,
    "చుకు": 6192,
    "చారిత్రక</w>": 6193,
    "చని</w>": 6194,
    "చూడండ": 6195,
    "చవి": 6196,
    "చదరంగ": 6197,
    "గోదా": 6198,
    "గెలుచుకోవడం</w>": 6199,
    "గుర్తిం": 6200,
    "గువ</w>": 6201,
    "గణతంత్ర</w>": 6202,
    "గ్రా": 6203,
    "గ్ర": 6204,
    "గలు": 6205,
    "గమన": 6206,
    "గత</w>": 6207,
    "గంగ": 6208,
    "ఖనిజాలు</w>": 6209,
    "క్రీడా</w>": 6210,
    "క్రీడలలో</w>": 6211,
    "క్రీ.పూ.": 6212,
    "క్యాలెండర్": 6213,
    "క్టోరల్</w>": 6214,
    "క్,</w>": 6215,
    "కోల్‌కాతా</w>": 6216,
    "కోర్టులు</w>": 6217,
    "కోర్టు": 6218,
    "కోట్లకు</w>": 6219,
    "కోబడతారు.</w>": 6220,
    "కృష్": 6221,
    "కూడుకుని</w>": 6222,
    "కూడుకొ": 6223,
    "కూడి</w>": 6224,
    "కుటుంబ</w>": 6225,
    "కు,</w>": 6226,
    "కిందకు</w>": 6227,
    "కిలోమీటర్లకు</w>": 6228,
    "కాలేజ": 6229,
    "కాలంలో,</w>": 6230,
    "కార్యక్రమాలు</w>": 6231,
    "కారణంగా</w>": 6232,
    "కాంగ్రెస్</w>": 6233,
    "కాహార</w>": 6234,
    "కాపాడుకుంట": 6235,
    "కాగా</w>": 6236,
    "కలిసి</w>": 6237,
    "కలిగి": 6238,
    "కబడ్డీ": 6239,
    "కనుక</w>": 6240,
    "కంపెనీ</w>": 6241,
    "కూ</w>": 6242,
    "కల్ప": 6243,
    "కల్": 6244,
    "కంటే</w>": 6245,
    "ఒకటిగా</w>": 6246,
    "ఒకటి</w>": 6247,
    "ఒలంప": 6248,
    "ఒకే": 6249,
    "ఐరోపా</w>": 6250,
    "ఏర్పడ్డాయి.</w>": 6251,
    "ఏప్రిల్</w>": 6252,
    "ఎలక్టోరల్</w>": 6253,
    "ఎన్నుకోబడతారు.</w>": 6254,
    "ఎన్నికల్లో</w>": 6255,
    "ఎక్కువ</w>": 6256,
    "ఉపయోగి": 6257,
    "ఉత్తరాన</w>": 6258,
    "ఈశాన్య</w>": 6259,
    "ఈస్ట్</w>": 6260,
    "ఇవిక": 6261,
    "ఇంగ్లీషు</w>": 6262,
    "ఇటీ": 6263,
    "ఇక్క": 6264,
    "ఇంద": 6265,
    "ఆధారపడిన</w>": 6266,
    "అయినా,</w>": 6267,
    "అధికారం</w>": 6268,
    "అధికార</w>": 6269,
    "అతిపెద్ద</w>": 6270,
    "అవి": 6271,
    "అమెరిక": 6272,
    "అక్షరాస్యత</w>": 6273,
    "అంద": 6274,
    "అంత": 6275,
    "అంతర్జాతీయ</w>": 6276,
    "అంట": 6277,
    "ంద్</w>": 6278,
    "ండా</w>": 6279,
    "ంటు": 6280,
    "ం:</w>": 6281,
    "৯৯</w>": 6282,
    "৯৮),</w>": 6283,
    "৯৭৮": 6284,
    "৯৭৮-৩": 6285,
    "৯৭৮-৩-৮": 6286,
    "৯৭),</w>": 6287,
    "৯৪)।</w>": 6288,
    "৯০)।</w>": 6289,
    "৯%)</w>": 6290,
    "৯৩-": 6291,
    "৮১৭": 6292,
    "৮১৭০১": 6293,
    "৭,৫১": 6294,
    "৭,৫১৭</w>": 6295,
    "৭১</w>": 6296,
    "৬০</w>": 6297,
    "৫৪৪": 6298,
    "৪০১": 6299,
    "৪০১৩৮": 6300,
    "৩৭০</w>": 6301,
    "৩২।</w>": 6302,
    "২৮টি</w>": 6303,
    "২১.": 6304,
    "২০০৪</w>": 6305,
    "২০০৩</w>": 6306,
    "২৬</w>": 6307,
    "২।</w>": 6308,
    "১৯৯৬</w>": 6309,
    "১৯৮০</w>": 6310,
    "১৯৭৫</w>": 6311,
    "১৯৭৪</w>": 6312,
    "১৯৭১</w>": 6313,
    "১৯৫১</w>": 6314,
    "১৯৫০-এর</w>": 6315,
    "১৯৯৯</w>": 6316,
    "১৯৬": 6317,
    "১২.৬%</w>": 6318,
    "১৮</w>": 6319,
    "১৬.": 6320,
    "০৭)।</w>": 6321,
    "০১৪০১৩৮": 6322,
    "০-১৯-৫৬৪৫": 6323,
    "০-১৯-৫৬২১৬": 6324,
    "০-১৯-২৮": 6325,
    "০-৮": 6326,
    "০-৭৬": 6327,
    "০-৫২১": 6328,
    "্সি</w>": 6329,
    "্রেণী": 6330,
    "্রেণীর</w>": 6331,
    "্রিলিয়ন</w>": 6332,
    "্রাসন</w>": 6333,
    "্রাস</w>": 6334,
    "্রান্স</w>": 6335,
    "্রিজ": 6336,
    "্রিজ</w>": 6337,
    "্রাট": 6338,
    "্রমে</w>": 6339,
    "্রপ্রদেশের</w>": 6340,
    "্যাদি</w>": 6341,
    "্যালে": 6342,
    "্যাল</w>": 6343,
    "্যায়</w>": 6344,
    "্যান</w>": 6345,
    "্যস্": 6346,
    "্যভাবে</w>": 6347,
    "্যভট": 6348,
    "্যন্": 6349,
    "্যন্তর": 6350,
    "্যন্তরীণ</w>": 6351,
    "্ট্র": 6352,
    "্টি": 6353,
    "োমি</w>": 6354,
    "োবর</w>": 6355,
    "োসিয়": 6356,
    "োসিয়েশন</w>": 6357,
    "োত্": 6358,
    "োত্তর</w>": 6359,
    "োক্ষ": 6360,
    "োক্ষভাবে</w>": 6361,
    "েস।</w>": 6362,
    "েশনের</w>": 6363,
    "েলপ": 6364,
    "েলপমে": 6365,
    "েলপমেন্ট</w>": 6366,
    "েরণ</w>": 6367,
    "েম্বর</w>": 6368,
    "েছে</w>": 6369,
    "েছিল।</w>": 6370,
    "েও</w>": 6371,
    "ৃত্য": 6372,
    "ৃত:</w>": 6373,
    "ুকে</w>": 6374,
    "ীলঙ্": 6375,
    "ীলঙ্কা": 6376,
    "ীরে</w>": 6377,
    "ীরা</w>": 6378,
    "ীত,</w>": 6379,
    "ীকৃত:</w>": 6380,
    "ীসৃ": 6381,
    "ীষ্": 6382,
    "ীদের</w>": 6383,
    "ির</w>": 6384,
    "াসোসিয়েশন</w>": 6385,
    "ার্সি</w>": 6386,
    "ার্থ": 6387,
    "ার্চ</w>": 6388,
    "ারি": 6389,
    "ারণ": 6390,
    "ারকম্পিউ": 6391,
    "ারও</w>": 6392,
    "ার।</w>": 6393,
    "ামীণ</w>": 6394,
    "ান-১": 6395,
    "াদ্য</w>": 6396,
    "াদে</w>": 6397,
    "াতা</w>": 6398,
    "াইনা": 6399,
    "হিসেব</w>": 6400,
    "হিন্দুস্ত": 6401,
    "হিন্দুধর্ম</w>": 6402,
    "হিন্দ": 6403,
    "হিন্দু</w>": 6404,
    "হিলা": 6405,
    "হিলাদের</w>": 6406,
    "হায়দ্রা": 6407,
    "হাস": 6408,
    "হাসিক</w>": 6409,
    "হাজার</w>": 6410,
    "হাইড": 6411,
    "হাইড্র": 6412,
    "হয়েছেন।</w>": 6413,
    "হযোগ": 6414,
    "হতে</w>": 6415,
    "হওয়া</w>": 6416,
    "হ্রাস</w>": 6417,
    "হেরু</w>": 6418,
    "হি</w>": 6419,
    "হারও</w>": 6420,
    "হন</w>": 6421,
    "স্বাধীনোত্তর</w>": 6422,
    "স্বা‌": 6423,
    "স্বাভা": 6424,
    "স্বাভাবিক</w>": 6425,
    "স্থাপত্য": 6426,
    "স্থানের</w>": 6427,
    "স্থান।</w>": 6428,
    "স্থায়ী</w>": 6429,
    "স্থল": 6430,
    "স্ত্রীয়</w>": 6431,
    "স্তন্যপায়ী</w>": 6432,
    "স্তানের</w>": 6433,
    "স্টিক</w>": 6434,
    "স্মাই": 6435,
    "স্মাইলি": 6436,
    "স্মাইলিং</w>": 6437,
    "স্বত": 6438,
    "স্বতন্ত্র</w>": 6439,
    "স্ব</w>": 6440,
    "স্প": 6441,
    "স্থ</w>": 6442,
    "সেপ্ট": 6443,
    "সেনা": 6444,
    "সৃষ্টি</w>": 6445,
    "সূত্র": 6446,
    "সূত্রপাত</w>": 6447,
    "সুপারকম্পিউ": 6448,
    "সুমি</w>": 6449,
    "সীমান্ত</w>": 6450,
    "সিংহভাগ</w>": 6451,
    "সিসি</w>": 6452,
    "সিরিজ": 6453,
    "সিপা": 6454,
    "সিপাহি</w>": 6455,
    "সিদ্ধ</w>": 6456,
    "সাহিত্যিক</w>": 6457,
    "সাহিত্য</w>": 6458,
    "সাহিত্য": 6459,
    "সাধারণতন্ত্র</w>": 6460,
    "সাধারণতন্ত্র": 6461,
    "সাধারণতন্ত্র।</w>": 6462,
    "সাউথ</w>": 6463,
    "সার</w>": 6464,
    "সায়": 6465,
    "সাক্ষ": 6466,
    "সহায়তা</w>": 6467,
    "সহ-আ": 6468,
    "সহ-আয়": 6469,
    "সহ-আয়োজক</w>": 6470,
    "সরীসৃ": 6471,
    "সরবরা": 6472,
    "সরবরাহকারী</w>": 6473,
    "সরঞ্জা": 6474,
    "সম্মিলিত</w>": 6475,
    "সম্প্রদায়ের</w>": 6476,
    "সম্প্রদায়</w>": 6477,
    "সম্পর্কের</w>": 6478,
    "সমৃদ্ধি</w>": 6479,
    "সমৃদ্ধ</w>": 6480,
    "সমাজতান্ত্র": 6481,
    "সমাজতান্ত্রিক": 6482,
    "সমান্ত": 6483,
    "সমান্তরা": 6484,
    "সম্রাট": 6485,
    "সমভূমির</w>": 6486,
    "সমভূমি</w>": 6487,
    "সমতার</w>": 6488,
    "সমতা</w>": 6489,
    "সমত": 6490,
    "সমতূল": 6491,
    "সফটও": 6492,
    "সফটওয়": 6493,
    "সফটওয়্যার</w>": 6494,
    "সদস্য।</w>": 6495,
    "সদস্য</w>": 6496,
    "সদস্য": 6497,
    "সঙ্গীতের</w>": 6498,
    "সঙ্গীত,</w>": 6499,
    "সংস্কার</w>": 6500,
    "সংস্কার": 6501,
    "সংস্কারের</w>": 6502,
    "সংসদে</w>": 6503,
    "সংসদ</w>": 6504,
    "সংরক্ষণের</w>": 6505,
    "সংবিধানের</w>": 6506,
    "সংঘর্ষ</w>": 6507,
    "সংস্থা": 6508,
    "সংযোগ</w>": 6509,
    "সংক্ষি": 6510,
    "সংক্ষিপ্ত</w>": 6511,
    "স-প্র": 6512,
    "স-প্রসিদ্ধ</w>": 6513,
    "সে</w>": 6514,
    "সহযোগ": 6515,
    "সহকারী</w>": 6516,
    "সত্ত্": 6517,
    "সত্ত্বে": 6518,
    "সত্ত্বেও</w>": 6519,
    "সড</w>": 6520,
    "সঞ্চ": 6521,
    "সকল": 6522,
    "সকলকে": 6523,
    "সকলকেই</w>": 6524,
    "ষ্ঠী</w>": 6525,
    "ষ্ণা": 6526,
    "ষণারণ": 6527,
    "ষি</w>": 6528,
    "ষষ্ঠ</w>": 6529,
    "শ্রীলঙ্কা": 6530,
    "শৈলি": 6531,
    "শিল্প।</w>": 6532,
    "শিল্প</w>": 6533,
    "শিশু": 6534,
    "শিক্ষিত</w>": 6535,
    "শাসনাধীন": 6536,
    "শাস্ত্রীয়</w>": 6537,
    "শাল</w>": 6538,
    "শান্": 6539,
    "শান্তি": 6540,
    "শহরাঞ্চ": 6541,
    "শব্দ</w>": 6542,
    "শতাংশে</w>": 6543,
    "শতাংশ,</w>": 6544,
    "শকে</w>": 6545,
    "শী</w>": 6546,
    "ল্লি</w>": 6547,
    "লোকসভা": 6548,
    "লে,</w>": 6549,
    "লুপ্ত": 6550,
    "লীয়</w>": 6551,
    "লিখি": 6552,
    "লিখিত</w>": 6553,
    "লাক্ষা": 6554,
    "লক্রমে</w>": 6555,
    "লকে</w>": 6556,
    "লী</w>": 6557,
    "লগুলি</w>": 6558,
    "র্ধমান</w>": 6559,
    "র্ভ": 6560,
    "র্ভস্থ</w>": 6561,
    "র্ণ</w>": 6562,
    "র্ঘ": 6563,
    "র্ঘ্য</w>": 6564,
    "রোধ</w>": 6565,
    "রিখে</w>": 6566,
    "রাষ্ট্রের</w>": 6567,
    "রাষ্ট্রপ": 6568,
    "রাজা</w>": 6569,
    "রাসায়": 6570,
    "রার</w>": 6571,
    "রায়</w>": 6572,
    "রামন": 6573,
    "রাণ</w>": 6574,
    "রাণ": 6575,
    "রাণিক</w>": 6576,
    "রন্ধনশৈ": 6577,
    "রতা</w>": 6578,
    "র্য</w>": 6579,
    "রবী": 6580,
    "রবীন্দ্র": 6581,
    "রপ্ত": 6582,
    "রত্": 6583,
    "রক্ষার</w>": 6584,
    "রক্ষ": 6585,
    "রক্ষী</w>": 6586,
    "র।</w>": 6587,
    "র,</w>": 6588,
    "যেটি</w>": 6589,
    "যেখ": 6590,
    "যেখানে</w>": 6591,
    "যুক্তরাষ্ট্রের</w>": 6592,
    "যুগীয়</w>": 6593,
    "যুগ": 6594,
    "যায়": 6595,
    "যায়:</w>": 6596,
    "যাত্র": 6597,
    "যাত্রা,</w>": 6598,
    "য়েন্টি": 6599,
    "য়েন্টি-": 6600,
    "য়েন্টি-২০</w>": 6601,
    "য়েছে।</w>": 6602,
    "য়েই</w>": 6603,
    "য়াল</w>": 6604,
    "য়ার</w>": 6605,
    "য়াম</w>": 6606,
    "য়ী,</w>": 6607,
    "য়াল": 6608,
    "য়াদে</w>": 6609,
    "য়াট": 6610,
    "য়তা</w>": 6611,
    "য়টি</w>": 6612,
    "যান-১": 6613,
    "যথে": 6614,
    "যথেষ্ট</w>": 6615,
    "ম্বী</w>": 6616,
    "ম্বই</w>": 6617,
    "মৌসুমি</w>": 6618,
    "মৌর্য</w>": 6619,
    "মোদী</w>": 6620,
    "মেয়াদে</w>": 6621,
    "মুসলমান": 6622,
    "মুম্বই</w>": 6623,
    "মুখ": 6624,
    "মুক্ত</w>": 6625,
    "মিনি": 6626,
    "মালয়াল": 6627,
    "মালভূমি</w>": 6628,
    "মানব": 6629,
    "মান,</w>": 6630,
    "মাঝি</w>": 6631,
    "মাইল)।</w>": 6632,
    "মাইল)</w>": 6633,
    "মাপে</w>": 6634,
    "মান্বয়ে</w>": 6635,
    "মাথা": 6636,
    "মাথাপি": 6637,
    "মাথাপিছ": 6638,
    "মাথাপিছু</w>": 6639,
    "মাত্র": 6640,
    "মাত্রায়</w>": 6641,
    "মাঞ্চ": 6642,
    "মাঞ্চলে</w>": 6643,
    "মাঝা": 6644,
    "মাঝামাঝি</w>": 6645,
    "মহানগ": 6646,
    "মহানগরী": 6647,
    "মহাকাশ</w>": 6648,
    "মহাকাব্য</w>": 6649,
    "মহাসাগর": 6650,
    "মহামত": 6651,
    "মহামতি</w>": 6652,
    "মরুভূমি</w>": 6653,
    "মব্রিজ</w>": 6654,
    "মবর্ধমান</w>": 6655,
    "মন্ত্রী</w>": 6656,
    "মনে</w>": 6657,
    "মধ্যেই</w>": 6658,
    "মধ্যযুগীয়</w>": 6659,
    "ম্যা": 6660,
    "মীর": 6661,
    "মহিলাদের</w>": 6662,
    "মণি": 6663,
    "মণিপু": 6664,
    "ভূমিকা</w>": 6665,
    "ভূমি।</w>": 6666,
    "ভূতা": 6667,
    "ভূতাত্ত্": 6668,
    "ভূতাত্ত্বিক</w>": 6669,
    "ভূগো": 6670,
    "ভূগোল</w>": 6671,
    "ভূগ": 6672,
    "ভূগর্ভস্থ</w>": 6673,
    "ভিত্তিতে</w>": 6674,
    "ভি,</w>": 6675,
    "ভাষাগোষ্ঠী": 6676,
    "ভাষাকে</w>": 6677,
    "ভারত-চী": 6678,
    "ভারত-চীন</w>": 6679,
    "ভারতব": 6680,
    "ভারতবর্ষ": 6681,
    "ভারত।</w>": 6682,
    "ভারত": 6683,
    "ভারতবাসী</w>": 6684,
    "ভাভ": 6685,
    "ভাভা</w>": 6686,
    "ভান্": 6687,
    "ভান্সড</w>": 6688,
    "ভেষ": 6689,
    "ভেলপমেন্ট</w>": 6690,
    "ভরত": 6691,
    "ভব</w>": 6692,
    "ব্যাঙ্": 6693,
    "ব্যাখ্যা": 6694,
    "বোধি": 6695,
    "বোঝা": 6696,
    "বোঝায়।</w>": 6697,
    "বৈচিত্র্যময়</w>": 6698,
    "বৈচিত্র্যম": 6699,
    "বৈষম": 6700,
    "বৈদিক</w>": 6701,
    "বেশী</w>": 6702,
    "বেসরকারি</w>": 6703,
    "বেষ্ট": 6704,
    "বেড়": 6705,
    "বেঙ্গাল": 6706,
    "বৃহত্তম।</w>": 6707,
    "বুদ্ধ": 6708,
    "বিস্তার": 6709,
    "বিস্তারিত</w>": 6710,
    "বিশ্বকাপের</w>": 6711,
    "বিরোধ</w>": 6712,
    "বিভক্ত</w>": 6713,
    "বিজেপি-বিরোধী</w>": 6714,
    "বিজয়ী।</w>": 6715,
    "বিজয়ী</w>": 6716,
    "বিচ্ছিন্": 6717,
    "বিচ্ছে": 6718,
    "বিনিয়": 6719,
    "বিনিয়োগের</w>": 6720,
    "বিদ্রো": 6721,
    "বিদ্রোহ</w>": 6722,
    "বিড়</w>": 6723,
    "বিজ্ঞ": 6724,
    "বিজ্": 6725,
    "বিজ্ঞা": 6726,
    "বিজ্ঞান</w>": 6727,
    "বিচার</w>": 6728,
    "বাহী</w>": 6729,
    "বাহিক": 6730,
    "বাল্য": 6731,
    "বায়ুপ্রবাহ": 6732,
    "বাদশ</w>": 6733,
    "বাণিজ্য": 6734,
    "বাহা": 6735,
    "বাংল": 6736,
    "বাংলা</w>": 6737,
    "বহির্": 6738,
    "বহু</w>": 6739,
    "বসবাস</w>": 6740,
    "বসবা": 6741,
    "বলম্বী</w>": 6742,
    "বর্ণীকৃত:</w>": 6743,
    "বর্ষা</w>": 6744,
    "বর্ষণারণ": 6745,
    "বর্ণি": 6746,
    "বর্ণিত</w>": 6747,
    "বরাবর</w>": 6748,
    "বন্যপ্রাণী</w>": 6749,
    "বন্যা</w>": 6750,
    "বধানে</w>": 6751,
    "বছরের</w>": 6752,
    "বছরে</w>": 6753,
    "বছর।</w>": 6754,
    "বঙ্গোপসাগরে</w>": 6755,
    "বঙ্গের</w>": 6756,
    "বস্ত্র": 6757,
    "বলিউড</w>": 6758,
    "বয়": 6759,
    "বন্ধ": 6760,
    "বন্ধন</w>": 6761,
    "বজা": 6762,
    "বজায়</w>": 6763,
    "বঙ্গ": 6764,
    "বক্ষেত্র</w>": 6765,
    "বংশ": 6766,
    "ফ্রন্ট</w>": 6767,
    "ফের</w>": 6768,
    "ফিল্": 6769,
    "ফ্রান্স</w>": 6770,
    "ফার্সি</w>": 6771,
    "ফাইনা": 6772,
    "ফর</w>": 6773,
    "প্রাধান্য</w>": 6774,
    "প্রথমে</w>": 6775,
    "প্রতিষ্ঠাতা</w>": 6776,
    "প্রতিযোগিতা,</w>": 6777,
    "প্রতিহত</w>": 6778,
    "প্রতিরোধ</w>": 6779,
    "প্রতিরক্ষা</w>": 6780,
    "প্রতিবেশী</w>": 6781,
    "প্রতিবর্ণীকৃত:</w>": 6782,
    "প্রজাতন্ত্র,</w>": 6783,
    "প্রজাতন্ত্র</w>": 6784,
    "প্রচলিত।</w>": 6785,
    "প্রেস।</w>": 6786,
    "প্রেরণ</w>": 6787,
    "প্রশাসন</w>": 6788,
    "প্রয়": 6789,
    "প্রভূত</w>": 6790,
    "প্রবেশ</w>": 6791,
    "প্রদেশ</w>": 6792,
    "প্রথা": 6793,
    "প্রথাগতভাবে</w>": 6794,
    "প্রণ": 6795,
    "প্রজাতি</w>": 6796,
    "প্রজাতি": 6797,
    "প্রক্র": 6798,
    "প্রক্রি": 6799,
    "প্রকাশ</w>": 6800,
    "প্তি</w>": 6801,
    "পৌরাণিক</w>": 6802,
    "পোশাকের</w>": 6803,
    "পোশাক</w>": 6804,
    "পেয়ে</w>": 6805,
    "পূর্বনাম</w>": 6806,
    "পূর্বে": 6807,
    "পূজা": 6808,
    "পুনরায়</w>": 6809,
    "পুষ্ট": 6810,
    "পিপিপি": 6811,
    "পিপিপি)</w>": 6812,
    "পারসি</w>": 6813,
    "পাতটি</w>": 6814,
    "পাকিস্তানের</w>": 6815,
    "পাওয়ায়</w>": 6816,
    "পাঁচটি</w>": 6817,
    "পালন</w>": 6818,
    "পার</w>": 6819,
    "পাত,</w>": 6820,
    "পাঞ্জা": 6821,
    "পাখি": 6822,
    "পাক-": 6823,
    "পাক-ভারত</w>": 6824,
    "পশ্চিমবঙ্গের</w>": 6825,
    "পর্বতমালার</w>": 6826,
    "পর্বতমালা": 6827,
    "পর্বে</w>": 6828,
    "পরিষেবার</w>": 6829,
    "পরিষেবা</w>": 6830,
    "পরিবর্তনের</w>": 6831,
    "পরিবার": 6832,
    "পরিচালনার</w>": 6833,
    "পরিচিত।</w>": 6834,
    "পরিমাপে</w>": 6835,
    "পরিমাণ</w>": 6836,
    "পরিবেশ": 6837,
    "পরিচালিত</w>": 6838,
    "পরোক্ষভাবে</w>": 6839,
    "পরিষ": 6840,
    "পরিক": 6841,
    "পরি</w>": 6842,
    "পদার্থ": 6843,
    "পথে</w>": 6844,
    "পণ্যের</w>": 6845,
    "ন্নড়": 6846,
    "ন্ধ্রপ্রদেশের</w>": 6847,
    "ন্ত্রের</w>": 6848,
    "ন্তু</w>": 6849,
    "ন্ডা</w>": 6850,
    "ন্দ": 6851,
    "ন্তী": 6852,
    "ন্ডো": 6853,
    "ন্ডোয়ান": 6854,
    "নোবেল</w>": 6855,
    "নেহেরু</w>": 6856,
    "নেয়।</w>": 6857,
    "নেমে</w>": 6858,
    "নৃত্যকলা": 6859,
    "নৃত্য</w>": 6860,
    "নীতির</w>": 6861,
    "নির্বাচ": 6862,
    "নির্ধার": 6863,
    "নিদর্শন।</w>": 6864,
    "নিকোবর</w>": 6865,
    "নিকটব": 6866,
    "নিকটবর্তী</w>": 6867,
    "নিষে": 6868,
    "নিরিখে</w>": 6869,
    "নিজ": 6870,
    "নিজস্ব</w>": 6871,
    "নি।</w>": 6872,
    "নামমাত্র</w>": 6873,
    "নামক</w>": 6874,
    "নাটক</w>": 6875,
    "নায়</w>": 6876,
    "নাত্ম": 6877,
    "নাত্মক</w>": 6878,
    "নাড়ুর</w>": 6879,
    "নাগ": 6880,
    "নদীগুলির</w>": 6881,
    "নদীগুলি</w>": 6882,
    "নতি</w>": 6883,
    "নগরাঞ্চ": 6884,
    "ন্যস্": 6885,
    "নান": 6886,
    "নয়।</w>": 6887,
    "ধ্রুপদী</w>": 6888,
    "ধীন</w>": 6889,
    "ধিত</w>": 6890,
    "ধর্মীয়</w>": 6891,
    "ধরা</w>": 6892,
    "ধীরে</w>": 6893,
    "দ্রাবিড়</w>": 6894,
    "দ্রুত": 6895,
    "দ্রব্য": 6896,
    "দ্বীপীয়</w>": 6897,
    "দ্বিতীয়</w>": 6898,
    "দ্বিগু": 6899,
    "দ্বিগুণ।</w>": 6900,
    "দ্বিকক্ষ": 6901,
    "দ্বিকক্ষবিশিষ্ট</w>": 6902,
    "দ্বাদশ</w>": 6903,
    "দৈর্ঘ্য</w>": 6904,
    "দেশজ</w>": 6905,
    "দেশগুলির</w>": 6906,
    "দেশকে</w>": 6907,
    "দেও": 6908,
    "দুল</w>": 6909,
    "দিল্": 6910,
    "দিয়েছে।</w>": 6911,
    "দি।</w>": 6912,
    "দি,</w>": 6913,
    "দারিদ্র্য": 6914,
    "দাক্ষিণাত্য</w>": 6915,
    "দাবা</w>": 6916,
    "দক্ষিণে</w>": 6917,
    "দক্ষিণ-": 6918,
    "দপ্তর": 6919,
    "থেকে,</w>": 6920,
    "থানশীল</w>": 6921,
    "থাকতে</w>": 6922,
    "থান</w>": 6923,
    "থাকে</w>": 6924,
    "থব্যবস্থা</w>": 6925,
    "থ-সামাজিক</w>": 6926,
    "থিক</w>": 6927,
    "তেলুগু</w>": 6928,
    "তেল": 6929,
    "তেও</w>": 6930,
    "তেই</w>": 6931,
    "তে।</w>": 6932,
    "তে,</w>": 6933,
    "তুলনায়</w>": 6934,
    "তিনি</w>": 6935,
    "তিনটি</w>": 6936,
    "তিন</w>": 6937,
    "তারা</w>": 6938,
    "তারপর</w>": 6939,
    "তামিলনাড়ুর</w>": 6940,
    "তামিল</w>": 6941,
    "তামা": 6942,
    "তা-": 6943,
    "তা,</w>": 6944,
    "তথ্য": 6945,
    "তানি</w>": 6946,
    "তন্ত্রের</w>": 6947,
    "তন</w>": 6948,
    "তত্ত্": 6949,
    "ণী</w>": 6950,
    "ণাট": 6951,
    "ণ,</w>": 6952,
    "ডেভেলপমেন্ট</w>": 6953,
    "ডিএ": 6954,
    "ডিএ)</w>": 6955,
    "ডি</w>": 6956,
    "টোয়েন্টি-২০</w>": 6957,
    "টে।</w>": 6958,
    "টায়।</w>": 6959,
    "টান</w>": 6960,
    "ট্রিলিয়ন</w>": 6961,
    "টে</w>": 6962,
    "টিতে</w>": 6963,
    "ঞ্জি</w>": 6964,
    "জ্যোতির্": 6965,
    "জোটের</w>": 6966,
    "জৈবক্ষেত্র</w>": 6967,
    "জৈন</w>": 6968,
    "জের</w>": 6969,
    "জুড়ে</w>": 6970,
    "জীববৈচিত্র্যের</w>": 6971,
    "জিডিপি</w>": 6972,
    "জলবায়ুর</w>": 6973,
    "জলবায়ু</w>": 6974,
    "জরাথ": 6975,
    "জরাটের</w>": 6976,
    "জয়লাভ</w>": 6977,
    "জয়ন্তী": 6978,
    "জনপ্রিয়তা</w>": 6979,
    "জন্য": 6980,
    "জনবহুল</w>": 6981,
    "জনবসতি</w>": 6982,
    "জে</w>": 6983,
    "জানুয়ারি</w>": 6984,
    "জলা": 6985,
    "জমি": 6986,
    "জন্": 6987,
    "ছোটো</w>": 6988,
    "ছের</w>": 6989,
    "ছিল,</w>": 6990,
    "ছিলে": 6991,
    "চ্ছে।</w>": 6992,
    "চীনের</w>": 6993,
    "চির</w>": 6994,
    "চালু</w>": 6995,
    "চন্দ্রযান-১": 6996,
    "চ্যালে": 6997,
    "চীন": 6998,
    "ঙ্গেয়</w>": 6999,
    "ঙ্ক": 7000,
    "ঘোষিত</w>": 7001,
    "ঘটে</w>": 7002,
    "ঘটনা": 7003,
    "ঘাট": 7004,
    "ঘটে।</w>": 7005,
    "ঘটায়।</w>": 7006,
    "গ্রামাঞ্চলে</w>": 7007,
    "গ্রাম</w>": 7008,
    "গ্রীষ্": 7009,
    "গ্রিক</w>": 7010,
    "গ্রামীণ</w>": 7011,
    "গ্রন্": 7012,
    "গৌতম</w>": 7013,
    "গুলিও</w>": 7014,
    "গুপ্ত</w>": 7015,
    "গুজরাটের</w>": 7016,
    "গান</w>": 7017,
    "গাছ</w>": 7018,
    "গাঙ্গেয়</w>": 7019,
    "গবেষণা</w>": 7020,
    "গণ্য</w>": 7021,
    "গণ-": 7022,
    "গঠিত।</w>": 7023,
    "গঠন": 7024,
    "গ্য": 7025,
    "গৃহ": 7026,
    "গন্ডোয়ান": 7027,
    "খ্রিষ্টপূর্বাব্দ।</w>": 7028,
    "খ্রিস্ট": 7029,
    "খ্যাত</w>": 7030,
    "খেলা": 7031,
    "খ্য,</w>": 7032,
    "খাদ্য</w>": 7033,
    "খাত": 7034,
    "খনিজ</w>": 7035,
    "ক্ষের</w>": 7036,
    "ক্ষমতা": 7037,
    "ক্ষে</w>": 7038,
    "ক্রিকেট": 7039,
    "ক্রান্তীয়</w>": 7040,
    "ক্রো": 7041,
    "ক্রী": 7042,
    "ক্রমান্বয়ে</w>": 7043,
    "ক্রমবর্ধমান</w>": 7044,
    "ক্লি": 7045,
    "কোম্পানির</w>": 7046,
    "কোম্পানি": 7047,
    "কোশী</w>": 7048,
    "কেমব্রিজ</w>": 7049,
    "কৃত্রিম</w>": 7050,
    "কৃষি</w>": 7051,
    "কিন্তু</w>": 7052,
    "কাশ্মীর": 7053,
    "কারী</w>": 7054,
    "কারণ।</w>": 7055,
    "কাবাডি</w>": 7056,
    "কালে,</w>": 7057,
    "কালক্রমে</w>": 7058,
    "কাল": 7059,
    "কাজে</w>": 7060,
    "কাজ</w>": 7061,
    "কল্প": 7062,
    "কর্মসূচির</w>": 7063,
    "কর্তৃত্ব</w>": 7064,
    "কর্ণাট": 7065,
    "করেছে</w>": 7066,
    "করেছে": 7067,
    "করেছিলে": 7068,
    "করেছিল।</w>": 7069,
    "করতেও</w>": 7070,
    "করণ,</w>": 7071,
    "করছে।</w>": 7072,
    "করছে</w>": 7073,
    "কংগ্রেস": 7074,
    "ক্যা": 7075,
    "কী</w>": 7076,
    "করার</w>": 7077,
    "কম</w>": 7078,
    "কথা": 7079,
    "কখনো</w>": 7080,
    "ওপর</w>": 7081,
    "ওয়": 7082,
    "ওড়": 7083,
    "ও,</w>": 7084,
    "ঐতিহ্যবাহী</w>": 7085,
    "ঐতিহ্যের</w>": 7086,
    "ঐতিহাসিক</w>": 7087,
    "এসএলভি,</w>": 7088,
    "এসেছে।</w>": 7089,
    "এঁদের</w>": 7090,
    "এদেশে</w>": 7091,
    "এক্তি": 7092,
    "উৎসবও</w>": 7093,
    "উৎপাদন</w>": 7094,
    "উৎপত্তি</w>": 7095,
    "উৎক্ষে": 7096,
    "উল্লেখযোগ্যভাবে</w>": 7097,
    "উল্লেখযোগ্য।</w>": 7098,
    "উল্লেখ্য,</w>": 7099,
    "উভয়েই</w>": 7100,
    "উভচর": 7101,
    "উপমহাদেশ</w>": 7102,
    "উপনিবেশ": 7103,
    "উপকূলরেখার</w>": 7104,
    "উপিএ": 7105,
    "উপদ্বীপের</w>": 7106,
    "উপদ্বীপীয়</w>": 7107,
    "উপদ্বীপ</w>": 7108,
    "উদ্ভিদের</w>": 7109,
    "উদ্ভব</w>": 7110,
    "উত্তর-পূর্বাঞ্চ": 7111,
    "উত্থানশীল</w>": 7112,
    "উচ্চার": 7113,
    "উচ্চ</w>": 7114,
    "ঈদুল</w>": 7115,
    "ইসলা": 7116,
    "ইল,</w>": 7117,
    "ইন্দিআ</w>": 7118,
    "ইন্ডিয়ান</w>": 7119,
    "ইন্ডিয়া</w>": 7120,
    "ইতিহাসে</w>": 7121,
    "ইতিহাস</w>": 7122,
    "ইতিহাস-প্রসিদ্ধ</w>": 7123,
    "ইত্যাদি</w>": 7124,
    "ইট,</w>": 7125,
    "ইউনিভার্সিটি</w>": 7126,
    "ইংরেজি": 7127,
    "ই।</w>": 7128,
    "আসে</w>": 7129,
    "আর্থিক</w>": 7130,
    "আর্থ-সামাজিক</w>": 7131,
    "আর্যভট": 7132,
    "আয়োজিত</w>": 7133,
    "আয়তনের</w>": 7134,
    "আমদানির</w>": 7135,
    "আফ্রিকার</w>": 7136,
    "আফ্রিকা</w>": 7137,
    "আন্তর": 7138,
    "আধা-": 7139,
    "আদিবাসী</w>": 7140,
    "আটটি</w>": 7141,
    "আজও</w>": 7142,
    "আগ্রাসন</w>": 7143,
    "আগস্ট</w>": 7144,
    "আগত</w>": 7145,
    "আইসিসি</w>": 7146,
    "আইন": 7147,
    "আসা": 7148,
    "আসন": 7149,
    "আয়</w>": 7150,
    "আছে।</w>": 7151,
    "আকর": 7152,
    "অ্যাডভান্সড</w>": 7153,
    "অ্যাসোসিয়েশন</w>": 7154,
    "অর্থনীতি</w>": 7155,
    "অর্থনী": 7156,
    "অর্থব্যবস্থা</w>": 7157,
    "অর্জন</w>": 7158,
    "অরণ্য</w>": 7159,
    "অরণ্য": 7160,
    "অভ্যন্তরীণ</w>": 7161,
    "অবস্থান</w>": 7162,
    "অবলু": 7163,
    "অববাহিক": 7164,
    "অপারেশন</w>": 7165,
    "অধিকারী।</w>": 7166,
    "অঞ্চলেই</w>": 7167,
    "অঞ্চলগুলি</w>": 7168,
    "অঞ্চলকে</w>": 7169,
    "অংশে</w>": 7170,
    "অংশ</w>": 7171,
    "অ্যান্ড</w>": 7172,
    "অস্থি": 7173,
    "অস্ত্র": 7174,
    "অন্ধ্রপ্রদেশের</w>": 7175,
    "ংশে": 7176,
    "॰</w>": 7177,
    "८५</w>": 7178,
    "७९.": 7179,
    "६६</w>": 7180,
    "५-": 7181,
    "३२</w>": 7182,
    "३,": 7183,
    "२०११</w>": 7184,
    "२००</w>": 7185,
    "२८</w>": 7186,
    "२४</w>": 7187,
    "२३</w>": 7188,
    "२२.": 7189,
    "२०</w>": 7190,
    "१९९८</w>": 7191,
    "१९९६</w>": 7192,
    "१९९०</w>": 7193,
    "१९८९</w>": 7194,
    "१९८०</w>": 7195,
    "१९७७</w>": 7196,
    "१९७१</w>": 7197,
    "१९४७": 7198,
    "१८५": 7199,
    "१,७": 7200,
    "१–": 7201,
    "१८</w>": 7202,
    "१३</w>": 7203,
    "१०००</w>": 7204,
    "१०</w>": 7205,
    "्रिक</w>": 7206,
    "्रो": 7207,
    "्रोत</w>": 7208,
    "्रा": 7209,
    "्राट</w>": 7210,
    "्रवा": 7211,
    "्रवाई</w>": 7212,
    "्रणी</w>": 7213,
    "्यादि</w>": 7214,
    "्यादा": 7215,
    "्यादातर</w>": 7216,
    "्यों": 7217,
    "्योंकि</w>": 7218,
    "्यु</w>": 7219,
    "्यात": 7220,
    "्याचल</w>": 7221,
    "्मपु": 7222,
    "्दपूर्ण</w>": 7223,
    "्टवे": 7224,
    "्टवेयर</w>": 7225,
    "्कट": 7226,
    "्कटिका</w>": 7227,
    "्षि": 7228,
    "्षिक</w>": 7229,
    "्ला": 7230,
    "्लादेश</w>": 7231,
    "ौते</w>": 7232,
    "ोह</w>": 7233,
    "ोख": 7234,
    "ैंतीस</w>": 7235,
    "ैनिक</w>": 7236,
    "ेरल": 7237,
    "ेरल)</w>": 7238,
    "ेदारी</w>": 7239,
    "ेडेरल)</w>": 7240,
    "ेखा</w>": 7241,
    "ेंद्र</w>": 7242,
    "ें,</w>": 7243,
    "ृत्यु</w>": 7244,
    "ूत</w>": 7245,
    "ुसार,</w>": 7246,
    "ुक्यों</w>": 7247,
    "ुण्": 7248,
    "ुण्ण</w>": 7249,
    "ीसा</w>": 7250,
    "ीं।</w>": 7251,
    "ीण</w>": 7252,
    "ीकरण</w>": 7253,
    "ियाचि": 7254,
    "ियाचिन</w>": 7255,
    "ियो</w>": 7256,
    "ियानों</w>": 7257,
    "िकारी</w>": 7258,
    "िकर्": 7259,
    "िकर्ता</w>": 7260,
    "ासतों</w>": 7261,
    "ाष्ट्र</w>": 7262,
    "ावर्त": 7263,
    "ावधान</w>": 7264,
    "ाल,</w>": 7265,
    "ार्दपूर्ण</w>": 7266,
    "ार्कटिका</w>": 7267,
    "ारित</w>": 7268,
    "ाराष्ट्र</w>": 7269,
    "ाया</w>": 7270,
    "ायद्वीप</w>": 7271,
    "ायदा</w>": 7272,
    "ाकू</w>": 7273,
    "ाएँ</w>": 7274,
    "ाल</w>": 7275,
    "ाम</w>": 7276,
    "ाई</w>": 7277,
    "ांत": 7278,
    "़ग": 7279,
    "होली,</w>": 7280,
    "हुए।</w>": 7281,
    "हुए,</w>": 7282,
    "हिस्सों</w>": 7283,
    "हिन्दुस्तान,</w>": 7284,
    "हिन्दी-": 7285,
    "हिन्द</w>": 7286,
    "हिंसा": 7287,
    "हिंसावादी</w>": 7288,
    "हिला": 7289,
    "हिंस": 7290,
    "हिंसक</w>": 7291,
    "हालांक": 7292,
    "हालांकि</w>": 7293,
    "हालाँ": 7294,
    "हालाँकि": 7295,
    "हालाँकि,</w>": 7296,
    "हां</w>": 7297,
    "हरलाल</w>": 7298,
    "हनन</w>": 7299,
    "हथिय": 7300,
    "ह्मपु": 7301,
    "हस्ता": 7302,
    "हस्ताक्ष": 7303,
    "हस्ताक्षर</w>": 7304,
    "हस्त": 7305,
    "हस्तक्षेप</w>": 7306,
    "हवे": 7307,
    "हवेली</w>": 7308,
    "हद</w>": 7309,
    "ह-": 7310,
    "स्वतन्त्र": 7311,
    "स्वतन्त्रता</w>": 7312,
    "स्थाई</w>": 7313,
    "स्थानों</w>": 7314,
    "स्थल</w>": 7315,
    "स्टर</w>": 7316,
    "स्वर": 7317,
    "स्वरुप</w>": 7318,
    "सौहार्दपूर्ण</w>": 7319,
    "सोसि": 7320,
    "सोसिएशन</w>": 7321,
    "सैनिकों</w>": 7322,
    "सेना,</w>": 7323,
    "सेल्": 7324,
    "सेल्स": 7325,
    "सेल्सियस</w>": 7326,
    "सेमी": 7327,
    "सूत्र": 7328,
    "सुधार": 7329,
    "सी,</w>": 7330,
    "सिनेमा": 7331,
    "सिन्": 7332,
    "सिन्धु": 7333,
    "सिन्धु-": 7334,
    "सिन्धु-गंगा</w>": 7335,
    "सिख</w>": 7336,
    "सिंह": 7337,
    "साहित": 7338,
    "साहित्य</w>": 7339,
    "सामने</w>": 7340,
    "सामना</w>": 7341,
    "सायन</w>": 7342,
    "साफ़": 7343,
    "साझ": 7344,
    "साझेदारी</w>": 7345,
    "सहित</w>": 7346,
    "सर्वा": 7347,
    "सरकारी</w>": 7348,
    "सरा</w>": 7349,
    "सम्प्रभु": 7350,
    "सम्मि": 7351,
    "सम्मिलित</w>": 7352,
    "समान</w>": 7353,
    "समझौते</w>": 7354,
    "सम्राट</w>": 7355,
    "समय-": 7356,
    "समय-समय</w>": 7357,
    "सतर</w>": 7358,
    "सकल</w>": 7359,
    "सकर</w>": 7360,
    "संसार</w>": 7361,
    "संबो": 7362,
    "संबोधि": 7363,
    "संबोधित</w>": 7364,
    "संबर</w>": 7365,
    "संचाल": 7366,
    "संचालित</w>": 7367,
    "संग्र": 7368,
    "संग्राम</w>": 7369,
    "संगठ": 7370,
    "संगठन</w>": 7371,
    "संग": 7372,
    "संगम</w>": 7373,
    "संक्षि": 7374,
    "संक्षिप्त</w>": 7375,
    "स्रोत</w>": 7376,
    "सृ": 7377,
    "सियाचिन</w>": 7378,
    "सम</w>": 7379,
    "सभा": 7380,
    "सच": 7381,
    "सक्ष": 7382,
    "सक्षम</w>": 7383,
    "ष्ट</w>": 7384,
    "षाण</w>": 7385,
    "षभ": 7386,
    "श्रेणी</w>": 7387,
    "शोक</w>": 7388,
    "शियर</w>": 7389,
    "शियन</w>": 7390,
    "शिखर</w>": 7391,
    "शिकार</w>": 7392,
    "शासनिक</w>": 7393,
    "शाही</w>": 7394,
    "शासक": 7395,
    "शां": 7396,
    "शहरों</w>": 7397,
    "शहरी": 7398,
    "शहरीकरण</w>": 7399,
    "शहर</w>": 7400,
    "शक्तियों</w>": 7401,
    "शक्त": 7402,
    "श्रित</w>": 7403,
    "शृ": 7404,
    "शि</w>": 7405,
    "शहरी</w>": 7406,
    "शर": 7407,
    "शब्": 7408,
    "शब्द</w>": 7409,
    "व्यक्ति</w>": 7410,
    "वोत्": 7411,
    "वोत्तर</w>": 7412,
    "वैश्": 7413,
    "वें</w>": 7414,
    "वीन</w>": 7415,
    "विभाजित</w>": 7416,
    "विभाजन</w>": 7417,
    "विभाग</w>": 7418,
    "विद्रोह</w>": 7419,
    "विज्ञा": 7420,
    "विज्ञान</w>": 7421,
    "विशेष</w>": 7422,
    "विशेष": 7423,
    "विमान</w>": 7424,
    "विधि</w>": 7425,
    "विधा": 7426,
    "वित्": 7427,
    "विजय": 7428,
    "विजयनगर</w>": 7429,
    "विज": 7430,
    "विजय</w>": 7431,
    "विका</w>": 7432,
    "विंध": 7433,
    "विंध्याचल</w>": 7434,
    "वार्षिक</w>": 7435,
    "वार्य</w>": 7436,
    "वालों</w>": 7437,
    "वाले</w>": 7438,
    "वाली,</w>": 7439,
    "वाला</w>": 7440,
    "वार</w>": 7441,
    "वायु": 7442,
    "वायुसेना</w>": 7443,
    "वाम": 7444,
    "वामपंथी</w>": 7445,
    "वाँ</w>": 7446,
    "वा,</w>": 7447,
    "वस्तु": 7448,
    "वस,</w>": 7449,
    "वश्य": 7450,
    "वर्णित</w>": 7451,
    "वर्गीकरण</w>": 7452,
    "वजह</w>": 7453,
    "वंश": 7454,
    "व्य</w>": 7455,
    "वाने</w>": 7456,
    "वरि": 7457,
    "वरिष्ठ</w>": 7458,
    "वक्त</w>": 7459,
    "ल्म</w>": 7460,
    "लौट": 7461,
    "लोकसभा</w>": 7462,
    "लोकत": 7463,
    "लोक</w>": 7464,
    "लेशियर</w>": 7465,
    "लेख": 7466,
    "ली।</w>": 7467,
    "लिख": 7468,
    "लाख),</w>": 7469,
    "लावा,</w>": 7470,
    "लाई</w>": 7471,
    "लाइ": 7472,
    "लती</w>": 7473,
    "लड़ाकू</w>": 7474,
    "लू</w>": 7475,
    "लिया।</w>": 7476,
    "लयों</w>": 7477,
    "लझ": 7478,
    "लघ": 7479,
    "र्श</w>": 7480,
    "र्मद": 7481,
    "र्मदा</w>": 7482,
    "र्जा</w>": 7483,
    "रेशियन</w>": 7484,
    "रेलू</w>": 7485,
    "रेजि": 7486,
    "रेजिमें": 7487,
    "रेजिमेंट</w>": 7488,
    "रूपए</w>": 7489,
    "रूपर": 7490,
    "रूपरेखा</w>": 7491,
    "रीति": 7492,
    "रियासतों</w>": 7493,
    "रिवा": 7494,
    "रिका,</w>": 7495,
    "राष्ट्रों</w>": 7496,
    "राष्ट्रपत": 7497,
    "राष्ट्रपति</w>": 7498,
    "राज्य,</w>": 7499,
    "राजाओं</w>": 7500,
    "रा।</w>": 7501,
    "राशि</w>": 7502,
    "राय": 7503,
    "रायल</w>": 7504,
    "राम</w>": 7505,
    "रही।</w>": 7506,
    "रत्न,</w>": 7507,
    "रखने</w>": 7508,
    "र-इन": 7509,
    "र-इन-": 7510,
    "र-इन-चीफ</w>": 7511,
    "रैंक</w>": 7512,
    "रह</w>": 7513,
    "रसायन</w>": 7514,
    "रल</w>": 7515,
    "रंजन</w>": 7516,
    "योग्य</w>": 7517,
    "यें</w>": 7518,
    "यूरेशियन</w>": 7519,
    "यूपी": 7520,
    "युद्ध": 7521,
    "युद्धों</w>": 7522,
    "यिक</w>": 7523,
    "याब</w>": 7524,
    "यहू": 7525,
    "यशक्ति</w>": 7526,
    "यी</w>": 7527,
    "यहां</w>": 7528,
    "म्बे</w>": 7529,
    "म्र</w>": 7530,
    "मौसम</w>": 7531,
    "मोर्चा</w>": 7532,
    "मैदानों</w>": 7533,
    "में।</w>": 7534,
    "में)</w>": 7535,
    "मूल्यों</w>": 7536,
    "मुख्यरूप</w>": 7537,
    "मुम्ब": 7538,
    "मुद्र": 7539,
    "मुद्रा</w>": 7540,
    "मुक्त</w>": 7541,
    "मीणा</w>": 7542,
    "मिलियन)</w>": 7543,
    "मिलियन</w>": 7544,
    "मिलनाड": 7545,
    "मिलनाडु</w>": 7546,
    "मिश्रित</w>": 7547,
    "मिला,</w>": 7548,
    "मालदीव,</w>": 7549,
    "मार्च</w>": 7550,
    "मामले</w>": 7551,
    "मानी</w>": 7552,
    "माला</w>": 7553,
    "माल</w>": 7554,
    "मात्र</w>": 7555,
    "माता</w>": 7556,
    "माता": 7557,
    "महीने</w>": 7558,
    "महाद्वी": 7559,
    "महाद्वीपो": 7560,
    "महाद्वीपों</w>": 7561,
    "महात्": 7562,
    "महात्मा</w>": 7563,
    "महाराष्ट्र</w>": 7564,
    "महत्": 7565,
    "महत्वपूर्ण</w>": 7566,
    "मशः</w>": 7567,
    "मनाए</w>": 7568,
    "मध्यम": 7569,
    "मध्यप्रदेश</w>": 7570,
    "मध्यकालीन</w>": 7571,
    "मगध</w>": 7572,
    "मंत्रण</w>": 7573,
    "मंच": 7574,
    "मंचों,</w>": 7575,
    "मृत्यु</w>": 7576,
    "मियों</w>": 7577,
    "मार": 7578,
    "महिला": 7579,
    "मशी": 7580,
    "मनो": 7581,
    "मनोरंजन</w>": 7582,
    "मजब": 7583,
    "मजबूत</w>": 7584,
    "भूमि</w>": 7585,
    "भू-आ": 7586,
    "भू-आकृ": 7587,
    "भारत-": 7588,
    "भारत-चीन</w>": 7589,
    "भाबर</w>": 7590,
    "भाग": 7591,
    "भाई</w>": 7592,
    "भरी</w>": 7593,
    "भौ": 7594,
    "भक्ति</w>": 7595,
    "ब्रह्मपु": 7596,
    "ब्ब": 7597,
    "बोली</w>": 7598,
    "बोला</w>": 7599,
    "बेटे</w>": 7600,
    "बीस": 7601,
    "बी,</w>": 7602,
    "बाल</w>": 7603,
    "बाढ़</w>": 7604,
    "बांट": 7605,
    "बांग": 7606,
    "बांग्लादेश</w>": 7607,
    "बहुप": 7608,
    "बहुपक्ष": 7609,
    "बहुपक्षीय</w>": 7610,
    "बना।</w>": 7611,
    "बनाया</w>": 7612,
    "बनाए</w>": 7613,
    "बनाई।</w>": 7614,
    "बनाई,</w>": 7615,
    "बनीं।</w>": 7616,
    "बढ़ो": 7617,
    "बढ़ा।</w>": 7618,
    "बंगाल</w>": 7619,
    "बैंक</w>": 7620,
    "बु": 7621,
    "बहा": 7622,
    "बहती</w>": 7623,
    "बलों</w>": 7624,
    "बल</w>": 7625,
    "बन्": 7626,
    "बँ": 7627,
    "फ्रांस</w>": 7628,
    "फ्रांस,</w>": 7629,
    "फुट</w>": 7630,
    "फिल्म</w>": 7631,
    "फिर</w>": 7632,
    "फ़ेडेरल)</w>": 7633,
    "फायदा</w>": 7634,
    "फल</w>": 7635,
    "प्राप्ति</w>": 7636,
    "प्रभावित</w>": 7637,
    "प्रकाश</w>": 7638,
    "प्रावधान</w>": 7639,
    "प्रायद्वीप</w>": 7640,
    "प्रसि": 7641,
    "प्रसार": 7642,
    "प्रशासनिक</w>": 7643,
    "प्रमाण</w>": 7644,
    "प्रधान</w>": 7645,
    "प्रदर्शन</w>": 7646,
    "प्रथ": 7647,
    "प्रथम</w>": 7648,
    "प्रचल": 7649,
    "प्रचलन</w>": 7650,
    "प्रगति</w>": 7651,
    "पोर्": 7652,
    "पैमाने</w>": 7653,
    "पेन</w>": 7654,
    "पूर्त": 7655,
    "पूर्तिकर्ता</w>": 7656,
    "पुराने</w>": 7657,
    "पुराना</w>": 7658,
    "पारंपर": 7659,
    "पारंपरिक</w>": 7660,
    "पान</w>": 7661,
    "पात</w>": 7662,
    "पात": 7663,
    "पातकाल</w>": 7664,
    "पाई</w>": 7665,
    "पाइन</w>": 7666,
    "पांड": 7667,
    "पाँच</w>": 7668,
    "पाँच": 7669,
    "पहाड़ियाँ</w>": 7670,
    "पसन्": 7671,
    "पसन्द</w>": 7672,
    "पर्वतश्रेणी</w>": 7673,
    "पर्वतमाला</w>": 7674,
    "पर्वत</w>": 7675,
    "परन्तु</w>": 7676,
    "परंपर": 7677,
    "परंपरा</w>": 7678,
    "परंत": 7679,
    "परंतु</w>": 7680,
    "पत्र": 7681,
    "पड़ा</w>": 7682,
    "पॉ": 7683,
    "पैंतीस</w>": 7684,
    "पी</w>": 7685,
    "परा": 7686,
    "पमान</w>": 7687,
    "पद</w>": 7688,
    "पथ": 7689,
    "न्हे</w>": 7690,
    "न्यायालयों</w>": 7691,
    "न्यायाधिकार</w>": 7692,
    "न्यायपालिका</w>": 7693,
    "न्न": 7694,
    "न्द्र</w>": 7695,
    "न्तु": 7696,
    "नेतृत्‍व</w>": 7697,
    "नेशिया</w>": 7698,
    "नेपाल</w>": 7699,
    "नृत्य</w>": 7700,
    "निवेश</w>": 7701,
    "निर्माता": 7702,
    "निर्भर</w>": 7703,
    "निरपेक्ष": 7704,
    "निर्यात": 7705,
    "नियुक्ति</w>": 7706,
    "नियंत्रण</w>": 7707,
    "निम्नव": 7708,
    "निम्नवत</w>": 7709,
    "निम्न": 7710,
    "निष्ठ</w>": 7711,
    "नाटक</w>": 7712,
    "नागरिकों</w>": 7713,
    "नागरिक</w>": 7714,
    "नामों</w>": 7715,
    "नाम": 7716,
    "नात्": 7717,
    "नात्मक</w>": 7718,
    "ना,</w>": 7719,
    "नवगठ": 7720,
    "नवगठित</w>": 7721,
    "नरेंद्र</w>": 7722,
    "नये</w>": 7723,
    "नया</w>": 7724,
    "नदी</w>": 7725,
    "नति</w>": 7726,
    "नके</w>": 7727,
    "न।</w>": 7728,
    "नो</w>": 7729,
    "नू": 7730,
    "नारे</w>": 7731,
    "नवीन</w>": 7732,
    "नर्मदा</w>": 7733,
    "नई</w>": 7734,
    "धर्मनिरपेक्ष": 7735,
    "धी</w>": 7736,
    "ध-": 7737,
    "द्वि": 7738,
    "द्</w>": 7739,
    "दौर</w>": 7740,
    "देखो</w>": 7741,
    "देखने</w>": 7742,
    "देखते</w>": 7743,
    "देव</w>": 7744,
    "देते</w>": 7745,
    "देता</w>": 7746,
    "दूसरे</w>": 7747,
    "दी,</w>": 7748,
    "दिसंबर</w>": 7749,
    "दिवाली,</w>": 7750,
    "दिवस,</w>": 7751,
    "दिए</w>": 7752,
    "दादर": 7753,
    "दादरा</w>": 7754,
    "दर्ज़": 7755,
    "दमन</w>": 7756,
    "दक्षिण-": 7757,
    "दक्षिण-पूर्व</w>": 7758,
    "दलों</w>": 7759,
    "दन</w>": 7760,
    "थे,</w>": 7761,
    "थवा</w>": 7762,
    "थे</w>": 7763,
    "थल</w>": 7764,
    "त्व</w>": 7765,
    "त्पत्ति</w>": 7766,
    "त्कालीन</w>": 7767,
    "तेमाल</w>": 7768,
    "तेज़ी</w>": 7769,
    "तीसरे</w>": 7770,
    "ती,</w>": 7771,
    "ता।</w>": 7772,
    "तापमान</w>": 7773,
    "तराई</w>": 7774,
    "तरी</w>": 7775,
    "तटों</w>": 7776,
    "तक,</w>": 7777,
    "तह": 7778,
    "तमिलनाडु</w>": 7779,
    "तत्कालीन</w>": 7780,
    "तट</w>": 7781,
    "तः</w>": 7782,
    "ण्ड</w>": 7783,
    "ण,</w>": 7784,
    "ढि": 7785,
    "डीए": 7786,
    "डिग्र": 7787,
    "डिग्री</w>": 7788,
    "ड़ीसा</w>": 7789,
    "ड़ा,</w>": 7790,
    "डव": 7791,
    "डच": 7792,
    "ठित</w>": 7793,
    "टेलीविज़": 7794,
    "टेलीविज़न</w>": 7795,
    "टेलीविजन</w>": 7796,
    "टना</w>": 7797,
    "टार्कटिका</w>": 7798,
    "टा</w>": 7799,
    "टब": 7800,
    "झारखंड</w>": 7801,
    "जोर</w>": 7802,
    "जीविका</w>": 7803,
    "जीडी": 7804,
    "जी-": 7805,
    "जिसे</w>": 7806,
    "जिस</w>": 7807,
    "जिन्हे</w>": 7808,
    "जिनके</w>": 7809,
    "जातीय</w>": 7810,
    "जात": 7811,
    "ज़्यादा</w>": 7812,
    "जवाहरलाल</w>": 7813,
    "जारी</w>": 7814,
    "जंग": 7815,
    "जंगलों</w>": 7816,
    "ज,</w>": 7817,
    "छूट</w>": 7818,
    "छठ": 7819,
    "च्च": 7820,
    "चालुक्यों</w>": 7821,
    "चलने</w>": 7822,
    "चरम</w>": 7823,
    "चे</w>": 7824,
    "चू": 7825,
    "चली।</w>": 7826,
    "चलाया।</w>": 7827,
    "चला,</w>": 7828,
    "चम": 7829,
    "चट": 7830,
    "घाट</w>": 7831,
    "घू": 7832,
    "घरेलू</w>": 7833,
    "घरा": 7834,
    "घनिष्ठ</w>": 7835,
    "घट": 7836,
    "ग्रह</w>": 7837,
    "ग्लेशियर</w>": 7838,
    "गोंड</w>": 7839,
    "गोवा</w>": 7840,
    "गुट</w>": 7841,
    "गाँ": 7842,
    "ग़री": 7843,
    "गए।</w>": 7844,
    "गॉ": 7845,
    "गू</w>": 7846,
    "गंग": 7847,
    "ग,</w>": 7848,
    "खासकर</w>": 7849,
    "खा</w>": 7850,
    "खग": 7851,
    "क्षुण्ण</w>": 7852,
    "क्रिके": 7853,
    "क्रिकेट</w>": 7854,
    "क्रयशक्ति</w>": 7855,
    "क्रमशः</w>": 7856,
    "क्षा": 7857,
    "कोपेन</w>": 7858,
    "केन्द्रीय</w>": 7859,
    "केंद्रीय</w>": 7860,
    "केंद्रशासित</w>": 7861,
    "केंद्र-": 7862,
    "कृत</w>": 7863,
    "कुलीन</w>": 7864,
    "कीर्": 7865,
    "किन्तु": 7866,
    "किनारे</w>": 7867,
    "कार्रवाई</w>": 7868,
    "कार्य</w>": 7869,
    "कामयाब</w>": 7870,
    "कालिक</w>": 7871,
    "काम</w>": 7872,
    "कां": 7873,
    "कांश</w>": 7874,
    "कर्मियों</w>": 7875,
    "कर्नाटक</w>": 7876,
    "करोड़),</w>": 7877,
    "करोड</w>": 7878,
    "करेगी": 7879,
    "करवाने</w>": 7880,
    "कमांडर-इन-चीफ</w>": 7881,
    "कंपनियों</w>": 7882,
    "क्योंकि</w>": 7883,
    "कै": 7884,
    "किय": 7885,
    "कहीं</w>": 7886,
    "कंक": 7887,
    "कंकड</w>": 7888,
    "क,</w>": 7889,
    "औसत</w>": 7890,
    "औप": 7891,
    "औद": 7892,
    "ओण": 7893,
    "ओ</w>": 7894,
    "ऐसी</w>": 7895,
    "ऐसे</w>": 7896,
    "एशियाई</w>": 7897,
    "एवम</w>": 7898,
    "एनएस": 7899,
    "एं,</w>": 7900,
    "एसोसिएशन</w>": 7901,
    "एड": 7902,
    "एज": 7903,
    "एँ</w>": 7904,
    "ऋतु": 7905,
    "ऊर्जा</w>": 7906,
    "उल-": 7907,
    "उभरा।</w>": 7908,
    "उपग्रह</w>": 7909,
    "उदय</w>": 7910,
    "उत्पादन</w>": 7911,
    "उत्तर-पश्चिम</w>": 7912,
    "उत्तरदा": 7913,
    "उत्थान</w>": 7914,
    "उठाया</w>": 7915,
    "उन्होंने</w>": 7916,
    "उध": 7917,
    "उड़ीसा</w>": 7918,
    "उं": 7919,
    "ईस्ट</w>": 7920,
    "ईसाई</w>": 7921,
    "ईल": 7922,
    "ईद</w>": 7923,
    "ईं": 7924,
    "इस्लाम</w>": 7925,
    "इस्तेमाल</w>": 7926,
    "इसने</w>": 7927,
    "इत्यादि</w>": 7928,
    "इजरायल</w>": 7929,
    "इंडोनेशिया</w>": 7930,
    "इलावा</w>": 7931,
    "इनका</w>": 7932,
    "इण्ड": 7933,
    "इओ": 7934,
    "आर्य": 7935,
    "आयातक</w>": 7936,
    "आपके</w>": 7937,
    "आन्दो": 7938,
    "आधारित</w>": 7939,
    "आदर्श</w>": 7940,
    "आठवीं</w>": 7941,
    "आकर्षित</w>": 7942,
    "आक्र": 7943,
    "आवश्य": 7944,
    "आवं": 7945,
    "आम</w>": 7946,
    "आपूर्तिकर्ता</w>": 7947,
    "आपातकाल</w>": 7948,
    "आने</w>": 7949,
    "आए</w>": 7950,
    "असैनिक</w>": 7951,
    "असम</w>": 7952,
    "असफल</w>": 7953,
    "अवसा": 7954,
    "अल्पाइन</w>": 7955,
    "अमेरिकी</w>": 7956,
    "अमेरिका,</w>": 7957,
    "अभियानों</w>": 7958,
    "अपेक्षा</w>": 7959,
    "अन्तर्गत</w>": 7960,
    "अन्तरि": 7961,
    "अनुसूची</w>": 7962,
    "अनिवार्य</w>": 7963,
    "अनुसार,</w>": 7964,
    "अधिकारी</w>": 7965,
    "अधिकांश</w>": 7966,
    "अत्य": 7967,
    "अग्रणी</w>": 7968,
    "अगस्त</w>": 7969,
    "अंग्रेजों</w>": 7970,
    "अंतिम</w>": 7971,
    "अहिंसावादी</w>": 7972,
    "असम": 7973,
    "असं": 7974,
    "अशोक</w>": 7975,
    "अशांति</w>": 7976,
    "अलावा,</w>": 7977,
    "अथवा</w>": 7978,
    "अज": 7979,
    "अक्षुण्ण</w>": 7980,
    "अ-": 7981,
    "ंबर</w>": 7982,
    "ंगीण</w>": 7983,
    "y।</w>": 7984,
    "xiii,</w>": 7985,
    "xi,</w>": 7986,
    "uin</w>": 7987,
    "tbook</w>": 7988,
    "ton</w>": 7989,
    "ss:</w>": 7990,
    "s)</w>": 7991,
    "s).</w>": 7992,
    "plates</w>": 7993,
    "outl": 7994,
    "outled": 7995,
    "orld": 7996,
    "orld's</w>": 7997,
    "olume</w>": 7998,
    "ollin": 7999,
    "ocial</w>": 8000,
    "mun": 8001,
    "life:</w>": 8002,
    "lag": 8003,
    "lag,</w>": 8004,
    "ins</w>": 8005,
    "inav": 8006,
    "inav</w>": 8007,
    "ics).</w>": 8008,
    "hi:</w>": 8009,
    "formation</w>": 8010,
    "es)।</w>": 8011,
    "erlag,</w>": 8012,
    "enguin</w>": 8013,
    "edition": 8014,
    "eat": 8015,
    "cycl": 8016,
    "cyclop": 8017,
    "covery</w>": 8018,
    "cise</w>": 8019,
    "bhinav</w>": 8020,
    "ayback</w>": 8021,
    "aval": 8022,
    "assics).</w>": 8023,
    "arajan,</w>": 8024,
    "angarajan,</w>": 8025,
    "andra</w>": 8026,
    "age,</w>": 8027,
    "adhy": 8028,
    "ada</w>": 8029,
    "a:</w>": 8030,
    "[ˈbʱaːɾət]</w>": 8031,
    "Wildlife:</w>": 8032,
    "World's</w>": 8033,
    "Wildlife</w>": 8034,
    "Wayback</w>": 8035,
    "War": 8036,
    "W.</w>": 8037,
    "Volume</w>": 8038,
    "Verlag,</w>": 8039,
    "Tamil,</w>": 8040,
    "TT": 8041,
    "TI": 8042,
    "Sub": 8043,
    "Social</w>": 8044,
    "Since</w>": 8045,
    "Raman": 8046,
    "Routled": 8047,
    "Rangarajan,</w>": 8048,
    "Publications,</w>": 8049,
    "Publish": 8050,
    "Press।</w>": 8051,
    "Prof": 8052,
    "Poems</w>": 8053,
    "Penguin</w>": 8054,
    "PK": 8055,
    "Nar": 8056,
    "Millan,</w>": 8057,
    "Mahesh</w>": 8058,
    "MacMillan,</w>": 8059,
    "Mach": 8060,
    "Mas": 8061,
    "Libr": 8062,
    "Long</w>": 8063,
    "Kar": 8064,
    "John": 8065,
    "Indo-A": 8066,
    "Indo-Australian</w>": 8067,
    "Histor": 8068,
    "Factbook</w>": 8069,
    "From</w>": 8070,
    "Encyclop": 8071,
    "Eight</w>": 8072,
    "Discovery</w>": 8073,
    "Delhi:</w>": 8074,
    "Democracy</w>": 8075,
    "Concise</w>": 8076,
    "Commun": 8077,
    "Classics).</w>": 8078,
    "Chandra</w>": 8079,
    "CEE</w>": 8080,
    "Collin": 8081,
    "Cinem": 8082,
    "Cal": 8083,
    "Brass:</w>": 8084,
    "Books।</w>": 8085,
    "Bas": 8086,
    "Bar": 8087,
    "Anthology</w>": 8088,
    "Act,</w>": 8089,
    "Academ": 8090,
    "Ad": 8091,
    "Abhinav</w>": 8092,
    "93,": 8093,
    "9,000</w>": 8094,
    "8లో</w>": 8095,
    "7,5": 8096,
    "7,517</w>": 8097,
    "7–": 8098,
    "7లో</w>": 8099,
    "74.": 8100,
    "72.": 8101,
    "7000</w>": 8102,
    "5-0": 8103,
    "4th</w>": 8104,
    "44": 8105,
    "4-": 8106,
    "30,000</w>": 8107,
    "3.8": 8108,
    "36.": 8109,
    "26న</w>": 8110,
    "2022</w>": 8111,
    "2021</w>": 8112,
    "2014</w>": 8113,
    "2012": 8114,
    "2008</w>": 8115,
    "2007</w>": 8116,
    "2007,</w>": 8117,
    "2006,</w>": 8118,
    "2004</w>": 8119,
    "2019</w>": 8120,
    "2nd</w>": 8121,
    "29</w>": 8122,
    "21</w>": 8123,
    "1998</w>": 8124,
    "1984</w>": 8125,
    "1975,</w>": 8126,
    "1974</w>": 8127,
    "1967</w>": 8128,
    "1958</w>": 8129,
    "1900</w>": 8130,
    "17.": 8131,
    "16.6%</w>": 8132,
    "100,000</w>": 8133,
    "1,93,": 8134,
    "1,200</w>": 8135,
    "1000</w>": 8136,
    ".৮%": 8137,
    ".৭%</w>": 8138,
    ".৭%),</w>": 8139,
    "./वर्ष</w>": 8140,
    "...": 8141,
    ".৯%)</w>": 8142,
    ".,</w>": 8143,
    "-বর্": 8144,
    "-ধাঁচের</w>": 8145,
    "-২</w>": 8146,
    "-অধ্যুষিত</w>": 8147,
    ",৬৭১</w>": 8148,
    "+</w>": 8149,
    "(Ἰνδός),</w>": 8150,
    "(৪,৬৭১</w>": 8151,
    "(২০০৬),</w>": 8152,
    "(২০০৪),</w>": 8153,
    "(২০০৭)।</w>": 8154,
    "(১৯৯৮),</w>": 8155,
    "(১৯৯৭),</w>": 8156,
    "(১৯৯৪)।</w>": 8157,
    "(১৯৯০)।</w>": 8158,
    "(হিন্দি:</w>": 8159,
    "(এনডিএ)</w>": 8160,
    "(editors),</w>": 8161,
    "(editor)</w>": 8162,
    "(সি": 8163,
    "(মোট</w>": 8164,
    "(বিশ্বে</w>": 8165,
    "(পূর্বনাম</w>": 8166,
    "(পিপিপি)</w>": 8167,
    "(ध": 8168,
    "(कॉ": 8169,
    "(कुल</w>": 8170,
    "(ओ": 8171,
    "(S": 8172,
    "(Oxford</w>": 8173,
    "(M": 8174,
    "(India": 8175,
    "(E": 8176,
    "(7": 8177,
    "(4": 8178,
    "(196": 8179,
    "(0.": 8180,
    "'।</w>": 8181,
    "$६": 8182,
    "\"।</w>": 8183,
    "\",</w>": 8184,
    "”।</w>": 8185,
    "“Royal": 8186,
    "“Royal”</w>": 8187,
    "“প্রথম</w>": 8188,
    "“नेट</w>": 8189,
    "’,</w>": 8190,
    "‘दलि": 8191,
    "‘दलितों</w>": 8192,
    "‘আধা-": 8193,
    "‘আধা-যুক্তরাষ্ট্র": 8194,
    "‘আধা-যুক্তরাষ্ট্রী": 8195,
    "‘আধা-যুক্তরাষ্ট্রীয়": 8196,
    "‘আধা-যুক্তরাষ্ট্রীয়’</w>": 8197,
    "‘संविधान</w>": 8198,
    "‘आधुनिक</w>": 8199,
    "—हट": 8200,
    "—हटा</w>": 8201,
    "—जैसे</w>": 8202,
    "–2012</w>": 8203,
    "–2004</w>": 8204,
    "–2000": 8205,
    "–2000).</w>": 8206,
    "–13</w>": 8207,
    "–20</w>": 8208,
    "–0</w>": 8209,
    "‍यीय</w>": 8210,
    "‍पकालिक</w>": 8211,
    "‍্যে</w>": 8212,
    "‍या": 8213,
    "‍याव": 8214,
    "‍यावसा": 8215,
    "‍यावसायिक</w>": 8216,
    "‍तरी</w>": 8217,
    "‌వ‌": 8218,
    "‌వ‌స్థ": 8219,
    "‌వ‌స్థ‌</w>": 8220,
    "‌లాల్</w>": 8221,
    "‌ఫర్": 8222,
    "‌ఫర్మే": 8223,
    "‌ఫర్మేష": 8224,
    "‌ఫర్మేషన్</w>": 8225,
    "‌ক্য</w>": 8226,
    "‌తంలో</w>": 8227,
    "‌కు</w>": 8228,
    "‌বলম্বী</w>": 8229,
    "ṣag": 8230,
    "ṣagān": 8231,
    "ṣagāna,</w>": 8232,
    "్‌సొ": 8233,
    "్‌సొర్": 8234,
    "్‌సొర్సిం": 8235,
    "్‌సొర్సింగ": 8236,
    "్‌సొర్సింగ్</w>": 8237,
    "్‌వే": 8238,
    "్‌వేర్,</w>": 8239,
    "్‌మహ": 8240,
    "్‌మహల్</w>": 8241,
    "్‌బ": 8242,
    "్‌బాల": 8243,
    "్‌బాల్‌</w>": 8244,
    "్‌గే": 8245,
    "్‌గేజ": 8246,
    "్‌గేజి</w>": 8247,
    "్‌,</w>": 8248,
    "్సీ": 8249,
    "్సీలు,</w>": 8250,
    "్వాల్</w>": 8251,
    "్వస్త్ర": 8252,
    "్వస్త్ర</w>": 8253,
    "్వబ": 8254,
    "్వబడిన</w>": 8255,
    "్లలో</w>": 8256,
    "్లలుగా</w>": 8257,
    "్రోలి": 8258,
    "్రోలియం": 8259,
    "్రోలియం,</w>": 8260,
    "్రోపాల": 8261,
    "్రోపాలిట": 8262,
    "్రోపాలిటన్</w>": 8263,
    "్రిద్ధి</w>": 8264,
    "్రిచె": 8265,
    "్రిచెట్ట": 8266,
    "్రిచెట్టు.</w>": 8267,
    "్రాన్స్,</w>": 8268,
    "్రాన్-ఇ": 8269,
    "్రాన్-ఇస్తా": 8270,
    "్రాన్-ఇస్తాంబ": 8271,
    "్రాన్-ఇస్తాంబుల": 8272,
    "్రాన్-ఇస్తాంబుల్</w>": 8273,
    "్రాసు": 8274,
    "్రాసు),</w>": 8275,
    "్రావి": 8276,
    "్రావిడ</w>": 8277,
    "్రాఫ": 8278,
    "్రాఫిక్</w>": 8279,
    "్రా)</w>": 8280,
    "్రై": 8281,
    "్రైవర": 8282,
    "్రైవరు</w>": 8283,
    "్రూ—": 8284,
    "్రూ—ISBN</w>": 8285,
    "్రాలు,</w>": 8286,
    "్రామ": 8287,
    "్రామిక</w>": 8288,
    "్రయ": 8289,
    "్రయాలు</w>": 8290,
    "్యాత్మ": 8291,
    "్యాత్మిక": 8292,
    "్యాత్మికత</w>": 8293,
    "్యాడ్": 8294,
    "్యాడ్మిం": 8295,
    "్యాడ్మింట": 8296,
    "్యాడ్మింటన్": 8297,
    "్యాడ్మింటన్‌</w>": 8298,
    "్యులు</w>": 8299,
    "్యులు,</w>": 8300,
    "్యాలు</w>": 8301,
    "్యాలు": 8302,
    "్యాలున్నాయి.</w>": 8303,
    "్యానికి</w>": 8304,
    "్యా</w>": 8305,
    "్యరాజ్య": 8306,
    "్యరాజ్యసమ": 8307,
    "్యరాజ్యసమితి</w>": 8308,
    "్యమైన</w>": 8309,
    "్యమం": 8310,
    "్యమంలో</w>": 8311,
    "్యప్ర": 8312,
    "్యప్రాణ": 8313,
    "్యప్రాణుల</w>": 8314,
    "్యపరంగా</w>": 8315,
    "్యజి": 8316,
    "్యజిత్</w>": 8317,
    "్యచిత్ర": 8318,
    "్యచిత్రాలు</w>": 8319,
    "్యంలో</w>": 8320,
    "్య,</w>": 8321,
    "్మపు": 8322,
    "్మపుత్ర": 8323,
    "్మపుత్ర,</w>": 8324,
    "్మదా": 8325,
    "్మదాబాదు</w>": 8326,
    "్మద": 8327,
    "్మదీయ": 8328,
    "్మదీయులు,</w>": 8329,
    "్మ.</w>": 8330,
    "్పస్,</w>": 8331,
    "్నే": 8332,
    "్నేయ</w>": 8333,
    "్నాలు</w>": 8334,
    "్నలు:</w>": 8335,
    "్నం</w>": 8336,
    "్థాలు,</w>": 8337,
    "్థనల": 8338,
    "్థనలలో</w>": 8339,
    "్తె</w>": 8340,
    "్తాన": 8341,
    "్తానులు,</w>": 8342,
    "్తదేశపు</w>": 8343,
    "్ట్‌వేర్,</w>": 8344,
    "్టడ": 8345,
    "్టడాలు,</w>": 8346,
    "్టం,</w>": 8347,
    "్గు": 8348,
    "్గులు:</w>": 8349,
    "్గి": 8350,
    "్గిపోయింది.</w>": 8351,
    "్గర": 8352,
    "్గరలో</w>": 8353,
    "్కెట్</w>": 8354,
    "్కుల</w>": 8355,
    "్కా</w>": 8356,
    "్స్</w>": 8357,
    "్క్‌": 8358,
    "్క్‌టిక": 8359,
    "్క్‌టికాలో</w>": 8360,
    "్క్</w>": 8361,
    "ౌరవి": 8362,
    "ౌరవిస్తారు.</w>": 8363,
    "ోళులు,</w>": 8364,
    "ోరారి</w>": 8365,
    "ోరమ</w>": 8366,
    "ోర</w>": 8367,
    "ోధాల</w>": 8368,
    "ోధన": 8369,
    "ోధనా</w>": 8370,
    "ోద్యమంలో</w>": 8371,
    "ోక్యం</w>": 8372,
    "ో-ఖో": 8373,
    "ో-ఖో,</w>": 8374,
    "ో-ఆర్": 8375,
    "ో-ఆర్య": 8376,
    "ో-ఆర్యన్,</w>": 8377,
    "ోయ</w>": 8378,
    "ోనే": 8379,
    "ోనేసియా</w>": 8380,
    "ోది.</w>": 8381,
    "ోత్ర": 8382,
    "ోత్రి,</w>": 8383,
    "ోక్ష": 8384,
    "ోక్ష</w>": 8385,
    "ోంది.</w>": 8386,
    "ో,</w>": 8387,
    "ొమ్మ.</w>": 8388,
    "ైనె": 8389,
    "ైనెర్</w>": 8390,
    "ైనప్పటికీ,</w>": 8391,
    "ైనది.</w>": 8392,
    "ైనంద": 8393,
    "ైనందిన</w>": 8394,
    "ైస్త": 8395,
    "ైస్తవ": 8396,
    "ైస్తవులు</w>": 8397,
    "ైలో</w>": 8398,
    "ైటె": 8399,
    "ైటెడ": 8400,
    "ైటెడ్</w>": 8401,
    "ైక</w>": 8402,
    "ేష్</w>": 8403,
    "ేమాత": 8404,
    "ేమాతరం": 8405,
    "ేమాతరం...": 8406,
    "ేమాతరం....</w>": 8407,
    "ేధం,</w>": 8408,
    "ేట్</w>": 8409,
    "ేకమైన</w>": 8410,
    "ేయు": 8411,
    "ేయులు": 8412,
    "ేయులు)</w>": 8413,
    "ేనన": 8414,
    "ేననీ</w>": 8415,
    "ేతర</w>": 8416,
    "ేత</w>": 8417,
    "ేకాగా</w>": 8418,
    "ే:</w>": 8419,
    "ే...": 8420,
    "ే...).</w>": 8421,
    "ే,</w>": 8422,
    "ే),</w>": 8423,
    "ెల్</w>": 8424,
    "ెలు</w>": 8425,
    "ెబియ": 8426,
    "ెబియస్</w>": 8427,
    "ెనే</w>": 8428,
    "ెట్రోపాలిటన్</w>": 8429,
    "ెల్": 8430,
    "ెల్లోని</w>": 8431,
    "ెలు.</w>": 8432,
    "ెల</w>": 8433,
    "ెడ్": 8434,
    "ెడ్,</w>": 8435,
    "ె,</w>": 8436,
    "ృహాలు,</w>": 8437,
    "ృత్య</w>": 8438,
    "ృతంగా</w>": 8439,
    "ూరత్</w>": 8440,
    "ూపబ": 8441,
    "ూపబడి": 8442,
    "ూపబడింది</w>": 8443,
    "ూనే</w>": 8444,
    "ూడా</w>": 8445,
    "ూటనల": 8446,
    "ూటనలబై": 8447,
    "ూటనలబైరెండు": 8448,
    "ూటనలబైరెండుకోట్లకు</w>": 8449,
    "ూలా": 8450,
    "ూలాదాయంలో</w>": 8451,
    "ూపం": 8452,
    "ూపం,</w>": 8453,
    "ువుల": 8454,
    "ువులైనప్పటికీ,</w>": 8455,
    "ుళూరు</w>": 8456,
    "ుల్స్</w>": 8457,
    "ుల్తానులు,</w>": 8458,
    "ులి</w>": 8459,
    "ులా</w>": 8460,
    "ులలో</w>": 8461,
    "ులచే</w>": 8462,
    "ులకాల": 8463,
    "ులకాలం</w>": 8464,
    "ురాలు.</w>": 8465,
    "ునైటెడ్</w>": 8466,
    "ునిక</w>": 8467,
    "ుని</w>": 8468,
    "ుట్‌బాల్‌</w>": 8469,
    "ుటచే</w>": 8470,
    "ుగల్": 8471,
    "ుగల్,</w>": 8472,
    "ుక్యులు,</w>": 8473,
    "ు.ప్రస్తుతము</w>": 8474,
    "ు,భాష": 8475,
    "ు,భాషలు,</w>": 8476,
    "ువు": 8477,
    "ువు:</w>": 8478,
    "ువల్ల</w>": 8479,
    "ులో</w>": 8480,
    "ుపూర్": 8481,
    "ుపూర్వో": 8482,
    "ుపూర్వోత్": 8483,
    "ుపూర్వోత్తర": 8484,
    "ుపూర్వోత్తరాలు</w>": 8485,
    "ుకుంట": 8486,
    "ుకుంటోంది.</w>": 8487,
    "ుకు": 8488,
    "ుకున్నాయి.</w>": 8489,
    "ీలతో</w>": 8490,
    "ీర,</w>": 8491,
    "ీయవాదం</w>": 8492,
    "ీనోద్యమంలో</w>": 8493,
    "ీనికి</w>": 8494,
    "ీనములో</w>": 8495,
    "ీనంలో</w>": 8496,
    "ీనం</w>": 8497,
    "ీతులు</w>": 8498,
    "ీతల</w>": 8499,
    "ీకులు</w>": 8500,
    "ీకి</w>": 8501,
    "ీ,పాండ": 8502,
    "ీ,పాండి": 8503,
    "ీ,పాండిచ్": 8504,
    "ీ,పాండిచ్చే": 8505,
    "ీ,పాండిచ్చేరి": 8506,
    "ీ,పాండిచ్చేరి,</w>": 8507,
    "ీయా": 8508,
    "ీయాదాయంలో</w>": 8509,
    "ీకృ": 8510,
    "ీకృత": 8511,
    "ీకృతమై</w>": 8512,
    "ీకర": 8513,
    "ీకరణ</w>": 8514,
    "ిశ్రామిక</w>": 8515,
    "ివర్ణ</w>": 8516,
    "ివర్గ": 8517,
    "ివర్గం</w>": 8518,
    "ిల్లీ-దండ": 8519,
    "ిల్లీ-దండా": 8520,
    "ిల్లీ-దండా)</w>": 8521,
    "ిల్లిన</w>": 8522,
    "ిల్లా</w>": 8523,
    "ిలేట్</w>": 8524,
    "ిలాగ": 8525,
    "ిలాగృహాలు,</w>": 8526,
    "ిరా</w>": 8527,
    "ిరమైన</w>": 8528,
    "ియాలో</w>": 8529,
    "ియనులు,</w>": 8530,
    "ినేత</w>": 8531,
    "ినెస్</w>": 8532,
    "ిని</w>": 8533,
    "ినహ": 8534,
    "ినహాయ": 8535,
    "ినహాయించి,</w>": 8536,
    "ిత్ర,</w>": 8537,
    "ిత్యం</w>": 8538,
    "ితమై</w>": 8539,
    "ితం,</w>": 8540,
    "ిగమ": 8541,
    "ిగమించి</w>": 8542,
    "ికేననీ</w>": 8543,
    "ికులు</w>": 8544,
    "ికుల</w>": 8545,
    "ికికి</w>": 8546,
    "ికి,</w>": 8547,
    "ికమైనది.</w>": 8548,
    "ికమైన</w>": 8549,
    "ికం,</w>": 8550,
    "ింపిక్‌</w>": 8551,
    "ింపబడ": 8552,
    "ింపబడి</w>": 8553,
    "ించుకోవడ": 8554,
    "ించుకోవడాన": 8555,
    "ించుకోవడానికి,</w>": 8556,
    "ించుకోవచ్": 8557,
    "ించుకోవచ్చని</w>": 8558,
    "ించినవే.</w>": 8559,
    "ించినంద": 8560,
    "ించినందువల్ల</w>": 8561,
    "ించిపె": 8562,
    "ించిపెట్ట": 8563,
    "ించిపెట్టార": 8564,
    "ించిపెట్టారు.ప్రస్తుతము</w>": 8565,
    "ించాలని</w>": 8566,
    "ించబడింది.</w>": 8567,
    "ించలే": 8568,
    "ించలేదు": 8569,
    "ించలేదు.</w>": 8570,
    "ింస": 8571,
    "ింసాయుత</w>": 8572,
    "ింబె": 8573,
    "ింబెట": 8574,
    "ింబెట్కా</w>": 8575,
    "ించా": 8576,
    "ించాము.</w>": 8577,
    "ింగ్": 8578,
    "ింగ్డమ": 8579,
    "ింగ్డమ్</w>": 8580,
    "ి.పూ.</w>": 8581,
    "ి.ఢాకా-ఢిల్లీ-లాహో": 8582,
    "ి.ఢాకా-ఢిల్లీ-లాహోర్‌": 8583,
    "ి.ఢాకా-ఢిల్లీ-లాహోర్‌ల</w>": 8584,
    "ిస్తారు.</w>": 8585,
    "ిస్": 8586,
    "ిస్టా": 8587,
    "ిస్టాట": 8588,
    "ిస్టాటస్": 8589,
    "ిస్టాటస్.</w>": 8590,
    "ిళ్": 8591,
    "ిళ్ళ</w>": 8592,
    "ియా": 8593,
    "ియా,</w>": 8594,
    "ిపేర్లు</w>": 8595,
    "ిపి": 8596,
    "ిపిత</w>": 8597,
    "ిత్వ</w>": 8598,
    "ి:</w>": 8599,
    "ాసెస్</w>": 8600,
    "ాశ్రయాలు</w>": 8601,
    "ాళాఖ": 8602,
    "ాళాఖాతం</w>": 8603,
    "ాల్లో": 8604,
    "ాల్లోన": 8605,
    "ాల్లోనూ</w>": 8606,
    "ాల్దీ": 8607,
    "ాల్దీవులు,</w>": 8608,
    "ాలెక్క": 8609,
    "ాలెక్కను": 8610,
    "ాలెక్కనుంది.</w>": 8611,
    "ాలుగా,</w>": 8612,
    "ాల్యంలో</w>": 8613,
    "ాలోయ</w>": 8614,
    "ాలేకాగా</w>": 8615,
    "ాలే.</w>": 8616,
    "ాలు,భాషలు,</w>": 8617,
    "ాలాలు,</w>": 8618,
    "ాలలోను</w>": 8619,
    "ాలర్": 8620,
    "ాలర్లు.</w>": 8621,
    "ాలపై</w>": 8622,
    "ాలన్నీ</w>": 8623,
    "ాలకూ</w>": 8624,
    "ారు,</w>": 8625,
    "ార్లలో</w>": 8626,
    "ార్థాలు,</w>": 8627,
    "ార్క్‌టికాలో</w>": 8628,
    "ార్</w>": 8629,
    "ారాల</w>": 8630,
    "ారమ": 8631,
    "ారమ్‌,</w>": 8632,
    "ారతమ": 8633,
    "ారతమ్యాలున్నాయి.</w>": 8634,
    "ారణంగా</w>": 8635,
    "ాయిలో</w>": 8636,
    "ాయిడ్": 8637,
    "ాయిడ్స్</w>": 8638,
    "ాయీలు</w>": 8639,
    "ాయని</w>": 8640,
    "ాయతి</w>": 8641,
    "ాయణం</w>": 8642,
    "ాయకార": 8643,
    "ాయకారిగా</w>": 8644,
    "ాయం</w>": 8645,
    "ాయ\",</w>": 8646,
    "ాబల": 8647,
    "ాబల్యం</w>": 8648,
    "ానే</w>": 8649,
    "ానెట్</w>": 8650,
    "ానాలతో</w>": 8651,
    "ానప": 8652,
    "ానపద</w>": 8653,
    "ానంతో</w>": 8654,
    "ానం:</w>": 8655,
    "ాన,</w>": 8656,
    "ాతృ</w>": 8657,
    "ాతి</w>": 8658,
    "ాతథ</w>": 8659,
    "ాడ్‌గేజి</w>": 8660,
    "ాన్ని</w>": 8661,
    "ానిస్తాన్</w>": 8662,
    "ాంత": 8663,
    "ాంతి,</w>": 8664,
    "హొలీ": 8665,
    "హొలీ,</w>": 8666,
    "హైదరాబాద్": 8667,
    "హైదరాబాద్,</w>": 8668,
    "హైదరాబాదు</w>": 8669,
    "హైకోర్టులు</w>": 8670,
    "హిమాలయ": 8671,
    "హిమాలయాలు,</w>": 8672,
    "హిందూస్తాన్</w>": 8673,
    "హిందూస్త": 8674,
    "హిందూస్తానీ</w>": 8675,
    "హిందూదేశం": 8676,
    "హిందూదేశం,</w>": 8677,
    "హిందూ,</w>": 8678,
    "హిందువులైనప్పటికీ,</w>": 8679,
    "హిందీ</w>": 8680,
    "హిందీ;</w>": 8681,
    "హిందీ,</w>": 8682,
    "హిస్తాయి.</w>": 8683,
    "హిరంగ": 8684,
    "హిరంగంగా</w>": 8685,
    "హాస": 8686,
    "హాసాలపై</w>": 8687,
    "హాకీ": 8688,
    "హాకీలో</w>": 8689,
    "హాక": 8690,
    "హాకీ</w>": 8691,
    "హనాలు</w>": 8692,
    "హ్రాన్-ఇస్తాంబుల్</w>": 8693,
    "హ్మపుత్ర,</w>": 8694,
    "హ్నాలు</w>": 8695,
    "హెబియస్</w>": 8696,
    "హా</w>": 8697,
    "హస్": 8698,
    "హస్త</w>": 8699,
    "హర్": 8700,
    "హర్గ": 8701,
    "హర్గర్,</w>": 8702,
    "హపు</w>": 8703,
    "హక్క": 8704,
    "హక్కులకు</w>": 8705,
    "స్వీకార": 8706,
    "స్వీకారం</w>": 8707,
    "స్వీకర": 8708,
    "స్వీకరించింది.</w>": 8709,
    "స్వామ్య,</w>": 8710,
    "స్వాతంత్ర్యానికి</w>": 8711,
    "స్వాము": 8712,
    "స్వాములు.</w>": 8713,
    "స్వాధ": 8714,
    "స్వాధీనం</w>": 8715,
    "స్వతంత్ర": 8716,
    "స్వతంత్రం</w>": 8717,
    "స్వతం</w>": 8718,
    "స్లామ": 8719,
    "స్లామ్</w>": 8720,
    "స్యం</w>": 8721,
    "స్థానే...).</w>": 8722,
    "స్థానిక</w>": 8723,
    "స్థానాలు</w>": 8724,
    "స్థానమైన</w>": 8725,
    "స్థానంలో,</w>": 8726,
    "స్థానం.</w>": 8727,
    "స్థాప": 8728,
    "స్థాపక</w>": 8729,
    "స్థూలాదాయంలో</w>": 8730,
    "స్థిరమైన</w>": 8731,
    "స్థాయిలో</w>": 8732,
    "స్థలు</w>": 8733,
    "స్తులు.</w>": 8734,
    "స్తున్నారు.</w>": 8735,
    "స్తున్నది.</w>": 8736,
    "స్తుంది.</w>": 8737,
    "స్తుంద": 8738,
    "స్తుందని</w>": 8739,
    "స్తాన్‌కు</w>": 8740,
    "స్తాన్తో</w>": 8741,
    "స్తామన": 8742,
    "స్తామని</w>": 8743,
    "స్తాన్,</w>": 8744,
    "స్తృతంగా</w>": 8745,
    "స్తులు</w>": 8746,
    "స్తారు,</w>": 8747,
    "స్టలు</w>": 8748,
    "స్సా": 8749,
    "స్సామీ": 8750,
    "స్సామీ;</w>": 8751,
    "స్వే": 8752,
    "స్వేచ్": 8753,
    "స్వేచ్ఛ": 8754,
    "స్వేచ్ఛాయుత</w>": 8755,
    "స్వర్": 8756,
    "స్వర్ణ</w>": 8757,
    "స్వర": 8758,
    "స్వరూపం,</w>": 8759,
    "స్వ": 8760,
    "స్వతం,</w>": 8761,
    "స్లో</w>": 8762,
    "స్లే": 8763,
    "స్లేచ": 8764,
    "స్లేచర్,</w>": 8765,
    "స్యత": 8766,
    "స్యత,</w>": 8767,
    "స్య</w>": 8768,
    "స్తూ": 8769,
    "స్తూ,</w>": 8770,
    "స్టే": 8771,
    "స్టేట": 8772,
    "స్టేటాయిడ్స్</w>": 8773,
    "స్,": 8774,
    "స్,మహ": 8775,
    "స్,మహేష్</w>": 8776,
    "సౌకర్యము.</w>": 8777,
    "సౌకర్": 8778,
    "సౌకర్యవ": 8779,
    "సౌకర్యవంత": 8780,
    "సౌకర్యవంతంగా,</w>": 8781,
    "సైనా</w>": 8782,
    "సైతం</w>": 8783,
    "సైట్లు</w>": 8784,
    "సేవ</w>": 8785,
    "సెర్": 8786,
    "సెర్టి": 8787,
    "సెర్టియ": 8788,
    "సెర్టియోరారి</w>": 8789,
    "సూచన": 8790,
    "సూచనలు,</w>": 8791,
    "సుమార": 8792,
    "సుమారు</w>": 8793,
    "సుదీ": 8794,
    "సుదీర్": 8795,
    "సుదీర్ఘ</w>": 8796,
    "సుకో": 8797,
    "సుకోవడ": 8798,
    "సుకోవడంతో</w>": 8799,
    "సినిమాలు,</w>": 8800,
    "సిక్కులు</w>": 8801,
    "సిక్కు</w>": 8802,
    "సింధూనదికి</w>": 8803,
    "సింధూనది</w>": 8804,
    "సింధుాలోయ</w>": 8805,
    "సింధులోయ</w>": 8806,
    "సింహపు</w>": 8807,
    "సింధ్": 8808,
    "సింధ్;</w>": 8809,
    "సింధ": 8810,
    "సింధు</w>": 8811,
    "సివ": 8812,
    "సివస్తుందని</w>": 8813,
    "సిన</w>": 8814,
    "సిద్ధం</w>": 8815,
    "సిద్ధ": 8816,
    "సిద్ధించింది.</w>": 8817,
    "సిగ": 8818,
    "సిగ్నలు:</w>": 8819,
    "సింద": 8820,
    "సింది.ఢాకా-ఢిల్లీ-లాహోర్‌ల</w>": 8821,
    "సాహిత్యం</w>": 8822,
    "సాహంగా,</w>": 8823,
    "సార్క్</w>": 8824,
    "సారిగా</w>": 8825,
    "సారాల</w>": 8826,
    "సారస్వతం</w>": 8827,
    "సారస్వతం,</w>": 8828,
    "సారవ": 8829,
    "సారవంత": 8830,
    "సారవంతమైన</w>": 8831,
    "సామ్రాజ్యాలు</w>": 8832,
    "సామ్రాజ్యం</w>": 8833,
    "సామ్రాజ్యం,</w>": 8834,
    "సామ్రాజ్య</w>": 8835,
    "సాధించగా,</w>": 8836,
    "సాధించగ": 8837,
    "సాధించగలి": 8838,
    "సాధించగలిగ": 8839,
    "సాధించగలిగినది.</w>": 8840,
    "సాధించిపెట్టారు.ప్రస్తుతము</w>": 8841,
    "సాధించింది.</w>": 8842,
    "సాధించాము.</w>": 8843,
    "సాధారణంగా</w>": 8844,
    "సాంప్రదాయికమైన</w>": 8845,
    "సాంప్రదాయ</w>": 8846,
    "సాఫ": 8847,
    "సాఫ్ట్‌వేర్,</w>": 8848,
    "సాని": 8849,
    "సానియ": 8850,
    "సానియా</w>": 8851,
    "సాగు": 8852,
    "సాగుతో": 8853,
    "సాగుతోంది.</w>": 8854,
    "సాక": 8855,
    "సాకర్‌": 8856,
    "సాకర్‌)</w>": 8857,
    "సాంఘ": 8858,
    "సాంఘిక,</w>": 8859,
    "సహస్రాబ్ది</w>": 8860,
    "సహస్రాబ్ది": 8861,
    "సహస్రాబ్దిలో</w>": 8862,
    "సహాయకారిగా</w>": 8863,
    "సలహా</w>": 8864,
    "సర్వీసును</w>": 8865,
    "సర్వస": 8866,
    "సర్వసత్తా": 8867,
    "సర్వసత్తాక": 8868,
    "సర్వసత్తాక,</w>": 8869,
    "సరిహద్దులు</w>": 8870,
    "సరిహద్దులలో</w>": 8871,
    "సరిహద్దులను</w>": 8872,
    "సరిహద్దు</w>": 8873,
    "సరిహద్దు": 8874,
    "సరిహద్దున</w>": 8875,
    "సరిస్తూ,</w>": 8876,
    "సరమై": 8877,
    "సరమైత": 8878,
    "సరమైతే</w>": 8879,
    "సరఫర": 8880,
    "సరఫరా</w>": 8881,
    "సముద్రతీరమ": 8882,
    "సముద్రతీరము</w>": 8883,
    "సముద్రతీరం</w>": 8884,
    "సముద్రం</w>": 8885,
    "సముచి": 8886,
    "సముచిత</w>": 8887,
    "సమాఖ్యలు</w>": 8888,
    "సమాజమ": 8889,
    "సమాజము</w>": 8890,
    "సమాజం": 8891,
    "సమాజం.</w>": 8892,
    "సమాచార": 8893,
    "సమాచారం</w>": 8894,
    "సమష్ట": 8895,
    "సమష్టి</w>": 8896,
    "సమశీ": 8897,
    "సమశీతో": 8898,
    "సమశీతోష్ణ</w>": 8899,
    "సమరం</w>": 8900,
    "సమరం": 8901,
    "సమరం)</w>": 8902,
    "సమయం": 8903,
    "సమయంలో,</w>": 8904,
    "సభ్యులను</w>": 8905,
    "సభ్యురాలు.</w>": 8906,
    "సభా</w>": 8907,
    "సభలో</w>": 8908,
    "సత్యజిత్</w>": 8909,
    "సంస్కృతులతో</w>": 8910,
    "సంస్కృతీ": 8911,
    "సంస్కృతీ,</w>": 8912,
    "సంస్కృతి": 8913,
    "సంస్కృతిలో</w>": 8914,
    "సంస్కృతం,</w>": 8915,
    "సంస్కరణలు</w>": 8916,
    "సంస్కరణలత": 8917,
    "సంస్కరణలతో</w>": 8918,
    "సంవత్సరాలలో</w>": 8919,
    "సంవత్సరాల</w>": 8920,
    "సంవత్సరం</w>": 8921,
    "సంవత్సారాల</w>": 8922,
    "సంబంధించిన</w>": 8923,
    "సంబంధాలు</w>": 8924,
    "సంబంధ</w>": 8925,
    "సంప్రదాయాలను</w>": 8926,
    "సంఘర్షణ": 8927,
    "సంఘర్షణలను</w>": 8928,
    "సంఘము.</w>": 8929,
    "సంఘం</w>": 8930,
    "సంగీతము</w>": 8931,
    "సంగీతంలో</w>": 8932,
    "సంగీతం": 8933,
    "సంగీతం.</w>": 8934,
    "సంగీత</w>": 8935,
    "సంగమ</w>": 8936,
    "సంఖ్యాక</w>": 8937,
    "సంఖ్యా</w>": 8938,
    "సంఖ్యలో</w>": 8939,
    "సంకీర్ణం</w>": 8940,
    "సంకీర్ణ</w>": 8941,
    "సంకీర్ణ": 8942,
    "సంకీర్ణాలేకాగా</w>": 8943,
    "సంస్థలు</w>": 8944,
    "సంధి</w>": 8945,
    "సంఘ</w>": 8946,
    "సంక్ర": 8947,
    "సంక్రాంతి,</w>": 8948,
    "సం.</w>": 8949,
    "సే</w>": 8950,
    "సూరత్</w>": 8951,
    "సుల్తానులు,</w>": 8952,
    "సీ</w>": 8953,
    "సీ,</w>": 8954,
    "సాలు</w>": 8955,
    "సవా": 8956,
    "సవాళ్లను</w>": 8957,
    "సల్": 8958,
    "సల్వార": 8959,
    "సల్వార్</w>": 8960,
    "సగా</w>": 8961,
    "సంద": 8962,
    "సందర్": 8963,
    "సందర్శ": 8964,
    "సందర్శించే</w>": 8965,
    "సం</w>": 8966,
    "ష్ట్యా</w>": 8967,
    "ష్టు</w>": 8968,
    "ష్టమైన": 8969,
    "ష్టమైన,</w>": 8970,
    "ష్టం": 8971,
    "ష్టంకాగా</w>": 8972,
    "ష్ట</w>": 8973,
    "ష్పం": 8974,
    "ష్పం:</w>": 8975,
    "షి:</w>": 8976,
    "షా,</w>": 8977,
    "షలు</w>": 8978,
    "షణాలు</w>": 8979,
    "షం:</w>": 8980,
    "షం.</w>": 8981,
    "షం\",</w>": 8982,
    "షేధం,</w>": 8983,
    "షియనులు,</w>": 8984,
    "షాలు</w>": 8985,
    "షకాహార</w>": 8986,
    "శ్వనాథ": 8987,
    "శ్వనాథన్</w>": 8988,
    "శ్వత</w>": 8989,
    "శ్రీశైల": 8990,
    "శ్రీశైలస్య</w>": 8991,
    "శ్రీలంక": 8992,
    "శ్రీలంక,</w>": 8993,
    "శ్రీరా": 8994,
    "శ్రీరామన": 8995,
    "శ్రీరామనవ": 8996,
    "శ్రీరామనవమి": 8997,
    "శ్రీరామనవమి,</w>": 8998,
    "శ్రద్ధ": 8999,
    "శ్రద్ధలతో,</w>": 9000,
    "శ్వా": 9001,
    "శ్వామ": 9002,
    "శ్వామిత్ర,</w>": 9003,
    "శ్లో": 9004,
    "శ్లోకాల": 9005,
    "శ్లోకాలతో</w>": 9006,
    "శ్,</w>": 9007,
    "శోకు": 9008,
    "శోకుడు</w>": 9009,
    "శైలీ</w>": 9010,
    "శేషం.</w>": 9011,
    "శెలవ": 9012,
    "శెలవు</w>": 9013,
    "శిష్ట</w>": 9014,
    "శిల్": 9015,
    "శిల్పక": 9016,
    "శిల్పకళ</w>": 9017,
    "శాస్త్రం</w>": 9018,
    "శాఖపట": 9019,
    "శాఖపట్నం</w>": 9020,
    "శాఖకు</w>": 9021,
    "శాశ్వత</w>": 9022,
    "శాకాహార</w>": 9023,
    "శరద్": 9024,
    "శరద్</w>": 9025,
    "శతాబ్దం": 9026,
    "శతాబ్దం,</w>": 9027,
    "శక్తులు": 9028,
    "శక్తులు;</w>": 9029,
    "శక్తిగా</w>": 9030,
    "శకుడైన</w>": 9031,
    "శకుంత": 9032,
    "శకుంతల</w>": 9033,
    "శంలోని</w>": 9034,
    "శోధనా</w>": 9035,
    "శీతల</w>": 9036,
    "శిలాగృహాలు,</w>": 9037,
    "శాల్యంలో</w>": 9038,
    "శాతం</w>": 9039,
    "శక</w>": 9040,
    "వ్యాపారవే": 9041,
    "వ్యాపారవేత్": 9042,
    "వ్యాపారవేత్త": 9043,
    "వ్యాపారవేత్తల</w>": 9044,
    "వ్యాపారం</w>": 9045,
    "వ్యాపార</w>": 9046,
    "వ్యవస్థీకరణ</w>": 9047,
    "వ్యవస్థలోని</w>": 9048,
    "వ్యవస్థల</w>": 9049,
    "వ్యవస్థగా</w>": 9050,
    "వ్యవస్థకు</w>": 9051,
    "వ్యవస్థకు,</w>": 9052,
    "వ్యవస్థ,</w>": 9053,
    "వ్యవస్థ)</w>": 9054,
    "వ్య‌వ‌స్థ‌</w>": 9055,
    "వ్యవహ": 9056,
    "వ్యవహారాల</w>": 9057,
    "వ్యవస": 9058,
    "వ్యవసాయం</w>": 9059,
    "వ్యయ": 9060,
    "వ్యయంతో</w>": 9061,
    "వైవిధ్యమైనది.</w>": 9062,
    "వైవిధ్యమైన": 9063,
    "వైవిధ్యమైనవి.</w>": 9064,
    "వైవిధ్యం</w>": 9065,
    "వైశాల్యంలో</w>": 9066,
    "వైపో": 9067,
    "వైపోతు": 9068,
    "వైపోతున్న": 9069,
    "వైపోతున్నప్పటికీ,</w>": 9070,
    "వైపా": 9071,
    "వైపాక్ష": 9072,
    "వైపాక్షిక</w>": 9073,
    "వైప": 9074,
    "వైపులా</w>": 9075,
    "వైన</w>": 9076,
    "వేదాలు,</w>": 9077,
    "వేదాలలో</w>": 9078,
    "వేరత": 9079,
    "వేరతాయని</w>": 9080,
    "వెల్లూరు</w>": 9081,
    "వెల్లడ": 9082,
    "వెల్లడించింది.</w>": 9083,
    "వెబ్</w>": 9084,
    "వెలు": 9085,
    "వెలుపల": 9086,
    "వెలుపలి</w>": 9087,
    "వెబ్": 9088,
    "వెబ్సైట్లు</w>": 9089,
    "వృక్": 9090,
    "వృక్షం:</w>": 9091,
    "వూపి": 9092,
    "వూపింది.</w>": 9093,
    "వున్": 9094,
    "వున్నా,</w>": 9095,
    "వుంట": 9096,
    "వుంటుంది.</w>": 9097,
    "వీంద్ర": 9098,
    "వీంద్రనాథ": 9099,
    "వీంద్రనాథ్</w>": 9100,
    "విస్తీర్ణం</w>": 9101,
    "విస్తీర్ణ": 9102,
    "విస్తీర్ణంతో</w>": 9103,
    "విస్తర": 9104,
    "విస్తరించిన</w>": 9105,
    "విలువైన</w>": 9106,
    "విలువల": 9107,
    "విలువలను</w>": 9108,
    "విధించిన</w>": 9109,
    "విధి</w>": 9110,
    "విధానాలతో</w>": 9111,
    "విధంగా</w>": 9112,
    "విద్యను</w>": 9113,
    "విస్తృతంగా</w>": 9114,
    "విసభా</w>": 9115,
    "విశ్వామిత్ర,</w>": 9116,
    "విశ్వనాథన్</w>": 9117,
    "విశేషం.</w>": 9118,
    "విశిష్ట</w>": 9119,
    "విశాఖపట్నం</w>": 9120,
    "వివాదం</w>": 9121,
    "వివరాలు</w>": 9122,
    "విల్ల": 9123,
    "విల్లాయి.</w>": 9124,
    "విర్": 9125,
    "విర్భవ": 9126,
    "విర్భవించింది.</w>": 9127,
    "విమాన</w>": 9128,
    "విమాన": 9129,
    "విమానాశ్రయాలు</w>": 9130,
    "విభజ": 9131,
    "విభజితమై</w>": 9132,
    "విఫ": 9133,
    "విఫల</w>": 9134,
    "వినాయ": 9135,
    "వినాయక</w>": 9136,
    "వితంలో</w>": 9137,
    "విడి": 9138,
    "విడిపోయింది.</w>": 9139,
    "విజ్": 9140,
    "విజ్ఞా": 9141,
    "విజ్ఞాన</w>": 9142,
    "విజ": 9143,
    "విజన్</w>": 9144,
    "వింద్</w>": 9145,
    "వి).</w>": 9146,
    "వాహనం": 9147,
    "వాహనంలో</w>": 9148,
    "వాహక</w>": 9149,
    "వారసత్వానికి</w>": 9150,
    "వారసత్వంగా</w>": 9151,
    "వారసత్వ</w>": 9152,
    "వారసత్": 9153,
    "వారసత్వా": 9154,
    "వారసత్వాన్ని": 9155,
    "వారసత్వాన్ని,</w>": 9156,
    "వారు</w>": 9157,
    "వారిస్తారు.</w>": 9158,
    "వారిగా</w>": 9159,
    "వారి</w>": 9160,
    "వారంట": 9161,
    "వారంటో,</w>": 9162,
    "వాణిజ్యపరంగా</w>": 9163,
    "వాహనాలు</w>": 9164,
    "వాసాలు</w>": 9165,
    "వాన</w>": 9166,
    "వాద</w>": 9167,
    "వాద": 9168,
    "వాదన</w>": 9169,
    "వాటిలో</w>": 9170,
    "వాటి": 9171,
    "వాటిల్ల": 9172,
    "వాటిల్లింది.</w>": 9173,
    "వహించే</w>": 9174,
    "వహించింది.</w>": 9175,
    "వహించి</w>": 9176,
    "వహర్": 9177,
    "వహర్‌లాల్</w>": 9178,
    "వలెనే</w>": 9179,
    "వలి</w>": 9180,
    "వర్గాలు</w>": 9181,
    "వర్గాలలోను</w>": 9182,
    "వర్షాలు</w>": 9183,
    "వర్షం\",</w>": 9184,
    "వర్ధ": 9185,
    "వర్ధిల్లిన</w>": 9186,
    "వర్తి</w>": 9187,
    "వర్తి": 9188,
    "వర్తిత్వ": 9189,
    "వర్తిత్వం</w>": 9190,
    "వర్ణ": 9191,
    "వర్ణించబడింది.</w>": 9192,
    "వర్గీ": 9193,
    "వర్గీకరణ": 9194,
    "వర్గీకరణలో</w>": 9195,
    "వరోధాల</w>": 9196,
    "వరలోనే</w>": 9197,
    "వరకూ</w>": 9198,
    "వన్యప్రాణుల</w>": 9199,
    "వత్‌</w>": 9200,
    "వతాలతో</w>": 9201,
    "వజ్రాలు,</w>": 9202,
    "వచ్చినవ": 9203,
    "వచ్చినవారి</w>": 9204,
    "వచ్చిన": 9205,
    "వచ్చినది": 9206,
    "వచ్చినది,</w>": 9207,
    "వచ్చి,</w>": 9208,
    "వచ్చు.</w>": 9209,
    "వంటలు</w>": 9210,
    "వంటలకు</w>": 9211,
    "వంటక": 9212,
    "వంటకాలు</w>": 9213,
    "వంట</w>": 9214,
    "వంశంలోని</w>": 9215,
    "వం,</w>": 9216,
    "వైనది.</w>": 9217,
    "వుని</w>": 9218,
    "వహిస్తాయి.</w>": 9219,
    "వల</w>": 9220,
    "వరు": 9221,
    "వరుసగా</w>": 9222,
    "వరి.</w>": 9223,
    "వద్": 9224,
    "వద్ద</w>": 9225,
    "వదిన": 9226,
    "వదినాలు,</w>": 9227,
    "వంద": 9228,
    "వందేమాతరం....</w>": 9229,
    "వ.</w>": 9230,
    "ళ్ళు</w>": 9231,
    "ళ్ళపాటు</w>": 9232,
    "ళవింపబడి</w>": 9233,
    "ళ్ల</w>": 9234,
    "ళుక్యులు,</w>": 9235,
    "ళికలు</w>": 9236,
    "ళనా": 9237,
    "ళనాడుకు</w>": 9238,
    "ల్లయి": 9239,
    "ల్లయిన</w>": 9240,
    "ల్పం</w>": 9241,
    "ల్ప</w>": 9242,
    "ల్లు.</w>": 9243,
    "లౌకిక</w>": 9244,
    "లౌకిక,</w>": 9245,
    "లోక్‌సభలో</w>": 9246,
    "లోక్‌సభ</w>": 9247,
    "లోప": 9248,
    "లోపం</w>": 9249,
    "లోన్": 9250,
    "లోన్ల": 9251,
    "లోన్లీ</w>": 9252,
    "లోను": 9253,
    "లోను,</w>": 9254,
    "లోచ": 9255,
    "లోచన</w>": 9256,
    "లోక": 9257,
    "లోకి</w>": 9258,
    "లో)</w>": 9259,
    "లేని": 9260,
    "లేనివి.</w>": 9261,
    "లేదు</w>": 9262,
    "లెజి": 9263,
    "లెజిస్లేచర్,</w>": 9264,
    "లెక్": 9265,
    "లెక్కల": 9266,
    "లెక్కలు</w>": 9267,
    "లెంద": 9268,
    "లెందర": 9269,
    "లెందరో</w>": 9270,
    "లుగుత": 9271,
    "లుగుతాయి.</w>": 9272,
    "లుపుతూ</w>": 9273,
    "లిసింది.</w>": 9274,
    "లివిజన్</w>": 9275,
    "లియా": 9276,
    "లియాండ": 9277,
    "లియాండర్</w>": 9278,
    "లిపావ": 9279,
    "లిపావో</w>": 9280,
    "లిన</w>": 9281,
    "లిథ": 9282,
    "లిథిక్</w>": 9283,
    "లితంగా</w>": 9284,
    "లిచిన</w>": 9285,
    "లిచింది.</w>": 9286,
    "లిచ": 9287,
    "లిచారు.</w>": 9288,
    "లి;</w>": 9289,
    "లాభ": 9290,
    "లాభదాయ": 9291,
    "లాభదాయక": 9292,
    "లాభదాయకమే": 9293,
    "లాభదాయకమేన": 9294,
    "లాభదాయకమేననీ": 9295,
    "లాభదాయకమేననీ,</w>": 9296,
    "లాంట": 9297,
    "లాంటి</w>": 9298,
    "లమానం:</w>": 9299,
    "లభ్యమైన</w>": 9300,
    "లపై</w>": 9301,
    "లఘు</w>": 9302,
    "లక్షల</w>": 9303,
    "లక్షణా": 9304,
    "లక్షణాన్ని</w>": 9305,
    "లక్ష.</w>": 9306,
    "లకత్తా": 9307,
    "లకత్తా),</w>": 9308,
    "లంకెలు</w>": 9309,
    "లంపు": 9310,
    "లంపుతో</w>": 9311,
    "లంకార": 9312,
    "లంకార</w>": 9313,
    "లం:</w>": 9314,
    "లికేననీ</w>": 9315,
    "లాలు</w>": 9316,
    "లబె": 9317,
    "లబెట్ట": 9318,
    "లబెట్టుకున్నాయి.</w>": 9319,
    "లక్": 9320,
    "లక్షణాలు</w>": 9321,
    "ల,</w>": 9322,
    "ర‌వాణా</w>": 9323,
    "ర్షణను</w>": 9324,
    "ర్తా</w>": 9325,
    "ర్శకుడైన</w>": 9326,
    "ర్వ్యవస్థీకరణ</w>": 9327,
    "ర్యమ": 9328,
    "ర్యము</w>": 9329,
    "ర్దూ": 9330,
    "ర్దూ;</w>": 9331,
    "ర్ణా": 9332,
    "ర్ణాటక</w>": 9333,
    "ర్జె": 9334,
    "ర్జెన్": 9335,
    "ర్జెన్సీ</w>": 9336,
    "ర్జాలు</w>": 9337,
    "ర్చు": 9338,
    "ర్చుతో</w>": 9339,
    "ర్చిన</w>": 9340,
    "ర్చ": 9341,
    "ర్చుగల్,</w>": 9342,
    "ర్కొ": 9343,
    "ర్కొంటు": 9344,
    "ర్కొంటున్నది.</w>": 9345,
    "ర్).</w>": 9346,
    "రోడ్డుకు</w>": 9347,
    "రోడ": 9348,
    "రోడ్ల</w>": 9349,
    "రోః</w>": 9350,
    "రొట్ట": 9351,
    "రొట్టెల</w>": 9352,
    "రైల్వేశాఖకు</w>": 9353,
    "రైల్వేశాఖ</w>": 9354,
    "రైళ్ల</w>": 9355,
    "రైలు.</w>": 9356,
    "రేబ": 9357,
    "రేబియా</w>": 9358,
    "రెండువైపులా</w>": 9359,
    "రెండోది.</w>": 9360,
    "రెండో</w>": 9361,
    "రెన్న": 9362,
    "రెన్నో</w>": 9363,
    "రూపాంతరం</w>": 9364,
    "రూపాంతర": 9365,
    "రూపాంతరమే.</w>": 9366,
    "రూపొంద": 9367,
    "రూపొందింది.</w>": 9368,
    "రూపం": 9369,
    "రూపంలో)</w>": 9370,
    "రుష్కుల</w>": 9371,
    "రునా": 9372,
    "రునామ": 9373,
    "రునామాలు</w>": 9374,
    "రుదుగా</w>": 9375,
    "రుచు": 9376,
    "రుచులు,</w>": 9377,
    "రుగా</w>": 9378,
    "రు,</w>": 9379,
    "రీ;</w>": 9380,
    "రిస్తారు</w>": 9381,
    "రియా": 9382,
    "రియా;</w>": 9383,
    "రిట్లు</w>": 9384,
    "రిట్ల": 9385,
    "రిట్లలో</w>": 9386,
    "రిగా</w>": 9387,
    "రిగ": 9388,
    "రిగే</w>": 9389,
    "రాష్ట్రపతులు</w>": 9390,
    "రాష్ట్రపతి,</w>": 9391,
    "రాష్ట్రపతి": 9392,
    "రాష్ట్రపతిచే</w>": 9393,
    "రాష్ట్రాలుగా,</w>": 9394,
    "రాష్ట్రాలు:</w>": 9395,
    "రాష్ట్రానికి</w>": 9396,
    "రాష్ట్రపు</w>": 9397,
    "రాజ్యాంగ</w>": 9398,
    "రాజ్యాలను</w>": 9399,
    "రాజకీయాల్లో</w>": 9400,
    "రాజకీయాలు</w>": 9401,
    "రాజు.</w>": 9402,
    "రాజయ": 9403,
    "రాజయం</w>": 9404,
    "రాజధాన": 9405,
    "రాజధానులు,</w>": 9406,
    "రాసిన</w>": 9407,
    "రాయల": 9408,
    "రాయల్</w>": 9409,
    "రామ": 9410,
    "రామాయణం</w>": 9411,
    "రాతి": 9412,
    "రాతియుగ": 9413,
    "రాతియుగపు</w>": 9414,
    "రాణ": 9415,
    "రాణించలేదు.</w>": 9416,
    "రాఠ": 9417,
    "రాఠీ;</w>": 9418,
    "రాటం</w>": 9419,
    "రాచీ": 9420,
    "రాచీ,</w>": 9421,
    "రా.</w>": 9422,
    "రహదారులు</w>": 9423,
    "రహదారులను</w>": 9424,
    "రబద్ధం</w>": 9425,
    "రతవర్షం\",</w>": 9426,
    "రతనా": 9427,
    "రతనాట": 9428,
    "రతనాట్యం,</w>": 9429,
    "రచయితలెందరో</w>": 9430,
    "రచయిత.</w>": 9431,
    "రకాలుగా</w>": 9432,
    "రకాలు.</w>": 9433,
    "రంగాల్లో</w>": 9434,
    "రంగాల</w>": 9435,
    "రంగానికి</w>": 9436,
    "రంగంలో</w>": 9437,
    "రంగం</w>": 9438,
    "రే</w>": 9439,
    "రూ</w>": 9440,
    "రీతులు</w>": 9441,
    "రీ</w>": 9442,
    "రవేరతాయని</w>": 9443,
    "రవీంద్రనాథ్</w>": 9444,
    "రతు": 9445,
    "రతుడు": 9446,
    "రతుడు\".</w>": 9447,
    "రక్షరా": 9448,
    "రక్షరాస్యత,</w>": 9449,
    "రక్ష": 9450,
    "రక్షణ</w>": 9451,
    "రకు,</w>": 9452,
    "ర,</w>": 9453,
    "యోలిథిక్</w>": 9454,
    "యోచన": 9455,
    "యోచనలో</w>": 9456,
    "యూదు": 9457,
    "యూదులు,</w>": 9458,
    "యుగం</w>": 9459,
    "యుద్ధం</w>": 9460,
    "యుద్ధ": 9461,
    "యుద్ధాలు</w>": 9462,
    "యుడైన</w>": 9463,
    "యుక్": 9464,
    "యుక్త</w>": 9465,
    "యు.": 9466,
    "యు.ఏ.": 9467,
    "యు.ఏ.ఇ": 9468,
    "యు.ఏ.ఇ,</w>": 9469,
    "యిస్తారు.</w>": 9470,
    "యింది</w>": 9471,
    "యాత్రికులు</w>": 9472,
    "యాత్రలతో,</w>": 9473,
    "యావత్‌</w>": 9474,
    "యాణ": 9475,
    "యాణికుల</w>": 9476,
    "యాటక</w>": 9477,
    "యథాతథ</w>": 9478,
    "యం:</w>": 9479,
    "యునైటెడ్</w>": 9480,
    "యము": 9481,
    "యమున": 9482,
    "యమున,</w>": 9483,
    "మౌఖ": 9484,
    "మౌఖికమైనది.</w>": 9485,
    "మోన్న": 9486,
    "మోన్నత</w>": 9487,
    "మొదలైనవి</w>": 9488,
    "మొదలైనవి.</w>": 9489,
    "మొదలైనటు": 9490,
    "మొదలైనటువంటి</w>": 9491,
    "మొదలగువారు</w>": 9492,
    "మొదలగున": 9493,
    "మొదలగునవి).</w>": 9494,
    "మొదలవుతుంది.</w>": 9495,
    "మొదటిసారిగా</w>": 9496,
    "మొదటిది</w>": 9497,
    "మొగలు": 9498,
    "మొగలులు</w>": 9499,
    "మొగల": 9500,
    "మొగలు</w>": 9501,
    "మైద": 9502,
    "మైదానంతో</w>": 9503,
    "మైథి": 9504,
    "మైథిలి;</w>": 9505,
    "మైత్ర": 9506,
    "మైత్రి</w>": 9507,
    "మైంది.</w>": 9508,
    "మేళవింపబడి</w>": 9509,
    "మేరోః</w>": 9510,
    "మేరకు,</w>": 9511,
    "మేనక": 9512,
    "మేనకల</w>": 9513,
    "మెహర్గర్,</w>": 9514,
    "మూడే.</w>": 9515,
    "మూడవ</w>": 9516,
    "మూలాలు</w>": 9517,
    "మూల</w>": 9518,
    "ముఖ్యతను</w>": 9519,
    "ముంబైలో</w>": 9520,
    "ముంబాయి</w>": 9521,
    "ములు,</w>": 9522,
    "మురు,</w>": 9523,
    "ముద్ర": 9524,
    "ముద్ర:</w>": 9525,
    "ముత్య": 9526,
    "ముత్యం.</w>": 9527,
    "ముడ్": 9528,
    "ముడ్చుకు": 9529,
    "ముడ్చుకుంది.</w>": 9530,
    "ముంద": 9531,
    "ముందుగా</w>": 9532,
    "మీర్జాలు</w>": 9533,
    "మీదుగా</w>": 9534,
    "మీజ": 9535,
    "మీజ్</w>": 9536,
    "మిస్తున్నాయి.</w>": 9537,
    "మిస్తున్న</w>": 9538,
    "మితో</w>": 9539,
    "మితికి</w>": 9540,
    "మించే": 9541,
    "మించేది</w>": 9542,
    "మించుకు": 9543,
    "మించుకున్నారు.</w>": 9544,
    "మిడి</w>": 9545,
    "మిగి": 9546,
    "మిగిలిన</w>": 9547,
    "మాలిక</w>": 9548,
    "మార్గాలే.</w>": 9549,
    "మార్గాలలో</w>": 9550,
    "మార్గాలను</w>": 9551,
    "మార్గము</w>": 9552,
    "మార్గంలో</w>": 9553,
    "మార్గం</w>": 9554,
    "మారుమూల</w>": 9555,
    "మారుడు": 9556,
    "మారుడు.</w>": 9557,
    "మార్తె</w>": 9558,
    "మార్కెట్</w>": 9559,
    "మార్,</w>": 9560,
    "మారింది.</w>": 9561,
    "మానవుని</w>": 9562,
    "మానం:</w>": 9563,
    "మాన,</w>": 9564,
    "మాట్లాడే</w>": 9565,
    "మాట్లాడే:</w>": 9566,
    "మామిడి</w>": 9567,
    "మాది": 9568,
    "మాదిరిగా</w>": 9569,
    "మాణ</w>": 9570,
    "మాండ": 9571,
    "మాండమ": 9572,
    "మాండమస్,</w>": 9573,
    "మహిళా</w>": 9574,
    "మహిళల</w>": 9575,
    "మహాసముద్రం</w>": 9576,
    "మహాసముద్రం,</w>": 9577,
    "మహాభారతం,</w>": 9578,
    "మసాలాలు,</w>": 9579,
    "మలయాళం;</w>": 9580,
    "మలయాళం,</w>": 9581,
    "మలవుతుంది.</w>": 9582,
    "మలము</w>": 9583,
    "మర్రిచెట్టు.</w>": 9584,
    "మర)</w>": 9585,
    "మయన్": 9586,
    "మయన్మార్,</w>": 9587,
    "మనోరమ</w>": 9588,
    "మనమే</w>": 9589,
    "మనదేశంలో</w>": 9590,
    "మన.</w>": 9591,
    "మధ్యవర్తిత్వం</w>": 9592,
    "మధ్యల,</w>": 9593,
    "మధ్యకాలంలో</w>": 9594,
    "మధ్య,</w>": 9595,
    "మద్రాసు),</w>": 9596,
    "మతాలు</w>": 9597,
    "మతాలు:</w>": 9598,
    "మతాలు,</w>": 9599,
    "మతాలతో</w>": 9600,
    "మతాలకు</w>": 9601,
    "మతాల</w>": 9602,
    "మతస్తులు</w>": 9603,
    "మతములు,</w>": 9604,
    "మతమ": 9605,
    "మతములకు</w>": 9606,
    "మణద": 9607,
    "మణదారులు,</w>": 9608,
    "మంత్రులచే</w>": 9609,
    "మంత్రివర్గం</w>": 9610,
    "మంత్రిత్వ</w>": 9611,
    "మంజ": 9612,
    "మంజూరు</w>": 9613,
    "మ్మదాబాదు</w>": 9614,
    "మెట్రోపాలిటన్</w>": 9615,
    "మూ</w>": 9616,
    "మీ</w>": 9617,
    "మినహాయించి,</w>": 9618,
    "మికి</w>": 9619,
    "మించినందువల్ల</w>": 9620,
    "మించిన</w>": 9621,
    "మాల్దీవులు,</w>": 9622,
    "మాతృ</w>": 9623,
    "మలు,</w>": 9624,
    "మలిపావో</w>": 9625,
    "మరెన్నో</w>": 9626,
    "మరాఠీ;</w>": 9627,
    "మన</w>": 9628,
    "మతిని</w>": 9629,
    "మతం,</w>": 9630,
    "మణి": 9631,
    "మణిపు": 9632,
    "మణిపురి.</w>": 9633,
    "మంత": 9634,
    "మంతట": 9635,
    "మంతటా</w>": 9636,
    "మంచి</w>": 9637,
    "మ.</w>": 9638,
    "భౌత": 9639,
    "భౌతిక,</w>": 9640,
    "భూటాన్</w>": 9641,
    "భూటాన్,</w>": 9642,
    "భూప": 9643,
    "భూపతి,</w>": 9644,
    "భిన్న": 9645,
    "భిన్నత్వ": 9646,
    "భిన్నత్వాలు</w>": 9647,
    "భాషలలోను,</w>": 9648,
    "భాషలతో,</w>": 9649,
    "భాషలు.</w>": 9650,
    "భాష,</w>": 9651,
    "భావిస్తున్నది.</w>": 9652,
    "భావిస్తారు.</w>": 9653,
    "భావిస్తారు,</w>": 9654,
    "భారతీయులు</w>": 9655,
    "భారతీయుల</w>": 9656,
    "భారతీయుడైన</w>": 9657,
    "భారతదేశం,</w>": 9658,
    "భారతదేశం\"</w>": 9659,
    "భారతదేశమే.</w>": 9660,
    "భారతదేశము</w>": 9661,
    "భారత,</w>": 9662,
    "భార‌తంలో</w>": 9663,
    "భార్తదేశపు</w>": 9664,
    "భారతం": 9665,
    "భారతంలో,</w>": 9666,
    "భాగం.</w>": 9667,
    "భాగం,</w>": 9668,
    "భాగస్వాములు.</w>": 9669,
    "భాగమేనని</w>": 9670,
    "భాషా,</w>": 9671,
    "భాజ": 9672,
    "భాజపా</w>": 9673,
    "భాగే": 9674,
    "భాగే,</w>": 9675,
    "భవించినవే.</w>": 9676,
    "భక్తి,</w>": 9677,
    "భక్తి": 9678,
    "భక్తిశ్రద్ధలతో,</w>": 9679,
    "భింబెట్కా</w>": 9680,
    "భరతనాట్యం,</w>": 9681,
    "భంగ": 9682,
    "భంగం</w>": 9683,
    "బ్రిటీష్</w>": 9684,
    "బ్రిటీషు</w>": 9685,
    "బ్రెడ్,</w>": 9686,
    "బ్రాడ్‌గేజి</w>": 9687,
    "బ్రహ్మపుత్ర,</w>": 9688,
    "బ్డ": 9689,
    "బ్డే</w>": 9690,
    "బౌద్ధులు</w>": 9691,
    "బౌద్ధ,</w>": 9692,
    "బెంగాల్</w>": 9693,
    "బెంగాలీ;</w>": 9694,
    "బెంగాలీ.</w>": 9695,
    "బెంగుళూరు</w>": 9696,
    "బుని": 9697,
    "బునిస్తున్నారు.</w>": 9698,
    "బుక్</w>": 9699,
    "బిన్న": 9700,
    "బిన్నత్": 9701,
    "బిన్నత్వంలో</w>": 9702,
    "బిజ": 9703,
    "బిజినెస్</w>": 9704,
    "బాబ్డే</w>": 9705,
    "బాగా</w>": 9706,
    "బాంబ": 9707,
    "బాంబే),</w>": 9708,
    "బహుమతి</w>": 9709,
    "బహుభాషా,</w>": 9710,
    "బహు</w>": 9711,
    "బహాయీలు</w>": 9712,
    "బడతాయి.</w>": 9713,
    "బంగ్లాదేశ్‌లలో</w>": 9714,
    "బంగ్లాదేశ్‌ల</w>": 9715,
    "బంగ్లాదే": 9716,
    "బంగ్లాదేశ్,</w>": 9717,
    "బంగాళాఖాతం</w>": 9718,
    "బ్యాడ్మింటన్‌</w>": 9719,
    "బొమ్మ.</w>": 9720,
    "బెల్</w>": 9721,
    "బహిరంగంగా</w>": 9722,
    "బడ్": 9723,
    "బడ్జ": 9724,
    "బడ్జెట్</w>": 9725,
    "బడింది.</w>": 9726,
    "బండ": 9727,
    "బండ్లను</w>": 9728,
    "ఫ్రాన్స్,</w>": 9729,
    "ఫుట్‌బాల్‌</w>": 9730,
    "ఫలితంగా</w>": 9731,
    "ఫలం:</w>": 9732,
    "ప్లానెట్</w>": 9733,
    "ప్లగ": 9734,
    "ప్లగ్గులు:</w>": 9735,
    "ప్రారంభించాలనే</w>": 9736,
    "ప్రారంభించాలని</w>": 9737,
    "ప్రారంభమైన</w>": 9738,
    "ప్రార్థనలలో</w>": 9739,
    "ప్రాయమైనది.</w>": 9740,
    "ప్రాయపడు": 9741,
    "ప్రాయపడుతు": 9742,
    "ప్రాయపడుతున్నారు.</w>": 9743,
    "ప్రాచ్య</w>": 9744,
    "ప్రాంతాలు.</w>": 9745,
    "ప్రాంతాలతో</w>": 9746,
    "ప్రాంతాలకు</w>": 9747,
    "ప్రాంతాల</w>": 9748,
    "ప్రాముఖ్యతను</w>": 9749,
    "ప్రాదేశ": 9750,
    "ప్రాదేశిక</w>": 9751,
    "ప్రాజా": 9752,
    "ప్రాజాస్వామ్య</w>": 9753,
    "ప్రాచు": 9754,
    "ప్రాచుర్యము</w>": 9755,
    "ప్రస్తుత</w>": 9756,
    "ప్రయోజనాలు</w>": 9757,
    "ప్రయోజనకర": 9758,
    "ప్రయోజనకరమేనని</w>": 9759,
    "ప్రముఖమైనదే": 9760,
    "ప్రముఖమైనదే.</w>": 9761,
    "ప్రముఖమైనది</w>": 9762,
    "ప్రభుత్వాలన్నీ</w>": 9763,
    "ప్రభుత్వంచ": 9764,
    "ప్రభుత్వంచే</w>": 9765,
    "ప్రభుత్వంలో</w>": 9766,
    "ప్రభుత్వం,</w>": 9767,
    "ప్రపంచంలోనే</w>": 9768,
    "ప్రపంచదేశాలలో</w>": 9769,
    "ప్రధానమంత్రిని</w>": 9770,
    "ప్రధానమంత్రికి</w>": 9771,
    "ప్రదేశ్‌</w>": 9772,
    "ప్రదేశే,</w>": 9773,
    "ప్రత్యేకమైన</w>": 9774,
    "ప్రత్యక్ష": 9775,
    "ప్రత్యక్షంగా</w>": 9776,
    "ప్రతిపాదనల్లో</w>": 9777,
    "ప్రతిపక్షమైంది.</w>": 9778,
    "ప్రతిపక్షం</w>": 9779,
    "ప్రతిని": 9780,
    "ప్రతినిధి": 9781,
    "ప్రతినిధిచే</w>": 9782,
    "ప్రజాస్వామ్య,</w>": 9783,
    "ప్రజలచే</w>": 9784,
    "ప్రకారం,</w>": 9785,
    "ప్రాసెస్</w>": 9786,
    "ప్రాబల్యం</w>": 9787,
    "ప్రయాణికుల</w>": 9788,
    "ప్రమాణ</w>": 9789,
    "ప్రదేశాల</w>": 9790,
    "ప్రథ": 9791,
    "ప్రథమ</w>": 9792,
    "ప్రతి</w>": 9793,
    "ప్రణా": 9794,
    "ప్రణాళికలు</w>": 9795,
    "ప్రజ": 9796,
    "ప్రజలకు</w>": 9797,
    "ప్రగ": 9798,
    "ప్రగతిని</w>": 9799,
    "ప్రఖ్య": 9800,
    "ప్రఖ్యాతి</w>": 9801,
    "ప్పటికీ</w>": 9802,
    "ప్పటి</w>": 9803,
    "ప్పిలేట్</w>": 9804,
    "ప్పించుకోవడానికి,</w>": 9805,
    "ప్త": 9806,
    "ప్తులకాలం</w>": 9807,
    "పౌర</w>": 9808,
    "పోస్టలు</w>": 9809,
    "పోషకాహార</w>": 9810,
    "పోలో,</w>": 9811,
    "పోర్చుగల్,</w>": 9812,
    "పోరాటం</w>": 9813,
    "పోతూ</w>": 9814,
    "పోటీ": 9815,
    "పోటీలలో</w>": 9816,
    "పొందినది.</w>": 9817,
    "పొడి": 9818,
    "పొడిగ": 9819,
    "పొడిగించుకోవచ్చని</w>": 9820,
    "పేర్కొన్నాయి.</w>": 9821,
    "పేర్కొనవ": 9822,
    "పేర్కొనవచ్చు.</w>": 9823,
    "పేర్కొంటు": 9824,
    "పేర్కొంటున్నారు.</w>": 9825,
    "పేరుమీదుగా</w>": 9826,
    "పేరుతో</w>": 9827,
    "పేస్,మహేష్</w>": 9828,
    "పేదర": 9829,
    "పేదరికం,</w>": 9830,
    "పే,</w>": 9831,
    "పెద్దప": 9832,
    "పెద్దపులి</w>": 9833,
    "పెద్దగా</w>": 9834,
    "పెట": 9835,
    "పెట్రోలియం,</w>": 9836,
    "పూర్వపు</w>": 9837,
    "పూర్వం</w>": 9838,
    "పూణ": 9839,
    "పూణే</w>": 9840,
    "పూడి": 9841,
    "పూడి,</w>": 9842,
    "పురుషులు</w>": 9843,
    "పురుషులకు</w>": 9844,
    "పురుషుల</w>": 9845,
    "పుట్టిల్లు.</w>": 9846,
    "పుట్టిని": 9847,
    "పుట్టినిల్లయిన</w>": 9848,
    "పుట్టుపూర్వోత్తరాలు</w>": 9849,
    "పుట్టాయి.</w>": 9850,
    "పుష్పం:</w>": 9851,
    "పున</w>": 9852,
    "పున": 9853,
[...]
