{
  "version": "1.0",
  "truncation": null,
  "padding": null,
  "added_tokens": [
    {
      "id": 0,
      "content": "<unk>",
      "single_word": false,
      "lstrip": false,
      "rstrip": false,
      "normalized": false,
      "special": true
    }
  ],
  "normalizer": {
    "type": "NFKC"
  },
  "pre_tokenizer": {
    "type": "Metaspace",
    "replacement": "▁",
    "prepend_scheme": "never",
    "split": true
  },
  "post_processor": null,
  "decoder": {
    "type": "Metaspace",
    "replacement": "▁",
    "prepend_scheme": "never",
    "split": true
  },
  "model": {
    "type": "BPE",
    "dropout": null,
    "unk_token": "<unk>",
    "continuing_subword_prefix": null,
    "end_of_word_suffix": null,
    "fuse_unk": false,
    "byte_fallback": true,
    "ignore_merges": false,
    "vocab": {
      "<unk>": 0,
      "\n": 1,
      "!": 2,
      "\"": 3,
      "#": 4,
      "$": 5,
      "%": 6,
      "&": 7,
      "'": 8,
      "(": 9,
      ")": 10,
      "*": 11,
      "+": 12,
      ",": 13,
      "-": 14,
      ".": 15,
      "/": 16,
      "0": 17,
      "1": 18,
      "2": 19,
      "3": 20,
      "4": 21,
      "5": 22,
      "6": 23,
      "7": 24,
      "8": 25,
      "9": 26,
      ":": 27,
      ";": 28,
      "<": 29,
      "=": 30,
      ">": 31,
      "?": 32,
      "@": 33,
      "A": 34,
      "B": 35,
      "C": 36,
      "D": 37,
      "E": 38,
      "F": 39,
      "G": 40,
      "H": 41,
      "I": 42,
      "J": 43,
      "K": 44,
      "L": 45,
      "M": 46,
      "N": 47,
      "O": 48,
      "P": 49,
      "Q": 50,
      "R": 51,
      "S": 52,
      "T": 53,
      "U": 54,
      "V": 55,
      "W": 56,
      "X": 57,
      "Y": 58,
      "Z": 59,
      "[": 60,
      "\\": 61,
      "]": 62,
      "^": 63,
      "_": 64,
      "`": 65,
      "a": 66,
      "b": 67,
      "c": 68,
      "d": 69,
      "e": 70,
      "f": 71,
      "g": 72,
      "h": 73,
      "i": 74,
      "j": 75,
      "k": 76,
      "l": 77,
      "m": 78,
      "n": 79,
      "o": 80,
      "p": 81,
      "q": 82,
      "r": 83,
      "s": 84,
      "t": 85,
      "u": 86,
      "v": 87,
      "w": 88,
      "x": 89,
      "y": 90,
      "z": 91,
      "{": 92,
      "|": 93,
      "}": 94,
      "~": 95,
      "£": 96,
      "«": 97,
      "°": 98,
      "·": 99,
      "»": 100,
      "Ö": 101,
      "ß": 102,
      "á": 103,
      "â": 104,
      "æ": 105,
      "ç": 106,
      "è": 107,
      "é": 108,
      "í": 109,
      "ñ": 110,
      "ö": 111,
      "ü": 112,
      "ā": 113,
      "ī": 114,
      "İ": 115,
      "Ś": 116,
      "ś": 117,
      "ţ": 118,
      "ū": 119,
      "ș": 120,
      "ə": 121,
      "ɦ": 122,
      "ɪ": 123,
      "ɾ": 124,
      "ʊ": 125,
      "ʼ": 126,
      "ˈ": 127,
      "ː": 128,
      "́": 129,
      "ί": 130,
      "α": 131,
      "δ": 132,
      "θ": 133,
      "ν": 134,
      "ο": 135,
      "π": 136,
      "ς": 137,
      "ό": 138,
      "ँ": 139,
      "ं": 140,
      "ः": 141,
      "अ": 142,
      "आ": 143,
      "इ": 144,
      "ई": 145,
      "उ": 146,
      "ऊ": 147,
      "ऋ": 148,
      "ऍ": 149,
      "ए": 150,
      "ऐ": 151,
      "ऑ": 152,
      "ओ": 153,
      "औ": 154,
      "क": 155,
      "ख": 156,
      "ग": 157,
      "घ": 158,
      "ङ": 159,
      "च": 160,
      "छ": 161,
      "ज": 162,
      "झ": 163,
      "ञ": 164,
      "ट": 165,
      "ठ": 166,
      "ड": 167,
      "ढ": 168,
      "ण": 169,
      "त": 170,
      "थ": 171,
      "द": 172,
      "ध": 173,
      "न": 174,
      "प": 175,
      "फ": 176,
      "ब": 177,
      "भ": 178,
      "म": 179,
      "य": 180,
      "र": 181,
      "ल": 182,
      "ळ": 183,
      "व": 184,
      "श": 185,
      "ष": 186,
      "स": 187,
      "ह": 188,
      "़": 189,
      "ा": 190,
      "ि": 191,
      "ी": 192,
      "ु": 193,
      "ू": 194,
      "ृ": 195,
      "े": 196,
      "ै": 197,
      "ॉ": 198,
      "ॊ": 199,
      "ो": 200,
      "ौ": 201,
      "्": 202,
      "।": 203,
      "०": 204,
      "१": 205,
      "२": 206,
      "३": 207,
      "४": 208,
      "५": 209,
      "६": 210,
      "७": 211,
      "८": 212,
      "९": 213,
      "॰": 214,
      "ঁ": 215,
      "ং": 216,
      "ঃ": 217,
      "অ": 218,
      "আ": 219,
      "ই": 220,
      "ঈ": 221,
      "উ": 222,
      "ঊ": 223,
      "ঋ": 224,
      "এ": 225,
      "ঐ": 226,
      "ও": 227,
      "ঔ": 228,
      "ক": 229,
      "খ": 230,
      "গ": 231,
      "ঘ": 232,
      "ঙ": 233,
      "চ": 234,
      "ছ": 235,
      "জ": 236,
      "ঝ": 237,
      "ঞ": 238,
      "ট": 239,
      "ঠ": 240,
      "ড": 241,
      "ঢ": 242,
      "ণ": 243,
      "ত": 244,
      "থ": 245,
      "দ": 246,
      "ধ": 247,
      "ন": 248,
      "প": 249,
      "ফ": 250,
      "ব": 251,
      "ভ": 252,
      "ম": 253,
      "য": 254,
      "র": 255,
      "ল": 256,
      "শ": 257,
      "ষ": 258,
      "স": 259,
      "হ": 260,
      "়": 261,
      "া": 262,
      "ি": 263,
      "ী": 264,
      "ু": 265,
      "ূ": 266,
      "ৃ": 267,
      "ে": 268,
      "ৈ": 269,
      "ো": 270,
      "ৌ": 271,
      "্": 272,
      "ৎ": 273,
      "০": 274,
      "১": 275,
      "২": 276,
      "৩": 277,
      "৪": 278,
      "৫": 279,
      "৬": 280,
      "৭": 281,
      "৮": 282,
      "৯": 283,
      "ం": 284,
      "ః": 285,
      "అ": 286,
      "ఆ": 287,
      "ఇ": 288,
      "ఈ": 289,
      "ఉ": 290,
      "ఋ": 291,
      "ఎ": 292,
      "ఏ": 293,
      "ఐ": 294,
      "ఒ": 295,
      "ఓ": 296,
      "ఔ": 297,
      "క": 298,
      "ఖ": 299,
      "గ": 300,
      "ఘ": 301,
      "చ": 302,
      "ఛ": 303,
      "జ": 304,
      "ఞ": 305,
      "ట": 306,
      "ఠ": 307,
      "డ": 308,
      "ఢ": 309,
      "ణ": 310,
      "త": 311,
      "థ": 312,
      "ద": 313,
      "ధ": 314,
      "న": 315,
      "ప": 316,
      "ఫ": 317,
      "బ": 318,
      "భ": 319,
      "మ": 320,
      "య": 321,
      "ర": 322,
      "ల": 323,
      "ళ": 324,
      "వ": 325,
      "శ": 326,
      "ష": 327,
      "స": 328,
      "హ": 329,
      "ా": 330,
      "ి": 331,
      "ీ": 332,
      "ు": 333,
      "ూ": 334,
      "ృ": 335,
      "ె": 336,
      "ే": 337,
      "ై": 338,
      "ొ": 339,
      "ో": 340,
      "ౌ": 341,
      "్": 342,
      "ṅ": 343,
      "ṇ": 344,
      "Ṛ": 345,
      "ṣ": 346,
      "ṭ": 347,
      "Ἰ": 348,
      "‌": 349,
      "‍": 350,
      "‎": 351,
      "–": 352,
      "—": 353,
      "‘": 354,
      "’": 355,
      "“": 356,
      "”": 357,
      "†": 358,
      "•": 359,
      "…": 360,
      "′": 361,
      "‹": 362,
      "›": 363,
      "⁡": 364,
      "€": 365,
      "₹": 366,
      "↑": 367,
      "−": 368,
      "▁": 369,
      "﻿": 370,
      "](": 371,
      "./": 372,
      "](./": 373,
      "▁[": 374,
      "▁\"": 375,
      "\")": 376,
      "nd": 377,
      "ia": 378,
      "te": 379,
      "on": 380,
      "in": 381,
      "ti": 382,
      "re": 383,
      "th": 384,
      "ndia": 385,
      "or": 386,
      "er": 387,
      "ার": 388,
      "20": 389,
      "ar": 390,
      "India": 391,
      "an": 392,
      "al": 393,
      "en": 394,
      "▁*": 395,
      "ed": 396,
      "ार": 397,
      "of": 398,
      "es": 399,
      "▁क": 400,
      "ci": 401,
      "tion": 402,
      "্র": 403,
      "is": 404,
      "ভার": 405,
      "য়": 406,
      "ভারত": 407,
      "te_": 408,
      "्र": 409,
      "్ర": 410,
      "//": 411,
      "om": 412,
      "it": 413,
      "ht": 414,
      "#ci": 415,
      "#cite_": 416,
      "\")\n": 417,
      "भार": 418,
      "the": 419,
      "भारत": 420,
      "▁a": 421,
      "▁(": 422,
      "tp": 423,
      "http": 424,
      "://": 425,
      "ార": 426,
      "▁of": 427,
      "▁स": 428,
      "ের": 429,
      "্য": 430,
      "▁the": 431,
      "ic": 432,
      "19": 433,
      "ou": 434,
      "g/": 435,
      "as": 436,
      "no": 437,
      "id": 438,
      "ch": 439,
      "201": 440,
      "](http": 441,
      "la": 442,
      "le": 443,
      "▁म": 444,
      "▁India": 445,
      "्य": 446,
      "oo": 447,
      "▁\n": 448,
      "ాల": 449,
      "200": 450,
      "s://": 451,
      "](./India": 452,
      "▁স": 453,
      "-1": 454,
      "OT": 455,
      ".or": 456,
      "్య": 457,
      "ac": 458,
      "tr": 459,
      "iv": 460,
      "ik": 461,
      "ww": 462,
      ".org/": 463,
      "তি": 464,
      "रा": 465,
      "-0": 466,
      "▁प": 467,
      "ref": 468,
      "com": 469,
      "\\(": 470,
      "\\)": 471,
      "](./ভারত": 472,
      "ন্": 473,
      "ad": 474,
      "note": 475,
      "భార": 476,
      "▁p": 477,
      "#cite_ref": 478,
      "#cite_note": 479,
      "భారత": 480,
      "lo": 481,
      "స్": 482,
      "](https://": 483,
      "র্": 484,
      "దే": 485,
      "am": 486,
      "বি": 487,
      "[[": 488,
      "we": 489,
      "▁in": 490,
      "▁and": 491,
      "ent": 492,
      "దేశ": 493,
      "▁s": 494,
      "ing": 495,
      "▁1": 496,
      "um": 497,
      "at": 498,
      "▁ప": 499,
      "▁প": 500,
      "im": 501,
      "us": 502,
      "ation": 503,
      "ge": 504,
      "ें": 505,
      "సా": 506,
      "red": 507,
      "ान": 508,
      "#cite_ref-": 509,
      "#cite_note-": 510,
      "wik": 511,
      "edia": 512,
      "lin": 513,
      "▁A": 514,
      "▁के": 515,
      "र्": 516,
      "ান": 517,
      "▁S": 518,
      "](./भारत": 519,
      "న్": 520,
      "b/": 521,
      "▁ह": 522,
      "\"),": 523,
      "▁C": 524,
      "ook": 525,
      "ec": 526,
      "्त": 527,
      "**": 528,
      "ర్": 529,
      "fi": 530,
      "ক্": 531,
      "ons": 532,
      "link": 533,
      "=1": 534,
      "edit": 535,
      "of_": 536,
      "_of_": 537,
      "▁[↑": 538,
      "▁P": 539,
      "ur": 540,
      "action": 541,
      "action=": 542,
      ").": 543,
      "action=edit": 544,
      "ter": 545,
      "&red": 546,
      "?action=edit": 547,
      "link=1": 548,
      "&redlink=1": 549,
      "?action=edit&redlink=1": 550,
      "78": 551,
      "IS": 552,
      ")\n": 553,
      "il": 554,
      "00": 555,
      "ig": 556,
      "he": 557,
      "ov": 558,
      "ist": 559,
      "ang": 560,
      "▁b": 561,
      "▁c": 562,
      "లు": 563,
      "স্": 564,
      "िक": 565,
      "ীয়": 566,
      "et": 567,
      "రా": 568,
      "या": 569,
      "ol": 570,
      "BN": 571,
      "ISBN": 572,
      "▁में": 573,
      "▁f": 574,
      "to": 575,
      "enti": 576,
      "ीय": 577,
      "21": 578,
      "াল": 579,
      "িক": 580,
      "jp": 581,
      "▁अ": 582,
      "భారతదేశ": 583,
      ".jp": 584,
      ".శ": 585,
      ".శ.": 586,
      "లో": 587,
      ".\n": 588,
      "identi": 589,
      "and": 590,
      "up": 591,
      "fier": 592,
      "identifier": 593,
      "సా.శ.": 594,
      "res": 595,
      "\\(identifier": 596,
      "\\(identifier\\)": 597,
      "দ্": 598,
      "ip": 599,
      "▁m": 600,
      "FO": 601,
      "রা": 602,
      "▁অ": 603,
      "NOT": 604,
      "ra": 605,
      "OTNOT": 606,
      "FOOTNOT": 607,
      "FOOTNOTE": 608,
      "▁**": 609,
      "arch": 610,
      "▁w": 611,
      "ত্র": 612,
      "త్ర": 613,
      "978": 614,
      "w.": 615,
      "),": 616,
      "em": 617,
      "বা": 618,
      "ों": 619,
      "www.": 620,
      "▁క": 621,
      "▁M": 622,
      "ial": 623,
      "▁ম": 624,
      "ce": 625,
      "वि": 626,
      "-0)": 627,
      "ना": 628,
      "india": 629,
      "ాలు": 630,
      "రి": 631,
      "25": 632,
      "▁_": 633,
      "క్": 634,
      "▁T": 635,
      "▁২": 636,
      ".com": 637,
      "▁ज": 638,
      "ంద": 639,
      "g)": 640,
      "▁ক": 641,
      "्ष": 642,
      "▁R": 643,
      "our": 644,
      "book": 645,
      "ని": 646,
      "▁వ": 647,
      "_क": 648,
      ".g": 649,
      "ाल": 650,
      "ate": 651,
      "ion": 652,
      "▁है": 653,
      "▁d": 654,
      "tic": 655,
      "ive": 656,
      "▁201": 657,
      ".com/": 658,
      "টি": 659,
      "সা": 660,
      "ul": 661,
      "10": 662,
      "▁द": 663,
      "ers": 664,
      "▁উ": 665,
      "হা": 666,
      "23": 667,
      "ind": 668,
      "त्र": 669,
      "▁B": 670,
      "▁\"ভারত": 671,
      "দ্ধ": 672,
      "ల్": 673,
      "राज": 674,
      "·**": 675,
      "▁**·**": 676,
      "▁D": 677,
      "न्": 678,
      "ro": 679,
      "es/": 680,
      "books": 681,
      "ेश": 682,
      "భారతదేశం": 683,
      "comm": 684,
      "िया": 685,
      "age": 686,
      "▁ত": 687,
      ".wik": 688,
      "In": 689,
      "ంగ": 690,
      ".org/wik": 691,
      "26": 692,
      "]](./India": 693,
      "ক্ষ": 694,
      "40": 695,
      "el": 696,
      "ment": 697,
      "और": 698,
      "▁to": 699,
      "ipedia": 700,
      "](./India#cite_ref-": 701,
      "]](./India#cite_note-": 702,
      "--": 703,
      "web": 704,
      "▁এ": 705,
      "px": 706,
      "▁స": 707,
      "▁ब": 708,
      "archive": 709,
      "ir": 710,
      "▁की": 711,
      "▁भारत": 712,
      ".s": 713,
      "ंग": 714,
      "ৃতি": 715,
      "imedia": 716,
      "op": 717,
      "▁మ": 718,
      "28": 719,
      "load": 720,
      "ারি": 721,
      "ের_": 722,
      "▁प्र": 723,
      "IT": 724,
      "్రా": 725,
      "upload": 726,
      ".wikimedia": 727,
      ".wikimedia.org/wik": 728,
      "ला": 729,
      "](//": 730,
      "ity": 731,
      "ipedia/": 732,
      "upload.wikimedia.org/wik": 733,
      "](//upload.wikimedia.org/wik": 734,
      "](//upload.wikimedia.org/wikipedia/": 735,
      "▁त": 736,
      "ons/": 737,
      "![": 738,
      "्व": 739,
      "thum": 740,
      "भा": 741,
      "▁न": 742,
      "ER": 743,
      "▁से": 744,
      "ভা": 745,
      "thumb/": 746,
      ".sv": 747,
      "px-": 748,
      "▁প্র": 749,
      "commons/": 750,
      "](//upload.wikimedia.org/wikipedia/commons/": 751,
      "ీయ": 752,
      "archive.org/": 753,
      "কা": 754,
      "un": 755,
      "](//upload.wikimedia.org/wikipedia/commons/thumb/": 756,
      "24": 757,
      ".in": 758,
      "EF": 759,
      "ITER": 760,
      "েশ": 761,
      "▁और": 762,
      "ండ": 763,
      "ITEREF": 764,
      ".p": 765,
      "ha": 766,
      "ew": 767,
      "▁ও": 768,
      "▁19": 769,
      "▁l": 770,
      "▁ব": 771,
      "▁২০": 772,
      "▁ন": 773,
      "angu": 774,
      "ay": 775,
      "▁का": 776,
      "_स": 777,
      "▁ভারত": 778,
      "▁[\"": 779,
      "11": 780,
      "ev": 781,
      "al_": 782,
      "web.": 783,
      "జ్య": 784,
      "তা": 785,
      "](https://web.": 786,
      "/http": 787,
      "web/": 788,
      "archive.org/web/": 789,
      "](https://web.archive.org/web/": 790,
      "50": 791,
      "▁H": 792,
      "st": 793,
      "ता": 794,
      "ak": 795,
      "Un": 796,
      "▁చ": 797,
      "▁জ": 798,
      "्ट": 799,
      "pec": 800,
      "ly": 801,
      "▁E": 802,
      "ub": 803,
      "తా": 804,
      "sia": 805,
      "ము": 806,
      "s_": 807,
      "నా": 808,
      "য়ে": 809,
      "▁N": 810,
      ")।": 811,
      "తి": 812,
      "్ట": 813,
      "30": 814,
      "▁আ": 815,
      "▁হ": 816,
      "দ্ধৃতি": 817,
      "](./S": 818,
      "ag": 819,
      "ন্দ": 820,
      "ep": 821,
      "▁G": 822,
      "▁\"S": 823,
      "▁•": 824,
      "্ব": 825,
      "কে": 826,
      "29": 827,
      "tu": 828,
      "ld": 829,
      "_India": 830,
      "#C": 831,
      "▁20": 832,
      "sh": 833,
      "త్": 834,
      "াত": 835,
      "▁\"भारत": 836,
      "_A": 837,
      "సి": 838,
      "tri": 839,
      "▁200": 840,
      "\")|": 841,
      "ory": 842,
      "#CITEREF": 843,
      "pecial": 844,
      "\").": 845,
      "▁([": 846,
      "](http://": 847,
      "-8": 848,
      "स्त": 849,
      "राज्य": 850,
      "_S": 851,
      "The": 852,
      "-3": 853,
      "িয়": 854,
      "্চ": 855,
      "▁[↑](./India#cite_ref-": 856,
      "▁व": 857,
      "क्ष": 858,
      "ित": 859,
      "ারিখ": 860,
      "▁বি": 861,
      ".jpg)": 862,
      "न्द": 863,
      "pecial:": 864,
      "_\\(identifier\\)": 865,
      "▁\\(identifier\\)": 866,
      "▁\\(identifier\\)\")": 867,
      "▁সং": 868,
      "▁তারিখ": 869,
      "ి.": 870,
      "ులు": 871,
      "ress": 872,
      "ourc": 873,
      "s/": 874,
      "▁h": 875,
      "ary": 876,
      "978-0": 877,
      "outh": 878,
      "22": 879,
      "▁आ": 880,
      "▁শ": 881,
      "యా": 882,
      "–సా.శ.": 883,
      "▁రా": 884,
      "ap": 885,
      "িত": 886,
      "প্র": 887,
      "ষ্": 888,
      "18": 889,
      "▁(సా.శ.": 890,
      "पु": 891,
      "षा": 892,
      "ern": 893,
      "_of_India": 894,
      "-5": 895,
      "cal": 896,
      "ति": 897,
      "্যা": 898,
      "0%": 899,
      "orld": 900,
      "লে": 901,
      "for": 902,
      ".gov": 903,
      "od": 904,
      "ास": 905,
      "লা": 906,
      "▁అ": 907,
      "ources/": 908,
      "ిక": 909,
      "▁দ": 910,
      "ex": 911,
      "-4": 912,
      "##": 913,
      "]](./ভারত": 914,
      "েম": 915,
      "rom": 916,
      "▁ప్ర": 917,
      "oun": 918,
      "rit": 919,
      "తం": 920,
      "a_": 921,
      "Book": 922,
      "mp": 923,
      "17": 924,
      "▁on": 925,
      "▁L": 926,
      "ted": 927,
      "13": 928,
      "Sources/": 929,
      "pecial:Book": 930,
      "pecial:BookSources/": 931,
      ".in/": 932,
      "ber": 933,
      "ిన": 934,
      "జ్యం": 935,
      "स्": 936,
      "199": 937,
      "anguage": 938,
      "িল": 939,
      "▁\"ভারতের": 940,
      "calf": 941,
      "n_": 942,
      "▁re": 943,
      "ঙ্": 944,
      "](./ভারতের_": 945,
      "्रे": 946,
      "etcalf": 947,
      "![](//upload.wikimedia.org/wikipedia/commons/thumb/": 948,
      "కు": 949,
      "జా": 950,
      "ivers": 951,
      "য্য": 952,
      "হায্য": 953,
      "ంచ": 954,
      "ab": 955,
      "।[[": 956,
      "সাহায্য": 957,
      "▁J": 958,
      "e_": 959,
      "भाषा": 960,
      "15": 961,
      "](./భారతదేశం": 962,
      "▁F": 963,
      "▁को": 964,
      "▁n": 965,
      "मा": 966,
      "ish": 967,
      "con": 968,
      "id=": 969,
      "ৃত": 970,
      "27": 971,
      "▁3": 972,
      "]](./भारत": 973,
      "था": 974,
      "ট্র": 975,
      "ను": 976,
      "పూ": 977,
      "](./ISBN": 978,
      "▁\"ISBN": 979,
      "](./ISBN_\\(identifier\\)": 980,
      "hi": 981,
      "ভাষ": 982,
      "▁g": 983,
      "▁ग": 984,
      "htm": 985,
      "gle": 986,
      "ప్ర": 987,
      "భా": 988,
      "14": 989,
      "ची": 990,
      "री": 991,
      "গ্র": 992,
      "▁|": 993,
      "▁[আ": 994,
      "_in": 995,
      "ational": 996,
      "_\\(": 997,
      "ri": 998,
      "।\n": 999,
      "▁th": 1000,
      "60": 1001,
      "ens": 1002,
      "▁or": 1003,
      "থা": 1004,
      "প্": 1005,
      "বই": 1006,
      "ద్": 1007,
      "ింద": 1008,
      "देश": 1009,
      "মা": 1010,
      "▁उ": 1011,
      "▁पर": 1012,
      "-7": 1013,
      "রি": 1014,
      "▁by": 1015,
      "E0%": 1016,
      "▁W": 1017,
      "err": 1018,
      "os": 1019,
      "উদ্ধৃতি": 1020,
      "▁ए": 1021,
      "ভাষা": 1022,
      "li": 1023,
      "oogle": 1024,
      "▁O": 1025,
      "ष्ट": 1026,
      "ाद": 1027,
      "লি": 1028,
      ".htm": 1029,
      "▁ఉ": 1030,
      "](./India#CITEREF": 1031,
      "▁১": 1032,
      "iversity": 1033,
      ".[[": 1034,
      "▁\\(": 1035,
      "ड़": 1036,
      "▁ఆ": 1037,
      "▁[↑](./ভারত": 1038,
      "/http://": 1039,
      "?id=": 1040,
      "রে": 1041,
      "_के": 1042,
      ".google": 1043,
      ".com/books": 1044,
      "books.google": 1045,
      "books.google.com/books": 1046,
      "থে": 1047,
      "▁श": 1048,
      "books.google.com/books?id=": 1049,
      "Metcalf": 1050,
      "▁K": 1051,
      "try": 1052,
      "ort": 1053,
      "---": 1054,
      "-2": 1055,
      "-9": 1056,
      "▁[S": 1057,
      "%E0%": 1058,
      "AA": 1059,
      "_म": 1060,
      "মি": 1061,
      "మా": 1062,
      "est": 1063,
      "ष्ट्र": 1064,
      "oc": 1065,
      "▁India\")\n": 1066,
      ":বই": 1067,
      "రు": 1068,
      "▁సా": 1069,
      "భారతీయ": 1070,
      "ast": 1071,
      "▁p.": 1072,
      "ূল": 1073,
      "▁থে": 1074,
      "▁सं": 1075,
      "বিশ": 1076,
      "রাজ": 1077,
      "विश": 1078,
      "▁থেকে": 1079,
      "▁from": 1080,
      "har": 1081,
      "వా": 1082,
      "লী": 1083,
      "List": 1084,
      "সং": 1085,
      "ff": 1086,
      "log": 1087,
      "av": 1088,
      "▁ర": 1089,
      "uc": 1090,
      "ने": 1091,
      "না": 1092,
      "▁[म": 1093,
      "ain": 1094,
      "lation": 1095,
      "▁Indian": 1096,
      "16": 1097,
      "వి": 1098,
      "ud": 1099,
      "िल": 1100,
      "েষ": 1101,
      "](./भारत#cite_ref-": 1102,
      "]](./India#cite_note-FOOTNOTE": 1103,
      "]](./भारत#cite_note-": 1104,
      "late": 1105,
      "og": 1106,
      "का": 1107,
      "art": 1108,
      "ష్ట": 1109,
      "ార్": 1110,
      "978-1": 1111,
      "పూ.": 1112,
      "]](./ভারত#cite_note-": 1113,
      "47": 1114,
      "lag": 1115,
      "ith": 1116,
      "ेत्र": 1117,
      "▁২০০": 1118,
      "%E0%A": 1119,
      ".svg": 1120,
      ".jpg)](./": 1121,
      "error": 1122,
      "प्र": 1123,
      "যু": 1124,
      "▁I": 1125,
      "▁is": 1126,
      "స్థ": 1127,
      "రిత్ర": 1128,
      "క్ష": 1129,
      ".jpg/": 1130,
      "_P": 1131,
      "▁for": 1132,
      "'s": 1133,
      ")[[": 1134,
      "PA": 1135,
      "सा": 1136,
      "▁ल": 1137,
      "_के_": 1138,
      "istory": 1139,
      "br": 1140,
      "म्": 1141,
      "ঙ্গ": 1142,
      "Ch": 1143,
      "_and": 1144,
      ".pn": 1145,
      "ম্": 1146,
      "িন": 1147,
      "▁इ": 1148,
      "्या": 1149,
      "న్న": 1150,
      "Har": 1151,
      "ৈলী": 1152,
      "tim": 1153,
      "ore": 1154,
      "▁Un": 1155,
      "](https://books.google.com/books?id=": 1156,
      ".n": 1157,
      "हि": 1158,
      "ी](./": 1159,
      "কার": 1160,
      "কৃত": 1161,
      "](https://www.": 1162,
      "p.": 1163,
      "&p": 1164,
      "/0": 1165,
      "](https://web.archive.org/web/201": 1166,
      "िय": 1167,
      "ত্": 1168,
      ".png)": 1169,
      "ুটি": 1170,
      "ৎস": 1171,
      "land": 1172,
      ".svg/": 1173,
      "सं": 1174,
      "ন্ত্র": 1175,
      "-6": 1176,
      "ot": 1177,
      ".svg.png)": 1178,
      "▁[ISBN": 1179,
      "▁Re": 1180,
      "▁4": 1181,
      "inal": 1182,
      "▁[A": 1183,
      "ve": 1184,
      "\"))\n": 1185,
      "▁Asia": 1186,
      ":উদ্ধৃতি": 1187,
      "त्त": 1188,
      "▁र": 1189,
      "aj": 1190,
      "ensus": 1191,
      "g=": 1192,
      "ज़": 1193,
      "টেম": 1194,
      "గా": 1195,
      "Flag": 1196,
      "▁[ISBN](./ISBN_\\(identifier\\)": 1197,
      "70": 1198,
      "und": 1199,
      "ut": 1200,
      "ంట": 1201,
      "కి": 1202,
      "বিশেষ": 1203,
      "\")_": 1204,
      "▁The": 1205,
      "temp": 1206,
      "ড়": 1207,
      "_M": 1208,
      "ం:": 1209,
      "మ్రా": 1210,
      "▁t": 1211,
      "ష్ట్ర": 1212,
      "ubl": 1213,
      "&pg=": 1214,
      "ow": 1215,
      "ys": 1216,
      "▁In": 1217,
      "ষ্ট্র": 1218,
      ":বইয়": 1219,
      "বিশেষ:বইয়": 1220,
      "ulation": 1221,
      "ంత": 1222,
      "_D": 1223,
      "ear": 1224,
      "48": 1225,
      "ডি": 1226,
      "হের": 1227,
      "र्व": 1228,
      "ীয়_": 1229,
      "ंड": 1230,
      "ত্রুটি": 1231,
      "সাহায্য:উদ্ধৃতি": 1232,
      "2.": 1233,
      "35": 1234,
      "titu": 1235,
      "opulation": 1236,
      "िस": 1237,
      "এস": 1238,
      "పు": 1239,
      "%2": 1240,
      "ong": 1241,
      "-10": 1242,
      "राष्ट्र": 1243,
      "▁_[": 1244,
      "tern": 1245,
      "ance": 1246,
      "▁న": 1247,
      "चि": 1248,
      "ी_": 1249,
      "গু": 1250,
      "all": 1251,
      "দেশ": 1252,
      "িয়া": 1253,
      "▁তারিখে": 1254,
      "&pg=PA": 1255,
      "మి": 1256,
      "ాన": 1257,
      "ana": 1258,
      "-19": 1259,
      "ss": 1260,
      "ma": 1261,
      "se": 1262,
      "ইভ": 1263,
      "র্কা": 1264,
      "ন্দ্র": 1265,
      "র্কাইভ": 1266,
      "df": 1267,
      "ug": 1268,
      "পি": 1269,
      "▁सा": 1270,
      "्षेत्र": 1271,
      "▁है।": 1272,
      "র্কাইভকৃত": 1273,
      "పా": 1274,
      "భాష": 1275,
      "2011": 1276,
      "▁pp.": 1277,
      "_p": 1278,
      "ঞ্চ": 1279,
      "▁राज्य": 1280,
      "overn": 1281,
      "▁be": 1282,
      "मन": 1283,
      "▁`": 1284,
      "রাষ্ট্র": 1285,
      "▁\"M": 1286,
      "o-": 1287,
      "ले": 1288,
      "সি": 1289,
      "పాల": 1290,
      "▁త": 1291,
      "esh": 1292,
      "స్త్ర": 1293,
      "tein": 1294,
      "ies": 1295,
      "▁\"C": 1296,
      "ism": 1297,
      "hic": 1298,
      "जा": 1299,
      "पा": 1300,
      "▁भाषा": 1301,
      "umm": 1302,
      "লেট": 1303,
      "প্লেট": 1304,
      "টেমপ্লেট": 1305,
      "tate": 1306,
      "ile": 1307,
      "స్తా": 1308,
      "emp": 1309,
      "এন": 1310,
      "ছে": 1311,
      "▁[ম": 1312,
      "▁\"म": 1313,
      "250": 1314,
      "](http://www.": 1315,
      "ans": 1316,
      ".html": 1317,
      "▁Press": 1318,
      "ধান": 1319,
      "▁हैं": 1320,
      "ts": 1321,
      "](./C": 1322,
      "36": 1323,
      "లీ": 1324,
      "ాయ": 1325,
      "▁ఇ": 1326,
      "▁దేశ": 1327,
      "▁भ": 1328,
      "▁य": 1329,
      "▁orig": 1330,
      "pecial:BookSources/978-0": 1331,
      "1.": 1332,
      "38": 1333,
      "54": 1334,
      "inis": 1335,
      "ther": 1336,
      "▁ই": 1337,
      "▁as": 1338,
      "णी": 1339,
      "ার্": 1340,
      "/https://": 1341,
      "▁সংগ্র": 1342,
      "6%": 1343,
      "oi": 1344,
      "ूची": 1345,
      "▁वि": 1346,
      "▁[↑](./ভারত#cite_ref-": 1347,
      "ank": 1348,
      "మ్రాజ్యం": 1349,
      "▁r": 1350,
      "ase": 1351,
      "90": 1352,
      "▁e": 1353,
      "▁[↑](./India#cite_ref-FOOTNOTE": 1354,
      "गर": 1355,
      "পা": 1356,
      "▁সংগ্রহের": 1357,
      "ass": 1358,
      "ef": 1359,
      "▁[M": 1360,
      "▁original": 1361,
      "pr": 1362,
      "దేశ్": 1363,
      "overnment": 1364,
      "artic": 1365,
      "ইএস": 1366,
      "জাত": 1367,
      "▁[↑](./भारत#cite_ref-": 1368,
      "িকা": 1369,
      "▁University": 1370,
      "](./M": 1371,
      "onstitu": 1372,
      "77": 1373,
      "ం](./": 1374,
      "ীন": 1375,
      "2018": 1376,
      "▁\"B": 1377,
      "lop": 1378,
      "Ind": 1379,
      "y_": 1380,
      "_in_India": 1381,
      "ेला": 1382,
      "▁no": 1383,
      "\"))": 1384,
      "2006": 1385,
      "ంబ": 1386,
      "టి": 1387,
      "ence": 1388,
      "/c": 1389,
      "हा": 1390,
      "সম": 1391,
      "▁ভাষা": 1392,
      "istan": 1393,
      "▁\"P": 1394,
      "বে": 1395,
      "▁সা": 1396,
      "স্ত": 1397,
      "80": 1398,
      "ంలో": 1399,
      "Harv": 1400,
      "స్తాన్": 1401,
      "s,": 1402,
      "ata": 1403,
      "▁[B": 1404,
      "कार": 1405,
      "क्त": 1406,
      "पर": 1407,
      "](./B": 1408,
      "▁कर": 1409,
      "▁২০১": 1410,
      "ages": 1411,
      "ত্ত": 1412,
      "au": 1413,
      "ard": 1414,
      "Indian": 1415,
      "india.gov": 1416,
      "errors": 1417,
      "िर": 1418,
      "ोल": 1419,
      "rch": 1420,
      "గు": 1421,
      "డు": 1422,
      "నే": 1423,
      "్చ": 1424,
      "ame": 1425,
      "56": 1426,
      "कि": 1427,
      "मी": 1428,
      "ian": 1429,
      "ন্ত": 1430,
      ".pdf": 1431,
      ".pdf)": 1432,
      "ess": 1433,
      "](./P": 1434,
      "మూ": 1435,
      "▁[C": 1436,
      "్రీ": 1437,
      "র্থ": 1438,
      "జాత": 1439,
      "▁\"A": 1440,
      "iss": 1441,
      "ill": 1442,
      "ountri": 1443,
      "▁[ভারত": 1444,
      "তিক": 1445,
      "हिन्द": 1446,
      "ke": 1447,
      "కా": 1448,
      "లా": 1449,
      "ంగా": 1450,
      "ct": 1451,
      "ंध": 1452,
      "ेष": 1453,
      "ওয়ে": 1454,
      "ভূ": 1455,
      "ুর": 1456,
      "▁বা": 1457,
      "](./म": 1458,
      "orth": 1459,
      "conom": 1460,
      "74": 1461,
      "▁V": 1462,
      "ाना": 1463,
      "%2C": 1464,
      "_s": 1465,
      "▁with": 1466,
      "_b": 1467,
      "డ్": 1468,
      "ిల్": 1469,
      "eral": 1470,
      "2004": 1471,
      "34": 1472,
      "per": 1473,
      "द्": 1474,
      "▁क्षेत्र": 1475,
      "্রা": 1476,
      "র্ব": 1477,
      "ক্ত": 1478,
      "ंग्रे": 1479,
      "ঞ্চল": 1480,
      "lig": 1481,
      "_N": 1482,
      "ition": 1483,
      "▁&": 1484,
      "ublic": 1485,
      "fn": 1486,
      "_B": 1487,
      "वा": 1488,
      "জা": 1489,
      "ধ্য": 1490,
      "ন্ড": 1491,
      "र्म": 1492,
      "39": 1493,
      "ite": 1494,
      "లి": 1495,
      "▁జ": 1496,
      "धान": 1497,
      "ोत": 1498,
      "তে": 1499,
      "▁अन": 1500,
      "▁ভারতের": 1501,
      "eved": 1502,
      "%E0%A6%": 1503,
      "ইএসবি": 1504,
      "59": 1505,
      "ture": 1506,
      "ire": 1507,
      "ue": 1508,
      "ust": 1509,
      "भि": 1510,
      "श्": 1511,
      "से": 1512,
      "ived": 1513,
      "▁উপ": 1514,
      "्रेणी": 1515,
      "ణా": 1516,
      "ధిక": 1517,
      "trieved": 1518,
      "▁Retrieved": 1519,
      "జాతీయ": 1520,
      "i_": 1521,
      "_শ": 1522,
      "নি": 1523,
      "▁গ": 1524,
      "▁উদ্ধৃতি": 1525,
      "▁ने": 1526,
      "Flag_of_": 1527,
      "120": 1528,
      "श्रेणी": 1529,
      "దక్ష": 1530,
      "వం": 1531,
      "▁8": 1532,
      "्रा": 1533,
      "▁ప్రా": 1534,
      "▁వి": 1535,
      "▁సం": 1536,
      "▁చరిత్ర": 1537,
      "ওয়েব": 1538,
      "hm": 1539,
      "7.": 1540,
      "ical": 1541,
      "#cite_ref-1": 1542,
      "#cite_note-1": 1543,
      "indu": 1544,
      "ford": 1545,
      "cre": 1546,
      "1)": 1547,
      "5.": 1548,
      "its": 1549,
      "धार": 1550,
      "স্থা": 1551,
      "विशेष": 1552,
      "ach": 1553,
      "gr": 1554,
      "end": 1555,
      "\\.": 1556,
      "new": 1557,
      "ingh": 1558,
      "▁language": 1559,
      "-p": 1560,
      "ib": 1561,
      "డి": 1562,
      "▁[2": 1563,
      "র্ম": 1564,
      "▁নি": 1565,
      "রাজ্য": 1566,
      "श्रेणी:": 1567,
      "ati": 1568,
      "anguages": 1569,
      "Stein": 1570,
      "3.": 1571,
      "QB": 1572,
      "=`": 1573,
      "ited": 1574,
      "ृत": 1575,
      "ইএসবিএন": 1576,
      "omm": 1577,
      ",_": 1578,
      "3)": 1579,
      "ంధ": 1580,
      "స్త": 1581,
      "సియా": 1582,
      "▁రాజ్యం": 1583,
      "▁సామ్రాజ్యం": 1584,
      "xford": 1585,
      "ी\")": 1586,
      "ीय_": 1587,
      "ক্ষা": 1588,
      "AJ": 1589,
      "ark": 1590,
      "▁\"T": 1591,
      "QBAJ": 1592,
      "ँच": 1593,
      "ंद": 1594,
      "ंत्र": 1595,
      "ूल": 1596,
      "ेल": 1597,
      "▁\"अ": 1598,
      "ine": 1599,
      "▁ति": 1600,
      "িল্": 1601,
      "▁एक": 1602,
      "▁[P": 1603,
      "/http://www.": 1604,
      "దీ": 1605,
      "▁బ": 1606,
      "▁are": 1607,
      "ండి": 1608,
      "ountries": 1609,
      "దక్షి": 1610,
      "▁Ch": 1611,
      ".nic": 1612,
      "_T": 1613,
      "के": 1614,
      "দী": 1615,
      "▁पु": 1616,
      "্বর": 1617,
      "विशेष:": 1618,
      "12": 1619,
      "▁ex": 1620,
      "\").\n": 1621,
      "rchived": 1622,
      "▁\"D": 1623,
      "6.": 1624,
      "▁[![](//upload.wikimedia.org/wikipedia/commons/thumb/": 1625,
      "ord": 1626,
      "%20": 1627,
      "..": 1628,
      "১৯": 1629,
      "తర": 1630,
      "](./D": 1631,
      "-1)": 1632,
      "57": 1633,
      "ann": 1634,
      "000": 1635,
      "स्तान": 1636,
      "▁[আর্কাইভকৃত": 1637,
      "টেমপ্লেট:": 1638,
      "250px-": 1639,
      "PD": 1640,
      "▁was": 1641,
      "sher": 1642,
      "▁,": 1643,
      "AAQBAJ": 1644,
      "_చ": 1645,
      "िण": 1646,
      "ोग": 1647,
      "শা": 1648,
      "হি": 1649,
      "ట్": 1650,
      "ది": 1651,
      "ిత": 1652,
      "▁[अ": 1653,
      "times": 1654,
      "onstitution": 1655,
      "▁[1": 1656,
      "cy": 1657,
      "icial": 1658,
      "▁সর": 1659,
      "▁মূল": 1660,
      "/p": 1661,
      "](./T": 1662,
      "▁\"E": 1663,
      "cl": 1664,
      "eng": 1665,
      "▁\"మ": 1666,
      "ింది.": 1667,
      "world": 1668,
      "০০": 1669,
      "ক্তি": 1670,
      "য়েছে": 1671,
      "ood": 1672,
      "_C": 1673,
      "ult": 1674,
      "ीप": 1675,
      "িত্র": 1676,
      "](./List": 1677,
      "▁\"List": 1678,
      "▁\"ভারতীয়": 1679,
      "▁प्रदेश": 1680,
      "श्रेणी:Harv": 1681,
      "▁an": 1682,
      "-d": 1683,
      "language": 1684,
      "దస్త్ర": 1685,
      "▁ఎ": 1686,
      "▁(సా.శ.పూ.": 1687,
      "దస్త్రం:": 1688,
      "a/": 1689,
      "nt": 1690,
      "s.": 1691,
      "गमन": 1692,
      "थि": 1693,
      "▁\"स": 1694,
      "ারা": 1695,
      "क्षिण": 1696,
      "fr": 1697,
      "2009": 1698,
      "37": 1699,
      "46": 1700,
      "port": 1701,
      "द्य": 1702,
      "नी": 1703,
      "यु": 1704,
      "ी_स": 1705,
      "কি": 1706,
      "বং": 1707,
      "ভি": 1708,
      "out": 1709,
      "](./ভারতীয়_": 1710,
      "▁तिथि": 1711,
      "erv": 1712,
      "eve": 1713,
      "ధ్య": 1714,
      "▁18": 1715,
      "ంద్ర": 1716,
      "▁2014": 1717,
      "ून": 1718,
      "বী": 1719,
      "ুন": 1720,
      "▁\"G": 1721,
      "▁এক": 1722,
      "PDF": 1723,
      "](./A": 1724,
      "2010": 1725,
      "▁[D": 1726,
      "fe": 1727,
      "ange": 1728,
      "oli": 1729,
      "▁2011": 1730,
      "amil": 1731,
      ".nic.in/": 1732,
      "ll": 1733,
      "নে": 1734,
      "▁ख": 1735,
      "▁१": 1736,
      "▁ফ": 1737,
      "▁(PDF": 1738,
      "▁উৎস": 1739,
      "▁तिथि:": 1740,
      "ైన": 1741,
      "▁v": 1742,
      "](./మ": 1743,
      "▁పే": 1744,
      "rap": 1745,
      "elhi": 1746,
      "](./List_of_": 1747,
      "](./E": 1748,
      ")|": 1749,
      "_.": 1750,
      "other": 1751,
      "IC": 1752,
      "_R": 1753,
      "get": 1754,
      "ction": 1755,
      "▁র": 1756,
      "▁भारतीय": 1757,
      "▁জন": 1758,
      "ah": 1759,
      "_Asia": 1760,
      "MetcalfMetcalf": 1761,
      "-s": 1762,
      "▁[978-0": 1763,
      "ome": 1764,
      "na": 1765,
      "जन": 1766,
      "ढ़": 1767,
      "धिक": 1768,
      "মান": 1769,
      "ట్ట": 1770,
      "శా": 1771,
      "](./G": 1772,
      "▁[మ": 1773,
      "▁[भारत": 1774,
      "ন্ধ": 1775,
      "▁अभि": 1776,
      "▁देश": 1777,
      "▁শৈলী": 1778,
      "ద్ధ": 1779,
      "▁अभिगमन": 1780,
      "IN": 1781,
      "ica": 1782,
      "_1": 1783,
      "tral": 1784,
      "tem": 1785,
      "धर्म": 1786,
      "्री": 1787,
      "्रोत": 1788,
      "▁সাল": 1789,
      "\\)\")": 1790,
      "▁जन": 1791,
      "▁করে": 1792,
      "40px-": 1793,
      "▁तथा": 1794,
      "▁\"भारतीय": 1795,
      "সমূ": 1796,
      "evelop": 1797,
      "8/": 1798,
      "▁10": 1799,
      "](https://web.archive.org/web/20": 1800,
      "\"](https://web.archive.org/web/201": 1801,
      "-b": 1802,
      "rad": 1803,
      "హింద": 1804,
      "ించ": 1805,
      "▁ఒ": 1806,
      "▁గ": 1807,
      "▁భాష": 1808,
      "ాల్": 1809,
      ".jpg": 1810,
      "###": 1811,
      "_m": 1812,
      "_](https://books.google.com/books?id=": 1813,
      "ती": 1814,
      "त्": 1815,
      "बर": 1816,
      "ে_": 1817,
      "▁च": 1818,
      "▁\"क": 1819,
      "স্ট": 1820,
      "ালিকা": 1821,
      "udd": 1822,
      ".svg/40px-": 1823,
      "▁9": 1824,
      "▁–": 1825,
      "row": 1826,
      "-m": 1827,
      "ational_": 1828,
      "indi": 1829,
      "qu": 1830,
      "हर": 1831,
      "ूर्व": 1832,
      "्ल": 1833,
      "▁\"N": 1834,
      "▁পৃ": 1835,
      "ম্প": 1836,
      "র্থন": 1837,
      "AAQBAJ&pg=PA": 1838,
      "58": 1839,
      "_G": 1840,
      "gen": 1841,
      "▁199": 1842,
      "]](./భారతదేశం": 1843,
      "census": 1844,
      "ty": 1845,
      "కో": 1846,
      "చ్చ": 1847,
      "జీ": 1848,
      "ేంద్ర": 1849,
      "▁భారతదేశం": 1850,
      "ంగ్": 1851,
      "oh": 1852,
      "मान": 1853,
      "वं": 1854,
      "▁7": 1855,
      "िका": 1856,
      "स्तक": 1857,
      "पुस्तक": 1858,
      "ৈলী_": 1859,
      "_শৈলী_": 1860,
      "विशेष:पुस्तक": 1861,
      "्रोत/": 1862,
      "_E": 1863,
      "iti": 1864,
      "49": 1865,
      "▁[N": 1866,
      "1/": 1867,
      "2)": 1868,
      "▁[स": 1869,
      "্রি": 1870,
      "▁at": 1871,
      "▁স্": 1872,
      "বাহ": 1873,
      "▁जा": 1874,
      "1998": 1875,
      "राष्ट्रीय": 1876,
      "▁`|": 1877,
      "স্তান": 1878,
      "द्ध": 1879,
      "ँचा": 1880,
      "%28": 1881,
      "ese": 1882,
      "ummit": 1883,
      "కృ": 1884,
      "త్య": 1885,
      "బ్": 1886,
      "మీ": 1887,
      "](./N": 1888,
      ").\n": 1889,
      "రాష్ట్ర": 1890,
      "▁History": 1891,
      "tin": 1892,
      "दी": 1893,
      "रकार": 1894,
      "हार": 1895,
      "ধর্ম": 1896,
      "ীতি": 1897,
      "োল": 1898,
      "](./स": 1899,
      "সাম": 1900,
      "पुर": 1901,
      "েম্বর": 1902,
      "|---": 1903,
      "▁[![": 1904,
      "ob": 1905,
      "/https://www.": 1906,
      "lia": 1907,
      "ure": 1908,
      "matic": 1909,
      "ions": 1910,
      "উৎস": 1911,
      "▁য": 1912,
      "](./क": 1913,
      "](./বিশেষ:বইয়": 1914,
      "▁[क": 1915,
      "▁\"ब": 1916,
      "▁\"বিশেষ:বইয়": 1917,
      "ের_উৎস": 1918,
      "▁[আইএসবিএন": 1919,
      "विश्व": 1920,
      "▁इस": 1921,
      "लेख": 1922,
      "](./বিশেষ:বইয়ের_উৎস": 1923,
      "▁\"বিশেষ:বইয়ের": 1924,
      "%29": 1925,
      "5)": 1926,
      "ంక": 1927,
      "ప్": 1928,
      "యు": 1929,
      "్యా": 1930,
      "తంత్ర": 1931,
      "](./భారతదేశం#cite_ref-": 1932,
      "]](./భారతదేశం#cite_note-": 1933,
      "onom": 1934,
      "als": 1935,
      "10.": 1936,
      "196": 1937,
      "ath": 1938,
      "gl": 1939,
      "▁we": 1940,
      "▁চ": 1941,
      "▁ত্রুটি": 1942,
      "](./ম": 1943,
      "](./সাহায্য:উদ্ধৃতি": 1944,
      "▁\"ম": 1945,
      "▁\"সাহায্য:উদ্ধৃতি": 1946,
      "▁मेला": 1947,
      "▁এবং": 1948,
      "▁([সাহায্য": 1949,
      "▁বিশ": 1950,
      "ত্রুটি#": 1951,
      "चित्र": 1952,
      "hich": 1953,
      "_শৈলী_ত্রুটি#": 1954,
      "](./সাহায্য:উদ্ধৃতি_শৈলী_ত্রুটি#": 1955,
      "▁([সাহায্য](./সাহায্য:উদ্ধৃতি_শৈলী_ত্রুটি#": 1956,
      "par": 1957,
      "DP": 1958,
      "▁6": 1959,
      "nolog": 1960,
      "ountry": 1961,
      ".jpg/250px-": 1962,
      "_స": 1963,
      "गु": 1964,
      "জি": 1965,
      "জ্য": 1966,
      "తము": 1967,
      "ాన్": 1968,
      "▁राज": 1969,
      "रालेख": 1970,
      "▁অন": 1971,
      "ంది.": 1972,
      "হাস": 1973,
      "▁১৯": 1974,
      "ిల్లీ": 1975,
      "దక్షిణ": 1976,
      "সমূহ": 1977,
      "33": 1978,
      "▁\"The": 1979,
      "▁which": 1980,
      "india/": 1981,
      "india.gov.in/": 1982,
      "▁26": 1983,
      "▁con": 1984,
      "evelopment": 1985,
      "▁tr": 1986,
      "▁temp": 1987,
      "pecial:BookSources/978-1": 1988,
      "idge": 1989,
      "late_": 1990,
      "_ভাষা": 1991,
      "ond": 1992,
      "िव": 1993,
      "জন": 1994,
      "ঞ্": 1995,
      "ৈতিক": 1996,
      "▁\"प": 1997,
      "▁India's": 1998,
      "▁हु": 1999,
      "_की_स": 2000,
      "Incre": 2001,
      "▁वर्": 2002,
      "_में": 2003,
      "साँचा": 2004,
      "গুলি": 2005,
      "dit": 2006,
      "bot": 2007,
      "▁[_": 2008,
      "umb": 2009,
      "thor": 2010,
      "▁En": 2011,
      "ధాన": 2012,
      "బె": 2013,
      "వే": 2014,
      "శ్": 2015,
      "ారు": 2016,
      ".jpg)](./దస్త్రం:": 2017,
      "_অ": 2018,
      "_স": 2019,
      "rou": 2020,
      "ध्य": 2021,
      "्च": 2022,
      "বস্থা": 2023,
      "োগ": 2024,
      "](./अ": 2025,
      "▁\"R": 2026,
      "▁स्": 2027,
      "र्थ": 2028,
      "স্থ": 2029,
      "▁\"ভারতে": 2030,
      "United": 2031,
      "स्क": 2032,
      "▁২০০৭": 2033,
      "▁भी": 2034,
      "▁পৃ.": 2035,
      "रालेखित": 2036,
      "_d": 2037,
      "albot": 2038,
      "olitic": 2039,
      "](./R": 2040,
      "ograp": 2041,
      "\"](https://www.": 2042,
      "ज्": 2043,
      "मु": 2044,
      "2008": 2045,
      "তিহাস": 2046,
      "▁হয়": 2047,
      "▁[G": 2048,
      "hel": 2049,
      "RIC": 2050,
      "gion": 2051,
      "జి": 2052,
      "దు": 2053,
      "మ్": 2054,
      "ష్": 2055,
      "్యవ": 2056,
      "▁రాజ": 2057,
      "_చరిత్ర": 2058,
      "▁South": 2059,
      "akistan": 2060,
      "▁has": 2061,
      "_भारत": 2062,
      "थान": 2063,
      "हास": 2064,
      "।[[১": 2065,
      "Asher": 2066,
      "PP": 2067,
      "ight": 2068,
      "▁template": 2069,
      "gh": 2070,
      "{{": 2071,
      "▁5": 2072,
      "age/": 2073,
      "_%28": 2074,
      "hy": 2075,
      "uk": 2076,
      "}}": 2077,
      "▁that": 2078,
      "द्र": 2079,
      "िट": 2080,
      "िश": 2081,
      "রণ": 2082,
      "ায়": 2083,
      "](./ब": 2084,
      "▁[ब": 2085,
      "2003": 2086,
      "2005": 2087,
      "2007": 2088,
      "▁সম": 2089,
      "](./ভারতে_": 2090,
      "ember": 2091,
      "bridge": 2092,
      "tates": 2093,
      "`:": 2094,
      "ost": 2095,
      "sland": 2096,
      "ఢిల్లీ": 2097,
      "పంచ": 2098,
      "శం": 2099,
      "\")}}": 2100,
      "ారి": 2101,
      "territ": 2102,
      "మూస": 2103,
      "▁రాజ్యం|": 2104,
      "{{[": 2105,
      "\")}}`:": 2106,
      "iew": 2107,
      "2014": 2108,
      "\"\n": 2109,
      "-l": 2110,
      "▁2": 2111,
      "riti": 2112,
      "সে": 2113,
      "](./भारत_में": 2114,
      "ile:": 2115,
      "▁[K": 2116,
      "World": 2117,
      "▁[T": 2118,
      "▁[Archived": 2119,
      "ai": 2120,
      "ambridge": 2121,
      "](./Special:BookSources/978-0": 2122,
      "▁\"Special:BookSources/978-0": 2123,
      "फ़": 2124,
      "ीन": 2125,
      "ইন": 2126,
      "টার": 2127,
      "িম": 2128,
      "▁খ": 2129,
      "▁অঞ্চল": 2130,
      "_का": 2131,
      "]](./ভারত#cite_note-1": 2132,
      "▁[↑](./ভারত#cite_ref-1": 2133,
      "িনী": 2134,
      "त्तर": 2135,
      "▁हैं।": 2136,
      "ত্তর": 2137,
      "ail": 2138,
      "వు": 2139,
      "▁[R": 2140,
      "▁\"క": 2141,
      "▁\"భారతీయ": 2142,
      "emb": 2143,
      "▁కా": 2144,
      "▁ch": 2145,
      "help": 2146,
      "4)": 2147,
      "yson": 2148,
      "in-": 2149,
      "over": 2150,
      "RICS": 2151,
      "मिल": 2152,
      "शिया": 2153,
      "ुस": 2154,
      "▁যু": 2155,
      "arg": 2156,
      "▁सूची": 2157,
      "ের](./": 2158,
      "▁14": 2159,
      "▁हि": 2160,
      "ild": 2161,
      "epend": 2162,
      "▁দেশ": 2163,
      "6)": 2164,
      "ansk": 2165,
      "[![](//upload.wikimedia.org/wikipedia/commons/thumb/": 2166,
      "ashm": 2167,
      "india-": 2168,
      "ashmir": 2169,
      "121": 2170,
      "mb": 2171,
      "ign": 2172,
      "▁2007": 2173,
      "ritish": 2174,
      "olog": 2175,
      "pe": 2176,
      "रु": 2177,
      "ूर": 2178,
      "జన": 2179,
      "టు": 2180,
      "టె": 2181,
      "▁[క": 2182,
      "▁सरकार": 2183,
      "ক্ষি": 2184,
      "▁చె": 2185,
      "▁জাত": 2186,
      "నాయ": 2187,
      "–సా.శ.పూ.": 2188,
      "▁ఆర్": 2189,
      "పాలిత": 2190,
      "ंग्रेज़": 2191,
      "ేంద్రపాలిత": 2192,
      "▁[আইএসবিএন](./ISBN_\\(identifier\\)": 2193,
      "Increase": 2194,
      "econom": 2195,
      "article": 2196,
      "ission": 2197,
      "ous": 2198,
      "anskrit": 2199,
      "ations": 2200,
      "ork": 2201,
      "les/": 2202,
      "कर": 2203,
      "ते": 2204,
      "पाल": 2205,
      "ूच": 2206,
      "জ্": 2207,
      "\")।": 2208,
      "▁सम": 2209,
      "্যান": 2210,
      "দ্বী": 2211,
      "শাস": 2212,
      "দ্বীপ": 2213,
      "4/": 2214,
      "87": 2215,
      "Edit": 2216,
      "Singh": 2217,
      "jec": 2218,
      "▁25": 2219,
      "Dw": 2220,
      "air": 2221,
      "ms": 2222,
      "aste": 2223,
      "lection": 2224,
      "9.": 2225,
      "bn": 2226,
      "ఖ్య": 2227,
      "గో": 2228,
      "తో": 2229,
      "దా": 2230,
      "బి": 2231,
      "హి": 2232,
      "▁[the": 2233,
      "er,": 2234,
      "ant": 2235,
      "స్కృ": 2236,
      "outh_Asia": 2237,
      "brary": 2238,
      "▁ప్రాంత": 2239,
      "yan": 2240,
      "हु": 2241,
      "ैद": 2242,
      "ोक": 2243,
      "চ্চ": 2244,
      "চীন": 2245,
      "▁घ": 2246,
      "▁।": 2247,
      "▁[प": 2248,
      "▁\"আ": 2249,
      "্যবস্থা": 2250,
      "▁পরি": 2251,
      "ানা": 2252,
      "ালয়": 2253,
      "▁মধ্য": 2254,
      "▁तक": 2255,
      "▁২০০৮": 2256,
      "किस्तान": 2257,
      "▁বিশ্ব": 2258,
      "ক্ষিণ": 2259,
      "▁জাতীয়": 2260,
      "gan": 2261,
      "File:": 2262,
      "alth": 2263,
      "_and_S": 2264,
      "▁k": 2265,
      "▁un": 2266,
      "▁its": 2267,
      "▁16": 2268,
      "indus": 2269,
      "ulke": 2270,
      "MetcalfMetcalf2006": 2271,
      "सम": 2272,
      "्ड": 2273,
      "বর্": 2274,
      "মে": 2275,
      "▁fi": 2276,
      "▁![](//upload.wikimedia.org/wikipedia/commons/thumb/": 2277,
      "▁\"H": 2278,
      "usin": 2279,
      "](./भारतीय_": 2280,
      "▁না": 2281,
      "▁সরকার": 2282,
      "জ্ঞ": 2283,
      "▁Comm": 2284,
      "43": 2285,
      "▁errors": 2286,
      "entre": 2287,
      "▁([help": 2288,
      "_ప": 2289,
      "హా": 2290,
      "▁ను": 2291,
      "](./H": 2292,
      "▁[E": 2293,
      "▁India\")": 2294,
      "▁17": 2295,
      "emplate": 2296,
      "▁చరిత్ర\")\n": 2297,
      "్యవస్థ": 2298,
      "_the": 2299,
      "_प्र": 2300,
      "lim": 2301,
      "কৃতি": 2302,
      "গণ": 2303,
      "দি": 2304,
      "পূ": 2305,
      "▁ডি": 2306,
      "ina": 2307,
      "▁(২": 2308,
      "র্ক": 2309,
      "▁পর": 2310,
      "ों_की_स": 2311,
      "ক্ষণ": 2312,
      "▁`{{[": 2313,
      "श्चि": 2314,
      "িল্প": 2315,
      "tinent": 2316,
      "8.": 2317,
      "Oxford": 2318,
      "_L": 2319,
      "ck": 2320,
      "mund": 2321,
      "▁U": 2322,
      "rav": 2323,
      "ated": 2324,
      "led": 2325,
      "▁\"K": 2326,
      "▁sub": 2327,
      "▁New": 2328,
      "-521": 2329,
      "odern": 2330,
      "inistry": 2331,
      "liament": 2332,
      "ओं": 2333,
      "ीं": 2334,
      "ूप": 2335,
      "চিত্র": 2336,
      "লো": 2337,
      "](./प": 2338,
      "act": 2339,
      "ন্ন": 2340,
      "usic": 2341,
      "▁An": 2342,
      "▁এই": 2343,
      "mpire": 2344,
      "মিটার": 2345,
      "]](./भारत#cite_note-FOOTNOTE": 2346,
      "RC": 2347,
      "othermund": 2348,
      "9)": 2349,
      "fn_": 2350,
      "hp": 2351,
      "డా": 2352,
      "బడ": 2353,
      "మే": 2354,
      "రణ": 2355,
      "▁te": 2356,
      "▁error": 2357,
      "▁జాతీయ": 2358,
      "arget": 2359,
      "isation": 2360,
      "now": 2361,
      "▁Sfn": 2362,
      "▁కూ": 2363,
      "ాలు,": 2364,
      "ాలు](./": 2365,
      "▁రాష్ట్ర": 2366,
      "కిస్తాన్": 2367,
      "template_": 2368,
      "▁target": 2369,
      "_and_Sfn_": 2370,
      "▁error:": 2371,
      "template_errors": 2372,
      "▁target:": 2373,
      "_and_Sfn_template_errors": 2374,
      "les": 2375,
      "tation": 2376,
      "anc": 2377,
      "](https://d": 2378,
      "continent": 2379,
      "51": 2380,
      "year": 2381,
      "गण": 2382,
      "रब": 2383,
      "वन": 2384,
      "्स": 2385,
      "ংশ": 2386,
      "ংলা": 2387,
      "ীল": 2388,
      "▁৩": 2389,
      "▁[স": 2390,
      "▁किया": 2391,
      "नाम": 2392,
      "্যান্ড": 2393,
      "মাণ": 2394,
      "_के_राज्य": 2395,
      "120px-": 2396,
      "Stein1998": 2397,
      "ंदिर": 2398,
      "चित्र:": 2399,
      "Singh2009": 2400,
      "▁([help](./": 2401,
      "y,": 2402,
      "ographic": 2403,
      "are": 2404,
      "duc": 2405,
      "pp": 2406,
      "▁CITEREF": 2407,
      "▁World": 2408,
      "IA": 2409,
      "igh": 2410,
      "/A": 2411,
      "Page/": 2412,
      "iz": 2413,
      "▁[978-1": 2414,
      "▁pro": 2415,
      "EditPage/": 2416,
      "जी": 2417,
      "ष्": 2418,
      "ক্র": 2419,
      "গর": 2420,
      "টা": 2421,
      "পু": 2422,
      "▁ha": 2423,
      "▁রাষ্ট্র": 2424,
      "▁ad": 2425,
      "ক্স": 2426,
      "▁languages": 2427,
      "▁একটি": 2428,
      "ज्ञ": 2429,
      "জ্ঞান": 2430,
      "▁errors\"))\n": 2431,
      "62": 2432,
      "_c": 2433,
      "వర్": 2434,
      "ి.\n": 2435,
      "▁ఈ": 2436,
      "▁భారత": 2437,
      "▁లో": 2438,
      "త్రి": 2439,
      "ulture": 2440,
      "](./India#cite_ref-FOOTNOTE": 2441,
      "100": 2442,
      "aman": 2443,
      "illion": 2444,
      "alay": 2445,
      "ice": 2446,
      "urop": 2447,
      "f/": 2448,
      "ंजा": 2449,
      "ख्या": 2450,
      "दक्षिण": 2451,
      "ेख": 2452,
      "োর্": 2453,
      "০-": 2454,
      "▁pr": 2455,
      "न्न": 2456,
      "्वीप": 2457,
      "▁ভারতীয়": 2458,
      "▁2021": 2459,
      "चीन": 2460,
      "▁खाना": 2461,
      "র্থনৈতিক": 2462,
      "▁ত্রুটি\"))\n": 2463,
      "ों_की_सूची": 2464,
      "ंजाब": 2465,
      "5/": 2466,
      "▁15": 2467,
      "---|---": 2468,
      "author": 2469,
      "conomic": 2470,
      "C&pg=PA": 2471,
      "▁\"Indian": 2472,
      "ound": 2473,
      ".;": 2474,
      "JP": 2475,
      "national": 2476,
      "210": 2477,
      "/d": 2478,
      "_క": 2479,
      "बसे": 2480,
      "ुल": 2481,
      "ం\")": 2482,
      "తు": 2483,
      "పతి": 2484,
      "▁ని": 2485,
      "▁\"భారతదేశం": 2486,
      "any": 2487,
      "్రి": 2488,
      "▁sfn": 2489,
      "ेंद्र": 2490,
      "న్ని": 2491,
      "ర్వ": 2492,
      "▁অব": 2493,
      "▁কে": 2494,
      "230": 2495,
      "▁2019": 2496,
      "ులు](./": 2497,
      "▁गया": 2498,
      "▁this": 2499,
      "మిళ": 2500,
      "▁राज्यों": 2501,
      "▁ভাষা\")\n": 2502,
      "me": 2503,
      "s-": 2504,
      "ali": 2505,
      "omb": 2506,
      "conomy": 2507,
      ".html)": 2508,
      "eop": 2509,
      "](./K": 2510,
      "▁Hindu": 2511,
      "1,": 2512,
      "lass": 2513,
      "चल": 2514,
      "बंध": 2515,
      "ैन": 2516,
      "তম": 2517,
      "সেম্বর": 2518,
      "](./আ": 2519,
      "▁[প": 2520,
      "](./ভারত#cite_ref-": 2521,
      "▁हो": 2522,
      "old": 2523,
      "বাংলা": 2524,
      "▁ভারতে": 2525,
      "▁হয়েছে": 2526,
      "fficial": 2527,
      "হিন্দ": 2528,
      "ম্পর্ক": 2529,
      "साँचा:": 2530,
      "▁ডিসেম্বর": 2531,
      "▁কেন্দ্র": 2532,
      "ran": 2533,
      "ta": 2534,
      "\")**": 2535,
      "ofindia": 2536,
      "uring": 2537,
      "4%": 2538,
      "low": 2539,
      "_F": 2540,
      "iver": 2541,
      ".php": 2542,
      "_మ": 2543,
      "_భాష": 2544,
      "ద్ర": 2545,
      "ఫ్": 2546,
      "▁స్": 2547,
      "▁స్థ": 2548,
      "▁[స": 2549,
      "▁\"అ": 2550,
      "\"):": 2551,
      "ack": 2552,
      "ames": 2553,
      "న్నాయ": 2554,
      "une": 2555,
      "\").[[": 2556,
      "▁రై": 2557,
      "pril": 2558,
      "వంశం": 2559,
      "హిందూ": 2560,
      "330": 2561,
      "_ম": 2562,
      "mer": 2563,
      "ब्": 2564,
      "२०": 2565,
      "টে": 2566,
      "পতি": 2567,
      "▁[L": 2568,
      "ालय": 2569,
      "▁नि": 2570,
      "न्द्र": 2571,
      "্যাক": 2572,
      "▁[मूल": 2573,
      "%E0%A6%B": 2574,
      "▁पुरालेखित": 2575,
      "▁সালে": 2576,
      "▁पुरालेखित।": 2577,
      "yn": 2578,
      "radesh": 2579,
      ".svg/40px-Flag_of_": 2580,
      "bal": 2581,
      "20px-": 2582,
      "ritann": 2583,
      ".svg/20px-": 2584,
      "off": 2585,
      "entur": 2586,
      "जरा": 2587,
      "ेव": 2588,
      "বর": 2589,
      "শ্র": 2590,
      "ীক": 2591,
      "ীত": 2592,
      "▁24": 2593,
      "omp": 2594,
      "▁सबसे": 2595,
      "ide": 2596,
      "বাধ": 2597,
      "েশিন": 2598,
      "কেন্দ্র": 2599,
      "स्था": 2600,
      "स्थान": 2601,
      "ियों": 2602,
      "क्ति": 2603,
      "্রাজ্য": 2604,
      "ওয়েব্যাক": 2605,
      "Increase2": 2606,
      "44": 2607,
      "](https://web.archive.org/web/200": 2608,
      "DwAAQBAJ&pg=PA": 2609,
      "GDP": 2610,
      "on-": 2611,
      "ined": 2612,
      "197": 2613,
      "ffair": 2614,
      "&s": 2615,
      "9/": 2616,
      "బా": 2617,
      "భూ": 2618,
      "య్య": 2619,
      "ర్య": 2620,
      "▁ల": 2621,
      "](./క": 2622,
      "▁\"ప": 2623,
      "▁\"స": 2624,
      "cies": 2625,
      "uman": 2626,
      "imes": 2627,
      "▁[↑](./భారతదేశం#cite_ref-": 2628,
      "త్త": 2629,
      "▁ప్రదేశ్": 2630,
      "ప్రదేశ్": 2631,
      "AARC": 2632,
      "ligion": 2633,
      "news/": 2634,
      "▁నుండి": 2635,
      "2012": 2636,
      "ural": 2637,
      "68": 2638,
      "टन": 2639,
      "प्त": 2640,
      "िन": 2641,
      "ोर": 2642,
      "ণী": 2643,
      "যোগ": 2644,
      "শ্চ": 2645,
      "](./টেমপ্লেট:": 2646,
      "▁\"টেমপ্লেট:": 2647,
      "্যারা": 2648,
      "▁India:": 2649,
      "▁প্যারা": 2650,
      "বাদ": 2651,
      "▁जिस": 2652,
      "কারী": 2653,
      "জাতীয়": 2654,
      "▁were": 2655,
      "ुसार": 2656,
      "▁প্যারামিটার": 2657,
      "2/": 2658,
      "mar": 2659,
      "uary": 2660,
      "▁2010": 2661,
      "▁Ind": 2662,
      "▁le": 2663,
      "tes": 2664,
      "\")_.": 2665,
      "roup": 2666,
      "rip": 2667,
      "ement": 2668,
      "Flag_of_India": 2669,
      "Indo-": 2670,
      "ya": 2671,
      "ree": 2672,
      "epublic": 2673,
      "ee": 2674,
      "ere": 2675,
      "uj": 2676,
      "च्च": 2677,
      "ण्ड": 2678,
      "শন": 2679,
      "শি": 2680,
      "সভা": 2681,
      "▁রাজ্য": 2682,
      "▁[ক": 2683,
      "ানি": 2684,
      "](./भारत#CITEREF": 2685,
      "িকে": 2686,
      "▁प्रा": 2687,
      "▁প্রধান": 2688,
      "_सं": 2689,
      "সংখ": 2690,
      "▁Asian": 2691,
      "▁साथ": 2692,
      "ভূমি": 2693,
      "](./भारत_में_": 2694,
      "শ্চিম": 2695,
      "ho": 2696,
      "▁st": 2697,
      "31": 2698,
      "i/": 2699,
      "ణి": 2700,
      "తమిళ": 2701,
      "మె": 2702,
      "మైన": 2703,
      "హార": 2704,
      "▁[అ": 2705,
      "▁[ప": 2706,
      "▁\"L": 2707,
      "▁\"ఇ": 2708,
      "▁\"బ": 2709,
      "▁\"భారత": 2710,
      "lad": 2711,
      "రాజ": 2712,
      "▁కాల": 2713,
      "▁మొ": 2714,
      "నాగ": 2715,
      "త్తర": 2716,
      "▁అధిక": 2717,
      "Stein2010": 2718,
      "శ్మీ": 2719,
      "మూస:": 2720,
      "Talbot": 2721,
      "▁dis": 2722,
      "AsherTalbot": 2723,
      "7%": 2724,
      "7)": 2725,
      "_ও": 2726,
      "_উদ্ধৃতি": 2727,
      "आई": 2728,
      "ख्य": 2729,
      "णा": 2730,
      "दा": 2731,
      "উত্তর": 2732,
      "ণি": 2733,
      "ুট": 2734,
      "▁था": 2735,
      "▁[H": 2736,
      "▁[অ": 2737,
      "▁\"श्रेणी:Harv": 2738,
      "ারণ": 2739,
      "▁সে": 2740,
      "याल": 2741,
      "▁করা": 2742,
      "uly": 2743,
      "्वर": 2744,
      "▁আর্কাইভকৃত": 2745,
      "▁হি": 2746,
      "▁आधार": 2747,
      "▁संघ": 2748,
      "पाकिस्तान": 2749,
      "▁উদ্ধৃতি\")}}`:": 2750,
      "श्रेणी:Harv_and_Sfn_template_errors": 2751,
      "▁([help](./श्रेणी:Harv_and_Sfn_template_errors": 2752,
      "▁([help](./श्रेणी:Harv_and_Sfn_template_errors?action=edit&redlink=1": 2753,
      "/s": 2754,
      "1947": 2755,
      "iksh": 2756,
      "▁April": 2757,
      "ikshit": 2758,
      "▁Y": 2759,
      "arliament": 2760,
      "▁India\"": 2761,
      ".gov.in/": 2762,
      "india.gov.in": 2763,
      "1_": 2764,
      "uch": 2765,
      "▁ed": 2766,
      "▁la": 2767,
      "▁21": 2768,
      "](./L": 2769,
      "](./Indian_": 2770,
      "\\)\")\n": 2771,
      ".jpg)](./File:": 2772,
      "ystem": 2773,
      "4.": 2774,
      "7/": 2775,
      "asia": 2776,
      "lear": 2777,
      "▁per": 2778,
      "ature": 2779,
      "Intern": 2780,
      "Kulke": 2781,
      "_আ": 2782,
      "_ব": 2783,
      "i-": 2784,
      "ores": 2785,
      "की": 2786,
      "तंत्र": 2787,
      "तमिल": 2788,
      "वरी": 2789,
      "ेर": 2790,
      "्ला": 2791,
      "্ম": 2792,
      "▁धर्म": 2793,
      "▁विश्व": 2794,
      "](./उ": 2795,
      "▁\"उ": 2796,
      "▁सि": 2797,
      "▁countries": 2798,
      "ाली": 2799,
      "▁আগ": 2800,
      "▁[মূল": 2801,
      "▁সাম": 2802,
      "श्मी": 2803,
      "युक्त": 2804,
      "-in-": 2805,
      "eth": 2806,
      "చే": 2807,
      "ైనా": 2808,
      "▁శ": 2809,
      "](./ఇ": 2810,
      "](./బ": 2811,
      "](./స": 2812,
      "▁[ఇ": 2813,
      "▁\"జ": 2814,
      "భారత_": 2815,
      "లో](./": 2816,
      "రిజ": 2817,
      "క్కు": 2818,
      "ourt": 2819,
      "ండ్": 2820,
      "స్కృతి": 2821,
      "JPG": 2822,
      ",000": 2823,
      "Rothermund": 2824,
      "Wik": 2825,
      "co": 2826,
      "eg": 2827,
      "entral": 2828,
      "98": 2829,
      "inister": 2830,
      "-w": 2831,
      "-re": 2832,
      "5_": 2833,
      "hal": 2834,
      "▁territ": 2835,
      "aint": 2836,
      "%2C_": 2837,
      "2_": 2838,
      "tor": 2839,
      "ंब": 2840,
      "गढ़": 2841,
      "ज्य": 2842,
      "म्रा": 2843,
      "ांग": 2844,
      "জানা": 2845,
      "োট": 2846,
      "▁রাজ": 2847,
      "▁[उ": 2848,
      "▁[ব": 2849,
      "cient": 2850,
      "য়া": 2851,
      "▁India,": 2852,
      "▁अधिक": 2853,
      "▁है।\n": 2854,
      "▁বৃ": 2855,
      "तिहास": 2856,
      "▁উৎস/0": 2857,
      "](./বিশেষ:বইয়ের_উৎস/0": 2858,
      "स्कृत": 2859,
      "▁हिन्द": 2860,
      "শাসিত": 2861,
      "eople": 2862,
      "ari": 2863,
      "eneral": 2864,
      "ower": 2865,
      "glish": 2866,
      "Dyson": 2867,
      "iter": 2868,
      "eration": 2869,
      "ick": 2870,
      "isher": 2871,
      "▁(PDF)": 2872,
      "69": 2873,
      "rst": 2874,
      "▁22": 2875,
      "▁[W": 2876,
      "▁cons": 2877,
      "formatic": 2878,
      "▁region": 2879,
      "▁Commission": 2880,
      "urope": 2881,
      "▁Th": 2882,
      "rojec": 2883,
      "uclear": 2884,
      "ities": 2885,
      "পাল": 2886,
      "রিক": 2887,
      "ীর": 2888,
      "ఆసియా": 2889,
      "▁[ই": 2890,
      "▁[జ": 2891,
      "▁[బ": 2892,
      "▁\"ব": 2893,
      "्रिट": 2894,
      "▁मु": 2895,
      "▁పా": 2896,
      "line": 2897,
      "▁অজানা": 2898,
      "▁কো": 2899,
      "▁వా": 2900,
      "▁তালিকা": 2901,
      "▁बाद": 2902,
      "्वार": 2903,
      "ండు": 2904,
      "▁చూ": 2905,
      "త్వ": 2906,
      "িয়ান": 2907,
      "ప్రధాన": 2908,
      "ड़ा": 2909,
      "िल्ल": 2910,
      "ongress": 2911,
      "জাতন্ত্র": 2912,
      "...": 2913,
      "▁१९": 2914,
      "ঞ্জ": 2915,
      "slands": 2916,
      "▁have": 2917,
      "330px-": 2918,
      "म्राज्य": 2919,
      "65": 2920,
      "ibrary": 2921,
      "▁28": 2922,
      "comp": 2923,
      "ama": 2924,
      "ats": 2925,
      "▁Population": 2926,
      "KulkeRothermund": 2927,
      "61": 2928,
      "ote": 2929,
      "▁off": 2930,
      "ter_": 2931,
      "ritannica": 2932,
      "CO": 2933,
      "rd": 2934,
      "▁-": 2935,
      "_Indian_": 2936,
      "harat": 2937,
      "times.com/": 2938,
      "tal": 2939,
      "\")[[": 2940,
      "ime": 2941,
      "-26": 2942,
      "64": 2943,
      "_और": 2944,
      "_पर": 2945,
      "aw": 2946,
      "एं": 2947,
      "वर्": 2948,
      "सी": 2949,
      "দের": 2950,
      "ল্": 2951,
      "](./ব": 2952,
      "▁[3": 2953,
      "▁[F": 2954,
      "▁\"ক": 2955,
      "ince": 2956,
      "India_": 2957,
      "▁कार": 2958,
      "▁मान": 2959,
      "्यटन": 2960,
      "▁সঙ্গ": 2961,
      "▁part": 2962,
      "▁Constitution": 2963,
      "▁২১": 2964,
      "প্রা": 2965,
      "माण": 2966,
      "ishing": 2967,
      "▁शास": 2968,
      "▁यह": 2969,
      "▁[ভারতের": 2970,
      "▁[ভারতীয়": 2971,
      "কিস্তান": 2972,
      "▁([সাহায্য](./সাহায্য:উদ্ধৃতি_শৈলী_ত্রুটি#par": 2973,
      "▁(২০০": 2974,
      "ज्ञान": 2975,
      "_ও_": 2976,
      "2-0)": 2977,
      "dom": 2978,
      "man": 2979,
      "▁[_A": 2980,
      ".svg.png)](./": 2981,
      "ledge": 2982,
      "Dyson2018": 2983,
      "-20": 2984,
      "tive": 2985,
      "etail": 2986,
      ":S": 2987,
      "e/": 2988,
      "iod": 2989,
      "-17": 2990,
      "▁de": 2991,
      "_సా": 2992,
      "countries": 2993,
      "iff": 2994,
      "ంప": 2995,
      "గణ": 2996,
      "దిన": 2997,
      "నై": 2998,
      "రీ": 2999,
      "ోర్": 3000,
      "](./జ": 3001,
      "▁\"చ": 3002,
      "citation": 3003,
      "resid": 3004,
      "▁క్రీ": 3005,
      "క్‌": 3006,
      "నికి": 3007,
      "ల్ల": 3008,
      "ంగీ": 3009,
      "నాభా": 3010,
      "aper": 3011,
      "జాబి": 3012,
      "▁తే": 3013,
      "శాస్త్ర": 3014,
      "▁భాష\")\n": 3015,
      "బెంగ": 3016,
      "జాబితా": 3017,
      "-g": 3018,
      "05": 3019,
      "_भाषा": 3020,
      "oin": 3021,
      "तर": 3022,
      "भी": 3023,
      "शास": 3024,
      "ाट": 3025,
      "ত্য": 3026,
      "তালিকা": 3027,
      "দা": 3028,
      "েল": 3029,
      "েস": 3030,
      "▁थ": 3031,
      "](./विशेष:पुस्तक": 3032,
      "▁\"विशेष:पुस्तक": 3033,
      "▁स्रोत/": 3034,
      "▁पा": 3035,
      "](./भारत_के_": 3036,
      "b/b": 3037,
      "ियाँ": 3038,
      "लाई": 3039,
      "কাশ": 3040,
      "_स्रोत/": 3041,
      "লেখ": 3042,
      "-2)": 3043,
      "▁लि": 3044,
      "_के_आ": 3045,
      ".html)।": 3046,
      "श्चिम": 3047,
      "ांग्ला": 3048,
      "](./विशेष:पुस्तक_स्रोत/": 3049,
      ".\"\n": 3050,
      "if": 3051,
      "ution": 3052,
      "▁27": 3053,
      "lobal": 3054,
      "▁Pr": 3055,
      "index": 3056,
      "argest": 3057,
      "cess": 3058,
      "▁23": 3059,
      "▁year": 3060,
      "University": 3061,
      ".jpg/120px-": 3062,
      "73": 3063,
      "88": 3064,
      "cat": 3065,
      "eu": 3066,
      "oth": 3067,
      "▁$": 3068,
      "▁[[": 3069,
      "▁\"F": 3070,
      "ten": 3071,
      "ories": 3072,
      "▁Dec": 3073,
      "10.10": 3074,
      "i,": 3075,
      "itation": 3076,
      "1950": 3077,
      "▁Pro": 3078,
      "▁**[": 3079,
      "▁Oxford": 3080,
      "▁[Archived](https://web.archive.org/web/20": 3081,
      "gy": 3082,
      "pib": 3083,
      "ंप": 3084,
      "উপ": 3085,
      "পরি": 3086,
      "ফোর্": 3087,
      "▁৪": 3088,
      "▁৫": 3089,
      "on_": 3090,
      "্রু": 3091,
      "▁[↑](./भारत": 3092,
      "anges": 3093,
      "▁class": 3094,
      "▁जु": 3095,
      "▁है,": 3096,
      "ेश्वर": 3097,
      "ंगा": 3098,
      "▁২০২": 3099,
      "eptem": 3100,
      "▁সংস্": 3101,
      "▁उप": 3102,
      "যুক্ত": 3103,
      "म्ब": 3104,
      "▁यु": 3105,
      "ার্ক": 3106,
      "](./List_of_countries": 3107,
      "त्प": 3108,
      "गुजरा": 3109,
      "ूचना": 3110,
      "_प्रदेश": 3111,
      "▁আর্কাইভকৃত।": 3112,
      "eptember": 3113,
      "_n": 3114,
      "fter": 3115,
      "has": 3116,
      "uis": 3117,
      "tent": 3118,
      "ision": 3119,
      "imf": 3120,
      "▁National": 3121,
      "engal": 3122,
      "53": 3123,
      "tt": 3124,
      "▁![": 3125,
      "cience": 3126,
      "ocial": 3127,
      ".jpg)\n": 3128,
      "nologue": 3129,
      "ం?action=edit&redlink=1": 3130,
      "చల్": 3131,
      "యన్": 3132,
      "వులు": 3133,
      "షు": 3134,
      "ూర్": 3135,
      "](./ప": 3136,
      "](./భారతీయ": 3137,
      "▁[భారతీయ": 3138,
      "ారం": 3139,
      "ార్ట": 3140,
      "ాలయ": 3141,
      "ument": 3142,
      "▁_The": 3143,
      "క్క": 3144,
      "▁వ్యవస్థ": 3145,
      "▁సి": 3146,
      "▁ము": 3147,
      "ండో": 3148,
      "ముంబ": 3149,
      "సిన": 3150,
      "ినల్": 3151,
      "▁north": 3152,
      "ద్ద": 3153,
      "▁ఉన్న": 3154,
      "▁ఉన్నాయ": 3155,
      "పాకిస్తాన్": 3156,
      "ంధీ": 3157,
      "▁ఒక": 3158,
      "▁ఒరిజ": 3159,
      "ార్టీ": 3160,
      "▁ఒరిజినల్": 3161,
      ".india": 3162,
      "▁13": 3163,
      "ipur": 3164,
      "-40": 3165,
      "Comb": 3166,
      "ID": 3167,
      "_ই": 3168,
      "hr": 3169,
      "lang": 3170,
      "काल": 3171,
      "बाद": 3172,
      "में": 3173,
      "रे": 3174,
      "रक्ष": 3175,
      "वाद": 3176,
      "ाष्ट्र": 3177,
      "ागर": 3178,
      "ोर्": 3179,
      "এফ": 3180,
      "দক্ষিণ": 3181,
      "েক্ষা": 3182,
      "▁\"স": 3183,
      "one": 3184,
      "▁1.": 3185,
      "ক্ট": 3186,
      "िक्ष": 3187,
      "▁কা": 3188,
      "_की_": 3189,
      "▁Development": 3190,
      "ক্ষম": 3191,
      "elig": 3192,
      "▁বৈ": 3193,
      "क्षेत्र": 3194,
      "▁শিল্প": 3195,
      "_मेला": 3196,
      "नेमा": 3197,
      "যুক্তি": 3198,
      "টেমপ্লেট:বই": 3199,
      "धार_पर": 3200,
      "द्योग": 3201,
      "▁2014.\n": 3202,
      "हाराष्ट्र": 3203,
      "▁মধ্যে": 3204,
      "পূর্ব": 3205,
      "्रिटिश": 3206,
      "_के_आधार_पर": 3207,
      "Combined": 3208,
      "_के_आधार_पर_भारत": 3209,
      "91": 3210,
      "pa": 3211,
      "ofile": 3212,
      "rab": 3213,
      "▁2016": 3214,
      "▁July": 3215,
      "embly": 3216,
      "usiness": 3217,
      "▁30": 3218,
      "](./F": 3219,
      "▁\"O": 3220,
      "▁government": 3221,
      ")](./": 3222,
      "67": 3223,
      "_H": 3224,
      "wood": 3225,
      "olper": 3226,
      "olpert": 3227,
      "\"](http://www.": 3228,
      "5-0)": 3229,
      "UN": 3230,
      "ban": 3231,
      "190": 3232,
      "ateg": 3233,
      "](./Special:BookSources/978-1": 3234,
      "▁\"Special:BookSources/978-1": 3235,
      "berg": 3236,
      "ortal": 3237,
      "logo": 3238,
      "ram": 3239,
      "ली": 3240,
      "व्य": 3241,
      "আই": 3242,
      "চে": 3243,
      "োবর": 3244,
      "▁ra": 3245,
      "▁राष्ट्रीय": 3246,
      "](./ক": 3247,
      "▁\"ই": 3248,
      "য়ু": 3249,
      "▁स्व": 3250,
      "▁मंदिर": 3251,
      "▁Cambridge": 3252,
      "files/": 3253,
      "▁दक्षिण": 3254,
      "iron": 3255,
      "ayan": 3256,
      "▁Empire": 3257,
      "ষ্ট": 3258,
      "ঙ্ক": 3259,
      "রেজি": 3260,
      ".jpg)](./चित्र:": 3261,
      ".jpg/330px-": 3262,
      "▁ইতিহাস": 3263,
      "▁২০১১": 3264,
      "outledge": 3265,
      "▁রয়েছে": 3266,
      "বাহিনী": 3267,
      "▁पुरालेखित।.": 3268,
      "বাধীন": 3269,
      "▁আগস্ট": 3270,
      "▁जुलाई": 3271,
      ".indiatimes.com/": 3272,
      "_के_आधार_पर_भारत_के_राज्य": 3273,
      "c/c": 3274,
      "tain": 3275,
      "term": 3276,
      "▁centur": 3277,
      "Oj": 3278,
      "t-": 3279,
      "జ్": 3280,
      "వరి": 3281,
      "శ్చ": 3282,
      "ిన్న": 3283,
      "ెల": 3284,
      "▁[భారత": 3285,
      "▁\"భారతదేశ": 3286,
      "్రె": 3287,
      "▁Ass": 3288,
      "anglad": 3289,
      "నిస్తాన్": 3290,
      "▁మధ్య": 3291,
      ".gov/": 3292,
      "](./భారతదేశంలో": 3293,
      "స్థాన్": 3294,
      "-107": 3295,
      "_by_": 3296,
      "దీ:": 3297,
      "▁పేజీ": 3298,
      "also": 3299,
      "మ్మూ": 3300,
      "▁\"భారతదేశంలో": 3301,
      "▁చూసిన": 3302,
      "▁తేదీ:": 3303,
      "శ్చి": 3304,
      "angladesh": 3305,
      "▁పేజీని": 3306,
      "-23": 3307,
      "99": 3308,
      ":[": 3309,
      "▁2006": 3310,
      "-19-5": 3311,
      "oi.org/": 3312,
      "▁(PDF).": 3313,
      "](https://doi.org/": 3314,
      "-c": 3315,
      "-f": 3316,
      "0.": 3317,
      "clop": 3318,
      "ren": 3319,
      "▁Act": 3320,
      "▁Pradesh": 3321,
      "▁Metcalf": 3322,
      "cyclop": 3323,
      "censusindia.gov.in/": 3324,
      "]:": 3325,
      "know": 3326,
      "wart": 3327,
      "zberg": 3328,
      "तेल": 3329,
      "न\")": 3330,
      "র্য": 3331,
      "শনা": 3332,
      "▁ar": 3333,
      "▁नाम": 3334,
      "▁[জ": 3335,
      "religion": 3336,
      "chwart": 3337,
      "](./ভারত#CITEREF": 3338,
      "বিজ্ঞান": 3339,
      "▁अप": 3340,
      "नाग": 3341,
      "▁কর": 3342,
      "ক্ষে": 3343,
      "ভাগ": 3344,
      "▁প্রা": 3345,
      "▁প্রতি": 3346,
      "েশন": 3347,
      "▁জুন": 3348,
      "s_C": 3349,
      "▁2024": 3350,
      "▁विक": 3351,
      "time": 3352,
      "▁रूप": 3353,
      "পাকিস্তান": 3354,
      "▁[↑](./भारत#cite_ref-FOOTNOTE": 3355,
      "ক্তকারী": 3356,
      "▁[भारतीय": 3357,
      "▁देशों": 3358,
      "গুলির": 3359,
      "_का_": 3360,
      "চিত্র:": 3361,
      "বাংলাদেশ": 3362,
      "শনাক্তকারী": 3363,
      "chwartzberg": 3364,
      ".as": 3365,
      "3/": 3366,
      "En": 3367,
      "cto": 3368,
      "rgan": 3369,
      "ual": 3370,
      "viron": 3371,
      "▁\"J": 3372,
      "tiv": 3373,
      "▁Sh": 3374,
      "▁world": 3375,
      "-80": 3376,
      "▁June": 3377,
      "▁Octo": 3378,
      "harma": 3379,
      "vironment": 3380,
      "▁October": 3381,
      "76": 3382,
      "8)": 3383,
      "ties": 3384,
      "2017": 3385,
      "lam": 3386,
      "▁2023": 3387,
      "▁subcontinent": 3388,
      "National_": 3389,
      "ni": 3390,
      "▁Aug": 3391,
      "▁Census": 3392,
      "oll": 3393,
      "akh": 3394,
      "▁\"South": 3395,
      "%2F": 3396,
      "eshow": 3397,
      "emple": 3398,
      "resident": 3399,
      "▁August": 3400,
      "_W": 3401,
      "ater": 3402,
      "▁us": 3403,
      "](./J": 3404,
      "▁[J": 3405,
      "▁pla": 3406,
      "loc": 3407,
      "-এ": 3408,
      ".|": 3409,
      "/artic": 3410,
      "TR": 3411,
      "oci": 3412,
      "ंक": 3413,
      "एशिया": 3414,
      "धी": 3415,
      "वस्था": 3416,
      "ोन": 3417,
      "ইল": 3418,
      "তন্ত্র": 3419,
      "দ্য": 3420,
      "নীতি": 3421,
      "বল": 3422,
      "সদ": 3423,
      "–1": 3424,
      "▁ভ": 3425,
      "▁[০-": 3426,
      "▁\"অ": 3427,
      "ार्": 3428,
      "▁कि": 3429,
      "য়ন": 3430,
      "ash": 3431,
      "ool": 3432,
      "▁पूर्व": 3433,
      "বিধান": 3434,
      "ালা": 3435,
      "▁মে": 3436,
      "ंगाल": 3437,
      "▁तट": 3438,
      "▁न्या": 3439,
      "▁ব্যবস্থা": 3440,
      "▁হল": 3441,
      "ষ্ঠ": 3442,
      "▁एवं": 3443,
      "▁Press.": 3444,
      "ন্তর্": 3445,
      "हिन्दी": 3446,
      "economic": 3447,
      "industry": 3448,
      "▁নাম": 3449,
      "श्मीर": 3450,
      "censusindia.gov.in/2011": 3451,
      "0/": 3452,
      "c=": 3453,
      "yy": 3454,
      "కై": 3455,
      "మం": 3456,
      "శ్రీ": 3457,
      "షన్": 3458,
      "హ్": 3459,
      "ెలు": 3460,
      "▁also": 3461,
      "](./అ": 3462,
      "▁పరి": 3463,
      "ాలు\n": 3464,
      "రియా": 3465,
      "▁మార్": 3466,
      "ప్రపంచ": 3467,
      "▁సంస్కృతి": 3468,
      "▁రాజవంశం": 3469,
      "rojection": 3470,
      "81": 3471,
      "2019": 3472,
      "ade": 3473,
      "andard": 3474,
      "_Press": 3475,
      "Citation": 3476,
      "dis": 3477,
      "ron": 3478,
      "▁[t": 3479,
      "▁population": 3480,
      "eport": 3481,
      "▁\\(identifier\\)\"):[": 3482,
      "1994": 3483,
      ".fr": 3484,
      "45": 3485,
      "500": 3486,
      "hat": 3487,
      "oor": 3488,
      "▁29": 3489,
      "▁\"Ch": 3490,
      "▁their": 3491,
      "▁into": 3492,
      "▁sec": 3493,
      "▁system": 3494,
      "andhi": 3495,
      "ummit\")\n": 3496,
      "uropean": 3497,
      "-le": 3498,
      "32": 3499,
      "_ब": 3500,
      "_ভারত": 3501,
      "ton": 3502,
      "अन": 3503,
      "एस": 3504,
      "चे": 3505,
      "टक": 3506,
      "सद": 3507,
      "ीस": 3508,
      "ेस": 3509,
      "কারি": 3510,
      "বন": 3511,
      "মন": 3512,
      "লচ্চ": 3513,
      "হু": 3514,
      "েলা": 3515,
      "১৭": 3516,
      "▁ড": 3517,
      "▁it": 3518,
      "](./স": 3519,
      "▁[सं": 3520,
      "▁\"द": 3521,
      "▁\"প": 3522,
      "ার্চ": 3523,
      "▁केंद्र": 3524,
      "nored": 3525,
      "chnolog": 3526,
      "ley": 3527,
      "বিত": 3528,
      "ween": 3529,
      "्तर": 3530,
      "ignored": 3531,
      "etween": 3532,
      "▁মেশিন": 3533,
      "विधान": 3534,
      "ाला": 3535,
      "भाग": 3536,
      "%E0%A4%": 3537,
      "संख्या": 3538,
      "▁भू": 3539,
      "ameter_": 3540,
      "▁अनुसार": 3541,
      "%E0%A6%A": 3542,
      "▁উপেক্ষা": 3543,
      "▁নির্": 3544,
      "▁উৎস/": 3545,
      "udden": 3546,
      "](./বিশেষ:বইয়ের_উৎস/": 3547,
      "▁स्थ": 3548,
      "▁first": 3549,
      "▁([সাহায্য](./সাহায্য:উদ্ধৃতি_শৈলী_ত্রুটি#parameter_": 3550,
      "লচ্চিত্র": 3551,
      "▁([সাহায্য](./সাহায্য:উদ্ধৃতি_শৈলী_ত্রুটি#parameter_ignored": 3552,
      "\"](http://": 3553,
      "2-": 3554,
      "CE": 3555,
      "detail": 3556,
      "ry": 3557,
      "son": 3558,
      "ymb": 3559,
      "umber": 3560,
      "olk": 3561,
      "▁2018": 3562,
      "ohn": 3563,
      "ology": 3564,
      "4/4": 3565,
      ".JPG": 3566,
      "4-7": 3567,
      "6_": 3568,
      "jab": 3569,
      "rish": 3570,
      "ert": 3571,
      "estern": 3572,
      "▁India.": 3573,
      "olic": 3574,
      "▁during": 3575,
      "_Delhi": 3576,
      "-19-8": 3577,
      "Indus": 3578,
      "ategory": 3579,
      "_language": 3580,
      "etr": 3581,
      "leshow": 3582,
      "\");": 3583,
      "ise": 3584,
      "here": 3585,
      "](//upload.wikimedia.org/wikipedia/commons/thumb/b/b": 3586,
      "▁been": 3587,
      "leshow/": 3588,
      "ne": 3589,
      "ok": 3590,
      "2001": 3591,
      "acy": 3592,
      "_of_the": 3593,
      "url": 3594,
      "118": 3595,
      "▁K.": 3596,
      "▁form": 3597,
      "3-0)": 3598,
      "a\")\n": 3599,
      "athe": 3600,
      "एँ": 3601,
      "गो": 3602,
      "लि": 3603,
      "ील": 3604,
      "ोड़": 3605,
      "ংরেজি": 3606,
      "ণা": 3607,
      "দিল্": 3608,
      "ধিক": 3609,
      "পে": 3610,
      "মিল": 3611,
      "রু": 3612,
      "হিত": 3613,
      "ুম": 3614,
      "৯৭": 3615,
      "ం\"),": 3616,
      "ఆఫ్": 3617,
      "కత": 3618,
      "క్య": 3619,
      "దాయ": 3620,
      "రే": 3621,
      "లంక": 3622,
      "వీ": 3623,
      "షి": 3624,
      "సు": 3625,
      "▁ఏ": 3626,
      "](./ই": 3627,
      "](./చ": 3628,
      "▁[न": 3629,
      "▁[చ": 3630,
      "ार्ट": 3631,
      "idd": 3632,
      "▁मूल": 3633,
      "▁সম্পর্ক": 3634,
      "adu": 3635,
      "adition": 3636,
      "స్సా": 3637,
      "▁పార్టీ": 3638,
      "▁Archived": 3639,
      "న్‌": 3640,
      "ాలు\")\n": 3641,
      "▁जो": 3642,
      "▁వచ్చ": 3643,
      "টিশ": 3644,
      "▁এর": 3645,
      "▁बहु": 3646,
      "▁सेना": 3647,
      "▁1950": 3648,
      "ముద్ర": 3649,
      "ন্দোল": 3650,
      "-81": 3651,
      "▁শতা": 3652,
      "লাই": 3653,
      "▁गण": 3654,
      "ड़ी": 3655,
      "म्बर": 3656,
      "గాంధీ": 3657,
      "▁Press\").": 3658,
      "▁ইউ": 3659,
      "నేపాల": 3660,
      "▁పేరు": 3661,
      "धिकार": 3662,
      "▁చెయ్య": 3663,
      "▁కూడా": 3664,
      "ంగీతం": 3665,
      "ముంబై": 3666,
      "శ్చిమ": 3667,
      "▁మార్గ": 3668,
      "হিত্য": 3669,
      "ন্দোলন": 3670,
      "▁చెయ్యబడ": 3671,
      "_K": 3672,
      "cms": 3673,
      "oy": 3674,
      "sha": 3675,
      "▁comp": 3676,
      "▁India_": 3677,
      "2000": 3678,
      "ird": 3679,
      "4-0)": 3680,
      "72": 3681,
      "▁[v": 3682,
      "▁[Ch": 3683,
      "71": 3684,
      "▁al": 3685,
      "▁es": 3686,
      "](./Ch": 3687,
      "▁[d": 3688,
      "ins": 3689,
      "▁September": 3690,
      "olly": 3691,
      "form": 3692,
      "uddh": 3693,
      "ollywood": 3694,
      "_at": 3695,
      "▁all": 3696,
      "2023": 3697,
      "▁2009": 3698,
      "60px-": 3699,
      "ose": 3700,
      "▁not": 3701,
      "AsherTalbot2008": 3702,
      "bi": 3703,
      "ces": 3704,
      "तिक": 3705,
      "दू": 3706,
      "श्री": 3707,
      "ीत": 3708,
      "ेट": 3709,
      "এশ": 3710,
      "গত": 3711,
      "চার": 3712,
      "▁ভূ": 3713,
      "](./প": 3714,
      "▁[e": 3715,
      "▁*[": 3716,
      "ics": 3717,
      "▁मा": 3718,
      "বিক": 3719,
      "▁পা": 3720,
      "ানু": 3721,
      "▁মা": 3722,
      "नाथ": 3723,
      "_क्षेत्र": 3724,
      "▁বর্": 3725,
      "▁एशिया": 3726,
      "%E0%A7%": 3727,
      "▁भाषा\")\n": 3728,
      "জাতীয়_": 3729,
      "▁[আর্কাইভকৃত](https://web.archive.org/web/201": 3730,
      "্রিটিশ": 3731,
      "ুটবল": 3732,
      "गुजरात": 3733,
      "ymbol": 3734,
      "Template": 3735,
      "ule": 3736,
      "India\\)": 3737,
      "lem": 3738,
      "▁Times": 3739,
      "indust": 3740,
      "unjab": 3741,
      "_projection": 3742,
      "orthographic": 3743,
      "8/8": 3744,
      "KulkeRothermund2004": 3745,
      "industan": 3746,
      "orthographic_projection": 3747,
      "3_": 3748,
      "6/": 3749,
      "NG": 3750,
      "c.": 3751,
      "div": 3752,
      "▁state": 3753,
      "▁between": 3754,
      "▁2017": 3755,
      "ular": 3756,
      "irect": 3757,
      "-to": 3758,
      "minis": 3759,
      "ering": 3760,
      "en/": 3761,
      "▁ab": 3762,
      "ouse": 3763,
      ".org": 3764,
      "amp": 3765,
      "ata_": 3766,
      ".bn": 3767,
      "New": 3768,
      "_O": 3769,
      "_వ": 3770,
      "గర": 3771,
      "టక": 3772,
      "టా": 3773,
      "దార": 3774,
      "నీ": 3775,
      "రో": 3776,
      "సభ": 3777,
      "ెద్ద": 3778,
      "▁2.": 3779,
      "](./భారత_": 3780,
      "▁[సి": 3781,
      "▁\"సి": 3782,
      "iation": 3783,
      "in_India": 3784,
      "encies": 3785,
      "▁(ed": 3786,
      "iction": 3787,
      "▁పు": 3788,
      "రాజ్య": 3789,
      "▁కేంద్రపాలిత": 3790,
      "ourn": 3791,
      "▁[\"C": 3792,
      "త్స": 3793,
      "▁రాజ్య": 3794,
      "pecial:BookSources/978": 3795,
      "▁Jan": 3796,
      "▁ఉంది.": 3797,
      "వాతంత్ర": 3798,
      "▁దేశాల": 3799,
      "లాదేశ్": 3800,
      "స్తు": 3801,
      "▁సామ్రాజ్యం](./": 3802,
      "దీవులు": 3803,
      "హిందీ": 3804,
      "▁భాషలు": 3805,
      "ంగ్లాదేశ్": 3806,
      "ారు.": 3807,
      "_ప్రా": 3808,
      "్రిటి": 3809,
      "ూర్పు": 3810,
      "కైవు": 3811,
      "/h": 3812,
      "gis": 3813,
      "जय": 3814,
      "डी": 3815,
      "पी": 3816,
      "पति": 3817,
      "भू": 3818,
      "मह": 3819,
      "मंत्र": 3820,
      "रो": 3821,
      "ल\")": 3822,
      "ধারণ": 3823,
      "পাত": 3824,
      "মন্ত্র": 3825,
      "রক্ষণ": 3826,
      "হিনী": 3827,
      "▁फ": 3828,
      "য়ারি": 3829,
      "▁(১৯": 3830,
      "ikh": 3831,
      "▁but": 3832,
      "▁অর্থনৈতিক": 3833,
      "▁ক্র": 3834,
      "ource": 3835,
      "िया\")": 3836,
      "▁[\"India": 3837,
      "▁2020": 3838,
      "म्म": 3839,
      "▁साम्राज्य": 3840,
      "জাতিক": 3841,
      "वंश": 3842,
      "▁जाता": 3843,
      "▁वर्ष": 3844,
      "▁English": 3845,
      "ैदान": 3846,
      "तंत्रता": 3847,
      "द्योगिक": 3848,
      "ক্ষেত্র": 3849,
      "lm": 3850,
      "ph": 3851,
      "▁'": 3852,
      "inor": 3853,
      "▁more": 3854,
      "oi_\\(identifier\\)": 3855,
      "▁\"Doi": 3856,
      "](./Doi_\\(identifier\\)": 3857,
      ".php?": 3858,
      "langoff": 3859,
      "/S": 3860,
      "mu": 3861,
      "pu": 3862,
      "arh": 3863,
      "▁India\"),": 3864,
      "▁bec": 3865,
      "ates": 3866,
      "avid": 3867,
      "ildli": 3868,
      "ujar": 3869,
      "por": 3870,
      "▁2012": 3871,
      "archive.org/detail": 3872,
      "▁December": 3873,
      "censusindia.gov.in/2011census": 3874,
      "archive.org/details/": 3875,
      "79": 3876,
      "Qu": 3877,
      "a,": 3878,
      "britannica": 3879,
      "go": 3880,
      "▁im": 3881,
      "alog": 3882,
      "-00": 3883,
      ".org/wiki/": 3884,
      "britannica.com/": 3885,
      "earch": 3886,
      "tan": 3887,
      "पे": 3888,
      "वे": 3889,
      "िज़": 3890,
      "গা": 3891,
      "তার": 3892,
      "দ্র": 3893,
      "বেশ": 3894,
      "▁ड": 3895,
      "](./অ": 3896,
      "▁[প্র": 3897,
      "▁[हिन्द": 3898,
      "▁\"W": 3899,
      "▁\"इ": 3900,
      "an,": 3901,
      "ভারত\\)": 3902,
      "ingdom": 3903,
      "স্তা": 3904,
      "বাস": 3905,
      "विज्ञान": 3906,
      "তামিল": 3907,
      "▁Hindi": 3908,
      "apit": 3909,
      "]](./भारत#cite_note-1": 3910,
      "▁उत्तर": 3911,
      "ड़े": 3912,
      "▁২০০৯": 3913,
      "ी_भाषा": 3914,
      "রাষ্ট্রপতি": 3915,
      "द्यान": 3916,
      "নেপাল": 3917,
      "▁[_The": 3918,
      "र्थिक": 3919,
      "▁যুদ্ধ": 3920,
      "ंग्रेज़ी": 3921,
      "ক্সফোর্": 3922,
      "यालय": 3923,
      "University_Press": 3924,
      "▁[↑](./भारत#cite_ref-1": 3925,
      "ার্কিন": 3926,
      "ক্টোবর": 3927,
      "বাধীনতা": 3928,
      "ক্সফোর্ড": 3929,
      "az": 3930,
      "ned": 3931,
      "amb": 3932,
      "▁1,": 3933,
      "ovement": 3934,
      "▁[\"The": 3935,
      "able": 3936,
      "55": 3937,
      "5–": 3938,
      "86": 3939,
      "=http": 3940,
      "rm": 3941,
      "content": 3942,
      "ublishing": 3943,
      "olicy": 3944,
      "2,": 3945,
      "94": 3946,
      "Asia": 3947,
      "crip": 3948,
      "ంజా": 3949,
      "క్ర": 3950,
      "కేంద్రపాలిత": 3951,
      "గి": 3952,
      "టీ": 3953,
      "టాన్": 3954,
      "లను": 3955,
      "వె": 3956,
      "వరణ": 3957,
      "హదార": 3958,
      "ూచ": 3959,
      "▁భారతదేశ": 3960,
      "్యం": 3961,
      "umar": 3962,
      "భారతదేశ_": 3963,
      "arch_": 3964,
      "▁కు": 3965,
      "▁కొ": 3966,
      "ాలు\")": 3967,
      "▁వ్యా": 3968,
      "Informatic": 3969,
      "▁మత": 3970,
      "▁మా": 3971,
      "▁మతము": 3972,
      "▁చే": 3973,
      "తావరణ": 3974,
      "నాడు": 3975,
      "trib": 3976,
      "▁tw": 3977,
      "ాయి": 3978,
      "ణాసియా": 3979,
      "టెడ్": 3980,
      "▁ఆర్కైవు": 3981,
      "raven": 3982,
      "▁రైలు": 3983,
      "భూటాన్": 3984,
      "▁అధికార": 3985,
      "_సామ్రాజ్యం": 3986,
      "s_Centre": 3987,
      "మంత్రి": 3988,
      "శ్రీలంక": 3989,
      "iddle": 3990,
      "Informatics_Centre": 3991,
      "7,": 3992,
      "Fisher": 3993,
      "▁comm": 3994,
      "edic": 3995,
      "▁music": 3996,
      "▁[Stein": 3997,
      "▁official": 3998,
      "Fisher2018": 3999,
      "_প্র": 4000,
      "site": 4001,
      "डु": 4002,
      "णि": 4003,
      "त्य": 4004,
      "धु": 4005,
      "लोक": 4006,
      "ণ্": 4007,
      "দু": 4008,
      "ভর": 4009,
      "মু": 4010,
      "শীল": 4011,
      "েখ": 4012,
      "▁छ": 4013,
      "▁res": 4014,
      "▁ধর্ম": 4015,
      "▁[_India": 4016,
      "▁[पु": 4017,
      "▁\"न": 4018,
      "▁\"सं": 4019,
      "ara": 4020,
      "▁(পি": 4021,
      "ন্ট": 4022,
      "[[১": 4023,
      "uslim": 4024,
      "00)": 4025,
      "istor": 4026,
      "▁অক্টোবর": 4027,
      "▁মহা": 4028,
      "नाव": 4029,
      "▁द्वार": 4030,
      "ের_তালিকা": 4031,
      "▁প্রযুক্তি": 4032,
      "▁দি": 4033,
      "माज": 4034,
      "প্ত": 4035,
      "▁থেকে](http://www.": 4036,
      "সংস্": 4037,
      "ी](./अ": 4038,
      "ড়া": 4039,
      "▁अन्य": 4040,
      "सेना": 4041,
      "▁উদ্ধৃতি](./টেমপ্লেট:": 4042,
      "gram": 4043,
      "▁चु": 4044,
      "▁हुई": 4045,
      "▁২০০৭।": 4046,
      "▁समय": 4047,
      "্যান্য": 4048,
      "বর্ত": 4049,
      "লোক": 4050,
      "▁বৃহ": 4051,
      "त्पाद": 4052,
      "ক্ষমতা": 4053,
      "ণ্ড": 4054,
      "_en": 4055,
      "day": 4056,
      "▁—": 4057,
      "](./W": 4058,
      "▁[I": 4059,
      "ones": 4060,
      "omen": 4061,
      "come": 4062,
      "even": 4063,
      "-90": 4064,
      "▁Islands": 4065,
      "Harle": 4066,
      "gency": 4067,
      "▁January": 4068,
      "-H": 4069,
      "110": 4070,
      "89": 4071,
      "BC": 4072,
      "CN": 4073,
      "mon": 4074,
      "▁ac": 4075,
      "ace": 4076,
      "inguis": 4077,
      "▁Affair": 4078,
      "▁May": 4079,
      "▁dance": 4080,
      "s_and": 4081,
      "▁2004": 4082,
      "inguistic": 4083,
      "IM": 4084,
      "ft": 4085,
      "ges": 4086,
      "▁0.": 4087,
      "-14": 4088,
      "▁Congress": 4089,
      "▁Government": 4090,
      "ocument": 4091,
      "clud": 4092,
      "-of": 4093,
      "-21": 4094,
      "52": 4095,
      "6-0)": 4096,
      "ven": 4097,
      "orce": 4098,
      "ilk": 4099,
      "▁national": 4100,
      "inistry_of_": 4101,
      "athematic": 4102,
      "Wolpert": 4103,
      "_न": 4104,
      "_ন": 4105,
      "ईसा": 4106,
      "कल": 4107,
      "खाना": 4108,
      "टे": 4109,
      "तु": 4110,
      "रवरी": 4111,
      "ल्": 4112,
      "ाम": 4113,
      "ैक": 4114,
      "ोम": 4115,
      "গোল": 4116,
      "ছিল": 4117,
      "জে": 4118,
      "জার্": 4119,
      "ডিয়া": 4120,
      "ভেম্বর": 4121,
      "লু": 4122,
      "১-": 4123,
      "▁ऊ": 4124,
      "▁গ্র": 4125,
      "](./The": 4126,
      "▁[द": 4127,
      "▁[Metcalf": 4128,
      "ारी": 4129,
      "▁सु": 4130,
      "ustral": 4131,
      "र्दू": 4132,
      "▁अग": 4133,
      "▁दिया": 4134,
      "▁এশ": 4135,
      "▁बढ़": 4136,
      "▁নভেম্বর": 4137,
      "্বে": 4138,
      "িয়ন": 4139,
      "▁व्य": 4140,
      ".htm)।": 4141,
      "राष्ट्रपति": 4142,
      "ত্তম": 4143,
      "▁বাহিনী": 4144,
      "জাতি": 4145,
      "्रां": 4146,
      "র্থনীতি": 4147,
      "▁हुआ": 4148,
      "▁২০০৭।\n": 4149,
      "मुख": 4150,
      "▁হয়।": 4151,
      "हासागर": 4152,
      "▁বিশ্বের": 4153,
      "মাণু": 4154,
      "হিন্দু": 4155,
      "ীকরণ": 4156,
      "▁সাম্রাজ্য": 4157,
      "ंबई": 4158,
      "शासित": 4159,
      "▁लिए": 4160,
      "▁years": 4161,
      "िक्षा": 4162,
      "▁विकास": 4163,
      "ন্তর্জাতিক": 4164,
      "দিল্লি": 4165,
      "মন্ত্রী": 4166,
      "/121": 4167,
      "EX": 4168,
      "ealth": 4169,
      "fl": 4170,
      "anth": 4171,
      "▁Con": 4172,
      "107": 4173,
      "▁East": 4174,
      "esearch": 4175,
      "\")**|": 4176,
      "orest": 4177,
      "ttar": 4178,
      "ildlife": 4179,
      "-28": 4180,
      "Taj": 4181,
      "_4": 4182,
      "_University_Press": 4183,
      "nam": 4184,
      "ఆర్": 4185,
      "ఉత్తర": 4186,
      "ఒడి": 4187,
      "కీయ": 4188,
      "గం": 4189,
      "గలు": 4190,
      "చు": 4191,
      "జరా": 4192,
      "తూర్పు": 4193,
      "ది.": 4194,
      "భు": 4195,
      "మన్": 4196,
      "యి": 4197,
      "లస": 4198,
      "ీన": 4199,
      "ేక": 4200,
      "▁:": 4201,
      "▁హ": 4202,
      "▁జాబితా": 4203,
      "▁[Indian": 4204,
      "▁after": 4205,
      "▁states": 4206,
      "▁పట్ట": 4207,
      "▁Comp": 4208,
      "onso": 4209,
      "emoc": 4210,
      "నిక": 4211,
      "ంగ్రె": 4212,
      "▁సభ": 4213,
      "తాబ్": 4214,
      "▁Nations": 4215,
      ".jpg)[": 4216,
      "ులు\")|": 4217,
      "▁ప్రపంచ": 4218,
      "abad": 4219,
      "▁ఆసియా": 4220,
      "మ్రాజ్య": 4221,
      ".html).": 4222,
      "▁ఇతర": 4223,
      "గుజరా": 4224,
      "peration": 4225,
      "_New": 4226,
      "▁సామ్రాజ్యం|": 4227,
      "frica": 4228,
      "త్యేక": 4229,
      "రాష్ట్రపతి": 4230,
      "ప్ప": 4231,
      "umbai": 4232,
      "▁కాశ్మీ": 4233,
      "ependencies": 4234,
      "▁చెంద": 4235,
      "▁ఆర్ధిక": 4236,
      "▁స్థాన": 4237,
      "తమిళనాడు": 4238,
      "ప్రధానమంత్రి": 4239,
      "గణతంత్ర": 4240,
      "▁క్రీడ": 4241,
      "▁classical": 4242,
      "▁ఉన్నాయి.": 4243,
      "National_Informatics_Centre": 4244,
      "4/41/": 4245,
      "](//upload.wikimedia.org/wikipedia/commons/thumb/b/b0/": 4246,
      "ఆఫ్ఘ": 4247,
      "షియా": 4248,
      "న్‌ఫ": 4249,
      "నేపాల్": 4250,
      "తాబ్ద": 4251,
      "National_Informatics_Centre2005": 4252,
      "\"](https://": 4253,
      "K:": 4254,
      "NC": 4255,
      "_f": 4256,
      "_un": 4257,
      "ures": 4258,
      "ion_": 4259,
      "ajor": 4260,
      "/P": 4261,
      "II": 4262,
      "Pr": 4263,
      "_h": 4264,
      "ii": 4265,
      "thnologue": 4266,
      "2024": 4267,
      "araj": 4268,
      "▁co": 4269,
      "cean": 4270,
      "▁Talbot": 4271,
      ".htm)": 4272,
      "key": 4273,
      "▁2011.\n": 4274,
      "olitical": 4275,
      "▁Commissioner": 4276,
      "ournal": 4277,
      "-25": 4278,
      "_বি": 4279,
      "pt": 4280,
      "pla": 4281,
      "क्स": 4282,
      "न](./": 4283,
      "नगर": 4284,
      "ल](./": 4285,
      "वै": 4286,
      "ूर्": 4287,
      "ृति": 4288,
      "কো": 4289,
      "টান": 4290,
      "থ্য": 4291,
      "দে": 4292,
      "দার": 4293,
      "পুর": 4294,
      "ব্": 4295,
      "মার": 4296,
      "ে](./": 4297,
      "১৪": 4298,
      "▁ঘ": 4299,
      "▁ধ": 4300,
      "▁he": 4301,
      "▁फ़": 4302,
      "▁time": 4303,
      "▁[आ": 4304,
      "▁[इ": 4305,
      "▁[ন": 4306,
      "▁\"आ": 4307,
      "tel": 4308,
      "ार्च": 4309,
      "ভারতীয়": 4310,
      "change": 4311,
      "ন্স": 4312,
      "▁পর্ব": 4313,
      "ussia": 4314,
      "স্ট্র": 4315,
      "िक्": 4316,
      "িকী": 4317,
      "▁जून": 4318,
      "▁दिस": 4319,
      "দ্ধি": 4320,
      "राजस्थान": 4321,
      "▁প্রস্তা": 4322,
      "▁নদী": 4323,
      "▁জু": 4324,
      "▁Language": 4325,
      "ঙ্কা": 4326,
      "_\\(ভারত\\)": 4327,
      "সংঘ": 4328,
      "नेपाल": 4329,
      "त्तरा": 4330,
      "ডিএফ": 4331,
      "ance/": 4332,
      "সিন্ধ": 4333,
      "जाति": 4334,
      "ummits": 4335,
      "পাদ": 4336,
      "पर्यटन": 4337,
      "ুরু": 4338,
      "धानमंत्र": 4339,
      "▁গা": 4340,
      "्रीका": 4341,
      "_অঞ্চল": 4342,
      "▁[Archived](https://web.archive.org/web/201": 4343,
      "▁सूची\")": 4344,
      "actbook": 4345,
      "गणना": 4346,
      "ীলঙ্কা": 4347,
      "ष्ण": 4348,
      "হিন্দি": 4349,
      "▁निर्": 4350,
      ".svg/20px-Increase2": 4351,
      "শ্রীলঙ্কা": 4352,
      "Increase2.svg/20px-Increase2": 4353,
      "্মীর": 4354,
      "माणु": 4355,
      "म्मू": 4356,
      "▁two": 4357,
      "▁(পিডিএফ": 4358,
      "](//upload.wikimedia.org/wikipedia/commons/thumb/b/b0/Increase2.svg/20px-Increase2": 4359,
      "▁दिसम्बर": 4360,
      "](//upload.wikimedia.org/wikipedia/commons/thumb/b/b0/Increase2.svg/20px-Increase2.svg.png)": 4361,
      ".uk": 4362,
      "1-0)": 4363,
      "back": 4364,
      "gest": 4365,
      "ious": 4366,
      "m.nic.in/": 4367,
      "ncl": 4368,
      "▁art": 4369,
      "ised": 4370,
      "▁sh": 4371,
      "imalay": 4372,
      "olitics": 4373,
      "nclm.nic.in/": 4374,
      "dr": 4375,
      "itz": 4376,
      "ical_": 4377,
      "access": 4378,
      "ove": 4379,
      "olle": 4380,
      "▁Man": 4381,
      "▁2013": 4382,
      "▁1947": 4383,
      "ughal": 4384,
      "a/a": 4385,
      "obb": 4386,
      "9/9": 4387,
      "%7": 4388,
      ",[[": 4389,
      "-B": 4390,
      "UI": 4391,
      "_3": 4392,
      "ehr": 4393,
      "ira": 4394,
      "ria": 4395,
      "▁en": 4396,
      "▁[O": 4397,
      "▁\"I": 4398,
      "ndra": 4399,
      "theast": 4400,
      "idata": 4401,
      "-111": 4402,
      "tra": 4403,
      "▁most": 4404,
      "rahm": 4405,
      "▁group": 4406,
      "ublication": 4407,
      "\"](https://web.archive.org/web/20160": 4408,
      "gener": 4409,
      "▁tradition": 4410,
      "▁York": 4411,
      "▁territories": 4412,
      "](./List_of_countries_by_": 4413,
      ".aspx": 4414,
      "\".": 4415,
      "ola": 4416,
      "ased": 4417,
      "ross": 4418,
      "24)": 4419,
      "odi": 4420,
      "8-0)": 4421,
      "?url": 4422,
      "_द": 4423,
      "_प": 4424,
      "_व": 4425,
      "`|": 4426,
      "sar": 4427,
      "टी": 4428,
      "वी": 4429,
      "हीं": 4430,
      "िज": 4431,
      "िन्": 4432,
      "ैल": 4433,
      "ैंड": 4434,
      "গো": 4435,
      "চি": 4436,
      "বস": 4437,
      "বার": 4438,
      "ভৌ": 4439,
      "ভ্য": 4440,
      "মহা": 4441,
      "৫]](./ভারত#cite_note-": 4442,
      "▁२": 4443,
      "▁টা": 4444,
      "▁२०": 4445,
      "](./सं": 4446,
      "▁[ज": 4447,
      "2015": 4448,
      "▁मार्च": 4449,
      "्यता": 4450,
      "-16": 4451,
      "trar": 4452,
      "▁पह": 4453,
      "▁पार्ट": 4454,
      "▁পূ": 4455,
      "र्स": 4456,
      "र्जा": 4457,
      "](./भारतीय": 4458,
      "](./भारत_की_": 4459,
      "ece": 4460,
      "ালত": 4461,
      "িকি": 4462,
      "বায়ু": 4463,
      "▁মার্চ": 4464,
      "সাই": 4465,
      "23)": 4466,
      "त्रि": 4467,
      "webcitation": 4468,
      "▁बना": 4469,
      "▁ব্যা": 4470,
      "_सा": 4471,
      "state": 4472,
      "▁হয়ে": 4473,
      "িয়ার": 4474,
      "▁শা": 4475,
      "প্রদেশ": 4476,
      "▁relig": 4477,
      "ৃত্য": 4478,
      "▁संविधान": 4479,
      ".jpg)](./চিত্র:": 4480,
      "▁Union": 4481,
      "र्वत": 4482,
      "ंडिया": 4483,
      "पात": 4484,
      "onstituent": 4485,
      "ন্তর": 4486,
      "ंग्रेस": 4487,
      "ন্ডিয়া": 4488,
      "▁গণ": 4489,
      "▁সালের": 4490,
      "সাম্রাজ্য": 4491,
      "▁অনু": 4492,
      "स्कृति": 4493,
      "economy": 4494,
      "▁खाना\")": 4495,
      "িকেট": 4496,
      "िल्ली": 4497,
      "▁शासन": 4498,
      "▁थी": 4499,
      "व्यवस्था": 4500,
      "▁শতাংশ": 4501,
      "▁द्वारा": 4502,
      "▁বৃহত্তম": 4503,
      "▁फ़रवरी": 4504,
      "?url=http": 4505,
      "webcitation.org/": 4506,
      "-india": 4507,
      "1–": 4508,
      "EO": 4509,
      "Report": 4510,
      "WEO": 4511,
      "_న": 4512,
      "_ప్రదేశ్": 4513,
      "be": 4514,
      "s.[[": 4515,
      "ఉప": 4516,
      "జె": 4517,
      "ఢ్": 4518,
      "నాల": 4519,
      "లే": 4520,
      "ళు": 4521,
      "ౌద్ధ": 4522,
      "▁j": 4523,
      "▁డ": 4524,
      "▁భా": 4525,
      "▁...": 4526,
      "alore": 4527,
      "ాలీ": 4528,
      "**జాతీయ": 4529,
      "ర్చ": 4530,
      "_of_S": 4531,
      "angalore": 4532,
      "▁March": 4533,
      "ake": 4534,
      "ము\")": 4535,
      "▁2003": 4536,
      "–సా.శ.18": 4537,
      "▁అత్య": 4538,
      "▁ప్రభు": 4539,
      "ప్రత్యేక": 4540,
      "▁ఆధ": 4541,
      "మాఖ్య": 4542,
      "వాణా": 4543,
      "ంటి": 4544,
      "▁దేశం": 4545,
      "904-7": 4546,
      "▁election": 4547,
      "డ్డ": 4548,
      "▁[2](./India#cite_ref-FOOTNOTE": 4549,
      "దక్షిణాసియా": 4550,
      "_Temple": 4551,
      "▁[1](./India#cite_ref-FOOTNOTE": 4552,
      "▁గల": 4553,
      "▁భారతదేశంలో": 4554,
      "యునై": 4555,
      "glance/": 4556,
      "ష్ణ": 4557,
      "_చరిత్ర?action=edit&redlink=1": 4558,
      "india-glance/": 4559,
      "-521-80": 4560,
      "▁రాష్ట్రాలు,": 4561,
      "_మతము": 4562,
      "▁మొద": 4563,
      "▁రాజవంశం|": 4564,
      "chnology": 4565,
      "▁చెయ్యబడింది.": 4566,
      "యునైటెడ్": 4567,
      "-521-80904-7": 4568,
      "-78": 4569,
      ".).": 4570,
      "7-0)": 4571,
      "84": 4572,
      "ally": 4573,
      "-15": 4574,
      "▁sup": 4575,
      "▁Sanskrit": 4576,
      "▁Pakistan": 4577,
      "ode": 4578,
      "▁War": 4579,
      "uggest": 4580,
      "▁produc": 4581,
      "International": 4582,
      "/articleshow/": 4583,
      "829": 4584,
      "_J": 4585,
      "_w": 4586,
      "ks": 4587,
      "p?": 4588,
      "isions": 4589,
      "iving": 4590,
      "▁spe": 4591,
      "ters": 4592,
      "1996": 4593,
      "▁Kashmir": 4594,
      "f/f": 4595,
      "▁became": 4596,
      "IMF": 4597,
      "/ark": 4598,
      ":/121": 4599,
      "Pakistan": 4600,
      "f.fr": 4601,
      "ls": 4602,
      "rick": 4603,
      "ndaman": 4604,
      "arb": 4605,
      "▁(1,": 4606,
      "ough": 4607,
      "atus": 4608,
      ".svg)": 4609,
      "aksh": 4610,
      "▁one": 4611,
      "▁Asia\")\n": 4612,
      "48/c": 4613,
      "ervation": 4614,
      "usines": 4615,
      "iterature": 4616,
      "eligion": 4617,
      "▁2006](./India#CITEREF": 4618,
      ".bnf.fr": 4619,
      "ujarat": 4620,
      "/ark:/121": 4621,
      "48/cb": 4622,
      ".bnf.fr/ark:/121": 4623,
      ".bnf.fr/ark:/12148/cb": 4624,
      "-২": 4625,
      "85": 4626,
      "_11": 4627,
      "aur": 4628,
      "de": 4629,
      "view": 4630,
      "ंट": 4631,
      "खंड": 4632,
      "खण्ड": 4633,
      "गोल": 4634,
      "धि": 4635,
      "योग": 4636,
      "रू": 4637,
      "रेल": 4638,
      "शीन": 4639,
      "ाप": 4640,
      "ुरु": 4641,
      "ौर": 4642,
      "ौद्ध": 4643,
      "ौद्योगिक": 4644,
      "ংগ্র": 4645,
      "উই": 4646,
      "করণ": 4647,
      "তীক": 4648,
      "ধি": 4649,
      "নিক": 4650,
      "বহ": 4651,
      "বন্ধ": 4652,
      "লার": 4653,
      "১২": 4654,
      "৬]](./ভারত#cite_note-": 4655,
      "৮-": 4656,
      "▁৬": 4657,
      "▁৭": 4658,
      "▁या": 4659,
      "▁up": 4660,
      "▁\"জ": 4661,
      "teen": 4662,
      "tig": 4663,
      "्रम": 4664,
      "▁(`|": 4665,
      "▁संग": 4666,
      "chi": 4667,
      "▁मैदान": 4668,
      "atak": 4669,
      "etary": 4670,
      "▁अरब": 4671,
      "नाडु": 4672,
      "▁जल": 4673,
      "সাগর": 4674,
      "▁दर": 4675,
      "▁Delhi": 4676,
      "▁प्रति": 4677,
      "ভাবে": 4678,
      "ताब्": 4679,
      "epal": 4680,
      "▁2008": 4681,
      "स्त्र": 4682,
      "▁বিচার": 4683,
      "▁had": 4684,
      "पुरी": 4685,
      "170": 4686,
      "](./भारत#cite_ref-FOOTNOTE": 4687,
      "▁It": 4688,
      "ড়ি": 4689,
      "▁हैं,": 4690,
      "किम": 4691,
      "_suggest": 4692,
      "timesofindia": 4693,
      "▁সরকারি": 4694,
      "ultural": 4695,
      "rowth": 4696,
      "दीव": 4697,
      "▁इसके": 4698,
      "पालिका": 4699,
      "▁घाट": 4700,
      "সংখ্যা": 4701,
      "▁सिनेमा": 4702,
      "▁সঙ্গে": 4703,
      "▁northern": 4704,
      "বিত)": 4705,
      "▁([সাহায্য](./সাহায্য:উদ্ধৃতি_শৈলী_ত্রুটি#parameter_ignored_suggest": 4706,
      "िक्किम": 4707,
      "▁প্রস্তাবিত)": 4708,
      "?url=http://": 4709,
      "timesofindia.indiatimes.com/": 4710,
      "127": 4711,
      "Ar": 4712,
      "Uttar": 4713,
      "gress": 4714,
      "val": 4715,
      "arn": 4716,
      "▁par": 4717,
      "▁Ac": 4718,
      "▁St": 4719,
      "407": 4720,
      "ages/": 4721,
      "▁than": 4722,
      "national-": 4723,
      "-logo": 4724,
      "/D": 4725,
      "6)\n": 4726,
      "LA": 4727,
      "mong": 4728,
      "▁over": 4729,
      "](./O": 4730,
      "ery": 4731,
      "ched": 4732,
      "▁Modern": 4733,
      "▁Republic": 4734,
      "▁2015": 4735,
      ".com/news/": 4736,
      "▁BCE": 4737,
      "▁Economic": 4738,
      "▁2022": 4739,
      "-108": 4740,
      "▁end": 4741,
      "▁language\")\n": 4742,
      "▁[2](./India#cite_ref-": 4743,
      "ative": 4744,
      "▁[1](./India#cite_ref-": 4745,
      "▁2010](./India#CITEREF": 4746,
      "▁Act,": 4747,
      "ehru": 4748,
      ".world": 4749,
      "/article": 4750,
      "/files/": 4751,
      "300": 4752,
      "_V": 4753,
      "_10": 4754,
      "bank": 4755,
      "tle": 4756,
      "▁/": 4757,
      "onwe": 4758,
      "edi": 4759,
      "2016": 4760,
      "▁includ": 4761,
      "agar": 4762,
      "_Sh": 4763,
      "1997": 4764,
      "▁3,": 4765,
      "ternal": 4766,
      "profile": 4767,
      "ondon": 4768,
      "ociet": 4769,
      "earch/": 4770,
      "onwealth": 4771,
      "-S": 4772,
      "119": 4773,
      "93": 4774,
      "Con": 4775,
      "HA": 4776,
      "_[": 4777,
      "20)": 4778,
      "▁Centre": 4779,
      "▁Plate": 4780,
      "top": 4781,
      "-অ": 4782,
      ":EditPage/": 4783,
      "St": 4784,
      "Sharma": 4785,
      "_I": 4786,
      "_अ": 4787,
      "_প": 4788,
      "cent": 4789,
      "va": 4790,
      "गंगा": 4791,
      "मेर": 4792,
      "रण": 4793,
      "लिस": 4794,
      "वीं": 4795,
      "शक": 4796,
      "स](./": 4797,
      "सभा": 4798,
      "स्ट": 4799,
      "ा:": 4800,
      "ां": 4801,
      "ांध": 4802,
      "ोष": 4803,
      "কাল": 4804,
      "কূল": 4805,
      "টক": 4806,
      "দালত": 4807,
      "মূল": 4808,
      "রো": 4809,
      "ুদ্ধ": 4810,
      "েয়": 4811,
      "ం,": 4812,
      "ం\")\n": 4813,
      "కొ": 4814,
      "కాల": 4815,
      "కరణ": 4816,
      "ఖండ": 4817,
      "గం:": 4818,
      "టిక": 4819,
      "డే": 4820,
      "ద్య": 4821,
      "ద్రా": 4822,
      "మార్": 4823,
      "మాలయ": 4824,
      "లలో": 4825,
      "లకు": 4826,
      "ళ్": 4827,
      "హు": 4828,
      "ానికి": 4829,
      "ాళు": 4830,
      "ీర్": 4831,
      "▁ध": 4832,
      "▁land": 4833,
      "▁other": 4834,
      "▁యు": 4835,
      "▁శాస్త్ర": 4836,
      "](./V": 4837,
      "](./ন": 4838,
      "▁[s": 4839,
      "▁[భారతదేశ": 4840,
      "▁\"V": 4841,
      "▁\"ন": 4842,
      "▁\"বি": 4843,
      "▁\"వి": 4844,
      "▁\"हिन्द": 4845,
      "ार्त": 4846,
      "য়িকী": 4847,
      "theh": 4848,
      "▁app": 4849,
      "ాలో": 4850,
      "trol": 4851,
      "राठ": 4852,
      "loy": 4853,
      "స్వ": 4854,
      "స్లా": 4855,
      "র্ত": 4856,
      "▁sp": 4857,
      "▁పాల": 4858,
      "న్\")": 4859,
      "ర్\")": 4860,
      "0000": 4861,
      "▁కార": 4862,
      "▁కలి": 4863,
      "▁Minor": 4864,
      "ాలు?action=edit&redlink=1": 4865,
      "రిహ": 4866,
      "రికత": 4867,
      "క్నాల": 4868,
      "నిమా": 4869,
      "▁వం": 4870,
      "▁दृ": 4871,
      "▁दो": 4872,
      "▁উল্": 4873,
      "▁సంగీతం": 4874,
      "▁प्रमुख": 4875,
      "কাপ": 4876,
      "▁ব্য": 4877,
      "▁আন্দোলন": 4878,
      "▁वा": 4879,
      "–సా.శ.13": 4880,
      "▁అయ": 4881,
      "▁ప్రధాన": 4882,
      "ప్రదాయ": 4883,
      "থাইল": 4884,
      "প্টেম": 4885,
      "ద్వీ": 4886,
      "মাজ": 4887,
      "রিজার্": 4888,
      "▁ఉప": 4889,
      "▁\\(ভারত": 4890,
      "▁[South": 4891,
      "বিশ্ব": 4892,
      "▁రె": 4893,
      "uction": 4894,
      "lations": 4895,
      "▁लग": 4896,
      "▁इतिहास": 4897,
      "న్నడ": 4898,
      "हिमा": 4899,
      "िये": 4900,
      "▁रह": 4901,
      "under": 4902,
      "ంటు": 4903,
      "▁भाषाओं": 4904,
      "▁దేశంలో": 4905,
      "కాశ్మీ": 4906,
      "_summit": 4907,
      "_by": 4908,
      "▁జనాభా": 4909,
      "নির্": 4910,
      "ृत्य": 4911,
      "ంధు": 4912,
      "▁[আর্কাইভকৃত](https://web.archive.org/web/20": 4913,
      "ूनिव": 4914,
      "ద్ధం": 4915,
      "ద్ధి": 4916,
      "ాల్దీవులు": 4917,
      "చ్చే": 4918,
      "▁স্থা": 4919,
      "రాష్ట్రాలు": 4920,
      "সাময়িকী": 4921,
      "▁ত্রুটি\"))": 4922,
      "▁অন্যান্য": 4923,
      "దక్షిణ_": 4924,
      "▁కాంగ్రె": 4925,
      "▁सूची\")\n": 4926,
      "ूरो": 4927,
      "టెక్నాల": 4928,
      "హిమాలయ": 4929,
      "వర్గం:": 4930,
      "কেন্দ্রশাসিত": 4931,
      "▁లే": 4932,
      "త్తరా": 4933,
      "▁Indus": 4934,
      "_संघ": 4935,
      "నాగరికత": 4936,
      "উত্তর-": 4937,
      "▁সেপ্টেম": 4938,
      "క్కువ": 4939,
      "িয়ানমার": 4940,
      "క్‌సభ": 4941,
      "▁সংস্কৃতি": 4942,
      "▁युद्ध": 4943,
      "तेलु": 4944,
      "▁न्यायालय": 4945,
      "ెలుగు": 4946,
      "ategory:": 4947,
      "▁వచ్చింది.": 4948,
      "▁गणराज्य": 4949,
      "धिकारिक": 4950,
      "వాతంత్ర్య": 4951,
      "_ప్రాంత": 4952,
      "▁[पुरालेखित": 4953,
      "gramme": 4954,
      "▁अगस्त": 4955,
      "▁জুলাই": 4956,
      "সিন্ধু": 4957,
      "धानमंत्री": 4958,
      "ర్చ:": 4959,
      "ప్రత్యేక:EditPage/": 4960,
      "ংগ্রেস": 4961,
      "উইকি": 4962,
      "ాళుక్య": 4963,
      "ार्ता:": 4964,
      "থাইল্যান্ড": 4965,
      "রিজার্ভ": 4966,
      "టెక్నాలజీ": 4967,
      "వర్గం:Harv": 4968,
      "▁সেপ্টেম্বর": 4969,
      "ప్రత్యేక:EditPage/మూస:": 4970,
      "-29": 4971,
      "129": 4972,
      "9,": 4973,
      "ate_": 4974,
      "cord": 4975,
      "▁6.": 4976,
      "tex": 4977,
      "errit": 4978,
      "oup": 4979,
      "chool": 4980,
      "▁incre": 4981,
      "ely": 4982,
      "▁Fe": 4983,
      "anka": 4984,
      "meric": 4985,
      "Main": 4986,
      "[![": 4987,
      "_t": 4988,
      "lor": 4989,
      "press": 4990,
      "▁ci": 4991,
      "▁ind": 4992,
      "▁50": 4993,
      "rem": 4994,
      "cise": 4995,
      "astern": 4996,
      "▁such": 4997,
      "003": 4998,
      "▁li": 4999,
      "▁General": 5000,
      "174": 5001,
      "▁Official": 5002,
      "▁Press,": 5003,
      "erala": 5004,
      "-pro": 5005,
      "PPP": 5006,
      "catalog": 5007,
      "](https://doi.org/10.10": 5008,
      "gressive": 5009,
      "\"[[": 5010,
      "1-0": 5011,
      "B0%": 5012,
      "fic": 5013,
      "lan": 5014,
      "▁emp": 5015,
      "▁[V": 5016,
      "read": 5017,
      "omin": 5018,
      "▁(2018": 5019,
      "ivil": 5020,
      "los": 5021,
      "](https://archive.org/details/": 5022,
      "▁caste": 5023,
      "▁war": 5024,
      "▁R.": 5025,
      "Ins": 5026,
      "▁GDP": 5027,
      "▁2025": 5028,
      "▁general": 5029,
      "ogn": 5030,
      "bruary": 5031,
      "_and_": 5032,
      "▁\"Economy": 5033,
      "](./Economy": 5034,
      "▁estim": 5035,
      "ictionary": 5036,
      "onesia": 5037,
      "-of-": 5038,
      "7_": 5039,
      "pear": 5040,
      "wal": 5041,
      "▁ref": 5042,
      "omas": 5043,
      "ammu": 5044,
      "21)": 5045,
      "▁Tamil": 5046,
      "▁Bank": 5047,
      "▁British": 5048,
      "▁[\"A": 5049,
      "▁[\"H": 5050,
      "-3)": 5051,
      "-317": 5052,
      "ffice": 5053,
      "_%28orthographic_projection": 5054,
      "yanmar": 5055,
      "▁Assembly": 5056,
      "4/41/Flag_of_India": 5057,
      "_%28orthographic_projection%29": 5058,
      "-प": 5059,
      "75": 5060,
      "9-0)": 5061,
      "LO": 5062,
      "_ए": 5063,
      "_ic": 5064,
      "election": 5065,
      "ij": 5066,
      "rin": 5067,
      "rist": 5068,
      "ंका": 5069,
      "कट": 5070,
      "भो": 5071,
      "लंका": 5072,
      "हैद": 5073,
      "िला": 5074,
      "ूह": 5075,
      "्म": 5076,
      "চিত": 5077,
      "থম": 5078,
      "রব": 5079,
      "রকার": 5080,
      "লব": 5081,
      "শাল": 5082,
      "ষয়": 5083,
      "ুল": 5084,
      "৪]](./ভারত#cite_note-": 5085,
      "▁ट": 5086,
      "▁লা": 5087,
      "](./आ": 5088,
      "](./इ": 5089,
      "](./বি": 5090,
      "▁[ओ": 5091,
      "▁\"ओ": 5092,
      "ার্ব": 5093,
      "▁সম্": 5094,
      "राबाद": 5095,
      "-07": 5096,
      "▁south": 5097,
      "ाने": 5098,
      "र्ना": 5099,
      "স্ত্র": 5100,
      "▁अप्र": 5101,
      "26)": 5102,
      "ক্ষর": 5103,
      "ell": 5104,
      "▁नी": 5105,
      "al_in": 5106,
      "িলি": 5107,
      "▁संबंध": 5108,
      "प्रा": 5109,
      "त्तीस": 5110,
      "र्वो": 5111,
      "▁करने": 5112,
      "िरपे": 5113,
      "वायु": 5114,
      "▁[2](./ভারত#cite_ref-": 5115,
      "▁নিবন্ধ": 5116,
      "▁Chin": 5117,
      "▁[1](./ভারত#cite_ref-": 5118,
      "ीपी": 5119,
      "ভিন্ন": 5120,
      "▁मेला\")": 5121,
      "▁অন্য": 5122,
      "ঞ্জা": 5123,
      "▁हुए": 5124,
      "স্থান": 5125,
      "▁যুগ": 5126,
      "তমালা": 5127,
      "▁हिन्दी": 5128,
      "▁তালিকা\")\n": 5129,
      "▁कार्य": 5130,
      "भीम": 5131,
      "▁century": 5132,
      "▁[t](./": 5133,
      "▁भूम": 5134,
      "▁[v](./": 5135,
      "▁[e](./": 5136,
      "ymbols": 5137,
      "▁[हिन्दी](./": 5138,
      "▁উল্লেখ": 5139,
      "हैदराबाद": 5140,
      "र्नाटक": 5141,
      "िरपेक्ष": 5142,
      "1]](./India#cite_note-FOOTNOTE": 5143,
      "ES": 5144,
      "View": 5145,
      "ae": 5146,
      "equ": 5147,
      "map": 5148,
      "ps": 5149,
      "right": 5150,
      "yle": 5151,
      "ines": 5152,
      "itary": 5153,
      "them": 5154,
      "▁summit\")\n": 5155,
      "ecre": 5156,
      "▁wh": 5157,
      "▁BRICS": 5158,
      "s_in_India": 5159,
      "_Affair": 5160,
      "_South_Asia": 5161,
      "osp": 5162,
      "oi](./Doi_\\(identifier\\)": 5163,
      "Indonesia": 5164,
      "▁area": 5165,
      "india.gov.in/india-glance/": 5166,
      "62-2": 5167,
      "▁2021.\n": 5168,
      "05-8": 5169,
      "-107-111": 5170,
      "cyclopedia": 5171,
      "rganisation": 5172,
      "-19-8829": 5173,
      "▁[doi](./Doi_\\(identifier\\)": 5174,
      "ustralia": 5175,
      "-780": 5176,
      "erritory": 5177,
      "-107-11162-2": 5178,
      "-19-882905-8": 5179,
      "-C": 5180,
      "/index": 5181,
      "6–": 5182,
      "Library": 5183,
      "UCN": 5184,
      "ahar": 5185,
      "▁40": 5186,
      "ini": 5187,
      "chin": 5188,
      "▁million": 5189,
      "ung": 5190,
      "▁_[The": 5191,
      "MetcalfMetcalf2012": 5192,
      "IND": 5193,
      "athak": 5194,
      "▁later": 5195,
      "▁period": 5196,
      "-t": 5197,
      ".IN": 5198,
      "aus": 5199,
      "can": 5200,
      "▁ear": 5201,
      "▁since": 5202,
      "resent": 5203,
      ".gov.in": 5204,
      "e_M": 5205,
      "▁name": 5206,
      "library": 5207,
      "_Mah": 5208,
      "hasha": 5209,
      "formation": 5210,
      "▁(eds.": 5211,
      "WEO.IN": 5212,
      "IMFWEO.IN": 5213,
      ".పూ.": 5214,
      "Craven": 5215,
      "cture": 5216,
      "slam": 5217,
      "yayan": 5218,
      "ంతం": 5219,
      "ఆగ": 5220,
      "కళ": 5221,
      "ఖండ్": 5222,
      "గ్": 5223,
      "గిన": 5224,
      "గఢ్": 5225,
      "జో": 5226,
      "ట్ర": 5227,
      "తెలుగు": 5228,
      "పద": 5229,
      "భి": 5230,
      "మై": 5231,
      "మలు": 5232,
      "యో": 5233,
      "లక్ష": 5234,
      "వర": 5235,
      "శో": 5236,
      "షా": 5237,
      "హార్": 5238,
      "హాయ": 5239,
      "ాష్ట్ర": 5240,
      "ీహార్": 5241,
      "ుల": 5242,
      "ుల్": 5243,
      "ోత్స": 5244,
      "ౌర్య": 5245,
      "▁భ": 5246,
      "](./సి": 5247,
      "▁[m": 5248,
      "▁[వి": 5249,
      "▁\"హ": 5250,
      "▁\"ఢిల్లీ": 5251,
      "2021": 5252,
      "arge": 5253,
      "్రూ": 5254,
      "ooperation": 5255,
      "ాలా": 5256,
      "ాలలో": 5257,
      "adhy": 5258,
      "ర్ణా": 5259,
      "ర్మే": 5260,
      "▁Publishing": 5261,
      "లోక్‌సభ": 5262,
      "▁mi": 5263,
      "▁modern": 5264,
      "emal": 5265,
      "ంది.\n": 5266,
      "▁వే": 5267,
      "Inf": 5268,
      "ండర్": 5269,
      "al_P": 5270,
      "▁చి": 5271,
      "ubcontinent": 5272,
      "epart": 5273,
      "త్మా": 5274,
      "ికి": 5275,
      "▁From": 5276,
      "ద్దు": 5277,
      "osed": 5278,
      "మాచల్": 5279,
      "రువా": 5280,
      "రుణా": 5281,
      "▁సామ్రాజ్య": 5282,
      "▁రహదార": 5283,
      ".jpg/60px-": 5284,
      "న్నో": 5285,
      "మిజో": 5286,
      "▁Press](./": 5287,
      "▁ఇది": 5288,
      "itecture": 5289,
      "▁జరి": 5290,
      "induism": 5291,
      "▁సామ్రాజ్యం\")|": 5292,
      "ultan": 5293,
      "ట్టు": 5294,
      "కోవ": 5295,
      "ంగ్లీ": 5296,
      "వేద": 5297,
      "▁రాజకీయ": 5298,
      "హిమాచల్": 5299,
      "▁union": 5300,
      "హాత్మా": 5301,
      "ances": 5302,
      "హారాష్ట్ర": 5303,
      "రాజస్థాన్": 5304,
      "▁శతాబ్ద": 5305,
      "ainting": 5306,
      "▁వాతావరణ": 5307,
      "atsyayan": 5308,
      "దినోత్స": 5309,
      "బెంగాలీ": 5310,
      "యన్మార్": 5311,
      "▁ముఖ్య": 5312,
      "▁సంస్కృతి|": 5313,
      "olkata": 5314,
      "ంజాబ్": 5315,
      "▁వ్యాస": 5316,
      "Harle1994": 5317,
      "Wolpert2003": 5318,
      "గుజరాత్": 5319,
      "ఆఫ్ఘనిస్తాన్": 5320,
      "న్‌ఫర్మే": 5321,
      ".aspx?": 5322,
      "ricket": 5323,
      "రిహద్దు": 5324,
      "చ్చేరి": 5325,
      "▁February": 5326,
      "Craven1997": 5327,
      "ర్ణాటక": 5328,
      "epartment": 5329,
      "రుణాచల్": 5330,
      "న్‌ఫర్మేషన్": 5331,
      "/author": 5332,
      "NA": 5333,
      "_উ": 5334,
      "_এ": 5335,
      "_সাম্রাজ্য": 5336,
      "ai_": 5337,
      "ih": 5338,
      "ंह": 5339,
      "उप": 5340,
      "गल": 5341,
      "झार": 5342,
      "डिया": 5343,
      "तट": 5344,
      "निक": 5345,
      "पान": 5346,
      "मालय": 5347,
      "हन": 5348,
      "हरी": 5349,
      "िख": 5350,
      "िस्तान": 5351,
      "िहार": 5352,
      "জরা": 5353,
      "দ্রা": 5354,
      "নৈতিক": 5355,
      "বৈ": 5356,
      "রপে": 5357,
      "লিত": 5358,
      "৫৬": 5359,
      "৯৮": 5360,
      "▁ऑ": 5361,
      "▁দ্": 5362,
      "▁राष्ट्र": 5363,
      "▁লেখ": 5364,
      "](./টেমপ্লেট:বই": 5365,
      "▁[4": 5366,
      "▁[च": 5367,
      "▁[বি": 5368,
      "▁[সং": 5369,
      "▁\"টেমপ্লেট:বই": 5370,
      "reat": 5371,
      "▁कुल": 5372,
      "भारतीय": 5373,
      "▁सी": 5374,
      "▁sur": 5375,
      "▁11": 5376,
      "▁केन्द्र": 5377,
      "र्ष": 5378,
      "▁ही": 5379,
      "▁होत": 5380,
      "**জাতীয়": 5381,
      "▁who": 5382,
      "▁है।[[": 5383,
      "▁देख": 5384,
      "ियां": 5385,
      "▁बन": 5386,
      "▁बा": 5387,
      "28)": 5388,
      "▁नद": 5389,
      "▁नहीं": 5390,
      "▁से](http://www.": 5391,
      "▁নে": 5392,
      "▁জয়": 5393,
      "▁হার": 5394,
      "ন্দা": 5395,
      "▁সংস্থা": 5396,
      "▁শক্তি": 5397,
      "पुरा": 5398,
      "स्ला": 5399,
      "1990": 5400,
      "▁reg": 5401,
      "▁उद्यान": 5402,
      "▁১১": 5403,
      "▁शताब्": 5404,
      "▁लेख": 5405,
      "▁रहा": 5406,
      "পিডিয়া": 5407,
      "▁২০১৯": 5408,
      "▁উদ্ধৃতি](./টেমপ্লেট:বই": 5409,
      "विशेष:EditPage/": 5410,
      "llchin": 5411,
      "▁জন্য": 5412,
      "▁করে।": 5413,
      "▁1998": 5414,
      "▁চলচ্চিত্র": 5415,
      "▁मेला](./": 5416,
      "▁Environment": 5417,
      "_সম্পর্ক": 5418,
      "श्चिमी": 5419,
      "ন্নয়ন": 5420,
      "▁কেন্দ্রশাসিত": 5421,
      "▁प्राप्त": 5422,
      "ণিজ্য": 5423,
      "▁সঙ্গীত": 5424,
      "▁स्रोत/978-0": 5425,
      "▁स्रोत/978-1": 5426,
      "](./विशेष:पुस्तक_स्रोत/978-0": 5427,
      "](./विशेष:पुस्तक_स्रोत/978-1": 5428,
      "रक्षा": 5429,
      "-lead": 5430,
      "ministr": 5431,
      "▁चुनाव": 5432,
      "দারীকরণ": 5433,
      "ভৌম": 5434,
      "webcitation.org/6": 5435,
      "रेलू": 5436,
      "ociety": 5437,
      "▁স্থাপ": 5438,
      "▁ত্রুটি\"));": 5439,
      "ার্বভৌম": 5440,
      "र्वोच्च": 5441,
      "রপেক্ষ": 5442,
      "▁উদ্ধৃতি](./টেমপ্লেট:বই_উদ্ধৃতি": 5443,
      "विशेष:EditPage/साँचा:": 5444,
      "\"](https://web.archive.org/web/200": 5445,
      "82": 5446,
      "Home": 5447,
      "country": 5448,
      "sch": 5449,
      "–10": 5450,
      "2013": 5451,
      "lated": 5452,
      "▁12": 5453,
      "▁Ar": 5454,
      "▁States": 5455,
      "▁Mon": 5456,
      "308": 5457,
      "▁number": 5458,
      "_March_": 5459,
      "own": 5460,
      "ankar": 5461,
      "▁right": 5462,
      "ependent": 5463,
      "ependence": 5464,
      "rishn": 5465,
      "Taj_Mah": 5466,
      "al_in_March_": 5467,
      "Taj_Mahal_in_March_": 5468,
      "Taj_Mahal_in_March_2004": 5469,
      "124": 5470,
      "Ag": 5471,
      "Bharat": 5472,
      "DD": 5473,
      "Ministry_of_": 5474,
      "PK:": 5475,
      "_0": 5476,
      "ning": 5477,
      "vatsyayan": 5478,
      "▁[India": 5479,
      "▁\"[": 5480,
      "▁\"United": 5481,
      "tition": 5482,
      "ominal": 5483,
      "1960": 5484,
      "1970": 5485,
      "ada": 5486,
      "▁Pp.": 5487,
      "ISO": 5488,
      "ovember": 5489,
      "▁total": 5490,
      "](./South_Asia": 5491,
      "tud": 5492,
      "22)": 5493,
      "occ": 5494,
      "_BRICS": 5495,
      "▁\"Template": 5496,
      "-lord": 5497,
      "MetcalfMetcalf2006),": 5498,
      "▁status": 5499,
      "▁territory": 5500,
      "apita": 5501,
      "ion_territ": 5502,
      "vatsyayan-lord": 5503,
      "3TR": 5504,
      "577": 5505,
      "Ludden": 5506,
      "_Ch": 5507,
      "aul": 5508,
      "▁ro": 5509,
      "than": 5510,
      "ould": 5511,
      "as,": 5512,
      "lec": 5513,
      "▁some": 5514,
      "irst": 5515,
      "hai": 5516,
      "▁long": 5517,
      "▁Wik": 5518,
      "oreign": 5519,
      "ots": 5520,
      "▁4.": 5521,
      "mblem": 5522,
      "teenth": 5523,
      "3TRt": 5524,
      "63": 5525,
      "IB": 5526,
      "OOj": 5527,
      "a)": 5528,
      "aut": 5529,
      "bb": 5530,
      "ey": 5531,
      "fgh": 5532,
      "languages": 5533,
      "ris": 5534,
      "▁ev": 5535,
      "aries": 5536,
      "enn": 5537,
      "tr-pro": 5538,
      "adi": 5539,
      "▁S.": 5540,
      "onservation": 5541,
      "edit-l": 5542,
      "raj": 5543,
      "s_UI": 5544,
      "avy": 5545,
      "ugh": 5546,
      "▁China": 5547,
      "/pdf": 5548,
      "umbers": 5549,
      "on_edit-l": 5550,
      "_icon_edit-l": 5551,
      "OOjs_UI": 5552,
      "fghan": 5553,
      "tr-progressive": 5554,
      "_icon_edit-ltr-progressive": 5555,
      "OOjs_UI_icon_edit-ltr-progressive": 5556,
      "-विज्ञान": 5557,
      "0/0": 5558,
      "C).": 5559,
      "MID": 5560,
      "SN": 5561,
      "_आ": 5562,
      "_देश": 5563,
      "_যু": 5564,
      "her": 5565,
      "ker": 5566,
      "ting": 5567,
      "ua": 5568,
      "uthor": 5569,
      "ंच": 5570,
      "ईरा": 5571,
      "छत्तीस": 5572,
      "जम्मू": 5573,
      "त्व": 5574,
      "द्वीप": 5575,
      "फल": 5576,
      "फ्रीका": 5577,
      "बैक": 5578,
      "लग": 5579,
      "लयाल": 5580,
      "स\")": 5581,
      "सून": 5582,
      "ाय": 5583,
      "िंध": 5584,
      "ीच": 5585,
      "१९": 5586,
      "ওয়": 5587,
      "খ্রি": 5588,
      "নো": 5589,
      "নিয়ন": 5590,
      "বঙ্গ": 5591,
      "লকা": 5592,
      "লবায়ু": 5593,
      "েণী": 5594,
      "১৩": 5595,
      "২]](./ভারত#cite_note-": 5596,
      "৮]](./ভারত#cite_note-": 5597,
      "▁রা": 5598,
      "](./I": 5599,
      "](./ओ": 5600,
      "](./च": 5601,
      "](./জ": 5602,
      "](./United": 5603,
      "▁[চ": 5604,
      "▁[সা": 5605,
      "▁[United": 5606,
      "▁[৯৭": 5607,
      "▁\"च": 5608,
      "▁\"ल": 5609,
      "ারমাণ": 5610,
      "2025": 5611,
      "aranth": 5612,
      "arria": 5613,
      "▁कई": 5614,
      "▁कश्मीर": 5615,
      "▁सद": 5616,
      "▁सैन": 5617,
      "▁they": 5618,
      "](./भारत_का_": 5619,
      "▁Pers": 5620,
      "urre": 5621,
      "ালি": 5622,
      "▁mathematic": 5623,
      "वित": 5624,
      "india.com/": 5625,
      "▁def": 5626,
      "▁উত্তর": 5627,
      "▁তার": 5628,
      "▁बीच": 5629,
      "▁से](http://": 5630,
      "▁বছ": 5631,
      "তান্ত্র": 5632,
      "ताज": 5633,
      "▁আয়": 5634,
      "ন্দো": 5635,
      "_Ass": 5636,
      "क्षा": 5637,
      "न्दिर": 5638,
      "▁आधिकारिक": 5639,
      "প্রজাতন্ত্র": 5640,
      "▁দেখ": 5641,
      "▁London": 5642,
      "स्थ": 5643,
      "▁गु": 5644,
      "_\\(শনাক্তকারী": 5645,
      "_\\(India\\)": 5646,
      "মাই": 5647,
      "▁उत्पाद": 5648,
      "ाद्वीप": 5649,
      "▁\\(শনাক্তকারী": 5650,
      "_मंदिर": 5651,
      "▁संस्कृति": 5652,
      "▁इन": 5653,
      "owland": 5654,
      "िस्ट": 5655,
      "গুজরা": 5656,
      "পাঞ্জা": 5657,
      "▁original](https://www.": 5658,
      "▁ভাষায়": 5659,
      "▁करोड़": 5660,
      "74-108": 5661,
      "▁अनु": 5662,
      "%E0%A6%9": 5663,
      "ওয়েব_উদ্ধৃতি": 5664,
      "केर": 5665,
      "▁[अंग्रेज़": 5666,
      "▁ফে": 5667,
      "▁ফুটবল": 5668,
      "▁जनगणना": 5669,
      "▁\"National": 5670,
      "](./National_": 5671,
      "সামরিক": 5672,
      "▁राजनी": 5673,
      "▁\"पंजाब": 5674,
      "र्थव्यवस्था": 5675,
      "मुख्य": 5676,
      "ায়ী": 5677,
      "करण": 5678,
      "▁[पंजाब": 5679,
      "পূর্": 5680,
      "▁`{{[বই": 5681,
      "गणराज्य": 5682,
      "ক্রয়": 5683,
      "▁2021.": 5684,
      "▁2019.": 5685,
      "▁होता": 5686,
      "ब्ब": 5687,
      "▁\"টেমপ্লেট:ওয়েব": 5688,
      "▁जिसमें": 5689,
      "শ্চিমবঙ্গ": 5690,
      "ণিপুর": 5691,
      "▁সামরিক": 5692,
      "▁कारण": 5693,
      "ोर्ड": 5694,
      "_मेला?action=edit&redlink=1": 5695,
      "▁2018](./India#CITEREF": 5696,
      "गोआ": 5697,
      "uddhism": 5698,
      "श्रीलंका": 5699,
      "ানুয়ারি": 5700,
      "%E0%A7%87": 5701,
      "वेबैक": 5702,
      "সংস্কৃত": 5703,
      "▁উদ্ধৃতি](./টেমপ্লেট:ওয়েব_উদ্ধৃতি": 5704,
      "লোকসভা": 5705,
      "মহাদেশ": 5706,
      "र्सिट": 5707,
      "हिमाचल": 5708,
      "ूनिवर्सिट": 5709,
      "-78074-108": 5710,
      "▁[৯৭৮-": 5711,
      "ারমাণবিক": 5712,
      "তান্ত্রিক": 5713,
      "_\\(শনাক্তকারী\\)": 5714,
      "▁[अंग्रेज़ी](./अ": 5715,
      "-78074-108-6": 5716,
      "/link": 5717,
      "Search/": 5718,
      "_re": 5719,
      "ner": 5720,
      "t,": 5721,
      "▁7.": 5722,
      "▁5.": 5723,
      "▁\"India": 5724,
      "iam": 5725,
      "reed": 5726,
      "estic": 5727,
      "isc": 5728,
      "images/": 5729,
      "red/link": 5730,
      "pecial:Search/": 5731,
      "▁3.": 5732,
      "asty": 5733,
      "ingham": 5734,
      "▁14.": 5735,
      "ynasty": 5736,
      "shared/link": 5737,
      "nclm.nic.in/shared/link": 5738,
      "nclm.nic.in/shared/linkimages/": 5739,
      "122": 5740,
      "_13": 5741,
      "kar": 5742,
      "vel": 5743,
      "▁[978": 5744,
      "aldiv": 5745,
      "#cite_ref-10": 5746,
      "#cite_note-10": 5747,
      "rain": 5748,
      "▁M.": 5749,
      "rief": 5750,
      "ization": 5751,
      "▁dispu": 5752,
      "▁Affairs": 5753,
      "fghanistan": 5754,
      "aldives": 5755,
      "/g": 5756,
      "1200": 5757,
      "2]](./India#cite_note-FOOTNOTE": 5758,
      "83": 5759,
      "Dikshit": 5760,
      "European": 5761,
      "Republic": 5762,
      "Schwartzberg": 5763,
      "garh": 5764,
      "han": 5765,
      "nominal": 5766,
      "oa": 5767,
      "ue_": 5768,
      "ym": 5769,
      "ంతి": 5770,
      "కారం": 5771,
      "ఖ్": 5772,
      "గర్": 5773,
      "గంగా": 5774,
      "టో": 5775,
      "డిన": 5776,
      "తీ": 5777,
      "ధి": 5778,
      "ధించ": 5779,
      "నల్": 5780,
      "నులు": 5781,
      "మన": 5782,
      "మర": 5783,
      "ర్యా": 5784,
      "లం": 5785,
      "లతో": 5786,
      "లమె": 5787,
      "శ్ర": 5788,
      "ీస్": 5789,
      "ూప": 5790,
      "ూరు": 5791,
      "ెనీ": 5792,
      "ౌక": 5793,
      "▁శా": 5794,
      "▁హిందూ": 5795,
      "▁industry": 5796,
      "▁గాంధీ": 5797,
      "▁Qu": 5798,
      "▁[భారతదేశం": 5799,
      "▁[ఢిల్లీ": 5800,
      "208": 5801,
      "arna": 5802,
      "ani": 5803,
      "anag": 5804,
      "edu": 5805,
      "the-": 5806,
      "▁among": 5807,
      "ారస": 5808,
      "ాలను": 5809,
      "adwe": 5810,
      "▁people": 5811,
      "స్](./": 5812,
      "▁పెద్ద": 5813,
      "▁Schwartzberg": 5814,
      "▁CE": 5815,
      "ర్లు": 5816,
      "00–సా.శ.పూ.": 5817,
      "ha2014": 5818,
      "▁large": 5819,
      "ayback": 5820,
      "త్తం": 5821,
      "▁అతి": 5822,
      "▁అనే": 5823,
      "▁ప్రజ": 5824,
      "ంచి": 5825,
      "▁John": 5826,
      "_in_New": 5827,
      "▁ఆఫ్": 5828,
      "▁సాం": 5829,
      "ast_Asia": 5830,
      "ార్లమె": 5831,
      "కిస్థాన్": 5832,
      "▁నే": 5833,
      "▁నగర": 5834,
      "-19-9": 5835,
      "ాయి.": 5836,
      "▁rule": 5837,
      "▁original](https://": 5838,
      "2006),": 5839,
      "టిబె": 5840,
      "్రీ.పూ.": 5841,
      "▁విస్త": 5842,
      "▁చరిత్ర\n": 5843,
      "achine": 5844,
      "ండియా": 5845,
      "▁ఎక్కువ": 5846,
      "▁ఎన్నో": 5847,
      "_సం": 5848,
      "ారు.\n": 5849,
      "▁2,": 5850,
      "టుంబ": 5851,
      "▁భారత్": 5852,
      "బాద్": 5853,
      "▁మొత్తం": 5854,
      "rdu": 5855,
      "ంపెనీ": 5856,
      "local_": 5857,
      "హ్మ": 5858,
      "ront": 5859,
      "▁ఏర్": 5860,
      "pecial:BookSources/978-81": 5861,
      "్రిటిషు": 5862,
      "కేంద్రపాలిత_ప్రాంత": 5863,
      "EXT": 5864,
      "emocr": 5865,
      "▁అత్యధిక": 5866,
      "akshadwe": 5867,
      "ీర్ణ": 5868,
      "దక్షిణ_ఆసియా": 5869,
      "](./Economy_of_": 5870,
      "▁(eds.).": 5871,
      "DikshitSchwartzberg": 5872,
      "_in_New_Delhi": 5873,
      "akshadweep": 5874,
      "DikshitSchwartzberg2023": 5875,
      "-r": 5876,
      "Census": 5877,
      "yas": 5878,
      "▁under": 5879,
      "▁[19": 5880,
      "tered": 5881,
      "tice": 5882,
      "anor": 5883,
      "▁ins": 5884,
      "▁str": 5885,
      "uss": 5886,
      "▁Science": 5887,
      "_of_C": 5888,
      "urton": 5889,
      "▁me": 5890,
      "▁major": 5891,
      "25)": 5892,
      "▁1960": 5893,
      "▁Linguistic": 5894,
      "_Development": 5895,
      "prov": 5896,
      "▁Val": 5897,
      "gric": 5898,
      "▁Chand": 5899,
      "olitical_": 5900,
      "arnatak": 5901,
      "3TRtDwAAQBAJ&pg=PA": 5902,
      "-230": 5903,
      "1)\n": 5904,
      "42": 5905,
      "IL": 5906,
      "_24": 5907,
      "bhasha": 5908,
      "d/": 5909,
      "dd": 5910,
      "public": 5911,
      "s18": 5912,
      "vi": 5913,
      "पि": 5914,
      "भ्यता": 5915,
      "मर": 5916,
      "मो": 5917,
      "यर": 5918,
      "लों": 5919,
      "शा": 5920,
      "िम": 5921,
      "ीगढ़": 5922,
      "ुंबई": 5923,
      "ॉक": 5924,
      "्ले": 5925,
      "ঘল": 5926,
      "জয়": 5927,
      "ফ্র": 5928,
      "যায়ী": 5929,
      "ল\")": 5930,
      "শক্তি": 5931,
      "সূ": 5932,
      "সলা": 5933,
      "াক": 5934,
      "াড়া": 5935,
      "ুঘল": 5936,
      "েন": 5937,
      "ৈন": 5938,
      "০.": 5939,
      "১৫": 5940,
      "৫০": 5941,
      "▁ओ": 5942,
      "▁web": 5943,
      "▁থা": 5944,
      "▁দ্বীপ": 5945,
      "▁term": 5946,
      "](./द": 5947,
      "](./ल": 5948,
      "▁[सा": 5949,
      "▁[ওয়েব্যাক": 5950,
      "▁\"ग": 5951,
      "▁\"साँचा:": 5952,
      "▁\"ওয়েব্যাক": 5953,
      "tis": 5954,
      "ors": 5955,
      "▁कु": 5956,
      "▁सूचना": 5957,
      "▁महासागर": 5958,
      "▁সহ": 5959,
      "▁সু": 5960,
      "-06": 5961,
      "▁पर्वत": 5962,
      "বিদ্য": 5963,
      "▁পাত": 5964,
      "ानव": 5965,
      "र्ज": 5966,
      "▁country": 5967,
      "স্বাধীনতা": 5968,
      "213": 5969,
      "▁মান": 5970,
      "▁जी": 5971,
      "▁Research": 5972,
      "ालदीव": 5973,
      "▁दशक": 5974,
      "ेशन": 5975,
      "ेशिया": 5976,
      "▁প্রজাতন্ত্র": 5977,
      "▁প্রথম": 5978,
      "50)": 5979,
      "য়েত": 5980,
      ")।\n": 5981,
      "▁2005": 5982,
      "क्षर": 5983,
      "▁সংবিধান": 5984,
      "▁শি": 5985,
      "षाण": 5986,
      "▁দক্ষিণ": 5987,
      "▁पर्यटन": 5988,
      "▁शक्ति": 5989,
      "▁शिक्षा": 5990,
      "166": 5991,
      "काश": 5992,
      "▁[Asher": 5993,
      "ড়ে": 5994,
      "ंडीगढ़": 5995,
      "ssam": 5996,
      "সিটি": 5997,
      "▁সাহিত্য": 5998,
      "▁क्षेत्रीय": 5999,
      "▁গঠ": 6000,
      "▁पुरा": 6001,
      "▁[আর্কাইভকৃত](https://web.archive.org/web/": 6002,
      "▁[আর্কাইভকৃত](https://www.": 6003,
      "▁ফলে": 6004,
      "जनसंख्या": 6005,
      "ন্ধী": 6006,
      "▁जनसंख्या": 6007,
      "ম্পানি": 6008,
      "▁वर्ग": 6009,
      "▁সময়": 6010,
      "▁দেশের": 6011,
      "চিত্র্য": 6012,
      "]](./भारत#cite_note-FOOTNOTEStein1998": 6013,
      "]](./भारत#cite_note-FOOTNOTESingh2009": 6014,
      "_মেশিন": 6015,
      "শ্রেণী": 6016,
      "ওয়েব্যাক_মেশিন": 6017,
      "সংখ্যান": 6018,
      "▁হিন্দ": 6019,
      "तमिलनाडु": 6020,
      "-with": 6021,
      "iodiversity": 6022,
      "▁মেশিন\")": 6023,
      "▁মেশিনে](./": 6024,
      "▁स्थित": 6025,
      "▁সম্পর্ক\")\n": 6026,
      "त्तराखण्ड": 6027,
      "?url=http://www.": 6028,
      "▁[पुरालेखित](https://web.archive.org/web/201": 6029,
      "▁अप्रैल": 6030,
      "▁शताब्दी": 6031,
      "▁लेख:": 6032,
      "webcitation.org/6174": 6033,
      "ক্রয়ক্ষমতা": 6034,
      "সলাম": 6035,
      "▁মেশিনে](./ওয়েব্যাক_মেশিন": 6036,
      "-India": 6037,
      "-30": 6038,
      "1-4": 6039,
      "Empire": 6040,
      "Emblem": 6041,
      "Spear": 6042,
      "ao": 6043,
      "had": 6044,
      "ple": 6045,
      "via": 6046,
      "ved": 6047,
      "yer": 6048,
      "yam": 6049,
      "▁x": 6050,
      "▁economic": 6051,
      "▁\"Indo-": 6052,
      "ality": 6053,
      "cis": 6054,
      "▁Arab": 6055,
      "▁Africa": 6056,
      "▁State": 6057,
      "▁C.": 6058,
      "214": 6059,
      "217": 6060,
      "▁many": 6061,
      "▁Raj": 6062,
      "_Summit": 6063,
      "22-9": 6064,
      "384": 6065,
      "ountries/": 6066,
      "i_language": 6067,
      "atis": 6068,
      "arket": 6069,
      "ineering": 6070,
      "▁[Dikshit": 6071,
      "▁[National": 6072,
      "arendra": 6073,
      "▁add": 6074,
      "olden": 6075,
      "▁\\(identifier\\)\"):[10.10": 6076,
      "_Affairs_": 6077,
      "Home_Affairs_": 6078,
      "ast_Asia_Summit": 6079,
      "Emblem_of_India": 6080,
      "&d": 6081,
      "125": 6082,
      "123": 6083,
      "C-0": 6084,
      "NGDP": 6085,
      "QAAQBAJ&pg=PA": 6086,
      "_2": 6087,
      "cbi": 6088,
      "ix": 6089,
      "ihar": 6090,
      "kh": 6091,
      "ling": 6092,
      "owe": 6093,
      "os/": 6094,
      "uin": 6095,
      "ze": 6096,
      "▁occ": 6097,
      "oral": 6098,
      "▁India_](https://books.google.com/books?id=": 6099,
      "ists": 6100,
      "▁found": 6101,
      "upta": 6102,
      "▁Minister": 6103,
      "▁Rev": 6104,
      "rop": 6105,
      ".wikipedia": 6106,
      "▁J.": 6107,
      "▁Fund": 6108,
      ".nlm": 6109,
      ".nih": 6110,
      "77.": 6111,
      "onstitutional": 6112,
      "_Lanka": 6113,
      "▁\"Official": 6114,
      "▁rate": 6115,
      "cbi.nlm": 6116,
      "cbi.nlm.nih": 6117,
      "\"](https://books.google.com/books?id=": 6118,
      "219": 6119,
      "JI": 6120,
      "Raj": 6121,
      "South": 6122,
      "_for": 6123,
      "af": 6124,
      "aci": 6125,
      "io": 6126,
      "lé": 6127,
      "tb": 6128,
      "ase_": 6129,
      "lock": 6130,
      "inger": 6131,
      "urn": 6132,
      "mentin-": 6133,
      "ternational": 6134,
      "1):": 6135,
      "-population": 6136,
      "rown": 6137,
      "▁used": 6138,
      "Aryan": 6139,
      "lémentin-": 6140,
      "lémentin-Oj": 6141,
      "6]](./India#cite_note-": 6142,
      "96": 6143,
      "TO": 6144,
      "utra": 6145,
      "west": 6146,
      "–4": 6147,
      "▁out": 6148,
      "▁article": 6149,
      "](./Indo-": 6150,
      "▁\"Oxford": 6151,
      "ederal": 6152,
      "▁India\").": 6153,
      "trod": 6154,
      "ikk": 6155,
      "▁social": 6156,
      "umeration": 6157,
      "urch": 6158,
      "ility": 6159,
      "overe": 6160,
      "ango": 6161,
      "olution": 6162,
      "▁minister": 6163,
      "▁dec": 6164,
      "▁diff": 6165,
      "tical": 6166,
      "ulti": 6167,
      "ers,": 6168,
      "▁B.": 6169,
      "elang": 6170,
      "▁[\"N": 6171,
      "▁Nadu": 6172,
      "pecial:EditPage/": 6173,
      "▁high": 6174,
      "apan": 6175,
      "ext": 6176,
      "ainism": 6177,
      "ligence": 6178,
      "▁9.": 6179,
      "▁2019.\n": 6180,
      "▁edition": 6181,
      "International_": 6182,
      "telligence": 6183,
      "usiness/": 6184,
      "Spear1990": 6185,
      "pecial:EditPage/Template": 6186,
      "-n": 6187,
      "2–": 6188,
      "540": 6189,
      "D%E0%A6%B": 6190,
      "MC": 6191,
      "UT": 6192,
      "_उ": 6193,
      "_राज": 6194,
      "_17": 6195,
      "aha": 6196,
      "fer": 6197,
      "oast": 6198,
      "rim": 6199,
      "गत": 6200,
      "गू": 6201,
      "तृत": 6202,
      "पूर्": 6203,
      "बी": 6204,
      "वल": 6205,
      "श्य": 6206,
      "षय": 6207,
      "हरा": 6208,
      "हित": 6209,
      "िनेमा": 6210,
      "ृद्ध": 6211,
      "ेघ": 6212,
      "१८": 6213,
      "আর": 6214,
      "এল": 6215,
      "ঐতি": 6216,
      "ক্রা": 6217,
      "খণ্ড": 6218,
      "ডার": 6219,
      "ত্ব": 6220,
      "থান": 6221,
      "নু": 6222,
      "র_": 6223,
      "হ্য": 6224,
      "িতা": 6225,
      "ীমা": 6226,
      "োষ": 6227,
      "্সিটি": 6228,
      "৩]](./ভারত#cite_note-": 6229,
      "৭]](./ভারত#cite_note-": 6230,
      "▁·": 6231,
      "▁হা": 6232,
      "▁ক্ষেত্র": 6233,
      "▁[Oxford": 6234,
      "\")।\n": 6235,
      "aria": 6236,
      "ভার্সিটি": 6237,
      "ভারতের": 6238,
      "भारत\\)": 6239,
      "▁सक": 6240,
      "्यों": 6241,
      "▁সি": 6242,
      "](https://bn": 6243,
      "uran": 6244,
      "ালদ্বীপ": 6245,
      "▁अव": 6246,
      "▁অর্থনীতি": 6247,
      "▁মন্ত্র": 6248,
      "▁কংগ্রেস": 6249,
      "▁दि": 6250,
      "▁উৎ": 6251,
      "▁Bengal": 6252,
      "road": 6253,
      "▁प्रेस": 6254,
      "▁प्रौद्योगिक": 6255,
      "्वतंत्रता": 6256,
      "hap": 6257,
      "▁জানুয়ারি": 6258,
      "▁আইন": 6259,
      "▁আন্তর্জাতিক": 6260,
      "▁আদালত": 6261,
      "▁বিস্ত": 6262,
      "▁সংরক্ষণ": 6263,
      "▁history": 6264,
      "▁দশ": 6265,
      "▁দু": 6266,
      "▁report": 6267,
      "প্লব": 6268,
      "▁उन": 6269,
      "রেখ": 6270,
      "▁शु": 6271,
      "▁संसद": 6272,
      "ucation": 6273,
      "▁लोग": 6274,
      "▁लोक": 6275,
      "ियार": 6276,
      "▁Informatic": 6277,
      "ডিও": 6278,
      "ডিপি": 6279,
      "দেশিক": 6280,
      "▁राज्य\")\n": 6281,
      "हाय": 6282,
      "বেঙ্গ": 6283,
      "বেক্ষণ": 6284,
      "परमाणु": 6285,
      "ত্ত্ব": 6286,
      "ोलन": 6287,
      "ুরো": 6288,
      "নিভার্সিটি": 6289,
      "=`-এ": 6290,
      "ेली": 6291,
      "▁प्रदेश\")": 6292,
      "▁जाती": 6293,
      "▁`|access": 6294,
      "▁যদি": 6295,
      "▁राजवंश": 6296,
      "▁১৯৯": 6297,
      "ध्यम": 6298,
      "▁स्था": 6299,
      "স্থিত": 6300,
      "ज्ज": 6301,
      "▁খেলা": 6302,
      "▁পরী": 6303,
      "▁পরমাণু": 6304,
      "▁`{{[citation": 6305,
      "পুঞ্জ": 6306,
      "যোগ্য": 6307,
      "](./টেমপ্লেট:Citation": 6308,
      "▁\"টেমপ্লেট:Citation": 6309,
      "▁प्राचीन": 6310,
      "▁था।": 6311,
      "_ব্যবস্থা": 6312,
      "প্রাচীন": 6313,
      "ांग्लादेश": 6314,
      "্রুপ": 6315,
      "▁কাপ": 6316,
      "▁প্রাচীন": 6317,
      "▁নির্বা": 6318,
      "महाद्वीप": 6319,
      "▁পর্বতমালা": 6320,
      "▁(পিডিএফ)।": 6321,
      "▁पहले": 6322,
      "▁শাস": 6323,
      "বহন": 6324,
      "▁Minorities": 6325,
      "উত্তর-পূর্ব": 6326,
      "▁[हिन्दी](./हिन्दी": 6327,
      "▁লেখা": 6328,
      "ন্দামান": 6329,
      "▁चुनावों": 6330,
      "লকাতা": 6331,
      "▁सैन्य": 6332,
      "▁বছর": 6333,
      "reedom": 6334,
      "ঐতিহ্য": 6335,
      "▁Informatics": 6336,
      "▁`{{[citation](./টেমপ্লেট:Citation": 6337,
      "▁\"টেমপ্লেট:Citation\")}}`:": 6338,
      "2nd": 6339,
      "313": 6340,
      "Bh": 6341,
      "Ethnologue": 6342,
      "S1": 6343,
      "dia": 6344,
      "government": 6345,
      "tw": 6346,
      "way": 6347,
      "law": 6348,
      "tra_": 6349,
      "](https://id": 6350,
      "FOOTNOTENational_Informatics_Centre2005": 6351,
      "▁des": 6352,
      "ull": 6353,
      "▁David": 6354,
      "aglia": 6355,
      "▁Languages": 6356,
      "abha": 6357,
      "27)": 6358,
      "▁Regis": 6359,
      "%20A": 6360,
      "/population": 6361,
      "5/5": 6362,
      "arliamentary": 6363,
      "](https://doi.org/10.": 6364,
      "etraglia": 6365,
      "ollege": 6366,
      "▁York:": 6367,
      "Report.pdf)": 6368,
      "▁Registrar": 6369,
      "(సా.శ.": 6370,
      "3]](./India#cite_note-FOOTNOTE": 6371,
      "_9": 6372,
      "_జాబితా": 6373,
      "bu": 6374,
      "m2": 6375,
      "xchange": 6376,
      "ఆంధ": 6377,
      "కీ": 6378,
      "డో": 6379,
      "తే": 6380,
      "థి": 6381,
      "నె": 6382,
      "పించ": 6383,
      "ఫై": 6384,
      "బడ్డ": 6385,
      "భర": 6386,
      "మహ": 6387,
      "రంగ": 6388,
      "లయా": 6389,
      "శీ": 6390,
      "షనల్": 6391,
      "స్య": 6392,
      "హర్": 6393,
      "ాం": 6394,
      "ృద్ధి": 6395,
      "ెంగ": 6396,
      "ేర": 6397,
      "▁దక్షిణ": 6398,
      "▁దా": 6399,
      "▁నాగరికత": 6400,
      "▁టెక్నాలజీ": 6401,
      "](./ఢిల్లీ": 6402,
      "reme": 6403,
      "erg": 6404,
      "alli": 6405,
      "enna": 6406,
      "estiv": 6407,
      "్రప్రదేశ్": 6408,
      "▁there": 6409,
      "icha": 6410,
      "asing": 6411,
      "▁power": 6412,
      "దేశం": 6413,
      "దేశాల": 6414,
      "imal": 6415,
      "▁SAARC": 6416,
      "urban": 6417,
      "ISSN": 6418,
      "ovision": 6419,
      "▁both": 6420,
      "లు?action=edit&redlink=1": 6421,
      "రాఠ": 6422,
      "▁కి": 6423,
      "▁కో": 6424,
      "క్టో": 6425,
      "ంది": 6426,
      "నియా": 6427,
      "▁వర్": 6428,
      "▁వారస": 6429,
      "ల్వే": 6430,
      "▁సరిహద్దు": 6431,
      "▁మన": 6432,
      "▁మూ": 6433,
      "▁మతం": 6434,
      "ండమా": 6435,
      "▁largest": 6436,
      "evanag": 6437,
      "▁చిన్న": 6438,
      "ముఖ": 6439,
      "](./South": 6440,
      "▁2026": 6441,
      "త్వం": 6442,
      "–సా.శ.17": 6443,
      "–సా.శ.15": 6444,
      "180": 6445,
      "▁(సా.శ.13": 6446,
      "▁(సా.శ.15": 6447,
      "▁ప్రతి": 6448,
      "▁ప్రస్తు": 6449,
      "▁ప్రకారం": 6450,
      "▁ప్రముఖ": 6451,
      "కుడు": 6452,
      "ంచిన": 6453,
      "పూర్": 6454,
      "ింది.\n": 6455,
      "▁సాధించ": 6456,
      "▁రో": 6457,
      "▁రంగ": 6458,
      "▁రవాణా": 6459,
      "ష్టు": 6460,
      "otal": 6461,
      "ంతో": 6462,
      "పాలన": 6463,
      "▁తరువా": 6464,
      "ం](./భారతీయ": 6465,
      "గుర్": 6466,
      "నేషనల్": 6467,
      "వందే": 6468,
      "▁8.": 6469,
      "▁ప్రాంతం": 6470,
      ",_కేంద్రపాలిత_ప్రాంత": 6471,
      "▁రాజ్యం](./": 6472,
      "▁బహు": 6473,
      "▁బెంగ": 6474,
      "ాల్లో": 6475,
      "▁control": 6476,
      "▁trans": 6477,
      "శ్వా": 6478,
      "ారిటీ": 6479,
      "గోళ": 6480,
      "▁ప్రాంతాలు": 6481,
      "▁\"History": 6482,
      "](./History": 6483,
      "బడిన": 6484,
      "తున్న": 6485,
      "న్నిక": 6486,
      "మెరి": 6487,
      "▁కాలంలో": 6488,
      "ంపి": 6489,
      "బెంగాల్": 6490,
      "gypt": 6491,
      "ెలవు": 6492,
      "](./భారతదేశంలో_": 6493,
      "▁world's": 6494,
      "▁అధికారిక": 6495,
      "ఆర్ధిక": 6496,
      "▁పట్టణ": 6497,
      "▁కాశ్మీరు": 6498,
      "▁క్రీడలు": 6499,
      "▁2006](./India#CITEREFMetcalfMetcalf2006),": 6500,
      "▁అయిన": 6501,
      "▁రెండు": 6502,
      "రాష్ట్రాలు,_కేంద్రపాలిత_ప్రాంత": 6503,
      "ట్రో": 6504,
      "ుల్తా": 6505,
      "ంగ్లీషు": 6506,
      "దినోత్సవం": 6507,
      "▁వ్యాసం:": 6508,
      "ార్లమెంట": 6509,
      "▁ఏర్ప": 6510,
      "▁article:": 6511,
      "ikkim": 6512,
      "ఆంధ్రప్రదేశ్": 6513,
      "లయాళ": 6514,
      "ichael": 6515,
      "evanagari": 6516,
      ".edu": 6517,
      "/?": 6518,
      "/H": 6519,
      "/m": 6520,
      "220": 6521,
      "3-": 6522,
      "Th": 6523,
      "_a_": 6524,
      "business": 6525,
      "eal": 6526,
      "ier": 6527,
      "nic": 6528,
      "rel": 6529,
      "erlin": 6530,
      "eries": 6531,
      "icts": 6532,
      "ament": 6533,
      "atures": 6534,
      "▁Society": 6535,
      "**[": 6536,
      "238": 6537,
      "▁D.": 6538,
      "▁H.": 6539,
      "▁Ear": 6540,
      "2011religion": 6541,
      "issile": 6542,
      "egis": 6543,
      "ote:": 6544,
      "langoff-1": 6545,
      "▁Quote:": 6546,
      "Census2011religion": 6547,
      "business-": 6548,
      "-on-": 6549,
      "66": 6550,
      "HD": 6551,
      "mill": 6552,
      "~p": 6553,
      "▁At": 6554,
      "eld": 6555,
      "ounci": 6556,
      "135": 6557,
      "harm": 6558,
      "▁[Ministry": 6559,
      "class": 6560,
      "ports": 6561,
      "-largest": 6562,
      "▁know": 6563,
      "ravid": 6564,
      "cat.org/": 6565,
      "imf.org/": 6566,
      "akhand": 6567,
      "_of_the_": 6568,
      "cript": 6569,
      "ublications/": 6570,
      "bank.org/": 6571,
      "uthority": 6572,
      "140": 6573,
      "C,": 6574,
      "Neu": 6575,
      "RL": 6576,
      "Robb": 6577,
      "Vu": 6578,
      "ZVu": 6579,
      "_घ": 6580,
      "cul": 6581,
      "ez": 6582,
      "kZVu": 6583,
      "rup": 6584,
      "rust": 6585,
      "ंत": 6586,
      "अभि": 6587,
      "इतिहास": 6588,
      "एन": 6589,
      "को": 6590,
      "क्": 6591,
      "खन": 6592,
      "खा": 6593,
      "गान": 6594,
      "ग्व": 6595,
      "च्": 6596,
      "जं": 6597,
      "टान": 6598,
      "तन": 6599,
      "थिल": 6600,
      "फोर्ड": 6601,
      "ब्ल": 6602,
      "बेट": 6603,
      "भु": 6604,
      "यत": 6605,
      "रत": 6606,
      "वास": 6607,
      "ेड": 6608,
      "ैंक": 6609,
      "ैथिल": 6610,
      "ॉल": 6611,
      "ॉंग्रेस": 6612,
      "ोस": 6613,
      "ौसेना": 6614,
      "००": 6615,
      "অর্থনৈতিক": 6616,
      "ইতিহাস": 6617,
      "উরি": 6618,
      "খ্য": 6619,
      "খ্যা": 6620,
      "ছাড়া": 6621,
      "তু": 6622,
      "থর": 6623,
      "নের": 6624,
      "ফি": 6625,
      "ব্য": 6626,
      "ভে": 6627,
      "ভুট": 6628,
      "রক্ষ": 6629,
      "ষি": 6630,
      "াবেক্ষণ": 6631,
      "ৃষ্": 6632,
      "োদী": 6633,
      "োশা": 6634,
      "ৌর": 6635,
      "ৌদ্ধ": 6636,
      "০]](./ভারত#cite_note-": 6637,
      "১৬": 6638,
      "১]](./ভারত#cite_note-": 6639,
      "▁৮": 6640,
      "▁lo": 6641,
      "▁em": 6642,
      "](./न": 6643,
      "](./पाकिस्तान": 6644,
      "▁[p": 6645,
      "▁[ल": 6646,
      "▁[ফ": 6647,
      "▁[वि": 6648,
      "▁[पाकिस्तान": 6649,
      "▁\"दक्षिण": 6650,
      "▁\"पाकिस्तान": 6651,
      "inance": 6652,
      "203": 6653,
      "2022": 6654,
      "arl": 6655,
      "arrow": 6656,
      "India.pdf)": 6657,
      "entr": 6658,
      "edition": 6659,
      "▁साल": 6660,
      "▁सम्": 6661,
      "েরি": 6662,
      "lack": 6663,
      "lease": 6664,
      "▁मो": 6665,
      "▁मौ": 6666,
      "▁India](./G": 6667,
      "▁সর্": 6668,
      "-135": 6669,
      "acred": 6670,
      "ivision": 6671,
      "তিতে": 6672,
      "राम": 6673,
      "▁sq": 6674,
      "line_": 6675,
      "](./भारत_के": 6676,
      "ficient": 6677,
      "▁অতি": 6678,
      "raz": 6679,
      "▁_C": 6680,
      "▁_India": 6681,
      "সাবে": 6682,
      "▁উদ্": 6683,
      "▁তথ্য": 6684,
      "267": 6685,
      "▁এটি": 6686,
      "▁এপ্র": 6687,
      "▁এছাড়া": 6688,
      "ंगाना": 6689,
      "▁नव": 6690,
      "▁প্রতীক": 6691,
      "কাধিক": 6692,
      "▁নৃত্য": 6693,
      "▁ভারত\")": 6694,
      "তাজ": 6695,
      "তাকা": 6696,
      "▁Health": 6697,
      "standard": 6698,
      "▁Gandhi": 6699,
      "্বই": 6700,
      "িয়ন্ত্র": 6701,
      "▁সংসদ": 6702,
      "▁आर्थिक": 6703,
      "▁দল": 6704,
      "ট্রফি": 6705,
      "লিং": 6706,
      "▁১৭": 6707,
      "রেন্দ্র": 6708,
      "নাবাহিনী": 6709,
      "काता": 6710,
      "ঙ্গীত": 6711,
      "ম্‌": 6712,
      "ম্মু": 6713,
      "▁इंडिया": 6714,
      "▁United": 6715,
      "ी](./द": 6716,
      ".svg/250px-": 6717,
      "ंडोन": 6718,
      "পিপি": 6719,
      "▁राज्यक्षेत्र": 6720,
      "▁began": 6721,
      "▁ইন্ডিয়া": 6722,
      "▁विस्त": 6723,
      "▁विदेश": 6724,
      "▁সাধারণ": 6725,
      "ोलकाता": 6726,
      "ंध्र": 6727,
      "▁বাণিজ্য": 6728,
      "▁क्षेत्रों": 6729,
      "ंग्रेजी": 6730,
      "তেলু": 6731,
      "▁अन्त": 6732,
      "▁नेतृत": 6733,
      "ibet": 6734,
      "▁\"अंग्रेज़ी": 6735,
      "১৯-": 6736,
      "হিম": 6737,
      "ারাঠ": 6738,
      "-symbols": 6739,
      "▁जनवरी": 6740,
      "हरिया": 6741,
      "ूर्वी": 6742,
      "▁1994": 6743,
      "पुरम": 6744,
      "▁मेला\"),": 6745,
      "umbai_": 6746,
      "▁स्थान": 6747,
      "ography": 6748,
      "िशा": 6749,
      "▁দেশে": 6750,
      "ंग्रेज़ी_भाषा": 6751,
      "Increase](//upload.wikimedia.org/wikipedia/commons/thumb/b/b0/Increase2.svg/20px-Increase2.svg.png)": 6752,
      "▁km2": 6753,
      "समिया": 6754,
      "limate": 6755,
      "▁`{{[ওয়েব": 6756,
      "Oxford_University_Press": 6757,
      "ducation": 6758,
      "ज्ञाप": 6759,
      "न्नई": 6760,
      "national-symbols": 6761,
      "▁অবস্থিত": 6762,
      "बंधन": 6763,
      "२००": 6764,
      "টেলি": 6765,
      "▁पुरालेखित।,": 6766,
      "GDP_\\(": 6767,
      "শিখ": 6768,
      "Stein2010),": 6769,
      "▁হিসাবে": 6770,
      "▁বৃদ্ধি": 6771,
      "▁मुख्य": 6772,
      "_और_संघ": 6773,
      "▁मानसून": 6774,
      "পরিসংখ্যান": 6775,
      "যুক্তরাষ্ট্র": 6776,
      "▁युग": 6777,
      "▁![Increase](//upload.wikimedia.org/wikipedia/commons/thumb/b/b0/Increase2.svg/20px-Increase2.svg.png)": 6778,
      "_ইতিহাস": 6779,
      "वादी": 6780,
      "▁स्वतंत्रता": 6781,
      "_के_आधार_पर_भारत_के_राज्यों_की_सूची": 6782,
      "तेलंगाना": 6783,
      "▁করতে": 6784,
      "चेन्नई": 6785,
      "ুম্বই": 6786,
      "▁बहुत": 6787,
      "पीठ": 6788,
      "ভরশীল": 6789,
      "month": 6790,
      "জাতিসংঘ": 6791,
      "▁Company": 6792,
      "क्सफोर्ड": 6793,
      "▁निर्माण": 6794,
      "](./List_of_countries_by_GDP_\\(": 6795,
      "▁२०१": 6796,
      "িকিউরি": 6797,
      "त्रिपुरा": 6798,
      "▁2010](./India#CITEREFStein2010),": 6799,
      "কেন্দ্রশাসিত_অঞ্চল": 6800,
      "तेलुगू": 6801,
      "भीमबेट": 6802,
      "▁উল্লেখযোগ্য": 6803,
      "▁Press](./Oxford_University_Press": 6804,
      "ultanate": 6805,
      "झारखंड": 6806,
      "Ministry_of_Home_Affairs_": 6807,
      "rajbhasha": 6808,
      "छत्तीसगढ़": 6809,
      "िंधु": 6810,
      "খ্রিস্ট": 6811,
      "urrent": 6812,
      "▁\\(শনাক্তকারী\\)\")": 6813,
      "ब्बत": 6814,
      "▁[अंग्रेज़ी](./अंग्रेज़ी_भाषा": 6815,
      "nominal\\)": 6816,
      "▁ओर": 6817,
      "▁कुछ": 6818,
      "Spear199024": 6819,
      "▁যদিও": 6820,
      "Neutral": 6821,
      "अभिज्ञाप": 6822,
      "च्छ": 6823,
      "ভুটান": 6824,
      "াবেক্ষণ:": 6825,
      "োশাক": 6826,
      "▁এপ্রিল": 6827,
      "তেলুগু": 6828,
      "িকিউরিটি": 6829,
      "भीमबेटका": 6830,
      "Ministry_of_Home_Affairs_1960": 6831,
      "अभिज्ञापक": 6832,
      "/F": 6833,
      "=0": 6834,
      "_19": 6835,
      "a.": 6836,
      "ault": 6837,
      "cia": 6838,
      "ced": 6839,
      "cast": 6840,
      "d/d": 6841,
      "ek": 6842,
      "most": 6843,
      "thnic": 6844,
      "id=1": 6845,
      "atar": 6846,
      "▁billion": 6847,
      "▁made": 6848,
      "▁movement": 6849,
      "▁dom": 6850,
      "▁2011.": 6851,
      "▁Des": 6852,
      "28.": 6853,
      "](//upload.wikimedia.org/wikipedia/commons/thumb/8/8": 6854,
      "aylor": 6855,
      "▁his": 6856,
      "-415": 6857,
      "utan": 6858,
      "group": 6859,
      "engali": 6860,
      "enguin": 6861,
      "|---|---": 6862,
      "overty": 6863,
      "](https://data": 6864,
      "Flag_of_India.svg.png)": 6865,
      "ific": 6866,
      "ediev": 6867,
      "cording": 6868,
      "5%": 6869,
      "_16": 6870,
      "cogn": 6871,
      "history": 6872,
      "hdr": 6873,
      "ward": 6874,
      "\")\"": 6875,
      "itage": 6876,
      "▁1965": 6877,
      "▁new": 6878,
      "-76": 6879,
      "▁Ocean": 6880,
      "▁[Singh": 6881,
      "ocs/": 6882,
      "_per": 6883,
      "_population": 6884,
      ".svg/40px-Wik": 6885,
      "embers": 6886,
      "iteracy": 6887,
      "-19-56": 6888,
      "▁second": 6889,
      "thehindu": 6890,
      "▁life": 6891,
      "2)\n": 6892,
      "6]](./India#cite_note-FOOTNOTE": 6893,
      "Gua": 6894,
      "IUCN": 6895,
      "Jgo": 6896,
      "Mumbai_": 6897,
      "Zva": 6898,
      "c/": 6899,
      "ele": 6900,
      "fun": 6901,
      "iet": 6902,
      "rid": 6903,
      "war": 6904,
      "▁[c": 6905,
      "▁\"19": 6906,
      "tigr": 6907,
      "ree_": 6908,
      "ortheast": 6909,
      "cip": 6910,
      "asht": 6911,
      "▁12.": 6912,
      "▁Summit\")\n": 6913,
      "eck": 6914,
      "78.": 6915,
      "ign_": 6916,
      "▁work": 6917,
      "▁Territory": 6918,
      "405": 6919,
      "▁top": 6920,
      "50th": 6921,
      "stan": 6922,
      "s_P": 6923,
      "▁Gu": 6924,
      "▁house": 6925,
      ".gov.": 6926,
      "ountain": 6927,
      "▁relations": 6928,
      "▁non-": 6929,
      "rib": 6930,
      "osys": 6931,
      "▁\\(India": 6932,
      "ockey": 6933,
      ")[[3": 6934,
      "](https://books.google.com/books?id=Zva": 6935,
      "ugu": 6936,
      "ummer": 6937,
      "efficient": 6938,
      "▁original](http://www.": 6939,
      "_East_Asia_Summit": 6940,
      "ities/": 6941,
      "▁prime": 6942,
      "lowing": 6943,
      "▁lead": 6944,
      "erent": 6945,
      "▁disc": 6946,
      "ethnologue": 6947,
      "▁Programme": 6948,
      "rganization": 6949,
      "uddhist": 6950,
      "istorical": 6951,
      "flu": 6952,
      ".uk/": 6953,
      "rahmap": 6954,
      "osphere": 6955,
      "Infosys": 6956,
      "JIJgo": 6957,
      "GuaJIJgo": 6958,
      "tigris": 6959,
      "](https://books.google.com/books?id=ZvaGuaJIJgo": 6960,
      "ethnologue.com/": 6961,
      "\"](https://web.archive.org/web/20": 6962,
      "#P": 6963,
      "Clémentin-Oj": 6964,
      "RO": 6965,
      "ea": 6966,
      "gu": 6967,
      "ila": 6968,
      "mrit": 6969,
      "rs": 6970,
      "serv": 6971,
      "▁\\": 6972,
      "▁°": 6973,
      "report": 6974,
      "2020": 6975,
      "▁(1):": 6976,
      "▁them": 6977,
      "icon": 6978,
      "▁set": 6979,
      "▁11.": 6980,
      "imach": 6981,
      "▁western": 6982,
      "▁Routledge": 6983,
      "hak": 6984,
      "▁Himalay": 6985,
      "▁Ge": 6986,
      "▁2007.": 6987,
      "▁Library": 6988,
      "hmed": 6989,
      "feb": 6990,
      "_128": 6991,
      "▁left": 6992,
      "▁ed.).": 6993,
      "hailand": 6994,
      "▁Wikidata": 6995,
      "_of_Congress": 6996,
      "griculture": 6997,
      "Clémentin-Ojha2014": 6998,
      "-M": 6999,
      "-ব": 7000,
      ".\"": 7001,
      "160": 7002,
      "2).": 7003,
      "S.": 7004,
      "Tamil": 7005,
      "_श": 7006,
      "_ক": 7007,
      "_30": 7008,
      "_धर्म": 7009,
      "pub": 7010,
      "ues": 7011,
      "ँची": 7012,
      "टना": 7013,
      "डम": 7014,
      "दार": 7015,
      "पार": 7016,
      "भग": 7017,
      "मरी": 7018,
      "रि": 7019,
      "स्व": 7020,
      "ेद": 7021,
      "ोला": 7022,
      "ঁচ": 7023,
      "উড": 7024,
      "গানি": 7025,
      "তত্ত্ব": 7026,
      "পর": 7027,
      "ফগানি": 7028,
      "যা": 7029,
      "রান": 7030,
      "লিক": 7031,
      "ষদ": 7032,
      "সু": 7033,
      "হর": 7034,
      "াট": 7035,
      "১০": 7036,
      "১৮": 7037,
      "৩৪": 7038,
      "৬৫": 7039,
      "▁ল": 7040,
      "▁भा": 7041,
      "▁भाग": 7042,
      "▁ईसा": 7043,
      "▁রিজার্ভ": 7044,
      "](./दक्षिण": 7045,
      "▁[ग": 7046,
      "▁[व": 7047,
      "▁[ह": 7048,
      "▁[दक्षिण": 7049,
      "▁\"य": 7050,
      "▁\"व": 7051,
      "▁\"চ": 7052,
      "▁\"দক্ষিণ": 7053,
      "arath": 7054,
      "ofil": 7055,
      "▁काल": 7056,
      "▁कॉंग्रेस": 7057,
      "्रय": 7058,
      "▁सभा": 7059,
      "▁सित": 7060,
      "▁समाज": 7061,
      "▁मई": 7062,
      "▁मन": 7063,
      "▁मह": 7064,
      "▁मिल": 7065,
      "▁मशीन": 7066,
      "](./ভারত#": 7067,
      "ন্ট্র": 7068,
      "▁pop": 7069,
      "ेंगल": 7070,
      "र्ध": 7071,
      "](./भारत_के_राज्य": 7072,
      "्तु": 7073,
      "ক্লো": 7074,
      "▁Public": 7075,
      "ura": 7076,
      "স্মাই": 7077,
      "▁में,": 7078,
      "িকার": 7079,
      "▁अभ": 7080,
      "▁अमेर": 7081,
      "▁অভি": 7082,
      "ema": 7083,
      "▁মু": 7084,
      "▁जब": 7085,
      "▁কাল": 7086,
      "▁द्वीप": 7087,
      "▁উন্নয়ন": 7088,
      "▁নয়": 7089,
      "_से": 7090,
      "pectan": 7091,
      "](http://books.google.com/books?id=": 7092,
      "▁व्या": 7093,
      "▁বিজ্ঞান": 7094,
      "न्दा": 7095,
      "িত্": 7096,
      "প্রিয়": 7097,
      "18)": 7098,
      "ernet": 7099,
      "▁Law": 7100,
      "](./ভারতের_জাতীয়_": 7101,
      "।[[২": 7102,
      "।[[৫": 7103,
      "।[[৭": 7104,
      "hief": 7105,
      "▁गई": 7106,
      "_\\(भारत\\)": 7107,
      "থাপি": 7108,
      "▁১৩": 7109,
      "ड़िया": 7110,
      "▁शहर": 7111,
      "মিশন": 7112,
      "সংবাদ": 7113,
      "নায়": 7114,
      "▁[मध्य": 7115,
      "]](./भारत#cite_note-pib": 7116,
      "▁ले": 7117,
      "▁लिये": 7118,
      "_के_अन": 7119,
      "म्भ": 7120,
      "ঙ্গা": 7121,
      "संधान": 7122,
      "त्तरी": 7123,
      "▁International": 7124,
      "o-p": 7125,
      "▁भाषा\")[[": 7126,
      "▁यूनिवर्सिट": 7127,
      "ার্টি": 7128,
      "y_](https://books.google.com/books?id=": 7129,
      "issing": 7130,
      "▁क्षेत्र\")\n": 7131,
      "▁উপকূল": 7132,
      "নিরপেক্ষ": 7133,
      "ইএসবিএন_\\(শনাক্তকারী\\)": 7134,
      "केन्द्र": 7135,
      "▁[Dyson": 7136,
      "▁জনসংখ্যা": 7137,
      "▁জনপ্রিয়": 7138,
      "▁जनजाति": 7139,
      "▁করেছে": 7140,
      "▁যা": 7141,
      "▁[আইএসবিএন](./আ": 7142,
      "india.gov.in/know": 7143,
      "_সরকার": 7144,
      "।[[১০": 7145,
      "▁সমভূমি": 7146,
      "▁যুক্ত": 7147,
      "रुणा": 7148,
      "শাসনিক": 7149,
      "▁\"আইএসবিএন": 7150,
      "▁২০০৮।": 7151,
      "▁২০০৮।\n": 7152,
      "▁পর্য": 7153,
      "ন্নড়": 7154,
      "ক্রিকেট": 7155,
      "ক্সচে": 7156,
      "official": 7157,
      "যোগিতা": 7158,
      "▁হিসে": 7159,
      "▁21.": 7160,
      "▁28.": 7161,
      "ল্প": 7162,
      ".svg.png)](./चित्र:": 7163,
      "কাশ্মীর": 7164,
      "pib.nic.in/": 7165,
      "ोर्ट": 7166,
      "▁ইতিহাস\")\n": 7167,
      "▁2024.": 7168,
      "▁\\(identifier\\)\"):[10.": 7169,
      "%E0%A4%B": 7170,
      "ধিকার": 7171,
      "▁साम्राज्य\")": 7172,
      "धुनिक": 7173,
      "▁দিবস": 7174,
      "onsoon": 7175,
      "place": 7176,
      "_साम्राज्य": 7177,
      "▁religious": 7178,
      "_with": 7179,
      "ksai": 7180,
      "▁\\(ভারত\\)\")\n": 7181,
      "▁(2018),": 7182,
      "स्लाम": 7183,
      "_देशों_की_सूची": 7184,
      "ताजमह": 7185,
      "%E0%A6%9F": 7186,
      "emocracy": 7187,
      "▁Valley": 7188,
      "क्षरता": 7189,
      "▁ক্ষেত্রে": 7190,
      "▁स्थाप": 7191,
      "▁[पाकिस्तान](./पाकिस्तान": 7192,
      "িয়ন্ত্রণ": 7193,
      "ফগানিস্তান": 7194,
      "যাত্র": 7195,
      "ेंगलुरु": 7196,
      "স্মাইলিং": 7197,
      "pectancy": 7198,
      "_के_अनुसार": 7199,
      "▁यूनिवर्सिटी": 7200,
      "▁[আইএসবিএন](./আইএসবিএন_\\(শনাক্তকারী\\)": 7201,
      "india.gov.in/knowindia/": 7202,
      "ক্সচেঞ্জ": 7203,
      "-D": 7204,
      "-national-": 7205,
      "528": 7206,
      "Front": 7207,
      "LM": 7208,
      "Rowland": 7209,
      "_-": 7210,
      "_వి": 7211,
      "_కాశ్మీ": 7212,
      "each": 7213,
      "mira": 7214,
      "ras": 7215,
      "van": 7216,
      "vers": 7217,
      "ంస్కృ": 7218,
      "ఉత్తరా": 7219,
      "కాలు": 7220,
      "ఖో": 7221,
      "ఘాలయ": 7222,
      "చ్": 7223,
      "టై": 7224,
      "టర్": 7225,
      "డమ్": 7226,
      "డఖ్": 7227,
      "ణే": 7228,
      "ణంగా": 7229,
      "తెల": 7230,
      "దరంగ": 7231,
      "నో": 7232,
      "నాలు": 7233,
      "నంద": 7234,
      "బర్": 7235,
      "బార్": 7236,
      "మతం": 7237,
      "యన": 7238,
      "యె": 7239,
      "రె": 7240,
      "లడఖ్": 7241,
      "ళా": 7242,
      "ళి": 7243,
      "శు": 7244,
      "హించ": 7245,
      "ీకరణ": 7246,
      "ుకు": 7247,
      "ెన్న": 7248,
      "ెట్రో": 7249,
      "ేతి": 7250,
      "ేఘాలయ": 7251,
      "ైస్త": 7252,
      "ైనిక": 7253,
      "ొగలు": 7254,
      "ోళ": 7255,
      "‌కా": 7256,
      "‌మహ": 7257,
      "▁ఐ": 7258,
      "▁ఖ": 7259,
      "▁ద": 7260,
      "▁–సా.శ.": 7261,
      "▁భారతీయ": 7262,
      "](./భారతదేశ": 7263,
      "▁[హ": 7264,
      "▁[గో": 7265,
      "▁\"పా": 7266,
      "▁\"జన": 7267,
      "▁\"గో": 7268,
      "▁\"మూస:": 7269,
      "\")1": 7270,
      "ia\")\n": 7271,
      "erm": 7272,
      "20.": 7273,
      "India_G": 7274,
      "ారస్వ": 7275,
      "ich": 7276,
      "ాలె": 7277,
      "స్ట": 7278,
      "స్వాతంత్ర్య": 7279,
      "▁పర": 7280,
      "▁పండు": 7281,
      "▁All": 7282,
      "ecur": 7283,
      "▁Pe": 7284,
      "ilitary": 7285,
      "angam": 7286,
      "రాన్": 7287,
      "రాస్య": 7288,
      "▁famil": 7289,
      "tock": 7290,
      ".jpe": 7291,
      "త్రిక": 7292,
      "ems": 7293,
      "emic": 7294,
      "▁కను": 7295,
      "▁కోర్": 7296,
      "▁_A": 7297,
      "క్స్": 7298,
      "క్కి": 7299,
      "▁River": 7300,
      "▁వె": 7301,
      "▁వంట": 7302,
      "▁dependencies": 7303,
      "ల్‌కా": 7304,
      "ంగో": 7305,
      "▁సముద్ర": 7306,
      "▁సూచ": 7307,
      "▁సౌక": 7308,
      "operation": 7309,
      "్రామ": 7310,
      "ండా": 7311,
      "ండీ": 7312,
      "ండ్య": 7313,
      "Union": 7314,
      "తాజ్": 7315,
      "నాథ": 7316,
      "త్వా": 7317,
      "ులు,": 7318,
      "ులు\"),": 7319,
      "▁అభి": 7320,
      "▁ప్రజా": 7321,
      "153": 7322,
      "▁numbers": 7323,
      "hib": 7324,
      "ప్రిల్": 7325,
      "▁ఉంట": 7326,
      "▁ఉత్తర": 7327,
      "%E0%B0%": 7328,
      "▁సామా": 7329,
      "వాద": 7330,
      "విధ": 7331,
      "ార్ఖండ్": 7332,
      "క్షరాస్య": 7333,
      "Chenna": 7334,
      "_and_d": 7335,
      "పుర": 7336,
      "▁నడి": 7337,
      "▁ఇండియా": 7338,
      "గుప్": 7339,
      "డుకు": 7340,
      "నేషియా": 7341,
      "ంగాణ": 7342,
      "_Nadu": 7343,
      "లియా": 7344,
      "▁జన": 7345,
      "▁ప్రాచ": 7346,
      "▁విభ": 7347,
      "▁వివిధ": 7348,
      "▁సంఘ": 7349,
      "ండిచ్చేరి": 7350,
      "▁exp": 7351,
      "▁[![](//upload.wikimedia.org/wikipedia/commons/thumb/c/c": 7352,
      ".svg/40px-Flag_of_India.svg.png)": 7353,
      "కోబార్": 7354,
      "కోల్‌కా": 7355,
      "జీరియా": 7356,
      "ంకేతి": 7357,
      "1967": 7358,
      "parliament": 7359,
      "వేలీ": 7360,
      "దాద్రా": 7361,
      "బియా": 7362,
      "డామన్": 7363,
      "▁tex": 7364,
      "▁రాష్ట్రపతి": 7365,
      "త్రిపుర": 7366,
      "_కాల": 7367,
      "▁రైల్వే": 7368,
      "య్యూ": 7369,
      "త్తీస్": 7370,
      "▁ప్రదేశ్](./": 7371,
      "▁ప్రదేశ్\")": 7372,
      "▁కాలం": 7373,
      "నాగాలా": 7374,
      "▁\"జమ్మూ": 7375,
      "aint:": 7376,
      "▁పాకిస్తాన్": 7377,
      "](./జమ్మూ": 7378,
      "oint": 7379,
      "](./List_of_countries_and_d": 7380,
      "రేబియా": 7381,
      "_at_the": 7382,
      "టాక్": 7383,
      "్రిటిష్": 7384,
      "క్రమ": 7385,
      "వెను": 7386,
      "ూచి": 7387,
      "భారతదేశ_రాష్ట్రాలు,_కేంద్రపాలిత_ప్రాంత": 7388,
      "▁మాత్ర": 7389,
      "tribution": 7390,
      "▁జాబితా\")\n": 7391,
      "ప్పటిక": 7392,
      "NCLM": 7393,
      "_from": 7394,
      "లేషియా": 7395,
      "▁మొదల": 7396,
      "ద్యు": 7397,
      "▁వంశం": 7398,
      "ద్వీప్": 7399,
      "▁ఉపఖండ": 7400,
      "▁దేశంలోని": 7401,
      "▁కాంగ్రెసు": 7402,
      "4/41/Flag_of_India.svg/40px-Flag_of_India.svg.png)": 7403,
      "ఆగష్టు": 7404,
      "లక్షద్వీప్": 7405,
      "హాయం:": 7406,
      "▁సామ్రాజ్యము": 7407,
      "మిజోరా": 7408,
      "nclm.nic.in/shared/linkimages/NCLM": 7409,
      "ర్యానా": 7410,
      "▁[ఢిల్లీ](./ఢిల్లీ": 7411,
      "టిబెట్": 7412,
      "బడ్డీ": 7413,
      "ేరళ": 7414,
      "ండమాన్": 7415,
      "మెరికా": 7416,
      "ెలవుదిన": 7417,
      "kZVuDwAAQBAJ&pg=PA": 7418,
      "50thReport.pdf)": 7419,
      "](https://books.google.com/books?id=ZvaGuaJIJgoC&pg=PA": 7420,
      "-national-language": 7421,
      "Rowland1970": 7422,
      "mirates": 7423,
      "ంస్కృతం": 7424,
      "తెలంగాణ": 7425,
      "ెన్నై": 7426,
      "‌మహల్": 7427,
      "ారస్వతం": 7428,
      "తాజ్‌మహల్": 7429,
      "క్షరాస్యత": 7430,
      "కోల్‌కాతా": 7431,
      "నాగాలాండ్": 7432,
      "](./జమ్మూ_కాశ్మీ": 7433,
      "](./List_of_countries_and_dependencies": 7434,
      "nclm.nic.in/shared/linkimages/NCLM50thReport.pdf)": 7435,
      "-F": 7436,
      "-ra": 7437,
      "Language": 7438,
      "_15": 7439,
      "rans": 7440,
      "var": 7441,
      "ves": 7442,
      "▁economy": 7443,
      "ict": 7444,
      "ictor": 7445,
      "ootb": 7446,
      "▁serv": 7447,
      "▁P.": 7448,
      "olas": 7449,
      "▁far": 7450,
      "▁wid": 7451,
      "▁Rothermund": 7452,
      "260": 7453,
      "270": 7454,
      "search": 7455,
      "pringer": 7456,
      "overnment_of_India": 7457,
      "34238": 7458,
      "ynth": 7459,
      "](https://web.archive.org/web/20090": 7460,
      "▁along": 7461,
      "vention": 7462,
      "11934238": 7463,
      "text": 7464,
      "▁estimate": 7465,
      "ristian": 7466,
      "Library_of_Congress": 7467,
      "ootball": 7468,
      "11934238p": 7469,
      "Library_of_Congress2004": 7470,
      "%),": 7471,
      ".P": 7472,
      ".c": 7473,
      "PE": 7474,
      "oe": 7475,
      "▁54": 7476,
      "orne": 7477,
      "en,": 7478,
      "ed/": 7479,
      "acts": 7480,
      "](https://catalog": 7481,
      "▁Muslim": 7482,
      "▁Book": 7483,
      "▁Data": 7484,
      "opal": 7485,
      "ly,": 7486,
      "ources": 7487,
      "external": 7488,
      "-459": 7489,
      "▁For": 7490,
      "AAJ": 7491,
      "47.": 7492,
      "▁Ins": 7493,
      "uggle": 7494,
      "ological": 7495,
      "Dyson2018),": 7496,
      "▁sector": 7497,
      "cms)": 7498,
      "britannica.com/place": 7499,
      "Uttarakhand": 7500,
      "▁Plateau": 7501,
      "MetcalfMetcalf2012-26": 7502,
      "PK:14": 7503,
      "▁addition": 7504,
      "ernet.in/": 7505,
      "-and": 7506,
      "/india/": 7507,
      "1-1": 7508,
      "2%": 7509,
      "5)\n": 7510,
      "AG": 7511,
      "Bangalore": 7512,
      "River": 7513,
      "SAARC": 7514,
      "a\")": 7515,
      "lof": 7516,
      "lurton": 7517,
      "s_of_India": 7518,
      "▁urban": 7519,
      "▁[Indo-": 7520,
      "\")-": 7521,
      "anipur": 7522,
      "anchi": 7523,
      "enni": 7524,
      "icob": 7525,
      "▁India\")|": 7526,
      "▁India\"](https://web.archive.org/web/201": 7527,
      "acmill": 7528,
      "trial": 7529,
      "▁pre": 7530,
      "▁painting": 7531,
      "▁influ": 7532,
      "\"),[[": 7533,
      "▁President": 7534,
      "▁bord": 7535,
      "olon": 7536,
      "emon": 7537,
      "rote": 7538,
      "269,": 7539,
      "287,": 7540,
      "al_election": 7541,
      "agore": 7542,
      "▁rem": 7543,
      "_in_": 7544,
      "erry": 7545,
      "](./India#CITEREFB": 7546,
      ".[[4": 7547,
      "▁Kingdom": 7548,
      "-98": 7549,
      "uduch": 7550,
      "47)": 7551,
      "709": 7552,
      "489": 7553,
      "emplate_": 7554,
      "▁eastern": 7555,
      "▁[↑](./India#cite_ref-FOOTNOTEMetcalfMetcalf2006": 7556,
      "▁\"British": 7557,
      "](./British": 7558,
      "illenni": 7559,
      "▁language\")": 7560,
      "ommonwealth": 7561,
      "ureau": 7562,
      "rough": 7563,
      "▁template\n": 7564,
      "▁US": 7565,
      "alayal": 7566,
      "co.uk/": 7567,
      "6124": 7568,
      "_Indian_gener": 7569,
      "-4020": 7570,
      "▁Pradesh\")\n": 7571,
      "▁Islands\")\n": 7572,
      "%7C": 7573,
      "%7c": 7574,
      "▁groups": 7575,
      "▁(1,269,": 7576,
      "▁3,287,": 7577,
      "_Islands": 7578,
      "PPP\\)": 7579,
      "fication": 7580,
      "▁employ": 7581,
      "ecret": 7582,
      "rishnan": 7583,
      "_Assembly": 7584,
      "troduction": 7585,
      "rahmaputra": 7586,
      "mritsar": 7587,
      "icobar": 7588,
      "acmillan": 7589,
      "uducherry": 7590,
      "illennium": 7591,
      "_Indian_general_election": 7592,
      "-১": 7593,
      ".৮": 7594,
      "5.pdf)": 7595,
      "Mon": 7596,
      "Suk": 7597,
      "Tw": 7598,
      "_)": 7599,
      "_চ": 7600,
      "_राज्य": 7601,
      "_সং": 7602,
      "_রাষ্ট্র": 7603,
      "_সম": 7604,
      "_एशिया": 7605,
      "n-": 7606,
      "zon": 7607,
      "ंतर": 7608,
      "अरब": 7609,
      "इन": 7610,
      "ईल": 7611,
      "घर": 7612,
      "चें": 7613,
      "तम": 7614,
      "तुल": 7615,
      "थियार": 7616,
      "देव": 7617,
      "द्वार": 7618,
      "फा": 7619,
      "मार": 7620,
      "शन": 7621,
      "िबंध": 7622,
      "ृष": 7623,
      "ोट": 7624,
      "ংহ": 7625,
      "এম": 7626,
      "চক": 7627,
      "ছু": 7628,
      "জার": 7629,
      "ধু": 7630,
      "ন\")\n": 7631,
      "ন্য": 7632,
      "পার": 7633,
      "ব্রু": 7634,
      "শ্মীর": 7635,
      "স](./": 7636,
      "হো": 7637,
      "হান": 7638,
      "ীণ": 7639,
      "ীব": 7640,
      "২০": 7641,
      "২৬": 7642,
      "৪৭": 7643,
      "৪)।": 7644,
      "৫৯": 7645,
      "▁औ": 7646,
      "▁रा": 7647,
      "▁ला": 7648,
      "▁[ड": 7649,
      "▁[य": 7650,
      "▁[উ": 7651,
      "▁[শ": 7652,
      "▁[জাতীয়": 7653,
      "▁\"ह": 7654,
      "ont": 7655,
      "reater": 7656,
      "ारा": 7657,
      "ारो": 7658,
      "ारम्भ": 7659,
      "▁कम": 7660,
      "▁किन": 7661,
      "्रह": 7662,
      "https://": 7663,
      "▁सह": 7664,
      "▁स्तर": 7665,
      "▁सभ्यता": 7666,
      "েরল": 7667,
      "asp?": 7668,
      "lative": 7669,
      "▁India_.": 7670,
      "▁স্ব": 7671,
      "বিদ": 7672,
      "ing,": 7673,
      "geoh": 7674,
      "ेंस": 7675,
      "▁Ag": 7676,
      "र्ट": 7677,
      "▁Court": 7678,
      "्त्र": 7679,
      "iger": 7680,
      "▁culture": 7681,
      "olence": 7682,
      "ালম": 7683,
      "ালুরু": 7684,
      "▁अलग": 7685,
      "▁अर्थव्यवस्था": 7686,
      "anda": 7687,
      "▁অধ": 7688,
      "▁অ্যান্ড": 7689,
      "rak": 7690,
      "▁মোট": 7691,
      "▁মার্কিন": 7692,
      "वियत": 7693,
      "253": 7694,
      "▁जिन": 7695,
      "▁কর্ত": 7696,
      "▁Ram": 7697,
      "ालैंड": 7698,
      "105": 7699,
      "▁देव": 7700,
      "▁दोन": 7701,
      "▁উদারীকরণ": 7702,
      "▁একাধিক": 7703,
      "▁बंगाल": 7704,
      "▁बड़े": 7705,
      "▁प्रधानमंत्री": 7706,
      "भाजन": 7707,
      "▁सेवा": 7708,
      "▁literature": 7709,
      "▁काम": 7710,
      "akar": 7711,
      "s_m": 7712,
      "tures": 7713,
      "▁বিভিন্ন": 7714,
      "aryana": 7715,
      "▁आक": 7716,
      "▁आद": 7717,
      "।[[৮": 7718,
      "15/": 7719,
      "▁परि": 7720,
      "-7mar": 7721,
      "osition": 7722,
      "লিশ": 7723,
      "▁১৬": 7724,
      "▁शा": 7725,
      "▁संस्थान": 7726,
      "রাজনীতি": 7727,
      "▁থেকে](http://": 7728,
      "নাম": 7729,
      "](./भारत#cite_ref-pib": 7730,
      "](./भारत#cite_ref-langoff": 7731,
      "]](./भारत#cite_note-langoff-1": 7732,
      "सां": 7733,
      ".net": 7734,
      "ी](./म": 7735,
      "ियन": 7736,
      "संबर": 7737,
      "त्ति": 7738,
      "▁रक्षा": 7739,
      "_Data_": 7740,
      "হেরু": 7741,
      "িয়া\")\n": 7742,
      "o-d": 7743,
      "जापान": 7744,
      "▁भाषा\")": 7745,
      "▁\"मध्य": 7746,
      "▁Press](./C": 7747,
      "▁हैं।\n": 7748,
      "▁ইন": 7749,
      "हाँ": 7750,
      "স্তর": 7751,
      "▁২০১৩": 7752,
      "ोली": 7753,
      "ুরস্": 7754,
      "](./मध्य": 7755,
      "▁উপমহাদেশ": 7756,
      "_শিল্প": 7757,
      "120]](./भारत#cite_note-langoff-1": 7758,
      "्राम": 7759,
      "ক্ষাদ্বীপ": 7760,
      ".nic.in": 7761,
      "times.indiatimes.com/": 7762,
      "▁प्रदेश\")|": 7763,
      "द्यालय": 7764,
      "▁স্বাধীনতা": 7765,
      "राष्ट्रीय_स": 7766,
      "गुप्त": 7767,
      "▁राजधान": 7768,
      "সমূহ\")": 7769,
      "▁[Kulke": 7770,
      "▁অঞ্চলের": 7771,
      "ैदिक": 7772,
      "ালয়ালম": 7773,
      "কৃতিক": 7774,
      "](./पंजाब": 7775,
      "](./पश्चिम": 7776,
      "Stein1998),": 7777,
      "Singh2009),": 7778,
      "▁CITEREFStein1998": 7779,
      "▁CITEREFSingh2009": 7780,
      "▁prov": 7781,
      "ों_की_सूची?action=edit&redlink=1": 7782,
      "▁কেন্দ্রীয়": 7783,
      "টেক": 7784,
      "▁निभा": 7785,
      "1971": 7786,
      "শিক্ষা": 7787,
      "](./भारत#CITEREFStein1998),": 7788,
      "](./भारत#CITEREFSingh2009),": 7789,
      "▁প্রধানমন্ত্রী": 7790,
      "1947)": 7791,
      "▁রাজনৈতিক": 7792,
      "▁थे": 7793,
      "▁पाकिस्तान": 7794,
      "▁২০২১": 7795,
      "▁সংস্করণ": 7796,
      "▁उपमहाद्वीप": 7797,
      "যুক্তরাজ্য": 7798,
      "कालीन": 7799,
      "▁কাশ্মীর": 7800,
      "▁मंदिर\")": 7801,
      "नागालैंड": 7802,
      "▁করুন": 7803,
      "धीरे": 7804,
      "▁ব্যবস্থা\")\n": 7805,
      "▁ডলার": 7806,
      "rishna": 7807,
      "রুভূমি": 7808,
      "▁ইউনিয়ন": 7809,
      "▁2009](./भारत#CITEREFSingh2009),": 7810,
      "এশিয়া": 7811,
      "%E0%A7%8": 7812,
      "रोहर": 7813,
      "▁(১৯৯": 7814,
      "▁वर्षों": 7815,
      "_নদী": 7816,
      "onsoon_": 7817,
      "ব্দ": 7818,
      "পাদন": 7819,
      "▁पार्टी": 7820,
      "▁পূর্ব": 7821,
      "▁सिनेमा\"),": 7822,
      "ांति": 7823,
      "ांधी": 7824,
      "রোপ": 7825,
      "▁दृश्य": 7826,
      "থাইল্যান্ড–": 7827,
      "प्राचीन": 7828,
      "▁Chinese": 7829,
      "▁भूमिका": 7830,
      "▁होती": 7831,
      "▁1998](./भारत#CITEREFStein1998),": 7832,
      "लयालम": 7833,
      "arriage": 7834,
      "▁ফেব্রু": 7835,
      "pecial:Search/ভারত": 7836,
      "्लेट": 7837,
      "বিদ্যালয়": 7838,
      "▁[আর্কাইভকৃত](https://web.archive.org/web/2008": 7839,
      "▁[আর্কাইভকৃত](https://www.webcitation.org/6174": 7840,
      "हित्य": 7841,
      "ेघालय": 7842,
      "ক্রান্ত": 7843,
      "ডারেশন": 7844,
      "▁दिसंबर": 7845,
      "roadcast": 7846,
      "hapter": 7847,
      "▁পরীক্ষা": 7848,
      "▁\"पाकिस्तान\")": 7849,
      "▁नेतृत्व": 7850,
      "edieval": 7851,
      "ofiles/": 7852,
      "িত্তিতে": 7853,
      "থাপিছু": 7854,
      "रुणाचल": 7855,
      "चेंज": 7856,
      "िबंधीय": 7857,
      "geohack": 7858,
      "-7mar2011": 7859,
      "](./भारत#cite_ref-langoff_128": 7860,
      "▁ফেব্রুয়ারি": 7861,
      "roadcasting": 7862,
      ".og": 7863,
      ".und": 7864,
      "3,": 7865,
      "cod": 7866,
      "def": 7867,
      "eb": 7868,
      "ead": 7869,
      "hl": 7870,
      "jo": 7871,
      "kb": 7872,
      "p.org/": 7873,
      "rig": 7874,
      "vil": 7875,
      "▁old": 7876,
      "inanc": 7877,
      "erage": 7878,
      "ising": 7879,
      "▁(N": 7880,
      "▁(2014": 7881,
      "trop": 7882,
      "](https://en": 7883,
      "▁sim": 7884,
      "▁15.": 7885,
      "▁13.": 7886,
      "ume": 7887,
      "atab": 7888,
      "▁Central": 7889,
      "result": 7890,
      "▁Dictionary": 7891,
      "▁Nat": 7892,
      "agen": 7893,
      "▁20.": 7894,
      "▁2001": 7895,
      "s/def": 7896,
      "ritsch": 7897,
      "▁only": 7898,
      "bert": 7899,
      "▁near": 7900,
      "vey": 7901,
      "efence": 7902,
      "auth": 7903,
      "▁Vol": 7904,
      "▁10.": 7905,
      "ject": 7906,
      "▁subject": 7907,
      "loc.gov/": 7908,
      "ouncil": 7909,
      "ault/files/": 7910,
      "hdr.und": 7911,
      "s/default/files/": 7912,
      "hdr.undp.org/": 7913,
      "&ss": 7914,
      ".ac": 7915,
      "/IND": 7916,
      "51)": 7917,
      "Court": 7918,
      "F)": 7919,
      "Kolkata": 7920,
      "_),": 7921,
      "b)": 7922,
      "hindi": 7923,
      "lood": 7924,
      "oes": 7925,
      "oard": 7926,
      "vent": 7927,
      "y=": 7928,
      "▁z": 7929,
      "▁[f": 7930,
      "▁[World": 7931,
      "orig": 7932,
      "eritage": 7933,
      "anat": 7934,
      "alk": 7935,
      "enter": 7936,
      "es_": 7937,
      "ison": 7938,
      "▁ag": 7939,
      "▁(a)": 7940,
      "19)": 7941,
      "ouch": 7942,
      "ivoy": 7943,
      "▁summits": 7944,
      "▁16.": 7945,
      "▁People": 7946,
      "urk": 7947,
      "hell": 7948,
      "▁capita": 7949,
      "▁mon": 7950,
      "architecture": 7951,
      "▁women": 7952,
      "▁Machine": 7953,
      "uled": 7954,
      "10)": 7955,
      "▁B.;": 7956,
      "▁[\"G": 7957,
      "▁Nehru": 7958,
      "▁November": 7959,
      "ship": 7960,
      "_Arab": 7961,
      "-34": 7962,
      "-53": 7963,
      "1991": 7964,
      ".[[3": 7965,
      "aves": 7966,
      "]](./India#cite_note-FOOTNOTEMetcalfMetcalf2006": 7967,
      "arty": 7968,
      "7080": 7969,
      "undament": 7970,
      "efore": 7971,
      "/countries/": 7972,
      "▁[British": 7973,
      "_summits": 7974,
      "ligned": 7975,
      "ue.bnf.fr/ark:/12148/cb": 7976,
      "▁[![](//upload.wikimedia.org/wikipedia/commons/thumb/a/a": 7977,
      "▁2014.": 7978,
      "▁\"Government": 7979,
      "](./List_of_SAARC": 7980,
      "_Gandhi": 7981,
      "▁[![A": 7982,
      "1962": 7983,
      "[![](//upload.wikimedia.org/wikipedia/commons/thumb/c/c": 7984,
      "▁technology": 7985,
      "▁Hinduism": 7986,
      "reek": 7987,
      "awahar": 7988,
      "▁[_An": 7989,
      "hattis": 7990,
      "▁composed": 7991,
      "6/6": 7992,
      "-to-": 7993,
      "_by_population": 7994,
      "merican": 7995,
      "equality": 7996,
      "▁name:": 7997,
      "▁mi)": 7998,
      "_BRICS_summit": 7999,
      "▁Persian": 8000,
      "_Development_": 8001,
      "](https://id.": 8002,
      "▁known": 8003,
      "entral_": 8004,
      "razil": 8005,
      "ivoyage": 8006,
      "▁summits\")\n": 8007,
      "](./List_of_SAARC_summits": 8008,
      "awaharl": 8009,
      "&c": 8010,
      "-T": 8011,
      "-prov": 8012,
      "1b": 8013,
      "7-1": 8014,
      "EB": 8015,
      "E_": 8016,
      "History": 8017,
      "KI": 8018,
      "Kashmir": 8019,
      "Political_": 8020,
      "Ram": 8021,
      "_43": 8022,
      "fo": 8023,
      "que": 8024,
      "ru": 8025,
      "ya_": 8026,
      "▁77.": 8027,
      "arayan": 8028,
      "ed,": 8029,
      "ediff": 8030,
      "▁ass": 8031,
      "▁(in": 8032,
      "am,": 8033,
      "[[14": 8034,
      "um_": 8035,
      "▁See": 8036,
      "find": 8037,
      "▁_P": 8038,
      "▁Bharat": 8039,
      "▁human": 8040,
      "138": 8041,
      "▁religion": 8042,
      "60)": 8043,
      "liter": 8044,
      "liest": 8045,
      "ociation": 8046,
      "utt": 8047,
      "articles": 8048,
      "/publications/": 8049,
      "▁Thomas": 8050,
      ".asp?": 8051,
      "/articles/": 8052,
      "ministered": 8053,
      "actbook/": 8054,
      "▁shall": 8055,
      "view/": 8056,
      "tiger": 8057,
      ".worldcat.org/": 8058,
      "▁Minorities,": 8059,
      "hmedabad": 8060,
      "%27": 8061,
      "8–": 8062,
      ":IN": 8063,
      ";\n": 8064,
      "AS": 8065,
      "CS1": 8066,
      "_st": 8067,
      "data": 8068,
      "eub": 8069,
      "str": 8070,
      "aring": 8071,
      "Indian_": 8072,
      "an-": 8073,
      "es,": 8074,
      "cir": 8075,
      "1956": 8076,
      "▁India\n": 8077,
      "wikidata": 8078,
      "eccan": 8079,
      "▁four": 8080,
      "216": 8081,
      "2542": 8082,
      "▁2012.": 8083,
      "103": 8084,
      "108": 8085,
      "▁Division": 8086,
      "akes": 8087,
      "▁Gana": 8088,
      "▁2000": 8089,
      "-89": 8090,
      "-349": 8091,
      "1857": 8092,
      "179": 8093,
      "ave": 8094,
      "](https://books.google.com/books?id=3TRtDwAAQBAJ&pg=PA": 8095,
      "ommission": 8096,
      "/page/": 8097,
      "IAEXT": 8098,
      "alaysia": 8099,
      "2103": 8100,
      "ofindia.nic.in/": 8101,
      ".JPG/": 8102,
      ".JPG)](./": 8103,
      "bbc.": 8104,
      "ravidian": 8105,
      "euborne": 8106,
      "2542-5": 8107,
      "&local_": 8108,
      "-৬": 8109,
      "-24": 8110,
      "-50": 8111,
      ".৭": 8112,
      ".\")\n": 8113,
      "/b": 8114,
      "/)।": 8115,
      "130": 8116,
      "240": 8117,
      "2-4": 8118,
      "5–సా.శ.": 8119,
      "8+": 8120,
      "Allchin": 8121,
      "CH": 8122,
      "Parliament": 8123,
      "Petraglia": 8124,
      "[మ": 8125,
      "_ফ": 8126,
      "_అ": 8127,
      "_ఎ": 8128,
      "_ర": 8129,
      "_con": 8130,
      "_యు": 8131,
      "_రాజ": 8132,
      "_శాస్త్ర": 8133,
      "_তালিকা": 8134,
      "_languages": 8135,
      "ax": 8136,
      "base": 8137,
      "constitution": 8138,
      "code": 8139,
      "dikshit": 8140,
      "gir": 8141,
      "iosphere": 8142,
      "ji": 8143,
      "jan": 8144,
      "las": 8145,
      "nu": 8146,
      "rance": 8147,
      "s=": 8148,
      "ईद": 8149,
      "ऍथ": 8150,
      "ऑक्सफोर्ड": 8151,
      "ख़": 8152,
      "गध": 8153,
      "जल": 8154,
      "जपा": 8155,
      "जपुरी": 8156,
      "जिस्ट": 8157,
      "ताल": 8158,
      "थम": 8159,
      "थल": 8160,
      "दल": 8161,
      "दान": 8162,
      "नोल": 8163,
      "न्तर": 8164,
      "फ्रां": 8165,
      "बा": 8166,
      "बू": 8167,
      "बार": 8168,
      "मत": 8169,
      "यपुर": 8170,
      "रस": 8171,
      "ल्ल": 8172,
      "वेश": 8173,
      "शत": 8174,
      "शोक": 8175,
      "हम": 8176,
      "हें": 8177,
      "ाक": 8178,
      "ुरा": 8179,
      "ुम्ब": 8180,
      "ूबर": 8181,
      "ृष्ण": 8182,
      "ेक": 8183,
      "ॉग": 8184,
      "५७": 8185,
      "উট": 8186,
      "ওড়ি": 8187,
      "কক্ষ": 8188,
      "কলা": 8189,
      "কগণ": 8190,
      "কশাল": 8191,
      "ঘাট": 8192,
      "চ্": 8193,
      "জনে": 8194,
      "ট্": 8195,
      "তথ্য": 8196,
      "দ্যান": 8197,
      "দিকে": 8198,
      "ধা": 8199,
      "ফস": 8200,
      "বু": 8201,
      "ব্যবস্থা": 8202,
      "ময়": 8203,
      "মিয়ানমার": 8204,
      "যান": 8205,
      "রবী": 8206,
      "রকারি": 8207,
      "রমাণু": 8208,
      "সল": 8209,
      "স\")": 8210,
      "হারা": 8211,
      "ী_": 8212,
      "ী](./": 8213,
      "ুক্তি": 8214,
      "ৃষি": 8215,
      "োহ": 8216,
      "ৌর্য": 8217,
      "ৌলিক": 8218,
      "২৩": 8219,
      "২৮": 8220,
      "৭১": 8221,
      "ఒలి": 8222,
      "కూ": 8223,
      "కర్": 8224,
      "గే": 8225,
      "గ్ర": 8226,
      "గతి": 8227,
      "జు": 8228,
      "ఞాన": 8229,
      "టం": 8230,
      "టన్": 8231,
      "పం": 8232,
      "పీ": 8233,
      "పో": 8234,
      "పార": 8235,
      "పచ్చ": 8236,
      "మ్య": 8237,
      "మతి": 8238,
      "యాలో": 8239,
      "లె": 8240,
      "వై": 8241,
      "వ్": 8242,
      "వత్స": 8243,
      "వృద్ధి": 8244,
      "సీ": 8245,
      "సే": 8246,
      "స్రా": 8247,
      "హక": 8248,
      "ాంగ": 8249,
      "ాబ్": 8250,
      "ీఠ": 8251,
      "ువు": 8252,
      "ూపా": 8253,
      "ెట్": 8254,
      "ేవ": 8255,
      "ైద": 8256,
      "ైగా": 8257,
      "ొయ": 8258,
      "‌ల": 8259,
      "–24": 8260,
      "▁ট": 8261,
      "▁৯": 8262,
      "▁ఘ": 8263,
      "▁ना": 8264,
      "▁গু": 8265,
      "▁దీ": 8266,
      "▁ঐতিহ্য": 8267,
      "](./ग": 8268,
      "](./চ": 8269,
      "](./ফ": 8270,
      "](./హ": 8271,
      "](./हिन्द": 8272,
      "](./జన": 8273,
      "](./గో": 8274,
      "](./భారతదేశ_": 8275,
      "▁[রাজ্য": 8276,
      "▁[జన": 8277,
      "▁[హిందూ": 8278,
      "▁[పాకిస్తాన్": 8279,
      "▁[ముంబై": 8280,
      "▁[गुजरात": 8281,
      "▁\"ड": 8282,
      "▁\"ফ": 8283,
      "▁\"గ": 8284,
      "▁\"সা": 8285,
      "▁\"దక్షిణ": 8286,
      "▁\"साँचा": 8287,
      "▁\"మూస": 8288,
      "▁\"హిందూ": 8289,
      "▁\"పాకిస్తాన్": 8290,
      "▁\"ప్రపంచ": 8291,
      "▁\"ముంబై": 8292,
      "▁\"వర్గం:Harv": 8293,
      "▁\"ప్రత్యేక:EditPage/మూస:": 8294,
      "nder": 8295,
      "on_the": 8296,
      "reen": 8297,
      "th_BRICS_summit": 8298,
      "erc": 8299,
      "arlo": 8300,
      "alak": 8301,
      "es.": 8302,
      "্রপ্রদেশ": 8303,
      "য়ো": 8304,
      "য়লা": 8305,
      "्रार": 8306,
      "్రైస్త": 8307,
      "▁सूच": 8308,
      "্যার": 8309,
      "ices": 8310,
      "outheast": 8311,
      "astr": 8312,
      "idref": 8313,
      "▁मध्य": 8314,
      "▁मन्दिर": 8315,
      "्यूरो": 8316,
      "▁সদ": 8317,
      "్యాలె": 8318,
      "रात": 8319,
      "-0)\n": 8320,
      "▁पड़": 8321,
      "▁प्लेट": 8322,
      "](./ভারত_সরকার": 8323,
      "ন্তি": 8324,
      "loth": 8325,
      "స్వా": 8326,
      "র্ণা": 8327,
      "దేశాలు": 8328,
      "▁17.": 8329,
      "ating": 8330,
      "attle": 8331,
      "▁పద్ధ": 8332,
      "▁పైగా": 8333,
      "▁পশ্চিম": 8334,
      "ations_": 8335,
      "ानगर": 8336,
      "▁Al": 8337,
      "▁Stud": 8338,
      "](./भारत_का": 8339,
      "న్ను": 8340,
      "▁हाला": 8341,
      "▁हथियार": 8342,
      "▁Civil": 8343,
      "ector": 8344,
      "ర్ద": 8345,
      "_of_2011": 8346,
      "▁Punjab": 8347,
      "ilgr": 8348,
      "▁caus": 8349,
      "లు\n": 8350,
      "স্টি": 8351,
      "िकी": 8352,
      "రాజ్యం": 8353,
      "याधी": 8354,
      "లోయ": 8355,
      "upreme": 8356,
      "rest": 8357,
      "ipp": 8358,
      "emor": 8359,
      "emographic": 8360,
      "ोंक": 8361,
      "▁కేంద్ర": 8362,
      "▁కంపెనీ": 8363,
      "▁Michael": 8364,
      "ాలుగా": 8365,
      "క్తి": 8366,
      "▁২৪": 8367,
      "▁২৫": 8368,
      "▁ज़": 8369,
      "▁వై": 8370,
      "ालर": 8371,
      "ate=`": 8372,
      "▁div": 8373,
      "▁development": 8374,
      "▁উচ্চ": 8375,
      "হায়": 8376,
      "▁Day": 8377,
      "न्ध": 8378,
      "न्स": 8379,
      "]](./India#cite_note-4": 8380,
      "]](./India#cite_note-Combined": 8381,
      "▁సమా": 8382,
      "▁సర్వ": 8383,
      "▁సుల్తా": 8384,
      "▁बार": 8385,
      "▁बने": 8386,
      "▁बड़ा": 8387,
      "▁प्रस": 8388,
      "▁प्रारम्भ": 8389,
      "](//upload.wikimedia.org/wikipedia/en/": 8390,
      "▁नौसेना": 8391,
      "▁প্রচ": 8392,
      "▁1962": 8393,
      "▁বুদ্ধ": 8394,
      "▁নিক": 8395,
      "▁নীতি": 8396,
      "▁ভারত\")\n": 8397,
      "50–సా.శ.": 8398,
      "▁Har": 8399,
      "▁చర్చ:": 8400,
      "▁জলবায়ু": 8401,
      "्टॉक": 8402,
      "తాక": 8403,
      "నాట": 8404,
      "▁হতে": 8405,
      "▁হিম": 8406,
      "సింది.": 8407,
      "-37": 8408,
      "▁[↑](./India#cite_ref-4": 8409,
      "▁वाल": 8410,
      "▁वार्ता:": 8411,
      "क्षण": 8412,
      "क्षद्वीप": 8413,
      "▁বিভাগ": 8414,
      "▁বিপ্লব": 8415,
      "ులు\")": 8416,
      "ులు?action=edit&redlink=1": 8417,
      "▁hum": 8418,
      "▁आन्द": 8419,
      "–సా.శ.14": 8420,
      "ap_en": 8421,
      "▁(సా.శ.6": 8422,
      "▁(సా.శ.17": 8423,
      "▁(సా.శ.14": 8424,
      "-59": 8425,
      "तिब्बत": 8426,
      "লাক্ষাদ্বীপ": 8427,
      "▁అను": 8428,
      "ిక,": 8429,
      "▁দা": 8430,
      "a_1": 8431,
      "a_C": 8432,
      "1993": 8433,
      "](./ভারতের_প্র": 8434,
      "](./ভারতের_রাজ্য": 8435,
      "కుపచ్చ": 8436,
      "జాతి": 8437,
      "।[[৬": 8438,
      "](./భారతదేశం#CITEREF": 8439,
      "ishers": 8440,
      "]](./भारत#cite_note-10": 8441,
      "थाईल": 8442,
      "▁गठ": 8443,
      "▁these": 8444,
      "E0%A": 8445,
      "লিউড": 8446,
      "▁১০": 8447,
      "▁১৮": 8448,
      "▁\\(भारत": 8449,
      "▁ఆకుపచ్చ": 8450,
      "মিজ": 8451,
      "మాతర": 8452,
      "మాబాద్": 8453,
      "రుపు": 8454,
      "రుగు": 8455,
      "সংসদ": 8456,
      "▁రే": 8457,
      "নাড়": 8458,
      "విజ": 8459,
      "udi": 8460,
      "]](./India#cite_note-FOOTNOTEStein2010": 8461,
      "कांक": 8462,
      "যুগ": 8463,
      "▁लिया": 8464,
      "ঙ্গেয়": 8465,
      "हिमालय": 8466,
      "](https://www.idref": 8467,
      "ियान": 8468,
      "-674": 8469,
      "-691": 8470,
      "▁Asia:": 8471,
      "ড়ো": 8472,
      "▁tree": 8473,
      "ublishers": 8474,
      "ंडमान": 8475,
      "opulation_T": 8476,
      "▁నె": 8477,
      "▁నది": 8478,
      "మించ": 8479,
      "▁सागर": 8480,
      "ঞ্চা": 8481,
      "ঞ্চলে": 8482,
      "o-operation": 8483,
      "▁తన": 8484,
      "▁\"Category:": 8485,
      "ummary": 8486,
      "এনসাই": 8487,
      "▁[মহা": 8488,
      "▁\"महाराष्ट्र": 8489,
      "](./Category:": 8490,
      "5457": 8491,
      "▁ইংরেজি": 8492,
      "▁विज्ञान": 8493,
      "ం](./అ": 8494,
      "ం](./క": 8495,
      "ంబంధ": 8496,
      "हाब": 8497,
      "परेशन": 8498,
      "▁करना": 8499,
      "▁करता": 8500,
      "▁২০১৬": 8501,
      "▁২০১৮": 8502,
      "గువ": 8503,
      "मीरात": 8504,
      "ভূটান": 8505,
      "▁বায়ু": 8506,
      "](./महाराष्ट्र": 8507,
      "▁क्षेत्र\")": 8508,
      "র্বো": 8509,
      "ंग्रेज": 8510,
      "▁సంస్థ": 8511,
      "▁సంవత్స": 8512,
      "▁language\"),": 8513,
      "ibcode": 8514,
      "డియా": 8515,
      "▁[2](./भारत#cite_ref-FOOTNOTE": 8516,
      "র্মসূ": 8517,
      "_చర్చ:": 8518,
      "▁[1](./भारत#cite_ref-FOOTNOTE": 8519,
      "](./Template": 8520,
      "▁\"మధ్య": 8521,
      "-date=`": 8522,
      "▁ఎన్నిక": 8523,
      "▁ఎన్ను": 8524,
      "▁(సా.శ.పూ.1200": 8525,
      "375457": 8526,
      "](./మధ్య": 8527,
      "శాఖ": 8528,
      "ন্ধ্রপ্রদেশ": 8529,
      "▁देश\")\n": 8530,
      "_1_of_2011": 8531,
      "▁గణ": 8532,
      "_map_en": 8533,
      "▁चार": 8534,
      "uddha": 8535,
      "্রিটান": 8536,
      "▁স্বা": 8537,
      "కృష్": 8538,
      "రాష్ట్రాల": 8539,
      "हारजिस्ट": 8540,
      "]](./భారతదేశం#cite_note-india.gov.in": 8541,
      "▁বিশেষ": 8542,
      "_సంగీతం": 8543,
      "▁১৯৮": 8544,
      "िवस": 8545,
      "▁वर्षा": 8546,
      "साँचा_व": 8547,
      "▁[Government": 8548,
      "_भारतीय_": 8549,
      "ায়।": 8550,
      "ారిగా": 8551,
      "మూస_చర్చ:": 8552,
      "▁2007\n": 8553,
      "▁2007](./ভারত#": 8554,
      "నాయక": 8555,
      "–సా.శ.పూ.3": 8556,
      "దావరి": 8557,
      "▁ప్రాంతాలు](./": 8558,
      "▁घरेलू": 8559,
      "▁বিশ্বকাপ": 8560,
      "समूह": 8561,
      "বর্ষ": 8562,
      "▁সরকারের": 8563,
      "హాస": 8564,
      "▁(২০": 8565,
      "](./पूर्व": 8566,
      "▁కూడిన": 8567,
      "▁([help](./వర్గం:Harv": 8568,
      "ighth": 8569,
      "ष्ठ": 8570,
      "▁রাষ্ট্রপতি": 8571,
      "न्नड़": 8572,
      "▁నిర్వ": 8573,
      "rancis": 8574,
      "_Force": 8575,
      "_మతం": 8576,
      "ोरम": 8577,
      "ణిపూర్": 8578,
      "आईएस": 8579,
      "दाख": 8580,
      "▁था,": 8581,
      "_আন্দোলন": 8582,
      "orests": 8583,
      "ेर-": 8584,
      "▁धर्म\")": 8585,
      "श्मीरी": 8586,
      "য়াদিল্লি": 8587,
      "▁This": 8588,
      "▁[జమ్మూ": 8589,
      "▁పాత్ర": 8590,
      "▁কোটি": 8591,
      "▁কোম্পানি": 8592,
      "▁शासित": 8593,
      ".svg.png)](./File:": 8594,
      "ోర్చు": 8595,
      "▁\"చైనా": 8596,
      "aper_1_of_2011": 8597,
      "ंपन": 8598,
      "ंपरा": 8599,
      "▁[↑](./भारत#cite_ref-10": 8600,
      "त्पत्ति": 8601,
      "▁ఉన్నాయి.\n": 8602,
      "▁ఒకటి": 8603,
      "_ইউ": 8604,
      "▁বৈদেশিক": 8605,
      "▁শিল্প\")\n": 8606,
      "हाराष्ट्र](./महाराष्ट्र": 8607,
      "జ్ఞాన": 8608,
      "▁अपने": 8609,
      "ार्कट": 8610,
      "▁तटीय": 8611,
      "▁పరిశ్ర": 8612,
      "disha": 8613,
      ".fr/0": 8614,
      "लिंग": 8615,
      "▁ইউনিভার্সিটি": 8616,
      "▁మార్గాలు": 8617,
      "రోపా": 8618,
      "जयपुर": 8619,
      "जयनगर": 8620,
      "भूटान": 8621,
      "ikhism": 8622,
      "▁ক্রিকেট": 8623,
      "िज़ोरम": 8624,
      "দ্রোহ": 8625,
      "তামিলনাড়": 8626,
      "▁భారతదేశానికి": 8627,
      "▁మతము\")": 8628,
      "▁మతము\"),": 8629,
      "णिपुर": 8630,
      "णिपुरी": 8631,
      "लोकसभा": 8632,
      "বর্তী": 8633,
      "_न्या": 8634,
      "ईसाई": 8635,
      "▁सुरक्षा": 8636,
      "▁এশিয়ার": 8637,
      "▁व्यवस्था": 8638,
      "्रांति": 8639,
      "शासित_प्रदेश": 8640,
      "ీనంలో": 8641,
      "▁ప్రపంచంలో": 8642,
      "Provision": 8643,
      "▁টাকা": 8644,
      "▁পূর্": 8645,
      "पातकाल": 8646,
      "▁অনুযায়ী": 8647,
      "▁ప్రభుత్వ": 8648,
      "▁మొదటి": 8649,
      "धिराज्य": 8650,
      "▁जलवायु": 8651,
      "▁घाटी": 8652,
      ".worldbank.org/": 8653,
      "Sharma1950": 8654,
      "▁\"हिन्दी\")": 8655,
      "స్లామాబాద్": 8656,
      "▁పాలన": 8657,
      "▁కార్య": 8658,
      "▁కారణంగా": 8659,
      "▁కలిగి": 8660,
      "▁लगभग": 8661,
      "ంటుంది.": 8662,
      "ूरोप": 8663,
      "भोजपुरी": 8664,
      "▁নিবন্ধ:": 8665,
      "▁[t](./మూస_చర్చ:": 8666,
      "▁[v](./మూస:": 8667,
      "▁[e](./ప్రత్యేక:EditPage/మూస:": 8668,
      "ylee": 8669,
      "▁when": 8670,
      "పదాలు": 8671,
      "శోకుడు": 8672,
      "emale": 8673,
      "▁వేగంగా": 8674,
      "al_Population_T": 8675,
      "▁చిత్ర": 8676,
      "▁జరిగిన": 8677,
      "▁सीमा": 8678,
      "▁regions": 8679,
      "▁স্থাপত্য": 8680,
      "_যুদ্ধ": 8681,
      "নোর": 8682,
      "▁सदस": 8683,
      "▁দেখা": 8684,
      "পাঞ্জাব": 8685,
      "▁राजनीतिक": 8686,
      "▁[पंजाब](./पंजाब": 8687,
      "ণিপুরী": 8688,
      "▁[భారతదేశంలో": 8689,
      "arnatic": 8690,
      "▁అనేక": 8691,
      "▁ఎక్కువగా": 8692,
      "▁থাকে": 8693,
      "▁দ্বীপপুঞ্জ": 8694,
      "▁শিক্ষা": 8695,
      "▁হিন্দু": 8696,
      "_राजवंश": 8697,
      "पूर्ण": 8698,
      "ृद्धि": 8699,
      "ীমান্ত": 8700,
      "▁দশক": 8701,
      "▁দুই": 8702,
      "▁शुरू": 8703,
      "বেঙ্গালুরু": 8704,
      "▁వారసత్వ": 8705,
      "▁ప్రస్తుతం": 8706,
      "▁రోడ్": 8707,
      "otals_P": 8708,
      "▁తరువాత": 8709,
      "▁బెంగాల్": 8710,
      "ంపిక్": 8711,
      "135375457": 8712,
      "culp": 8713,
      "खनऊ": 8714,
      "ারাঠি": 8715,
      "हरियाणा": 8716,
      "func=": 8717,
      "ক্লোপিডিয়া": 8718,
      "নায়ক": 8719,
      "▁হিসেবে": 8720,
      "▁వెబ్": 8721,
      "▁సౌకర్య": 8722,
      "ండీగఢ్": 8723,
      "▁అభివృద్ధి": 8724,
      "▁నడిపించ": 8725,
      "గుప్త": 8726,
      "భారతదేశ_రాష్ట్రాలు,_కేంద్రపాలిత_ప్రాంతాలు": 8727,
      "तुल्य": 8728,
      "फाएं": 8729,
      "ृषि": 8730,
      "▁दोनों": 8731,
      "120]](./भारत#cite_note-langoff-128)": 8732,
      ".nic.in)\n": 8733,
      "▁निभाई": 8734,
      "&local_base": 8735,
      "PetragliaAllchin": 8736,
      "dikshit),": 8737,
      "ऍथनोल": 8738,
      "ुम्बई": 8739,
      "জনেস": 8740,
      "ট্ট": 8741,
      "রবীন্দ্র": 8742,
      "হারাষ্ট্র": 8743,
      "র্ণাটক": 8744,
      "ilgrim": 8745,
      "याधीश": 8746,
      "](//upload.wikimedia.org/wikipedia/en/thumb/": 8747,
      "](https://www.idref.fr/0": 8748,
      "এনসাইক্লোপিডিয়া": 8749,
      "▁(సా.శ.పూ.1200–సా.శ.పూ.": 8750,
      "্রিটানিকা": 8751,
      "కృష్ణా": 8752,
      "हारजिस्ट्रार": 8753,
      "साँचा_वार्ता:": 8754,
      "▁2007](./ভারত#dikshit),": 8755,
      "▁([help](./వర్గం:Harv_and_Sfn_template_errors": 8756,
      "ోర్చుగ": 8757,
      "aper_1_of_2011_India": 8758,
      "ार्कटिका": 8759,
      "Provisional_Population_T": 8760,
      "otals_Paper_1_of_2011_India": 8761,
      "&local_base=": 8762,
      "ऍथनोलॉग": 8763,
      "Provisional_Population_Totals_Paper_1_of_2011_India": 8764,
      "01": 8765,
      "2)[[": 8766,
      "4).": 8767,
      "534": 8768,
      "8)\n": 8769,
      "A/A": 8770,
      "CA/A": 8771,
      "John": 8772,
      "Tab": 8773,
      "_26": 8774,
      "_2011": 8775,
      "_38": 8776,
      "atp": 8777,
      "cur": 8778,
      "denti": 8779,
      "nglish": 8780,
      "q=": 8781,
      "uture": 8782,
      "uild": 8783,
      "ver,": 8784,
      "ndl": 8785,
      "India_%28orthographic_projection%29": 8786,
      "▁(S": 8787,
      ".org/w": 8788,
      "-08": 8789,
      "\\)\"),": 8790,
      "▁prom": 8791,
      "amap": 8792,
      "[[18": 8793,
      "▁Policy": 8794,
      "00%20A": 8795,
      "▁can": 8796,
      "raw": 8797,
      "▁_2011": 8798,
      "eli": 8799,
      "▁[\"World": 8800,
      "22.": 8801,
      "ri_Lanka": 8802,
      "-2_Data_": 8803,
      "lands": 8804,
      "/country": 8805,
      "%202-": 8806,
      "rade": 8807,
      "Asher2006": 8808,
      "AsherAsher2006": 8809,
      "les/00%20A": 8810,
      "▁Anth": 8811,
      "UNHD": 8812,
      "▁around": 8813,
      "▁use": 8814,
      "yyyy": 8815,
      "irector": 8816,
      "censusindia.gov.in/2011census/P": 8817,
      "censusindia.gov.in/2011census/population": 8818,
      "_enumeration": 8819,
      "ocuments/": 8820,
      "-of-india-": 8821,
      "map_of_India": 8822,
      "india.gov.in/india-glance/profile": 8823,
      "owever,": 8824,
      "imf.org/external": 8825,
      "▁domestic": 8826,
      "▁\\-": 8827,
      "▁widely": 8828,
      "▁(2014).": 8829,
      "Political_map_of_India": 8830,
      "CA/A-2_Data_": 8831,
      "Tables/00%20A": 8832,
      "%202-India.pdf)": 8833,
      "UNHDR": 8834,
      "censusindia.gov.in/2011census/PCA/A-2_Data_": 8835,
      "censusindia.gov.in/2011census/population_enumeration": 8836,
      "Tables/00%20A%202-India.pdf)": 8837,
      "censusindia.gov.in/2011census/PCA/A-2_Data_Tables/00%20A%202-India.pdf)": 8838,
      "([": 8839,
      "/profile": 8840,
      "4)\n": 8841,
      "6,": 8842,
      "80%": 8843,
      "9-6": 8844,
      "Aligned": 8845,
      "Karanth": 8846,
      "_on": 8847,
      "dance": 8848,
      "lish": 8849,
      "men": 8850,
      "▁X": 8851,
      "org": 8852,
      "orpor": 8853,
      "arm": 8854,
      "▁(3": 8855,
      "lect": 8856,
      "▁Social": 8857,
      "uris": 8858,
      "▁Report": 8859,
      "▁Dance": 8860,
      "263": 8861,
      "▁[\"In": 8862,
      "▁Home": 8863,
      "_Act": 8864,
      "-85": 8865,
      "html": 8866,
      "_\\(orthographic_projection": 8867,
      "▁Of": 8868,
      "anath": 8869,
      "iance": 8870,
      "arkar": 8871,
      "▁[978-0-521": 8872,
      "tate_": 8873,
      "on-Aligned": 8874,
      "cms).": 8875,
      "/hind": 8876,
      "/index.php?": 8877,
      "▁London:": 8878,
      "estival": 8879,
      "▁Institu": 8880,
      "▁US$": 8881,
      "_\\(orthographic_projection\\)": 8882,
      "/)": 8883,
      "1-8": 8884,
      "223": 8885,
      "2]](./India#cite_note-": 8886,
      "2%29": 8887,
      "7C": 8888,
      "7.\n": 8889,
      ":G": 8890,
      "FT": 8891,
      "Gum": 8892,
      "HQ": 8893,
      "Island": 8894,
      "Lakshadweep": 8895,
      "Pan": 8896,
      "Sanchi": 8897,
      "US": 8898,
      "Yum": 8899,
      "_14": 8900,
      "aos": 8901,
      "bour": 8902,
      "business/": 8903,
      "ght": 8904,
      "hang": 8905,
      "mj": 8906,
      "min": 8907,
      "utes": 8908,
      "vert": 8909,
      "▁ge": 8910,
      "▁el": 8911,
      "▁[n": 8912,
      "▁[_P": 8913,
      "▁\"U": 8914,
      "thang": 8915,
      "orn": 8916,
      "oro": 8917,
      "orship": 8918,
      "aro": 8919,
      "ene": 8920,
      "cid": 8921,
      "city": 8922,
      "▁ago": 8923,
      "2016_": 8924,
      "▁India](./C": 8925,
      "adras": 8926,
      "▁plate": 8927,
      "▁se": 8928,
      "▁sign": 8929,
      "▁Ad": 8930,
      "▁Asher": 8931,
      "▁Ca": 8932,
      "▁Cooperation": 8933,
      "first": 8934,
      "▁Park": 8935,
      "illa": 8936,
      "igarh": 8937,
      "andigarh": 8938,
      "▁man": 8939,
      "▁milk": 8940,
      "▁_M": 8941,
      "tics": 8942,
      "▁Br": 8943,
      "▁Buddhist": 8944,
      "▁Before": 8945,
      "▁Data_": 8946,
      "roduc": 8947,
      "elugu": 8948,
      "irth": 8949,
      "hag": 8950,
      "](./Sanskrit": 8951,
      "▁Games": 8952,
      "▁\"Sanskrit": 8953,
      "pecially": 8954,
      "a_tigris": 8955,
      "ability": 8956,
      "▁gen": 8957,
      "▁growth": 8958,
      "_in_South_Asia": 8959,
      "▁through": 8960,
      "▁On": 8961,
      "▁Island": 8962,
      "▁\"Mughal": 8963,
      "549": 8964,
      "thera_tigris": 8965,
      "▁[↑](./India#cite_ref-FOOTNOTEB": 8966,
      "](./Mugh": 8967,
      "74.": 8968,
      "▁within": 8969,
      "398": 8970,
      "▁[![](//upload.wikimedia.org/wikipedia/commons/thumb/2/": 8971,
      "onstitution_of_India": 8972,
      "engal_": 8973,
      "amil_Nadu": 8974,
      "anskrit](./Sanskrit": 8975,
      "amanuj": 8976,
      "uisine": 8977,
      "ortal:": 8978,
      "known": 8979,
      "Environment": 8980,
      "▁especially": 8981,
      "▁about": 8982,
      "New_Delhi": 8983,
      "ambod": 8984,
      "_union_territ": 8985,
      "topic": 8986,
      "▁increased": 8987,
      "adhya": 8988,
      "](./South_Asian_": 8989,
      "▁2018](./India#CITEREFDyson2018),": 8990,
      "▁different": 8991,
      "](./History_of_": 8992,
      "▁India](./Government_of_India": 8993,
      "InfosysHQ": 8994,
      "FrontView": 8995,
      "▁remain": 8996,
      "8+5": 8997,
      "culpture": 8998,
      "Gumpa": 8999,
      "LakshadweepIsland": 9000,
      "Sanchi2": 9001,
      "Yumthang": 9002,
      "▁Asher,": 9003,
      "](./Mughal_": 9004,
      "InfosysHQFrontView": 9005,
      "-E": 9006,
      "/fr": 9007,
      "6).": 9008,
      "63)": 9009,
      "948": 9010,
      "Dg": 9011,
      "OL": 9012,
      "aith": 9013,
      "bur": 9014,
      "ech": 9015,
      "hra": 9016,
      "yd": 9017,
      "–18": 9018,
      "▁[_M": 9019,
      "ndhra": 9020,
      "inema": 9021,
      "ori": 9022,
      "alle": 9023,
      "ouli": 9024,
      "truggle": 9025,
      "adem": 9026,
      "▁100": 9027,
      "ator": 9028,
      "▁Publication": 9029,
      "illi": 9030,
      "▁census": 9031,
      "ets": 9032,
      "olar": 9033,
      "▁dynasty": 9034,
      "opland": 9035,
      "280": 9036,
      "▁N.": 9037,
      "epic": 9038,
      "29)": 9039,
      "oung": 9040,
      "▁List": 9041,
      "1999": 9042,
      "▁Its": 9043,
      "34)": 9044,
      "34)\n": 9045,
      "ground": 9046,
      "world-f": 9047,
      "erves": 9048,
      "58)": 9049,
      "▁79.": 9050,
      "itive": 9051,
      "IAF": 9052,
      "7/7": 9053,
      "...]": 9054,
      "ramouli": 9055,
      "▁2020.": 9056,
      "▁commun": 9057,
      "10721": 9058,
      "the-world-f": 9059,
      "arnataka": 9060,
      "cia.gov/": 9061,
      "rakash": 9062,
      "bbc.co.uk/": 9063,
      "\"।": 9064,
      "-in": 9065,
      "-ভারত": 9066,
      "-india-": 9067,
      "-गंगा": 9068,
      ".২": 9069,
      "/we": 9070,
      "1st": 9071,
      "2-0": 9072,
      "2-7": 9073,
      "97": 9074,
      "C_P": 9075,
      "E﻿": 9076,
      "FIL": 9077,
      "MAAJ": 9078,
      "OLA": 9079,
      "RA": 9080,
      "Rv": 9081,
      "[भारत": 9082,
      "_to": 9083,
      "a-b": 9084,
      "bharat": 9085,
      "da": 9086,
      "list": 9087,
      "med": 9088,
      "music": 9089,
      "s:": 9090,
      "s=`": 9091,
      "ving": 9092,
      "ँकि": 9093,
      "ंबर": 9094,
      "ईस्ट": 9095,
      "ऊर्जा": 9096,
      "ऋतु": 9097,
      "ऑपरेशन": 9098,
      "कु": 9099,
      "जवा": 9100,
      "तग": 9101,
      "त्या": 9102,
      "तमान": 9103,
      "थी": 9104,
      "दु": 9105,
      "नत": 9106,
      "मूल": 9107,
      "ल्त": 9108,
      "वत": 9109,
      "वली": 9110,
      "शील": 9111,
      "सत": 9112,
      "सैन": 9113,
      "ी.": 9114,
      "ुक": 9115,
      "ुस्तान": 9116,
      "ूस": 9117,
      "ेय": 9118,
      "५०": 9119,
      "কত": 9120,
      "কল": 9121,
      "কুল": 9122,
      "খরান": 9123,
      "ঝা": 9124,
      "টাল": 9125,
      "ঠে": 9126,
      "তো": 9127,
      "দারি": 9128,
      "ধর": 9129,
      "ধুন": 9130,
      "ন।": 9131,
      "নার": 9132,
      "বৃ": 9133,
      "বরা": 9134,
      "বেষ": 9135,
      "শু": 9136,
      "স্য": 9137,
      "সঙ্গীত": 9138,
      "হার": 9139,
      "াম": 9140,
      "ুষ": 9141,
      "েক": 9142,
      "েন্ট": 9143,
      "োমিটার": 9144,
      "োখরান": 9145,
      "্গ": 9146,
      "১১": 9147,
      "২,": 9148,
      "২৯": 9149,
      "৩৭": 9150,
      "৪।": 9151,
      "৯]](./ভারত#cite_note-": 9152,
      "▁ऐ": 9153,
      "▁५": 9154,
      "▁লি": 9155,
      "▁ক্ষমতা": 9156,
      "▁০.": 9157,
      "▁ট্রফি": 9158,
      "](./य": 9159,
      "](./সা": 9160,
      "](./প্র": 9161,
      "](./तमिल": 9162,
      "](./দক্ষিণ": 9163,
      "](./বাংলাদেশ": 9164,
      "](./নেপাল": 9165,
      "▁[श": 9166,
      "▁[০": 9167,
      "▁[৮": 9168,
      "▁[राज्य": 9169,
      "▁[प्र": 9170,
      "▁[গণ": 9171,
      "▁[উপ": 9172,
      "▁[বাংলাদেশ": 9173,
      "▁[নেপাল": 9174,
      "▁[ডিও": 9175,
      "▁\"প্র": 9176,
      "▁\"प्र": 9177,
      "▁\"राष्ट्रीय": 9178,
      "▁\"तमिल": 9179,
      "▁\"বাংলাদেশ": 9180,
      "▁\"নেপাল": 9181,
      "▁\"विशेष:EditPage/साँचा:": 9182,
      "inal_": 9183,
      "ারে": 9184,
      "arak": 9185,
      "▁कर्ज": 9186,
      "▁(ই": 9187,
      "▁(ম": 9188,
      "▁(2019": 9189,
      "▁(2nd": 9190,
      "▁(b)": 9191,
      "▁सूर": 9192,
      "▁मील": 9193,
      "▁সক্ষম": 9194,
      "▁সভ্য": 9195,
      "-138": 9196,
      "তিন": 9197,
      "▁पै": 9198,
      "▁पहु": 9199,
      "▁पश्चिम": 9200,
      "ন্ব": 9201,
      "](https://pub": 9202,
      "বিত্র": 9203,
      "বিভাগ": 9204,
      "wearing": 9205,
      "▁পু": 9206,
      "▁পতাকা": 9207,
      "▁পার্টি": 9208,
      "र्क": 9209,
      "र्तग": 9210,
      "linkid=": 9211,
      "urvey": 9212,
      "ালো": 9213,
      "uprem": 9214,
      "▁অংশ": 9215,
      "▁অধিকার": 9216,
      "বাদী": 9217,
      "▁Mana": 9218,
      "▁মানু": 9219,
      "▁মোদী": 9220,
      "विद्यालय": 9221,
      "_केंद्र": 9222,
      "▁दी": 9223,
      "राजनी": 9224,
      "26.": 9225,
      "▁बनी": 9226,
      "▁बड़ी": 9227,
      "ারিত": 9228,
      "▁प्रण": 9229,
      "▁प्रभा": 9230,
      "▁प्रकार": 9231,
      "लावा": 9232,
      "▁निय": 9233,
      "▁नृत्य": 9234,
      "▁প্রায়": 9235,
      "▁প্রেস": 9236,
      "unle": 9237,
      "▁বে": 9238,
      "▁নিয়ন্ত্রণ": 9239,
      "_सिनेमा": 9240,
      "▁[\"M": 9241,
      "115": 9242,
      "তা\")": 9243,
      "তাবাদ": 9244,
      "508": 9245,
      "▁জি": 9246,
      "▁জোট": 9247,
      "s_](https://books.google.com/books?id=": 9248,
      "▁Nuclear": 9249,
      "▁আজ": 9250,
      "▁আঞ্চল": 9251,
      "स्ता": 9252,
      "ित्व": 9253,
      "▁সংখ্যা": 9254,
      "▁आय": 9255,
      "্যাস": 9256,
      "লাকা": 9257,
      "extra_": 9258,
      "িলোমিটার": 9259,
      "](./ভারতের_জ": 9260,
      "](./ভারতের_স": 9261,
      "](./ভারতের_ভূ": 9262,
      "▁Factbook": 9263,
      "▁गए": 9264,
      "रीक्षण": 9265,
      "গ্রহ": 9266,
      "▁परमाणु": 9267,
      "▁परंपरा": 9268,
      "রিক্ত": 9269,
      "ादरा": 9270,
      "/http://books.google.com/books?id=": 9271,
      "AAMAAJ": 9272,
      "_महासागर": 9273,
      "▁संख्या": 9274,
      "नेट": 9275,
      "▁[महाराष्ट्र](./महाराष्ट्र": 9276,
      "▁২০০৬": 9277,
      "_के_देश": 9278,
      "ম্ভ": 9279,
      ".ncbi.nlm.nih": 9280,
      "ी](./प": 9281,
      "ी](./स": 9282,
      "ज़ा": 9283,
      "राष्ट्रीय_": 9284,
      "গুলিত": 9285,
      "sey": 9286,
      "সিস": 9287,
      "সিপা": 9288,
      "▁भाषाएँ": 9289,
      ".html),": 9290,
      "54)": 9291,
      "▁विवाद": 9292,
      "▁विभाग": 9293,
      "▁equ": 9294,
      "▁notation": 9295,
      "▁V.": 9296,
      "%2C_India": 9297,
      "্রান্স": 9298,
      "ধ্যম": 9299,
      "भिन्न": 9300,
      "newsite": 9301,
      "▁নিয়ে": 9302,
      "▁\"Tamil": 9303,
      "576": 9304,
      "ভিদ": 9305,
      "▁18.": 9306,
      "▁রক্ষণ": 9307,
      "▁जनता": 9308,
      "সমূহের": 9309,
      "বাহী": 9310,
      "▁जाते": 9311,
      "▁`|co": 9312,
      "▁যার": 9313,
      "▁\"ब्रिटिश": 9314,
      "▁इसी": 9315,
      "▁চাল": 9316,
      "▁([সাহায্য](./সাহায্য:উদ্ধৃতি_শৈলী_ত্রুটি#extra_": 9317,
      "জিডিপি": 9318,
      "সমূহের_তালিকা": 9319,
      "िवेश": 9320,
      "জনগণ": 9321,
      "Increase_": 9322,
      "2007),": 9323,
      "▁খ্রি": 9324,
      "ের](./আ": 9325,
      "▁समूह": 9326,
      "▁घोष": 9327,
      "মেন্ট": 9328,
      "▁৩০": 9329,
      "▁৩১": 9330,
      "পুরা": 9331,
      "ेखा": 9332,
      "authors=`": 9333,
      "%E0%A6%BF": 9334,
      "কেন্দ্রীয়": 9335,
      "&source": 9336,
      "▁जिसके": 9337,
      "](./उत्तर": 9338,
      "▁\"उत्तर": 9339,
      "▁सिंह": 9340,
      "▁রাজনীতি": 9341,
      "▁[उत्तर": 9342,
      "▁१९९": 9343,
      "वर्ष": 9344,
      "▁[3](./ভারত#cite_ref-": 9345,
      "▁২০২০": 9346,
      "▁২০২২": 9347,
      "eligious": 9348,
      "▁2016.\n": 9349,
      "আই](./Doi_\\(identifier\\)": 9350,
[...]
