{
  "version": "1.0",
  "truncation": null,
  "padding": null,
  "added_tokens": [
    {
      "id": 0,
      "content": "<unk>",
      "single_word": false,
      "lstrip": false,
      "rstrip": false,
      "normalized": false,
      "special": true
    },
    {
      "id": 1,
      "content": "<pad>",
      "single_word": false,
      "lstrip": false,
      "rstrip": false,
      "normalized": false,
      "special": true
    }
  ],
  "normalizer": {
    "type": "Sequence",
    "normalizers": [
      {
        "type": "NFKC"
      },
      {
        "type": "Replace",
        "pattern": {
          "Regex": "[^\\p{L}\\p{M}\\p{N}]+"
        },
        "content": " "
      }
    ]
  },
  "pre_tokenizer": {
    "type": "Whitespace"
  },
  "post_processor": null,
  "decoder": null,
  "model": {
    "type": "BPE",
    "dropout": null,
    "unk_token": "<unk>",
    "continuing_subword_prefix": null,
    "end_of_word_suffix": null,
    "fuse_unk": false,
    "byte_fallback": false,
    "ignore_merges": false,
    "vocab": {
      "<unk>": 0,
      "<pad>": 1,
      "0": 2,
      "1": 3,
      "2": 4,
      "3": 5,
      "4": 6,
      "5": 7,
      "6": 8,
      "7": 9,
      "8": 10,
      "9": 11,
      "A": 12,
      "B": 13,
      "C": 14,
      "D": 15,
      "E": 16,
      "F": 17,
      "G": 18,
      "H": 19,
      "I": 20,
      "J": 21,
      "K": 22,
      "L": 23,
      "M": 24,
      "N": 25,
      "O": 26,
      "P": 27,
      "Q": 28,
      "R": 29,
      "S": 30,
      "T": 31,
      "U": 32,
      "V": 33,
      "W": 34,
      "X": 35,
      "Y": 36,
      "Z": 37,
      "a": 38,
      "b": 39,
      "c": 40,
      "d": 41,
      "e": 42,
      "f": 43,
      "g": 44,
      "h": 45,
      "i": 46,
      "j": 47,
      "k": 48,
      "l": 49,
      "m": 50,
      "n": 51,
      "o": 52,
      "p": 53,
      "q": 54,
      "r": 55,
      "s": 56,
      "t": 57,
      "u": 58,
      "v": 59,
      "w": 60,
      "x": 61,
      "y": 62,
      "z": 63,
      "Ö": 64,
      "ß": 65,
      "á": 66,
      "â": 67,
      "æ": 68,
      "ç": 69,
      "è": 70,
      "é": 71,
      "í": 72,
      "ñ": 73,
      "ö": 74,
      "ü": 75,
      "ā": 76,
      "ī": 77,
      "İ": 78,
      "Ś": 79,
      "ś": 80,
      "ţ": 81,
      "ū": 82,
      "ș": 83,
      "ə": 84,
      "ɦ": 85,
      "ɪ": 86,
      "ɾ": 87,
      "ʊ": 88,
      "ʼ": 89,
      "ˈ": 90,
      "ː": 91,
      "́": 92,
      "ί": 93,
      "α": 94,
      "δ": 95,
      "θ": 96,
      "ν": 97,
      "ο": 98,
      "π": 99,
      "ς": 100,
      "ό": 101,
      "ँ": 102,
      "ं": 103,
      "ः": 104,
      "अ": 105,
      "आ": 106,
      "इ": 107,
      "ई": 108,
      "उ": 109,
      "ऊ": 110,
      "ऋ": 111,
      "ऍ": 112,
      "ए": 113,
      "ऐ": 114,
      "ऑ": 115,
      "ओ": 116,
      "औ": 117,
      "क": 118,
      "ख": 119,
      "ग": 120,
      "घ": 121,
      "ङ": 122,
      "च": 123,
      "छ": 124,
      "ज": 125,
      "झ": 126,
      "ञ": 127,
      "ट": 128,
      "ठ": 129,
      "ड": 130,
      "ढ": 131,
      "ण": 132,
      "त": 133,
      "थ": 134,
      "द": 135,
      "ध": 136,
      "न": 137,
      "प": 138,
      "फ": 139,
      "ब": 140,
      "भ": 141,
      "म": 142,
      "य": 143,
      "र": 144,
      "ल": 145,
      "ळ": 146,
      "व": 147,
      "श": 148,
      "ष": 149,
      "स": 150,
      "ह": 151,
      "़": 152,
      "ा": 153,
      "ि": 154,
      "ी": 155,
      "ु": 156,
      "ू": 157,
      "ृ": 158,
      "े": 159,
      "ै": 160,
      "ॉ": 161,
      "ॊ": 162,
      "ो": 163,
      "ौ": 164,
      "्": 165,
      "०": 166,
      "१": 167,
      "२": 168,
      "३": 169,
      "४": 170,
      "५": 171,
      "६": 172,
      "७": 173,
      "८": 174,
      "९": 175,
      "ঁ": 176,
      "ং": 177,
      "ঃ": 178,
      "অ": 179,
      "আ": 180,
      "ই": 181,
      "ঈ": 182,
      "উ": 183,
      "ঊ": 184,
      "ঋ": 185,
      "এ": 186,
      "ঐ": 187,
      "ও": 188,
      "ঔ": 189,
      "ক": 190,
      "খ": 191,
      "গ": 192,
      "ঘ": 193,
      "ঙ": 194,
      "চ": 195,
      "ছ": 196,
      "জ": 197,
      "ঝ": 198,
      "ঞ": 199,
      "ট": 200,
      "ঠ": 201,
      "ড": 202,
      "ঢ": 203,
      "ণ": 204,
      "ত": 205,
      "থ": 206,
      "দ": 207,
      "ধ": 208,
      "ন": 209,
      "প": 210,
      "ফ": 211,
      "ব": 212,
      "ভ": 213,
      "ম": 214,
      "য": 215,
      "র": 216,
      "ল": 217,
      "শ": 218,
      "ষ": 219,
      "স": 220,
      "হ": 221,
      "়": 222,
      "া": 223,
      "ি": 224,
      "ী": 225,
      "ু": 226,
      "ূ": 227,
      "ৃ": 228,
      "ে": 229,
      "ৈ": 230,
      "ো": 231,
      "ৌ": 232,
      "্": 233,
      "ৎ": 234,
      "০": 235,
      "১": 236,
      "২": 237,
      "৩": 238,
      "৪": 239,
      "৫": 240,
      "৬": 241,
      "৭": 242,
      "৮": 243,
      "৯": 244,
      "ం": 245,
      "ః": 246,
      "అ": 247,
      "ఆ": 248,
      "ఇ": 249,
      "ఈ": 250,
      "ఉ": 251,
      "ఋ": 252,
      "ఎ": 253,
      "ఏ": 254,
      "ఐ": 255,
      "ఒ": 256,
      "ఓ": 257,
      "ఔ": 258,
      "క": 259,
      "ఖ": 260,
      "గ": 261,
      "ఘ": 262,
      "చ": 263,
      "ఛ": 264,
      "జ": 265,
      "ఞ": 266,
      "ట": 267,
      "ఠ": 268,
      "డ": 269,
      "ఢ": 270,
      "ణ": 271,
      "త": 272,
      "థ": 273,
      "ద": 274,
      "ధ": 275,
      "న": 276,
      "ప": 277,
      "ఫ": 278,
      "బ": 279,
      "భ": 280,
      "మ": 281,
      "య": 282,
      "ర": 283,
      "ల": 284,
      "ళ": 285,
      "వ": 286,
      "శ": 287,
      "ష": 288,
      "స": 289,
      "హ": 290,
      "ా": 291,
      "ి": 292,
      "ీ": 293,
      "ు": 294,
      "ూ": 295,
      "ృ": 296,
      "ె": 297,
      "ే": 298,
      "ై": 299,
      "ొ": 300,
      "ో": 301,
      "ౌ": 302,
      "్": 303,
      "ṅ": 304,
      "ṇ": 305,
      "Ṛ": 306,
      "ṣ": 307,
      "ṭ": 308,
      "Ἰ": 309,
      "nd": 310,
      "ia": 311,
      "te": 312,
      "in": 313,
      "on": 314,
      "ार": 315,
      "re": 316,
      "ti": 317,
      "20": 318,
      "th": 319,
      "ndia": 320,
      "or": 321,
      "्र": 322,
      "er": 323,
      "ar": 324,
      "India": 325,
      "भार": 326,
      "भारत": 327,
      "an": 328,
      "al": 329,
      "en": 330,
      "ed": 331,
      "of": 332,
      "ci": 333,
      "es": 334,
      "is": 335,
      "tion": 336,
      "के": 337,
      "ার": 338,
      "्य": 339,
      "cite": 340,
      "om": 341,
      "ht": 342,
      "it": 343,
      "रा": 344,
      "the": 345,
      "and": 346,
      "tp": 347,
      "http": 348,
      "मे": 349,
      "201": 350,
      "as": 351,
      "ान": 352,
      "ic": 353,
      "र्": 354,
      "स्": 355,
      "no": 356,
      "का": 357,
      "19": 358,
      "ou": 359,
      "్ర": 360,
      "id": 361,
      "্র": 362,
      "में": 363,
      "ভার": 364,
      "200": 365,
      "য়": 366,
      "ভারত": 367,
      "le": 368,
      "ch": 369,
      "OT": 370,
      "क्": 371,
      "oo": 372,
      "https": 373,
      "या": 374,
      "la": 375,
      "की": 376,
      "org": 377,
      "ార": 378,
      "ref": 379,
      "iv": 380,
      "ik": 381,
      "ad": 382,
      "ीय": 383,
      "tr": 384,
      "note": 385,
      "प्र": 386,
      "com": 387,
      "वि": 388,
      "at": 389,
      "ac": 390,
      "ing": 391,
      "ww": 392,
      "lo": 393,
      "am": 394,
      "we": 395,
      "ों": 396,
      "ের": 397,
      "্য": 398,
      "ent": 399,
      "ति": 400,
      "ge": 401,
      "से": 402,
      "10": 403,
      "um": 404,
      "ना": 405,
      "न्": 406,
      "है": 407,
      "us": 408,
      "im": 409,
      "त्र": 410,
      "wik": 411,
      "क्ष": 412,
      "edia": 413,
      "सं": 414,
      "ation": 415,
      "ook": 416,
      "red": 417,
      "lin": 418,
      "राज": 419,
      "78": 420,
      "ला": 421,
      "ాల": 422,
      "सा": 423,
      "web": 424,
      "ur": 425,
      "ec": 426,
      "pg": 427,
      "ेश": 428,
      "और": 429,
      "fi": 430,
      "ons": 431,
      "IS": 432,
      "िया": 433,
      "ता": 434,
      "్య": 435,
      "link": 436,
      "ang": 437,
      "भा": 438,
      "he": 439,
      "edit": 440,
      "12": 441,
      "BN": 442,
      "ISBN": 443,
      "पु": 444,
      "ov": 445,
      "భార": 446,
      "il": 447,
      "భారత": 448,
      "et": 449,
      "స్": 450,
      "ist": 451,
      "ter": 452,
      "action": 453,
      "ंग": 454,
      "దే": 455,
      "ig": 456,
      "पर": 457,
      "FO": 458,
      "redlink": 459,
      "তি": 460,
      "దేశ": 461,
      "NOT": 462,
      "OTNOT": 463,
      "FOOTNOT": 464,
      "FOOTNOTE": 465,
      "978": 466,
      "to": 467,
      "ाल": 468,
      "ন্": 469,
      "भारतीय": 470,
      "enti": 471,
      "ol": 472,
      "िक": 473,
      "র্": 474,
      "సా": 475,
      "বি": 476,
      "ip": 477,
      "res": 478,
      "identi": 479,
      "up": 480,
      "fier": 481,
      "identifier": 482,
      "00": 483,
      "ate": 484,
      "ने": 485,
      "देश": 486,
      "arch": 487,
      "jpg": 488,
      "को": 489,
      "त्": 490,
      "As": 491,
      "ial": 492,
      "राज्य": 493,
      "13": 494,
      "న్": 495,
      "ce": 496,
      "book": 497,
      "Sou": 498,
      "न्द": 499,
      "ర్": 500,
      "em": 501,
      "25": 502,
      "ive": 503,
      "ra": 504,
      "india": 505,
      "ান": 506,
      "www": 507,
      "मा": 508,
      "षा": 509,
      "umb": 510,
      "स्त": 511,
      "ul": 512,
      "ष्": 513,
      "14": 514,
      "सि": 515,
      "हि": 516,
      "st": 517,
      "books": 518,
      "ind": 519,
      "tic": 520,
      "ion": 521,
      "्व": 522,
      "18": 523,
      "ক্": 524,
      "ers": 525,
      "age": 526,
      "স্": 527,
      "CI": 528,
      "15": 529,
      "सू": 530,
      "16": 531,
      "The": 532,
      "ER": 533,
      "లు": 534,
      "ir": 535,
      "Indian": 536,
      "TER": 537,
      "वा": 538,
      "्रे": 539,
      "op": 540,
      "EF": 541,
      "రా": 542,
      "भाषा": 543,
      "ప్ర": 544,
      "comm": 545,
      "for": 546,
      "हा": 547,
      "CITER": 548,
      "17": 549,
      "px": 550,
      "ipedia": 551,
      "CITEREF": 552,
      "26": 553,
      "था": 554,
      "সা": 555,
      "ment": 556,
      "wikipedia": 557,
      "archive": 558,
      "el": 559,
      "जा": 560,
      "sv": 561,
      "ची": 562,
      "पा": 563,
      "ভারতের": 564,
      "In": 565,
      "svg": 566,
      "imedia": 567,
      "23": 568,
      "load": 569,
      "wikimedia": 570,
      "upload": 571,
      "ट्र": 572,
      "প্র": 573,
      "భారతదేశ": 574,
      "ag": 575,
      "thumb": 576,
      "ীয়": 577,
      "सम": 578,
      "లో": 579,
      "ro": 580,
      "199": 581,
      "commons": 582,
      "दि": 583,
      "री": 584,
      "40": 585,
      "un": 586,
      "ड़": 587,
      "ity": 588,
      "angu": 589,
      "ew": 590,
      "త్ర": 591,
      "ak": 592,
      "িক": 593,
      "ces": 594,
      "ष्ट्र": 595,
      "ay": 596,
      "28": 597,
      "विश": 598,
      "कर": 599,
      "late": 600,
      "कि": 601,
      "Sp": 602,
      "gov": 603,
      "err": 604,
      "দ্": 605,
      "क्षे": 606,
      "्या": 607,
      "नि": 608,
      "ాలు": 609,
      "24": 610,
      "রা": 611,
      "రి": 612,
      "क्षेत्र": 613,
      "క్": 614,
      "ित": 615,
      "ev": 616,
      "বা": 617,
      "50": 618,
      "ত্র": 619,
      "ంద": 620,
      "cal": 621,
      "mp": 622,
      "ले": 623,
      "Un": 624,
      "ha": 625,
      "ని": 626,
      "fr": 627,
      "ly": 628,
      "21": 629,
      "ory": 630,
      "ep": 631,
      "ज़": 632,
      "जन": 633,
      "ली": 634,
      "बा": 635,
      "ub": 636,
      "con": 637,
      "ld": 638,
      "कार": 639,
      "मि": 640,
      "Ch": 641,
      "ती": 642,
      "ress": 643,
      "29": 644,
      "ap": 645,
      "ల్": 646,
      "Asia": 647,
      "ecial": 648,
      "हिन्द": 649,
      "tu": 650,
      "2011": 651,
      "error": 652,
      "30": 653,
      "ib": 654,
      "াল": 655,
      "मु": 656,
      "সং": 657,
      "భారతదేశం": 658,
      "चि": 659,
      "Special": 660,
      "22": 661,
      "by": 662,
      "लि": 663,
      "টি": 664,
      "ंड": 665,
      "मी": 666,
      "ంగ": 667,
      "langu": 668,
      "fn": 669,
      "calf": 670,
      "ies": 671,
      "र्व": 672,
      "etcalf": 673,
      "ng": 674,
      "राष्ट्र": 675,
      "হা": 676,
      "Metcalf": 677,
      "Har": 678,
      "ern": 679,
      "rces": 680,
      "ational": 681,
      "Book": 682,
      "od": 683,
      "ab": 684,
      "मन": 685,
      "मान": 686,
      "দ্ধ": 687,
      "২০": 688,
      "शा": 689,
      "उत्": 690,
      "वर्": 691,
      "ary": 692,
      "ex": 693,
      "दी": 694,
      "orld": 695,
      "णी": 696,
      "ক্ষ": 697,
      "Sources": 698,
      "हु": 699,
      "ీయ": 700,
      "हैं": 701,
      "BookSources": 702,
      "goo": 703,
      "os": 704,
      "सी": 705,
      "प्रदेश": 706,
      "South": 707,
      "gle": 708,
      "কা": 709,
      "ish": 710,
      "यु": 711,
      "ము": 712,
      "ार्": 713,
      "ts": 714,
      "ండ": 715,
      "तर": 716,
      "ite": 717,
      "ल्": 718,
      "सूची": 719,
      "गर": 720,
      "भि": 721,
      "ৃতি": 722,
      "ivers": 723,
      "rit": 724,
      "थि": 725,
      "नी": 726,
      "ারি": 727,
      "temp": 728,
      "मू": 729,
      "సి": 730,
      "google": 731,
      "జ్య": 732,
      "अन": 733,
      "ma": 734,
      "Ar": 735,
      "पू": 736,
      "ভা": 737,
      "आध": 738,
      "म्": 739,
      "11": 740,
      "কে": 741,
      "తా": 742,
      "েশ": 743,
      "pp": 744,
      "నా": 745,
      "వి": 746,
      "oun": 747,
      "తి": 748,
      "్ట": 749,
      "ens": 750,
      "27": 751,
      "2009": 752,
      "from": 753,
      "स्थ": 754,
      "ेष": 755,
      "sh": 756,
      "তা": 757,
      "Ste": 758,
      "ंध": 759,
      "द्": 760,
      "मेला": 761,
      "Re": 762,
      "AA": 763,
      "ते": 764,
      "भी": 765,
      "ंग्रे": 766,
      "Com": 767,
      "Hind": 768,
      "iversity": 769,
      "త్": 770,
      "2014": 771,
      "ud": 772,
      "अभि": 773,
      "धान": 774,
      "श्": 775,
      "श्रे": 776,
      "htm": 777,
      "पुरा": 778,
      "hi": 779,
      "template": 780,
      "PA": 781,
      "language": 782,
      "श्रेणी": 783,
      "pr": 784,
      "av": 785,
      "80": 786,
      "ith": 787,
      "ाना": 788,
      "2007": 789,
      "ort": 790,
      "য়ে": 791,
      "errors": 792,
      "har": 793,
      "জা": 794,
      "्रा": 795,
      "विशेष": 796,
      "Harv": 797,
      "Stein": 798,
      "উদ্ধ": 799,
      "కు": 800,
      "2006": 801,
      "istory": 802,
      "উদ্ধৃতি": 803,
      "ast": 804,
      "सर": 805,
      "र्म": 806,
      "ন্দ": 807,
      "ber": 808,
      "ff": 809,
      "লে": 810,
      "90": 811,
      "und": 812,
      "जि": 813,
      "ভারতীয়": 814,
      "E0": 815,
      "png": 816,
      "nic": 817,
      "2018": 818,
      "log": 819,
      "List": 820,
      "Sfn": 821,
      "be": 822,
      "li": 823,
      "oc": 824,
      "ँच": 825,
      "ंत्र": 826,
      "Press": 827,
      "ম্": 828,
      "60": 829,
      "lation": 830,
      "uc": 831,
      "कृ": 832,
      "యా": 833,
      "lag": 834,
      "47": 835,
      "par": 836,
      "try": 837,
      "द्व": 838,
      "हिन्दी": 839,
      "og": 840,
      "एक": 841,
      "ను": 842,
      "our": 843,
      "ri": 844,
      "ve": 845,
      "स्तान": 846,
      "Ind": 847,
      "गु": 848,
      "िण": 849,
      "ोग": 850,
      "लेख": 851,
      "িয়": 852,
      "্চ": 853,
      "তারি": 854,
      "est": 855,
      "University": 856,
      "जी": 857,
      "তারিখ": 858,
      "తం": 859,
      "2004": 860,
      "दक्ष": 861,
      "ther": 862,
      "ంది": 863,
      "मूल": 864,
      "33": 865,
      "ore": 866,
      "చి": 867,
      "Ro": 868,
      "ot": 869,
      "गमन": 870,
      "टी": 871,
      "दे": 872,
      "धर्म": 873,
      "्रो": 874,
      "दक्षिण": 875,
      "tim": 876,
      "ingh": 877,
      "les": 878,
      "se": 879,
      "ys": 880,
      "तथा": 881,
      "द्य": 882,
      "पी": 883,
      "तिथि": 884,
      "జ్యం": 885,
      "ata": 886,
      "্যা": 887,
      "ut": 888,
      "inal": 889,
      "ंद": 890,
      "अंग्रे": 891,
      "टि": 892,
      "हो": 893,
      "িত": 894,
      "বিশ": 895,
      "राष्ट्रीय": 896,
      "Flag": 897,
      "her": 898,
      "ষ্": 899,
      "70": 900,
      "गण": 901,
      "pd": 902,
      "रू": 903,
      "वं": 904,
      "జా": 905,
      "పూ": 906,
      "వా": 907,
      "ిక": 908,
      "are": 909,
      "with": 910,
      "ph": 911,
      "్రా": 912,
      "43": 913,
      "লা": 914,
      "ensus": 915,
      "45": 916,
      "tar": 917,
      "ढ़": 918,
      "रे": 919,
      "ोल": 920,
      "ana": 921,
      "अभिगमन": 922,
      "pdf": 923,
      "ase": 924,
      "per": 925,
      "स्रो": 926,
      "না": 927,
      "पुर": 928,
      "राज्यों": 929,
      "आधार": 930,
      "स्रोत": 931,
      "మా": 932,
      "মা": 933,
      "ong": 934,
      "cl": 935,
      "coun": 936,
      "अनु": 937,
      "ates": 938,
      "1998": 939,
      "মূ": 940,
      "tern": 941,
      "मह": 942,
      "महा": 943,
      "्री": 944,
      "पूर्व": 945,
      "ulation": 946,
      "భా": 947,
      "ులు": 948,
      "53": 949,
      "ain": 950,
      "ke": 951,
      "खाना": 952,
      "িল": 953,
      "पुस्त": 954,
      "ages": 955,
      "द्ध": 956,
      "पुस्तक": 957,
      "St": 958,
      "land": 959,
      "aj": 960,
      "ঙ্": 961,
      "tri": 962,
      "History": 963,
      "बर": 964,
      "opulation": 965,
      "ँचा": 966,
      "ద్": 967,
      "250": 968,
      "ans": 969,
      "ance": 970,
      "ass": 971,
      "कु": 972,
      "ian": 973,
      "umm": 974,
      "सरकार": 975,
      "ear": 976,
      "য্য": 977,
      "all": 978,
      "সাহা": 979,
      "সাহায্য": 980,
      "Singh": 981,
      "orig": 982,
      "196": 983,
      "2C": 984,
      "ism": 985,
      "विश्व": 986,
      "ubl": 987,
      "Pr": 988,
      "2010": 989,
      "हर": 990,
      "বই": 991,
      "संघ": 992,
      "बाद": 993,
      "चित्र": 994,
      "ত্": 995,
      "eral": 996,
      "২০০": 997,
      "46": 998,
      "new": 999,
      "इस": 1000,
      "ज्": 1001,
      "वी": 1002,
      "ট্র": 1003,
      "নি": 1004,
      "ारा": 1005,
      "ical": 1006,
      "पुरालेख": 1007,
      "36": 1008,
      "হি": 1009,
      "titu": 1010,
      "ow": 1011,
      "ভাষ": 1012,
      "56": 1013,
      "wh": 1014,
      "साँचा": 1015,
      "49": 1016,
      "New": 1017,
      "ef": 1018,
      "ile": 1019,
      "pro": 1020,
      "গ্র": 1021,
      "ank": 1022,
      "ध्य": 1023,
      "পর": 1024,
      "र्थ": 1025,
      "संस्": 1026,
      "ाली": 1027,
      "मिल": 1028,
      "पुरालेखित": 1029,
      "mar": 1030,
      "సం": 1031,
      "ug": 1032,
      "পা": 1033,
      "ৃত": 1034,
      "original": 1035,
      "120": 1036,
      "br": 1037,
      "থা": 1038,
      "প্": 1039,
      "కా": 1040,
      "రు": 1041,
      "ence": 1042,
      "భారతీయ": 1043,
      "ज़ी": 1044,
      "ernment": 1045,
      "জন": 1046,
      "off": 1047,
      "48": 1048,
      "টে": 1049,
      "দেশ": 1050,
      "ాం": 1051,
      "iss": 1052,
      "istan": 1053,
      "pe": 1054,
      "प्": 1055,
      "सार": 1056,
      "inis": 1057,
      "Arch": 1058,
      "html": 1059,
      "ভাষা": 1060,
      "59": 1061,
      "National": 1062,
      "ct": 1063,
      "artic": 1064,
      "gr": 1065,
      "ue": 1066,
      "एश": 1067,
      "बी": 1068,
      "ब्": 1069,
      "यों": 1070,
      "लो": 1071,
      "লি": 1072,
      "ভারতে": 1073,
      "प्रा": 1074,
      "ll": 1075,
      "emp": 1076,
      "মি": 1077,
      "ష్ట": 1078,
      "ార్": 1079,
      "तक": 1080,
      "ें": 1081,
      "सेना": 1082,
      "oi": 1083,
      "world": 1084,
      "కి": 1085,
      "పా": 1086,
      "Asher": 1087,
      "క్ష": 1088,
      "থে": 1089,
      "दा": 1090,
      "फ़": 1091,
      "मो": 1092,
      "చరి": 1093,
      "పు": 1094,
      "స్థ": 1095,
      "स्थान": 1096,
      "చరిత్ర": 1097,
      "ine": 1098,
      "77": 1099,
      "డి": 1100,
      "ted": 1101,
      "lop": 1102,
      "ब्र": 1103,
      "रु": 1104,
      "আই": 1105,
      "मुख": 1106,
      "एशिया": 1107,
      "get": 1108,
      "సామ": 1109,
      "Ma": 1110,
      "74": 1111,
      "au": 1112,
      "ire": 1113,
      "ंदि": 1114,
      "১৯": 1115,
      "యి": 1116,
      "వం": 1117,
      "icial": 1118,
      "क्त": 1119,
      "న్న": 1120,
      "अंग्रेज़ी": 1121,
      "Ed": 1122,
      "World": 1123,
      "জাত": 1124,
      "থেকে": 1125,
      "BA": 1126,
      "PD": 1127,
      "end": 1128,
      "রে": 1129,
      "লী": 1130,
      "Econ": 1131,
      "पं": 1132,
      "भू": 1133,
      "व्य": 1134,
      "क्षा": 1135,
      "250px": 1136,
      "संस्कृ": 1137,
      "QBA": 1138,
      "cre": 1139,
      "its": 1140,
      "2019": 1141,
      "ived": 1142,
      "QBAJ": 1143,
      "কার": 1144,
      "ill": 1145,
      "has": 1146,
      "अध": 1147,
      "च्": 1148,
      "रो": 1149,
      "वन": 1150,
      "উৎ": 1151,
      "েষ": 1152,
      "హి": 1153,
      "स्व": 1154,
      "सूच": 1155,
      "किस्तान": 1156,
      "Econom": 1157,
      "ard": 1158,
      "hm": 1159,
      "জ্য": 1160,
      "eved": 1161,
      "ture": 1162,
      "38": 1163,
      "Cons": 1164,
      "गया": 1165,
      "त्य": 1166,
      "१९": 1167,
      "orth": 1168,
      "An": 1169,
      "cy": 1170,
      "gen": 1171,
      "যু": 1172,
      "ది": 1173,
      "పాల": 1174,
      "Retri": 1175,
      "AAQBAJ": 1176,
      "Retrieved": 1177,
      "2008": 1178,
      "En": 1179,
      "तु": 1180,
      "पश्": 1181,
      "ines": 1182,
      "ज्ञ": 1183,
      "पश्चि": 1184,
      "bot": 1185,
      "ition": 1186,
      "tries": 1187,
      "ties": 1188,
      "PDF": 1189,
      "ओं": 1190,
      "किया": 1191,
      "चल": 1192,
      "मै": 1193,
      "रि": 1194,
      "ही": 1195,
      "শৈ": 1196,
      "art": 1197,
      "2012": 1198,
      "स्था": 1199,
      "hel": 1200,
      "पाकिस्तान": 1201,
      "ंद्र": 1202,
      "ঙ্গ": 1203,
      "was": 1204,
      "esh": 1205,
      "য়ের": 1206,
      "ust": 1207,
      "ష్ట్ర": 1208,
      "సామ్రా": 1209,
      "বে": 1210,
      "শৈলী": 1211,
      "उप": 1212,
      "मंदि": 1213,
      "यू": 1214,
      "কৃত": 1215,
      "সে": 1216,
      "als": 1217,
      "सित": 1218,
      "उत्तर": 1219,
      "Stein1998": 1220,
      "Singh2009": 1221,
      "Archived": 1222,
      "मंदिर": 1223,
      "Temp": 1224,
      "rel": 1225,
      "ati": 1226,
      "fe": 1227,
      "ুটি": 1228,
      "టి": 1229,
      "నే": 1230,
      "ign": 1231,
      "ford": 1232,
      "বিশেষ": 1233,
      "Is": 1234,
      "ai": 1235,
      "बे": 1236,
      "ीप": 1237,
      "2003": 1238,
      "नाम": 1239,
      "ublic": 1240,
      "58": 1241,
      "మి": 1242,
      "help": 1243,
      "আর্": 1244,
      "ord": 1245,
      "2016": 1246,
      "ন্ত্র": 1247,
      "উৎস": 1248,
      "ख्या": 1249,
      "न्या": 1250,
      "रब": 1251,
      "सब": 1252,
      "सु": 1253,
      "হের": 1254,
      "ంచ": 1255,
      "क्ति": 1256,
      "tics": 1257,
      "द्वीप": 1258,
      "पंजा": 1259,
      "Kul": 1260,
      "xford": 1261,
      "ame": 1262,
      "MetcalfMetcalf": 1263,
      "মূল": 1264,
      "Comm": 1265,
      "ण्": 1266,
      "तट": 1267,
      "पाल": 1268,
      "मध्य": 1269,
      "सद": 1270,
      "साम": 1271,
      "सबसे": 1272,
      "ations": 1273,
      "భాష": 1274,
      "times": 1275,
      "census": 1276,
      "बंध": 1277,
      "माल": 1278,
      "वे": 1279,
      "ড়": 1280,
      "সি": 1281,
      "tral": 1282,
      "न्न": 1283,
      "देशों": 1284,
      "सम्": 1285,
      "39": 1286,
      "CS": 1287,
      "countries": 1288,
      "news": 1289,
      "Tal": 1290,
      "స్త్ర": 1291,
      "udd": 1292,
      "ষ্ট্র": 1293,
      "বইয়ের": 1294,
      "Kulke": 1295,
      "05": 1296,
      "71": 1297,
      "Langu": 1298,
      "Oxford": 1299,
      "dis": 1300,
      "mund": 1301,
      "शि": 1302,
      "२०": 1303,
      "ডি": 1304,
      "केंद्र": 1305,
      "स्ट": 1306,
      "न्द्र": 1307,
      "चीन": 1308,
      "57": 1309,
      "Th": 1310,
      "man": 1311,
      "এস": 1312,
      "বর": 1313,
      "ার্": 1314,
      "స్తా": 1315,
      "రాష్ట్ర": 1316,
      "ত্রুটি": 1317,
      "ited": 1318,
      "thermund": 1319,
      "Rothermund": 1320,
      "target": 1321,
      "titution": 1322,
      "Edit": 1323,
      "me": 1324,
      "ty": 1325,
      "Cam": 1326,
      "आई": 1327,
      "जरा": 1328,
      "तमिल": 1329,
      "यह": 1330,
      "లీ": 1331,
      "eng": 1332,
      "2005": 1333,
      "सागर": 1334,
      "रूप": 1335,
      "ब्रि": 1336,
      "IN": 1337,
      "Sh": 1338,
      "tin": 1339,
      "Talbot": 1340,
      "Del": 1341,
      "sfn": 1342,
      "গু": 1343,
      "পি": 1344,
      "మూ": 1345,
      "107": 1346,
      "ach": 1347,
      "खा": 1348,
      "ैन": 1349,
      "ich": 1350,
      "साथ": 1351,
      "युक्त": 1352,
      "িয়া": 1353,
      "তারিখে": 1354,
      "87": 1355,
      "ইভ": 1356,
      "কাইভ": 1357,
      "ন্দ্র": 1358,
      "సామ్రాజ్యం": 1359,
      "আর্কাইভ": 1360,
      "ange": 1361,
      "আর্কাইভকৃত": 1362,
      "sub": 1363,
      "गा": 1364,
      "जु": 1365,
      "बंग": 1366,
      "ాన": 1367,
      "దేశ్": 1368,
      "Hindu": 1369,
      "च्च": 1370,
      "ण्ड": 1371,
      "Off": 1372,
      "ath": 1373,
      "ঞ্চ": 1374,
      "onom": 1375,
      "reg": 1376,
      "amil": 1377,
      "Ass": 1378,
      "জাতীয়": 1379,
      "88": 1380,
      "সর": 1381,
      "జి": 1382,
      "తీయ": 1383,
      "tem": 1384,
      "oli": 1385,
      "রাষ্ট্র": 1386,
      "Rep": 1387,
      "ni": 1388,
      "अरब": 1389,
      "णा": 1390,
      "दू": 1391,
      "पे": 1392,
      "idge": 1393,
      "100": 1394,
      "संख्या": 1395,
      "जिस": 1396,
      "अनुसार": 1397,
      "টেম": 1398,
      "41": 1399,
      "521": 1400,
      "ction": 1401,
      "summ": 1402,
      "এন": 1403,
      "గా": 1404,
      "erv": 1405,
      "40px": 1406,
      "লেট": 1407,
      "প্লেট": 1408,
      "টেমপ্লেট": 1409,
      "Dev": 1410,
      "GD": 1411,
      "Tr": 1412,
      "ছে": 1413,
      "de": 1414,
      "कश्": 1415,
      "ज्य": 1416,
      "टन": 1417,
      "तंत्र": 1418,
      "बि": 1419,
      "बहु": 1420,
      "वरी": 1421,
      "ধান": 1422,
      "out": 1423,
      "तिहा": 1424,
      "संग": 1425,
      "ंग्": 1426,
      "पर्य": 1427,
      "िकार": 1428,
      "शास": 1429,
      "प्त": 1430,
      "స్తాన్": 1431,
      "Delhi": 1432,
      "कश्मी": 1433,
      "উপ": 1434,
      "rep": 1435,
      "000": 1436,
      "51": 1437,
      "54": 1438,
      "RI": 1439,
      "కే": 1440,
      "గు": 1441,
      "డు": 1442,
      "ten": 1443,
      "A4": 1444,
      "lia": 1445,
      "एवं": 1446,
      "गो": 1447,
      "गढ़": 1448,
      "शी": 1449,
      "2023": 1450,
      "2017": 1451,
      "nolog": 1452,
      "काल": 1453,
      "সংগ্র": 1454,
      "ज्ञान": 1455,
      "तिहास": 1456,
      "81": 1457,
      "Pak": 1458,
      "co": 1459,
      "oh": 1460,
      "ুর": 1461,
      "ంట": 1462,
      "లి": 1463,
      "్రీ": 1464,
      "రాజ": 1465,
      "bridge": 1466,
      "స్త్రం": 1467,
      "cr": 1468,
      "hal": 1469,
      "national": 1470,
      "স্ত": 1471,
      "সংগ্রহের": 1472,
      "ya": 1473,
      "टे": 1474,
      "नगर": 1475,
      "তে": 1476,
      "নী": 1477,
      "ంలో": 1478,
      "డ్": 1479,
      "2024": 1480,
      "दिल्": 1481,
      "ड़ा": 1482,
      "United": 1483,
      "ంగా": 1484,
      "्राज्य": 1485,
      "लोक": 1486,
      "crease": 1487,
      "साम्राज्य": 1488,
      "Cambridge": 1489,
      "Pakistan": 1490,
      "दिल्ली": 1491,
      "75": 1492,
      "Gu": 1493,
      "cons": 1494,
      "elop": 1495,
      "ions": 1496,
      "led": 1497,
      "population": 1498,
      "স্থা": 1499,
      "িকা": 1500,
      "আইএস": 1501,
      "Minis": 1502,
      "Pe": 1503,
      "hind": 1504,
      "na": 1505,
      "কি": 1506,
      "రాజ్యం": 1507,
      "భారతదేశంలో": 1508,
      "72": 1509,
      "Dw": 1510,
      "Gov": 1511,
      "एं": 1512,
      "डी": 1513,
      "दान": 1514,
      "लु": 1515,
      "वै": 1516,
      "िका": 1517,
      "माण": 1518,
      "সাম": 1519,
      "languages": 1520,
      "नीति": 1521,
      "गुजरा": 1522,
      "which": 1523,
      "न्याया": 1524,
      "पर्यटन": 1525,
      "93": 1526,
      "A6": 1527,
      "ure": 1528,
      "ওয়ে": 1529,
      "తర": 1530,
      "2021": 1531,
      "1950": 1532,
      "form": 1533,
      "row": 1534,
      "Hindi": 1535,
      "relig": 1536,
      "Dys": 1537,
      "Fr": 1538,
      "cent": 1539,
      "ele": 1540,
      "ীন": 1541,
      "Dyson": 1542,
      "PP": 1543,
      "Tim": 1544,
      "ta": 1545,
      "इंड": 1546,
      "क्र": 1547,
      "कर्": 1548,
      "घा": 1549,
      "मंत्र": 1550,
      "కో": 1551,
      "ణా": 1552,
      "ధిక": 1553,
      "శ్": 1554,
      "लाई": 1555,
      "raph": 1556,
      "बांग्": 1557,
      "Asian": 1558,
      "జాతీయ": 1559,
      "शासन": 1560,
      "बांग्ला": 1561,
      "Par": 1562,
      "qu": 1563,
      "মে": 1564,
      "শা": 1565,
      "2013": 1566,
      "దక్ష": 1567,
      "వ్య": 1568,
      "ali": 1569,
      "ight": 1570,
      "contin": 1571,
      "ండి": 1572,
      "MetcalfMetcalf2006": 1573,
      "76": 1574,
      "Eur": 1575,
      "धी": 1576,
      "सभा": 1577,
      "নে": 1578,
      "that": 1579,
      "केन्द्र": 1580,
      "ome": 1581,
      "now": 1582,
      "ous": 1583,
      "विज्ञान": 1584,
      "ंगा": 1585,
      "ন্ত": 1586,
      "्वर": 1587,
      "वर्ष": 1588,
      "ograph": 1589,
      "सूचना": 1590,
      "Act": 1591,
      "pib": 1592,
      "ంబ": 1593,
      "లా": 1594,
      "তিক": 1595,
      "ప్రాం": 1596,
      "ibr": 1597,
      "42": 1598,
      "Am": 1599,
      "Bri": 1600,
      "ities": 1601,
      "ভূ": 1602,
      "usines": 1603,
      "128": 1604,
      "Increase": 1605,
      "Chin": 1606,
      "गणराज्य": 1607,
      "KulkeRothermund": 1608,
      "usiness": 1609,
      "BRI": 1610,
      "iew": 1611,
      "असम": 1612,
      "एस": 1613,
      "जय": 1614,
      "थी": 1615,
      "नेमा": 1616,
      "ult": 1617,
      "सिनेमा": 1618,
      "tical": 1619,
      "২০১": 1620,
      "उत्त": 1621,
      "సియా": 1622,
      "द्योग": 1623,
      "टिश": 1624,
      "महारा": 1625,
      "ब्रिटिश": 1626,
      "जुलाई": 1627,
      "ওয়েব": 1628,
      "महाराष्ट्र": 1629,
      "89": 1630,
      "Wik": 1631,
      "ost": 1632,
      "মান": 1633,
      "2015": 1634,
      "ashm": 1635,
      "1947": 1636,
      "্রা": 1637,
      "র্ব": 1638,
      "ক্ত": 1639,
      "ঞ্চল": 1640,
      "ashmir": 1641,
      "73": 1642,
      "Page": 1643,
      "Population": 1644,
      "దీ": 1645,
      "పే": 1646,
      "ిల్": 1647,
      "ood": 1648,
      "స్త": 1649,
      "ন্ড": 1650,
      "దక్షి": 1651,
      "East": 1652,
      "Man": 1653,
      "चे": 1654,
      "जो": 1655,
      "बई": 1656,
      "बो": 1657,
      "मार्": 1658,
      "অর্": 1659,
      "territ": 1660,
      "त्व": 1661,
      "जाति": 1662,
      "शासित": 1663,
      "व्यव": 1664,
      "संस्कृत": 1665,
      "GDP": 1666,
      "আইএসবি": 1667,
      "DwAAQBAJ": 1668,
      "Government": 1669,
      "Sch": 1670,
      "this": 1671,
      "ese": 1672,
      "ember": 1673,
      "ప్రదేశ్": 1674,
      "Template": 1675,
      "elopment": 1676,
      "Mod": 1677,
      "yan": 1678,
      "ধ্য": 1679,
      "ren": 1680,
      "thor": 1681,
      "econom": 1682,
      "ত্ত": 1683,
      "ission": 1684,
      "article": 1685,
      "Island": 1686,
      "Official": 1687,
      "01": 1688,
      "Emp": 1689,
      "ंप": 1690,
      "अप": 1691,
      "इतिहास": 1692,
      "बै": 1693,
      "श्री": 1694,
      "ून": 1695,
      "చే": 1696,
      "ట్": 1697,
      "మత": 1698,
      "int": 1699,
      "ined": 1700,
      "ree": 1701,
      "प्रधान": 1702,
      "विका": 1703,
      "108": 1704,
      "समय": 1705,
      "ड़ी": 1706,
      "अन्य": 1707,
      "EditPage": 1708,
      "air": 1709,
      "aste": 1710,
      "oup": 1711,
      "পরি": 1712,
      "BRICS": 1713,
      "79": 1714,
      "Sans": 1715,
      "lim": 1716,
      "ব্য": 1717,
      "చ్": 1718,
      "దా": 1719,
      "tish": 1720,
      "ect": 1721,
      "over": 1722,
      "emb": 1723,
      "রাজ্য": 1724,
      "Sansk": 1725,
      "68": 1726,
      "Con": 1727,
      "lar": 1728,
      "ond": 1729,
      "uk": 1730,
      "ंक": 1731,
      "अन्": 1732,
      "दिया": 1733,
      "पार्": 1734,
      "मल": 1735,
      "शक्ति": 1736,
      "िकी": 1737,
      "विधान": 1738,
      "government": 1739,
      "निर्": 1740,
      "वंश": 1741,
      "मुख्य": 1742,
      "स्वतंत्र": 1743,
      "पश्चिम": 1744,
      "कश्मीर": 1745,
      "British": 1746,
      "व्यवस्था": 1747,
      "আইএসবিএন": 1748,
      "File": 1749,
      "Raj": 1750,
      "dom": 1751,
      "దస్త్రం": 1752,
      "వే": 1753,
      "ated": 1754,
      "ক্ষা": 1755,
      "কেন্দ্র": 1756,
      "Language": 1757,
      "continent": 1758,
      "Sanskrit": 1759,
      "35": 1760,
      "44": 1761,
      "Kashmir": 1762,
      "Tamil": 1763,
      "lish": 1764,
      "ms": 1765,
      "র্ম": 1766,
      "িল্": 1767,
      "Constitution": 1768,
      "31": 1769,
      "ail": 1770,
      "ck": 1771,
      "gh": 1772,
      "कल": 1773,
      "दर": 1774,
      "दो": 1775,
      "लग": 1776,
      "िय": 1777,
      "দী": 1778,
      "সম": 1779,
      "ఆర్": 1780,
      "ధ్య": 1781,
      "ice": 1782,
      "भाग": 1783,
      "FOOTNOTEStein1998": 1784,
      "FOOTNOTESingh2009": 1785,
      "ంద్ర": 1786,
      "जनसंख्या": 1787,
      "तीस": 1788,
      "ম্বর": 1789,
      "पंजाब": 1790,
      "विकास": 1791,
      "Beng": 1792,
      "Ne": 1793,
      "Pro": 1794,
      "pan": 1795,
      "pla": 1796,
      "ound": 1797,
      "2001": 1798,
      "ade": 1799,
      "ild": 1800,
      "epend": 1801,
      "articles": 1802,
      "Empire": 1803,
      "Eng": 1804,
      "కాల": 1805,
      "త్య": 1806,
      "బె": 1807,
      "alth": 1808,
      "Indo": 1809,
      "অর্থ": 1810,
      "BC": 1811,
      "Census": 1812,
      "Fish": 1813,
      "इन": 1814,
      "एँ": 1815,
      "जल": 1816,
      "टक": 1817,
      "দি": 1818,
      "ारी": 1819,
      "tive": 1820,
      "202": 1821,
      "प्रति": 1822,
      "संयुक्त": 1823,
      "संविधान": 1824,
      "uring": 1825,
      "ेश्वर": 1826,
      "ालय": 1827,
      "ope": 1828,
      "बंगाल": 1829,
      "ibrary": 1830,
      "KulkeRothermund2004": 1831,
      "55": 1832,
      "85": 1833,
      "bn": 1834,
      "অঞ্চল": 1835,
      "এক": 1836,
      "কর": 1837,
      "বী": 1838,
      "ట్ట": 1839,
      "శా": 1840,
      "ైన": 1841,
      "ins": 1842,
      "ipur": 1843,
      "ulture": 1844,
      "Indus": 1845,
      "ద్ధ": 1846,
      "Commission": 1847,
      "region": 1848,
      "Europe": 1849,
      "Se": 1850,
      "ah": 1851,
      "olog": 1852,
      "yn": 1853,
      "ics": 1854,
      "aman": 1855,
      "line": 1856,
      "rav": 1857,
      "ক্তি": 1858,
      "য়েছে": 1859,
      "AsherTalbot": 1860,
      "Bi": 1861,
      "Mar": 1862,
      "Summ": 1863,
      "know": 1864,
      "lang": 1865,
      "pa": 1866,
      "ये": 1867,
      "रक्षा": 1868,
      "বর্": 1869,
      "చె": 1870,
      "జీ": 1871,
      "ప్": 1872,
      "మీ": 1873,
      "మే": 1874,
      "యు": 1875,
      "హా": 1876,
      "ork": 1877,
      "नाथ": 1878,
      "old": 1879,
      "देव": 1880,
      "বিশ্": 1881,
      "హింద": 1882,
      "Mal": 1883,
      "RC": 1884,
      "তাল": 1885,
      "বং": 1886,
      "িত্র": 1887,
      "one": 1888,
      "isation": 1889,
      "ারা": 1890,
      "usic": 1891,
      "স্ট": 1892,
      "Economy": 1893,
      "330": 1894,
      "Cent": 1895,
      "Dec": 1896,
      "cat": 1897,
      "doi": 1898,
      "ভি": 1899,
      "ంచి": 1900,
      "కూ": 1901,
      "2020": 1902,
      "20px": 1903,
      "adesh": 1904,
      "Intern": 1905,
      "ంగ్": 1906,
      "matics": 1907,
      "Pradesh": 1908,
      "పాలి": 1909,
      "Bh": 1910,
      "Co": 1911,
      "bined": 1912,
      "चु": 1913,
      "दरा": 1914,
      "पति": 1915,
      "वार्": 1916,
      "सैन": 1917,
      "ক্র": 1918,
      "জি": 1919,
      "ুন": 1920,
      "entral": 1921,
      "ury": 1922,
      "वायु": 1923,
      "जाता": 1924,
      "कार्य": 1925,
      "पूर्वी": 1926,
      "मैदान": 1927,
      "subcontinent": 1928,
      "स्वतंत्रता": 1929,
      "63": 1930,
      "gan": 1931,
      "gest": 1932,
      "por": 1933,
      "ss": 1934,
      "অন": 1935,
      "রি": 1936,
      "కృ": 1937,
      "తో": 1938,
      "బ్": 1939,
      "2025": 1940,
      "not": 1941,
      "ాల్": 1942,
      "ople": 1943,
      "প্রা": 1944,
      "ritan": 1945,
      "States": 1946,
      "liament": 1947,
      "sys": 1948,
      "year": 1949,
      "মু": 1950,
      "author": 1951,
      "Ministry": 1952,
      "69": 1953,
      "98": 1954,
      "Doi": 1955,
      "Or": 1956,
      "bb": 1957,
      "mill": 1958,
      "अग": 1959,
      "अम": 1960,
      "अर्थ": 1961,
      "आर्थ": 1962,
      "उद्य": 1963,
      "गंगा": 1964,
      "णि": 1965,
      "पो": 1966,
      "पर्व": 1967,
      "কো": 1968,
      "జన": 1969,
      "low": 1970,
      "संसद": 1971,
      "ন্ধ": 1972,
      "ड़े": 1973,
      "Combined": 1974,
      "nica": 1975,
      "తంత్ర": 1976,
      "वीं": 1977,
      "अधिक": 1978,
      "न्यायाल": 1979,
      "मंत्री": 1980,
      "ritannica": 1981,
      "आर्थिक": 1982,
      "उद्यान": 1983,
      "mb": 1984,
      "minis": 1985,
      "করে": 1986,
      "পূ": 1987,
      "মাল": 1988,
      "সমূ": 1989,
      "2022": 1990,
      "iver": 1991,
      "class": 1992,
      "64": 1993,
      "Ag": 1994,
      "Al": 1995,
      "Eth": 1996,
      "tal": 1997,
      "গণ": 1998,
      "পৃ": 1999,
      "মহা": 2000,
      "মধ্য": 2001,
      "పంచ": 2002,
      "బి": 2003,
      "మధ్య": 2004,
      "వు": 2005,
      "శం": 2006,
      "ాన్": 2007,
      "were": 2008,
      "fir": 2009,
      "state": 2010,
      "కేంద్ర": 2011,
      "ప్రాంత": 2012,
      "ిల్లీ": 2013,
      "దక్షిణ": 2014,
      "English": 2015,
      "Fisher": 2016,
      "তালিকা": 2017,
      "cb": 2018,
      "ंति": 2019,
      "डु": 2020,
      "सो": 2021,
      "এবং": 2022,
      "সম্": 2023,
      "ide": 2024,
      "ats": 2025,
      "ames": 2026,
      "नाव": 2027,
      "राजस्थान": 2028,
      "राजनीति": 2029,
      "ियाँ": 2030,
      "igh": 2031,
      "माज": 2032,
      "पाद": 2033,
      "दिसम्": 2034,
      "क्षेत्रों": 2035,
      "उत्पाद": 2036,
      "दीव": 2037,
      "हुई": 2038,
      "php": 2039,
      "प्राचीन": 2040,
      "Development": 2041,
      "03": 2042,
      "SAA": 2043,
      "during": 2044,
      "uis": 2045,
      "మొ": 2046,
      "ారి": 2047,
      "ారు": 2048,
      "indus": 2049,
      "904": 2050,
      "official": 2051,
      "সরকার": 2052,
      "Increase2": 2053,
      "China": 2054,
      "International": 2055,
      "SAARC": 2056,
      "118": 2057,
      "67": 2058,
      "af": 2059,
      "mod": 2060,
      "ley": 2061,
      "act": 2062,
      "ama": 2063,
      "স্থ": 2064,
      "স্তান": 2065,
      "330px": 2066,
      "119": 2067,
      "94": 2068,
      "Bang": 2069,
      "po": 2070,
      "sha": 2071,
      "ंबई": 2072,
      "ईसा": 2073,
      "उर्": 2074,
      "बढ़": 2075,
      "योग": 2076,
      "रवरी": 2077,
      "सफ": 2078,
      "ोड़": 2079,
      "ধর্ম": 2080,
      "োল": 2081,
      "కొ": 2082,
      "దు": 2083,
      "ధాన": 2084,
      "మ్": 2085,
      "వర్": 2086,
      "ష్": 2087,
      "ाने": 2088,
      "स्त्र": 2089,
      "ack": 2090,
      "नाग": 2091,
      "राजवंश": 2092,
      "ters": 2093,
      "162": 2094,
      "une": 2095,
      "निर": 2096,
      "लिए": 2097,
      "राष्ट्रपति": 2098,
      "हुआ": 2099,
      "युद्ध": 2100,
      "स्थल": 2101,
      "Reg": 2102,
      "Stein2010": 2103,
      "रेल": 2104,
      "महासागर": 2105,
      "120px": 2106,
      "भूमि": 2107,
      "संस्कृति": 2108,
      "शिक्षा": 2109,
      "শাস": 2110,
      "द्योगिकी": 2111,
      "langoff": 2112,
      "न्यायालय": 2113,
      "उर्दू": 2114,
      "07": 2115,
      "Apr": 2116,
      "Dem": 2117,
      "dr": 2118,
      "history": 2119,
      "iz": 2120,
      "ne": 2121,
      "ru": 2122,
      "ural": 2123,
      "ortal": 2124,
      "২০০৭": 2125,
      "Economic": 2126,
      "report": 2127,
      "religion": 2128,
      "April": 2129,
      "Cong": 2130,
      "Pres": 2131,
      "Sik": 2132,
      "doc": 2133,
      "oon": 2134,
      "২১": 2135,
      "ంధ": 2136,
      "ఆసియా": 2137,
      "క్రీ": 2138,
      "ఖ్య": 2139,
      "ఢిల్లీ": 2140,
      "ర్య": 2141,
      "eration": 2142,
      "ofindia": 2143,
      "্রি": 2144,
      "tra": 2145,
      "wiki": 2146,
      "states": 2147,
      "life": 2148,
      "పాకి": 2149,
      "వంశం": 2150,
      "మూస": 2151,
      "election": 2152,
      "వ్యవ": 2153,
      "system": 2154,
      "Congress": 2155,
      "34": 2156,
      "65": 2157,
      "div": 2158,
      "ores": 2159,
      "uary": 2160,
      "ंस": 2161,
      "जम्": 2162,
      "जून": 2163,
      "पार": 2164,
      "बल": 2165,
      "भो": 2166,
      "लं": 2167,
      "शु": 2168,
      "हार": 2169,
      "cies": 2170,
      "ick": 2171,
      "प्रे": 2172,
      "uman": 2173,
      "संबंध": 2174,
      "ेशिया": 2175,
      "पुरी": 2176,
      "परि": 2177,
      "परमाण": 2178,
      "uly": 2179,
      "ष्ण": 2180,
      "जनगण": 2181,
      "पूर्": 2182,
      "ंधी": 2183,
      "ोलन": 2184,
      "्रीका": 2185,
      "पश्चिमी": 2186,
      "यूनि": 2187,
      "उत्तरा": 2188,
      "मार्च": 2189,
      "प्रधानमंत्री": 2190,
      "বিশ্ব": 2191,
      "दिसम्बर": 2192,
      "जम्मू": 2193,
      "परमाणु": 2194,
      "जनगणना": 2195,
      "Col": 2196,
      "Central": 2197,
      "ual": 2198,
      "uch": 2199,
      "ঞ্": 2200,
      "বৈ": 2201,
      "ৈতিক": 2202,
      "తు": 2203,
      "మె": 2204,
      "ories": 2205,
      "country": 2206,
      "গুলি": 2207,
      "Dyson2018": 2208,
      "Islands": 2209,
      "Bengal": 2210,
      "08": 2211,
      "All": 2212,
      "For": 2213,
      "north": 2214,
      "rd": 2215,
      "বস্থা": 2216,
      "োগ": 2217,
      "cient": 2218,
      "ica": 2219,
      "হাস": 2220,
      "summit": 2221,
      "Times": 2222,
      "99": 2223,
      "Budd": 2224,
      "CO": 2225,
      "Ludd": 2226,
      "Poli": 2227,
      "pos": 2228,
      "खंड": 2229,
      "टा": 2230,
      "दश": 2231,
      "दर्": 2232,
      "नव": 2233,
      "पह": 2234,
      "बन": 2235,
      "बौ": 2236,
      "बना": 2237,
      "मरा": 2238,
      "रल": 2239,
      "र्य": 2240,
      "सर्व": 2241,
      "िर": 2242,
      "ैंड": 2243,
      "হয়": 2244,
      "ఉత్": 2245,
      "టు": 2246,
      "టె": 2247,
      "ince": 2248,
      "्यता": 2249,
      "रान": 2250,
      "lad": 2251,
      "ument": 2252,
      "त्रि": 2253,
      "121": 2254,
      "ove": 2255,
      "বিজ": 2256,
      "भाषाओं": 2257,
      "ప్రధాన": 2258,
      "CITEREFStein1998": 2259,
      "CITEREFSingh2009": 2260,
      "पात": 2261,
      "हिन्दू": 2262,
      "मुंबई": 2263,
      "मानव": 2264,
      "ंग्रेस": 2265,
      "द्वारा": 2266,
      "इसके": 2267,
      "సంస్": 2268,
      "फ़रवरी": 2269,
      "general": 2270,
      "हीं": 2271,
      "censusindia": 2272,
      "गुजरात": 2273,
      "పాలిత": 2274,
      "पर्वत": 2275,
      "కేంద్రపాలిత": 2276,
      "Ludden": 2277,
      "बौद्ध": 2278,
      "83": 2279,
      "Ad": 2280,
      "Min": 2281,
      "Oj": 2282,
      "ran": 2283,
      "icon": 2284,
      "lear": 2285,
      "ature": 2286,
      "ement": 2287,
      "ানা": 2288,
      "ayan": 2289,
      "Union": 2290,
      "nologue": 2291,
      "Commissioner": 2292,
      "02": 2293,
      "52": 2294,
      "Br": 2295,
      "Coun": 2296,
      "July": 2297,
      "aw": 2298,
      "gy": 2299,
      "jec": 2300,
      "music": 2301,
      "numb": 2302,
      "war": 2303,
      "উত্ত": 2304,
      "గో": 2305,
      "డా": 2306,
      "బ్ర": 2307,
      "సు": 2308,
      "ann": 2309,
      "adition": 2310,
      "imal": 2311,
      "তিহাস": 2312,
      "FOOTNOTEMetcalfMetcalf2006": 2313,
      "union": 2314,
      "have": 2315,
      "হিন্দ": 2316,
      "Republic": 2317,
      "ledge": 2318,
      "first": 2319,
      "37": 2320,
      "Ex": 2321,
      "JP": 2322,
      "most": 2323,
      "ution": 2324,
      "अफ": 2325,
      "कटि": 2326,
      "खण्ड": 2327,
      "गोल": 2328,
      "डिया": 2329,
      "दृ": 2330,
      "मौ": 2331,
      "वेश": 2332,
      "शता": 2333,
      "ौद्योगिकी": 2334,
      "চীন": 2335,
      "শি": 2336,
      "than": 2337,
      "क्कि": 2338,
      "प्रमुख": 2339,
      "प्रौद्योगिकी": 2340,
      "नाडु": 2341,
      "122": 2342,
      "सिक्कि": 2343,
      "हिमाल": 2344,
      "stat": 2345,
      "iron": 2346,
      "80904": 2347,
      "ffair": 2348,
      "अंग्रेजी": 2349,
      "ower": 2350,
      "ब्दी": 2351,
      "पालिका": 2352,
      "AsherTalbot2008": 2353,
      "अगस्त": 2354,
      "शताब्दी": 2355,
      "सिक्किम": 2356,
      "ffairs": 2357,
      "113": 2358,
      "500": 2359,
      "91": 2360,
      "Ge": 2361,
      "Library": 2362,
      "business": 2363,
      "dance": 2364,
      "gar": 2365,
      "ls": 2366,
      "str": 2367,
      "tw": 2368,
      "টার": 2369,
      "గణ": 2370,
      "తే": 2371,
      "వర": 2372,
      "సభ": 2373,
      "idata": 2374,
      "106": 2375,
      "uss": 2376,
      "umbai": 2377,
      "148": 2378,
      "రాజ్య": 2379,
      "ప్రపంచ": 2380,
      "সংস্": 2381,
      "time": 2382,
      "হিনী": 2383,
      "రాష్ట్రాలు": 2384,
      "మతము": 2385,
      "Centre": 2386,
      "ప్రాంతాలు": 2387,
      "వ్యవస్థ": 2388,
      "32": 2389,
      "Bra": 2390,
      "ple": 2391,
      "right": 2392,
      "sou": 2393,
      "viron": 2394,
      "ইতিহাস": 2395,
      "ari": 2396,
      "acy": 2397,
      "etail": 2398,
      "indiatimes": 2399,
      "index": 2400,
      "aper": 2401,
      "uclear": 2402,
      "Report": 2403,
      "সমূহ": 2404,
      "vironment": 2405,
      "And": 2406,
      "Affairs": 2407,
      "Sep": 2408,
      "bet": 2409,
      "ncl": 2410,
      "ote": 2411,
      "page": 2412,
      "val": 2413,
      "अव": 2414,
      "अप्र": 2415,
      "अल्": 2416,
      "कन्न": 2417,
      "धा": 2418,
      "बार": 2419,
      "मणि": 2420,
      "लों": 2421,
      "हन": 2422,
      "ृत्य": 2423,
      "ैल": 2424,
      "१८": 2425,
      "লো": 2426,
      "గం": 2427,
      "గి": 2428,
      "పె": 2429,
      "లం": 2430,
      "र्ड": 2431,
      "ace": 2432,
      "files": 2433,
      "anges": 2434,
      "124": 2435,
      "हिमा": 2436,
      "वादी": 2437,
      "প্রধান": 2438,
      "త్రి": 2439,
      "Chand": 2440,
      "ক্ষি": 2441,
      "आधिकार": 2442,
      "तेलु": 2443,
      "projec": 2444,
      "cyc": 2445,
      "स्थाप": 2446,
      "पंजाबी": 2447,
      "२००": 2448,
      "२०१": 2449,
      "गांधी": 2450,
      "tember": 2451,
      "Modern": 2452,
      "पार्टी": 2453,
      "चुनाव": 2454,
      "वार्ता": 2455,
      "मराठ": 2456,
      "উত্তর": 2457,
      "nclm": 2458,
      "आधिकारिक": 2459,
      "219": 2460,
      "84": 2461,
      "March": 2462,
      "Ram": 2463,
      "caste": 2464,
      "data": 2465,
      "had": 2466,
      "how": 2467,
      "map": 2468,
      "ob": 2469,
      "ইউ": 2470,
      "দা": 2471,
      "cience": 2472,
      "ident": 2473,
      "lead": 2474,
      "132": 2475,
      "rab": 2476,
      "akh": 2477,
      "দ্বী": 2478,
      "বাহিনী": 2479,
      "harat": 2480,
      "ublish": 2481,
      "২০০৮": 2482,
      "embly": 2483,
      "দ্বীপ": 2484,
      "86": 2485,
      "95": 2486,
      "Joh": 2487,
      "Mug": 2488,
      "bal": 2489,
      "def": 2490,
      "detail": 2491,
      "iff": 2492,
      "sch": 2493,
      "চ্চ": 2494,
      "నల్": 2495,
      "బడి": 2496,
      "మార్": 2497,
      "రై": 2498,
      "ision": 2499,
      "chnolog": 2500,
      "iksh": 2501,
      "্যান": 2502,
      "ateg": 2503,
      "230": 2504,
      "1994": 2505,
      "বাং": 2506,
      "সংখ": 2507,
      "Environment": 2508,
      "ব্যবস্থা": 2509,
      "బెంగ": 2510,
      "సంస్కృ": 2511,
      "September": 2512,
      "ক্ষিণ": 2513,
      "ikshit": 2514,
      "074": 2515,
      "97": 2516,
      "Data": 2517,
      "IM": 2518,
      "Rel": 2519,
      "UI": 2520,
      "oth": 2521,
      "rish": 2522,
      "उच्च": 2523,
      "एन": 2524,
      "छत्": 2525,
      "निक": 2526,
      "पि": 2527,
      "रण": 2528,
      "हरी": 2529,
      "ूह": 2530,
      "এই": 2531,
      "এশ": 2532,
      "পু": 2533,
      "সঙ্গ": 2534,
      "্ঞ": 2535,
      "inf": 2536,
      "र्ट": 2537,
      "2000": 2538,
      "adu": 2539,
      "inguis": 2540,
      "तिक": 2541,
      "105": 2542,
      "नाटक": 2543,
      "न्ध": 2544,
      "हैदरा": 2545,
      "onsoon": 2546,
      "समूह": 2547,
      "करने": 2548,
      "वर्ग": 2549,
      "हुए": 2550,
      "सीमा": 2551,
      "युग": 2552,
      "logo": 2553,
      "ourt": 2554,
      "तुल": 2555,
      "also": 2556,
      "Temple": 2557,
      "पेक्ष": 2558,
      "इंडिया": 2559,
      "कर्नाटक": 2560,
      "श्रीलं": 2561,
      "largest": 2562,
      "Summit": 2563,
      "निरपेक्ष": 2564,
      "cyclop": 2565,
      "छत्तीस": 2566,
      "श्रीलंका": 2567,
      "2F": 2568,
      "96": 2569,
      "Kar": 2570,
      "Pal": 2571,
      "ho": 2572,
      "if": 2573,
      "jab": 2574,
      "ks": 2575,
      "more": 2576,
      "কৃতি": 2577,
      "গর": 2578,
      "শিল্": 2579,
      "తమి": 2580,
      "పం": 2581,
      "పతి": 2582,
      "203": 2583,
      "estern": 2584,
      "term": 2585,
      "র্ক": 2586,
      "న్ని": 2587,
      "న్నా": 2588,
      "266": 2589,
      "ক্ষণ": 2590,
      "Compan": 2591,
      "ocial": 2592,
      "నుండి": 2593,
      "8829": 2594,
      "tent": 2595,
      "territories": 2596,
      "শিল্প": 2597,
      "తమిళ": 2598,
      "06": 2599,
      "He": 2600,
      "Jan": 2601,
      "Mumbai": 2602,
      "Publish": 2603,
      "Rout": 2604,
      "War": 2605,
      "duc": 2606,
      "eth": 2607,
      "sp": 2608,
      "ute": 2609,
      "চিত্র": 2610,
      "টা": 2611,
      "বল": 2612,
      "ark": 2613,
      "anc": 2614,
      "andhi": 2615,
      "asia": 2616,
      "ough": 2617,
      "tradition": 2618,
      "103": 2619,
      "ন্ন": 2620,
      "been": 2621,
      "News": 2622,
      "মিটার": 2623,
      "Encyclop": 2624,
      "ustan": 2625,
      "articleshow": 2626,
      "Relig": 2627,
      "inguistic": 2628,
      "Routledge": 2629,
      "Arab": 2630,
      "De": 2631,
      "San": 2632,
      "cms": 2633,
      "go": 2634,
      "hat": 2635,
      "mu": 2636,
      "men": 2637,
      "ry": 2638,
      "spe": 2639,
      "ting": 2640,
      "ंट": 2641,
      "ंह": 2642,
      "इस्": 2643,
      "ऊर्": 2644,
      "ओड़": 2645,
      "कई": 2646,
      "गान": 2647,
      "घरेल": 2648,
      "झार": 2649,
      "तन": 2650,
      "नौ": 2651,
      "नहीं": 2652,
      "नृत्य": 2653,
      "पान": 2654,
      "मशी": 2655,
      "यार": 2656,
      "रक्ष": 2657,
      "रहा": 2658,
      "लोग": 2659,
      "शहर": 2660,
      "सकल": 2661,
      "हरा": 2662,
      "ीत": 2663,
      "ोच्च": 2664,
      "অক্": 2665,
      "খা": 2666,
      "అధిక": 2667,
      "ద్ర": 2668,
      "పి": 2669,
      "పార": 2670,
      "ఫ్": 2671,
      "మం": 2672,
      "ara": 2673,
      "केरल": 2674,
      "aspx": 2675,
      "1960": 2676,
      "lam": 2677,
      "ween": 2678,
      "123": 2679,
      "दिव": 2680,
      "करण": 2681,
      "करोड़": 2682,
      "క్కు": 2683,
      "जनजाति": 2684,
      "11162": 2685,
      "part": 2686,
      "द्वार": 2687,
      "্যান্ড": 2688,
      "মাণ": 2689,
      "कुल": 2690,
      "प्राप्त": 2691,
      "तमिलनाडु": 2692,
      "ographic": 2693,
      "একটি": 2694,
      "ology": 2695,
      "హిందూ": 2696,
      "Organ": 2697,
      "పాకిస్తాన్": 2698,
      "प्रेस": 2699,
      "सर्वोच्च": 2700,
      "JPG": 2701,
      "हिमालय": 2702,
      "বাংলা": 2703,
      "న్నాయి": 2704,
      "882905": 2705,
      "इस्ला": 2706,
      "ऊर्जा": 2707,
      "घरेलू": 2708,
      "मशीन": 2709,
      "110": 2710,
      "92": 2711,
      "AC": 2712,
      "Aug": 2713,
      "Dav": 2714,
      "II": 2715,
      "Oc": 2716,
      "Plate": 2717,
      "River": 2718,
      "TR": 2719,
      "day": 2720,
      "hy": 2721,
      "tain": 2722,
      "ংশ": 2723,
      "into": 2724,
      "ofile": 2725,
      "their": 2726,
      "asp": 2727,
      "icy": 2728,
      "tober": 2729,
      "unjab": 2730,
      "contr": 2731,
      "exp": 2732,
      "কাশ": 2733,
      "group": 2734,
      "European": 2735,
      "industry": 2736,
      "Minor": 2737,
      "্ঞান": 2738,
      "October": 2739,
      "115": 2740,
      "Bank": 2741,
      "June": 2742,
      "Pur": 2743,
      "Public": 2744,
      "UN": 2745,
      "gress": 2746,
      "mon": 2747,
      "mil": 2748,
      "yy": 2749,
      "দক্ষিণ": 2750,
      "নৈতিক": 2751,
      "পশ": 2752,
      "পতি": 2753,
      "বৃ": 2754,
      "শ্র": 2755,
      "ఆఫ్": 2756,
      "కార": 2757,
      "క్య": 2758,
      "నాలు": 2759,
      "భూ": 2760,
      "య్య": 2761,
      "రే": 2762,
      "url": 2763,
      "దేశాల": 2764,
      "FOOTNOTEStein2010": 2765,
      "Ins": 2766,
      "েশি": 2767,
      "berg": 2768,
      "নির্": 2769,
      "Assembly": 2770,
      "অর্থনৈতিক": 2771,
      "সম্প": 2772,
      "south": 2773,
      "projection": 2774,
      "Mughal": 2775,
      "ategory": 2776,
      "David": 2777,
      "Bar": 2778,
      "Mon": 2779,
      "Nations": 2780,
      "OL": 2781,
      "az": 2782,
      "but": 2783,
      "britannica": 2784,
      "cod": 2785,
      "poli": 2786,
      "ईरान": 2787,
      "ओर": 2788,
      "कम": 2789,
      "कॉ": 2790,
      "कंप": 2791,
      "चार": 2792,
      "चंड": 2793,
      "जैन": 2794,
      "डि": 2795,
      "तीय": 2796,
      "दु": 2797,
      "मत": 2798,
      "मार": 2799,
      "मन्द": 2800,
      "यर": 2801,
      "समाज": 2802,
      "গা": 2803,
      "যা": 2804,
      "ীল": 2805,
      "োর্": 2806,
      "ise": 2807,
      "20160": 2808,
      "स्वा": 2809,
      "idd": 2810,
      "chin": 2811,
      "change": 2812,
      "lobal": 2813,
      "104": 2814,
      "न्ह": 2815,
      "use": 2816,
      "संस्थान": 2817,
      "78074": 2818,
      "सां": 2819,
      "साल": 2820,
      "127": 2821,
      "राज्यक्षेत्र": 2822,
      "न्दा": 2823,
      "स्तर": 2824,
      "सिटी": 2825,
      "सिंह": 2826,
      "স্বা": 2827,
      "सून": 2828,
      "वाद": 2829,
      "formatics": 2830,
      "Informatics": 2831,
      "कारण": 2832,
      "मानसून": 2833,
      "वर्सिटी": 2834,
      "भीम": 2835,
      "prov": 2836,
      "harma": 2837,
      "होता": 2838,
      "area": 2839,
      "महाद्वीप": 2840,
      "बीच": 2841,
      "वेबै": 2842,
      "जिसमें": 2843,
      "बिहार": 2844,
      "गोआ": 2845,
      "गुजराती": 2846,
      "century": 2847,
      "economic": 2848,
      "मलया": 2849,
      "सैन्य": 2850,
      "अर्थव्यवस्था": 2851,
      "यूनिवर्सिटी": 2852,
      "ladesh": 2853,
      "अफ्रीका": 2854,
      "हिमाचल": 2855,
      "मराठी": 2856,
      "August": 2857,
      "मन्दिर": 2858,
      "वेबैक": 2859,
      "Aus": 2860,
      "EO": 2861,
      "Li": 2862,
      "Me": 2863,
      "NG": 2864,
      "Nadu": 2865,
      "Sec": 2866,
      "Taj": 2867,
      "WEO": 2868,
      "ater": 2869,
      "ban": 2870,
      "dev": 2871,
      "tation": 2872,
      "wart": 2873,
      "zberg": 2874,
      "অব": 2875,
      "ইন": 2876,
      "এর": 2877,
      "চল": 2878,
      "দে": 2879,
      "ভে": 2880,
      "যোগ": 2881,
      "হয়েছে": 2882,
      "ఒరి": 2883,
      "చూ": 2884,
      "ణం": 2885,
      "ధీ": 2886,
      "మైన": 2887,
      "యం": 2888,
      "వీ": 2889,
      "వులు": 2890,
      "సంగ": 2891,
      "హార": 2892,
      "tex": 2893,
      "ering": 2894,
      "iction": 2895,
      "2002": 2896,
      "olicy": 2897,
      "181": 2898,
      "నాగ": 2899,
      "కాశ్": 2900,
      "যুক্ত": 2901,
      "সেম্বর": 2902,
      "ডিসেম্বর": 2903,
      "Assam": 2904,
      "Schwart": 2905,
      "Sikh": 2906,
      "Buddh": 2907,
      "between": 2908,
      "John": 2909,
      "gressive": 2910,
      "সম্পর্ক": 2911,
      "కాశ్మీ": 2912,
      "Schwartzberg": 2913,
      "Ac": 2914,
      "Af": 2915,
      "Dikshit": 2916,
      "Gen": 2917,
      "Gandhi": 2918,
      "Lank": 2919,
      "Mic": 2920,
      "PM": 2921,
      "bec": 2922,
      "med": 2923,
      "oci": 2924,
      "son": 2925,
      "serv": 2926,
      "ver": 2927,
      "পাল": 2928,
      "মার": 2929,
      "িম": 2930,
      "them": 2931,
      "andard": 2932,
      "ash": 2933,
      "1971": 2934,
      "য়া": 2935,
      "ime": 2936,
      "here": 2937,
      "126": 2938,
      "top": 2939,
      "CITEREFKulkeRothermund2004": 2940,
      "সালে": 2941,
      "222": 2942,
      "able": 2943,
      "Hindustan": 2944,
      "ucation": 2945,
      "্যাক": 2946,
      "irect": 2947,
      "Languages": 2948,
      "Hinduism": 2949,
      "From": 2950,
      "after": 2951,
      "61": 2952,
      "IA": 2953,
      "ID": 2954,
      "Mad": 2955,
      "Val": 2956,
      "ca": 2957,
      "ee": 2958,
      "oor": 2959,
      "sup": 2960,
      "va": 2961,
      "तृ": 2962,
      "तो": 2963,
      "पक": 2964,
      "पट": 2965,
      "पत्": 2966,
      "फा": 2967,
      "भग": 2968,
      "भ्यता": 2969,
      "रिया": 2970,
      "लिया": 2971,
      "सभ्यता": 2972,
      "ीगढ़": 2973,
      "ोन": 2974,
      "বন": 2975,
      "মেশি": 2976,
      "ఉప": 2977,
      "క్ర": 2978,
      "ణి": 2979,
      "తె": 2980,
      "రో": 2981,
      "లే": 2982,
      "ైనా": 2983,
      "ant": 2984,
      "्यू": 2985,
      "विजय": 2986,
      "तिब्": 2987,
      "न्स": 2988,
      "क्षर": 2989,
      "राजधान": 2990,
      "ेशन": 2991,
      "ताज": 2992,
      "षाण": 2993,
      "सिंध": 2994,
      "cess": 2995,
      "aya": 2996,
      "क्षेत्रीय": 2997,
      "ज़ा": 2998,
      "ండ్": 2999,
      "ल्स": 3000,
      "జాబి": 3001,
      "erala": 3002,
      "orthographic": 3003,
      "सुरक्षा": 3004,
      "तटीय": 3005,
      "मालदीव": 3006,
      "CS1": 3007,
      "संगीत": 3008,
      "নীতি": 3009,
      "সাম্রা": 3010,
      "घाट": 3011,
      "ওয়েব্যাক": 3012,
      "rent": 3013,
      "अन्तर": 3014,
      "जलवायु": 3015,
      "known": 3016,
      "পূর্ব": 3017,
      "Fisher2018": 3018,
      "राजनीतिक": 3019,
      "उत्तराखण्ड": 3020,
      "दशक": 3021,
      "अप्रैल": 3022,
      "IMF": 3023,
      "हैदराबाद": 3024,
      "चंडीगढ़": 3025,
      "तिब्ब": 3026,
      "सिंधु": 3027,
      "সাম্রাজ্য": 3028,
      "415": 3029,
      "Category": 3030,
      "Fund": 3031,
      "NC": 3032,
      "Portal": 3033,
      "Punjab": 3034,
      "can": 3035,
      "cap": 3036,
      "des": 3037,
      "ft": 3038,
      "grow": 3039,
      "other": 3040,
      "sec": 3041,
      "tle": 3042,
      "ণী": 3043,
      "প্য": 3044,
      "ব্রি": 3045,
      "মন": 3046,
      "মো": 3047,
      "মন্ত্র": 3048,
      "১১": 3049,
      "iation": 3050,
      "ones": 3051,
      "citation": 3052,
      "ess": 3053,
      "ool": 3054,
      "imf": 3055,
      "129": 3056,
      "140": 3057,
      "ird": 3058,
      "1997": 3059,
      "বাদ": 3060,
      "liter": 3061,
      "State": 3062,
      "produc": 3063,
      "progressive": 3064,
      "people": 3065,
      "কারী": 3066,
      "ative": 3067,
      "Guj": 3068,
      "territory": 3069,
      "করণ": 3070,
      "ারামিটার": 3071,
      "বিজ্ঞান": 3072,
      "status": 3073,
      "chnology": 3074,
      "প্যারামিটার": 3075,
      "116": 3076,
      "Afr": 3077,
      "Fir": 3078,
      "May": 3079,
      "OOj": 3080,
      "Tw": 3081,
      "View": 3082,
      "Wol": 3083,
      "bas": 3084,
      "depend": 3085,
      "ltr": 3086,
      "mer": 3087,
      "pt": 3088,
      "rate": 3089,
      "sar": 3090,
      "অজ": 3091,
      "আর": 3092,
      "আন্দ": 3093,
      "করা": 3094,
      "ত্য": 3095,
      "সভা": 3096,
      "েস": 3097,
      "০০": 3098,
      "జనా": 3099,
      "పరి": 3100,
      "బా": 3101,
      "మహా": 3102,
      "వె": 3103,
      "వచ్": 3104,
      "tis": 3105,
      "omen": 3106,
      "leg": 3107,
      "ingdom": 3108,
      "ovement": 3109,
      "స్వా": 3110,
      "సాం": 3111,
      "135": 3112,
      "cean": 3113,
      "ানি": 3114,
      "ular": 3115,
      "িকে": 3116,
      "2011census": 3117,
      "ండు": 3118,
      "pert": 3119,
      "peration": 3120,
      "illion": 3121,
      "gency": 3122,
      "భాషలు": 3123,
      "రాజవంశం": 3124,
      "crip": 3125,
      "ভূমি": 3126,
      "BCE": 3127,
      "December": 3128,
      "years": 3129,
      "Ethnologue": 3130,
      "Allchin": 3131,
      "two": 3132,
      "details": 3133,
      "পশ্চ": 3134,
      "Valley": 3135,
      "OOjs": 3136,
      "Wolpert": 3137,
      "216": 3138,
      "A7": 3139,
      "Crav": 3140,
      "Ganges": 3141,
      "Science": 3142,
      "Sharma": 3143,
      "Ut": 3144,
      "Ved": 3145,
      "West": 3146,
      "back": 3147,
      "gl": 3148,
      "iod": 3149,
      "ious": 3150,
      "ymb": 3151,
      "ंत": 3152,
      "अलग": 3153,
      "उन": 3154,
      "कला": 3155,
      "गू": 3156,
      "जं": 3157,
      "जब": 3158,
      "टान": 3159,
      "धार": 3160,
      "मिक": 3161,
      "रत": 3162,
      "रह": 3163,
      "लम": 3164,
      "लका": 3165,
      "वृ": 3166,
      "श्य": 3167,
      "सत": 3168,
      "सहा": 3169,
      "िस्तान": 3170,
      "ृत": 3171,
      "ौर": 3172,
      "আগ": 3173,
      "ণি": 3174,
      "তার": 3175,
      "পুর": 3176,
      "ফোর্": 3177,
      "সদ": 3178,
      "ুট": 3179,
      "्यों": 3180,
      "itz": 3181,
      "मेघ": 3182,
      "काली": 3183,
      "adi": 3184,
      "विक": 3185,
      "विष": 3186,
      "विदेश": 3187,
      "109": 3188,
      "साहि": 3189,
      "पुलि": 3190,
      "सिख": 3191,
      "265": 3192,
      "जाती": 3193,
      "ड़ो": 3194,
      "ake": 3195,
      "ज़ो": 3196,
      "जनवरी": 3197,
      "मिज़ो": 3198,
      "Harle": 3199,
      "111": 3200,
      "तेल": 3201,
      "avy": 3202,
      "जीवन": 3203,
      "देख": 3204,
      "নাম": 3205,
      "ternal": 3206,
      "कुछ": 3207,
      "हरिया": 3208,
      "১৯৯": 3209,
      "अधि": 3210,
      "ज्ञा": 3211,
      "उपमहाद्वीप": 3212,
      "बांग्लादेश": 3213,
      "Parliament": 3214,
      "শাসিত": 3215,
      "President": 3216,
      "पहले": 3217,
      "चुनावों": 3218,
      "छत्तीसगढ़": 3219,
      "iddle": 3220,
      "Craven": 3221,
      "Uttar": 3222,
      "ymbol": 3223,
      "सहाय": 3224,
      "पुलिस": 3225,
      "82": 3226,
      "B0": 3227,
      "Bharat": 3228,
      "Des": 3229,
      "Go": 3230,
      "North": 3231,
      "Qu": 3232,
      "bu": 3233,
      "jan": 3234,
      "ven": 3235,
      "ধীন": 3236,
      "বহ": 3237,
      "হল": 3238,
      "১৭": 3239,
      "ఇండ": 3240,
      "ఉంది": 3241,
      "దం": 3242,
      "ధి": 3243,
      "నగ": 3244,
      "నై": 3245,
      "పో": 3246,
      "ndra": 3247,
      "ini": 3248,
      "ont": 3249,
      "rec": 3250,
      "encies": 3251,
      "eds": 3252,
      "itation": 3253,
      "theast": 3254,
      "law": 3255,
      "used": 3256,
      "దేశం": 3257,
      "FOOTNOTEKulkeRothermund2004": 3258,
      "FOOTNOTEAsherTalbot2008": 3259,
      "olk": 3260,
      "139": 3261,
      "ప్రా": 3262,
      "ross": 3263,
      "నికి": 3264,
      "సింధ": 3265,
      "যুদ্ধ": 3266,
      "ఆర్ధిక": 3267,
      "classical": 3268,
      "Bangladesh": 3269,
      "shared": 3270,
      "Political": 3271,
      "సంగీ": 3272,
      "జాబితా": 3273,
      "IMFWEO": 3274,
      "Gujar": 3275,
      "జనాభా": 3276,
      "317": 3277,
      "Cl": 3278,
      "Gr": 3279,
      "It": 3280,
      "Linguistic": 3281,
      "Res": 3282,
      "nam": 3283,
      "pl": 3284,
      "vi": 3285,
      "work": 3286,
      "yle": 3287,
      "ধিক": 3288,
      "নদী": 3289,
      "পে": 3290,
      "শন": 3291,
      "সু": 3292,
      "eric": 3293,
      "alog": 3294,
      "edu": 3295,
      "20140": 3296,
      "বিদ": 3297,
      "130": 3298,
      "141": 3299,
      "231": 3300,
      "disp": 3301,
      "ildlife": 3302,
      "Lanka": 3303,
      "First": 3304,
      "অজানা": 3305,
      "পশ্চিম": 3306,
      "300": 3307,
      "At": 3308,
      "Court": 3309,
      "Ele": 3310,
      "Jain": 3311,
      "Nar": 3312,
      "b0": 3313,
      "bank": 3314,
      "ps": 3315,
      "site": 3316,
      "view": 3317,
      "wal": 3318,
      "अमे": 3319,
      "आन्द": 3320,
      "आंध": 3321,
      "ऑक्": 3322,
      "कं": 3323,
      "क़": 3324,
      "कै": 3325,
      "कों": 3326,
      "खन": 3327,
      "ग्व": 3328,
      "टका": 3329,
      "डा": 3330,
      "णाली": 3331,
      "पै": 3332,
      "पाली": 3333,
      "पब्": 3334,
      "बड़े": 3335,
      "भु": 3336,
      "यत": 3337,
      "व्या": 3338,
      "श्र": 3339,
      "सर्": 3340,
      "ूर": 3341,
      "ेद": 3342,
      "ॉल": 3343,
      "ोर्ड": 3344,
      "००": 3345,
      "দু": 3346,
      "মী": 3347,
      "ীত": 3348,
      "ఉన్న": 3349,
      "ఉన్నాయి": 3350,
      "చు": 3351,
      "చల్": 3352,
      "చైనా": 3353,
      "నీ": 3354,
      "భి": 3355,
      "మతం": 3356,
      "యన్": 3357,
      "యాలు": 3358,
      "రీ": 3359,
      "శ్రీ": 3360,
      "షు": 3361,
      "ాయి": 3362,
      "incl": 3363,
      "oral": 3364,
      "ances": 3365,
      "istr": 3366,
      "प्रणाली": 3367,
      "come": 3368,
      "विभा": 3369,
      "विस्त": 3370,
      "वियत": 3371,
      "images": 3372,
      "linkimages": 3373,
      "125": 3374,
      "ंगाना": 3375,
      "परी": 3376,
      "नेतृ": 3377,
      "नेपाली": 3378,
      "कोलका": 3379,
      "ర్వ": 3380,
      "142": 3381,
      "CITEREFMetcalfMetcalf2006": 3382,
      "প্রতি": 3383,
      "প্রজাত": 3384,
      "1990": 3385,
      "even": 3386,
      "Chr": 3387,
      "ముంబ": 3388,
      "సిన": 3389,
      "్టీ": 3390,
      "अभिज्ञा": 3391,
      "ourn": 3392,
      "गुप्त": 3393,
      "িয়ান": 3394,
      "Robb": 3395,
      "देवी": 3396,
      "पीठ": 3397,
      "पीपी": 3398,
      "रूस": 3399,
      "पुरम": 3400,
      "mark": 3401,
      "পাত": 3402,
      "प्ले": 3403,
      "च्छ": 3404,
      "मैथि": 3405,
      "నేష": 3406,
      "बेटका": 3407,
      "बंधन": 3408,
      "न्नई": 3409,
      "రాష్ట్రపతి": 3410,
      "జినల్": 3411,
      "बहुत": 3412,
      "इंडोन": 3413,
      "क्रम": 3414,
      "घाटी": 3415,
      "केन्द्रीय": 3416,
      "असमिया": 3417,
      "चेन्नई": 3418,
      "शक्तिपीठ": 3419,
      "निर्माण": 3420,
      "catalog": 3421,
      "सफोर्ड": 3422,
      "document": 3423,
      "Force": 3424,
      "ఉత్తర": 3425,
      "त्रिपुरा": 3426,
      "garh": 3427,
      "తేదీ": 3428,
      "तेलुगू": 3429,
      "బడింది": 3430,
      "సంస్కృతి": 3431,
      "Company": 3432,
      "Publishing": 3433,
      "झारखंड": 3434,
      "नौसेना": 3435,
      "పార్టీ": 3436,
      "कॉंग्रेस": 3437,
      "भीमबेटका": 3438,
      "Austral": 3439,
      "ఒరిజినల్": 3440,
      "Africa": 3441,
      "तेलंगाना": 3442,
      "आन्दोलन": 3443,
      "आंध्र": 3444,
      "ऑक्सफोर्ड": 3445,
      "कोलकाता": 3446,
      "প্রজাতন্ত্র": 3447,
      "अभिज्ञापक": 3448,
      "इंडोनेशिया": 3449,
      "Cur": 3450,
      "EX": 3451,
      "Gold": 3452,
      "HA": 3453,
      "Iran": 3454,
      "NA": 3455,
      "Russ": 3456,
      "col": 3457,
      "pur": 3458,
      "ton": 3459,
      "ব্যা": 3460,
      "relation": 3461,
      "enn": 3462,
      "left": 3463,
      "add": 3464,
      "amb": 3465,
      "133": 3466,
      "138": 3467,
      "253": 3468,
      "166": 3469,
      "সাল": 3470,
      "প্রযু": 3471,
      "1996": 3472,
      "ayas": 3473,
      "বাহ": 3474,
      "under": 3475,
      "parliament": 3476,
      "gram": 3477,
      "hindi": 3478,
      "কিস্তান": 3479,
      "PPP": 3480,
      "modern": 3481,
      "ঞ্জ": 3482,
      "number": 3483,
      "Health": 3484,
      "January": 3485,
      "General": 3486,
      "includ": 3487,
      "117": 3488,
      "CN": 3489,
      "Day": 3490,
      "Ear": 3491,
      "Home": 3492,
      "Human": 3493,
      "Nep": 3494,
      "Nuclear": 3495,
      "Pos": 3496,
      "Te": 3497,
      "cur": 3498,
      "nat": 3499,
      "since": 3500,
      "ves": 3501,
      "wood": 3502,
      "জুন": 3503,
      "గాం": 3504,
      "జ్": 3505,
      "జమ్": 3506,
      "తూ": 3507,
      "నె": 3508,
      "పశ్": 3509,
      "వరి": 3510,
      "anth": 3511,
      "ale": 3512,
      "city": 3513,
      "omas": 3514,
      "1970": 3515,
      "ouse": 3516,
      "adminis": 3517,
      "loy": 3518,
      "uslim": 3519,
      "12148": 3520,
      "istor": 3521,
      "దేశాలు": 3522,
      "oll": 3523,
      "বিধান": 3524,
      "143": 3525,
      "407": 3526,
      "aka": 3527,
      "রাজ": 3528,
      "রাজন": 3529,
      "বায়": 3530,
      "నిస్తాన్": 3531,
      "content": 3532,
      "ల్ల": 3533,
      "maint": 3534,
      "నులు": 3535,
      "oreign": 3536,
      "ingham": 3537,
      "period": 3538,
      "key": 3539,
      "ద్ద": 3540,
      "1965": 3541,
      "స్థాన్": 3542,
      "నేపాల": 3543,
      "పేజీ": 3544,
      "Modi": 3545,
      "কেন্দ্রশাসিত": 3546,
      "bnf": 3547,
      "బ్రి": 3548,
      "అధికార": 3549,
      "বাংলাদেশ": 3550,
      "Minorities": 3551,
      "చూసిన": 3552,
      "relations": 3553,
      "జమ్మూ": 3554,
      "పశ్చి": 3555,
      "పేజీని": 3556,
      "Business": 3557,
      "Dr": 3558,
      "Kerala": 3559,
      "dec": 3560,
      "date": 3561,
      "kh": 3562,
      "name": 3563,
      "oy": 3564,
      "west": 3565,
      "ँची": 3566,
      "अरु": 3567,
      "आय": 3568,
      "गई": 3569,
      "गठ": 3570,
      "गार": 3571,
      "घर": 3572,
      "त्या": 3573,
      "थे": 3574,
      "दल": 3575,
      "दमन": 3576,
      "नै": 3577,
      "निया": 3578,
      "फल": 3579,
      "फ्रा": 3580,
      "मई": 3581,
      "रम": 3582,
      "लक्ष": 3583,
      "वल": 3584,
      "वार": 3585,
      "शन": 3586,
      "ुनिक": 3587,
      "কাল": 3588,
      "দের": 3589,
      "নিক": 3590,
      "রিক": 3591,
      "রক্ষণ": 3592,
      "শক্তি": 3593,
      "ors": 3594,
      "ान्": 3595,
      "ict": 3596,
      "र्ष": 3597,
      "্রু": 3598,
      "lem": 3599,
      "ada": 3600,
      "प्रार": 3601,
      "विद्य": 3602,
      "सेवा": 3603,
      "न्तु": 3604,
      "त्री": 3605,
      "संधान": 3606,
      "लाल": 3607,
      "साक्षर": 3608,
      "भाई": 3609,
      "ंगलु": 3610,
      "147": 3611,
      "पाषाण": 3612,
      "50th": 3613,
      "लिंग": 3614,
      "लिये": 3615,
      "ext": 3616,
      "आधुनिक": 3617,
      "म्भ": 3618,
      "स्थित": 3619,
      "जिन": 3620,
      "अनुसंधान": 3621,
      "महल": 3622,
      "who": 3623,
      "भूगोल": 3624,
      "बेंगलु": 3625,
      "MetcalfMetcalf2012": 3626,
      "রাষ্ট্রপতি": 3627,
      "लोकसभा": 3628,
      "Petr": 3629,
      "People": 3630,
      "২০১১": 3631,
      "उत्तरी": 3632,
      "अन्त": 3633,
      "लगभग": 3634,
      "अमरी": 3635,
      "पोर्ट": 3636,
      "মধ্যে": 3637,
      "पूर्ण": 3638,
      "दृश्य": 3639,
      "Brahm": 3640,
      "ictionary": 3641,
      "became": 3642,
      "ताजमहल": 3643,
      "तिब्बत": 3644,
      "glance": 3645,
      "अमेरि": 3646,
      "पब्लि": 3647,
      "अरुणा": 3648,
      "साक्षरता": 3649,
      "बेंगलुरु": 3650,
      "04": 3651,
      "1200": 3652,
      "Air": 3653,
      "Cite": 3654,
      "Dictionary": 3655,
      "Fe": 3656,
      "Fl": 3657,
      "PR": 3658,
      "Pl": 3659,
      "Rese": 3660,
      "fes": 3661,
      "lm": 3662,
      "ola": 3663,
      "rup": 3664,
      "sc": 3665,
      "ইন্ড": 3666,
      "এফ": 3667,
      "কের": 3668,
      "নিয়": 3669,
      "মার্": 3670,
      "১৩": 3671,
      "ఒక": 3672,
      "కై": 3673,
      "కర్": 3674,
      "నో": 3675,
      "నది": 3676,
      "రె": 3677,
      "సము": 3678,
      "సమా": 3679,
      "హ్": 3680,
      "ుత్": 3681,
      "ised": 3682,
      "ারণ": 3683,
      "later": 3684,
      "local": 3685,
      "ISO": 3686,
      "267": 3687,
      "ely": 3688,
      "aglia": 3689,
      "1999": 3690,
      "aksh": 3691,
      "external": 3692,
      "ক্ষম": 3693,
      "60px": 3694,
      "Prov": 3695,
      "পাকিস্তান": 3696,
      "যুগ": 3697,
      "feb": 3698,
      "summits": 3699,
      "Wikidata": 3700,
      "దీవులు": 3701,
      "పేరు": 3702,
      "Manipur": 3703,
      "economy": 3704,
      "ector": 3705,
      "కూడా": 3706,
      "ports": 3707,
      "অনু": 3708,
      "million": 3709,
      "క్రీడ": 3710,
      "orest": 3711,
      "Andaman": 3712,
      "আগস্ট": 3713,
      "Goa": 3714,
      "ఇండో": 3715,
      "ournal": 3716,
      "Russia": 3717,
      "প্রযুক্তি": 3718,
      "Petraglia": 3719,
      "Research": 3720,
      "3TR": 3721,
      "62": 3722,
      "BBC": 3723,
      "CE": 3724,
      "Caste": 3725,
      "DS": 3726,
      "Jam": 3727,
      "Nat": 3728,
      "Sind": 3729,
      "Sri": 3730,
      "Tur": 3731,
      "bod": 3732,
      "culture": 3733,
      "fic": 3734,
      "lies": 3735,
      "net": 3736,
      "power": 3737,
      "ria": 3738,
      "sign": 3739,
      "tDwAAQBAJ": 3740,
      "via": 3741,
      "ইং": 3742,
      "কল": 3743,
      "চে": 3744,
      "চার": 3745,
      "তী": 3746,
      "পার": 3747,
      "রয়েছে": 3748,
      "োবর": 3749,
      "১২": 3750,
      "teen": 3751,
      "read": 3752,
      "tig": 3753,
      "estim": 3754,
      "thematics": 3755,
      "wealth": 3756,
      "umar": 3757,
      "ety": 3758,
      "কাপ": 3759,
      "ষ্ট": 3760,
      "1962": 3761,
      "রেজি": 3762,
      "Constitu": 3763,
      "many": 3764,
      "play": 3765,
      "northern": 3766,
      "হিন্দু": 3767,
      "Liter": 3768,
      "3TRtDwAAQBAJ": 3769,
      "09": 3770,
      "7mar": 3771,
      "8a": 3772,
      "Bal": 3773,
      "Citation": 3774,
      "Med": 3775,
      "Nov": 3776,
      "Ocean": 3777,
      "Sur": 3778,
      "Sub": 3779,
      "Terr": 3780,
      "Var": 3781,
      "York": 3782,
      "da": 3783,
      "ds": 3784,
      "eas": 3785,
      "ief": 3786,
      "mi": 3787,
      "pres": 3788,
      "sur": 3789,
      "ved": 3790,
      "ंतर": 3791,
      "आयुक्त": 3792,
      "इल": 3793,
      "ईल": 3794,
      "उष्ण": 3795,
      "एक्": 3796,
      "कान": 3797,
      "क्रा": 3798,
      "ख्य": 3799,
      "गत": 3800,
      "गि": 3801,
      "गति": 3802,
      "घो": 3803,
      "चा": 3804,
      "चें": 3805,
      "जवा": 3806,
      "जें": 3807,
      "डम": 3808,
      "तम": 3809,
      "द्र": 3810,
      "दिक": 3811,
      "धरो": 3812,
      "नदी": 3813,
      "पहा": 3814,
      "यो": 3815,
      "रत्": 3816,
      "वाल": 3817,
      "वली": 3818,
      "शो": 3819,
      "सह": 3820,
      "हम": 3821,
      "हथि": 3822,
      "ॉक": 3823,
      "ोत्": 3824,
      "१५": 3825,
      "পর্ব": 3826,
      "ব্": 3827,
      "শনা": 3828,
      "১০": 3829,
      "కత": 3830,
      "కళ": 3831,
      "టక": 3832,
      "మన": 3833,
      "మై": 3834,
      "రం": 3835,
      "వార": 3836,
      "సై": 3837,
      "onwealth": 3838,
      "edition": 3839,
      "isions": 3840,
      "ita": 3841,
      "स्ट्र": 3842,
      "काम": 3843,
      "iving": 3844,
      "विभाग": 3845,
      "संबर": 3846,
      "్యం": 3847,
      "్యా": 3848,
      "స్ట": 3849,
      "ालैंड": 3850,
      "नेपाल": 3851,
      "136": 3852,
      "187": 3853,
      "भाषाएँ": 3854,
      "हाँ": 3855,
      "हाला": 3856,
      "179": 3857,
      "जापान": 3858,
      "पास": 3859,
      "दिसंबर": 3860,
      "निय": 3861,
      "రియా": 3862,
      "क्षेत्रफल": 3863,
      "Chines": 3864,
      "शांति": 3865,
      "शास्त्र": 3866,
      "वर्ण": 3867,
      "वर्षा": 3868,
      "ক্ষে": 3869,
      "ভাগ": 3870,
      "েশন": 3871,
      "्राम": 3872,
      "uction": 3873,
      "कृष": 3874,
      "गुफा": 3875,
      "होती": 3876,
      "432": 3877,
      "द्धि": 3878,
      "ঙ্ক": 3879,
      "फ़ि": 3880,
      "मोदी": 3881,
      "व्यक्ति": 3882,
      "१९९": 3883,
      "सदन": 3884,
      "बंधीय": 3885,
      "संग्राम": 3886,
      "वैदिक": 3887,
      "সামরিক": 3888,
      "धीरे": 3889,
      "वर्षों": 3890,
      "ক্তকারী": 3891,
      "अपने": 3892,
      "बैंक": 3893,
      "दोन": 3894,
      "ipura": 3895,
      "చెయ్య": 3896,
      "सैनिक": 3897,
      "ईसाई": 3898,
      "नागालैंड": 3899,
      "भूमिका": 3900,
      "গুলির": 3901,
      "कटिबंधीय": 3902,
      "గణతంత్ర": 3903,
      "లంక": 3904,
      "२०११": 3905,
      "Religion": 3906,
      "మంత్రి": 3907,
      "दिवस": 3908,
      "इस्लाम": 3909,
      "Publications": 3910,
      "कंपनी": 3911,
      "স্বাধীন": 3912,
      "मलयालम": 3913,
      "पत्ति": 3914,
      "వచ్చి": 3915,
      "मेघालय": 3916,
      "कालीन": 3917,
      "साहित्य": 3918,
      "हरियाणा": 3919,
      "సంగీతం": 3920,
      "विभाजन": 3921,
      "नेतृत्व": 3922,
      "ముంబై": 3923,
      "प्लेट": 3924,
      "గాంధీ": 3925,
      "పశ్చిమ": 3926,
      "गारो": 3927,
      "फ्रांस": 3928,
      "प्रारम्भ": 3929,
      "विद्यालय": 3930,
      "अरुणाचल": 3931,
      "Constituent": 3932,
      "7mar2011": 3933,
      "क्रांति": 3934,
      "चेंज": 3935,
      "धरोहर": 3936,
      "हथियार": 3937,
      "পর্বত": 3938,
      "শনাক্তকারী": 3939,
      "Chinese": 3940,
      "చెయ్యబడింది": 3941,
      "112": 3942,
      "114": 3943,
      "345": 3944,
      "66": 3945,
      "Cr": 3946,
      "Civ": 3947,
      "Clim": 3948,
      "Dep": 3949,
      "Himal": 3950,
      "IJ": 3951,
      "NI": 3952,
      "Pers": 3953,
      "QAAQBAJ": 3954,
      "fl": 3955,
      "han": 3956,
      "hru": 3957,
      "ii": 3958,
      "iev": 3959,
      "jo": 3960,
      "such": 3961,
      "ures": 3962,
      "ইল": 3963,
      "খে": 3964,
      "জে": 3965,
      "তন্ত্র": 3966,
      "দিল্": 3967,
      "বু": 3968,
      "মিল": 3969,
      "১৪": 3970,
      "১৬": 3971,
      "reme": 3972,
      "1980": 3973,
      "trans": 3974,
      "বিত": 3975,
      "269": 3976,
      "সাহ": 3977,
      "ung": 3978,
      "lated": 3979,
      "hael": 3980,
      "ource": 3981,
      "Row": 3982,
      "ষ্ঠ": 3983,
      "arendra": 3984,
      "ত্ব": 3985,
      "ankar": 3986,
      "ervation": 3987,
      "ন্তর্": 3988,
      "ultural": 3989,
      "Nehru": 3990,
      "Registr": 3991,
      "rule": 3992,
      "groups": 3993,
      "Michael": 3994,
      "Gujarat": 3995,
      "dispute": 3996,
      "বায়ু": 3997,
      "Civil": 3998,
      "Registrar": 3999,
      "A5": 4000,
      "Be": 4001,
      "By": 4002,
      "EC": 4003,
      "Le": 4004,
      "Main": 4005,
      "On": 4006,
      "PC": 4007,
      "RL": 4008,
      "SCO": 4009,
      "Soci": 4010,
      "Urd": 4011,
      "Vis": 4012,
      "aut": 4013,
      "bhas": 4014,
      "dd": 4015,
      "dyn": 4016,
      "global": 4017,
      "hya": 4018,
      "jor": 4019,
      "set": 4020,
      "vil": 4021,
      "vers": 4022,
      "yana": 4023,
      "কারি": 4024,
      "জো": 4025,
      "ণা": 4026,
      "শতা": 4027,
      "সূ": 4028,
      "েক্ষা": 4029,
      "১৫": 4030,
      "కం": 4031,
      "కీ": 4032,
      "జో": 4033,
      "తల": 4034,
      "తీ": 4035,
      "దార": 4036,
      "బంగ్": 4037,
      "రహ": 4038,
      "రంగ": 4039,
      "సరి": 4040,
      "tell": 4041,
      "2026": 4042,
      "alore": 4043,
      "cise": 4044,
      "omin": 4045,
      "itary": 4046,
      "nored": 4047,
      "lease": 4048,
      "etary": 4049,
      "ignored": 4050,
      "upta": 4051,
      "003": 4052,
      "ర్పు": 4053,
      "254": 4054,
      "186": 4055,
      "156": 4056,
      "elang": 4057,
      "প্রদেশ": 4058,
      "లోక్": 4059,
      "405": 4060,
      "28orthographic": 4061,
      "Spear": 4062,
      "క్క": 4063,
      "lywood": 4064,
      "সংসদ": 4065,
      "osp": 4066,
      "major": 4067,
      "త్స": 4068,
      "parame": 4069,
      "Indones": 4070,
      "search": 4071,
      "bruary": 4072,
      "స్థాన": 4073,
      "Office": 4074,
      "সরকারি": 4075,
      "উপেক্ষা": 4076,
      "constitution": 4077,
      "వ్యా": 4078,
      "లాదేశ్": 4079,
      "స్తు": 4080,
      "ఆర్కై": 4081,
      "Bihar": 4082,
      "హిందీ": 4083,
      "ంచిన": 4084,
      "মালয়": 4085,
      "మొద": 4086,
      "Bangalore": 4087,
      "పెద్ద": 4088,
      "চ্চিত্র": 4089,
      "మార్గ": 4090,
      "সঙ্গীত": 4091,
      "traditional": 4092,
      "চলচ্চিত্র": 4093,
      "মেশিন": 4094,
      "dependencies": 4095,
      "స్వాతంత్ర": 4096,
      "ymbols": 4097,
      "శ్రీలంక": 4098,
      "తూర్పు": 4099,
      "బ్రిటి": 4100,
      "February": 4101,
      "Territ": 4102,
      "Climate": 4103,
      "Urdu": 4104,
      "bhasha": 4105,
      "దారులు": 4106,
      "బంగ్లాదేశ్": 4107,
      "parameter": 4108,
      "Indonesia": 4109,
      "ఆర్కైవు": 4110,
      "019": 4111,
      "Bl": 4112,
      "Britannica": 4113,
      "Emb": 4114,
      "Gar": 4115,
      "Journal": 4116,
      "JIJ": 4117,
      "Lo": 4118,
      "Law": 4119,
      "Pa": 4120,
      "Pla": 4121,
      "Part": 4122,
      "Rev": 4123,
      "US": 4124,
      "Vu": 4125,
      "Zva": 4126,
      "aJIJ": 4127,
      "cture": 4128,
      "diff": 4129,
      "ere": 4130,
      "fun": 4131,
      "ges": 4132,
      "jpe": 4133,
      "paper": 4134,
      "sim": 4135,
      "way": 4136,
      "yayan": 4137,
      "अब": 4138,
      "अंड": 4139,
      "अमी": 4140,
      "अफ़": 4141,
      "अतुल": 4142,
      "अशो": 4143,
      "अहम": 4144,
      "आदि": 4145,
      "आंद": 4146,
      "आपात": 4147,
      "ईद": 4148,
      "उद": 4149,
      "ऍथ": 4150,
      "ऑपर": 4151,
      "कणी": 4152,
      "ख़": 4153,
      "गध": 4154,
      "चन": 4155,
      "चोल": 4156,
      "जपा": 4157,
      "जपुरी": 4158,
      "डे": 4159,
      "डाल": 4160,
      "थाली": 4161,
      "धन": 4162,
      "धि": 4163,
      "धिकार": 4164,
      "नई": 4165,
      "नान": 4166,
      "नरे": 4167,
      "नोल": 4168,
      "नन्दा": 4169,
      "पद": 4170,
      "पीय": 4171,
      "पहु": 4172,
      "बने": 4173,
      "बड़ा": 4174,
      "ब्यू": 4175,
      "मगध": 4176,
      "यन": 4177,
      "यान": 4178,
      "यपुर": 4179,
      "लखन": 4180,
      "शत": 4181,
      "शै": 4182,
      "षण": 4183,
      "सश": 4184,
      "ूबर": 4185,
      "ॉग": 4186,
      "ोला": 4187,
      "५७": 4188,
      "্মী": 4189,
      "tered": 4190,
      "ारजि": 4191,
      "केश": 4192,
      "रात": 4193,
      "राम": 4194,
      "20150": 4195,
      "स्क": 4196,
      "स्थि": 4197,
      "कांक": 4198,
      "ould": 4199,
      "য়ী": 4200,
      "ooperation": 4201,
      "प्रस": 4202,
      "inger": 4203,
      "lock": 4204,
      "amp": 4205,
      "102": 4206,
      "क्षण": 4207,
      "संथाली": 4208,
      "urn": 4209,
      "ताल": 4210,
      "भाष": 4211,
      "भाजपा": 4212,
      "परंप": 4213,
      "total": 4214,
      "कोरिया": 4215,
      "134": 4216,
      "ष्ठ": 4217,
      "146": 4218,
      "सूर": 4219,
      "वाला": 4220,
      "भाषाएं": 4221,
      "थाईल": 4222,
      "4020": 4223,
      "करना": 4224,
      "करता": 4225,
      "किला": 4226,
      "निभाई": 4227,
      "242": 4228,
      "जनता": 4229,
      "मुम्": 4230,
      "लिपि": 4231,
      "টিশ": 4232,
      "मील": 4233,
      "abad": 4234,
      "वर्त": 4235,
      "ार्कटि": 4236,
      "itecture": 4237,
      "भिन्न": 4238,
      "द्वि": 4239,
      "জাতি": 4240,
      "িত্য": 4241,
      "লাই": 4242,
      "महान": 4243,
      "महारजि": 4244,
      "ainting": 4245,
      "own": 4246,
      "issile": 4247,
      "लोर": 4248,
      "दाख": 4249,
      "रुप": 4250,
      "Mahal": 4251,
      "भूटान": 4252,
      "अधिकार": 4253,
      "सूचकांक": 4254,
      "उपराष्ट्रपति": 4255,
      "यूरो": 4256,
      "Islam": 4257,
      "सुधार": 4258,
      "द्वीपसमूह": 4259,
      "सदस": 4260,
      "timesofindia": 4261,
      "स्टॉक": 4262,
      "आईएस": 4263,
      "achal": 4264,
      "athak": 4265,
      "कश्मीरी": 4266,
      "GuaJIJ": 4267,
      "न्यायाधी": 4268,
      "rown": 4269,
      "जयपुर": 4270,
      "ultan": 4271,
      "मलेशिया": 4272,
      "प्रतिशत": 4273,
      "Malay": 4274,
      "Maldiv": 4275,
      "कार्यपालिका": 4276,
      "bbc": 4277,
      "Agni": 4278,
      "atsyayan": 4279,
      "োলন": 4280,
      "भोजपुरी": 4281,
      "शुरू": 4282,
      "icket": 4283,
      "कन्नड़": 4284,
      "मणिपुर": 4285,
      "मणिपुरी": 4286,
      "সংখ্যা": 4287,
      "goC": 4288,
      "ओड़िया": 4289,
      "Organisation": 4290,
      "কাশ্মী": 4291,
      "Puran": 4292,
      "न्हें": 4293,
      "विजयनगर": 4294,
      "আন্দোলন": 4295,
      "वृद्धि": 4296,
      "मिज़ोरम": 4297,
      "अधिराज्य": 4298,
      "कोंकणी": 4299,
      "व्यापार": 4300,
      "मैथिली": 4301,
      "लक्षद्वीप": 4302,
      "अमेरिका": 4303,
      "ইংরেজি": 4304,
      "स्ट्रार": 4305,
      "कृषि": 4306,
      "गुफाएं": 4307,
      "दोनों": 4308,
      "সাহিত্য": 4309,
      "ZvaGuaJIJ": 4310,
      "jpeg": 4311,
      "अंडमान": 4312,
      "अमीरात": 4313,
      "अतुल्य": 4314,
      "अशोक": 4315,
      "आंदोलन": 4316,
      "आपातकाल": 4317,
      "ऍथनोल": 4318,
      "ऑपरेशन": 4319,
      "डालर": 4320,
      "ब्यूरो": 4321,
      "लखनऊ": 4322,
      "परंपरा": 4323,
      "मुम्बई": 4324,
      "ार्कटिका": 4325,
      "महारजिस्ट्रार": 4326,
      "न्यायाधीश": 4327,
      "Maldives": 4328,
      "ZvaGuaJIJgoC": 4329,
      "ऍथनोलॉग": 4330,
      "545": 4331,
      "Aks": 4332,
      "BE": 4333,
      "Moh": 4334,
      "Myan": 4335,
      "Monsoon": 4336,
      "Muslim": 4337,
      "Po": 4338,
      "Pan": 4339,
      "Sup": 4340,
      "ZVu": 4341,
      "billion": 4342,
      "ij": 4343,
      "ker": 4344,
      "kZVu": 4345,
      "long": 4346,
      "lord": 4347,
      "non": 4348,
      "nan": 4349,
      "pre": 4350,
      "painting": 4351,
      "sug": 4352,
      "social": 4353,
      "tree": 4354,
      "vatsyayan": 4355,
      "western": 4356,
      "উদ": 4357,
      "কর্": 4358,
      "গত": 4359,
      "ফুট": 4360,
      "বেশ": 4361,
      "বঙ্গ": 4362,
      "রু": 4363,
      "১৮": 4364,
      "ఇతర": 4365,
      "గల": 4366,
      "టీ": 4367,
      "టాన్": 4368,
      "పద": 4369,
      "పీ": 4370,
      "పట్ట": 4371,
      "బీ": 4372,
      "రణ": 4373,
      "వల": 4374,
      "reign": 4375,
      "tition": 4376,
      "ergy": 4377,
      "aries": 4378,
      "ani": 4379,
      "they": 4380,
      "anda": 4381,
      "్రె": 4382,
      "chi": 4383,
      "acts": 4384,
      "among": 4385,
      "webcitation": 4386,
      "స్వ": 4387,
      "ollywood": 4388,
      "বিক": 4389,
      "0000": 4390,
      "raj": 4391,
      "ulti": 4392,
      "144": 4393,
      "153": 4394,
      "160": 4395,
      "ప్రత్య": 4396,
      "170": 4397,
      "Inf": 4398,
      "akrish": 4399,
      "287": 4400,
      "বাস": 4401,
      "ముఖ్య": 4402,
      "సిని": 4403,
      "తావర": 4404,
      "నాడు": 4405,
      "profile": 4406,
      "వాతావర": 4407,
      "early": 4408,
      "1967": 4409,
      "titute": 4410,
      "artment": 4411,
      "relid": 4412,
      "Thomas": 4413,
      "formation": 4414,
      "ణాసియా": 4415,
      "Americ": 4416,
      "కాలం": 4417,
      "প্রাচীন": 4418,
      "actbook": 4419,
      "టెడ్": 4420,
      "ప్రధానమంత్రి": 4421,
      "Country": 4422,
      "সংস্কৃতি": 4423,
      "Centre2005": 4424,
      "రైలు": 4425,
      "పంజా": 4426,
      "Encyclopedia": 4427,
      "ఆఫ్ఘ": 4428,
      "భూటాన్": 4429,
      "code": 4430,
      "NCL": 4431,
      "ব্রিটিশ": 4432,
      "মন্ত্রী": 4433,
      "Christ": 4434,
      "Golden": 4435,
      "నేపాల్": 4436,
      "November": 4437,
      "రహదారులు": 4438,
      "Myanmar": 4439,
      "kZVuDwAAQBAJ": 4440,
      "ফুটবল": 4441,
      "akrishnan": 4442,
      "వాతావరణం": 4443,
      "2nd": 4444,
      "Bas": 4445,
      "Car": 4446,
      "Cooperation": 4447,
      "Fin": 4448,
      "Foreign": 4449,
      "Gre": 4450,
      "Games": 4451,
      "IU": 4452,
      "Mac": 4453,
      "SI": 4454,
      "Wildlife": 4455,
      "You": 4456,
      "bl": 4457,
      "bed": 4458,
      "direct": 4459,
      "gre": 4460,
      "his": 4461,
      "house": 4462,
      "ject": 4463,
      "ling": 4464,
      "library": 4465,
      "my": 4466,
      "monsoon": 4467,
      "ric": 4468,
      "sa": 4469,
      "sing": 4470,
      "some": 4471,
      "sector": 4472,
      "জার্": 4473,
      "তম": 4474,
      "ধারণ": 4475,
      "reed": 4476,
      "ert": 4477,
      "ancient": 4478,
      "cis": 4479,
      "ison": 4480,
      "20190": 4481,
      "য়ারি": 4482,
      "trib": 4483,
      "loc": 4484,
      "145": 4485,
      "independ": 4486,
      "সাগর": 4487,
      "ell": 4488,
      "238": 4489,
      "243": 4490,
      "हिन्दु": 4491,
      "ose": 4492,
      "aver": 4493,
      "জাতিক": 4494,
      "worldbank": 4495,
      "Maur": 4496,
      "Commonwealth": 4497,
      "ড়া": 4498,
      "Front": 4499,
      "Program": 4500,
      "place": 4501,
      "ynth": 4502,
      "authority": 4503,
      "পূর্": 4504,
      "লোক": 4505,
      "বৃহ": 4506,
      "Buddhism": 4507,
      "Craven1997": 4508,
      "Nepal": 4509,
      "Jammu": 4510,
      "teenth": 4511,
      "ক্ষেত্র": 4512,
      "Rowland": 4513,
      "Territory": 4514,
      "IUCN": 4515,
      "Bib": 4516,
      "Bef": 4517,
      "Cor": 4518,
      "Date": 4519,
      "Kon": 4520,
      "Kingdom": 4521,
      "Lond": 4522,
      "Mang": 4523,
      "Mil": 4524,
      "M50th": 4525,
      "Non": 4526,
      "Policy": 4527,
      "Red": 4528,
      "Rig": 4529,
      "Suk": 4530,
      "Social": 4531,
      "Western": 4532,
      "dia": 4533,
      "ey": 4534,
      "famil": 4535,
      "found": 4536,
      "gi": 4537,
      "kar": 4538,
      "mal": 4539,
      "movement": 4540,
      "port": 4541,
      "sis": 4542,
      "tb": 4543,
      "utra": 4544,
      "var": 4545,
      "yam": 4546,
      "ँकि": 4547,
      "ंबर": 4548,
      "अर्": 4549,
      "आइ": 4550,
      "इसी": 4551,
      "ईस्ट": 4552,
      "ऋतु": 4553,
      "एम": 4554,
      "ऑफ": 4555,
      "ओडि": 4556,
      "गए": 4557,
      "ग्र": 4558,
      "ग्री": 4559,
      "चाल": 4560,
      "जै": 4561,
      "जान": 4562,
      "डॉल": 4563,
      "तग": 4564,
      "थल": 4565,
      "दार": 4566,
      "पक्ष": 4567,
      "फि": 4568,
      "बू": 4569,
      "बहा": 4570,
      "बनी": 4571,
      "बड़ी": 4572,
      "मंड": 4573,
      "सक": 4574,
      "सल्": 4575,
      "हॉ": 4576,
      "हवे": 4577,
      "ुक": 4578,
      "२६": 4579,
      "আদ": 4580,
      "জল": 4581,
      "জু": 4582,
      "টোবর": 4583,
      "বস": 4584,
      "ভর": 4585,
      "ল্": 4586,
      "সার্": 4587,
      "সফোর্": 4588,
      "ীতি": 4589,
      "ূল": 4590,
      "అతి": 4591,
      "అయి": 4592,
      "అత్య": 4593,
      "ఇన్": 4594,
      "ఇరా": 4595,
      "ఒడి": 4596,
      "కీయ": 4597,
      "గలు": 4598,
      "జె": 4599,
      "జరా": 4600,
      "నాల": 4601,
      "భుత్": 4602,
      "మాల": 4603,
      "మన్": 4604,
      "లలో": 4605,
      "లకు": 4606,
      "లక్ష": 4607,
      "వై": 4608,
      "శతా": 4609,
      "సె": 4610,
      "ియా": 4611,
      "ేక": 4612,
      "ora": 4613,
      "ery": 4614,
      "tions": 4615,
      "केट": 4616,
      "र्तग": 4617,
      "स्ता": 4618,
      "कांग्रेस": 4619,
      "য়ন": 4620,
      "प्रभा": 4621,
      "प्रकार": 4622,
      "प्रशासन": 4623,
      "प्रवेश": 4624,
      "वित": 4625,
      "wikidata": 4626,
      "राजभाषा": 4627,
      "लावा": 4628,
      "साइ": 4629,
      "सामाज": 4630,
      "ece": 4631,
      "ियां": 4632,
      "पुर्तग": 4633,
      "దేశంలో": 4634,
      "বিচার": 4635,
      "नेट": 4636,
      "त्त": 4637,
      "137": 4638,
      "255": 4639,
      "माध्य": 4640,
      "149": 4641,
      "सिन्ध": 4642,
      "স্তা": 4643,
      "152": 4644,
      "ప్రభుత్": 4645,
      "जाते": 4646,
      "पांड": 4647,
      "agar": 4648,
      "1991": 4649,
      "दियों": 4650,
      "unknown": 4651,
      "किन्तु": 4652,
      "निवेश": 4653,
      "hav": 4654,
      "నిక": 4655,
      "Chhat": 4656,
      "সংঘ": 4657,
      "ంగ్రె": 4658,
      "मानक": 4659,
      "main": 4660,
      "তামিল": 4661,
      "త్వ": 4662,
      "अभियान": 4663,
      "8012": 4664,
      "asty": 4665,
      "beach": 4666,
      "गुट": 4667,
      "गणतंत्र": 4668,
      "పూర్": 4669,
      "২০০৯": 4670,
      "కాంగ్రె": 4671,
      "দেশের": 4672,
      "worldcat": 4673,
      "दादरा": 4674,
      "मोहन": 4675,
      "384": 4676,
      "१९४": 4677,
      "పాలన": 4678,
      "సామ్రాజ్య": 4679,
      "सितंबर": 4680,
      "न्याय": 4681,
      "newsite": 4682,
      "जिसके": 4683,
      "উপক": 4684,
      "గుజరా": 4685,
      "शील": 4686,
      "రాజకీయ": 4687,
      "Minister": 4688,
      "কিন": 4689,
      "क्रि": 4690,
      "कर्ज": 4691,
      "qual": 4692,
      "নেপাল": 4693,
      "अपनी": 4694,
      "श्रीनगर": 4695,
      "large": 4696,
      "ghan": 4697,
      "శాస్త్రం": 4698,
      "ంచింది": 4699,
      "వర్గం": 4700,
      "হিন্দি": 4701,
      "मौसम": 4702,
      "१८५७": 4703,
      "బెంగాల్": 4704,
      "तुलना": 4705,
      "తమిళనాడు": 4706,
      "অক্টোবর": 4707,
      "অক্সফোর্": 4708,
      "Schwartzberg2023": 4709,
      "Afghan": 4710,
      "DikshitSchwartzberg2023": 4711,
      "राजधानी": 4712,
      "growth": 4713,
      "जबकि": 4714,
      "रहे": 4715,
      "विषय": 4716,
      "विदेशी": 4717,
      "Group": 4718,
      "Australia": 4719,
      "সালের": 4720,
      "istorical": 4721,
      "गठबंधन": 4722,
      "মার্কিন": 4723,
      "సముద్ర": 4724,
      "घोष": 4725,
      "सहयोग": 4726,
      "ोत्तर": 4727,
      "हालाँकि": 4728,
      "স্বাধীনতা": 4729,
      "দিল্লি": 4730,
      "dynasty": 4731,
      "Emblem": 4732,
      "पहुँच": 4733,
      "स्थिति": 4734,
      "वर्तमान": 4735,
      "यूरोपीय": 4736,
      "ప్రత్యేక": 4737,
      "NCLM50th": 4738,
      "Before": 4739,
      "London": 4740,
      "डॉलर": 4741,
      "मंडल": 4742,
      "सल्तन": 4743,
      "हॉकी": 4744,
      "हवेली": 4745,
      "శతాబ్": 4746,
      "सामाजिक": 4747,
      "सिन्धु": 4748,
      "Chhattis": 4749,
      "অক্সফোর্ড": 4750,
      "NCLM50thReport": 4751,
      "026": 4752,
      "400": 4753,
      "AD": 4754,
      "Ca": 4755,
      "Culture": 4756,
      "Em": 4757,
      "Fed": 4758,
      "Her": 4759,
      "Jha": 4760,
      "Krish": 4761,
      "LC": 4762,
      "LO": 4763,
      "Ph": 4764,
      "Per": 4765,
      "Ra": 4766,
      "Sa": 4767,
      "Tot": 4768,
      "Vol": 4769,
      "bi": 4770,
      "car": 4771,
      "dra": 4772,
      "ful": 4773,
      "high": 4774,
      "list": 4775,
      "pub": 4776,
      "press": 4777,
      "river": 4778,
      "খ্রি": 4779,
      "গো": 4780,
      "গোল": 4781,
      "ণ্": 4782,
      "নভে": 4783,
      "ভৌ": 4784,
      "মৌ": 4785,
      "শীল": 4786,
      "হার": 4787,
      "২৩": 4788,
      "nder": 4789,
      "iam": 4790,
      "technology": 4791,
      "tice": 4792,
      "205": 4793,
      "208": 4794,
      "ortheast": 4795,
      "ancy": 4796,
      "education": 4797,
      "isc": 4798,
      "there": 4799,
      "astr": 4800,
      "atan": 4801,
      "well": 4802,
      "101": 4803,
      "urton": 4804,
      "ন্ট": 4805,
      "ক্স": 4806,
      "CIA": 4807,
      "force": 4808,
      "174": 4809,
      "261": 4810,
      "সাই": 4811,
      "প্রস্তা": 4812,
      "road": 4813,
      "shall": 4814,
      "PA48": 4815,
      "প্ত": 4816,
      "ineering": 4817,
      "Mach": 4818,
      "তেল": 4819,
      "অন্যান": 4820,
      "talk": 4821,
      "স্থান": 4822,
      "Democ": 4823,
      "বিশ্বের": 4824,
      "annual": 4825,
      "akhand": 4826,
      "Plateau": 4827,
      "development": 4828,
      "capita": 4829,
      "cript": 4830,
      "Wolpert2003": 4831,
      "Uttarakhand": 4832,
      "olkata": 4833,
      "catalogue": 4834,
      "ক্ষমতা": 4835,
      "PetragliaAllchin": 4836,
      "Society": 4837,
      "Afghanistan": 4838,
      "ণ্ড": 4839,
      "অন্যান্য": 4840,
      "212": 4841,
      "350": 4842,
      "412": 4843,
      "Ak": 4844,
      "Can": 4845,
      "Di": 4846,
      "Dal": 4847,
      "Dance": 4848,
      "Gil": 4849,
      "Middle": 4850,
      "Navy": 4851,
      "Of": 4852,
      "PK": 4853,
      "Paper": 4854,
      "Sang": 4855,
      "hdr": 4856,
      "lu": 4857,
      "nar": 4858,
      "nom": 4859,
      "ncb": 4860,
      "nlm": 4861,
      "racy": 4862,
      "ringer": 4863,
      "ser": 4864,
      "yal": 4865,
      "আয়": 4866,
      "আন্তর্": 4867,
      "কং": 4868,
      "ছিল": 4869,
      "ডিয়া": 4870,
      "তু": 4871,
      "ীকরণ": 4872,
      "ুষ": 4873,
      "৯৭": 4874,
      "ఆగ": 4875,
      "ఇండి": 4876,
      "గఢ": 4877,
      "గంగా": 4878,
      "చర్": 4879,
      "పట": 4880,
      "పార్": 4881,
      "బహ": 4882,
      "బౌ": 4883,
      "మల": 4884,
      "మౌ": 4885,
      "లను": 4886,
      "ళు": 4887,
      "షన్": 4888,
      "సమ": 4889,
      "సూ": 4890,
      "araj": 4891,
      "anag": 4892,
      "alli": 4893,
      "thehind": 4894,
      "20170": 4895,
      "ives": 4896,
      "trial": 4897,
      "trod": 4898,
      "access": 4899,
      "1000": 4900,
      "1016": 4901,
      "ాలీ": 4902,
      "links": 4903,
      "linkid": 4904,
      "ility": 4905,
      "ets": 4906,
      "ette": 4907,
      "igence": 4908,
      "olution": 4909,
      "131": 4910,
      "151": 4911,
      "లుగు": 4912,
      "260": 4913,
      "els": 4914,
      "ago": 4915,
      "282": 4916,
      "Springer": 4917,
      "apan": 4918,
      "সংস্থা": 4919,
      "সংবিধান": 4920,
      "ables": 4921,
      "విస్త": 4922,
      "harm": 4923,
      "వాణా": 4924,
      "ికి": 4925,
      "Standard": 4926,
      "1961": 4927,
      "পরমাণ": 4928,
      "পাদ": 4929,
      "আইন": 4930,
      "creas": 4931,
      "Ancient": 4932,
      "order": 4933,
      "সিন্ধ": 4934,
      "ডিএফ": 4935,
      "IND": 4936,
      "nih": 4937,
      "Devanag": 4938,
      "স্থাপ": 4939,
      "Amrit": 4940,
      "దక్షిణాసియా": 4941,
      "ত্তম": 4942,
      "কেন্দ্রীয়": 4943,
      "অর্থনীতি": 4944,
      "ద్ధం": 4945,
      "ద్ధి": 4946,
      "See": 4947,
      "ological": 4948,
      "యునై": 4949,
      "authorities": 4950,
      "ష్ణ": 4951,
      "ization": 4952,
      "Politics": 4953,
      "overeign": 4954,
      "শিক্ষা": 4955,
      "Environmental": 4956,
      "బెంగాలీ": 4957,
      "control": 4958,
      "month": 4959,
      "కాశ్మీరు": 4960,
      "second": 4961,
      "recog": 4962,
      "Jainism": 4963,
      "సమాఖ్య": 4964,
      "telligence": 4965,
      "Spear1990": 4966,
      "reedom": 4967,
      "हिन्दुस्तान": 4968,
      "Programme": 4969,
      "বৃহত্তম": 4970,
      "శతాబ్దం": 4971,
      "নভেম্বর": 4972,
      "ncbi": 4973,
      "আন্তর্জাতিক": 4974,
      "గఢ్": 4975,
      "బౌద్ధ": 4976,
      "পরমাণু": 4977,
      "Devanagari": 4978,
      "యునైటెడ్": 4979,
      "353": 4980,
      "349": 4981,
      "Agency": 4982,
      "ES": 4983,
      "Egy": 4984,
      "Fa": 4985,
      "Kal": 4986,
      "Missile": 4987,
      "Narendra": 4988,
      "Sr": 4989,
      "Sal": 4990,
      "Sab": 4991,
      "both": 4992,
      "dem": 4993,
      "eb": 4994,
      "forest": 4995,
      "ix": 4996,
      "min": 4997,
      "made": 4998,
      "nuclear": 4999,
      "rise": 5000,
      "sm": 5001,
      "utral": 5002,
      "wat": 5003,
      "women": 5004,
      "ंजन": 5005,
      "अभी": 5006,
      "आर्": 5007,
      "आकार": 5008,
      "आर्य": 5009,
      "इजरा": 5010,
      "इटे": 5011,
      "उस": 5012,
      "उद्योग": 5013,
      "उड़ी": 5014,
      "कह": 5015,
      "खि": 5016,
      "ग्": 5017,
      "चला": 5018,
      "णार्": 5019,
      "थम": 5020,
      "धिक": 5021,
      "नदिया": 5022,
      "फै": 5023,
      "मक": 5024,
      "म्य": 5025,
      "रख": 5026,
      "वर": 5027,
      "शे": 5028,
      "शेष": 5029,
      "शाली": 5030,
      "षिक": 5031,
      "सों": 5032,
      "समा": 5033,
      "िशा": 5034,
      "ूल": 5035,
      "ेरी": 5036,
      "५०": 5037,
      "অধ": 5038,
      "আফ": 5039,
      "ইস": 5040,
      "গঠ": 5041,
      "চি": 5042,
      "জয়": 5043,
      "টান": 5044,
      "তথ": 5045,
      "পো": 5046,
      "ফে": 5047,
      "লার": 5048,
      "সহ": 5049,
      "সর্ব": 5050,
      "২২": 5051,
      "only": 5052,
      "ret": 5053,
      "स्लि": 5054,
      "स्चेंज": 5055,
      "काश": 5056,
      "lev": 5057,
      "क्स": 5058,
      "lack": 5059,
      "प्रथम": 5060,
      "compos": 5061,
      "विवाद": 5062,
      "विभिन्न": 5063,
      "1017": 5064,
      "umeration": 5065,
      "नागर": 5066,
      "नाइटे": 5067,
      "संरक्ष": 5068,
      "लाख": 5069,
      "urban": 5070,
      "ंगडम": 5071,
      "বিভাগ": 5072,
      "कोणार्": 5073,
      "त्ता": 5074,
      "माता": 5075,
      "हिल्स": 5076,
      "standard": 5077,
      "স্ট্র": 5078,
      "सूर्य": 5079,
      "163": 5080,
      "वाँ": 5081,
      "সাধারণ": 5082,
      "Information": 5083,
      "agric": 5084,
      "समान": 5085,
      "িকী": 5086,
      "किंगडम": 5087,
      "्याचल": 5088,
      "लेकर": 5089,
      "Chief": 5090,
      "तीर्थ": 5091,
      "मुस्लि": 5092,
      "সংরক্ষণ": 5093,
      "मीडिया": 5094,
      "मान्य": 5095,
      "দ্ধি": 5096,
      "वर्ती": 5097,
      "वर्ल्": 5098,
      "वर्तन": 5099,
      "good": 5100,
      "Aryan": 5101,
      "भील": 5102,
      "udi": 5103,
      "पुराण": 5104,
      "লেখ": 5105,
      "905": 5106,
      "ंत्रिक": 5107,
      "ম্প": 5108,
      "मूल्य": 5109,
      "ंदर": 5110,
      "टियों": 5111,
      "पूर्वोत्तर": 5112,
      "ঙ্কা": 5113,
      "विश्वविद्यालय": 5114,
      "Profile": 5115,
      "संघीय": 5116,
      "संस्था": 5117,
      "मोर": 5118,
      "१९७": 5119,
      "१९८": 5120,
      "यूनाइटे": 5121,
      "तटवर्ती": 5122,
      "Thir": 5123,
      "Short": 5124,
      "পিডিএফ": 5125,
      "खासी": 5126,
      "regions": 5127,
      "Assoc": 5128,
      "Trade": 5129,
      "बहुमत": 5130,
      "बहुमूल्य": 5131,
      "तिहासिक": 5132,
      "religious": 5133,
      "मंत्रि": 5134,
      "Park": 5135,
      "ography": 5136,
      "चेरी": 5137,
      "अपना": 5138,
      "Coningham": 5139,
      "तीसरी": 5140,
      "Neutral": 5141,
      "Prote": 5142,
      "Marath": 5143,
      "वार्षिक": 5144,
      "ক্রিকে": 5145,
      "notation": 5146,
      "Region": 5147,
      "Congress2004": 5148,
      "परिष": 5149,
      "दर्शन": 5150,
      "numbers": 5151,
      "दृष्": 5152,
      "Karnat": 5153,
      "Karanth": 5154,
      "ओड़िशा": 5155,
      "শ্রীল": 5156,
      "political": 5157,
      "PMID": 5158,
      "মার্চ": 5159,
      "Vedic": 5160,
      "सहायक": 5161,
      "sites": 5162,
      "विस्तृत": 5163,
      "परीक्षण": 5164,
      "liest": 5165,
      "उष्णकटिबंधीय": 5166,
      "एक्स्चेंज": 5167,
      "कानून": 5168,
      "रत्न": 5169,
      "34549": 5170,
      "ieval": 5171,
      "नरेन्द्र": 5172,
      "द्वितीय": 5173,
      "কাশ্মীর": 5174,
      "Aksai": 5175,
      "Young": 5176,
      "न्यायपालिका": 5177,
      "सल्तनत": 5178,
      "02649": 5179,
      "Krishna": 5180,
      "nominal": 5181,
      "Amritsar": 5182,
      "Egypt": 5183,
      "उड़ीसा": 5184,
      "তথ্য": 5185,
      "कोणार्क": 5186,
      "मुस्लिम": 5187,
      "वर्ल्ड": 5188,
      "यूनाइटेड": 5189,
      "Karnataka": 5190,
      "শ্রীলঙ্কা": 5191,
      "3166": 5192,
      "G8": 5193,
      "HD": 5194,
      "Him": 5195,
      "High": 5196,
      "Japan": 5197,
      "Ku": 5198,
      "Kumar": 5199,
      "Kathak": 5200,
      "Kolkata": 5201,
      "Nic": 5202,
      "Tha": 5203,
      "Tib": 5204,
      "Witz": 5205,
      "band": 5206,
      "ced": 5207,
      "den": 5208,
      "fore": 5209,
      "gir": 5210,
      "hl": 5211,
      "hum": 5212,
      "ie": 5213,
      "kim": 5214,
      "nu": 5215,
      "pil": 5216,
      "pop": 5217,
      "policy": 5218,
      "sk": 5219,
      "symbols": 5220,
      "ym": 5221,
      "ইন্দ": 5222,
      "কৃ": 5223,
      "বার": 5224,
      "বন্ধ": 5225,
      "ভ্য": 5226,
      "মহ": 5227,
      "হয়ে": 5228,
      "అస్": 5229,
      "అరు": 5230,
      "ఇస్": 5231,
      "ఇది": 5232,
      "ఇంగ్": 5233,
      "కన్న": 5234,
      "కలి": 5235,
      "కరణ": 5236,
      "ఖండ": 5237,
      "గ్ర": 5238,
      "చా": 5239,
      "డీ": 5240,
      "డే": 5241,
      "తరా": 5242,
      "తులు": 5243,
      "ద్య": 5244,
      "ద్రా": 5245,
      "పండు": 5246,
      "బాం": 5247,
      "బడ్": 5248,
      "మాల్": 5249,
      "రవాణా": 5250,
      "ళ్": 5251,
      "సార": 5252,
      "ానికి": 5253,
      "increas": 5254,
      "though": 5255,
      "oro": 5256,
      "estic": 5257,
      "1975": 5258,
      "ources": 5259,
      "trative": 5260,
      "ament": 5261,
      "্যাল": 5262,
      "ాలో": 5263,
      "ura": 5264,
      "FOOTNOTENational": 5265,
      "FOOTNOTEHarle": 5266,
      "FOOTNOTESpear1990": 5267,
      "olia": 5268,
      "rest": 5269,
      "aten": 5270,
      "న్స్": 5271,
      "ema": 5272,
      "emale": 5273,
      "style": 5274,
      "150": 5275,
      "ప్రదా": 5276,
      "173": 5277,
      "CITEREFStein2010": 5278,
      "Intelligence": 5279,
      "1993": 5280,
      "406": 5281,
      "িকি": 5282,
      "erry": 5283,
      "రికత": 5284,
      "క్నాల": 5285,
      "Chola": 5286,
      "ండర్": 5287,
      "సిక్కు": 5288,
      "విశ్": 5289,
      "prime": 5290,
      "bert": 5291,
      "began": 5292,
      "িয়ার": 5293,
      "therine": 5294,
      "438": 5295,
      "ద్వీ": 5296,
      "ৃত্য": 5297,
      "জন্য": 5298,
      "দেশে": 5299,
      "Asher2006": 5300,
      "AsherAsher2006": 5301,
      "Education": 5302,
      "హిమాల": 5303,
      "Conservation": 5304,
      "atis": 5305,
      "ంటు": 5306,
      "భారతదేశంలోని": 5307,
      "చ్చే": 5308,
      "ectancy": 5309,
      "వేద": 5310,
      "Bengali": 5311,
      "বর্ত": 5312,
      "Bhut": 5313,
      "Sikkim": 5314,
      "ర్యా": 5315,
      "orests": 5316,
      "ఉత్తరా": 5317,
      "టెక్నాల": 5318,
      "isional": 5319,
      "expectancy": 5320,
      "milk": 5321,
      "నాగరికత": 5322,
      "যুক্তরাষ্ট্র": 5323,
      "తెలుగు": 5324,
      "నగర": 5325,
      "సింధు": 5326,
      "viol": 5327,
      "documents": 5328,
      "addition": 5329,
      "rupee": 5330,
      "ইন্ডিয়া": 5331,
      "క్రీడలు": 5332,
      "వచ్చింది": 5333,
      "Department": 5334,
      "শতাংশ": 5335,
      "సరిహ": 5336,
      "స్వాతంత్ర్య": 5337,
      "ultanate": 5338,
      "సినిమా": 5339,
      "ఆఫ్ఘనిస్తాన్": 5340,
      "Catherine": 5341,
      "చర్చ": 5342,
      "ళుక్య": 5343,
      "Sabha": 5344,
      "ক্রিকেট": 5345,
      "Himachal": 5346,
      "Tibet": 5347,
      "Witzel": 5348,
      "కన్నడ": 5349,
      "చాళుక్య": 5350,
      "మాల్దీవులు": 5351,
      "టెక్నాలజీ": 5352,
      "220": 5353,
      "210": 5354,
      "213": 5355,
      "313": 5356,
      "600": 5357,
      "AG": 5358,
      "Ber": 5359,
      "Bah": 5360,
      "Cop": 5361,
      "Cynth": 5362,
      "Drav": 5363,
      "Gree": 5364,
      "Gupta": 5365,
      "IB": 5366,
      "La": 5367,
      "Laksh": 5368,
      "Music": 5369,
      "Multi": 5370,
      "Op": 5371,
      "SN": 5372,
      "TO": 5373,
      "Tay": 5374,
      "Way": 5375,
      "bri": 5376,
      "cul": 5377,
      "cast": 5378,
      "dat": 5379,
      "fa": 5380,
      "lor": 5381,
      "ning": 5382,
      "ped": 5383,
      "public": 5384,
      "pact": 5385,
      "ram": 5386,
      "উই": 5387,
      "জান": 5388,
      "জরা": 5389,
      "তৃ": 5390,
      "নৃত্য": 5391,
      "সমা": 5392,
      "third": 5393,
      "orama": 5394,
      "ala": 5395,
      "cip": 5396,
      "htra": 5397,
      "ashtra": 5398,
      "icts": 5399,
      "1987": 5400,
      "1951": 5401,
      "idian": 5402,
      "adwe": 5403,
      "atar": 5404,
      "ating": 5405,
      "ume": 5406,
      "find": 5407,
      "বিষ": 5408,
      "stan": 5409,
      "180": 5410,
      "Indians": 5411,
      "CITEREFAsherTalbot2008": 5412,
      "263": 5413,
      "প্রতী": 5414,
      "aputra": 5415,
      "305": 5416,
      "about": 5417,
      "mathematics": 5418,
      "ভাবে": 5419,
      "ountain": 5420,
      "occ": 5421,
      "ockey": 5422,
      "338": 5423,
      "lands": 5424,
      "1964": 5425,
      "Prime": 5426,
      "grim": 5427,
      "ড়ি": 5428,
      "Shankar": 5429,
      "Time": 5430,
      "overty": 5431,
      "Concise": 5432,
      "domestic": 5433,
      "Industrial": 5434,
      "Search": 5435,
      "knowindia": 5436,
      "Century": 5437,
      "Coast": 5438,
      "lowing": 5439,
      "minister": 5440,
      "মালা": 5441,
      "awa": 5442,
      "Exchange": 5443,
      "সঙ্গে": 5444,
      "ethnologue": 5445,
      "Organization": 5446,
      "Barb": 5447,
      "Monetary": 5448,
      "Meg": 5449,
      "Buddhist": 5450,
      "PMC": 5451,
      "Madhya": 5452,
      "literature": 5453,
      "Quote": 5454,
      "বহু": 5455,
      "administered": 5456,
      "Brahmaputra": 5457,
      "Provisional": 5458,
      "eastern": 5459,
      "veda": 5460,
      "জোট": 5461,
      "Supreme": 5462,
      "suggest": 5463,
      "quality": 5464,
      "Totals": 5465,
      "প্রস্তাবিত": 5466,
      "কংগ্র": 5467,
      "সিন্ধু": 5468,
      "pilgrim": 5469,
      "amental": 5470,
      "Copland": 5471,
      "Cynthia": 5472,
      "Dravidian": 5473,
      "Lakshadwe": 5474,
      "Taylor": 5475,
      "প্রতীক": 5476,
      "Lakshadweep": 5477,
      "050": 5478,
      "447": 5479,
      "5196": 5480,
      "613": 5481,
      "7C": 5482,
      "Ahm": 5483,
      "Cav": 5484,
      "Def": 5485,
      "Id": 5486,
      "KI": 5487,
      "MD": 5488,
      "Map": 5489,
      "MKI": 5490,
      "PNG": 5491,
      "Su": 5492,
      "UT": 5493,
      "Upp": 5494,
      "URL": 5495,
      "Va": 5496,
      "Women": 5497,
      "ault": 5498,
      "base": 5499,
      "cia": 5500,
      "cted": 5501,
      "cord": 5502,
      "east": 5503,
      "far": 5504,
      "ka": 5505,
      "lib": 5506,
      "mand": 5507,
      "poll": 5508,
      "range": 5509,
      "ues": 5510,
      "uted": 5511,
      "vol": 5512,
      "wid": 5513,
      "ward": 5514,
      "ंटे": 5515,
      "ंमार": 5516,
      "अभ": 5517,
      "अंट": 5518,
      "अजं": 5519,
      "अलावा": 5520,
      "आग": 5521,
      "आया": 5522,
      "इरा": 5523,
      "इंदि": 5524,
      "इंट": 5525,
      "उल": 5526,
      "उज्": 5527,
      "ऋग्व": 5528,
      "एफ": 5529,
      "एयर": 5530,
      "एजें": 5531,
      "ऐतिहासिक": 5532,
      "ओस": 5533,
      "ओमान": 5534,
      "ओआई": 5535,
      "ओडिया": 5536,
      "औसत": 5537,
      "कप": 5538,
      "कर्म": 5539,
      "कमिल": 5540,
      "खर": 5541,
      "खान": 5542,
      "खगोल": 5543,
      "गल": 5544,
      "ग़": 5545,
      "घन": 5546,
      "चंप": 5547,
      "छा": 5548,
      "छो": 5549,
      "जग": 5550,
      "जॉ": 5551,
      "जाना": 5552,
      "जलो": 5553,
      "जहाँ": 5554,
      "झी": 5555,
      "ठन": 5556,
      "ठा": 5557,
      "ठार": 5558,
      "डोग": 5559,
      "णे": 5560,
      "तः": 5561,
      "थु": 5562,
      "दों": 5563,
      "द्रा": 5564,
      "दारी": 5565,
      "धता": 5566,
      "धोला": 5567,
      "नम": 5568,
      "नार": 5569,
      "पत्र": 5570,
      "पदी": 5571,
      "पड़ो": 5572,
      "पठार": 5573,
      "बु": 5574,
      "बलि": 5575,
      "बहरी": 5576,
      "बन्ध": 5577,
      "भर": 5578,
      "भरा": 5579,
      "भरत": 5580,
      "मना": 5581,
      "मपु": 5582,
      "मंग": 5583,
      "म्या": 5584,
      "मथु": 5585,
      "यण": 5586,
      "यल": 5587,
      "यमु": 5588,
      "यमन": 5589,
      "रिक": 5590,
      "रजवा": 5591,
      "लौ": 5592,
      "लद्": 5593,
      "वान": 5594,
      "वरण": 5595,
      "शल": 5596,
      "सौ": 5597,
      "ह्": 5598,
      "हम्": 5599,
      "िक्ष": 5600,
      "ुष": 5601,
      "ूदी": 5602,
      "ोबार": 5603,
      "ौपदी": 5604,
      "१०": 5605,
      "१३": 5606,
      "१६": 5607,
      "२४": 5608,
      "४०": 5609,
      "উল্": 5610,
      "চাল": 5611,
      "দল": 5612,
      "দ্র": 5613,
      "দ্রা": 5614,
      "মণি": 5615,
      "মিয়ান": 5616,
      "২৮": 5617,
      "৫০": 5618,
      "ఖండ్": 5619,
      "చీ": 5620,
      "జరి": 5621,
      "జార్": 5622,
      "ట్ర": 5623,
      "తై": 5624,
      "తరు": 5625,
      "పై": 5626,
      "ఫర్": 5627,
      "మహ": 5628,
      "మలు": 5629,
      "మహార": 5630,
      "మయన్": 5631,
      "యో": 5632,
      "రూ": 5633,
      "శో": 5634,
      "సౌ": 5635,
      "సార్": 5636,
      "హార్": 5637,
      "ాష్ట్ర": 5638,
      "era": 5639,
      "alam": 5640,
      "enter": 5641,
      "cil": 5642,
      "केवल": 5643,
      "रामा": 5644,
      "रात्रि": 5645,
      "राधा": 5646,
      "राइल": 5647,
      "मेर": 5648,
      "ानु": 5649,
      "र्न": 5650,
      "र्मू": 5651,
      "स्तिक": 5652,
      "कामा": 5653,
      "काशी": 5654,
      "idref": 5655,
      "য়িকী": 5656,
      "lege": 5657,
      "क्ट": 5658,
      "याँ": 5659,
      "यां": 5660,
      "यास": 5661,
      "lat": 5662,
      "lative": 5663,
      "ivoy": 5664,
      "tro": 5665,
      "tration": 5666,
      "tripura": 5667,
      "प्रत्य": 5668,
      "प्रभु": 5669,
      "प्रयास": 5670,
      "विरो": 5671,
      "amy": 5672,
      "तिरु": 5673,
      "तिमोर": 5674,
      "नास्तिक": 5675,
      "क्षम": 5676,
      "लाओस": 5677,
      "ాలా": 5678,
      "साँची": 5679,
      "ेशिय": 5680,
      "ताम": 5681,
      "पुदु": 5682,
      "భారత్": 5683,
      "ন্স": 5684,
      "कोष": 5685,
      "त्मा": 5686,
      "राज्यसभा": 5687,
      "राज्यक्षेत्रों": 5688,
      "emic": 5689,
      "2542": 5690,
      "मात्र": 5691,
      "सिल": 5692,
      "सिस": 5693,
      "सियों": 5694,
      "हिस्": 5695,
      "183": 5696,
      "irates": 5697,
      "वासी": 5698,
      "वागढ़": 5699,
      "operation": 5700,
      "ప్రజ": 5701,
      "17feb": 5702,
      "चीनी": 5703,
      "पाँच": 5704,
      "पाइन": 5705,
      "पावागढ़": 5706,
      "প্রথ": 5707,
      "agran": 5708,
      "agwat": 5709,
      "समर्थ": 5710,
      "లోయ": 5711,
      "1992": 5712,
      "akes": 5713,
      "ष्ट्रीय": 5714,
      "286": 5715,
      "289": 5716,
      "करते": 5717,
      "निम्": 5718,
      "नियों": 5719,
      "248": 5720,
      "जनसां": 5721,
      "जनपद": 5722,
      "लीपी": 5723,
      "बाग": 5724,
      "मिन": 5725,
      "मिला": 5726,
      "मित्व": 5727,
      "तीन": 5728,
      "2011religion": 5729,
      "ালত": 5730,
      "मुद्रा": 5731,
      "मुर्मू": 5732,
      "मी2": 5733,
      "माना": 5734,
      "मानचित्र": 5735,
      "exis": 5736,
      "osys": 5737,
      "प्रदेशों": 5738,
      "नीताल": 5739,
      "సిక్": 5740,
      "म्बर": 5741,
      "म्ब्रि": 5742,
      "త్మా": 5743,
      "्राष्ट्रीय": 5744,
      "कृष्ण": 5745,
      "देखा": 5746,
      "देहरा": 5747,
      "धर्मनिरपेक्ष": 5748,
      "द्यनाथ": 5749,
      "पीएम": 5750,
      "होली": 5751,
      "होते": 5752,
      "गणित": 5753,
      "areas": 5754,
      "रेखा": 5755,
      "మాచల్": 5756,
      "महाबलि": 5757,
      "महात्मा": 5758,
      "महाजनपद": 5759,
      "ద్దు": 5760,
      "assam": 5761,
      "कुवै": 5762,
      "संघर्ष": 5763,
      "इसकी": 5764,
      "ज्जि": 5765,
      "वीरा": 5766,
      "নিবন্ধ": 5767,
      "498": 5768,
      "uggle": 5769,
      "থাইল": 5770,
      "প্টে": 5771,
      "জনসংখ্যা": 5772,
      "तकनी": 5773,
      "दाबाद": 5774,
      "स्थानीय": 5775,
      "ब्रह्": 5776,
      "irelease": 5777,
      "న్నో": 5778,
      "वनेश्वर": 5779,
      "वनवर्ल्ड": 5780,
      "హిమాచల్": 5781,
      "स्वरूप": 5782,
      "सूचियाँ": 5783,
      "१९६": 5784,
      "१९५०": 5785,
      "దినో": 5786,
      "Energy": 5787,
      "तुर्": 5788,
      "चलचित्र": 5789,
      "मैकमिल": 5790,
      "সেনা": 5791,
      "সেপ্টে": 5792,
      "igned": 5793,
      "మిజో": 5794,
      "तटरक्ष": 5795,
      "मालिया": 5796,
      "disc": 5797,
      "आईडी": 5798,
      "यहूदी": 5799,
      "बंगलोर": 5800,
      "च्चेरी": 5801,
      "दून": 5802,
      "deb": 5803,
      "संगठन": 5804,
      "republic": 5805,
      "गोवा": 5806,
      "రాజస్థాన్": 5807,
      "टेली": 5808,
      "hindirelease": 5809,
      "डीओआई": 5810,
      "वैद्यनाथ": 5811,
      "সাময়িকী": 5812,
      "తరం": 5813,
      "क्रय": 5814,
      "కోర్": 5815,
      "ణాచల్": 5816,
      "ణాటక": 5817,
      "ন্তর": 5818,
      "ప్రాంతం": 5819,
      "एसएन": 5820,
      "बोडिया": 5821,
      "मार्शल": 5822,
      "embers": 5823,
      "निर्धन": 5824,
      "FOOTNOTEStein1998119": 5825,
      "Census2011religion": 5826,
      "ట్టు": 5827,
      "మేషన్": 5828,
      "యుద్ధం": 5829,
      "देवनाग": 5830,
      "देवघर": 5831,
      "वायुसेना": 5832,
      "রিজার্": 5833,
      "अमर": 5834,
      "संसदीय": 5835,
      "Aligned": 5836,
      "Ethnic": 5837,
      "सोम": 5838,
      "सोवियत": 5839,
      "सोमालिया": 5840,
      "सफल": 5841,
      "ानेर": 5842,
      "महासागरीय": 5843,
      "docs": 5844,
      "पारसी": 5845,
      "भोपाल": 5846,
      "संबंधी": 5847,
      "दशहरा": 5848,
      "नवरात्रि": 5849,
      "बनाने": 5850,
      "मौर्य": 5851,
      "index1": 5852,
      "अल्प": 5853,
      "अल्पाइन": 5854,
      "कन्नड": 5855,
      "तेलुगु": 5856,
      "स्थापना": 5857,
      "२००४": 5858,
      "निकोबार": 5859,
      "influ": 5860,
      "Sanchi": 5861,
      "शहरों": 5862,
      "दिवाली": 5863,
      "క్కువ": 5864,
      "इस्लामी": 5865,
      "বৃদ্ধি": 5866,
      "azette": 5867,
      "स्वामित्व": 5868,
      "economictimes": 5869,
      "Secur": 5870,
      "text": 5871,
      "पटना": 5872,
      "राजधानियाँ": 5873,
      "अन्तर्राष्ट्रीय": 5874,
      "literacy": 5875,
      "మహాత్మా": 5876,
      "जंघा": 5877,
      "सहायता": 5878,
      "कंचन": 5879,
      "क़तर": 5880,
      "कैम्ब्रि": 5881,
      "भुवनेश्वर": 5882,
      "वियतनाम": 5883,
      "पीपीपी": 5884,
      "রাজনীতি": 5885,
      "नैनीताल": 5886,
      "ान्मार": 5887,
      "जिनमें": 5888,
      "अमरीका": 5889,
      "पब्लिकेश": 5890,
      "కర్ణాటక": 5891,
      "Sindoor": 5892,
      "ख्यिकी": 5893,
      "द्रौपदी": 5894,
      "पहाड़ी": 5895,
      "స్టా": 5896,
      "नियंत्र": 5897,
      "Persian": 5898,
      "খেলা": 5899,
      "বুদ্ধ": 5900,
      "త్సవం": 5901,
      "మార్గాలు": 5902,
      "अफ़्रीका": 5903,
      "अहमदाबाद": 5904,
      "उदयपुर": 5905,
      "थाईलैंड": 5906,
      "महानगर": 5907,
      "रुपया": 5908,
      "आईएसएसएन": 5909,
      "బీహార్": 5910,
      "rajbhasha": 5911,
      "Infosys": 5912,
      "పంజాబ్": 5913,
      "Christian": 5914,
      "independence": 5915,
      "average": 5916,
      "Rowland1970": 5917,
      "আদালত": 5918,
      "জুলাই": 5919,
      "ఇరాన్": 5920,
      "प्रभाव": 5921,
      "प्रवेशद्वार": 5922,
      "साइप्रस": 5923,
      "సామ్రాజ్యము": 5924,
      "উপকূল": 5925,
      "గుజరాత్": 5926,
      "Chhattisgarh": 5927,
      "Emirates": 5928,
      "Machine": 5929,
      "మౌర్య": 5930,
      "इजरायल": 5931,
      "नदियाँ": 5932,
      "म्यान्मार": 5933,
      "संरक्षित": 5934,
      "ConinghamYoung": 5935,
      "दृष्टि": 5936,
      "అరుణాచల్": 5937,
      "ఇంగ్లీ": 5938,
      "చ్చేరి": 5939,
      "సరిహద్దు": 5940,
      "Wayback": 5941,
      "brief": 5942,
      "উইকি": 5943,
      "কংগ্রেস": 5944,
      "अंटार्कटिका": 5945,
      "अजंता": 5946,
      "इराक़": 5947,
      "इंदिरा": 5948,
      "इंटर": 5949,
      "उज्जैन": 5950,
      "ऋग्वेद": 5951,
      "खानपान": 5952,
      "खगोलशास्त्र": 5953,
      "घनत्व": 5954,
      "चंपानेर": 5955,
      "छोटे": 5956,
      "जलोढ़": 5957,
      "डोगरी": 5958,
      "धोलावीरा": 5959,
      "पड़ोसी": 5960,
      "बहरीन": 5961,
      "मपुत्र": 5962,
      "मंगोल": 5963,
      "म्यांमार": 5964,
      "मथुरा": 5965,
      "रजवाड़े": 5966,
      "लद्दाख": 5967,
      "हम्पी": 5968,
      "মণিপুর": 5969,
      "মিয়ানমার": 5970,
      "తరువా": 5971,
      "ఫర్మేషన్": 5972,
      "మహారాష్ట్ర": 5973,
      "మయన్మార్": 5974,
      "रामायण": 5975,
      "राधाकृष्ण": 5976,
      "कामाख्या": 5977,
      "ivoyage": 5978,
      "तिरुवन": 5979,
      "नास्तिकता": 5980,
      "पुदुच्चेरी": 5981,
      "17feb14": 5982,
      "समर्थन": 5983,
      "जनसांख्यिकी": 5984,
      "देहरादून": 5985,
      "पीएमआईडी": 5986,
      "महाबलिपुरम": 5987,
      "कुवैत": 5988,
      "থাইল্যান্ড": 5989,
      "ब्रह्मपुत्र": 5990,
      "దినోత్సవం": 5991,
      "मैकमिलन": 5992,
      "সেপ্টেম্বর": 5993,
      "तटरक्षक": 5994,
      "निर्धनता": 5995,
      "देवनागरी": 5996,
      "রিজার্ভ": 5997,
      "कंचनजंघा": 5998,
      "कैम्ब्रिज": 5999,
      "पब्लिकेशन्स": 6000,
      "ConinghamYoung2015": 6001,
      "राधाकृष्णन": 6002,
      "178": 6003,
      "312": 6004,
      "428": 6005,
      "7c": 6006,
      "AS": 6007,
      "Ab": 6008,
      "Bure": 6009,
      "Clo": 6010,
      "Don": 6011,
      "Dun": 6012,
      "DNA": 6013,
      "Global": 6014,
      "Pud": 6015,
      "Sam": 6016,
      "Stu": 6017,
      "Sah": 6018,
      "Thar": 6019,
      "Wh": 6020,
      "Wright": 6021,
      "a7": 6022,
      "bar": 6023,
      "bur": 6024,
      "bra": 6025,
      "cgi": 6026,
      "dy": 6027,
      "erent": 6028,
      "gra": 6029,
      "human": 6030,
      "ier": 6031,
      "rul": 6032,
      "tap": 6033,
      "uin": 6034,
      "wa": 6035,
      "ément": 6036,
      "উদ্": 6037,
      "উন্ন": 6038,
      "চিত": 6039,
      "ডে": 6040,
      "নার": 6041,
      "রো": 6042,
      "শাল": 6043,
      "সার": 6044,
      "৫৬": 6045,
      "inter": 6046,
      "thr": 6047,
      "erve": 6048,
      "ancis": 6049,
      "enni": 6050,
      "omo": 6051,
      "ital": 6052,
      "198": 6053,
      "ootb": 6054,
      "orge": 6055,
      "atch": 6056,
      "acred": 6057,
      "enty": 6058,
      "eck": 6059,
      "iland": 6060,
      "iger": 6061,
      "igar": 6062,
      "today": 6063,
      "olas": 6064,
      "185": 6065,
      "1857": 6066,
      "স্ত্র": 6067,
      "157": 6068,
      "commun": 6069,
      "agen": 6070,
      "২০১৯": 6071,
      "ক্ষর": 6072,
      "Art": 6073,
      "Army": 6074,
      "show": 6075,
      "Related": 6076,
      "vey": 6077,
      "333": 6078,
      "orea": 6079,
      "459": 6080,
      "িলি": 6081,
      "iance": 6082,
      "1968": 6083,
      "when": 6084,
      "পর্য": 6085,
      "issing": 6086,
      "ভাষায়": 6087,
      "ground": 6088,
      "employ": 6089,
      "১৯৭": 6090,
      "This": 6091,
      "Trans": 6092,
      "7545": 6093,
      "Francis": 6094,
      "বর্ষ": 6095,
      "ভিন্ন": 6096,
      "অন্য": 6097,
      "millenni": 6098,
      "Present": 6099,
      "ucherry": 6100,
      "ঞ্জা": 6101,
      "Ojha": 6102,
      "প্রধানমন্ত্রী": 6103,
      "obar": 6104,
      "এশিয়া": 6105,
      "ific": 6106,
      "contrib": 6107,
      "based": 6108,
      "legis": 6109,
      "Clément": 6110,
      "Narayan": 6111,
      "festi": 6112,
      "fication": 6113,
      "Balakrishnan": 6114,
      "পর্বতমালা": 6115,
      "osphere": 6116,
      "Blurton": 6117,
      "troduction": 6118,
      "Nicobar": 6119,
      "Bhutan": 6120,
      "Ahmed": 6121,
      "উল্লেখ": 6122,
      "Bureau": 6123,
      "Puducherry": 6124,
      "ootball": 6125,
      "millennium": 6126,
      "Clémentin": 6127,
      "223": 6128,
      "321": 6129,
      "329": 6130,
      "6174": 6131,
      "8D": 6132,
      "Bo": 6133,
      "Cin": 6134,
      "Cal": 6135,
      "DA": 6136,
      "Div": 6137,
      "Ev": 6138,
      "FI": 6139,
      "Gop": 6140,
      "Gond": 6141,
      "Gini": 6142,
      "If": 6143,
      "Movement": 6144,
      "Nanda": 6145,
      "Northeast": 6146,
      "Out": 6147,
      "Pp": 6148,
      "Sm": 6149,
      "Sar": 6150,
      "Sing": 6151,
      "Sun": 6152,
      "Seven": 6153,
      "WP": 6154,
      "Whe": 6155,
      "Wile": 6156,
      "Wood": 6157,
      "ae": 6158,
      "bit": 6159,
      "bel": 6160,
      "dna": 6161,
      "ez": 6162,
      "jp": 6163,
      "km": 6164,
      "kash": 6165,
      "kingdom": 6166,
      "lal": 6167,
      "last": 6168,
      "mm": 6169,
      "middle": 6170,
      "pc": 6171,
      "pass": 6172,
      "que": 6173,
      "sq": 6174,
      "ws": 6175,
      "ze": 6176,
      "zon": 6177,
      "zil": 6178,
      "অভি": 6179,
      "উচ্চ": 6180,
      "এল": 6181,
      "ধা": 6182,
      "বছ": 6183,
      "বভৌ": 6184,
      "রক্ষ": 6185,
      "রপে": 6186,
      "সী": 6187,
      "২৯": 6188,
      "ంక": 6189,
      "అనే": 6190,
      "ఎన్నో": 6191,
      "ఏర్": 6192,
      "కను": 6193,
      "ఖ్": 6194,
      "గీ": 6195,
      "గ్": 6196,
      "టో": 6197,
      "నం": 6198,
      "పర": 6199,
      "పొ": 6200,
      "మణి": 6201,
      "లతో": 6202,
      "లవు": 6203,
      "లమె": 6204,
      "ళం": 6205,
      "వృ": 6206,
      "శ్ర": 6207,
      "షా": 6208,
      "స్య": 6209,
      "హర్": 6210,
      "ూరు": 6211,
      "in2": 6212,
      "anthem": 6213,
      "along": 6214,
      "esp": 6215,
      "ারীকরণ": 6216,
      "ారం": 6217,
      "atures": 6218,
      "ams": 6219,
      "geoh": 6220,
      "uselang": 6221,
      "imate": 6222,
      "held": 6223,
      "hell": 6224,
      "FOOTNOTELudden": 6225,
      "FOOTNOTECraven1997": 6226,
      "FOOTNOTEDikshitSchwartzberg2023": 6227,
      "tock": 6228,
      "architecture": 6229,
      "ర్లు": 6230,
      "emor": 6231,
      "184": 6232,
      "154": 6233,
      "159": 6234,
      "169": 6235,
      "ప్రతి": 6236,
      "ప్రస్తు": 6237,
      "172": 6238,
      "CITEREFDyson2018": 6239,
      "Inter": 6240,
      "প্রশাস": 6241,
      "409": 6242,
      "una": 6243,
      "ayana": 6244,
      "247": 6245,
      "বাণি": 6246,
      "app": 6247,
      "tures": 6248,
      "ible": 6249,
      "সংবাদ": 6250,
      "227": 6251,
      "Haryana": 6252,
      "abs": 6253,
      "తిక": 6254,
      "274": 6255,
      "AAJ": 6256,
      "త్తం": 6257,
      "harlal": 6258,
      "కుటు": 6259,
      "party": 6260,
      "ogg": 6261,
      "చిత్ర": 6262,
      "439": 6263,
      "మాతరం": 6264,
      "নিরপে": 6265,
      "సంఘ": 6266,
      "వందే": 6267,
      "టిబె": 6268,
      "రాష్ట్రాల": 6269,
      "পিডিয়া": 6270,
      "subject": 6271,
      "కోబ": 6272,
      "পরিষ": 6273,
      "Kashmiri": 6274,
      "সময়": 6275,
      "ilding": 6276,
      "కాలంలో": 6277,
      "দিবস": 6278,
      "శాఖ": 6279,
      "జనవరి": 6280,
      "সমূহের": 6281,
      "cb119": 6282,
      "మొత్తం": 6283,
      "point": 6284,
      "పాకిస్థాన్": 6285,
      "34238": 6286,
      "Adv": 6287,
      "সংস্কৃত": 6288,
      "Brazil": 6289,
      "పెనీ": 6290,
      "others": 6291,
      "এশিয়ার": 6292,
      "తమిళం": 6293,
      "anced": 6294,
      "Religious": 6295,
      "speak": 6296,
      "শ্রে": 6297,
      "కారం": 6298,
      "Institute": 6299,
      "নির্ভর": 6300,
      "ఉపఖండ": 6301,
      "মনো": 6302,
      "imf2": 6303,
      "బాద్": 6304,
      "FOOTNOTEAsherTalbot200853": 6305,
      "Class": 6306,
      "Reserve": 6307,
      "including": 6308,
      "রাজনৈতিক": 6309,
      "అధికారిక": 6310,
      "రెండు": 6311,
      "హ్మ": 6312,
      "estimate": 6313,
      "వారస": 6314,
      "Himalayas": 6315,
      "కంపెనీ": 6316,
      "majority": 6317,
      "মালয়াল": 6318,
      "మొదటి": 6319,
      "బ్రిటిషు": 6320,
      "func": 6321,
      "উদারীকরণ": 6322,
      "పట్టణ": 6323,
      "Rigveda": 6324,
      "সার্বভৌ": 6325,
      "అత్యధిక": 6326,
      "roadcast": 6327,
      "ఇండియా": 6328,
      "పార్లమె": 6329,
      "బహు": 6330,
      "level": 6331,
      "agriculture": 6332,
      "Thailand": 6333,
      "హిమాలయాలు": 6334,
      "Greek": 6335,
      "জানু": 6336,
      "বিষয়": 6337,
      "awaharlal": 6338,
      "cording": 6339,
      "উন্নয়ন": 6340,
      "Gopal": 6341,
      "Wiley": 6342,
      "dnaindia": 6343,
      "km2": 6344,
      "geohack": 6345,
      "বাণিজ্য": 6346,
      "కుటుంబ": 6347,
      "নিরপেক্ষ": 6348,
      "cb11934238": 6349,
      "সার্বভৌম": 6350,
      "roadcasting": 6351,
      "cb11934238p": 6352,
      "1b": 6353,
      "226": 6354,
      "319": 6355,
      "478": 6356,
      "674": 6357,
      "960": 6358,
      "Age": 6359,
      "Bu": 6360,
      "Direct": 6361,
      "Domin": 6362,
      "Eb": 6363,
      "Eigh": 6364,
      "FHA": 6365,
      "G20": 6366,
      "Gan": 6367,
      "Gum": 6368,
      "Gross": 6369,
      "HQ": 6370,
      "Jud": 6371,
      "Korea": 6372,
      "LA": 6373,
      "Land": 6374,
      "Mand": 6375,
      "Na": 6376,
      "Nil": 6377,
      "NGDP": 6378,
      "Onew": 6379,
      "Odis": 6380,
      "P13": 6381,
      "Peng": 6382,
      "QC": 6383,
      "Sin": 6384,
      "Site": 6385,
      "Sovereign": 6386,
      "Tar": 6387,
      "Trit": 6388,
      "Wa": 6389,
      "Yum": 6390,
      "bharat": 6391,
      "c8": 6392,
      "eu": 6393,
      "gu": 6394,
      "hra": 6395,
      "hoi": 6396,
      "itive": 6397,
      "kमी2": 6398,
      "lik": 6399,
      "member": 6400,
      "nation": 6401,
      "pi": 6402,
      "plate": 6403,
      "soci": 6404,
      "yer": 6405,
      "ंच": 6406,
      "ंपर": 6407,
      "अमान्य": 6408,
      "अक्ट": 6409,
      "आठ": 6410,
      "आत": 6411,
      "आप": 6412,
      "आम": 6413,
      "आर": 6414,
      "आगमन": 6415,
      "आकर्": 6416,
      "आश्र": 6417,
      "औप": 6418,
      "कव": 6419,
      "कम्": 6420,
      "खे": 6421,
      "गै": 6422,
      "गों": 6423,
      "चो": 6424,
      "चित": 6425,
      "छोड़": 6426,
      "जट": 6427,
      "जना": 6428,
      "ट्": 6429,
      "टना": 6430,
      "डो": 6431,
      "दौ": 6432,
      "ध्व": 6433,
      "नदियों": 6434,
      "पण": 6435,
      "पॉ": 6436,
      "पमान": 6437,
      "पिय": 6438,
      "फु": 6439,
      "बह": 6440,
      "बान": 6441,
      "बाल": 6442,
      "बजट": 6443,
      "मन्": 6444,
      "महि": 6445,
      "मरु": 6446,
      "यिका": 6447,
      "रही": 6448,
      "रंगा": 6449,
      "लै": 6450,
      "लब्": 6451,
      "लगा": 6452,
      "लड़ा": 6453,
      "वत": 6454,
      "वस्त": 6455,
      "वणी": 6456,
      "वाली": 6457,
      "सभी": 6458,
      "सत्य": 6459,
      "हरू": 6460,
      "हरे": 6461,
      "ियों": 6462,
      "ीकरण": 6463,
      "ुनि": 6464,
      "ेक": 6465,
      "्ट": 6466,
      "१२": 6467,
      "१७": 6468,
      "२२": 6469,
      "অ্যান্ড": 6470,
      "ক্রা": 6471,
      "খণ্ড": 6472,
      "চা": 6473,
      "চন্দ্র": 6474,
      "জৈ": 6475,
      "দশ": 6476,
      "পার্": 6477,
      "ফি": 6478,
      "বো": 6479,
      "র্য": 6480,
      "সিকি": 6481,
      "২৫": 6482,
      "৪৭": 6483,
      "iary": 6484,
      "thang": 6485,
      "these": 6486,
      "oram": 6487,
      "orate": 6488,
      "erc": 6489,
      "arb": 6490,
      "arts": 6491,
      "aland": 6492,
      "cities": 6493,
      "ising": 6494,
      "राई": 6495,
      "ices": 6496,
      "र्स": 6497,
      "190": 6498,
      "1977": 6499,
      "कीय": 6500,
      "organ": 6501,
      "प्रचल": 6502,
      "प्रदान": 6503,
      "विंग": 6504,
      "विंध": 6505,
      "विधा": 6506,
      "lobe": 6507,
      "wear": 6508,
      "্যের": 6509,
      "getar": 6510,
      "सेपिय": 6511,
      "नागा": 6512,
      "uscript": 6513,
      "राजनै": 6514,
      "789": 6515,
      "लाइ": 6516,
      "साह": 6517,
      "ISSN": 6518,
      "ताओं": 6519,
      "तांत्रिक": 6520,
      "तापमान": 6521,
      "पुड़ा": 6522,
      "igr": 6523,
      "olar": 6524,
      "ipp": 6525,
      "resources": 6526,
      "006": 6527,
      "नेहरू": 6528,
      "कोई": 6529,
      "त्पत्ति": 6530,
      "1356": 6531,
      "257": 6532,
      "indian": 6533,
      "ults": 6534,
      "ष्क": 6535,
      "ष्म": 6536,
      "stre": 6537,
      "stud": 6538,
      "1500": 6539,
      "165": 6540,
      "168": 6541,
      "वास": 6542,
      "वास्त": 6543,
      "oples": 6544,
      "171": 6545,
      "CITEREFLudden": 6546,
      "ments": 6547,
      "चीफ": 6548,
      "समझ": 6549,
      "rock": 6550,
      "रीबी": 6551,
      "408": 6552,
      "ड़ियाँ": 6553,
      "किए": 6554,
      "किये": 6555,
      "्यादा": 6556,
      "hap": 6557,
      "ज़र्व": 6558,
      "बाहरी": 6559,
      "कारी": 6560,
      "मिलि": 6561,
      "Chenn": 6562,
      "appa": 6563,
      "308": 6564,
      "मुक्त": 6565,
      "मीणा": 6566,
      "odiversity": 6567,
      "ability": 6568,
      "मनमोहन": 6569,
      "मान्यता": 6570,
      "उत्पत्ति": 6571,
      "osa": 6572,
      "तरह": 6573,
      "270": 6574,
      "ship": 6575,
      "তান্ত্র": 6576,
      "200709": 6577,
      "सरे": 6578,
      "कृत": 6579,
      "कृतिक": 6580,
      "ोगा": 6581,
      "जीत": 6582,
      "जीडी": 6583,
      "sehl": 6584,
      "होमो": 6585,
      "रेड": 6586,
      "মাই": 6587,
      "अनुसूची": 6588,
      "सरकारें": 6589,
      "हरि": 6590,
      "২০০৬": 6591,
      "পরী": 6592,
      "ugu": 6593,
      "পাঞ্জা": 6594,
      "peoples": 6595,
      "सेनाएँ": 6596,
      "दाय": 6597,
      "मोड़ा": 6598,
      "Maha": 6599,
      "auth": 6600,
      "व्यंजन": 6601,
      "रिज़र्व": 6602,
      "उपलब्": 6603,
      "मध्यम": 6604,
      "वेस्ट": 6605,
      "Shiv": 6606,
      "গুজরা": 6607,
      "पेन": 6608,
      "जिसका": 6609,
      "ctions": 6610,
      "summer": 6611,
      "ুরু": 6612,
      "cricket": 6613,
      "लोकतांत्रिक": 6614,
      "natic": 6615,
      "মেন্ট": 6616,
      "ights": 6617,
      "ographical": 6618,
      "ographics": 6619,
      "4217": 6620,
      "ভূগোল": 6621,
      "734": 6622,
      "बोली": 6623,
      "प्रधानमन्": 6624,
      "पार्टियों": 6625,
      "Rajiv": 6626,
      "भागवत": 6627,
      "Biodiversity": 6628,
      "ক্রয়": 6629,
      "कार्यालय": 6630,
      "প্রাণী": 6631,
      "millan": 6632,
      "ন্ধী": 6633,
      "उत्पादन": 6634,
      "uisine": 6635,
      "बढ़कर": 6636,
      "Demographics": 6637,
      "divisions": 6638,
      "पारंपर": 6639,
      "शुरु": 6640,
      "शुष्क": 6641,
      "Buddha": 6642,
      "बनाई": 6643,
      "Council": 6644,
      "Andhra": 6645,
      "अल्मोड़ा": 6646,
      "स्थापित": 6647,
      "२०१४": 6648,
      "Ramayana": 6649,
      "ইউনিয়": 6650,
      "defence": 6651,
      "Dey": 6652,
      "लोगों": 6653,
      "partly": 6654,
      "মাণবিক": 6655,
      "নির্বা": 6656,
      "গান্ধী": 6657,
      "मलयाली": 6658,
      "Sikhism": 6659,
      "topics": 6660,
      "IAF": 6661,
      "Punjabi": 6662,
      "product": 6663,
      "सतपुड़ा": 6664,
      "विकसित": 6665,
      "विषयों": 6666,
      "laws": 6667,
      "পশ্চিমবঙ্গ": 6668,
      "विस्तार": 6669,
      "Curry": 6670,
      "Current": 6671,
      "Possehl": 6672,
      "अमरीकी": 6673,
      "पोर्टल": 6674,
      "Turk": 6675,
      "কলকা": 6676,
      "পারমাণবিক": 6677,
      "tiger": 6678,
      "वाले": 6679,
      "Paul": 6680,
      "शैली": 6681,
      "सशस्": 6682,
      "Carnatic": 6683,
      "Finance": 6684,
      "Macmillan": 6685,
      "FrontView": 6686,
      "লোকসভা": 6687,
      "Bibcode": 6688,
      "Konk": 6689,
      "Mango": 6690,
      "Rediff": 6691,
      "Sukhoi": 6692,
      "अर्ध": 6693,
      "ओडिशा": 6694,
      "ग्रीष्म": 6695,
      "जैसे": 6696,
      "बहाई": 6697,
      "জলবায়ু": 6698,
      "प्रशासनिक": 6699,
      "पुर्तगाल": 6700,
      "माध्यम": 6701,
      "निवेशिक": 6702,
      "१९४७": 6703,
      "घोषणा": 6704,
      "Volume": 6705,
      "Democracy": 6706,
      "৯৭৮": 6707,
      "उसके": 6708,
      "कहते": 6709,
      "समाप्त": 6710,
      "composed": 6711,
      "Association": 6712,
      "Marathi": 6713,
      "Regional": 6714,
      "परिषद": 6715,
      "ইন্দো": 6716,
      "্যালয়": 6717,
      "AGE": 6718,
      "Berlin": 6719,
      "Defence": 6720,
      "प्रत्येक": 6721,
      "প্রথম": 6722,
      "Sanchi2": 6723,
      "नियंत्रण": 6724,
      "महानगरीय": 6725,
      "InfosysHQ": 6726,
      "Division": 6727,
      "শ্রেণী": 6728,
      "জানুয়ারি": 6729,
      "EbFHA": 6730,
      "Gumpa": 6731,
      "Oneworld": 6732,
      "Odisha": 6733,
      "P1308": 6734,
      "Penguin": 6735,
      "Tarlo": 6736,
      "Tritsch": 6737,
      "Yumthang": 6738,
      "अक्टूबर": 6739,
      "आठवीं": 6740,
      "आश्रय": 6741,
      "औपनिवेशिक": 6742,
      "गोंड": 6743,
      "फुट": 6744,
      "महिला": 6745,
      "मरुस्थल": 6746,
      "वस्तु": 6747,
      "ुनिस्ट": 6748,
      "विधायिका": 6749,
      "getarian": 6750,
      "राजनैतिक": 6751,
      "मिलियन": 6752,
      "Chennai": 6753,
      "তান্ত্রিক": 6754,
      "जीडीपी": 6755,
      "उपलब्धता": 6756,
      "प्रधानमन्त्री": 6757,
      "पारंपरिक": 6758,
      "ইউনিয়ন": 6759,
      "InfosysHQFrontView": 6760,
      "EbFHAQAAQBAJ": 6761,
      "325": 6762,
      "340": 6763,
      "424": 6764,
      "Au": 6765,
      "Aut": 6766,
      "Bat": 6767,
      "Broadcasting": 6768,
      "Dut": 6769,
      "Disc": 6770,
      "Emer": 6771,
      "FT": 6772,
      "Food": 6773,
      "Gh": 6774,
      "Hav": 6775,
      "Historical": 6776,
      "Jawaharlal": 6777,
      "Mc": 6778,
      "Mol": 6779,
      "NGD": 6780,
      "Names": 6781,
      "Rat": 6782,
      "Rav": 6783,
      "SE": 6784,
      "Sy": 6785,
      "Sund": 6786,
      "Sacred": 6787,
      "Tables": 6788,
      "Vice": 6789,
      "bir": 6790,
      "bak": 6791,
      "cla": 6792,
      "cook": 6793,
      "cour": 6794,
      "cultural": 6795,
      "di": 6796,
      "do": 6797,
      "dar": 6798,
      "eff": 6799,
      "fin": 6800,
      "four": 6801,
      "factbook": 6802,
      "ght": 6803,
      "jh": 6804,
      "mj": 6805,
      "missing": 6806,
      "ner": 6807,
      "pture": 6808,
      "ras": 6809,
      "rural": 6810,
      "sia": 6811,
      "science": 6812,
      "tou": 6813,
      "uture": 6814,
      "অধিক": 6815,
      "কু": 6816,
      "ঘল": 6817,
      "চু": 6818,
      "জী": 6819,
      "তত্": 6820,
      "পৌ": 6821,
      "ফলে": 6822,
      "লব": 6823,
      "শ্": 6824,
      "২৪": 6825,
      "২৬": 6826,
      "৩০": 6827,
      "అను": 6828,
      "అమె": 6829,
      "ఆంధ": 6830,
      "ఎన్ని": 6831,
      "ఎక్కువ": 6832,
      "కథ": 6833,
      "కాలు": 6834,
      "కల్": 6835,
      "జన్": 6836,
      "జైన": 6837,
      "డో": 6838,
      "తము": 6839,
      "థి": 6840,
      "న్యా": 6841,
      "పల్ల": 6842,
      "ఫై": 6843,
      "భర": 6844,
      "మరా": 6845,
      "యక": 6846,
      "శీ": 6847,
      "సహా": 6848,
      "ుల": 6849,
      "ndl": 6850,
      "tea": 6851,
      "online": 6852,
      "rem": 6853,
      "20A": 6854,
      "orne": 6855,
      "orship": 6856,
      "eros": 6857,
      "around": 6858,
      "any": 6859,
      "enumeration": 6860,
      "ofker": 6861,
      "cir": 6862,
      "isni": 6863,
      "itage": 6864,
      "asi": 6865,
      "1988": 6866,
      "1901": 6867,
      "్రప్రదేశ్": 6868,
      "trop": 6869,
      "trade": 6870,
      "ample": 6871,
      "wever": 6872,
      "lines": 6873,
      "ాలలో": 6874,
      "ects": 6875,
      "ficient": 6876,
      "head": 6877,
      "ists": 6878,
      "దేశము": 6879,
      "FOOTNOTEKulkeRothermund": 6880,
      "FOOTNOTESharma": 6881,
      "FOOTNOTEWolpert2003": 6882,
      "సాధి": 6883,
      "বিভিন্ন": 6884,
      "Southeast": 6885,
      "emer": 6886,
      "sts": 6887,
      "story": 6888,
      "ప్రము": 6889,
      "ప్రకారం": 6890,
      "1995": 6891,
      "akar": 6892,
      "క్టో": 6893,
      "50205": 6894,
      "ందు": 6895,
      "నియా": 6896,
      "211": 6897,
      "eph": 6898,
      "ల్తా": 6899,
      "ల్వే": 6900,
      "ecially": 6901,
      "osh": 6902,
      "ండమా": 6903,
      "విధ": 6904,
      "విద్య": 6905,
      "201412": 6906,
      "য়েত": 6907,
      "కుడు": 6908,
      "యాళం": 6909,
      "Index": 6910,
      "ందిన": 6911,
      "చిన్న": 6912,
      "sey": 6913,
      "వాహ": 6914,
      "within": 6915,
      "লাম": 6916,
      "4593": 6917,
      "562": 6918,
      "సంస్థ": 6919,
      "సంఖ్య": 6920,
      "ভাষাসমূহ": 6921,
      "ష్టు": 6922,
      "డిన": 6923,
      "arden": 6924,
      "genf": 6925,
      "దినాలు": 6926,
      "বেঙ্গ": 6927,
      "features": 6928,
      "ড়ে": 6929,
      "সিটি": 6930,
      "స్త్రీయ": 6931,
      "576": 6932,
      "Thali": 6933,
      "Cambod": 6934,
      "পিপি": 6935,
      "Devi": 6936,
      "উপমহা": 6937,
      "గుర్": 6938,
      "లిం": 6939,
      "కోల్": 6940,
      "School": 6941,
      "পরিসংখ": 6942,
      "Constitutional": 6943,
      "সমভূমি": 6944,
      "త్యం": 6945,
      "অঞ্চলের": 6946,
      "శాస్త్రీయ": 6947,
      "మేఘ": 6948,
      "Deccan": 6949,
      "জিডি": 6950,
      "ాల్లో": 6951,
      "মুঘল": 6952,
      "কোম্প": 6953,
      "ారిటీ": 6954,
      "ize": 6955,
      "Coll": 6956,
      "বৈচিত্র": 6957,
      "తున్న": 6958,
      "Adminis": 6959,
      "సుల్తా": 6960,
      "Express": 6961,
      "రాజ్యాలు": 6962,
      "గిన": 6963,
      "Chandigar": 6964,
      "ইউনি": 6965,
      "బడిన": 6966,
      "రైల్వే": 6967,
      "টাকা": 6968,
      "species": 6969,
      "పిక్": 6970,
      "UNHD": 6971,
      "yyyy": 6972,
      "politics": 6973,
      "যায়ী": 6974,
      "develop": 6975,
      "যোগ্য": 6976,
      "కాశ్మీర్": 6977,
      "After": 6978,
      "Hindustani": 6979,
      "মেশিনে": 6980,
      "মোট": 6981,
      "Twenty": 6982,
      "bueros": 6983,
      "vention": 6984,
      "నేషనల్": 6985,
      "কেরল": 6986,
      "অনুযায়ী": 6987,
      "riage": 6988,
      "viaf": 6989,
      "Literature": 6990,
      "Medieval": 6991,
      "disputes": 6992,
      "Online": 6993,
      "PCA": 6994,
      "వ్యాసం": 6995,
      "different": 6996,
      "వలస": 6997,
      "స్వతంత్ర": 6998,
      "family": 6999,
      "అయిన": 7000,
      "ప్రభుత్వం": 7001,
      "కాంగ్రెసు": 7002,
      "సముద్రం": 7003,
      "Federal": 7004,
      "pubmed": 7005,
      "Gilbert": 7006,
      "ఆగష్టు": 7007,
      "మలయాళం": 7008,
      "araja": 7009,
      "thehindu": 7010,
      "ইসলাম": 7011,
      "retary": 7012,
      "increased": 7013,
      "విశ్వా": 7014,
      "ంటుంది": 7015,
      "violence": 7016,
      "చాళుక్యులు": 7017,
      "Laos": 7018,
      "widely": 7019,
      "ట్రో": 7020,
      "influen": 7021,
      "ఇంగ్లీషు": 7022,
      "through": 7023,
      "Ojha2014": 7024,
      "Ahmedabad": 7025,
      "বছর": 7026,
      "వృద్ధి": 7027,
      "especially": 7028,
      "పార్లమెంట": 7029,
      "arbans": 7030,
      "ক্রয়ক্ষমতা": 7031,
      "Battle": 7032,
      "Sundarbans": 7033,
      "touch": 7034,
      "అమెరి": 7035,
      "ఆంధ్రప్రదేశ్": 7036,
      "మరాఠ": 7037,
      "ప్రముఖ": 7038,
      "Cambodia": 7039,
      "পরিসংখ্যান": 7040,
      "কোম্পানি": 7041,
      "సుల్తానులు": 7042,
      "Chandigarh": 7043,
      "UNHDR": 7044,
      "1st": 7045,
      "228": 7046,
      "324": 7047,
      "3000": 7048,
      "421": 7049,
      "700": 7050,
      "Ali": 7051,
      "Ajan": 7052,
      "Bur": 7053,
      "Brown": 7054,
      "Black": 7055,
      "Cup": 7056,
      "Forests": 7057,
      "Gana": 7058,
      "Ho": 7059,
      "Jhar": 7060,
      "Jana": 7061,
      "Kha": 7062,
      "Kann": 7063,
      "Mur": 7064,
      "Mana": 7065,
      "Muse": 7066,
      "No": 7067,
      "Operation": 7068,
      "Pre": 7069,
      "Power": 7070,
      "Range": 7071,
      "Sain": 7072,
      "Since": 7073,
      "Tel": 7074,
      "Ur": 7075,
      "Water": 7076,
      "Yaksh": 7077,
      "aedia": 7078,
      "bh": 7079,
      "bour": 7080,
      "cut": 7081,
      "der": 7082,
      "del": 7083,
      "ek": 7084,
      "etry": 7085,
      "ease": 7086,
      "fish": 7087,
      "flow": 7088,
      "hr": 7089,
      "ior": 7090,
      "iet": 7091,
      "ji": 7092,
      "jur": 7093,
      "kC": 7094,
      "kb": 7095,
      "lic": 7096,
      "make": 7097,
      "memor": 7098,
      "p1": 7099,
      "ste": 7100,
      "sci": 7101,
      "tre": 7102,
      "ua": 7103,
      "wana": 7104,
      "za": 7105,
      "zed": 7106,
      "zone": 7107,
      "একা": 7108,
      "ঐতি": 7109,
      "কমি": 7110,
      "ডার": 7111,
      "ধ্রু": 7112,
      "ন্যা": 7113,
      "ব্রু": 7114,
      "ময়": 7115,
      "যদি": 7116,
      "হে": 7117,
      "ামান": 7118,
      "ীর": 7119,
      "ুগু": 7120,
      "্সিটি": 7121,
      "inindia": 7122,
      "inated": 7123,
      "income": 7124,
      "onial": 7125,
      "reli": 7126,
      "tives": 7127,
      "thing": 7128,
      "ants": 7129,
      "ened": 7130,
      "edul": 7131,
      "20130": 7132,
      "201107": 7133,
      "asian": 7134,
      "1948": 7135,
      "1974": 7136,
      "1972": 7137,
      "idget": 7138,
      "ভার্সিটি": 7139,
      "cha": 7140,
      "refor": 7141,
      "adh": 7142,
      "compan": 7143,
      "ator": 7144,
      "angra": 7145,
      "angha": 7146,
      "বিপ্": 7147,
      "results": 7148,
      "1300": 7149,
      "155": 7150,
      "161": 7151,
      "iri": 7152,
      "176": 7153,
      "Introduction": 7154,
      "285": 7155,
      "Child": 7156,
      "ernet": 7157,
      "abase": 7158,
      "ablish": 7159,
      "exports": 7160,
      "Southern": 7161,
      "temper": 7162,
      "Hindus": 7163,
      "prof": 7164,
      "লেখা": 7165,
      "undp": 7166,
      "become": 7167,
      "before": 7168,
      "uccess": 7169,
      "parties": 7170,
      "337": 7171,
      "িত্": 7172,
      "নায়": 7173,
      "367": 7174,
      "efficient": 7175,
      "গ্রা": 7176,
      "marg": 7177,
      "489": 7178,
      "দেশিক": 7179,
      "382": 7180,
      "বেক্ষণ": 7181,
      "ords": 7182,
      "ডিও": 7183,
      "These": 7184,
      "manuscript": 7185,
      "Shri": 7186,
      "Shangha": 7187,
      "erves": 7188,
      "Trib": 7189,
      "tence": 7190,
      "coefficient": 7191,
      "halaya": 7192,
      "Pakistani": 7193,
      "France": 7194,
      "Partition": 7195,
      "Eurasian": 7196,
      "Amend": 7197,
      "Wikivoyage": 7198,
      "rence": 7199,
      "thority": 7200,
      "পরিবহ": 7201,
      "20210": 7202,
      "Sea": 7203,
      "স্থিত": 7204,
      "বৈদেশিক": 7205,
      "CON": 7206,
      "Bridget": 7207,
      "Countries": 7208,
      "শিখ": 7209,
      "struggle": 7210,
      "plex": 7211,
      "rights": 7212,
      "aceu": 7213,
      "দ্বীপপু": 7214,
      "Publishers": 7215,
      "Encyclopaedia": 7216,
      "Minority": 7217,
      "military": 7218,
      "Insur": 7219,
      "Davidson": 7220,
      "Barrow": 7221,
      "Michell": 7222,
      "served": 7223,
      "Madras": 7224,
      "আরব": 7225,
      "আন্দামান": 7226,
      "Robb2011": 7227,
      "market": 7228,
      "parliamentary": 7229,
      "parliamentofindia": 7230,
      "Earliest": 7231,
      "khand": 7232,
      "Flood": 7233,
      "Flora": 7234,
      "body": 7235,
      "estimated": 7236,
      "Literacy": 7237,
      "সূচ": 7238,
      "Review": 7239,
      "American": 7240,
      "ক্ষেত্রে": 7241,
      "খ্রিস্ট": 7242,
      "তেলুগু": 7243,
      "PetragliaAllchin2007": 7244,
      "Canada": 7245,
      "series": 7246,
      "harmaceu": 7247,
      "স্থাপত্য": 7248,
      "Protection": 7249,
      "বর্তমান": 7250,
      "publications": 7251,
      "Barbara": 7252,
      "Meghalaya": 7253,
      "Copland2001": 7254,
      "Caves": 7255,
      "Security": 7256,
      "festival": 7257,
      "kingdoms": 7258,
      "Building": 7259,
      "Eighth": 7260,
      "জৈন": 7261,
      "কলকাতা": 7262,
      "Authority": 7263,
      "Molnar": 7264,
      "baki": 7265,
      "claim": 7266,
      "তত্ত্ব": 7267,
      "জিডিপি": 7268,
      "Collingham": 7269,
      "ইউনিভার্সিটি": 7270,
      "Jharkhand": 7271,
      "Museum": 7272,
      "Saint": 7273,
      "ঐতিহ": 7274,
      "ধ্রুপ": 7275,
      "eduled": 7276,
      "বিপ্লব": 7277,
      "Shanghai": 7278,
      "পরিবহন": 7279,
      "দ্বীপপুঞ্জ": 7280,
      "0266": 7281,
      "215": 7282,
      "314": 7283,
      "374": 7284,
      "410": 7285,
      "418": 7286,
      "423": 7287,
      "5562": 7288,
      "953": 7289,
      "App": 7290,
      "BT": 7291,
      "Bom": 7292,
      "Bel": 7293,
      "CDS": 7294,
      "DD": 7295,
      "Dog": 7296,
      "Daman": 7297,
      "DOL": 7298,
      "Factbook": 7299,
      "Football": 7300,
      "Gange": 7301,
      "Glim": 7302,
      "Gazette": 7303,
      "HR": 7304,
      "IT": 7305,
      "Im": 7306,
      "Its": 7307,
      "Ko": 7308,
      "LS": 7309,
      "Line": 7310,
      "Mas": 7311,
      "Miz": 7312,
      "MAAJ": 7313,
      "ND": 7314,
      "Net": 7315,
      "OP": 7316,
      "Old": 7317,
      "PE": 7318,
      "PO": 7319,
      "Put": 7320,
      "Rec": 7321,
      "Sim": 7322,
      "Sons": 7323,
      "Set": 7324,
      "Serv": 7325,
      "Selection": 7326,
      "TS": 7327,
      "TRI": 7328,
      "Tele": 7329,
      "Telang": 7330,
      "Uda": 7331,
      "W00": 7332,
      "XLS": 7333,
      "YS": 7334,
      "Year": 7335,
      "Ze": 7336,
      "bo": 7337,
      "bird": 7338,
      "central": 7339,
      "ded": 7340,
      "diversity": 7341,
      "equ": 7342,
      "fol": 7343,
      "freedom": 7344,
      "forge": 7345,
      "ged": 7346,
      "gana": 7347,
      "gAAQBAJ": 7348,
      "globe": 7349,
      "hor": 7350,
      "ham": 7351,
      "hockey": 7352,
      "jang": 7353,
      "jana": 7354,
      "jagran": 7355,
      "josh": 7356,
      "linguistic": 7357,
      "mid": 7358,
      "mana": 7359,
      "mism": 7360,
      "mountain": 7361,
      "members": 7362,
      "migr": 7363,
      "ns": 7364,
      "names": 7365,
      "nearly": 7366,
      "n8012": 7367,
      "pm": 7368,
      "qy": 7369,
      "sang": 7370,
      "source": 7371,
      "tus": 7372,
      "tats": 7373,
      "tool": 7374,
      "ued": 7375,
      "van": 7376,
      "writ": 7377,
      "wildlife": 7378,
      "would": 7379,
      "ंभ": 7380,
      "ंश": 7381,
      "ंची": 7382,
      "ंकर": 7383,
      "अं": 7384,
      "अति": 7385,
      "अंग": 7386,
      "अने": 7387,
      "अध्य": 7388,
      "अक्त": 7389,
      "अंतर": 7390,
      "आज": 7391,
      "आस": 7392,
      "आयोग": 7393,
      "इसे": 7394,
      "इन्": 7395,
      "इला": 7396,
      "इम्": 7397,
      "इण्ड": 7398,
      "इंटे": 7399,
      "उसे": 7400,
      "उन्हें": 7401,
      "ऊपर": 7402,
      "ऊँची": 7403,
      "एव": 7404,
      "एंड": 7405,
      "कच": 7406,
      "कट": 7407,
      "कथा": 7408,
      "क्यों": 7409,
      "खु": 7410,
      "गढ": 7411,
      "गी": 7412,
      "चली": 7413,
      "जों": 7414,
      "जन्": 7415,
      "जमा": 7416,
      "जित": 7417,
      "जाने": 7418,
      "टै": 7419,
      "डन": 7420,
      "ढा": 7421,
      "तं": 7422,
      "तन्": 7423,
      "तत्व": 7424,
      "तनाव": 7425,
      "तराई": 7426,
      "दाल": 7427,
      "द्रो": 7428,
      "धु": 7429,
      "ध्या": 7430,
      "नर्म": 7431,
      "न्यू": 7432,
      "नेशन": 7433,
      "प्य": 7434,
      "पों": 7435,
      "पवन": 7436,
      "बरा": 7437,
      "बडी": 7438,
      "बदल": 7439,
      "मण्ड": 7440,
      "मस्वरूप": 7441,
      "यें": 7442,
      "यहाँ": 7443,
      "रद": 7444,
      "रंग": 7445,
      "व्": 7446,
      "वारा": 7447,
      "शक": 7448,
      "शस": 7449,
      "श्व": 7450,
      "शैल": 7451,
      "शहरी": 7452,
      "शर्स": 7453,
      "शंकर": 7454,
      "शरद": 7455,
      "सव": 7456,
      "सॉ": 7457,
      "सिक": 7458,
      "सक्र": 7459,
      "हाल": 7460,
      "ामस्वरूप": 7461,
      "िलों": 7462,
      "िचेरी": 7463,
      "ीन": 7464,
      "ुम": 7465,
      "ुलिपि": 7466,
      "ुत्पत्ति": 7467,
      "ूप": 7468,
      "ृद्ध": 7469,
      "ैण्ड": 7470,
      "्स": 7471,
      "१४": 7472,
      "२८": 7473,
      "२९": 7474,
      "অতি": 7475,
      "উরি": 7476,
      "এছ": 7477,
      "এপ্র": 7478,
      "এটি": 7479,
      "কম": 7480,
      "খাল": 7481,
      "জম্": 7482,
      "ঠা": 7483,
      "থর": 7484,
      "দিক": 7485,
      "দারি": 7486,
      "নক": 7487,
      "নরে": 7488,
      "পতা": 7489,
      "পঞ্চ": 7490,
      "বৌ": 7491,
      "বরা": 7492,
      "ভুট": 7493,
      "মের": 7494,
      "মারা": 7495,
      "লিক": 7496,
      "ষি": 7497,
      "সর্": 7498,
      "াড়া": 7499,
      "াবেক্ষণ": 7500,
      "িতা": 7501,
      "েল": 7502,
      "েয়": 7503,
      "োষ": 7504,
      "৫৪": 7505,
      "అర": 7506,
      "అక్ష": 7507,
      "అరే": 7508,
      "అభి": 7509,
      "అశో": 7510,
      "అండమా": 7511,
      "ఆధ": 7512,
      "ఇంట": 7513,
      "ఉంట": 7514,
      "ఎక్": 7515,
      "ఏప్ర": 7516,
      "కల": 7517,
      "కలు": 7518,
      "కర్య": 7519,
      "కబడ్": 7520,
      "ఖో": 7521,
      "గే": 7522,
      "గర్": 7523,
      "చద": 7524,
      "చో": 7525,
      "చండ": 7526,
      "జం": 7527,
      "జయ": 7528,
      "టై": 7529,
      "టర్": 7530,
      "డమ్": 7531,
      "డయ్య": 7532,
      "డఖ్": 7533,
      "ణే": 7534,
      "ణంగా": 7535,
      "నంద": 7536,
      "నడి": 7537,
      "నంలో": 7538,
      "పత": 7539,
      "పచ్": 7540,
      "బో": 7541,
      "బర్": 7542,
      "బంధ": 7543,
      "మో": 7544,
      "మాలు": 7545,
      "మలే": 7546,
      "యె": 7547,
      "రళ": 7548,
      "లాం": 7549,
      "లంగా": 7550,
      "లడఖ్": 7551,
      "ళా": 7552,
      "ళి": 7553,
      "వారి": 7554,
      "వనాలు": 7555,
      "శి": 7556,
      "శు": 7557,
      "షియా": 7558,
      "సహ": 7559,
      "సే": 7560,
      "సత్య": 7561,
      "హొ": 7562,
      "హవే": 7563,
      "హర్యా": 7564,
      "ైస్త": 7565,
      "tegr": 7566,
      "ina": 7567,
      "rease": 7568,
      "reach": 7569,
      "reement": 7570,
      "tile": 7571,
      "tigr": 7572,
      "209": 7573,
      "20H": 7574,
      "20MD": 7575,
      "्रान्": 7576,
      "anana": 7577,
      "civil": 7578,
      "isi": 7579,
      "्युनिस्ट": 7580,
      "itt": 7581,
      "राव": 7582,
      "thema": 7583,
      "मेज": 7584,
      "मेव": 7585,
      "20110": 7586,
      "ason": 7587,
      "asing": 7588,
      "asthan": 7589,
      "र्भ": 7590,
      "र्मा": 7591,
      "स्कृतिक": 7592,
      "काज": 7593,
      "194": 7594,
      "195": 7595,
      "1956": 7596,
      "1983": 7597,
      "ought": 7598,
      "్రి": 7599,
      "ids": 7600,
      "leavy": 7601,
      "ches": 7602,
      "changes": 7603,
      "adas": 7604,
      "trillion": 7605,
      "truction": 7606,
      "प्रो": 7607,
      "प्रसि": 7608,
      "प्रती": 7609,
      "प्रिय": 7610,
      "प्रबंधन": 7611,
      "प्रत्या": 7612,
      "प्रस्ता": 7613,
      "प्रकाश": 7614,
      "प्रवर्तन": 7615,
      "प्रदर्शन": 7616,
      "विमान": 7617,
      "across": 7618,
      "weo": 7619,
      "েরি": 7620,
      "্যার": 7621,
      "ge129": 7622,
      "न्त": 7623,
      "using": 7624,
      "त्रता": 7625,
      "संचार": 7626,
      "संख्य": 7627,
      "lins": 7628,
      "राजा": 7629,
      "राजस्व": 7630,
      "ాలయ": 7631,
      "ాలె": 7632,
      "ాలను": 7633,
      "साधु": 7634,
      "fig": 7635,
      "भाबर": 7636,
      "hered": 7637,
      "पुन": 7638,
      "ilar": 7639,
      "iles": 7640,
      "पर्या": 7641,
      "परिण": 7642,
      "তিতে": 7643,
      "FOOTNOTEMinistry": 7644,
      "FOOTNOTEProvisional": 7645,
      "FOOTNOTERowland1970": 7646,
      "FOOTNOTEConinghamYoung2015": 7647,
      "FOOTNOTEClémentin": 7648,
      "సామా": 7649,
      "বিস্ত": 7650,
      "00254": 7651,
      "atell": 7652,
      "नेता": 7653,
      "कोपेन": 7654,
      "त्मक": 7655,
      "1320": 7656,
      "1353": 7657,
      "ర్ణం": 7658,
      "ర్చు": 7659,
      "emi": 7660,
      "ratic": 7661,
      "मातर": 7662,
      "indic": 7663,
      "्वा": 7664,
      "158": 7665,
      "1649": 7666,
      "16mar": 7667,
      "वांग": 7668,
      "वाहन": 7669,
      "वासियों": 7670,
      "्रेलिया": 7671,
      "రాం": 7672,
      "రాస్య": 7673,
      "भाषाई": 7674,
      "ప్రజా": 7675,
      "हाबाद": 7676,
      "CITEREFAsherTalbot": 7677,
      "CITEREFFisher2018": 7678,
      "262": 7679,
      "সাবে": 7680,
      "eld": 7681,
      "पाक": 7682,
      "पाया": 7683,
      "237": 7684,
      "ट्रो": 7685,
      "প্রেস": 7686,
      "భారతదేశపు": 7687,
      "భారతదేశానికి": 7688,
      "agore": 7689,
      "समस": 7690,
      "समु": 7691,
      "समृद्ध": 7692,
      "లోని": 7693,
      "roti": 7694,
      "280": 7695,
      "करती": 7696,
      "किसी": 7697,
      "నికోబ": 7698,
      "eping": 7699,
      "ज़िलों": 7700,
      "जनवादी": 7701,
      "बादी": 7702,
      "uborne": 7703,
      "confl": 7704,
      "मिश्र": 7705,
      "Chang": 7706,
      "apore": 7707,
      "সংক্রা": 7708,
      "लिख": 7709,
      "लिजें": 7710,
      "ంగో": 7711,
      "Harper": 7712,
      "Harmand": 7713,
      "Books": 7714,
      "abin": 7715,
      "सीट": 7716,
      "ండా": 7717,
      "ండ్య": 7718,
      "तरण": 7719,
      "iverse": 7720,
      "नीचे": 7721,
      "సింది": 7722,
      "mathema": 7723,
      "पूरा": 7724,
      "पूरे": 7725,
      "म्बे": 7726,
      "తాజ్": 7727,
      "నాథ": 7728,
      "వివిధ": 7729,
      "272": 7730,
      "276": 7731,
      "তাজ": 7732,
      "AAMAAJ": 7733,
      "త్తీ": 7734,
      "पुरातत्व": 7735,
      "కుల": 7736,
      "కుంట": 7737,
      "जिन्हें": 7738,
      "liGazette": 7739,
      "ম্বই": 7740,
      "कृष्": 7741,
      "476": 7742,
      "ourism": 7743,
      "establish": 7744,
      "जीव": 7745,
      "टीवी": 7746,
      "धर्मों": 7747,
      "होना": 7748,
      "িতে": 7749,
      "708012": 7750,
      "పూర్వ": 7751,
      "వాదం": 7752,
      "ికీ": 7753,
      "్రామ": 7754,
      "पुरुष": 7755,
      "మాత్ర": 7756,
      "মাধ্য": 7757,
      "अनुसूच": 7758,
      "భాగం": 7759,
      "53203": 7760,
      "ians": 7761,
      "सरकारी": 7762,
      "alls": 7763,
      "1969": 7764,
      "विश्वनाथ": 7765,
      "हरलाल": 7766,
      "461": 7767,
      "इसका": 7768,
      "इसमें": 7769,
      "ট্রফি": 7770,
      "নিজ": 7771,
      "হিসাবে": 7772,
      "సంప్రదా": 7773,
      "1208": 7774,
      "కాతా": 7775,
      "টেলি": 7776,
      "5948": 7777,
      "লিং": 7778,
      "కిం": 7779,
      "కింగ్": 7780,
      "పాండి": 7781,
      "పాండ్య": 7782,
      "फ़्रान्": 7783,
      "పుర": 7784,
      "స్థా": 7785,
      "Mathematics": 7786,
      "১৯৮": 7787,
      "న్నై": 7788,
      "व्युत्पत्ति": 7789,
      "अधिका": 7790,
      "वन्य": 7791,
      "स्वतन्": 7792,
      "Animal": 7793,
      "itions": 7794,
      "उपयोग": 7795,
      "उपखंड": 7796,
      "नाममात्र": 7797,
      "orders": 7798,
      "सुरत": 7799,
      "ameez": 7800,
      "तटों": 7801,
      "सामरिक": 7802,
      "वेयर": 7803,
      "सम्बन्ध": 7804,
      "सम्प्रभु": 7805,
      "news18": 7806,
      "disease": 7807,
      "केंद्र2005": 7808,
      "केंद्रशासित": 7809,
      "स्ट्रेलिया": 7810,
      "type": 7811,
      "angered": 7812,
      "गाँ": 7813,
      "बंगाली": 7814,
      "ण्डिचेरी": 7815,
      "జిల్": 7816,
      "पेय": 7817,
      "जिसने": 7818,
      "Tripura": 7819,
      "संगम": 7820,
      "repor": 7821,
      "కేరళ": 7822,
      "గుప్": 7823,
      "ুরো": 7824,
      "లియా": 7825,
      "लोकप्रिय": 7826,
      "Peter": 7827,
      "forms": 7828,
      "religions": 7829,
      "जयते": 7830,
      "Wiki": 7831,
      "बोड़ो": 7832,
      "చేయ": 7833,
      "oupadi": 7834,
      "ব্যুরো": 7835,
      "దాద్రా": 7836,
      "निर्भर": 7837,
      "Rajasthan": 7838,
      "వేగంగా": 7839,
      "সমতা": 7840,
      "भागी": 7841,
      "FOOTNOTEStein1998121": 7842,
      "FOOTNOTEStein1998132": 7843,
      "FOOTNOTESingh2009181": 7844,
      "FOOTNOTESingh2009186": 7845,
      "FOOTNOTESingh2009545": 7846,
      "FOOTNOTESingh2009255": 7847,
      "विकासशील": 7848,
      "Netra": 7849,
      "Neuborne": 7850,
      "Prosp": 7851,
      "Engineering": 7852,
      "অঞ্চলসমূহ": 7853,
      "করতে": 7854,
      "Industry": 7855,
      "Marshall": 7856,
      "చెన్నై": 7857,
      "జీరియా": 7858,
      "ప్పట": 7859,
      "మేన": 7860,
      "యుగం": 7861,
      "Bhagwat": 7862,
      "कार्यकाल": 7863,
      "कार्यक्रम": 7864,
      "मैदानी": 7865,
      "মুম্বই": 7866,
      "691": 7867,
      "पोषण": 7868,
      "কোটি": 7869,
      "జనతా": 7870,
      "జనగణ": 7871,
      "జనపద": 7872,
      "মালদ্বীপ": 7873,
      "মহাকাশ": 7874,
      "బియా": 7875,
      "మొగలు": 7876,
      "बढ़ा": 7877,
      "बढ़ने": 7878,
      "बढ़ती": 7879,
      "కొరియా": 7880,
      "unei": 7881,
      "Demon": 7882,
      "लंबे": 7883,
      "संबंधों": 7884,
      "परिस्थिति": 7885,
      "पूर्ति": 7886,
      "College": 7887,
      "Collins": 7888,
      "ually": 7889,
      "दर्जा": 7890,
      "बनाया": 7891,
      "पर्वतीय": 7892,
      "Brunei": 7893,
      "గోళ": 7894,
      "గోవా": 7895,
      "గోదా": 7896,
      "డామన్": 7897,
      "अफगान": 7898,
      "వరాలు": 7899,
      "ప్రపంచము": 7900,
      "ప్రపంచంలో": 7901,
      "अवशेष": 7902,
      "धाम": 7903,
      "12410": 7904,
      "త్రిపుర": 7905,
      "स्थापत्य": 7906,
      "default": 7907,
      "సంస్కృతం": 7908,
      "info": 7909,
      "वर्गीकरण": 7910,
      "छत्तीसगढ": 7911,
      "টাই": 7912,
      "Dead": 7913,
      "Sanatan": 7914,
      "झारखण्ड": 7915,
      "పించ": 7916,
      "TROP": 7917,
      "कम्युनिस्ट": 7918,
      "कंपनियों": 7919,
      "20160708012": 7920,
      "सांस्कृतिक": 7921,
      "स्तरीय": 7922,
      "অবস্থিত": 7923,
      "texts": 7924,
      "నాగాలా": 7925,
      "Assamese": 7926,
      "topic": 7927,
      "पट्": 7928,
      "క్రైస్త": 7929,
      "తెలంగా": 7930,
      "Fundamental": 7931,
      "মোদী": 7932,
      "వెను": 7933,
      "సాంకే": 7934,
      "A7C": 7935,
      "Veda": 7936,
      "उनके": 7937,
      "उनकी": 7938,
      "ফোর্স": 7939,
      "adium": 7940,
      "Desert": 7941,
      "edule": 7942,
      "pses": 7943,
      "०००": 7944,
      "భిన్న": 7945,
      "నేషియా": 7946,
      "Australian": 7947,
      "NAL": 7948,
      "puran": 7949,
      "ব্যাঙ্ক": 7950,
      "include": 7951,
      "Early": 7952,
      "Droupadi": 7953,
      "রক্ষণাবেক্ষণ": 7954,
      "सेवाओं": 7955,
      "लिंगानु": 7956,
      "पब्लिशर्स": 7957,
      "নিয়ন্ত্র": 7958,
      "ఒకటి": 7959,
      "Manipuri": 7960,
      "Sindhi": 7961,
      "present": 7962,
      "जवाहरलाल": 7963,
      "योजना": 7964,
      "కళలు": 7965,
      "సైనిక": 7966,
      "कामकाज": 7967,
      "प्रारम्भिक": 7968,
      "Cricket": 7969,
      "Civilisation": 7970,
      "బ్రిటిష్": 7971,
      "similar": 7972,
      "नन्दादेवी": 7973,
      "स्कूल": 7974,
      "भाषी": 7975,
      "জাতিসংঘ": 7976,
      "सदस्य": 7977,
      "सदस्यों": 7978,
      "Malayalam": 7979,
      "Malaysia": 7980,
      "परंपरागत": 7981,
      "কর্তৃ": 7982,
      "స్వతం": 7983,
      "ముఖ్యమైన": 7984,
      "Americana": 7985,
      "satp": 7986,
      "tribution": 7987,
      "MilliGazette": 7988,
      "चालुक": 7989,
      "లక్షద్వీ": 7990,
      "దేశంలోని": 7991,
      "पांडुलिपि": 7992,
      "क्रिकेट": 7993,
      "क्रिसमस": 7994,
      "LCH": 7995,
      "20833": 7996,
      "Diu": 7997,
      "సమరం": 7998,
      "సూచి": 7999,
      "recogni": 8000,
      "Fauna": 8001,
      "फैली": 8002,
      "অধি": 8003,
      "গঠন": 8004,
      "পোশা": 8005,
      "नागरिक": 8006,
      "मंत्रिमण्ड": 8007,
      "sky": 8008,
      "ymn": 8009,
      "అస్సాం": 8010,
      "సారస్వతం": 8011,
      "FOOTNOTEHarle199": 8012,
      "FOOTNOTESpear1990242": 8013,
      "oliath": 8014,
      "সমাজ": 8015,
      "occup": 8016,
      "61389": 8017,
      "pollution": 8018,
      "एजेंसी": 8019,
      "జార్ఖండ్": 8020,
      "మహల్": 8021,
      "సౌకర్య": 8022,
      "क्षमता": 8023,
      "निम्न": 8024,
      "సిక్కిం": 8025,
      "498576": 8026,
      "সেনাবাহিনী": 8027,
      "మిజోరాం": 8028,
      "टेलीवि": 8029,
      "స్టాక్": 8030,
      "इंटरनेट": 8031,
      "తరువాత": 8032,
      "Dunleavy": 8033,
      "Sahib": 8034,
      "employed": 8035,
      "75457": 8036,
      "উল্লেখযোগ্য": 8037,
      "Cinema": 8038,
      "Singapore": 8039,
      "সীমা": 8040,
      "ఏర్ప": 8041,
      "కనుమలు": 8042,
      "మణిపూర్": 8043,
      "టిబెట్": 8044,
      "Advanced": 8045,
      "speakers": 8046,
      "নির্ভরশীল": 8047,
      "వారసత్వ": 8048,
      "Directorate": 8049,
      "Dominion": 8050,
      "Sino": 8051,
      "गैर": 8052,
      "ध्वज": 8053,
      "पॉण्डिचेरी": 8054,
      "सत्यमेव": 8055,
      "्टवेयर": 8056,
      "সিকিউরি": 8057,
      "विंध्याचल": 8058,
      "wearing": 8059,
      "सेपियन्स": 8060,
      "शुरुआत": 8061,
      "lawsofindia": 8062,
      "Possehl2003": 8063,
      "Konkani": 8064,
      "ग्रीष्मकालीन": 8065,
      "Tarlo1996": 8066,
      "NGDPD": 8067,
      "Ravi": 8068,
      "సహాయం": 8069,
      "45932": 8070,
      "మేఘాలయ": 8071,
      "అమెరికా": 8072,
      "Ajanta": 8073,
      "Murmu": 8074,
      "Telugu": 8075,
      "একাধিক": 8076,
      "যদিও": 8077,
      "temperature": 8078,
      "Amendment": 8079,
      "harmaceutical": 8080,
      "026612410": 8081,
      "95342": 8082,
      "DDW00": 8083,
      "Dogri": 8084,
      "Gangetic": 8085,
      "Glimpses": 8086,
      "Putin": 8087,
      "Telangana": 8088,
      "Udaipur": 8089,
      "janganana": 8090,
      "mismatch": 8091,
      "n80125948": 8092,
      "tatsama": 8093,
      "toolforge": 8094,
      "अनेक": 8095,
      "अक्तूबर": 8096,
      "इलाहाबाद": 8097,
      "इण्डिया": 8098,
      "इंटेलिजें": 8099,
      "नर्मदा": 8100,
      "सक्रिय": 8101,
      "এছাড়া": 8102,
      "এপ্রিল": 8103,
      "জম্মু": 8104,
      "নরেন্দ্র": 8105,
      "পতাকা": 8106,
      "বৌদ্ধ": 8107,
      "ভুটান": 8108,
      "সর্বা": 8109,
      "అరేబియా": 8110,
      "అండమాన్": 8111,
      "ఎక్స్": 8112,
      "ఏప్రిల్": 8113,
      "కబడ్డీ": 8114,
      "చదరంగ": 8115,
      "చోళ": 8116,
      "చండీ": 8117,
      "డయ్యూ": 8118,
      "పచ్చ": 8119,
      "మలేషియా": 8120,
      "హవేలీ": 8121,
      "హర్యానా": 8122,
      "tigris": 8123,
      "20MDDS": 8124,
      "प्रतीक": 8125,
      "प्रस्तावित": 8126,
      "ge129384": 8127,
      "पर्यावरण": 8128,
      "परिणामस्वरूप": 8129,
      "FOOTNOTEConinghamYoung2015104": 8130,
      "atellite": 8131,
      "135375457": 8132,
      "मातरम्": 8133,
      "16mar12": 8134,
      "రాస్యత": 8135,
      "నికోబార్": 8136,
      "Harmandir": 8137,
      "త్తీస్": 8138,
      "अनुसूचित": 8139,
      "పాండిచ్చేరి": 8140,
      "फ़्रान्स": 8141,
      "अधिकांश": 8142,
      "स्वतन्त्रता": 8143,
      "Prospects": 8144,
      "జనపదాలు": 8145,
      "अफगानिस्तान": 8146,
      "TROPEX": 8147,
      "20160708012438": 8148,
      "నాగాలాండ్": 8149,
      "తెలంగాణ": 8150,
      "लिंगानुपात": 8151,
      "లక్షద్వీప్": 8152,
      "मंत्रिमण्डल": 8153,
      "সিকিউরিটি": 8154,
      "DDW00C": 8155,
      "इंटेलिजेंस": 8156,
      "224": 8157,
      "359": 8158,
      "3rd": 8159,
      "426": 8160,
      "429": 8161,
      "430": 8162,
      "7j": 8163,
      "870": 8164,
      "9F": 8165,
      "Az": 8166,
      "B8": 8167,
      "Cy": 8168,
      "Cres": 8169,
      "Cos": 8170,
      "Dh": 8171,
      "Eight": 8172,
      "Forest": 8173,
      "Female": 8174,
      "Gate": 8175,
      "HM": 8176,
      "Hel": 8177,
      "Ken": 8178,
      "Kur": 8179,
      "Mong": 8180,
      "Member": 8181,
      "Oly": 8182,
      "PS": 8183,
      "PT": 8184,
      "Pi": 8185,
      "Pol": 8186,
      "Pyle": 8187,
      "Rights": 8188,
      "Str": 8189,
      "Some": 8190,
      "Satellite": 8191,
      "Tod": 8192,
      "Tiger": 8193,
      "UK": 8194,
      "Ver": 8195,
      "Vij": 8196,
      "Y1": 8197,
      "Y7j": 8198,
      "ause": 8199,
      "court": 8200,
      "coral": 8201,
      "cuisine": 8202,
      "ees": 8203,
      "earch": 8204,
      "elag": 8205,
      "f5": 8206,
      "fer": 8207,
      "fed": 8208,
      "fact": 8209,
      "give": 8210,
      "hip": 8211,
      "ium": 8212,
      "ira": 8213,
      "iop": 8214,
      "lc": 8215,
      "las": 8216,
      "living": 8217,
      "lung": 8218,
      "mo": 8219,
      "may": 8220,
      "makes": 8221,
      "nla": 8222,
      "num": 8223,
      "nath": 8224,
      "next": 8225,
      "pages": 8226,
      "pati": 8227,
      "post": 8228,
      "round": 8229,
      "raman": 8230,
      "san": 8231,
      "sev": 8232,
      "sex": 8233,
      "sultanate": 8234,
      "uters": 8235,
      "vent": 8236,
      "where": 8237,
      "আজ": 8238,
      "আসাম": 8239,
      "উড": 8240,
      "এম": 8241,
      "এক্স": 8242,
      "কিল": 8243,
      "কন্ন": 8244,
      "খন": 8245,
      "খর": 8246,
      "গানি": 8247,
      "ঘা": 8248,
      "ডলার": 8249,
      "দিকে": 8250,
      "ধর": 8251,
      "নৌ": 8252,
      "নয়": 8253,
      "ফ্রা": 8254,
      "ভিত্": 8255,
      "রণ": 8256,
      "সভ্য": 8257,
      "হর": 8258,
      "হকি": 8259,
      "৩৩": 8260,
      "৩৪": 8261,
      "৩৫": 8262,
      "৫৫": 8263,
      "৬৫": 8264,
      "iar": 8265,
      "iated": 8266,
      "inc": 8267,
      "init": 8268,
      "ination": 8269,
      "increase": 8270,
      "real": 8271,
      "reat": 8272,
      "recent": 8273,
      "render": 8274,
      "orary": 8275,
      "eri": 8276,
      "enous": 8277,
      "isa": 8278,
      "itar": 8279,
      "andy": 8280,
      "anding": 8281,
      "20120": 8282,
      "asa": 8283,
      "astern": 8284,
      "1936": 8285,
      "ouli": 8286,
      "ided": 8287,
      "্রো": 8288,
      "cher": 8289,
      "lage": 8290,
      "ads": 8291,
      "adop": 8292,
      "impact": 8293,
      "uries": 8294,
      "ecu": 8295,
      "onset": 8296,
      "1233": 8297,
      "ily": 8298,
      "igenous": 8299,
      "ন্ট্র": 8300,
      "entity": 8301,
      "olid": 8302,
      "র্থ": 8303,
      "result": 8304,
      "research": 8305,
      "upper": 8306,
      "0060": 8307,
      "rain": 8308,
      "rakash": 8309,
      "1858": 8310,
      "ক্লো": 8311,
      "স্মাই": 8312,
      "164": 8313,
      "CITEREFLibrary": 8314,
      "268": 8315,
      "প্রিয়": 8316,
      "প্রথা": 8317,
      "প্রস্ত": 8318,
      "rocod": 8319,
      "5059": 8320,
      "called": 8321,
      "Univers": 8322,
      "290": 8323,
      "295": 8324,
      "302": 8325,
      "above": 8326,
      "২০২১": 8327,
      "temporary": 8328,
      "279": 8329,
      "udget": 8330,
      "prac": 8331,
      "prop": 8332,
      "harata": 8333,
      "Harvard": 8334,
      "909": 8335,
      "470": 8336,
      "339": 8337,
      "withdra": 8338,
      "মাথা": 8339,
      "trition": 8340,
      "২০০৪": 8341,
      "364": 8342,
      "হিসে": 8343,
      "566": 8344,
      "জনপরিসংখ্যান": 8345,
      "জনপ্রিয়": 8346,
      "offe": 8347,
      "issn": 8348,
      "Architecture": 8349,
      "inequality": 8350,
      "উৎপাদ": 8351,
      "ardian": 8352,
      "385": 8353,
      "ঙ্গা": 8354,
      "সিস": 8355,
      "398": 8356,
      "distribution": 8357,
      "engineering": 8358,
      "Trust": 8359,
      "coast": 8360,
      "centuries": 8361,
      "২০১৩": 8362,
      "২০১৮": 8363,
      "Wikipedia": 8364,
      "Schedule": 8365,
      "20240": 8366,
      "regional": 8367,
      "oldest": 8368,
      "করেছে": 8369,
      "Ethiop": 8370,
      "গণতান্ত্রিক": 8371,
      "মহাসাগর": 8372,
      "poin": 8373,
      "বিশ্বকাপ": 8374,
      "wars": 8375,
      "lsC": 8376,
      "Chandram": 8377,
      "chnological": 8378,
      "Palace": 8379,
      "spread": 8380,
      "arkar": 8381,
      "Arabia": 8382,
      "যাত্র": 8383,
      "যোগিতা": 8384,
      "যুক্তরাজ্য": 8385,
      "According": 8386,
      "serving": 8387,
      "vert": 8388,
      "growing": 8389,
      "dependent": 8390,
      "background": 8391,
      "record": 8392,
      "purpos": 8393,
      "loyment": 8394,
      "scul": 8395,
      "Nataraja": 8396,
      "Turkey": 8397,
      "চেঞ্জ": 8398,
      "village": 8399,
      "Lok": 8400,
      "Revolution": 8401,
      "Green": 8402,
      "Greater": 8403,
      "blue": 8404,
      "পূর্ণ": 8405,
      "Saudi": 8406,
      "atantra": 8407,
      "forcement": 8408,
      "PA486": 8409,
      "democ": 8410,
      "small": 8411,
      "আফগানি": 8412,
      "standards": 8413,
      "Tibetan": 8414,
      "existence": 8415,
      "Wright2010": 8416,
      "Ifqy": 8417,
      "প্রশাসনিক": 8418,
      "পরিষদ": 8419,
      "Classical": 8420,
      "পার্টি": 8421,
      "পরীক্ষা": 8422,
      "Emergency": 8423,
      "Ghats": 8424,
      "courts": 8425,
      "mjIfqy": 8426,
      "অধিকার": 8427,
      "Urban": 8428,
      "relief": 8429,
      "profiles": 8430,
      "ঐতিহ্য": 8431,
      "Image": 8432,
      "tegration": 8433,
      "indicator": 8434,
      "নিয়ন্ত্রণ": 8435,
      "recognized": 8436,
      "Olymp": 8437,
      "Pylee": 8438,
      "Y7jlsC": 8439,
      "এক্সচেঞ্জ": 8440,
      "কন্নড়": 8441,
      "ঘাট": 8442,
      "00605059": 8443,
      "স্মাইলিং": 8444,
      "উৎপাদন": 8445,
      "Ethiopia": 8446,
      "Chandramouli": 8447,
      "আফগানিস্তান": 8448,
      "mjIfqyY7jlsC": 8449,
      "018": 8450,
      "0149": 8451,
      "225": 8452,
      "214": 8453,
      "320": 8454,
      "310": 8455,
      "318": 8456,
      "316": 8457,
      "323": 8458,
      "328": 8459,
      "327": 8460,
      "360": 8461,
      "351": 8462,
      "420": 8463,
      "422": 8464,
      "520": 8465,
      "577": 8466,
      "814": 8467,
      "826": 8468,
      "AE": 8469,
      "Are": 8470,
      "BI": 8471,
      "Bollywood": 8472,
      "Ci": 8473,
      "Cap": 8474,
      "Dom": 8475,
      "EB": 8476,
      "ENG": 8477,
      "ENC": 8478,
      "Eastern": 8479,
      "Fi": 8480,
      "Freedom": 8481,
      "G4": 8482,
      "GQ": 8483,
      "Gul": 8484,
      "Hy": 8485,
      "Ira": 8486,
      "Jus": 8487,
      "Ke": 8488,
      "Kaz": 8489,
      "Khan": 8490,
      "LD": 8491,
      "Lad": 8492,
      "Lear": 8493,
      "LNG": 8494,
      "Mz": 8495,
      "Maj": 8496,
      "Nav": 8497,
      "Nass": 8498,
      "Pad": 8499,
      "Poverty": 8500,
      "Rul": 8501,
      "Raman": 8502,
      "Syn": 8503,
      "S2542": 8504,
      "TE": 8505,
      "To": 8506,
      "Ve": 8507,
      "What": 8508,
      "WTO": 8509,
      "XV": 8510,
      "Yar": 8511,
      "a9": 8512,
      "ba": 8513,
      "boo": 8514,
      "block": 8515,
      "cz": 8516,
      "cor": 8517,
      "clo": 8518,
      "ccl": 8519,
      "ctri": 8520,
      "dep": 8521,
      "down": 8522,
      "fast": 8523,
      "gold": 8524,
      "histor": 8525,
      "historical": 8526,
      "kp": 8527,
      "kashmir": 8528,
      "kameez": 8529,
      "lid": 8530,
      "media": 8531,
      "mang": 8532,
      "moh": 8533,
      "nkp": 8534,
      "oz": 8535,
      "rid": 8536,
      "run": 8537,
      "roffe": 8538,
      "sw": 8539,
      "sports": 8540,
      "s412": 8541,
      "tamil": 8542,
      "ula": 8543,
      "ulo": 8544,
      "uff": 8545,
      "ujan": 8546,
      "vis": 8547,
      "wC": 8548,
      "will": 8549,
      "worth": 8550,
      "xx": 8551,
      "ædia": 8552,
      "ār": 8553,
      "ঁচ": 8554,
      "ংহ": 8555,
      "আধ": 8556,
      "ওয়": 8557,
      "কয়": 8558,
      "ছু": 8559,
      "জিক": 8560,
      "ঝা": 8561,
      "ঠি": 8562,
      "দ্য": 8563,
      "ধু": 8564,
      "ফস": 8565,
      "বলি": 8566,
      "মরু": 8567,
      "রূ": 8568,
      "স্য": 8569,
      "হো": 8570,
      "ুল": 8571,
      "ంత": 8572,
      "ంతి": 8573,
      "ంటి": 8574,
      "అంట": 8575,
      "అహ్మ": 8576,
      "ఆకు": 8577,
      "ఆధీ": 8578,
      "ఆహార": 8579,
      "ఇవి": 8580,
      "ఎన్": 8581,
      "ఐరో": 8582,
      "ఒలిం": 8583,
      "కంట": 8584,
      "గతి": 8585,
      "జు": 8586,
      "ఞాన": 8587,
      "టం": 8588,
      "టా": 8589,
      "టన్": 8590,
      "టులు": 8591,
      "ట్యం": 8592,
      "ణులు": 8593,
      "తన": 8594,
      "నృ": 8595,
      "నలు": 8596,
      "పక్ష": 8597,
      "పద్ధ": 8598,
      "మ్య": 8599,
      "మతి": 8600,
      "యాలో": 8601,
      "లె": 8602,
      "వ్": 8603,
      "వహి": 8604,
      "వత్స": 8605,
      "సర": 8606,
      "సీ": 8607,
      "సర్": 8608,
      "స్రా": 8609,
      "హై": 8610,
      "హో": 8611,
      "ాంగ": 8612,
      "ెట్": 8613,
      "ias": 8614,
      "iat": 8615,
      "tel": 8616,
      "test": 8617,
      "ink": 8618,
      "review": 8619,
      "related": 8620,
      "till": 8621,
      "20India": 8622,
      "orke": 8623,
      "anti": 8624,
      "ales": 8625,
      "alys": 8626,
      "aleph": 8627,
      "enins": 8628,
      "enjo": 8629,
      "edr": 8630,
      "often": 8631,
      "isource": 8632,
      "oms": 8633,
      "ito": 8634,
      "itor": 8635,
      "itch": 8636,
      "icine": 8637,
      "197": 8638,
      "1900": 8639,
      "1984": 8640,
      "20080": 8641,
      "chand": 8642,
      "chang": 8643,
      "check": 8644,
      "tric": 8645,
      "compar": 8646,
      "att": 8647,
      "atter": 8648,
      "ents": 8649,
      "gether": 8650,
      "1023": 8651,
      "1057": 8652,
      "1093": 8653,
      "imag": 8654,
      "website": 8655,
      "uram": 8656,
      "fied": 8657,
      "film": 8658,
      "hek": 8659,
      "health": 8660,
      "స్సా": 8661,
      "igonom": 8662,
      "FOOTNOTEAsherTalbot": 8663,
      "FOOTNOTELibrary": 8664,
      "together": 8665,
      "বিমান": 8666,
      "update": 8667,
      "emen": 8668,
      "251": 8669,
      "raf": 8670,
      "rati": 8671,
      "rael": 8672,
      "rainf": 8673,
      "indias": 8674,
      "ull": 8675,
      "tices": 8676,
      "167": 8677,
      "opped": 8678,
      "Inc": 8679,
      "232": 8680,
      "প্রকৃতি": 8681,
      "40r": 8682,
      "uni": 8683,
      "త్రిక": 8684,
      "288": 8685,
      "28905": 8686,
      "govern": 8687,
      "245": 8688,
      "క్తి": 8689,
      "నిర్": 8690,
      "నిర్వ": 8691,
      "uberc": 8692,
      "Change": 8693,
      "api": 8694,
      "appro": 8695,
      "30261": 8696,
      "30353": 8697,
      "ালুরু": 8698,
      "ishes": 8699,
      "temple": 8700,
      "నాయక": 8701,
      "నాట్యం": 8702,
      "విభ": 8703,
      "విజ్": 8704,
      "27s": 8705,
      "200912": 8706,
      "languageinindia": 8707,
      "prin": 8708,
      "prom": 8709,
      "ithme": 8710,
      "harashtra": 8711,
      "కులు": 8712,
      "being": 8713,
      "partition": 8714,
      "Indira": 8715,
      "Roy": 8716,
      "Roorke": 8717,
      "జాతి": 8718,
      "লাক্ষা": 8719,
      "452": 8720,
      "మాబాద్": 8721,
      "Statis": 8722,
      "aju": 8723,
      "ত্ম": 8724,
      "eralisation": 8725,
      "463": 8726,
      "ically": 8727,
      "361": 8728,
      "362": 8729,
      "368": 8730,
      "whose": 8731,
      "গ্রহ": 8732,
      "পরে": 8733,
      "maraju": 8734,
      "సంకీ": 8735,
      "సంబంధ": 8736,
      "సంవత్స": 8737,
      "రుపు": 8738,
      "రుగు": 8739,
      "জনগণ": 8740,
      "486": 8741,
      "টেক": 8742,
      "issions": 8743,
      "লিশ": 8744,
      "పాత్ర": 8745,
      "స్థి": 8746,
      "డియా": 8747,
      "Maharashtra": 8748,
      "১৯৫০": 8749,
      "১৯৪৭": 8750,
      "వంట": 8751,
      "వంటి": 8752,
      "endangered": 8753,
      "383": 8754,
      "387": 8755,
      "Israel": 8756,
      "మించ": 8757,
      "হেরু": 8758,
      "সিংহ": 8759,
      "391": 8760,
      "394": 8761,
      "meal": 8762,
      "INR": 8763,
      "পিছু": 8764,
      "deci": 8765,
      "గువ": 8766,
      "nationalism": 8767,
      "Peers": 8768,
      "తరాలు": 8769,
      "former": 8770,
      "కోట్": 8771,
      "ques": 8772,
      "quest": 8773,
      "766": 8774,
      "নেহেরু": 8775,
      "లామాబాద్": 8776,
      "ప్రాంతీయ": 8777,
      "పేర్లు": 8778,
      "స్తారు": 8779,
      "ట్లు": 8780,
      "మతాలు": 8781,
      "plain": 8782,
      "করুন": 8783,
      "Biosphere": 8784,
      "বর্ণ": 8785,
      "বর্তী": 8786,
      "కూడు": 8787,
      "poration": 8788,
      "కృష్": 8789,
      "lower": 8790,
      "AgAAQBAJ": 8791,
      "Alan": 8792,
      "మధ్యప్రదేశ్": 8793,
      "ప్రాంతాల": 8794,
      "cb118": 8795,
      "cb153": 8796,
      "সরকারের": 8797,
      "కొన్ని": 8798,
      "driving": 8799,
      "বিশ্ববিদ": 8800,
      "incely": 8801,
      "52q": 8802,
      "500px": 8803,
      "Georg": 8804,
      "Geology": 8805,
      "Geography": 8806,
      "రాజ్యాంగ": 8807,
      "সংস্করণ": 8808,
      "pagecontent": 8809,
      "value": 8810,
      "Chandra": 8811,
      "Ramsar": 8812,
      "school": 8813,
      "23040r": 8814,
      "এশীয়": 8815,
      "পুলিশ": 8816,
      "Palla": 8817,
      "কৃতিক": 8818,
      "ethno": 8819,
      "ancial": 8820,
      "Encyclopædia": 8821,
      "খাত": 8822,
      "tainment": 8823,
      "కార్య": 8824,
      "కారణంగా": 8825,
      "క్యాలె": 8826,
      "దేశాలలో": 8827,
      "southwest": 8828,
      "మైనది": 8829,
      "John2018": 8830,
      "because": 8831,
      "IAEX": 8832,
      "caused": 8833,
      "రోడ్": 8834,
      "పరిపాలన": 8835,
      "పరిశ్ర": 8836,
      "వెబ్": 8837,
      "leges": 8838,
      "Ethnologue2": 8839,
      "Parliamentary": 8840,
      "పోర్చు": 8841,
      "ప్రాచీ": 8842,
      "ఉన్నారు": 8843,
      "প্রতিযোগিতা": 8844,
      "నేషన్స్": 8845,
      "colleges": 8846,
      "ayashi": 8847,
      "Technology": 8848,
      "Technological": 8849,
      "administrative": 8850,
      "ictor": 8851,
      "PRO": 8852,
      "Plofker": 8853,
      "signific": 8854,
      "ব্দ": 8855,
      "NIC": 8856,
      "জেলা": 8857,
      "transm": 8858,
      "Leg": 8859,
      "స్థానం": 8860,
      "స్థానంలో": 8861,
      "constitutional": 8862,
      "వ్యాపార": 8863,
      "మొదల": 8864,
      "Party": 8865,
      "ampion": 8866,
      "Mohenjo": 8867,
      "longer": 8868,
      "పీఠ": 8869,
      "Financial": 8870,
      "Maurya": 8871,
      "families": 8872,
      "havan": 8873,
      "having": 8874,
      "Jha2018": 8875,
      "Phil": 8876,
      "carri": 8877,
      "full": 8878,
      "highest": 8879,
      "গোষ্ঠ": 8880,
      "astronom": 8881,
      "সাইক্লো": 8882,
      "Dalit": 8883,
      "recogn": 8884,
      "minor": 8885,
      "আফ্র": 8886,
      "ফেডার": 8887,
      "ফেব্রু": 8888,
      "সাধারণতন্ত্র": 8889,
      "সংরক্ষণের": 8890,
      "Thirgood": 8891,
      "তথ্যবিজ্ঞান": 8892,
      "Kathakali": 8893,
      "nutrition": 8894,
      "popular": 8895,
      "ఇస్లాం": 8896,
      "ఇస్లామాబాద్": 8897,
      "కలిగి": 8898,
      "పండుగలు": 8899,
      "నగరాలు": 8900,
      "Open": 8901,
      "30528905": 8902,
      "Coastal": 8903,
      "జరిగిన": 8904,
      "పైగా": 8905,
      "ప్రజల": 8906,
      "కోర్టు": 8907,
      "Clothing": 8908,
      "উদ্ভি": 8909,
      "NarayanJohn2018": 8910,
      "BalakrishnanDey": 8911,
      "Blurton1993": 8912,
      "Woodroffe": 8913,
      "রক্ষী": 8914,
      "అనేక": 8915,
      "పరంగా": 8916,
      "లవుదినాలు": 8917,
      "ప్రస్తుతం": 8918,
      "సంఘం": 8919,
      "মনোর": 8920,
      "মালয়ালম": 8921,
      "పట్టణాలు": 8922,
      "Nilgir": 8923,
      "Shiva": 8924,
      "does": 8925,
      "daro": 8926,
      "পৌর": 8927,
      "ఎక్కువగా": 8928,
      "పల్లవులు": 8929,
      "emerged": 8930,
      "বেঙ্গালুরু": 8931,
      "বৈচিত্র্য": 8932,
      "Administrative": 8933,
      "Kannada": 8934,
      "juris": 8935,
      "কমিশন": 8936,
      "Davidson2014": 8937,
      "Barrow2003": 8938,
      "claimed": 8939,
      "written": 8940,
      "అభివృద్ధి": 8941,
      "అశోకుడు": 8942,
      "ఉంటాయి": 8943,
      "పతకాలు": 8944,
      "ittances": 8945,
      "HarperCollins": 8946,
      "సంప్రదాయాలు": 8947,
      "గుప్త": 8948,
      "గోదావరి": 8949,
      "చండీగఢ్": 8950,
      "ভিত্তিতে": 8951,
      "ecutive": 8952,
      "প্রস্তর": 8953,
      "মাথাপিছু": 8954,
      "purposes": 8955,
      "82652q": 8956,
      "Justice": 8957,
      "Ladakh": 8958,
      "Learning": 8959,
      "Ramanujan": 8960,
      "Yarlung": 8961,
      "s41271": 8962,
      "ulosis": 8963,
      "মরুভূমি": 8964,
      "ఆకుపచ్చ": 8965,
      "ఎన్ను": 8966,
      "ఐరోపా": 8967,
      "ఒలింపిక్": 8968,
      "alysis": 8969,
      "checked": 8970,
      "rainfall": 8971,
      "uberculosis": 8972,
      "30353132": 8973,
      "విజ్ఞాన": 8974,
      "ithmetic": 8975,
      "Roorkee": 8976,
      "লাক্ষাদ্বীপ": 8977,
      "కృష్ణా": 8978,
      "cb11882652q": 8979,
      "cb15323040r": 8980,
      "বিশ্ববিদ্যালয়": 8981,
      "క్యాలెండర్": 8982,
      "IAEXT": 8983,
      "ప్రాచీన": 8984,
      "ফেডারেশন": 8985,
      "ফেব্রুয়ারি": 8986,
      "BalakrishnanDey2019": 8987,
      "1LO": 8988,
      "2V": 8989,
      "373": 8990,
      "3kC": 8991,
      "4th": 8992,
      "512": 8993,
      "550": 8994,
      "643": 8995,
      "673": 8996,
      "8A": 8997,
      "853": 8998,
      "854": 8999,
      "900": 9000,
      "964": 9001,
      "AP": 9002,
      "Arav": 9003,
      "Aitch": 9004,
      "Ban": 9005,
      "Bour": 9006,
      "BJP": 9007,
      "Bened": 9008,
      "Bhavan": 9009,
      "Chap": 9010,
      "Dat": 9011,
      "DEF": 9012,
      "Depend": 9013,
      "Drd": 9014,
      "Gl": 9015,
      "Gn": 9016,
      "Ger": 9017,
      "HI": 9018,
      "Hi": 9019,
      "Hymn": 9020,
      "H1LO": 9021,
      "Ir": 9022,
      "Kad": 9023,
      "Kund": 9024,
      "LT": 9025,
      "Lat": 9026,
      "Log": 9027,
      "Long": 9028,
      "Lower": 9029,
      "Lanc": 9030,
      "Mat": 9031,
      "Media": 9032,
      "Mall": 9033,
      "Muk": 9034,
      "Nag": 9035,
      "Nish": 9036,
      "Nali": 9037,
      "Nature": 9038,
      "Pex": 9039,
      "Rog": 9040,
      "Rath": 9041,
      "Rail": 9042,
      "Rashtra": 9043,
      "Radh": 9044,
      "SO": 9045,
      "Sw": 9046,
      "Ser": 9047,
      "Sat": 9048,
      "Sher": 9049,
      "Sree": 9050,
      "Sultanate": 9051,
      "SAGE": 9052,
      "Sarkar": 9053,
      "Tir": 9054,
      "Tourism": 9055,
      "VID": 9056,
      "Viet": 9057,
      "Victor": 9058,
      "Wir": 9059,
      "Web": 9060,
      "XX": 9061,
      "YC": 9062,
      "Zem": 9063,
      "Zoro": 9064,
      "bom": 9065,
      "bread": 9066,
      "bollywood": 9067,
      "crocod": 9068,
      "dq": 9069,
      "dol": 9070,
      "dies": 9071,
      "dens": 9072,
      "dikshit": 9073,
      "diction": 9074,
      "eaten": 9075,
      "f3": 9076,
      "folk": 9077,
      "foreign": 9078,
      "female": 9079,
      "g4": 9080,
      "ger": 9081,
      "gas": 9082,
      "gad": 9083,
      "garden": 9084,
      "himal": 9085,
      "iisc": 9086,
      "jj": 9087,
      "just": 9088,
      "j8A": 9089,
      "kesh": 9090,
      "kerala": 9091,
      "mas": 9092,
      "mortal": 9093,
      "nt": 9094,
      "ny": 9095,
      "nations": 9096,
      "oNetra": 9097,
      "o3kC": 9098,
      "pec": 9099,
      "poverty": 9100,
      "penins": 9101,
      "rong": 9102,
      "so": 9103,
      "sy": 9104,
      "sil": 9105,
      "sample": 9106,
      "size": 9107,
      "taj": 9108,
      "turn": 9109,
      "uvan": 9110,
      "v2": 9111,
      "vara": 9112,
      "win": 9113,
      "wan": 9114,
      "wide": 9115,
      "wamy": 9116,
      "wY1": 9117,
      "wrong": 9118,
      "xn": 9119,
      "ँक": 9120,
      "ँगर": 9121,
      "ंज": 9122,
      "ंथ": 9123,
      "ंती": 9124,
      "ंज़ी": 9125,
      "ंबे": 9126,
      "ंपरी": 9127,
      "ंवर": 9128,
      "ंसिल": 9129,
      "अज": 9130,
      "अरा": 9131,
      "अहि": 9132,
      "अनि": 9133,
      "अज़": 9134,
      "अगर": 9135,
      "अत्य": 9136,
      "अपे": 9137,
      "अच्छ": 9138,
      "अयो": 9139,
      "अखि": 9140,
      "आए": 9141,
      "आजा": 9142,
      "आते": 9143,
      "आवं": 9144,
      "आंग्": 9145,
      "आदर्": 9146,
      "आर्ट": 9147,
      "आरक्ष": 9148,
      "आनिया": 9149,
      "आंतर": 9150,
      "आकर्म": 9151,
      "आमेर": 9152,
      "आँक": 9153,
      "आंबे": 9154,
      "इर": 9155,
      "इको": 9156,
      "इज़": 9157,
      "इंद": 9158,
      "इरि": 9159,
      "इटान": 9160,
      "ईम्": 9161,
      "उज़": 9162,
      "उर्व": 9163,
      "उदी": 9164,
      "उभरा": 9165,
      "उंसिल": 9166,
      "ऊदी": 9167,
      "ऊँचा": 9168,
      "ऋष": 9169,
      "एच": 9170,
      "एल": 9171,
      "एका": 9172,
      "एना": 9173,
      "एली": 9174,
      "एल्": 9175,
      "एग्": 9176,
      "ऑन": 9177,
      "ऑस्ट्रेलिया": 9178,
      "ओण": 9179,
      "ओम": 9180,
      "ओसे": 9181,
      "ओम्": 9182,
      "ओशि": 9183,
      "औद्योग": 9184,
      "कक": 9185,
      "कठ": 9186,
      "कड": 9187,
      "कथ": 9188,
      "कू": 9189,
      "कमे": 9190,
      "कति": 9191,
      "कमा": 9192,
      "कहा": 9193,
      "करी": 9194,
      "कन्या": 9195,
      "कपाल": 9196,
      "कमल": 9197,
      "कटक": 9198,
      "कज़ा": 9199,
      "कच्छ": 9200,
      "कत्ता": 9201,
      "कड़ियाँ": 9202,
      "खन्": 9203,
      "खाल": 9204,
      "खजु": 9205,
      "खदेव": 9206,
      "खरण": 9207,
      "खज्जि": 9208,
      "खपट्": 9209,
      "गृ": 9210,
      "गौ": 9211,
      "गंग": 9212,
      "गरीबी": 9213,
      "गोगा": 9214,
      "गर्भ": 9215,
      "घू": 9216,
      "घृ": 9217,
      "चौ": 9218,
      "चन्द": 9219,
      "चंद": 9220,
      "चंद्र": 9221,
      "चन्द्र": 9222,
      "चड़ी": 9223,
      "चूर": 9224,
      "चोला": 9225,
      "छह": 9226,
      "छत्र": 9227,
      "जिया": 9228,
      "जली": 9229,
      "जर्व": 9230,
      "जार्": 9231,
      "जोल": 9232,
      "जकु": 9233,
      "ज्वा": 9234,
      "झुम": 9235,
      "ट्य": 9236,
      "टर्": 9237,
      "टाल": 9238,
      "टार्कटिका": 9239,
      "टियां": 9240,
      "ठक": 9241,
      "ठूर": 9242,
      "डच": 9243,
      "डल": 9244,
      "डान": 9245,
      "डकर": 9246,
      "ड्री": 9247,
      "ण्य": 9248,
      "णसी": 9249,
      "तद": 9250,
      "तब": 9251,
      "तार": 9252,
      "तला": 9253,
      "तंग": 9254,
      "तरी": 9255,
      "तौर": 9256,
      "तस्क": 9257,
      "तवांग": 9258,
      "थान": 9259,
      "दला": 9260,
      "द्री": 9261,
      "दड़ो": 9262,
      "धार्": 9263,
      "धम्": 9264,
      "धिय": 9265,
      "नवं": 9266,
      "नपुर": 9267,
      "नण्": 9268,
      "नक्स": 9269,
      "नदारी": 9270,
      "पस": 9271,
      "पृ": 9272,
      "पला": 9273,
      "पड़": 9274,
      "पित": 9275,
      "पल्": 9276,
      "पद्": 9277,
      "पड़ा": 9278,
      "पतंग": 9279,
      "फे": 9280,
      "फो": 9281,
      "फाल": 9282,
      "फते": 9283,
      "फें": 9284,
      "फिर": 9285,
      "बॉ": 9286,
      "बरे": 9287,
      "बोल": 9288,
      "बनगर": 9289,
      "बग्व": 9290,
      "बॉल": 9291,
      "बकेश": 9292,
      "बज्जि": 9293,
      "बर्मा": 9294,
      "बदला": 9295,
      "भरी": 9296,
      "भदेव": 9297,
      "भस्वा": 9298,
      "भवान": 9299,
      "मर": 9300,
      "मॉ": 9301,
      "मला": 9302,
      "मत्": 9303,
      "मारी": 9304,
      "यम": 9305,
      "यक्ष": 9306,
      "यणी": 9307,
      "यद्य": 9308,
      "यसाल": 9309,
      "यत्त": 9310,
      "रक": 9311,
      "रखा": 9312,
      "रेश्वर": 9313,
      "लैंड": 9314,
      "लवादी": 9315,
      "लन्दा": 9316,
      "लदाख": 9317,
      "लेशिय": 9318,
      "वड": 9319,
      "वस": 9320,
      "वला": 9321,
      "वन्द": 9322,
      "वधान": 9323,
      "वटी": 9324,
      "वड़ा": 9325,
      "वस्त्र": 9326,
      "वहन": 9327,
      "शतर": 9328,
      "श्रा": 9329,
      "शब्": 9330,
      "श्वर": 9331,
      "स्र": 9332,
      "स्य": 9333,
      "सहि": 9334,
      "सजा": 9335,
      "सदी": 9336,
      "सपुर": 9337,
      "सारा": 9338,
      "सर्ट": 9339,
      "सौर": 9340,
      "सचेंज": 9341,
      "सउदी": 9342,
      "सऊदी": 9343,
      "हड़": 9344,
      "हार्": 9345,
      "हपुर": 9346,
      "हत्या": 9347,
      "हर्ष": 9348,
      "हस्ता": 9349,
      "़रंगा": 9350,
      "ाफ": 9351,
      "ाज़": 9352,
      "ाबा": 9353,
      "ाखपट्": 9354,
      "िन": 9355,
      "िप्त": 9356,
      "ुने": 9357,
      "ृपक्ष": 9358,
      "ेत": 9359,
      "ेज़": 9360,
      "ैजान": 9361,
      "ोत्री": 9362,
      "ौज": 9363,
      "्बे": 9364,
      "्दीव": 9365,
      "्तो": 9366,
      "११": 9367,
      "२३": 9368,
      "२५": 9369,
      "५२": 9370,
      "অন্ধ": 9371,
      "অবস্থা": 9372,
      "অস্ট্র": 9373,
      "অভ্য": 9374,
      "আন": 9375,
      "ইস্ট": 9376,
      "উট": 9377,
      "এলা": 9378,
      "ওয়া": 9379,
      "ওড়ি": 9380,
      "কলা": 9381,
      "কর্ম": 9382,
      "কগণ": 9383,
      "চ্": 9384,
      "ট্": 9385,
      "তফস": 9386,
      "দান": 9387,
      "ধি": 9388,
      "নের": 9389,
      "নয়া": 9390,
      "পদ": 9391,
      "মৈ": 9392,
      "মহল": 9393,
      "যার": 9394,
      "যান": 9395,
      "রিয়া": 9396,
      "রবী": 9397,
      "লু": 9398,
      "সফ": 9399,
      "সৌ": 9400,
      "হু": 9401,
      "হতে": 9402,
      "৩১": 9403,
      "remain": 9404,
      "reaten": 9405,
      "til": 9406,
      "title": 9407,
      "tification": 9408,
      "207": 9409,
      "three": 9410,
      "those": 9411,
      "्रम": 9412,
      "er2010": 9413,
      "arak": 9414,
      "Indiano": 9415,
      "anat": 9416,
      "anab": 9417,
      "anetary": 9418,
      "ena": 9419,
      "edges": 9420,
      "cific": 9421,
      "istic": 9422,
      "tionary": 9423,
      "केदार": 9424,
      "केवला": 9425,
      "्यम्": 9426,
      "राध": 9427,
      "रामे": 9428,
      "राहो": 9429,
      "रायपुर": 9430,
      "रांची": 9431,
      "thew": 9432,
      "andum": 9433,
      "मेक": 9434,
      "मेन": 9435,
      "मेहर": 9436,
      "मेडी": 9437,
      "मेडा": 9438,
      "मेयो": 9439,
      "20180": 9440,
      "asar": 9441,
      "ानिया": 9442,
      "ानता": 9443,
      "ानिस्तान": 9444,
      "ानचंद": 9445,
      "र्ग": 9446,
      "र्भि": 9447,
      "र्जी": 9448,
      "र्गि": 9449,
      "र्जिया": 9450,
      "स्ति": 9451,
      "स्कर": 9452,
      "स्वर्ण": 9453,
      "काका": 9454,
      "काजी": 9455,
      "कागो": 9456,
      "काकरण": 9457,
      "कांवर": 9458,
      "काउंसिल": 9459,
      "192": 9460,
      "1949": 9461,
      "ouds": 9462,
      "idence": 9463,
      "idyana": 9464,
      "্রপ্রদেশ": 9465,
      "child": 9466,
      "chess": 9467,
      "chasing": 9468,
      "laci": 9469,
      "कीपे": 9470,
      "कीकरण": 9471,
      "कीनिया": 9472,
      "कीलिंग": 9473,
      "ivar": 9474,
      "ikter": 9475,
      "troy": 9476,
      "प्रथा": 9477,
      "प्रजन": 9478,
      "प्रसार": 9479,
      "प्रपात": 9480,
      "प्रगति": 9481,
      "प्रदाय": 9482,
      "वित्": 9483,
      "विस्थाप": 9484,
      "विन्ध": 9485,
      "विधि": 9486,
      "विद्रो": 9487,
      "atgarh": 9488,
      "amas": 9489,
      "amang": 9490,
      "ोंने": 9491,
      "ently": 9492,
      "तिया": 9493,
      "सेमी": 9494,
      "सेशे": 9495,
      "10231": 9496,
      "ump": 9497,
      "नाक्ष": 9498,
      "नाको": 9499,
      "नागो": 9500,
      "नासिक": 9501,
      "नाट्य": 9502,
      "नालन्दा": 9503,
      "न्स्ट": 9504,
      "न्धी": 9505,
      "न्नाथ": 9506,
      "न्तरण": 9507,
      "ush": 9508,
      "usion": 9509,
      "usical": 9510,
      "imals": 9511,
      "img4": 9512,
      "त्रिया": 9513,
      "त्रिक": 9514,
      "त्र्यम्": 9515,
      "क्षिप्त": 9516,
      "संवै": 9517,
      "संधि": 9518,
      "संजीव": 9519,
      "संक्षिप्त": 9520,
      "redible": 9521,
      "राजगु": 9522,
      "लाज": 9523,
      "लांग": 9524,
      "लासर": 9525,
      "लामुख": 9526,
      "लागो": 9527,
      "साग": 9528,
      "सात": 9529,
      "साम्": 9530,
      "सालासर": 9531,
      "ecnext": 9532,
      "ेशंस": 9533,
      "fil": 9534,
      "fire": 9535,
      "onstration": 9536,
      "IST": 9537,
      "ang2": 9538,
      "पुष्": 9539,
      "पुडु": 9540,
      "पुणे": 9541,
      "ंगल": 9542,
      "ंगिक": 9543,
      "ंगलाज": 9544,
      "তিন": 9545,
      "97800605059": 9546,
      "tores": 9547,
      "ন্তি": 9548,
      "भारतीयों": 9549,
      "entire": 9550,
      "िकिस्तान": 9551,
      "বিজন": 9552,
      "বিদেশ": 9553,
      "reserves": 9554,
      "restores": 9555,
      "0056": 9556,
      "नेल्": 9557,
      "देशिक": 9558,
      "कोट": 9559,
      "कोड": 9560,
      "कोस": 9561,
      "कोमो": 9562,
      "कोरो": 9563,
      "कोहिमा": 9564,
      "कोकोस": 9565,
      "न्दु": 9566,
      "न्दरेश्वर": 9567,
      "ems": 9568,
      "252": 9569,
      "259": 9570,
      "2515": 9571,
      "2564": 9572,
      "माई": 9573,
      "माघ": 9574,
      "मास": 9575,
      "मायु": 9576,
      "माबाद": 9577,
      "माशंकर": 9578,
      "स्ते": 9579,
      "स्तूप": 9580,
      "1418": 9581,
      "सिन": 9582,
      "सिटि": 9583,
      "सिंगा": 9584,
      "सिंधी": 9585,
      "सिन्धी": 9586,
      "हिमन": 9587,
      "हिंगलाज": 9588,
      "188": 9589,
      "স্টি": 9590,
      "স্কার": 9591,
      "सूरी": 9592,
      "सूडान": 9593,
      "There": 9594,
      "वाम": 9595,
      "वासा": 9596,
      "वाजी": 9597,
      "वाधिकार": 9598,
      "ophy": 9599,
      "common": 9600,
      "हां": 9601,
      "CITEREFHarle": 9602,
      "CITEREFMetcalfMetcalf2012": 9603,
      "CITEREFCraven1997": 9604,
      "CITEREFWolpert2003": 9605,
      "जाए": 9606,
      "जावा": 9607,
      "जागर": 9608,
      "जाँच": 9609,
      "पाई": 9610,
      "पाव": 9611,
      "पावली": 9612,
      "Instr": 9613,
      "Income": 9614,
      "235": 9615,
      "239": 9616,
      "প্রচল": 9617,
      "প্রবেশ": 9618,
      "agara": 9619,
      "सम्रा": 9620,
      "दित": 9621,
      "दिसपुर": 9622,
      "402": 9623,
      "4071": 9624,
      "40267": 9625,
      "unrecognized": 9626,
      "ड़ला": 9627,
      "281": 9628,
      "विशाल": 9629,
      "विशाखपट्": 9630,
      "करे": 9631,
      "करो": 9632,
      "किर्गि": 9633,
      "क्षेप": 9634,
      "्यास्त": 9635,
      "निस": 9636,
      "निका": 9637,
      "निस्तान": 9638,
      "निज़ा": 9639,
      "निवास": 9640,
      "5051": 9641,
      "लेस": 9642,
      "लेह": 9643,
      "लेबन": 9644,
      "लेयर": 9645,
      "epic": 9646,
      "ज़18": 9647,
      "ज़मी": 9648,
      "ज़स्तान": 9649,
      "ज़्यादा": 9650,
      "ज़ंज़ी": 9651,
      "ज़ानिया": 9652,
      "लीन": 9653,
      "लीला": 9654,
      "बाटी": 9655,
      "बाँगर": 9656,
      "contain": 9657,
      "conquest": 9658,
      "कारेश्वर": 9659,
      "काराबा": 9660,
      "मिस्र": 9661,
      "मिन्स्ट": 9662,
      "292": 9663,
      "apuram": 9664,
      "304": 9665,
      "309": 9666,
      "30MKI": 9667,
      "मुहर": 9668,
      "मुक्ति": 9669,
      "मुगल": 9670,
      "चित्त": 9671,
      "चिंच": 9672,
      "लिस्त": 9673,
      "लिखा": 9674,
      "लिसिस": 9675,
      "लिट्": 9676,
      "लिप्य": 9677,
      "लियम": 9678,
      "ंडर": 9679,
      "ंडे": 9680,
      "ंडिया": 9681,
      "मीनिया": 9682,
      "मीनार": 9683,
      "मीनाक्ष": 9684,
      "राष्ट्रभाषा": 9685,
      "राष्ट्रगान": 9686,
      "राष्ट्रवाद": 9687,
      "হায়": 9688,
      "ods": 9689,
      "ably": 9690,
      "abhas": 9691,
      "मनु": 9692,
      "मानस": 9693,
      "मानवाधिकार": 9694,
      "शाला": 9695,
      "शामिल": 9696,
      "उत्खन": 9697,
      "उत्सव": 9698,
      "दीपावली": 9699,
      "हुमायु": 9700,
      "सीपी": 9701,
      "सीरिया": 9702,
      "सीताम": 9703,
      "सीकरी": 9704,
      "गरबा": 9705,
      "भिकीय": 9706,
      "नीले": 9707,
      "अनंत": 9708,
      "mahal": 9709,
      "Artic": 9710,
      "Armen": 9711,
      "पूजा": 9712,
      "म्बी": 9713,
      "েশিয়া": 9714,
      "200904": 9715,
      "स्थ्य": 9716,
      "shade": 9717,
      "भीमाशंकर": 9718,
      "धानिक": 9719,
      "पुराने": 9720,
      "PA46": 9721,
      "PA76": 9722,
      "prus": 9723,
      "harv": 9724,
      "सरदार": 9725,
      "सरसों": 9726,
      "जिला": 9727,
      "जिले": 9728,
      "जिन्ह": 9729,
      "जिबू": 9730,
      "liz": 9731,
      "uced": 9732,
      "paras": 9733,
      "parity": 9734,
      "parks": 9735,
      "ogamy": 9736,
      "Independ": 9737,
      "गुलम": 9738,
      "thera": 9739,
      "टीकाकरण": 9740,
      "देर": 9741,
      "देसूरी": 9742,
      "धर्मशाला": 9743,
      "season": 9744,
      "टिफि": 9745,
      "होने": 9746,
      "होयसाल": 9747,
      "703": 9748,
      "43rd": 9749,
      "লাভ": 9750,
      "451208": 9751,
      "ढ़ी": 9752,
      "रेयूनि": 9753,
      "নাই": 9754,
      "নাড়": 9755,
      "clouds": 9756,
      "अनुदान": 9757,
      "अनुपात": 9758,
      "मही": 9759,
      "महबू": 9760,
      "महावी": 9761,
      "महाकाल": 9762,
      "महाबो": 9763,
      "ained": 9764,
      "keeping": 9765,
      "द्धसैनिक": 9766,
      "Stadium": 9767,
      "बरक": 9768,
      "कुरु": 9769,
      "कुतु": 9770,
      "कुशी": 9771,
      "कुषाण": 9772,
      "कुर्न": 9773,
      "कुंभ": 9774,
      "कुपोषण": 9775,
      "कुमारी": 9776,
      "सरकारों": 9777,
      "विश्वकोष": 9778,
      "हरित": 9779,
      "संघशासित": 9780,
      "बादलों": 9781,
      "ত্থ": 9782,
      "462": 9783,
      "इसराइल": 9784,
      "363": 9785,
      "366": 9786,
      "হিম": 9787,
      "ध्यानचंद": 9788,
      "ालीलैंड": 9789,
      "मिलित": 9790,
      "থাকে": 9791,
      "487": 9792,
      "प्ति": 9793,
      "प्पा": 9794,
      "सारी": 9795,
      "सारनाथ": 9796,
      "एशन": 9797,
      "बीसी": 9798,
      "बीबीसी": 9799,
      "ब्लेयर": 9800,
      "लोरा": 9801,
      "प्राय": 9802,
      "प्रांत": 9803,
      "प्राधिक": 9804,
      "प्रावधान": 9805,
      "सेनाओं": 9806,
      "worldstandards": 9807,
      "दास": 9808,
      "दावरी": 9809,
      "मोर्": 9810,
      "मोटा": 9811,
      "मोज़ा": 9812,
      "मोचन": 9813,
      "स्थानम": 9814,
      "स्थानों": 9815,
      "7733": 9816,
      "77766": 9817,
      "ब्रतो": 9818,
      "ब्रुने": 9819,
      "मुखर्जी": 9820,
      "पंच": 9821,
[...]
