<unk>
<pad>
I
n
d
i
a
,
</w>
o
f
c
l
y
t
h
e
R
p
u
b
s
r
S
A
.
v
-
g
m
w
1
9
4
7
'
B
O
P
k
;
C
N
M
L
T
5
0
V
E
2
H
x
D
J
G
Z
j
8
3
6
U
$
%
q
K
=
"
F
:
(
Ἰ
ν
δ
ί
α
)
ό
ς
ā
[
ˈ
ʱ
ː
ɾ
ə
]
ɦ
ɪ
ʊ
Y
z
–
—
ṣ
ṭ
ī
ṇ
W
°
′
₹
á
í
â
Ś
ū
Ö
ṅ
भ
ा
र
त
आ
ध
ि
क
न
म
ग
ण
ज
्
य
अ
ं
े
़
ी
ल
प
ब
ऑ
फ
इ
ड
द
ष
ए
श
स
थ
उ
ह
व
ै
।
ौ
ो
ृ
ट
ँ
ख
च
ू
औ
ु
ई
ऋ
ओ
ः
१
८
५
घ
ढ
‌
|
+
ञ
ऊ
छ
ठ
६
०
२
४
७
३
‍
ॉ
॰
‘
’
९
झ
/
ऐ
†
“
”
భ
ా
ర
త
ద
ే
శ
ం
క
ో
ట
్
ల
ు
ప
ై
గ
జ
న
చ
మ
ొ
ి
స
థ
ీ
వ
ణ
య
ఏ
డ
ఉ
అ
ె
ఛ
ఈ
ష
ఒ
ఖ
ఎ
ధ
ూ
హ
బ
ళ
ఆ
ఫ
ఘ
ఇ
ౌ
ృ
ః
ఞ
ఢ
ఐ
ఓ
ఠ
ఋ
ఔ
&
^
ভ
া
র
ত
য
স
ক
ি
ন
ম
ী
়
প
্
জ
দ
ষ
ণ
এ
শ
ট
ৌ
গ
ো
ল
আ
ে
ব
চ
ৃ
হ
ং
অ
খ
ধ
ু
থ
উ
ূ
ও
ছ
ড
ঙ
ই
ৈ
ঘ
৭
৫
১
৪
৬
ঐ
ঞ
ঠ
ৎ
ঃ
৯
০
২
৮
ফ
৩
ঁ
ঝ
ঊ
ο
ঢ
ঋ
ঈ
{
}
´
?
ß
æ
X
è
র</w>
े</w>
।</w>
ा</w>
ে</w>
ं</w>
্র
ার
য়
ी</w>
र</w>
্য
ार
्र
त</w>
मे
ি</w>
ు</w>
র্
్ర
ন্
है
া</w>
्य
বি
ত</w>
ార
ন</w>
ক্
र्
न</w>
क</w>
ও</w>
িক
ాల
স্
ান
य</w>
ి</w>
সা
বা
िय
রা
स्
रा
का
ত্
ভা
లో
তি
भा
তে
ా</w>
స్
তা
क्
ర్
মা
ो</w>
్య
্ব
কা
ం</w>
ল</w>
वि
న్
त्
দে
ान
న</w>
न्
ంద
దే
ल</w>
सा
ক</w>
রে
के
ిక
ि</w>
ना
দ্
లు
নি
मा
তী
या
পর
ই</w>
িত
সং
सं
লে
্ট
िक
কে
লি
రా
হা
ण</w>
ম</w>
म</w>
ती
কর
ిం
త్
క్
না
=</w>
ో</w>
ता
कर
পা
द्
১৯
प्
हु
প্
वा
্চ
গু
ంగ
বে
ী</w>
दे
से
ने
जा
स</w>
వి
হি
ాయ
पर
व</w>
ड़
पा
था
हा
ని
ति
नि
নে
াল
ণ</w>
েছ
య</w>
ాత
ई</w>
చి
জা
লা
్ట
ాన
সম
থা
েক
ుల
জন
सम
মি
భా
రి
द</w>
ద్
যা
్ల
শ</w>
ঙ্
এক
টি
्ट
দি
শি
ंग
ది
कि
ধা
ండ
ের
కు
सक
আই
ला
সর
हि
ড়
ाल
ग</w>
রি
్</w>
ৃত
২০
ং</w>
অন
ंत
త</w>
श</w>
तथ
जि
बा
ষ্
लि
যু
উপ
্প
शा
ু</w>
ము
মধ
এস
এব
जन
ह</w>
সি
వా
శం
श्
ों
ంత
ট</w>
రు
रि
ను
తి
मि
শে
నా
अन
सर
క</w>
रू
ए</w>
ే</w>
ব</w>
పా
ें
সে
री
ల</w>
पू
দা
हो
ষি
सि
కా
मु
प</w>
षि
धि
পূ
ाज
की
ప్
্দ
ছে
িল
াস
यो
తా
సం
ంట
ु</w>
रत
ంచ
డి
়</w>
ষা
টা
సా
ల్
लो
েশ
বৈ
ষে
षा
తీ
को
রত
మా
ली
ट</w>
ুর
বৃ
ष</w>
ंध
ভূ
ল্
గా
ీ</w>
চি
१९
तर
दि
তর
ীন
০-
দু
యి
यु
बन
षे
थ</w>
म्
োগ
ూడ
इस
्त
సి
धा
दा
अप
తు
ভি
পি
పు
रह
ची
ँ</w>
শা
శా
టి
অব
रो
वी
ిన
ष्
্ক
లి
াত
ংশ
रे
তম
াদ
াম
ైన
తర
কৃ
গে
িব
ধি
ढ़
০</w>
बस
कृ
दो
ঞ্
পে
ही
মে
ిత
కి
১</w>
्द
ब</w>
ज</w>
ैं
ध</w>
ले
াচ
অঞ
ম্
०</w>
पु
च</w>
थि
পু
యా
చ్
চল
హి
కో
ধ</w>
িজ
কো
్వ
তৃ
दी
নী
স</w>
ডি
ाय
जी
রু
వర
మొ
৮</w>
মু
দী
থে
वर
गय
াজ
গণ
লো
িষ
্ষ
গা
రై
বল
ుగ
শী
খা
పే
డు
జా
জ্
ल्
ख</w>
ిల
మై
गा
తం
ষ</w>
ড</w>
దా
াপ
शो
चि
েল
हर
ंड
িম
গ্
वो
প</w>
অধ
్న
যে
বস
জি
চা
কি
ూ</w>
వ</w>
ఈ</w>
అధ
शि
भी
टि
్‌
్గ
রী
नी
कु
ুল
মত
ুপ
वत
াক
मो
बी
రత
মো
জ</w>
ां
দ</w>
मी
শ্
चु
आध
सद
డ్
ाद
గు
పట
కొ
৭</w>
গো
গঠ
}}
{{
াণ
थी
चा
্থ
भू
মর
বহ
చే
ূল
పర
ते
রো
াং
গত
नो
ज़
पन
ंद
నే
২</w>
ৈত
উৎ
पह
ফল
টে
ణా
सी
नक
ীত
ज्
শক
রণ
వే
लग
থি
াধ
तृ
కే
মহ
ाम
रु
उप
ীর
০১
০০
জে
్త
৯৯
ষণ
েন
সদ
au
চ্
00
ి.
మి
ছি
-এ
ेश
एश
ణ</w>
৬</w>
৫</w>
হ</w>
বছ
वे
पी
ia
ুষ
లా
రె
గి
ంబ
ैन
శ్
ात
াট
ব্
িখ
చె
ষম
তু
আর
धी
गी
Ne
ధి
్క
ియ
গী
ీయ
সব
ুট
বর
२०
मन
্ড
সু
పె
৪</w>
পশ
టు
ো</w>
ইউ
পত
జన
ाव
ंब
ू</w>
अर
ున
లక
্ম
হয
মন
বত
బ్
hi
शु
दश
च्
লু
ोग
বন
जो
వీ
కృ
ृत
షి
వల
చు
বী
तु
-</w>
सभ
ংগ
ెల
িণ
াগ
మత
ష్
हे
ధా
৯৮
्म
థా
పం
కూ
सू
मै
मध
ोल
ड</w>
అత
থন
ाष
కీ
సభ
మధ
পৃ
Pp
এন
के</w>
िम
బా
हत
কল
ীপ
গ</w>
तक
ँच
५</w>
४</w>
गु
गण
कॉ
దు
শত
భి
িশ
গর
ग्
హా
टे
वं
ंस
పత
తో
আন
गो
में</w>
ాజ
ित
चल
లం
यू
యు
ద</w>
২১
দো
দশ
থ</w>
ছা
খয
सन
मह
ब्
మీ
হক
ेज
అన
ুন
ीक
ास
খে
शी
षो
गठ
িচ
एव
ఒక
ঁচ
మే
ిగ
िण
్మ
ুস
ঠি
వం
अध
భు
పూ
বো
অজ
రో
మన
ুক
লী
भि
पे
వు
১১
োট
ভার
८</w>
२</w>
ैल
फ़
फ</w>
ण्
ंक
రక
కర
৯৭
ষর
মূ
्प
ीय
వహ
ির
भार
సమ
ईस
ाँ
लन
अव
अभ
েম
াই
মী
তন
pp
ाप
లన
চন
नत
్థ
శ</w>
పో
৩</w>
াব
য়</w>
ভ</w>
వె
৫৬
িন
రం
প্র
६</w>
सो
शे
సు
వత
ুম
সভ
सह
अल
సర
েস
-১
িএ
িদ
ুত
गत
లే
সফ
ধী
এট
भर
अम
టా
గర
ূর
চী
ংস
యం
াড
मू
नव
और</w>
పి
టీ
నద
হে
শন
ণি
षण
ీడ
৪৪
ধৃ
জো
ld
ోర
ై</w>
మల
ఇద
ীক
াহ
থম
ণত
টো
भारत</w>
नद
जै
छो
आ</w>
जल
హద
ంధ
ধর
আগ
पत
उद
प्र
की</w>
కల
নত
ाक
्थ
अस
ీత
వై
బె
గో
ంప
১৭
সূ
সহ
লক
তথ
কম
অভ
डि
इं
आर
রক
ाच
जब
अं
ধন
ণ্
উদ
िन
৯-
সক
ণে
००
ील
ीत
टी
ंप
্গ
াষ
दु
షల
োজ
খ</w>
७</w>
ॉल
सु
मौ
थव
छ</w>
घो
आद
ः</w>
ౌక
ళ</w>
మ</w>
ఖ</w>
ভৌ
বু
ফে
উচ
खा
|n
৪৫
জল
-৩
ृष
यह
बे
तो
িক</w>
है।</w>
rn
का</w>
Pa
ెస
ీన
ణి
েষ
েত
পদ
নক
ঘট
र-
मं
बड
s.
%)
ইন
ीं
दू
गर
इन
ు,
ा।
బహ
బడ
ఉప
৪.
০৬
ইট
रख
जप
आक
से</w>
ీల
దర
కట
তক
কট
्क
ాచ
దట
గ్
সল
আদ
অত
(১
ुस
सत
व्
वश
दर
आत
కం
ప్ర
३</w>
१</w>
हथ
बद
पं
कत
26
ণা
ने</w>
ोस
ाए
पै
थे
నె
దీ
১-
ডল
లో</w>
ाण
ये
2,
—</w>
శప
భూ
ఇవ
ఆధ
শহ
শব
রূ
জু
ইং
আঞ
గం
সন
এই
ইল
ेर
िव
शह
oh
-প
భార
ei
ు.
ివ
ের</w>
৯৫
৭৪
পী
তব
्य</w>
िर
पो
टा
‌</w>
ూర
మర
্ভ
ৃহ
হত
ইত
ి.</w>
शक
্য</w>
ेत
ైల
ిర
వస
యో
యమ
ధ</w>
తమ
৩৩
্স
ুদ
16
তের</w>
సై
ర</w>
২৮
১.
োম
হন
রম
ভক
দক
ঠে
টি</w>
খন
কু
আধ
ौद
पि
गई
वै
भ</w>
घ</w>
आग
अफ
ంక
ৃষ
को</w>
ों</w>
वस
मत
ंज
ँक
েট
তীয়</w>
ుక
ुक
ता</w>
ెట
నీ
నవ
నం
దల
గణ
০৭
ৎ</w>
োষ
িউ
হয়
লন
মৌ
মব
ভারতের</w>
বব
ফি
নগ
দৈ
কত
অপ
ंख
(২
cr
ंट
৩৫
্ন
ীব
হল
চু
ঘা
.৭
हैं
చా
सल
लय
अत
7,
'</w>
ఉన
మం
৫১
৩-
ুগ
রব
এর
ংখ
ेख
(|
তে</w>
ువ
రీ
రమ
(স
राज
్ప
మె
పద
నడ
తె
టె
২-
১৪
বক
পো
পণ
নো
ডে
কূ
এল
এ</w>
অস
पर</w>
Bo
.৮
ोत
उत
ాలు</w>
దేశ
ామ
..
ంది.</w>
ত্র
९</w>
२.
शत
फि
नौ
डी
ठ</w>
जू
अग
ాస
రూ
పై
৬৫
১২
০৪
ীল
ণী
টব
খি
খণ
আক
यि
मल
बै
बह
नग
तीय</w>
िया</w>
ेल
E</w>
ాప
లె
সী
মস
ইস
আস
আজ
-ব
న్న
ক্ষ
ाट
कह
ృత
্জ
ভারতীয়</w>
भारतीय</w>
ভারত</w>
ीस
िया
यद
आप
cy
हैं।</w>
వృ
వడ
వగ
ళం
పొ
పల
దగ
థ</w>
৩৭
মদ
ঠ</w>
ঝা
জৈ
ाओ
़</w>
24
ষ্ট
तथा</w>
ళ్
తన
జ్
జల
৯৬
৯০
৮৫
৫৫
লগ
রচ
ुम
एन
96
-प
భారత
एक</w>
१८
सश
रद
पड
धु
चन
ుట
ాబ
యవ
మూ
০৮
লে</w>
वर्
लत
ध्
12
ాడ
ాగ
১৩
কন
्न
এবং</w>
भी</w>
బి
డ</w>
చన
ఆక
৬৬
৬.
োব
যদ
চে
ংল
४.
०,
है</w>
बौ
ति</w>
घी
-৮
বে</w>
40
েকে</w>
দ্র
থেকে</w>
ोड
सफ
लु
नर
णि
चो
ऋत
आस
রথ
নৈ
্যা
এই</w>
ిక</w>
শ্ব
করে
ీక
షణ
షం
లీ
మహ
ఫ్
పక
నల
ధ్
ధు
తూ
జి
గే
గీ
అవ
৯</w>
২৩
োল
ভো
ভে
বিশ্ব
ডা
অক
कार</w>
कर</w>
-৭
(ম
ক্র
এসবি
আইএসবি
मर
टन
आय
As
ভারতে</w>
कार
োর
মধ্য
একটি</w>
हन
बि
कल
ऊँ
आं
ंह
Po
সালে</w>
ीय</w>
14
ాణ
జక
గల
হয়।</w>
শৈ
শু
রাষ্ট
পূর্
গৌ
উভ
উন
আফ
ुल
वन
मद
बो
बढ
पूर्
तग
तक</w>
जम
|p
1-
ন্ত্র
ना</w>
क्षि
Br
দেশ
এন</w>
আইএসবিএন</w>
उन
ंत्र
ీ,
వన
దన
కళ
৪-
৩২
৩০
হু
ভু
থব
ঠী
কস
.৬
.১
-আ
বর্
क्षे
6%
ాయి.</w>
দের</w>
তার</w>
ौत
ेस
ेड
हिन्
देश</w>
दक्षि
ठा
टर
गि
क्ष
कं
उत्
Sa
23
్స
ీర
ిశ
లత
దేశం
టే
৯৪
৬-
১৮
রাষ্ট্র
রাজ
রদ
ফো
নব
নদ
ধে
তি</w>
ঞা
साथ</w>
त्र</w>
-অ
স্থ
লের</w>
গুল
सै
तं
97
ধান</w>
ঙ্গ
बाद</w>
ते</w>
ओं</w>
02
ుర
ণু
ীয়</w>
তম</w>
কার
्यों</w>
ूब
हॉ
वृ
लौ
रच
बज
नय
दक्षिण</w>
चे
एं
04
స్థ
దేశం</w>
ంగా</w>
হয়েছ
সংখ
ন্দ্র
গ্র
অন্য
सबस
सबसे</w>
यह</w>
11
ెన
సూ
ళి
లు</w>
రే
నో
నన
దూ
తే
టై
కన
৮৭
৪৭
৩৮
২৫
াউ
লয
রহ
য়া
মধ্যে</w>
ব্য
পন
ত-
চ</w>
ঘো
এম
উঠ
আয
অং
२४
ौह
ष्ट
बहु
दी</w>
त्र
ती</w>
तत
ञा
जय
उभ
46
,৬
్య</w>
স্থা
গুলি</w>
ారు
হায
হায্য
সাহায্য
য়।</w>
ক্ষি
কার</w>
रूप</w>
मान
गए
इत
ंग्र
2%
৫০
োদ
লব
ించి
ాలు
ష్ట
হল</w>
যুক্
বা</w>
है,</w>
सके</w>
राज्य</w>
बंध
प्रा
धर्
K.
65
21
(সাহায্য
ులు</w>
లు,</w>
న్న</w>
ని</w>
త్ర
జాత
ে।</w>
শতা
মহা
ত্র</w>
অঞ্চ
शन
राष्ट
भाषा
दल
था</w>
किया</w>
अधि
xi
22
ిట
ాఖ
శి
పడ
ను</w>
ధత
దం
టం
చై
৯৩
৮২
৫৪
৫.
৪১
০৫
ি-
সৃ
শের</w>
শো
র্বা
র-
বধ
প্রধান</w>
গুলি
ক-
এর</w>
আব
অর্
सरकार</w>
शास
या</w>
तर</w>
)।</w>
ీయ</w>
రాజ
ারা
য়ে</w>
মে</w>
মান
নের</w>
দেশের</w>
তা</w>
ক্ষা</w>
ক্ষে
করে।</w>
উত্
६५
्या
्</w>
ेद
ियों</w>
विश्
य-
मग
भु
धन
णु
उस
భారతీ
భారత</w>
కు</w>
ఉన్న
সংখ্য
মাল
দ্ধ
কেন্দ্র
स्ता
जो</w>
bh
ోక
ీఠ
ీ-
హై
సహ
మౌ
భౌ
థి
జమ
చబ
చట
గె
కథ
ఎల
ఆహ
అహ
ంభ
হও
পৌ
নৌ
থ-
টও
ছ</w>
ঘ</w>
গি
এফ
আট
ংহ
xx
ka
SB
N</w>
(০
ాల</w>
వ్య
২০০
্যের</w>
য়েছ
ন্ত
দ্ব
्रि
िका</w>
ाइ
स्था
शासन</w>
बड़
प्त</w>
निर्
दस
कम
ికి</w>
ష్ట్ర
వాత
రాష్ట్ర
గా</w>
క్ర
కూడ
সঙ্গ
প্রতি
शों</w>
राष्ट्र
मंत्र
पूर्व</w>
जाता</w>
क्षेत्र</w>
ూప
ీష
ీ.
ారు.</w>
మార
భారతీయ</w>
భారతదేశం
బు
నట
చవ
ంలో</w>
৯১
৬৩
১০
ুব
ারে</w>
স্বা
মণ
বৃহ
বিশ্বের</w>
ণ-
ঠা
চর
গুলির</w>
উদ্
ुष
िया।</w>
ारी</w>
स्कृ
विश्व</w>
वप
भग
तट
चीन</w>
घा
इस</w>
अनु
ंग्रे
.৪
BC
62
భారతదేశం</w>
పాల
జాతీయ</w>
ంత్ర
হিন্
সংস্
মাণ
ভাবে</w>
টার</w>
জাতীয়</w>
করে</w>
করা</w>
िक</w>
साम
राज्यों</w>
या।</w>
में
बढ़
पार
धान</w>
धान
देशों</w>
कि</w>
}}:</w>
32
(সাহায্য)</w>
ాలు,</w>
ৈতিক</w>
িত</w>
রয়েছ
ভাষা
পার
ধার
কে</w>
উল্
९६
९.
२५
१७
१,
्ब
ौर
ोह
ेण
िष
हीं</w>
समय</w>
समा
वार
वस्
वल
मुख</w>
महा
मण
भो
फु
प्रमुख</w>
द्ध</w>
जु
चौ
चर
गै
ख्य
काल</w>
उठ
आन
अन्य</w>
(C
ేక
చీ
৭১
৭০
হী
ন-
টক
কগ
Fo
-৬
-স
(ব
వచ్
ప్రా
ద్ధ
క్ష
ఉంది.</w>
্যারা
্যারামি
ীর</w>
ান্য</w>
সরকার</w>
সরকার
সম্প
বৃহত্
পরি
প্যারামি
ধান
ধর্
দেশে</w>
দক্ষি
তার
উল্লে
ইন্
हैं,</w>
हिन्दी</w>
हो</w>
सार</w>
श्चि
वर्ष</w>
लिए</w>
नाम</w>
द्र</w>
दो</w>
गया</w>
करो
(A
లోని</w>
పార
పంచ
ఉన్నాయి.</w>
্রি
সালের</w>
সঙ্গে</w>
সংখ্যা</w>
প্রাচ
ন্ধ
ন্ত</w>
ধীন
তর</w>
४७
्श
ीम
िये</w>
हैं</w>
ही</w>
सेना</w>
संस्कृ
वों</w>
ले</w>
मान</w>
मश
फल
पस
पम
नन
धर्म</w>
था।</w>
ढा
डॉ
डा
ठि
जग
खे
क्षा</w>
क्त</w>
करने</w>
कस
कप
कट
ऐस
एस
इज
अन्
Tr
59
‌ల
‌క
ోధ
ేజ
ెబ
ించ
ాళ
హింద
స్తు
సత
వ్యవ
వచ్చి
రచ
యత
మార్గ
తల
జె
జీ
కార
৭৬
৭,
৭%
৩৯
২৯
২৪
২,
১৯৯
িত।</w>
ানে</w>
হো
স্তা
স-
শিল
রফ
ভট
বৃহত্তম</w>
পশ্চ
পথ
নর
দেশ</w>
তির</w>
ডো
খো
খা</w>
এখ
আখ
অন্যান্য</w>
ाने</w>
होता</w>
हुई</w>
स्तान</w>
स्वत
स्त
व्य
ली</w>
भाष
पाकि
नहीं</w>
तिक</w>
चुना
कारण</w>
कई</w>
इसके</w>
अधिक</w>
-৪
-০
(১৯
(3
"భ
ికార
ానికి</w>
తో</w>
ఖ్య
కూడా</w>
కాల
అధికార
ার্ক
ায়</w>
হয়েছে</w>
শিল্প
শাস
শক্
মি</w>
ফলে</w>
পর্
নাম</w>
ঞ্চ
জাত
ছে।</w>
চিত</w>
ক্ষেত্র
কর্
এশি
এক</w>
्राज
्‍
हुआ
साम्राज
संवि
संविधान</w>
सैन
वारा</w>
राजन
माण</w>
मंत्री</w>
मक
भाषाओं</w>
पाकिस्तान</w>
धो
दृ
ड़</w>
जाति</w>
गया।</w>
ंच
-0
(২০
స్థాన
స్త
వార
ప్రాంత
ప్రపంచ
ధిక</w>
దక్
ట్ట
ం,</w>
িত্র
হার</w>
স্বাধীন
সার
য়া</w>
ব্যব
বিস্
বায়
পুর
নির্বা
ধিক</w>
তান্ত্র
ক্ষ</w>
কৃত
ংশ</w>
ियाँ</w>
स्थि
सित</w>
संबंध
षों</w>
वस्था</w>
लय</w>
राष्ट्रीय</w>
मिल
बीच</w>
बना
पार्ट
पश्चि
नों</w>
निक</w>
द्वारा</w>
देख
दशक</w>
द्र
दिया</w>
चुनावों</w>
ख्या</w>
क्षेत्र
उत्तर</w>
आर्
अनुसार</w>
{{c
{{cit
{{citation
{{citation}}:</w>
Pp.</w>
Pres
New</w>
4,
(P
ోద
ాశ
యల
జం
ంఘ
৭২
৪৬
৪৩
৩৪
ৈল
ুজ
ীম
ভৃ
বপ
জর
(এ
ాత్ర
రైలు</w>
మైన</w>
భారతదేశంలో</w>
భారతదే
పార్ట
పరి
న్ని</w>
ది.</w>
దక్షి
దాయ
తర</w>
ఆర్
ীন</w>
ানা</w>
হয়ে</w>
হয়</w>
স্থা</w>
স্ট
সাহ
সামর
সামরিক</w>
সাধার
সর্বা
শতাংশ
লিত</w>
লিক</w>
য়ের</w>
যদি
যদিও</w>
মাণু</w>
মার্ক
ভিন্
বৈচ
বৈচিত্র
বল</w>
প্রথ
পূর্ব</w>
পরমাণু</w>
ন্তর্
নিয়
দ্ধ</w>
দক্ষিণ</w>
দিক
তিতে</w>
ছাড়
খযোগ
ক্ষেত্রে</w>
কের</w>
এছাড়
উল্লেখযোগ
আন্
५०
२६
१०
ॉक
ैत
ीब
सैन्य</w>
संख्या</w>
योग</w>
में,</w>
बहुत</w>
बल
फै
प्राचीन</w>
प्रधान
प्रदेश</w>
नेतृ
नेतृत्
निर्माण</w>
नी</w>
द्वी
दान</w>
दौ
दम
थी।</w>
थल
तल
क्ति</w>
किया।</w>
क-
एशिया</w>
उल
ई।</w>
आज
ंग्रेस</w>
74
-आ
(I
(B
83
6,
్యం</w>
ించింది.</w>
ాలలో</w>
వ్యవస్థ
రెండ
రాజ్య
రు</w>
భుత్
ప్రభుత్
పు</w>
న్</w>
నాభ
తం</w>
జనాభ
క్కు
ఎన్న
అయి
১৯-
্রে
িন</w>
হিসে
সাম
সমা
রাজ্য</w>
রাজ্য
রাজন
যুক্ত
যা</w>
মার্কিন</w>
মন্ত্র
বিক</w>
বাহি
বাস
ফুট
প্রথম</w>
প্রি
প্যারামিটার</w>
পর্বত
পরী
না</w>
দ্ধি</w>
থনৈতিক</w>
তারিখ
তান্ত্রিক</w>
জনপ্রি
ক্রিক
উত্তর</w>
অর্থনৈতিক</w>
অধিক
অজানা</w>
्याया
िया,</w>
ाली</w>
हुआ।</w>
हुए</w>
स्थ
साम्राज्य</w>
वीं</w>
वी</w>
वा</w>
लों</w>
रहा</w>
रे</w>
मिल</w>
माण
माणु</w>
म,</w>
भूम
भाषा</w>
प्रधानमंत्री</w>
प्रति
परमाणु</w>
पर्
न्याया
थिक</w>
ढ़</w>
जिस
जाती</w>
कॉंग्रेस</w>
करोड़</w>
क्र
कर्
उनक
आर्थिक</w>
अर्
ंगा</w>
He
Gu
్రా
ౌర
ోళ
ో-
ుళ
హో
స్త్ర
స్తా
స్కృ
స</w>
షా
షయ
శీ
వచ్చింది.</w>
వర్
లమ
మద
భవ
బౌ
బై
పెద్
నక
ధూ
ణా</w>
ఢా
డిన</w>
డై
డీ
డవ
డమ
చెంద
చూ
ఘ</w>
ఖమ
కబ
ఐక
ఏక
ఎడ
ఈశ
ఆఫ
ఆగ
అణ
ంద్ర
৯%
৬০
১৯৫
১৫
০৯
ু-
ীদ
াঠ
াঘ
হিন্দু
হিসা
স্থান
সাহিত
সংস্কৃ
শিষ্ট
শ-
রয়েছে</w>
য়ে
য়ী</w>
মান</w>
ম্ব
ভূমি</w>
ভিন্ন</w>
ভর
বিচ
বাহ
বাণ
বাণিজ
ব্যা
বৌ
ফুটবল</w>
প্রাচীন</w>
প্রস্তা
প্রযুক্
প্রধান
পূর্ণ</w>
পশ্চিম
পর্য
পল
থর
ত।</w>
জনসংখ্যা</w>
জস
জন</w>
ঙ্গী
গের</w>
কাপ</w>
কী
ওপ
ঐতি
এশিয়া
এঁ
ইড
আর্
আম
আছ
আ</w>
অনু
অঞ্চল
অক্
ঁদ
४०
१९९
१५
१४
०४
्दी</w>
ारिक</w>
हाला
सरकार
संस
सर्
श्र
शै
शता
शताब
शताब्दी</w>
विका
वर्षों</w>
लिये</w>
रू</w>
रिक</w>
रक्षा</w>
ब्रि
प्राप्त</w>
पूर्ण</w>
पहले</w>
पद
पड़
नेतृत्व</w>
निर
धि</w>
द्वीप</w>
टक
जिसमें</w>
जनजाति</w>
जा</w>
च्च</w>
गणराज्य</w>
ग्र
क्षेत्रीय</w>
केंद
कें
कार्य
ओर</w>
उत्तर
इसक
इन</w>
अरब</w>
CI
7/
.6
-ఢ
(৪
&</w>
9%
’</w>
ుగా</w>
ిల్ల
వాణా</w>
వంట
రువాత
మార్గాలు</w>
మధ్య</w>
బ్ర
పేరు</w>
పట్ట
నిర్
తరువాత
ట్ల
టు</w>
జరి
క్రీడ
కేంద్ర
ఒక</w>
ఉన్న</w>
ఉత్
ఉంట
ఇండ
১৯৮
০-১৯-
্রিষ
্রিষ্ট
্য।</w>
েশন</w>
েট</w>
হিসেবে</w>
হিসাবে</w>
স্থি
সরকারি</w>
সংবি
সর্
শীল</w>
লিয়
লার</w>
রাষ্ট্র।</w>
যার</w>
যোগ
মধ্য</w>
বিশ্বে</w>
বিভিন্ন</w>
বিত
বার</w>
বহু
বর্তম
বছর</w>
ব্দ
প্রায়</w>
ন।</w>
দ্বী
দেখা</w>
দুই</w>
দি</w>
তৃত্
তায়</w>
চ্চ
গণতান্ত্রিক</w>
খ্রিষ্ট
ক্রিকেট</w>
ক্রা
করতে</w>
কংগ
এটি</w>
উদ্ধৃ
উত্তর
हें</w>
हाँ</w>
स्वतंत्र
स्वतंत्रता</w>
स्थित</w>
स्थान</w>
साल</w>
सदस
संस्कृति</w>
संबंध</w>
विदे
लोक
लगभ
लगभग</w>
राज्य
युक्त</w>
मध्य
भूमिका</w>
ब्रिटि
ब्रिटिश</w>
बंधन</w>
प्रभा
प्ले
पश्चिम</w>
न्हें</w>
निभा
दोनों</w>
त्य
जनसंख्या</w>
जान
चार</w>
केंद्र
केंद्र</w>
कुल</w>
कुछ</w>
एवं</w>
इंड
To
SI
Ri
Do
8,
75
-1
”</w>
ీ,</w>
ిన</w>
ాల్
ాలను</w>
సాధ
సిం
సార
సరి
సంగ
శ్ర
లు.</w>
రవాణా</w>
మంత్ర
భారతదేశ</w>
భారత్
ప్రస్తు
ప్రధా
ప్రధాన</w>
పెద్ద</w>
పాకి
దేశానికి</w>
ణం</w>
జనాభా</w>
కాంగ
కాంగ్ర
కలి
ఏర్
ఎన్నో</w>
ఎక్కు
ఇది</w>
ఇతర</w>
২০০৮</w>
১৯৭
্রুপ
্যার</w>
্যু
্য,</w>
েক্ষা</w>
ুন</w>
ী।</w>
িল।</w>
িতে</w>
ারের</w>
ানি</w>
ানি
সিত</w>
সাধারণ</w>
সম্পর্
সংস
সঙ্গী
সক্ষ
সক্ষম</w>
শীয়</w>
শাসিত</w>
লাভ</w>
যুক্তরাষ্ট্র
মোট</w>
মূল</w>
বৃদ্ধি</w>
বিত)</w>
বলে</w>
প্রস্তাবিত)</w>
প্রধানমন্ত্র
প্রাণ
পরীক্ষা</w>
পরিব
পে</w>
নিক
নদী
ধ্রুপ
দ্বীপ
দ্র</w>
দ্বি
দিকে</w>
ড়ে</w>
গত</w>
ক্ষম
কেন্দ্রীয়</w>
ঐতিহ
এছাড়া
একা
উল্লেখযোগ্য</w>
উপেক্ষা</w>
উচ্চ
९४
९१
६२
६०
५४
ुनिक</w>
ीट
िकी</w>
िकारिक</w>
ित</w>
ारम्
ान,</w>
हुआ</w>
हिमा
हट
स्व
समाज</w>
संयुक्त</w>
सी</w>
शासित</w>
विदेश
वाय
वज
लै
लन</w>
रा</w>
युद्ध</w>
यश
मा</w>
भाषाए
बड़ा</w>
बू
फा
प्लेट</w>
प्रारम्
प्रकार</w>
पार्टी</w>
न्त
न्तु</w>
निय
था,</w>
त-
ण-
डर
ठी
जिसक
जाते</w>
छू
गठबंधन</w>
ग़
गंगा</w>
केन्
औस
ईसा</w>
इसी</w>
आधुनिक</w>
आधिकारिक</w>
आठ
अप्र
अपने</w>
अपनी</w>
अह
अमे
अंग्रे
ंथ
|</w>
author
PA
.३
./
(সাহায্য);</w>
‌వ
‌ক
ేష
ూన
ూట
సే
లప
మస
ట</w>
ఘన
ఒల
అల
అర
৫,
৪২
৩৬
৩%
২২
ৈর
সো
লজ
ভব
নভ
জগ
চক
ঘ্
খর
কব
E.
9-
"স
ులు,</w>
ించిన</w>
హద్
స్కృత
స్థా
స్</w>
సియ
సిని
సినిమ
సరిహద్
శాస్త్ర
శపు</w>
విధ
లో,</w>
ర్య
ర్</w>
ముఖ్య
భాష
ప్పట
నుండ
దక్షిణా
ది</w>
దం</w>
డు</w>
చిన్న</w>
గల</w>
క్</w>
కుంట
ఆర్ధిక</w>
అత్య
ంగ్ల
০-১৯-৫৬
্রিটি
্চলিক</w>
েছে।</w>
িবীর</w>
িণত</w>
ার</w>
হিমাল
হয়েছে।</w>
স্বাধীনতা</w>
স্থিত</w>
সিন্ধ
সিন্ধু</w>
সদস
সংর
সংগ্র
ষ্ঠ
ষিত</w>
ষা</w>
শব্দ
শতাংশ</w>
শক্তি
লিয়ন</w>
রাজনৈতিক</w>
যুদ্ধ
য়ার
মালা</w>
ম,</w>
ভূমি
ব্যবস্থা
বৈচিত্র্য
বেশ
বর্তমানে</w>
প্ত</w>
পৃথ
পৃথিবীর</w>
পাঁচ
পরিণত</w>
পর</w>
ন্ন
ন্ড
নির্বাচিত</w>
নিয়ে</w>
থাকে
তী</w>
তিহা
তিত</w>
ত,</w>
টের</w>
ট্র
টারে</w>
জাতিক</w>
জলবায়
জি</w>
জয়
গুলো
গঠিত</w>
গঠন</w>
খেল
ক্ষর</w>
ক্ষা
ক্ষর
ক্ষণ
কাল</w>
কংগ্রে
কূল
কয়
এছাড়াও</w>
উপকূল
উত্তর-
উড</w>
ইন্ডি
ইতিহা
আঞ্চলিক</w>
আয়
অন্যতম</w>
२००
१९८
१९७
्योग
्र</w>
ॉलर</w>
ैली</w>
ेजी</w>
ें</w>
ानों</w>
होती</w>
हिमालय</w>
हिन्द
हरी</w>
स्तृ
स्तृत</w>
समर्
सभा</w>
संसद</w>
संघ</w>
शेष</w>
शुरू</w>
व्यवस्था</w>
विदेशी</w>
विकास</w>
विस्तृत</w>
वायु</w>
वाद</w>
वर्ग</w>
वल</w>
ला</w>
रों</w>
रहे</w>
युग</w>
मों</w>
मैदान</w>
मुख
मी</w>
मत</w>
भाजप
भाजपा</w>
बहुमत</w>
बड़े</w>
बड़ी</w>
पहा
न्न</w>
धीरे</w>
ध्य
दोलन</w>
दर्
दर</w>
थव्य
तिहा
ण्ड
ड़ी</w>
डॉलर</w>
जिसके</w>
ज़ी</w>
गांध
गत</w>
क्ष</w>
की।</w>
कर्ज</w>
करना</w>
करण</w>
अलग</w>
अर्थव्य
अंग्र
अंग्रेजी</w>
ork
ork:</w>
York:</w>
Press.</w>
Publ
1950</w>
$2
Ju
0-
–1
ుల</w>
ియా</w>
ిక,</w>
ి,</w>
ాల్లో</w>
ాలో</w>
ాలతో</w>
హిందూ
స్వా
సామ
సరిహద్ద
సౌక
సము
సమా
వివి
వివిధ</w>
లకు</w>
రాజకీ
రాజకీయ</w>
రహద
రంగ
మొదల
మొదట
మొదటి</w>
మూడ
మాత్ర
భాగ
బ్రి
బెంగ
ప్రాచ
ప్రము
ప్రతి
ప్పటిక
పేర్
పండ
నుండి</w>
నే</w>
నడి
ధాన
ద్ధి</w>
దేశంలోని</w>
దేశంలో</w>
దేశాల</w>
ద్ర
త్వ
జాబ
జరిగి
చే</w>
క్క
కోర్
కాలంలో</w>
కాంగ్రెస
అత్యధిక</w>
ంతో</w>
২০১
০-এর</w>
্রিটিশ</w>
্রাজ
্যিক</w>
্যাদ
্টি</w>
োমি
ুরু</w>
ুর</w>
িলোমি
ারী</w>
াংশ</w>
হের</w>
হলে
স্থানীয়</w>
স্থাপত
স্ত্র
স্ত
স্ট</w>
সের</w>
সাম্রাজ
সাং
সর্বাধিক</w>
সম্পর্ক</w>
সম্প্র
সঙ্গীত</w>
সংখ্যার</w>
সংক্রা
ষ্ঠি
ষ্ঠিত</w>
ষের</w>
শতাংশ।</w>
শতাব্দ
শতাব্দীর</w>
শ্র
রের</w>
রে</w>
যুক্ত</w>
যায়।</w>
য়ায়</w>
মান:</w>
মাণবিক</w>
মহাকা
মতা</w>
ম্প
ভাষায়</w>
ভাগ</w>
ভক্
ব্যবস্থা</w>
বৈশিষ্ট
বৈধ</w>
বেশ</w>
বৃদ্
বৃদ্ধি
বিশে
বিভক্
বিবে
বিবা
বিজে
বাহিনী
বাদ
বাং
বাংলা
বই</w>
প্রতি</w>
প্রজাত
প্যারামিটারে</w>
পের</w>
পূর্বা
পারমাণবিক</w>
পাকি
পর্যন্ত</w>
পর্বতমালা</w>
ন্তর্জাতিক</w>
ন্দ্র</w>
ন্ত্র</w>
নেতৃত্
নার</w>
নামে</w>
নাম
নৃত
ন=</w>
ধর</w>
দ্বীপ</w>
দুটি</w>
দান</w>
দশক
থেকে
থাকে।</w>
ত্ব
ত্ত্
তৃতীয়</w>
তি}}:</w>
তারিখে</w>
তামি
ণে</w>
ঢ়</w>
জ্ঞ
জোট</w>
জন্য</w>
ছে</w>
চলচ্চ
চন্দ্র
গ্রা
গতভাবে</w>
ক্ষিত</w>
ক্ষরতার</w>
ক্ষমতা</w>
ক্রমে</w>
কেন্দ্রশাসিত</w>
কৃতি</w>
করেছে।</w>
করুন</w>
কংগ্রেস</w>
কিলোমি
এশিয়ার</w>
একাধিক</w>
উপর</w>
উপমহা
উদ্ধৃতি}}:</w>
ইন্দো
ইংরে
আন্দো
আইএসবিন=</w>
আইন</w>
আন্তর্জাতিক</w>
অবস্থিত</w>
অন্যদিকে</w>
অধিকাংশ</w>
অ্য
অভি
অবৈধ</w>
অন্তর্
অনে
অক্ষর</w>
८९
५२
५,
१९५
्रीक
्रीका</w>
्यो
्यता</w>
ोसी</w>
ोज
ैल</w>
ृष्ट
ीतिक</w>
ियार</w>
ार्
ानी</w>
होते</w>
हिन्दू</w>
हालाँक
हालाँकि</w>
हथियार</w>
हते</w>
हू
स्थापन
स्थापना</w>
स्तर</w>
स्ट
सहयोग</w>
सर्वो
सर्वोच्च</w>
समर्थ
समर्थन</w>
संस्कृत</w>
संघ
शील</w>
शांत
शांति</w>
शन</w>
विवाद</w>
विभि
विभा
वादी</w>
वर्त
वर्तमान</w>
वरी</w>
व्या
वन</w>
लीन</w>
ली,</w>
लित</w>
ला,</w>
लू
लिया</w>
लिका</w>
र्ष</w>
रोपी
रोपीय</w>
राजनीतिक</w>
यों</w>
यूरोपीय</w>
यास</w>
म्ब
मैद
मुख्य</w>
मध्य</w>
बार</w>
बनाने</w>
बोल
बन</w>
प्रयास</w>
प्रत्य
पुर्
पास</w>
पालिका</w>
परंप
परंपरा
पड़ोसी</w>
पण
नाग
नई
दृष्ट
दिया।</w>
थी</w>
तीसर
तो</w>
तमिल</w>
डु
टे</w>
झौ
जाना</w>
जलवायु</w>
जबकि</w>
जी</w>
जलो
चं
गों</w>
गांधी</w>
गति</w>
खो
केवल</w>
उत्पा
ईद
इसकी</w>
इस्
आदि</w>
आन्
अर्थव्यवस्था</w>
अमेर
अमरी
अभी</w>
अफ्रीका</w>
अप्रैल</w>
अब</w>
|আইএসবিন=</w>
{{বই</w>
editor
8%
1947</w>
.२
-এর</w>
-এ</w>
-फ
,०
(c
%),</w>
-2
్లను</w>
్ల</w>
ేమ
ేట
ె</w>
ుంది.</w>
ీన</w>
ీ;</w>
ిత</w>
ాలు.</w>
ాలకు</w>
ారులు,</w>
ారు</w>
ావర
ావరణం</w>
హిందూ</w>
హన
స్తాన్</w>
స్వాత
స్వాతంత్ర
స్వత
సౌకర్య
సియా</w>
సింది.</w>
సాం
సముద్ర
సభ</w>
సె
సల
సర్
శో
శే
శర
శతా
శతాబ్
వాతావరణం</w>
వగా</w>
వంటి</w>
వో
వత్
లలో</w>
రైల్
రెండు</w>
రిత్ర
రాష్ట్రపత
ర‌
మొత్
మొత్తం</w>
మైన
ము</w>
మహా
మయ
మణ
భిన్న</w>
భారతదేశానికి</w>
భాషల
బెంగాల
బహు
ఫర
ప్రాచీన</w>
ప్రాంతాలు</w>
ప్రస్తుతం</w>
ప్రభుత్వ
ప్రపంచ</w>
ప్రధాన
ప్రధానమంత్ర
ప్రజా
పూర్
పార్టీ</w>
పట్టణ
పస
న్నాయి.</w>
న్ను
న్,</w>
నేక</w>
నిర్వహ
నా,</w>
నడిప
నగర
ధర
దేశాలలో</w>
దిన
దు</w>
తి,</w>
తరువాత</w>
తం,</w>
తమి
డి</w>
జాబిత
జరిగిన</w>
జో
చార
చరిత్ర
గా,</w>
గంగా</w>
ఖ్య</w>
ఖో
కూడు
ఏర్ప
ఎక్కువగా</w>
ఎన్ను
ఉండ
ఇండియా</w>
ఆవ
ఆల
ఆన
అయిన</w>
అధిక</w>
అభి
అనేక</w>
అతి
ంది</w>
ంత్ర</w>
৮.
৭৯
৬৮
৪৮
২০০৭</w>
২৭
১৯৯১</w>
১৯৫০</w>
১,
্রা
্রত
্যে</w>
্যা</w>
্যমে</w>
্প্রত
্র</w>
োর্
ৃত।</w>
ুসারে</w>
ুষদের</w>
ুপ্র
ুনিক</w>
ুষের</w>
ী,</w>
িল</w>
িম</w>
িত্র</w>
ারেশন</w>
ানির</w>
ানের</w>
ানু
ানিক</w>
হায়
হন।</w>
হকি</w>
হকারী</w>
স্থিত।</w>
স্কৃত
স্কৃতিক</w>
সেম্ব
সাম্প্রত
সাংস্কৃতিক</w>
সাগর
সাগ
সাক্ষরতার</w>
সম্প্রদা
সম্
সফোর্
সংবিধান</w>
সংগ্রহের</w>
সি</w>
ষ্ট</w>
ষ্ঠ</w>
ষু
শাসন
শক্তিধর</w>
শুরু</w>
লিউড</w>
র্থ
রাষ্ট্রপত
রাষ্ট্রপতি</w>
রাষ্ট্র</w>
রয়েছে
যথা
মের</w>
মুসল
মুঘ
মুঘল</w>
মাধ
মাধ্যমে</w>
মাত্র</w>
মতো</w>
মশ
ভৌগো
ভাষার</w>
ভাষা</w>
ভাব</w>
ভাগ
ব্যাপ
বৈদেশ
বৈদেশিক</w>
বৃদ্ধির</w>
বিস্তার</w>
বিশ্ব</w>
বিজেপি
বিচারে</w>
বিচার
বিরো
বিচ্
বিংশ</w>
বাহিন
বাহিনী</w>
বাসী</w>
ব্রিটিশ</w>
বশ
বরা
বর</w>
বঙ্
প্রাচীন
প্রযুক্তি</w>
প্রত
প্রত্য
প্রচ
প্ত
পূর্ব
পুরুষদের</w>
পুরস্
পিত</w>
পাদ
পাত</w>
পশ্চিম</w>
পরিষে
পরিচ
পি</w>
ন্ব
নেতৃত্বে</w>
নির্
নিজ</w>
নাট
নিক</w>
নার
নয়</w>
নও</w>
ধ্রুপদি</w>
ধর্ম</w>
দিয়ে</w>
দূ
দল</w>
দর্
দগ
থক
ত্ম
ত্ব</w>
তি,</w>
তারিখ</w>
তনের</w>
ডিসেম্ব
ড়</w>
টির</w>
ঞ্জা
জাতি
জনপ্রিয়</w>
জনসংখ্যার</w>
ছিল</w>
চলচ্চিত্র</w>
চার
চতু
ঘাট</w>
গুলোর</w>
গুলিতে</w>
গুরু
গাঢ়</w>
গত।</w>
গড়ে</w>
খেলা</w>
ক্ষেত্র</w>
ক্ষমতায়</w>
ক্রয়
কোম্প
কোনও</w>
কোটি</w>
কিলোমিটার</w>
কালের</w>
কর্তৃ
উৎস
ইহ
ইপ
আন্দোল
আদাল
আজ</w>
অর্থ
অবস্থিত।</w>
অন্তর্গত।</w>
অনুমো
অঞ্চলের</w>
অঞ্চল</w>
অক্সফোর্
२०१
्योग</w>
्याद
्यट
्तन
्तनत</w>
ौद्योग
ी,</w>
ार,</w>
ा,</w>
हुई।</w>
हिन्दु
हिस्
हर</w>
स्वरूप</w>
स्तार</w>
स्लि
स्त्र</w>
स्त्र
सेना
सून</w>
सिने
सामा
सामाजि
सामाजिक</w>
सल्तनत</w>
सरकारें</w>
सम्प
सम्
संघर्ष</w>
संघी
संघीय</w>
संगी
संगीत</w>
स,</w>
षित</w>
शुरु
शत</w>
व्यापा
व्यापार</w>
विभिन्न</w>
विस्तार</w>
विक
विकसित</w>
विय
व,</w>
लोगों</w>
लावा</w>
लड़
रूप
राष्ट्र</w>
राजधान
राजधानी</w>
रहा
यक</w>
मूल
मुस्लि
मुख्य
मिलिय
माना</w>
मानसून</w>
माध्य
माध्यम</w>
महाद्वीप</w>
भील</w>
भाषाएँ</w>
बाहरी</w>
बढ़कर</w>
बर</w>
बंग
फ्र
प्रारम्भ</w>
प्रतिशत</w>
प्रौद्योग
पूर्वी</w>
पुरा
पर्यट
पंजा
पहु
न्यायालय</w>
न्ह
निरपे
निभाई</w>
नदियाँ</w>
न्य
द्ध
दों</w>
देखा</w>
दृष्टि</w>
दिल्
दार</w>
थे।</w>
तांत्र
तियों</w>
तना
जैसे</w>
जिसका</w>
जिन
जलोढ़</w>
जनता</w>
जहाँ</w>
जन</w>
चीफ</w>
ची</w>
घोषण
गुप्त</w>
गई।</w>
गर</w>
गए</w>
गई</w>
कोई</w>
केन्द्र
कृष
किन्तु</w>
काम
का,</w>
करता</w>
किये</w>
किया,</w>
कहते</w>
कम</w>
उपमहाद्वीप</w>
उद्योग</w>
उसके</w>
इतिहा
आकर्
अन्त
अधिकार</w>
अधिक
अंग्रेज़ी</w>
ंत्र</w>
ँची</w>
ul</w>
brid
ambrid
Public
Joh
India।</w>
F.
49
45
26</w>
1971</w>
-জ
-5
(৩
(ড
(জ
(ক
(editor
()
PI
BS
‍य
్‌</w>
్రాజ
్రదాయ
్యాయ
ెస్</w>
ులకు</w>
ీలు</w>
ిత్ర
ించి,</w>
ించే</w>
ింది.</w>
ాలె
ాలుగా</w>
ాత్ర</w>
ా,</w>
స్వామ
స్తారు.</w>
స్లా
స్య
స్థ</w>
సినిమా</w>
సామ్రాజ
సాంప
సాంప్రదాయ
సర్వీ
సర్వీస
సభ్య
సంగీత
సంస్కృత
సంవత్
సంప్ర
సంప్రదాయ
శ్చి
శాఖ</w>
శతాబ్దం</w>
వ్యవస్థ</w>
వేగంగా</w>
వెబ
వి.</w>
వారస
ళ్లను</w>
ల్ప
లుగు
ల్</w>
ర్త
రోడ్
రుష
రాష్ట్రపతి</w>
రాష్ట్రాల</w>
రహదారులు,</w>
రకాల</w>
మూడు</w>
ముఖ్యమైన</w>
ములో</w>
ముంబ
ము.</w>
మాత్రం</w>
మలు</w>
మధ్య
మాల
మాన
మత</w>
భారత్</w>
భారతదేశంలోని</w>
భారతదేశపు</w>
భాగం</w>
బ్రిటి
బ్రిటిష
బాద్
ప్రముఖ</w>
ప్రార
ప్రకార
పొంద
పైగా</w>
పేరు
పుట్ట
పాలిత</w>
పాకిస్థా
పరిశ్ర
పరంగా</w>
పతక
పాత్ర</w>
పశ్చి
పర్
న్నారు.</w>
న్ని
న్యాయ
నాల
నాయ
ద్వీ
త్</w>
తి</w>
తన</w>
ఢిల్ల
టుంబ
టిలో</w>
జాబితా</w>
జల</w>
చేయ
చెందిన</w>
చుకో
చరిత్ర</w>
గి</w>
ఖండ
క్షరా
క్రమ
కేంద్రపాలిత</w>
కూడిన</w>
కుటుంబ
కార్య
కాంగ్రెసు</w>
క్య
కుల
కను
ఉంటాయి.</w>
ఆర్థ
ఆధార
ఆక్ర
అభివృ
అధికారిక</w>
అతి</w>
అను
ంటే</w>
ంచి</w>
১৯৯৮</w>
্রিক
্রাস
্যুষিত</w>
্যাদা</w>
েকটি</w>
েই</w>
ৃতি</w>
ুমানিক</w>
ুত</w>
ীণ</w>
িতা
ালিক</w>
ালি</w>
ার্
ারা</w>
া,</w>
হিমালয়ের</w>
হলেন</w>
হয়েছিল</w>
হয়,</w>
স্থাপত্য</w>
স্থাপিত</w>
স্থাপ
স্তান</w>
স্তন
সিয়
সাম্রাজ্যের</w>
সাম্প্রতিক</w>
সাধারণত
সর্বো
সরকারের</w>
সমাজ
সমৃ
সময়</w>
সময়
সমগ্
সমগ্র</w>
সভ্য
সভা</w>
সংস্কৃতি</w>
সংবিধান
সংক্রান্ত</w>
সংঘ
শিষ্ট</w>
শতকে</w>
শক্তির</w>
শন</w>
লেখা</w>
লা,</w>
লক্ষ</w>
র্ষ
র্থ</w>
রোপী
রেখা
রেখার</w>
রূপে</w>
রাজ্যের</w>
রাঞ্চ
রপে
রক্ষা</w>
যোগিতা
যুদ্ধের</w>
যুক্তরাষ্ট্রীয়</w>
যুগের</w>
যথাক্রমে</w>
মানুষের</w>
মাণ</w>
মাইল
মহান
মর্যাদা</w>
মূল
ময়</w>
ভৌগোলিক</w>
ভূত</w>
ভারতে
ভারতক
ভারতকে</w>
ভাগে</w>
ভৃতি</w>
ব্যবহ
বৈশিষ্ট্য</w>
বৈচিত্র্যের</w>
বিস্ত
বিশ্বকাপ</w>
বিশ্বকা
বিবেচিত</w>
বিবাহ</w>
বিষ
বিশিষ্ট</w>
বিলিয়ন</w>
বিগত</w>
বাণিজ্যিক</w>
বাণিজ্য</w>
বাস</w>
বাদ</w>
বহুল</w>
বর্ণ
ব্র
বার
বহি
ফেড
ফি,</w>
প্রাণী</w>
প্রাচীনতম</w>
প্রধানমন্ত্রী</w>
প্রত্যক্ষ</w>
প্রতিযোগিতা
প্রজাতন্ত্র
প্রচলিত</w>
প্রভৃতি</w>
প্রভাব</w>
প্রবর্
প্রথম
প্রচল
পোশা
পৃ.</w>
পূর্বে</w>
পুরস্কার</w>
পিপি
পার্টি</w>
পাকিস্তান</w>
পাতের</w>
পশ্চিমঘাট</w>
পর্বতমা
পরিবর্
পরে</w>
পরে
ন্ধী</w>
ন্ড</w>
ন্ট</w>
নীতি</w>
নিরপে
নিম্
নিদর্
নিজে
ন,</w>
ধর্ম
ধনশীল</w>
ধারা
দ্রুত</w>
দ্রা
দ্বারা</w>
দেশীয়</w>
দেয়।</w>
দিত</w>
দী</w>
দিক</w>
দার
দলের</w>
থেকেই</w>
থে</w>
থান
ত্বপূর্ণ</w>
তিন
ণ।</w>
ডিসেম্বর</w>
ডলার</w>
ঠে।</w>
ট্রফি,</w>
টিক
ট,</w>
জিত</w>
জিডি
জনপ্রিয়।</w>
জীব
জিক</w>
জরা
চারটি</w>
গ্রহ</w>
গুরুত্বপূর্ণ</w>
গান্ধী</w>
খণ্ড
খ্যা
ক্ষণের</w>
ক্ষণ</w>
ক্রয়ক্ষমতা</w>
ক্ত</w>
কেন্দ্র</w>
কৃষি
কালে</w>
কাই
কাইভক
কর্তৃক</w>
করেন।</w>
কয়েকটি</w>
ওঠে।</w>
এশিয়ান</w>
এশিয়া</w>
এছাড়া</w>
উৎসব</w>
উপগ্রহ</w>
উদ্ভি
উত্তর-পূর্ব</w>
ইটালিক</w>
ইউরোপী
ইউনি
ইংরেজি</w>
ই,</w>
আর্কাইভক
আফ্রিক
আন্দা
আনুমানিক</w>
আধুনিক</w>
আবার</w>
অনেক</w>
অনুমোদিত</w>
অনুযা
অনুসারে</w>
অধ্যুষিত</w>
অত্য
অক্সফোর্ড</w>
অক্টো
অরণ
অংশ
६४
३८
२९
१९५०</w>
१९६
१५</w>
०००</w>
्रिय</w>
ौल
ों,</w>
ोण
ैंक</w>
ैतिक</w>
ेक</w>
ीलंक
ीलंका</w>
ी।</w>
ीक्ष
ीक्षण</w>
ियां</w>
िमण्ड
िमण्डल</w>
िणाम
िकों</w>
िय</w>
ालर</w>
ारों</w>
ारे</w>
ा।</w>
होना</w>
हॉकी</w>
हुए
हिन्दी
हाल</w>
हायक</w>
स्वतंत्र</w>
स्थान
स्तान,</w>
स्कृतिक</w>
स्त</w>
सोविय
सोवियत</w>
सों</w>
सेवा
से,</w>
सूची</w>
सिंध
सिं
सिंह</w>
सामरिक</w>
सामन
साथ
सागर</w>
सां
सांस्कृतिक</w>
समाप्त</w>
समृ
सभ्यता</w>
सफल</w>
सने</w>
सदस्यों</w>
सदस्य</w>
सदन</w>
सक्रिय</w>
संबंधों</w>
सॉ
सा</w>
सहायक</w>
ष्ण</w>
ष्ठ</w>
ष्क</w>
श्रीलंका</w>
श्मी
श्मीर</w>
शुरुआ
शुरुआत</w>
शुष्क</w>
शिय
शक्ति</w>
शक्
विरो
विक</w>
वास्त
वाली</w>
वशाली</w>
वर्ष
वंश</w>
वे</w>
लोकप्र
लोकप्रिय</w>
लोग</w>
लेकर</w>
लीवि
लिक</w>
लना</w>
लंब
लंबे</w>
रूस</w>
री,</w>
राजनैतिक</w>
रहा।</w>
रता</w>
र्य</w>
यहाँ</w>
मौर्य</w>
मैदानी</w>
मुस्लिम</w>
मिला</w>
मंत्रिमण्डल</w>
मन</w>
मण</w>
भाषी</w>
भारती
भारत
भागी
भाग</w>
भरा</w>
भे
भर</w>
बौद्ध</w>
बने</w>
बनी</w>
बना</w>
बढ़ती</w>
बजट</w>
बंधीय</w>
ब्र
बॉ
बने
फ्रां
फैली</w>
फे
प्रौद्योगिकी</w>
प्रत्येक</w>
प्रदान</w>
प्रण
प्रणाली</w>
प्रका
पूरे</w>
पूरा</w>
पुर्तग
पुरु
पाया</w>
पश्चिमी</w>
पर्यटन</w>
पर्वत
पर्व</w>
परंपरागत</w>
परीक्षण</w>
परिणाम
पंजाब</w>
पि</w>
पत्
पट
नेक</w>
निवे
निम्
नगर</w>
धिकार</w>
धिक</w>
धार</w>
धार
द्धि</w>
दिल्ली</w>
दिरा</w>
तों</w>
तीन</w>
तांत्रिक</w>
तरह</w>
तौ
णत
णक
ड़ा</w>
डालर</w>
डस
ठक</w>
टेलीवि
टिबंधीय</w>
टी</w>
जों</w>
जून</w>
जीवन</w>
जिनमें</w>
जिन्हें</w>
जित</w>
जमा</w>
जनवरी</w>
जरा
छोड़
छोटे</w>
छा
च्छ
चना</w>
चाल
घोषणा</w>
गुजरा
गति
खु
खि
क्ट
कों</w>
कृषि</w>
किसी</w>
किए</w>
कार्यपालिका</w>
कार्यकाल</w>
कालीन</w>
करते</w>
करती</w>
कश्मीर</w>
कथ
ओड
एफ
ऋतु</w>
ऊँची</w>
उपयोग</w>
उनके</w>
उनकी</w>
उत्तरी</w>
उसे</w>
उन्हें</w>
उच्च</w>
ई,</w>
इस्ला
इसका</w>
इसे</w>
इसमें</w>
इतिहास</w>
इंडिया</w>
इंदिरा</w>
आन्दोलन</w>
आगमन</w>
आया
आय</w>
अमरीकी</w>
अपना</w>
अल्
अनेक</w>
अद
ंड</w>
ंग</w>
ंपर
|publ
|publish
|publisher
|publisher=
|publisher=-এ</w>
|nopp
|nopp=</w>
|no-
|no-pp
|no-pp=</w>
|co
|coauthor
|coauthors
|coauthors=</w>
s।</w>
author=</w>
ambridge</w>
Publication
Press,</w>
Paul</w>
Lond
Chang
Anth
68
41
33
2020
22</w>
1980</w>
0,</w>
.६
.४
-१
,६
(২০০১
(|author=</w>
(भ
(|no-pp=</w>
ία
Sp
Ki
BB
్‌సై
్‌సైటు</w>
్లు</w>
్,</w>
ెట్</w>
ూరు</w>
ులను</w>
ును</w>
ుగు</w>
ిల్లీ-
ినది.</w>
ితి</w>
ిగా</w>
ిక్</w>
ించాల
ించబ
ాలెండ
ాలా</w>
ారి</w>
ార</w>
ాయి</w>
ాతో</w>
ాంగ
హిమాల
స్వామ్య</w>
స్వతంత్ర</w>
స్లామా
స్లామాబాద్
స్యత</w>
స్థానంలో</w>
స్కృతిక</w>
స్ట
స్,</w>
సాంస్కృతిక</w>
సర్వీసులు</w>
సమాఖ్య
సంస్కృతి</w>
సంవత్సర
సంప్రదాయాలు</w>
సంగీతం</w>
సంగీ
సంస్కృ
సంబ
సంబంధ
సంఘ
సంఖ్య
సంకీ
సంకీర్
సైన
శ్రీ
శ్మీ
శాస్త్రీయ</w>
శాస్త్రం,</w>
శెల
వ్యవస్థలో</w>
వ్యాప
వైవిధ
వెబ్‌సైటు</w>
వెను
వెనుకట
వెనుకటి</w>
వీటిలో</w>
విస్
విభిన్న</w>
విద
విద్య
వారా</w>
వాణి
వాణిజ
వల్ల</w>
వలం</w>
వరి</w>
వరాలు</w>
వడం</w>
వంలో</w>
వే</w>
ల్లో</w>
లోను</w>
లేద
లేదా</w>
లను</w>
ల్ల
లక్ష
ర్,</w>
రోడ్డు</w>
రైల్వే</w>
రైళ్లను</w>
రుపు
రాజ్యాంగ
రం</w>
మొదలైన
మొట్ట
మొట్టమొదటి</w>
మైనది.</w>
ముఖ్య</w>
మే</w>
మిం
మంది</w>
భాషలు</w>
భావి
బహుళ</w>
బడత
బంగ్ల
బంగ్లా
బంగ
ఫ్ఘ
ప్రారంభ
ప్రభుత్వం</w>
ప్రపంచం
ప్రధానమంత్రి</w>
ప్రతిపా
ప్రతిపాదన
ప్రకారం</w>
ప్రజల
ప్పటికీ,</w>
పేర్లు</w>
పేర్కొ
పురుష
పాలించ
పాలన</w>
పాటు</w>
పాక్</w>
పరిశ్రమలు</w>
పతకాలు</w>
పండుగ
పీఠ
పా</w>
పద్ధ
పక్ష
న్నది.</w>
న్మ
న్నడ
నేపాల
నుంచి</w>
నాలుగు</w>
నాయక
నాగర
నాగరిక
నడిపిం
ద్ధం</w>
ద్వారా</w>
దేశంగా</w>
దేశపు</w>
దినాలు</w>
దాదా
దగా</w>
దక్షిణాసియా</w>
దక్షిణాన</w>
దక్షిణ</w>
త్వ</w>
త్మ
త్తా
తో,</w>
తెలుగు
తుంది.</w>
తిగా</w>
తరువాతి</w>
తమిళం
తంలో</w>
త్య
తూ</w>
తరా
తక్కు
ణంగా</w>
డింది.</w>
ట్లు</w>
టి</w>
టర్
జరిగ
జనగణ
జాలు</w>
జరుపు
జన్మ
జంబ
జంబూ</w>
చు.</w>
చిన</w>
చిత్ర
చింది.</w>
చారిత్ర
చైన
చాలా</w>
గుర్త
గాంధ
గాంధీ</w>
క్షరాస్యత</w>
క్రీడలు</w>
క్యాలెండ
క్‌
కోర్ట
కోల్
కోట్ల
కొన్ని</w>
కేంద్ర</w>
కేవలం</w>
కూడుకు
కుంటారు.</w>
కింద
కార్యక్రమ
కాశ్మీ
కలిగి</w>
కరణ
కంపె
కన్నడ
ఒకటి
ఏర్పడ్
ఎన్నిక
ఉపఖండ
ఉన్నారు.</w>
ఉత్తరా
ఉత్తర</w>
ఉంటుంది.</w>
ఇవి</w>
ఇస్లామాబాద్
ఇతర
ఇంగ్ల
ఆహార
ఆర్థిక</w>
ఆఫ్ఘ
అభివృద్ధి</w>
అనే</w>
అని</w>
ంగా,</w>
ంలో,</w>
ం.</w>
৯৯),</w>
৮।</w>
৫২১
৪৭</w>
২১৬
২০১১</w>
২০</w>
২৮</w>
১৯৯০-এর</w>
১৯৪৭</w>
০০০</w>
০১৯
্ষিক</w>
্রিম</w>
্রেস
্যান্ড</w>
্যান্ড
্যো
্যোতি
্যব
্যবস্থা</w>
্যপা
্বভৌ
্পিউ
্ট</w>
্চ</w>
্সি
োজক</w>
োগের</w>
োগ</w>
োজিত</w>
েরু</w>
েম্ব
েন।</w>
ে,</w>
ৃতিক</w>
ৃত,</w>
ৃত</w>
ীতি</w>
ীত।</w>
িদ্র
িতি</w>
িত,</w>
িকভাবে</w>
িক।</w>
ি,</w>
ানুয়ার
ানুয়ারি</w>
াগরি
াকৃতিক</w>
হিমালয়</w>
হিন্দু,</w>
হিন্দি</w>
হিন্দি
হয়েছিল।</w>
হয়;</w>
হারের</w>
হত</w>
স্বাধীনতার</w>
স্থাপন</w>
স্তন্যপা
স্ট্র
সেনা</w>
সেই</w>
সীমা
সিংহ
সার্বভৌ
সারা</w>
সাগরে</w>
সাগর</w>
সাল</w>
সাল
সামা
সামাজিক</w>
সাথে</w>
সাউ
সর্বোচ্চ
সর্বোচ্চ</w>
সর্বাপে
সর্বাপেক্ষা</w>
সর্ব
সরণ</w>
সম্মি
সময়কালের</w>
সমর্থ
সময়ে</w>
সভ্যতার</w>
সকল</w>
সংস্কৃতির</w>
সংস্কৃতিতে</w>
সংস্কৃত</w>
সংসদের</w>
সংসদী
সংসদীয়</w>
সংরক্ষণ</w>
সংঘর্
সংখ্যাগরি
সংখ্যক</w>
সংস্থা</w>
সংসদ
সৃষ
সুপ
সহায়
সহ</w>
স,</w>
ষ্ঠী
ষণা</w>
শাসনা
শাসন</w>
শহরে</w>
শব্দটি</w>
শক্তি</w>
শাল
ল্ল
লোকস
লোক
লুগু
লীন</w>
লি,</w>
লায়</w>
লন</w>
র্ধ
র্তী</w>
রেশীয়</w>
রিজ
রাষ্ট্রে</w>
রাজ্যে</w>
রাজনীতি</w>
রয়েছে:</w>
রয়েছে।</w>
রা</w>
রন্
রন্ধন
রও</w>
যোগ</w>
যুদ্ধ</w>
য়েন্
য়ান
য়,</w>
যে</w>
যন্ত্র
মুসলমান</w>
মানুষ
মাঝ
মাই
মধ্যবর্
মধ্যবর্তী</w>
মিক
মা</w>
মসূ
মরু
ভূমির</w>
ভূমিক
ভূখণ্ড
ভিত্
ভাষাগো
ভার্সি
ভারত-
ভারত,</w>
ভাগের</w>
ভি</w>
ব্যাপক</w>
ব্যবহৃত</w>
ব্যবস্থার</w>
বৈচিত্র্যপূর্ণ</w>
বৃহৎ</w>
বৃক্ষ
বুদ্ধ</w>
বিস্তৃত।</w>
বিশেষ</w>
বিশেষ
বিরোধ
বিরোধী</w>
বিভক্ত।</w>
বিজেপি-
বিচ্ছি
বিচারব্যবস্থা</w>
বিভাগ</w>
বিবাহ
বিদেশ
বিদেশি</w>
বিদ</w>
বিদ
বিজয়
বিজ
বাহিনীর</w>
বার্ষিক</w>
বায়ুপ্র
বাল
বাদী
বসতি</w>
বর্ধনশীল</w>
বন্য
বঙ্গো
বঙ্গোপ
ব্য</w>
ফেডারেশন</w>
ফ্র
ফিল
প্রযুক্তি
প্রবর্তিত</w>
প্রতিষ্ঠিত</w>
প্রতিষ্ঠ
প্রাধ
প্রাকৃতিক</w>
প্রা
প্রস্
প্রদেশের</w>
প্তর
পূর্বাব্দ
পূর্বাঞ্চ
পুন
পুঞ্
পাঁচ</w>
পালিত</w>
পাল</w>
পাত
পাও
পশ্চিমে</w>
পরেই</w>
পরিচাল
প্ট
পতিত</w>
পড়
প,</w>
ন্বয়ে</w>
ন্নয়
ন্ত্রণ</w>
ন্স</w>
নোবে
নৃত্য
নির্বাচন
নির্বাচনে</w>
নিরপেক্ষ</w>
নিয়ন্ত্রণ</w>
নিম্নক
নিদর্শন
নিজেদের</w>
নিযুক্ত</w>
নে</w>
ধিষ্ঠিত</w>
ধাঁচ
ধর্মী
ধর্মা
ধি</w>
দ্রো
দ্বীপপুঞ্
দ্বীপের</w>
দৈনিক</w>
দেশটির</w>
দেশ।</w>
দুর্
দিন</w>
দারিদ্র
দায়
দাক্ষি
দাক্ষিণ
দাক্ষিণাত
দাঁ
দাঁড়
দশকে</w>
দশকগুলিতে</w>
দশকের</w>
দশক</w>
থাকত
থর</w>
ত্তি</w>
তেলুগু
তৃত্ব</w>
তীয়
তি।</w>
তামিল
তাই</w>
তম।</w>
তবে</w>
তথ্য</w>
তথা</w>
তুল
ণ্ড</w>
ণের</w>
ড়ুর</w>
ড়া</w>
ডলারের</w>
টিকে</w>
টি।</w>
জুন</w>
জার</w>
জাতি</w>
জাত</w>
জনতা</w>
জ্যোতি
জ,</w>
ছোট
ছিল।</w>
ছিল
চুক্
চুক্তি</w>
চালিত</w>
চার</w>
চনা</w>
চতুর্থ</w>
চাল
ঙ্গাল
ঙ্গে
ঙ্গ</w>
গীয়</w>
গণিত
গবে
গণ</w>
খ্রিষ্টীয়</w>
খ্রিষ্টপূর্বাব্দ
খাতের</w>
খাত</w>
খনো</w>
খ্রি
খে</w>
খালি</w>
খণ্ড</w>
ক্ষার</w>
ক্রান্
ক্তি
কেন্দ্রের</w>
কের
কূল</w>
কার্য
কারণে</w>
কাশ্
কাশ</w>
কালীন</w>
কাবা
কলকা
কর্মসূ
করণ</w>
কম্পিউ
কলা
কক্ষ
ক।</w>
ঐতিহ্য</w>
ঐতিহ্য
এসএল
একই</w>
এদেশের</w>
এগুলি</w>
উৎসব
উৎপাদ
উৎপ
উল্লেখ</w>
উপমহাদেশের</w>
উপনি
উপকূল</w>
উদ্ধৃতিতে</w>
উন্নয়
উন্
ইন্ডিয়া
ইন্দি
ইউরোপীয়</w>
ইউনিভার্সি
ইউরেশীয়</w>
ইউনিয়
ইস্ট</w>
আর্কাইভকৃত,</w>
আরব</w>
আরও</w>
আন্দোলনের</w>
আন্দামান</w>
আদালতের</w>
আমদ
আবাস
আধা
আদি
আগে
অ্যাড
অবস্থা
অবদান</w>
অনুযায়ী</w>
অধিকার
অত্যন্ত</w>
অঞ্চলে
অক্টোবর</w>
অস্
অধিষ্ঠিত</w>
অতি
অগ্র
४०</w>
२०१४</w>
२००४</w>
१९९१</w>
१९८४</w>
्रित</w>
्यादा</w>
्या</w>
्यपि</w>
ोंने</w>
ेशन</w>
े।</w>
ेक्षा</w>
ूबर</w>
ूह</w>
ुप</w>
ीति</w>
ियान</w>
ियाई</w>
ियस</w>
िक,</w>
ाष्ट
ालय</w>
ारख
ाटी</w>
ाचल</w>
होने</w>
हैं:</w>
हुआ,</w>
हिस्सा</w>
हिं
हार</w>
हरा</w>
हत्या</w>
हती</w>
हारी</w>
हरू</w>
हरा
हन</w>
स्थिति</w>
स्थानीय</w>
स्थापि
स्थापित</w>
स्टा
स्टाफ</w>
स्ट</w>
सेवाओं</w>
सेनाओं</w>
सेवा</w>
सूचना</w>
सीमा</w>
सिनेमा</w>
सिंधु</w>
सित
साम्राज्यों</w>
साथ,</w>
साहि
सामान
साक्ष
साक्षरता</w>
साई</w>
सशस्त्र</w>
सरकारों</w>
सरे</w>
सम्प्र
सम्पूर्ण</w>
समृद्ध</w>
समूह</w>
समझ
सभी</w>
सदी</w>
सतपु
सतपुड़ा</w>
सकते</w>
सकता</w>
संसदी
संसदीय</w>
सौह
सारी</w>
सार
सहि
सशील</w>
सन्
षण,</w>
श्रेण
शेष
शिक्षा</w>
शास्त्र
शाल</w>
शामिल</w>
शैली</w>
शिया</w>
व्याप
वैदि
वैदिक</w>
वृद्धि</w>
विश्व
विरोध</w>
विकासशील</w>
विशाल</w>
विद्र
वित</w>
विज्
वास्तविक</w>
वास</w>
वर्षा</w>
वर्णि
वर्ण
वर्णन</w>
वर्गी
वपूर्ण</w>
वत</w>
लोकतांत्रिक</w>
लीय</w>
लिस</w>
लाल</w>
लाया।</w>
लाख</w>
लाख
लदी
लगा
लगाता
लगातार</w>
र्त
र्च
रे-
रे-धीरे</w>
राज्यसभा</w>
राजनीति</w>
राजस्थान</w>
राजवंश</w>
राजभाषा</w>
राजा
रही</w>
रखा</w>
रिय
रत्
योग
या,</w>
यद्यपि</w>
ये</w>
यर</w>
यन</w>
मोहन</w>
मोर्च
मोदी</w>
मूल्य</w>
मूल</w>
मील</w>
मीण
मिलियन
मिक</w>
मानव</w>
मालदी
मामल
मांड
महासागर</w>
मनमोहन</w>
म्य
मार्
मही
मना
मक</w>
भूमि
भिक</w>
भाषाएं</w>
भारतीयों</w>
भागीद
भागीदारी</w>
बैठक</w>
बहुमूल्य</w>
बने।</w>
बनने</w>
बदल</w>
बढ़ने</w>
बडी</w>
बी</w>
प्रारम्भिक</w>
प्राची
प्राचीनत
प्राचीनतम</w>
प्रभावशाली</w>
प्रभाव</w>
प्रशासन</w>
प्रदेशों</w>
प्रति</w>
प्रच
प्रचलित</w>
प्ति</w>
पैमान
पुर्तगाली</w>
पुरुषों</w>
पुलिस</w>
पुन
पार्टियों</w>
पाल</w>
पहुँच
पहाड़ी</w>
पहाड़
पहली</w>
परिणामस्वरूप</w>
परेशन</w>
पत्ति</w>
पत्य</w>
पंथी</w>
पठा
पठार</w>
न्होंने</w>
न्याय
न्त्र
नौसेना</w>
नेहरू</w>
नेट</w>
निरपेक्ष</w>
नियु
नियंत्र
निभाई।</w>
निवास</w>
नागा</w>
नाड
नाट
नागर
नदियों</w>
नका</w>
नृत
नम</w>
न,</w>
धीरे-धीरे</w>
धर्मों</w>
धर्म,</w>
धर्म
दर्शन</w>
दा</w>
द,</w>
थी,</w>
थान</w>
त्रि
त्र,</w>
तुलना</w>
तीसरी</w>
तीस</w>
तिम</w>
ता,</w>
तनाव</w>
ततः</w>
तरा
तब</w>
णी</w>
टल</w>
झारख
जैन</w>
जीत</w>
जिसकी</w>
जिसने</w>
जाने</w>
जवा
जब</w>
जन्
छोड़कर</w>
छह</w>
चुकी</w>
चित</w>
चाई</w>
घोषित</w>
घाटी</w>
गैर-
गुजरात</w>
गतिशील</w>
गों
गया,</w>
गढ़</w>
खान
खर</w>
क्षेत्रों</w>
क्षेप</w>
क्टूबर</w>
केन्द्रशासित</w>
केन्द्र</w>
कामका
कामकाज</w>
करोड़
करे
कंपन
क्रि
कमांड
कप</w>
कटिबंधीय</w>
ऑफ</w>
ऑपरेशन</w>
एशन</w>
ऊँचाई</w>
ऊपर</w>
उनका</w>
उत्पाद</w>
उत्तर-प
उत्तर-पश्चि
उष्ण</w>
इंडो
आसपास</w>
आते</w>
आगे</w>
आकर्मण</w>
आंदोलन</w>
आधार</w>
आज</w>
आई</w>
आंत
आंतरिक</w>
अवशेष</w>
अवधि</w>
अमेरिका</w>
अभियान</w>
अन्तर्
अन्तर
अन्ततः</w>
अन्त</w>
अति</w>
अलावा</w>
अनि
अच्छ
अक्टूबर</w>
ंजन</w>
ं।</w>
ँच</w>
|mon
|month
|month=</w>
|last
|last2
|last2=</w>
|fir
|first
|first1
|first1=</w>
umbai
umbai:</w>
s),</w>
ountry</w>
on:</w>
omb
ombay</w>
olum
iii,</w>
esh</w>
colour</w>
book</w>
Wild
SBN</w>
S.</w>
R.</w>
Press</w>
Natural</w>
Mumbai:</w>
Mill
Mac
London:</w>
John</w>
J.</w>
ISBN</w>
Change</w>
Country</w>
Cambridge</w>
Book
Bra
Bombay</w>
Archived</w>
Antholog
30</w>
2003</w>
2000,</w>
27
1999</w>
1990</w>
1962</w>
1960</w>
1951</w>
19</w>
192,</w>
12</w>
.৬%</w>
-ধাঁচ
(২০০১),</w>
(২০০৬
(২০০৪
(১৯৯৯),</w>
(వెనుకటి</w>
(হিন্দি
(এন
(०,
(W
%)।</w>
‌ఫ
ొమ
ేధ
ృహ
ృ</w>
ూ—
హొ
సొ
వూ
వజ
ళవ
లభ
లఘ
రొ
రబ
యూ
యథ
మో
భజ
పౌ
ప-
నబ
దృ
దస
దశ
దప
తగ
డబ
ఞా
జౌ
చ.
ఔట
ఓడ
ఏట
ఏ.
ఎమ
ఇయ
ఆయ
ఆట
ఆ</w>
ః</w>
ంథ
৬°
১–
ৌহ
ৌশ
ৌ</w>
হট
সৈ
সও
ষো
ষল
ষচ
শর
রঙ
রং
যৌ
যখ
ব-
ফৌ
ফ</w>
পঁ
দৃ
দণ
দখ
দং
থপ
তৎ
তহ
তখ
ডু
ঠো
ট)
চো
খ—
ওষ
ওন
ওণ
ঐক
ঋত
ঊন
উই
ইর
ই-
আহ
আও
অ-
οί
ān
°৭
eè
e´
^</w>
Z</w>
Yv
X</w>
N)
M</w>
L</w>
Gl
G</w>
D</w>
C.
B/
AP
?</w>
8-
.మ
-ఇ
)-
(శ
(ట
(గ
(ఉ
(ఇ
(ఆ
(ভ
(উ
(ই
(আ
†</w>
“R
‘द
—এই</w>
‍व</w>
‍प
‌కాత
‌కాతా</w>
‌లో</w>
్వత్ర
్వత్రిక</w>
్లమె
్లమెంట
్రాబ్
్రాన్
్రో
్రి
్యా
్యం,</w>
్మూ</w>
ోరల్</w>
ే.</w>
ెల్ల
ెలకొ
ూడండ
ులతో</w>
ుత్</w>
ుతు
ుతున్న</w>
ుత</w>
ు.</w>
ీషు</w>
ీ.పూ
ీ.పూ.
ీం</w>
ీ.</w>
ివర్
ిల్లీ-లా
ిల్లీ-లాహో
ిల్</w>
ినీ</w>
ిక్‌</w>
ిక్క
ికలు</w>
ికంగా</w>
ించినట
ించినట్లు</w>
ించిన
ించాలనే</w>
ించి</w>
ింప
ించుకో
ాలు:</w>
ాల్</w>
ాయుత</w>
ాయు</w>
ాయి
ాయాలు</w>
ాన్య</w>
ాను</w>
ానీ</w>
ాతం</w>
ాక</w>
హైద
హైదరా
హిమాలయ</w>
హిందూదేశం</w>
హిళ
హార</w>
స్వాతంత్ర్యం</w>
స్వాతంత్ర్య</w>
స్థానాలను</w>
స్థానం</w>
స్థావరాలు</w>
స్థితి</w>
స్త్రీలు</w>
స్తాన్
స్తారు</w>
స్తాయి.</w>
స్ట్</w>
స్వీ
స్లి
స్లిం</w>
స్కరణ
సౌకర్యాలు</w>
సౌకర్యాలలో</w>
సైనిక</w>
సూచ
సూచించినట్లు</w>
సుప్ర
సుప్రీం</w>
సియాలో</w>
సినిమాలు</w>
సింధూ
సింధూనద
సింధు
సిద్ధి</w>
సార్వత్రిక</w>
సామర్
సామర్థ
సామర్థ్యం</w>
సాధించిన</w>
సాధించ
సాంప్రదాయిక</w>
సాంకే
సాంకేత
సాంకేతిక</w>
సాహ
సామా
సామాజ
సామాజిక,</w>
సహస
సహస్రాబ్
సరిహద్దుగా</w>
సముద్రతీ
సముద్రం,</w>
సమాఖ్య.</w>
సభ్యులు</w>
సభను</w>
సంస్కరణ
సంఖ్య</w>
సిక్క
సి</w>
సన</w>
ష్ణ</w>
షయాలు</w>
శెలవు
శెలవుదినాలు</w>
శాసన</w>
శాఖ
శ్వ
శైల
శక్
శకు
వ్యాపార
వైవిధ్య
వేల</w>
వేద
వే.</w>
వులు,</w>
వుతుంది.</w>
విస్తీ
విస్తీర్
విద్యుత్</w>
విషయాలు</w>
విలు
విదేశ
విదేశీ</w>
విత్ర
వారసత్వ
వాణిజ్య</w>
వాహ
వాన్ని</w>
వాదం</w>
వలస</w>
వలన</w>
వర్గ
వరీ</w>
వనాలు</w>
వచ్చిన</w>
వెల్ల
వి</w>
వాయు</w>
ళ్ళ
ళి,</w>
ళిక</w>
లోయ</w>
లోమీ
లోమీటర్
లోమీటర్లకు</w>
లోనే</w>
లోక్‌
లోక్</w>
లుచుకో
లుచుకోవడం</w>
లుగా</w>
లు:</w>
లంప
లంక
లౌక
లతో,</w>
ర్యాయాలు</w>
ర్‌
ర్షణ
ర్వాత
ర్య</w>
ర్జాతీయ</w>
రోపా</w>
రైల్వే
రెండు
రెండవ</w>
రూపా
రూపాంత
రుగు
రుగుబా
రుగుబాటు</w>
రి.</w>
రాష్ట్రాలు</w>
రాష్ట్రాలు,</w>
రాష్ట్రప
రాష్ట్ర</w>
రాజ్యాంగం</w>
రాజ్యాలుగా</w>
రాజ్యాలు</w>
రాజ్యంగా</w>
రాజ్య</w>
రాజు</w>
రాజక
రాజకీయ
రహదార
రచయి
రచయిత
రిక
యోజన
యోగి
యింది.</w>
యాళం
యమించబ
యుగ
యాత్ర
మౌర్య</w>
మొదలగు
మొద
మొదటి
మై</w>
మేనన
మేనని</w>
మే.</w>
మెరిక
ముఖ్యంగా</w>
ముంబై</w>
ముస్లిం</w>
ముడి</w>
ము,</w>
మీదగా</w>
మిస్తు
మాత్రమే</w>
మాన</w>
మాట్ల
మాట్లాడ
మహాత్మ
మహాత్మా</w>
మలయాళం
మరో</w>
మనదేశం</w>
మతి</w>
మిత
మారు
మహిళ
భౌగో
భౌగోళిక</w>
భూభాగం</w>
భూటా
భాషా</w>
భాషలను</w>
భారత్‌లో</w>
భారత్,</w>
భారతీయ
భారతదేశం.</w>
భారతదేశ
భారతం,</w>
భాగా
భాగాన్ని</w>
భాగం
భక్
బ్రిటిష్</w>
బ్రిటిషు</w>
బ్రిటీ
బ్రిటీష
బౌద్ధ
బెంగాలీ</w>
బాదు</w>
బడతారు.</w>
బంగ్లాదేశ
బంగ్లాదేశ్‌
బంగారు</w>
ప్రాంతీయ</w>
ప్రాంతాల్లో</w>
ప్రస్తుతమ
ప్రస్తుతము</w>
ప్రముఖమ
ప్రముఖమైన
ప్రభుత్వాన్ని</w>
ప్రభుత్వ</w>
ప్రపంచంలోని</w>
ప్రపంచములో</w>
ప్రపంచంలో</w>
ప్రతిపాదనకు</w>
ప్రతిపక్ష
ప్రజాస్వామ్య</w>
ప్రజాదర
ప్రజాదరణ</w>
ప్రజలు</w>
ప్రిల్</w>
ప్రాయ
ప్రసిద్ధి</w>
ప్రయోజన
ప్రదేశ
ప్రత్య
ప్రజల</w>
ప్పటికినీ</w>
ప్పు
ప్పుకో
ప్ప
పోయింది.</w>
పొందిన</w>
పేరు,</w>
పూర్వ
పూర్తిగా</w>
పూ.</w>
పుట్టి
పుతూ</w>
పుణ
పుణులు</w>
పీఠభూ
పాలించారు.</w>
పాలన
పార్టీ,</w>
పార్టీ
పార్లమెంట
పాకిస్థాన్,</w>
పాకిస్తాన్</w>
పావ
పాడు
పాడుకుంట
పాండ
పశ్చిమ</w>
పల్ల
పలు</w>
పరిపాలన</w>
పరీ
పద్ధతి
పట్టణాలు,</w>
పండుగలు</w>
పండు</w>
ప్ల
పై</w>
పవిత్ర
పర్యాయాలు</w>
పద్
పద్ధత
పతా
పడు
పడిన</w>
పక్క
పక్కన</w>
న్నై</w>
న్నీ</w>
నేపాల్,</w>
నేరే
నెహ
నులు,</w>
నిర్వహించింది.</w>
నిర్వహణ</w>
నిస్తాన్</w>
నియమించబ
నిపుణులు</w>
నిడి
నిడివి
నిజాలు</w>
నాయకత్
నాగరికత
నాథ
నడిపించట
నగరాలు</w>
నగరాల
నెలకొ
నీ</w>
నప్పటికినీ</w>
ధి</w>
దేశం.</w>
దేశాలను</w>
దేశా
దేశ</w>
దాయంలో</w>
దాదాపు</w>
దరంగ
దక్షిణ
దుగా</w>
దండ
తెలుగు,</w>
తూర్
తులు
తిరుగుబాటు</w>
తిని</w>
తను</w>
తా</w>
తర్వాత
తంత్ర</w>
తంగా</w>
ఢిల్లీ</w>
ఢాకా
ఢాకా-ఢ
ఢాకా-ఢిల్లీ-లాహో
డ్డీ
డైన</w>
డుకు</w>
డిస్
డాయి.</w>
టైటి
టోరల్</w>
టిక
టక</w>
టం</w>
జాతులు,</w>
జరుపుకుంటారు.</w>
జరిగే</w>
జమ్మూ</w>
జనాభాతో</w>
జనగణన</w>
జనవరి</w>
జనతా</w>
జైన
చ్చు.</w>
చైనాను</w>
చైనా,</w>
చేసింది.</w>
చెందుతున్న</w>
చెందాయి.</w>
చెప్పుకో
చెన్నై</w>
చుకు
చారిత్రక</w>
చని</w>
చూడండ
చవి
చదరంగ
గోదా
గెలుచుకోవడం</w>
గుర్తిం
గువ</w>
గణతంత్ర</w>
గ్రా
గ్ర
గలు
గమన
గత</w>
గంగ
ఖనిజాలు</w>
క్రీడా</w>
క్రీడలలో</w>
క్రీ.పూ.
క్యాలెండర్
క్టోరల్</w>
క్,</w>
కోల్‌కాతా</w>
కోర్టులు</w>
కోర్టు
కోట్లకు</w>
కోబడతారు.</w>
కృష్
కూడుకుని</w>
కూడుకొ
కూడి</w>
కుటుంబ</w>
కు,</w>
కిందకు</w>
కిలోమీటర్లకు</w>
కాలేజ
కాలంలో,</w>
కార్యక్రమాలు</w>
కారణంగా</w>
కాంగ్రెస్</w>
కాహార</w>
కాపాడుకుంట
కాగా</w>
కలిసి</w>
కలిగి
కబడ్డీ
కనుక</w>
కంపెనీ</w>
కూ</w>
కల్ప
కల్
కంటే</w>
ఒకటిగా</w>
ఒకటి</w>
ఒలంప
ఒకే
ఐరోపా</w>
ఏర్పడ్డాయి.</w>
ఏప్రిల్</w>
ఎలక్టోరల్</w>
ఎన్నుకోబడతారు.</w>
ఎన్నికల్లో</w>
ఎక్కువ</w>
ఉపయోగి
ఉత్తరాన</w>
ఈశాన్య</w>
ఈస్ట్</w>
ఇవిక
ఇంగ్లీషు</w>
ఇటీ
ఇక్క
ఇంద
ఆధారపడిన</w>
అయినా,</w>
అధికారం</w>
అధికార</w>
అతిపెద్ద</w>
అవి
అమెరిక
అక్షరాస్యత</w>
అంద
అంత
అంతర్జాతీయ</w>
అంట
ంద్</w>
ండా</w>
ంటు
ం:</w>
৯৯</w>
৯৮),</w>
৯৭৮
৯৭৮-৩
৯৭৮-৩-৮
৯৭),</w>
৯৪)।</w>
৯০)।</w>
৯%)</w>
৯৩-
৮১৭
৮১৭০১
৭,৫১
৭,৫১৭</w>
৭১</w>
৬০</w>
৫৪৪
৪০১
৪০১৩৮
৩৭০</w>
৩২।</w>
২৮টি</w>
২১.
২০০৪</w>
২০০৩</w>
২৬</w>
২।</w>
১৯৯৬</w>
১৯৮০</w>
১৯৭৫</w>
১৯৭৪</w>
১৯৭১</w>
১৯৫১</w>
১৯৫০-এর</w>
১৯৯৯</w>
১৯৬
১২.৬%</w>
১৮</w>
১৬.
০৭)।</w>
০১৪০১৩৮
০-১৯-৫৬৪৫
০-১৯-৫৬২১৬
০-১৯-২৮
০-৮
০-৭৬
০-৫২১
্সি</w>
্রেণী
্রেণীর</w>
্রিলিয়ন</w>
্রাসন</w>
্রাস</w>
্রান্স</w>
্রিজ
্রিজ</w>
্রাট
্রমে</w>
্রপ্রদেশের</w>
্যাদি</w>
্যালে
্যাল</w>
্যায়</w>
্যান</w>
্যস্
্যভাবে</w>
্যভট
্যন্
্যন্তর
্যন্তরীণ</w>
্ট্র
্টি
োমি</w>
োবর</w>
োসিয়
োসিয়েশন</w>
োত্
োত্তর</w>
োক্ষ
োক্ষভাবে</w>
েস।</w>
েশনের</w>
েলপ
েলপমে
েলপমেন্ট</w>
েরণ</w>
েম্বর</w>
েছে</w>
েছিল।</w>
েও</w>
ৃত্য
ৃত:</w>
ুকে</w>
ীলঙ্
ীলঙ্কা
ীরে</w>
ীরা</w>
ীত,</w>
ীকৃত:</w>
ীসৃ
ীষ্
ীদের</w>
ির</w>
াসোসিয়েশন</w>
ার্সি</w>
ার্থ
ার্চ</w>
ারি
ারণ
ারকম্পিউ
ারও</w>
ার।</w>
ামীণ</w>
ান-১
াদ্য</w>
াদে</w>
াতা</w>
াইনা
হিসেব</w>
হিন্দুস্ত
হিন্দুধর্ম</w>
হিন্দ
হিন্দু</w>
হিলা
হিলাদের</w>
হায়দ্রা
হাস
হাসিক</w>
হাজার</w>
হাইড
হাইড্র
হয়েছেন।</w>
হযোগ
হতে</w>
হওয়া</w>
হ্রাস</w>
হেরু</w>
হি</w>
হারও</w>
হন</w>
স্বাধীনোত্তর</w>
স্বা‌
স্বাভা
স্বাভাবিক</w>
স্থাপত্য
স্থানের</w>
স্থান।</w>
স্থায়ী</w>
স্থল
স্ত্রীয়</w>
স্তন্যপায়ী</w>
স্তানের</w>
স্টিক</w>
স্মাই
স্মাইলি
স্মাইলিং</w>
স্বত
স্বতন্ত্র</w>
স্ব</w>
স্প
স্থ</w>
সেপ্ট
সেনা
সৃষ্টি</w>
সূত্র
সূত্রপাত</w>
সুপারকম্পিউ
সুমি</w>
সীমান্ত</w>
সিংহভাগ</w>
সিসি</w>
সিরিজ
সিপা
সিপাহি</w>
সিদ্ধ</w>
সাহিত্যিক</w>
সাহিত্য</w>
সাহিত্য
সাধারণতন্ত্র</w>
সাধারণতন্ত্র
সাধারণতন্ত্র।</w>
সাউথ</w>
সার</w>
সায়
সাক্ষ
সহায়তা</w>
সহ-আ
সহ-আয়
সহ-আয়োজক</w>
সরীসৃ
সরবরা
সরবরাহকারী</w>
সরঞ্জা
সম্মিলিত</w>
সম্প্রদায়ের</w>
সম্প্রদায়</w>
সম্পর্কের</w>
সমৃদ্ধি</w>
সমৃদ্ধ</w>
সমাজতান্ত্র
সমাজতান্ত্রিক
সমান্ত
সমান্তরা
সম্রাট
সমভূমির</w>
সমভূমি</w>
সমতার</w>
সমতা</w>
সমত
সমতূল
সফটও
সফটওয়
সফটওয়্যার</w>
সদস্য।</w>
সদস্য</w>
সদস্য
সঙ্গীতের</w>
সঙ্গীত,</w>
সংস্কার</w>
সংস্কার
সংস্কারের</w>
সংসদে</w>
সংসদ</w>
সংরক্ষণের</w>
সংবিধানের</w>
সংঘর্ষ</w>
সংস্থা
সংযোগ</w>
সংক্ষি
সংক্ষিপ্ত</w>
স-প্র
স-প্রসিদ্ধ</w>
সে</w>
সহযোগ
সহকারী</w>
সত্ত্
সত্ত্বে
সত্ত্বেও</w>
সড</w>
সঞ্চ
সকল
সকলকে
সকলকেই</w>
ষ্ঠী</w>
ষ্ণা
ষণারণ
ষি</w>
ষষ্ঠ</w>
শ্রীলঙ্কা
শৈলি
শিল্প।</w>
শিল্প</w>
শিশু
শিক্ষিত</w>
শাসনাধীন
শাস্ত্রীয়</w>
শাল</w>
শান্
শান্তি
শহরাঞ্চ
শব্দ</w>
শতাংশে</w>
শতাংশ,</w>
শকে</w>
শী</w>
ল্লি</w>
লোকসভা
লে,</w>
লুপ্ত
লীয়</w>
লিখি
লিখিত</w>
লাক্ষা
লক্রমে</w>
লকে</w>
লী</w>
লগুলি</w>
র্ধমান</w>
র্ভ
র্ভস্থ</w>
র্ণ</w>
র্ঘ
র্ঘ্য</w>
রোধ</w>
রিখে</w>
রাষ্ট্রের</w>
রাষ্ট্রপ
রাজা</w>
রাসায়
রার</w>
রায়</w>
রামন
রাণ</w>
রাণ
রাণিক</w>
রন্ধনশৈ
রতা</w>
র্য</w>
রবী
রবীন্দ্র
রপ্ত
রত্
রক্ষার</w>
রক্ষ
রক্ষী</w>
র।</w>
র,</w>
যেটি</w>
যেখ
যেখানে</w>
যুক্তরাষ্ট্রের</w>
যুগীয়</w>
যুগ
যায়
যায়:</w>
যাত্র
যাত্রা,</w>
য়েন্টি
য়েন্টি-
য়েন্টি-২০</w>
য়েছে।</w>
য়েই</w>
য়াল</w>
য়ার</w>
য়াম</w>
য়ী,</w>
য়াল
য়াদে</w>
য়াট
য়তা</w>
য়টি</w>
যান-১
যথে
যথেষ্ট</w>
ম্বী</w>
ম্বই</w>
মৌসুমি</w>
মৌর্য</w>
মোদী</w>
মেয়াদে</w>
মুসলমান
মুম্বই</w>
মুখ
মুক্ত</w>
মিনি
মালয়াল
মালভূমি</w>
মানব
মান,</w>
মাঝি</w>
মাইল)।</w>
মাইল)</w>
মাপে</w>
মান্বয়ে</w>
মাথা
মাথাপি
মাথাপিছ
মাথাপিছু</w>
মাত্র
মাত্রায়</w>
মাঞ্চ
মাঞ্চলে</w>
মাঝা
মাঝামাঝি</w>
মহানগ
মহানগরী
মহাকাশ</w>
মহাকাব্য</w>
মহাসাগর
মহামত
মহামতি</w>
মরুভূমি</w>
মব্রিজ</w>
মবর্ধমান</w>
মন্ত্রী</w>
মনে</w>
মধ্যেই</w>
মধ্যযুগীয়</w>
ম্যা
মীর
মহিলাদের</w>
মণি
মণিপু
ভূমিকা</w>
ভূমি।</w>
ভূতা
ভূতাত্ত্
ভূতাত্ত্বিক</w>
ভূগো
ভূগোল</w>
ভূগ
ভূগর্ভস্থ</w>
ভিত্তিতে</w>
ভি,</w>
ভাষাগোষ্ঠী
ভাষাকে</w>
ভারত-চী
ভারত-চীন</w>
ভারতব
ভারতবর্ষ
ভারত।</w>
ভারত
ভারতবাসী</w>
ভাভ
ভাভা</w>
ভান্
ভান্সড</w>
ভেষ
ভেলপমেন্ট</w>
ভরত
ভব</w>
ব্যাঙ্
ব্যাখ্যা
বোধি
বোঝা
বোঝায়।</w>
বৈচিত্র্যময়</w>
বৈচিত্র্যম
বৈষম
বৈদিক</w>
বেশী</w>
বেসরকারি</w>
বেষ্ট
বেড়
বেঙ্গাল
বৃহত্তম।</w>
বুদ্ধ
বিস্তার
বিস্তারিত</w>
বিশ্বকাপের</w>
বিরোধ</w>
বিভক্ত</w>
বিজেপি-বিরোধী</w>
বিজয়ী।</w>
বিজয়ী</w>
বিচ্ছিন্
বিচ্ছে
বিনিয়
বিনিয়োগের</w>
বিদ্রো
বিদ্রোহ</w>
বিড়</w>
বিজ্ঞ
বিজ্
বিজ্ঞা
বিজ্ঞান</w>
বিচার</w>
বাহী</w>
বাহিক
বাল্য
বায়ুপ্রবাহ
বাদশ</w>
বাণিজ্য
বাহা
বাংল
বাংলা</w>
বহির্
বহু</w>
বসবাস</w>
বসবা
বলম্বী</w>
বর্ণীকৃত:</w>
বর্ষা</w>
বর্ষণারণ
বর্ণি
বর্ণিত</w>
বরাবর</w>
বন্যপ্রাণী</w>
বন্যা</w>
বধানে</w>
বছরের</w>
বছরে</w>
বছর।</w>
বঙ্গোপসাগরে</w>
বঙ্গের</w>
বস্ত্র
বলিউড</w>
বয়
বন্ধ
বন্ধন</w>
বজা
বজায়</w>
বঙ্গ
বক্ষেত্র</w>
বংশ
ফ্রন্ট</w>
ফের</w>
ফিল্
ফ্রান্স</w>
ফার্সি</w>
ফাইনা
ফর</w>
প্রাধান্য</w>
প্রথমে</w>
প্রতিষ্ঠাতা</w>
প্রতিযোগিতা,</w>
প্রতিহত</w>
প্রতিরোধ</w>
প্রতিরক্ষা</w>
প্রতিবেশী</w>
প্রতিবর্ণীকৃত:</w>
প্রজাতন্ত্র,</w>
প্রজাতন্ত্র</w>
প্রচলিত।</w>
প্রেস।</w>
প্রেরণ</w>
প্রশাসন</w>
প্রয়
প্রভূত</w>
প্রবেশ</w>
প্রদেশ</w>
প্রথা
প্রথাগতভাবে</w>
প্রণ
প্রজাতি</w>
প্রজাতি
প্রক্র
প্রক্রি
প্রকাশ</w>
প্তি</w>
পৌরাণিক</w>
পোশাকের</w>
পোশাক</w>
পেয়ে</w>
পূর্বনাম</w>
পূর্বে
পূজা
পুনরায়</w>
পুষ্ট
পিপিপি
পিপিপি)</w>
পারসি</w>
পাতটি</w>
পাকিস্তানের</w>
পাওয়ায়</w>
পাঁচটি</w>
পালন</w>
পার</w>
পাত,</w>
পাঞ্জা
পাখি
পাক-
পাক-ভারত</w>
পশ্চিমবঙ্গের</w>
পর্বতমালার</w>
পর্বতমালা
পর্বে</w>
পরিষেবার</w>
পরিষেবা</w>
পরিবর্তনের</w>
পরিবার
পরিচালনার</w>
পরিচিত।</w>
পরিমাপে</w>
পরিমাণ</w>
পরিবেশ
পরিচালিত</w>
পরোক্ষভাবে</w>
পরিষ
পরিক
পরি</w>
পদার্থ
পথে</w>
পণ্যের</w>
ন্নড়
ন্ধ্রপ্রদেশের</w>
ন্ত্রের</w>
ন্তু</w>
ন্ডা</w>
ন্দ
ন্তী
ন্ডো
ন্ডোয়ান
নোবেল</w>
নেহেরু</w>
নেয়।</w>
নেমে</w>
নৃত্যকলা
নৃত্য</w>
নীতির</w>
নির্বাচ
নির্ধার
নিদর্শন।</w>
নিকোবর</w>
নিকটব
নিকটবর্তী</w>
নিষে
নিরিখে</w>
নিজ
নিজস্ব</w>
নি।</w>
নামমাত্র</w>
নামক</w>
নাটক</w>
নায়</w>
নাত্ম
নাত্মক</w>
নাড়ুর</w>
নাগ
নদীগুলির</w>
নদীগুলি</w>
নতি</w>
নগরাঞ্চ
ন্যস্
নান
নয়।</w>
ধ্রুপদী</w>
ধীন</w>
ধিত</w>
ধর্মীয়</w>
ধরা</w>
ধীরে</w>
দ্রাবিড়</w>
দ্রুত
দ্রব্য
দ্বীপীয়</w>
দ্বিতীয়</w>
দ্বিগু
দ্বিগুণ।</w>
দ্বিকক্ষ
দ্বিকক্ষবিশিষ্ট</w>
দ্বাদশ</w>
দৈর্ঘ্য</w>
দেশজ</w>
দেশগুলির</w>
দেশকে</w>
দেও
দুল</w>
দিল্
দিয়েছে।</w>
দি।</w>
দি,</w>
দারিদ্র্য
দাক্ষিণাত্য</w>
দাবা</w>
দক্ষিণে</w>
দক্ষিণ-
দপ্তর
থেকে,</w>
থানশীল</w>
থাকতে</w>
থান</w>
থাকে</w>
থব্যবস্থা</w>
থ-সামাজিক</w>
থিক</w>
তেলুগু</w>
তেল
তেও</w>
তেই</w>
তে।</w>
তে,</w>
তুলনায়</w>
তিনি</w>
তিনটি</w>
তিন</w>
তারা</w>
তারপর</w>
তামিলনাড়ুর</w>
তামিল</w>
তামা
তা-
তা,</w>
তথ্য
তানি</w>
তন্ত্রের</w>
তন</w>
তত্ত্
ণী</w>
ণাট
ণ,</w>
ডেভেলপমেন্ট</w>
ডিএ
ডিএ)</w>
ডি</w>
টোয়েন্টি-২০</w>
টে।</w>
টায়।</w>
টান</w>
ট্রিলিয়ন</w>
টে</w>
টিতে</w>
ঞ্জি</w>
জ্যোতির্
জোটের</w>
জৈবক্ষেত্র</w>
জৈন</w>
জের</w>
জুড়ে</w>
জীববৈচিত্র্যের</w>
জিডিপি</w>
জলবায়ুর</w>
জলবায়ু</w>
জরাথ
জরাটের</w>
জয়লাভ</w>
জয়ন্তী
জনপ্রিয়তা</w>
জন্য
জনবহুল</w>
জনবসতি</w>
জে</w>
জানুয়ারি</w>
জলা
জমি
জন্
ছোটো</w>
ছের</w>
ছিল,</w>
ছিলে
চ্ছে।</w>
চীনের</w>
চির</w>
চালু</w>
চন্দ্রযান-১
চ্যালে
চীন
ঙ্গেয়</w>
ঙ্ক
ঘোষিত</w>
ঘটে</w>
ঘটনা
ঘাট
ঘটে।</w>
ঘটায়।</w>
গ্রামাঞ্চলে</w>
গ্রাম</w>
গ্রীষ্
গ্রিক</w>
গ্রামীণ</w>
গ্রন্
গৌতম</w>
গুলিও</w>
গুপ্ত</w>
গুজরাটের</w>
গান</w>
গাছ</w>
গাঙ্গেয়</w>
গবেষণা</w>
গণ্য</w>
গণ-
গঠিত।</w>
গঠন
গ্য
গৃহ
গন্ডোয়ান
খ্রিষ্টপূর্বাব্দ।</w>
খ্রিস্ট
খ্যাত</w>
খেলা
খ্য,</w>
খাদ্য</w>
খাত
খনিজ</w>
ক্ষের</w>
ক্ষমতা
ক্ষে</w>
ক্রিকেট
ক্রান্তীয়</w>
ক্রো
ক্রী
ক্রমান্বয়ে</w>
ক্রমবর্ধমান</w>
ক্লি
কোম্পানির</w>
কোম্পানি
কোশী</w>
কেমব্রিজ</w>
কৃত্রিম</w>
কৃষি</w>
কিন্তু</w>
কাশ্মীর
কারী</w>
কারণ।</w>
কাবাডি</w>
কালে,</w>
কালক্রমে</w>
কাল
কাজে</w>
কাজ</w>
কল্প
কর্মসূচির</w>
কর্তৃত্ব</w>
কর্ণাট
করেছে</w>
করেছে
করেছিলে
করেছিল।</w>
করতেও</w>
করণ,</w>
করছে।</w>
করছে</w>
কংগ্রেস
ক্যা
কী</w>
করার</w>
কম</w>
কথা
কখনো</w>
ওপর</w>
ওয়
ওড়
ও,</w>
ঐতিহ্যবাহী</w>
ঐতিহ্যের</w>
ঐতিহাসিক</w>
এসএলভি,</w>
এসেছে।</w>
এঁদের</w>
এদেশে</w>
এক্তি
উৎসবও</w>
উৎপাদন</w>
উৎপত্তি</w>
উৎক্ষে
উল্লেখযোগ্যভাবে</w>
উল্লেখযোগ্য।</w>
উল্লেখ্য,</w>
উভয়েই</w>
উভচর
উপমহাদেশ</w>
উপনিবেশ
উপকূলরেখার</w>
উপিএ
উপদ্বীপের</w>
উপদ্বীপীয়</w>
উপদ্বীপ</w>
উদ্ভিদের</w>
উদ্ভব</w>
উত্তর-পূর্বাঞ্চ
উত্থানশীল</w>
উচ্চার
উচ্চ</w>
ঈদুল</w>
ইসলা
ইল,</w>
ইন্দিআ</w>
ইন্ডিয়ান</w>
ইন্ডিয়া</w>
ইতিহাসে</w>
ইতিহাস</w>
ইতিহাস-প্রসিদ্ধ</w>
ইত্যাদি</w>
ইট,</w>
ইউনিভার্সিটি</w>
ইংরেজি
ই।</w>
আসে</w>
আর্থিক</w>
আর্থ-সামাজিক</w>
আর্যভট
আয়োজিত</w>
আয়তনের</w>
আমদানির</w>
আফ্রিকার</w>
আফ্রিকা</w>
আন্তর
আধা-
আদিবাসী</w>
আটটি</w>
আজও</w>
আগ্রাসন</w>
আগস্ট</w>
আগত</w>
আইসিসি</w>
আইন
আসা
আসন
আয়</w>
আছে।</w>
আকর
অ্যাডভান্সড</w>
অ্যাসোসিয়েশন</w>
অর্থনীতি</w>
অর্থনী
অর্থব্যবস্থা</w>
অর্জন</w>
অরণ্য</w>
অরণ্য
অভ্যন্তরীণ</w>
অবস্থান</w>
অবলু
অববাহিক
অপারেশন</w>
অধিকারী।</w>
অঞ্চলেই</w>
অঞ্চলগুলি</w>
অঞ্চলকে</w>
অংশে</w>
অংশ</w>
অ্যান্ড</w>
অস্থি
অস্ত্র
অন্ধ্রপ্রদেশের</w>
ংশে
॰</w>
८५</w>
७९.
६६</w>
५-
३२</w>
३,
२०११</w>
२००</w>
२८</w>
२४</w>
२३</w>
२२.
२०</w>
१९९८</w>
१९९६</w>
१९९०</w>
१९८९</w>
१९८०</w>
१९७७</w>
१९७१</w>
१९४७
१८५
१,७
१–
१८</w>
१३</w>
१०००</w>
१०</w>
्रिक</w>
्रो
्रोत</w>
्रा
्राट</w>
्रवा
्रवाई</w>
्रणी</w>
्यादि</w>
्यादा
्यादातर</w>
्यों
्योंकि</w>
्यु</w>
्यात
्याचल</w>
्मपु
्दपूर्ण</w>
्टवे
्टवेयर</w>
्कट
्कटिका</w>
्षि
्षिक</w>
्ला
्लादेश</w>
ौते</w>
ोह</w>
ोख
ैंतीस</w>
ैनिक</w>
ेरल
ेरल)</w>
ेदारी</w>
ेडेरल)</w>
ेखा</w>
ेंद्र</w>
ें,</w>
ृत्यु</w>
ूत</w>
ुसार,</w>
ुक्यों</w>
ुण्
ुण्ण</w>
ीसा</w>
ीं।</w>
ीण</w>
ीकरण</w>
ियाचि
ियाचिन</w>
ियो</w>
ियानों</w>
िकारी</w>
िकर्
िकर्ता</w>
ासतों</w>
ाष्ट्र</w>
ावर्त
ावधान</w>
ाल,</w>
ार्दपूर्ण</w>
ार्कटिका</w>
ारित</w>
ाराष्ट्र</w>
ाया</w>
ायद्वीप</w>
ायदा</w>
ाकू</w>
ाएँ</w>
ाल</w>
ाम</w>
ाई</w>
ांत
़ग
होली,</w>
हुए।</w>
हुए,</w>
हिस्सों</w>
हिन्दुस्तान,</w>
हिन्दी-
हिन्द</w>
हिंसा
हिंसावादी</w>
हिला
हिंस
हिंसक</w>
हालांक
हालांकि</w>
हालाँ
हालाँकि
हालाँकि,</w>
हां</w>
हरलाल</w>
हनन</w>
हथिय
ह्मपु
हस्ता
हस्ताक्ष
हस्ताक्षर</w>
हस्त
हस्तक्षेप</w>
हवे
हवेली</w>
हद</w>
ह-
स्वतन्त्र
स्वतन्त्रता</w>
स्थाई</w>
स्थानों</w>
स्थल</w>
स्टर</w>
स्वर
स्वरुप</w>
सौहार्दपूर्ण</w>
सोसि
सोसिएशन</w>
सैनिकों</w>
सेना,</w>
सेल्
सेल्स
सेल्सियस</w>
सेमी
सूत्र
सुधार
सी,</w>
सिनेमा
सिन्
सिन्धु
सिन्धु-
सिन्धु-गंगा</w>
सिख</w>
सिंह
साहित
साहित्य</w>
सामने</w>
सामना</w>
सायन</w>
साफ़
साझ
साझेदारी</w>
सहित</w>
सर्वा
सरकारी</w>
सरा</w>
सम्प्रभु
सम्मि
सम्मिलित</w>
समान</w>
समझौते</w>
सम्राट</w>
समय-
समय-समय</w>
सतर</w>
सकल</w>
सकर</w>
संसार</w>
संबो
संबोधि
संबोधित</w>
संबर</w>
संचाल
संचालित</w>
संग्र
संग्राम</w>
संगठ
संगठन</w>
संग
संगम</w>
संक्षि
संक्षिप्त</w>
स्रोत</w>
सृ
सियाचिन</w>
सम</w>
सभा
सच
सक्ष
सक्षम</w>
ष्ट</w>
षाण</w>
षभ
श्रेणी</w>
शोक</w>
शियर</w>
शियन</w>
शिखर</w>
शिकार</w>
शासनिक</w>
शाही</w>
शासक
शां
शहरों</w>
शहरी
शहरीकरण</w>
शहर</w>
शक्तियों</w>
शक्त
श्रित</w>
शृ
शि</w>
शहरी</w>
शर
शब्
शब्द</w>
व्यक्ति</w>
वोत्
वोत्तर</w>
वैश्
वें</w>
वीन</w>
विभाजित</w>
विभाजन</w>
विभाग</w>
विद्रोह</w>
विज्ञा
विज्ञान</w>
विशेष</w>
विशेष
विमान</w>
विधि</w>
विधा
वित्
विजय
विजयनगर</w>
विज
विजय</w>
विका</w>
विंध
विंध्याचल</w>
वार्षिक</w>
वार्य</w>
वालों</w>
वाले</w>
वाली,</w>
वाला</w>
वार</w>
वायु
वायुसेना</w>
वाम
वामपंथी</w>
वाँ</w>
वा,</w>
वस्तु
वस,</w>
वश्य
वर्णित</w>
वर्गीकरण</w>
वजह</w>
वंश
व्य</w>
वाने</w>
वरि
वरिष्ठ</w>
वक्त</w>
ल्म</w>
लौट
लोकसभा</w>
लोकत
लोक</w>
लेशियर</w>
लेख
ली।</w>
लिख
लाख),</w>
लावा,</w>
लाई</w>
लाइ
लती</w>
लड़ाकू</w>
लू</w>
लिया।</w>
लयों</w>
लझ
लघ
र्श</w>
र्मद
र्मदा</w>
र्जा</w>
रेशियन</w>
रेलू</w>
रेजि
रेजिमें
रेजिमेंट</w>
रूपए</w>
रूपर
रूपरेखा</w>
रीति
रियासतों</w>
रिवा
रिका,</w>
राष्ट्रों</w>
राष्ट्रपत
राष्ट्रपति</w>
राज्य,</w>
राजाओं</w>
रा।</w>
राशि</w>
राय
रायल</w>
राम</w>
रही।</w>
रत्न,</w>
रखने</w>
र-इन
र-इन-
र-इन-चीफ</w>
रैंक</w>
रह</w>
रसायन</w>
रल</w>
रंजन</w>
योग्य</w>
यें</w>
यूरेशियन</w>
यूपी
युद्ध
युद्धों</w>
यिक</w>
याब</w>
यहू
यशक्ति</w>
यी</w>
यहां</w>
म्बे</w>
म्र</w>
मौसम</w>
मोर्चा</w>
मैदानों</w>
में।</w>
में)</w>
मूल्यों</w>
मुख्यरूप</w>
मुम्ब
मुद्र
मुद्रा</w>
मुक्त</w>
मीणा</w>
मिलियन)</w>
मिलियन</w>
मिलनाड
मिलनाडु</w>
मिश्रित</w>
मिला,</w>
मालदीव,</w>
मार्च</w>
मामले</w>
मानी</w>
माला</w>
माल</w>
मात्र</w>
माता</w>
माता
महीने</w>
महाद्वी
महाद्वीपो
महाद्वीपों</w>
महात्
महात्मा</w>
महाराष्ट्र</w>
महत्
महत्वपूर्ण</w>
मशः</w>
मनाए</w>
मध्यम
मध्यप्रदेश</w>
मध्यकालीन</w>
मगध</w>
मंत्रण</w>
मंच
मंचों,</w>
मृत्यु</w>
मियों</w>
मार
महिला
मशी
मनो
मनोरंजन</w>
मजब
मजबूत</w>
भूमि</w>
भू-आ
भू-आकृ
भारत-
भारत-चीन</w>
भाबर</w>
भाग
भाई</w>
भरी</w>
भौ
भक्ति</w>
ब्रह्मपु
ब्ब
बोली</w>
बोला</w>
बेटे</w>
बीस
बी,</w>
बाल</w>
बाढ़</w>
बांट
बांग
बांग्लादेश</w>
बहुप
बहुपक्ष
बहुपक्षीय</w>
बना।</w>
बनाया</w>
बनाए</w>
बनाई।</w>
बनाई,</w>
बनीं।</w>
बढ़ो
बढ़ा।</w>
बंगाल</w>
बैंक</w>
बु
बहा
बहती</w>
बलों</w>
बल</w>
बन्
बँ
फ्रांस</w>
फ्रांस,</w>
फुट</w>
फिल्म</w>
फिर</w>
फ़ेडेरल)</w>
फायदा</w>
फल</w>
प्राप्ति</w>
प्रभावित</w>
प्रकाश</w>
प्रावधान</w>
प्रायद्वीप</w>
प्रसि
प्रसार
प्रशासनिक</w>
प्रमाण</w>
प्रधान</w>
प्रदर्शन</w>
प्रथ
प्रथम</w>
प्रचल
प्रचलन</w>
प्रगति</w>
पोर्
पैमाने</w>
पेन</w>
पूर्त
पूर्तिकर्ता</w>
पुराने</w>
पुराना</w>
पारंपर
पारंपरिक</w>
पान</w>
पात</w>
पात
पातकाल</w>
पाई</w>
पाइन</w>
पांड
पाँच</w>
पाँच
पहाड़ियाँ</w>
पसन्
पसन्द</w>
पर्वतश्रेणी</w>
पर्वतमाला</w>
पर्वत</w>
परन्तु</w>
परंपर
परंपरा</w>
परंत
परंतु</w>
पत्र
पड़ा</w>
पॉ
पैंतीस</w>
पी</w>
परा
पमान</w>
पद</w>
पथ
न्हे</w>
न्यायालयों</w>
न्यायाधिकार</w>
न्यायपालिका</w>
न्न
न्द्र</w>
न्तु
नेतृत्‍व</w>
नेशिया</w>
नेपाल</w>
नृत्य</w>
निवेश</w>
निर्माता
निर्भर</w>
निरपेक्ष
निर्यात
नियुक्ति</w>
नियंत्रण</w>
निम्नव
निम्नवत</w>
निम्न
निष्ठ</w>
नाटक</w>
नागरिकों</w>
नागरिक</w>
नामों</w>
नाम
नात्
नात्मक</w>
ना,</w>
नवगठ
नवगठित</w>
नरेंद्र</w>
नये</w>
नया</w>
नदी</w>
नति</w>
नके</w>
न।</w>
नो</w>
नू
नारे</w>
नवीन</w>
नर्मदा</w>
नई</w>
धर्मनिरपेक्ष
धी</w>
ध-
द्वि
द्</w>
दौर</w>
देखो</w>
देखने</w>
देखते</w>
देव</w>
देते</w>
देता</w>
दूसरे</w>
दी,</w>
दिसंबर</w>
दिवाली,</w>
दिवस,</w>
दिए</w>
दादर
दादरा</w>
दर्ज़
दमन</w>
दक्षिण-
दक्षिण-पूर्व</w>
दलों</w>
दन</w>
थे,</w>
थवा</w>
थे</w>
थल</w>
त्व</w>
त्पत्ति</w>
त्कालीन</w>
तेमाल</w>
तेज़ी</w>
तीसरे</w>
ती,</w>
ता।</w>
तापमान</w>
तराई</w>
तरी</w>
तटों</w>
तक,</w>
तह
तमिलनाडु</w>
तत्कालीन</w>
तट</w>
तः</w>
ण्ड</w>
ण,</w>
ढि
डीए
डिग्र
डिग्री</w>
ड़ीसा</w>
ड़ा,</w>
डव
डच
ठित</w>
टेलीविज़
टेलीविज़न</w>
टेलीविजन</w>
टना</w>
टार्कटिका</w>
टा</w>
टब
झारखंड</w>
जोर</w>
जीविका</w>
जीडी
जी-
जिसे</w>
जिस</w>
जिन्हे</w>
जिनके</w>
जातीय</w>
जात
ज़्यादा</w>
जवाहरलाल</w>
जारी</w>
जंग
जंगलों</w>
ज,</w>
छूट</w>
छठ
च्च
चालुक्यों</w>
चलने</w>
चरम</w>
चे</w>
चू
चली।</w>
चलाया।</w>
चला,</w>
चम
चट
घाट</w>
घू
घरेलू</w>
घरा
घनिष्ठ</w>
घट
ग्रह</w>
ग्लेशियर</w>
गोंड</w>
गोवा</w>
गुट</w>
गाँ
ग़री
गए।</w>
गॉ
गू</w>
गंग
ग,</w>
खासकर</w>
खा</w>
खग
क्षुण्ण</w>
क्रिके
क्रिकेट</w>
क्रयशक्ति</w>
क्रमशः</w>
क्षा
कोपेन</w>
केन्द्रीय</w>
केंद्रीय</w>
केंद्रशासित</w>
केंद्र-
कृत</w>
कुलीन</w>
कीर्
किन्तु
किनारे</w>
कार्रवाई</w>
कार्य</w>
कामयाब</w>
कालिक</w>
काम</w>
कां
कांश</w>
कर्मियों</w>
कर्नाटक</w>
करोड़),</w>
करोड</w>
करेगी
करवाने</w>
कमांडर-इन-चीफ</w>
कंपनियों</w>
क्योंकि</w>
कै
किय
कहीं</w>
कंक
कंकड</w>
क,</w>
औसत</w>
औप
औद
ओण
ओ</w>
ऐसी</w>
ऐसे</w>
एशियाई</w>
एवम</w>
एनएस
एं,</w>
एसोसिएशन</w>
एड
एज
एँ</w>
ऋतु
ऊर्जा</w>
उल-
उभरा।</w>
उपग्रह</w>
उदय</w>
उत्पादन</w>
उत्तर-पश्चिम</w>
उत्तरदा
उत्थान</w>
उठाया</w>
उन्होंने</w>
उध
उड़ीसा</w>
उं
ईस्ट</w>
ईसाई</w>
ईल
ईद</w>
ईं
इस्लाम</w>
इस्तेमाल</w>
इसने</w>
इत्यादि</w>
इजरायल</w>
इंडोनेशिया</w>
इलावा</w>
इनका</w>
इण्ड
इओ
आर्य
आयातक</w>
आपके</w>
आन्दो
आधारित</w>
आदर्श</w>
आठवीं</w>
आकर्षित</w>
आक्र
आवश्य
आवं
आम</w>
आपूर्तिकर्ता</w>
आपातकाल</w>
आने</w>
आए</w>
असैनिक</w>
असम</w>
असफल</w>
अवसा
अल्पाइन</w>
अमेरिकी</w>
अमेरिका,</w>
अभियानों</w>
अपेक्षा</w>
अन्तर्गत</w>
अन्तरि
अनुसूची</w>
अनिवार्य</w>
अनुसार,</w>
अधिकारी</w>
अधिकांश</w>
अत्य
अग्रणी</w>
अगस्त</w>
अंग्रेजों</w>
अंतिम</w>
अहिंसावादी</w>
असम
असं
अशोक</w>
अशांति</w>
अलावा,</w>
अथवा</w>
अज
अक्षुण्ण</w>
अ-
ंबर</w>
ंगीण</w>
y।</w>
xiii,</w>
xi,</w>
uin</w>
tbook</w>
ton</w>
ss:</w>
s)</w>
s).</w>
plates</w>
outl
outled
orld
orld's</w>
olume</w>
ollin
ocial</w>
mun
life:</w>
lag
lag,</w>
ins</w>
inav
inav</w>
ics).</w>
hi:</w>
formation</w>
es)।</w>
erlag,</w>
enguin</w>
edition
cycl
cyclop
cise</w>
bhinav</w>
assics).</w>
arajan,</w>
angarajan,</w>
adhy
actbook</w>
a:</w>
Wildlife:</w>
World's</w>
W.</w>
Volume</w>
Verlag,</w>
TT
TI
Sub
Social</w>
Routled
Rangarajan,</w>
Publications,</w>
Publish
Press।</w>
Prof
Poems</w>
Penguin</w>
PK
Millan,</w>
Mahesh</w>
MacMillan,</w>
Mas
John
Histor
Har
Factbook</w>
Encyclop
Eight</w>
Discovery</w>
Delhi:</w>
Democracy</w>
Concise</w>
Commun
Classics).</w>
Chandra</w>
CEE</w>
Collin
Cinem
Brass:</w>
Books।</w>
Bar
Anthology</w>
Act,</w>
Abhinav</w>
93,
9,000</w>
8లో</w>
7,5
7,517</w>
7–
7లో</w>
74.
72.
7000</w>
5-0
4th</w>
44
4-
30,000</w>
3.8
36.
26న</w>
2022</w>
2021</w>
2014</w>
2012
2008</w>
2007</w>
2007,</w>
2006,</w>
2004</w>
20</w>
2019</w>
2nd</w>
29</w>
21</w>
1998</w>
1984</w>
1975,</w>
1974</w>
1967</w>
1958</w>
1900</w>
17.
16.6%</w>
100,000</w>
1,93,
1,200</w>
1000</w>
.৮%
.৭%</w>
.৭%),</w>
./वर्ष</w>
...
.৯%)</w>
.,</w>
-বর্
-ধাঁচের</w>
-২</w>
-অধ্যুষিত</w>
,৬৭১</w>
+</w>
(Ἰνδός),</w>
(৪,৬৭১</w>
(২০০৬),</w>
(২০০৪),</w>
(২০০৭)।</w>
(১৯৯৮),</w>
(১৯৯৭),</w>
(১৯৯৪)।</w>
(১৯৯০)।</w>
(হিন্দি:</w>
(এনডিএ)</w>
(editors),</w>
(editor)</w>
(সি
(মোট</w>
(বিশ্বে</w>
(পূর্বনাম</w>
(পিপিপি)</w>
(ध
(कॉ
(कुल</w>
(ओ
(S
(Oxford</w>
(M
(India
(E
(7
(4
(196
(0.
'।</w>
$६
"।</w>
",</w>
”।</w>
“Royal
“Royal”</w>
“প্রথম</w>
“नेट</w>
’,</w>
‘दलि
‘दलितों</w>
‘আধা-
‘আধা-যুক্তরাষ্ট্র
‘আধা-যুক্তরাষ্ট্রী
‘আধা-যুক্তরাষ্ট্রীয়
‘আধা-যুক্তরাষ্ট্রীয়’</w>
‘संविधान</w>
‘आधुनिक</w>
—हट
—हटा</w>
—जैसे</w>
–2012</w>
–2004</w>
–2000
–2000).</w>
–13</w>
–20</w>
–0</w>
‍यीय</w>
‍पकालिक</w>
‍্যে</w>
‍या
‍याव
‍यावसा
‍यावसायिक</w>
‍तरी</w>
‌వ‌
‌వ‌స్థ
‌వ‌స్థ‌</w>
‌లాల్</w>
‌ఫర్
‌ఫర్మే
‌ఫర్మేష
‌ఫర్మేషన్</w>
‌ক্য</w>
‌తంలో</w>
‌కు</w>
‌বলম্বী</w>
ṣag
ṣagān
ṣagāna,</w>
్‌సొ
్‌సొర్
్‌సొర్సిం
్‌సొర్సింగ
్‌సొర్సింగ్</w>
్‌వే
్‌వేర్,</w>
్‌మహ
్‌మహల్</w>
్‌బ
్‌బాల
్‌బాల్‌</w>
్‌గే
్‌గేజ
్‌గేజి</w>
్‌,</w>
్సీ
్సీలు,</w>
్వాల్</w>
్వస్త్ర
్వస్త్ర</w>
్వబ
్వబడిన</w>
్లలో</w>
్లలుగా</w>
్రోలి
్రోలియం
్రోలియం,</w>
్రోపాల
్రోపాలిట
్రోపాలిటన్</w>
్రిద్ధి</w>
్రిచె
్రిచెట్ట
్రిచెట్టు.</w>
్రాన్స్,</w>
్రాన్-ఇ
్రాన్-ఇస్తా
్రాన్-ఇస్తాంబ
్రాన్-ఇస్తాంబుల
్రాన్-ఇస్తాంబుల్</w>
్రాసు
్రాసు),</w>
్రావి
్రావిడ</w>
్రాఫ
్రాఫిక్</w>
్రా)</w>
్రై
్రైవర
్రైవరు</w>
్రూ—
్రూ—ISBN</w>
్రాలు,</w>
్రామ
్రామిక</w>
్రయ
్రయాలు</w>
్యాత్మ
్యాత్మిక
్యాత్మికత</w>
్యాడ్
్యాడ్మిం
్యాడ్మింట
్యాడ్మింటన్
్యాడ్మింటన్‌</w>
్యులు</w>
్యులు,</w>
్యాలు</w>
్యాలు
్యాలున్నాయి.</w>
్యానికి</w>
్యా</w>
్యరాజ్య
్యరాజ్యసమ
్యరాజ్యసమితి</w>
్యమైన</w>
్యమం
్యమంలో</w>
్యప్ర
్యప్రాణ
్యప్రాణుల</w>
్యపరంగా</w>
్యజి
్యజిత్</w>
్యచిత్ర
్యచిత్రాలు</w>
్యంలో</w>
్య,</w>
్మపు
్మపుత్ర
్మపుత్ర,</w>
్మదా
్మదాబాదు</w>
్మద
్మదీయ
్మదీయులు,</w>
్మ.</w>
్పస్,</w>
్నే
్నేయ</w>
్నాలు</w>
్నలు:</w>
్నం</w>
్థాలు,</w>
్థనల
్థనలలో</w>
్తె</w>
్తాన
్తానులు,</w>
్తదేశపు</w>
్ట్‌వేర్,</w>
్టడ
్టడాలు,</w>
్టం,</w>
్గు
్గులు:</w>
్గి
్గిపోయింది.</w>
్గర
్గరలో</w>
్కెట్</w>
్కుల</w>
్కా</w>
్స్</w>
్క్‌
్క్‌టిక
్క్‌టికాలో</w>
్క్</w>
ౌరవి
ౌరవిస్తారు.</w>
ోళులు,</w>
ోరారి</w>
ోరమ</w>
ోర</w>
ోధాల</w>
ోధన
ోధనా</w>
ోద్యమంలో</w>
ోక్యం</w>
ో-ఖో
ో-ఖో,</w>
ో-ఆర్
ో-ఆర్య
ో-ఆర్యన్,</w>
ోయ</w>
ోనే
ోనేసియా</w>
ోది.</w>
ోత్ర
ోత్రి,</w>
ోక్ష
ోక్ష</w>
ోంది.</w>
ో,</w>
ొమ్మ.</w>
ైనె
ైనెర్</w>
ైనప్పటికీ,</w>
ైనది.</w>
ైనంద
ైనందిన</w>
ైస్త
ైస్తవ
ైస్తవులు</w>
ైలో</w>
ైటె
ైటెడ
ైటెడ్</w>
ైక</w>
ేష్</w>
ేమాత
ేమాతరం
ేమాతరం...
ేమాతరం....</w>
ేధం,</w>
ేట్</w>
ేకమైన</w>
ేయు
ేయులు
ేయులు)</w>
ేనన
ేననీ</w>
ేతర</w>
ేత</w>
ేకాగా</w>
ే:</w>
ే...
ే...).</w>
ే,</w>
ే),</w>
ెల్</w>
ెలు</w>
ెబియ
ెబియస్</w>
ెనే</w>
ెట్రోపాలిటన్</w>
ెల్
ెల్లోని</w>
ెలు.</w>
ెల</w>
ెడ్
ెడ్,</w>
ె,</w>
ృహాలు,</w>
ృత్య</w>
ృతంగా</w>
ూరత్</w>
ూపబ
ూపబడి
ూపబడింది</w>
ూనే</w>
ూడా</w>
ూటనల
ూటనలబై
ూటనలబైరెండు
ూటనలబైరెండుకోట్లకు</w>
ూలా
ూలాదాయంలో</w>
ూపం
ూపం,</w>
ువుల
ువులైనప్పటికీ,</w>
ుళూరు</w>
ుల్స్</w>
ుల్తానులు,</w>
ులి</w>
ులా</w>
ులలో</w>
ులచే</w>
ులకాల
ులకాలం</w>
ురాలు.</w>
ునైటెడ్</w>
ునిక</w>
ుని</w>
ుట్‌బాల్‌</w>
ుటచే</w>
ుగల్
ుగల్,</w>
ుక్యులు,</w>
ు.ప్రస్తుతము</w>
ు,భాష
ు,భాషలు,</w>
ువు
ువు:</w>
ువల్ల</w>
ులో</w>
ుపూర్
ుపూర్వో
ుపూర్వోత్
ుపూర్వోత్తర
ుపూర్వోత్తరాలు</w>
ుకుంట
ుకుంటోంది.</w>
ుకు
ుకున్నాయి.</w>
ీలతో</w>
ీర,</w>
ీయవాదం</w>
ీనోద్యమంలో</w>
ీనికి</w>
ీనములో</w>
ీనంలో</w>
ీనం</w>
ీతులు</w>
ీతల</w>
ీకులు</w>
ీకి</w>
ీ,పాండ
ీ,పాండి
ీ,పాండిచ్
ీ,పాండిచ్చే
ీ,పాండిచ్చేరి
ీ,పాండిచ్చేరి,</w>
ీయా
ీయాదాయంలో</w>
ీకృ
ీకృత
ీకృతమై</w>
ీకర
ీకరణ</w>
ిశ్రామిక</w>
ివర్ణ</w>
ివర్గ
ివర్గం</w>
ిల్లీ-దండ
ిల్లీ-దండా
ిల్లీ-దండా)</w>
ిల్లిన</w>
ిల్లా</w>
ిలేట్</w>
ిలాగ
ిలాగృహాలు,</w>
ిరా</w>
ిరమైన</w>
ియాలో</w>
ియనులు,</w>
ినేత</w>
ినెస్</w>
ిని</w>
ినహ
ినహాయ
ినహాయించి,</w>
ిత్ర,</w>
ిత్యం</w>
ితమై</w>
ితం,</w>
ిగమ
ిగమించి</w>
ికేననీ</w>
ికులు</w>
ికుల</w>
ికికి</w>
ికి,</w>
ికమైనది.</w>
ికమైన</w>
ికం,</w>
ింపిక్‌</w>
ింపబడ
ింపబడి</w>
ించుకోవడ
ించుకోవడాన
ించుకోవడానికి,</w>
ించుకోవచ్
ించుకోవచ్చని</w>
ించినవే.</w>
ించినంద
ించినందువల్ల</w>
ించిపె
ించిపెట్ట
ించిపెట్టార
ించిపెట్టారు.ప్రస్తుతము</w>
ించాలని</w>
ించబడింది.</w>
ించలే
ించలేదు
ించలేదు.</w>
ింస
ింసాయుత</w>
ింబె
ింబెట
ింబెట్కా</w>
ించా
ించాము.</w>
ింగ్
ింగ్డమ
ింగ్డమ్</w>
ి.పూ.</w>
ి.ఢాకా-ఢిల్లీ-లాహో
ి.ఢాకా-ఢిల్లీ-లాహోర్‌
ి.ఢాకా-ఢిల్లీ-లాహోర్‌ల</w>
ిస్తారు.</w>
ిస్
ిస్టా
ిస్టాట
ిస్టాటస్
ిస్టాటస్.</w>
ిళ్
ిళ్ళ</w>
ియా
ియా,</w>
ిపేర్లు</w>
ిపి
ిపిత</w>
ిత్వ</w>
ి:</w>
ాసెస్</w>
ాశ్రయాలు</w>
ాళాఖ
ాళాఖాతం</w>
ాల్లో
ాల్లోన
ాల్లోనూ</w>
ాల్దీ
ాల్దీవులు,</w>
ాలెక్క
ాలెక్కను
ాలెక్కనుంది.</w>
ాలుగా,</w>
ాల్యంలో</w>
ాలోయ</w>
ాలేకాగా</w>
ాలే.</w>
ాలు,భాషలు,</w>
ాలాలు,</w>
ాలలోను</w>
ాలర్
ాలర్లు.</w>
ాలపై</w>
ాలన్నీ</w>
ాలకూ</w>
ారు,</w>
ార్లలో</w>
ార్థాలు,</w>
ార్క్‌టికాలో</w>
ార్</w>
ారాల</w>
ారమ
ారమ్‌,</w>
ారతమ
ారతమ్యాలున్నాయి.</w>
ారణంగా</w>
ాయిలో</w>
ాయిడ్
ాయిడ్స్</w>
ాయీలు</w>
ాయని</w>
ాయతి</w>
ాయణం</w>
ాయకార
ాయకారిగా</w>
ాయం</w>
ాయ",</w>
ాబల
ాబల్యం</w>
ానే</w>
ానెట్</w>
ానాలతో</w>
ానప
ానపద</w>
ానంతో</w>
ానం:</w>
ాన,</w>
ాతృ</w>
ాతి</w>
ాతథ</w>
ాడ్‌గేజి</w>
ాన్ని</w>
ానిస్తాన్</w>
ాంత
ాంతి,</w>
హొలీ
హొలీ,</w>
హైదరాబాద్
హైదరాబాద్,</w>
హైదరాబాదు</w>
హైకోర్టులు</w>
హిమాలయ
హిమాలయాలు,</w>
హిందూస్తాన్</w>
హిందూస్త
హిందూస్తానీ</w>
హిందూదేశం
హిందూదేశం,</w>
హిందూ,</w>
హిందువులైనప్పటికీ,</w>
హిందీ</w>
హిందీ;</w>
హిందీ,</w>
హిస్తాయి.</w>
హిరంగ
హిరంగంగా</w>
హాస
హాసాలపై</w>
హాకీ
హాకీలో</w>
హాక
హాకీ</w>
హనాలు</w>
హ్రాన్-ఇస్తాంబుల్</w>
హ్మపుత్ర,</w>
హ్నాలు</w>
హెబియస్</w>
హా</w>
హస్
హస్త</w>
హర్
హర్గ
హర్గర్,</w>
హపు</w>
హక్క
హక్కులకు</w>
స్వీకార
స్వీకారం</w>
స్వీకర
స్వీకరించింది.</w>
స్వామ్య,</w>
స్వాతంత్ర్యానికి</w>
స్వాము
స్వాములు.</w>
స్వాధ
స్వాధీనం</w>
స్వతంత్ర
స్వతంత్రం</w>
స్వతం</w>
స్లామ
స్లామ్</w>
స్యం</w>
స్థానే...).</w>
స్థానిక</w>
స్థానాలు</w>
స్థానమైన</w>
స్థానంలో,</w>
స్థానం.</w>
స్థాప
స్థాపక</w>
స్థూలాదాయంలో</w>
స్థిరమైన</w>
స్థాయిలో</w>
స్థలు</w>
స్తులు.</w>
స్తున్నారు.</w>
స్తున్నది.</w>
స్తుంది.</w>
స్తుంద
స్తుందని</w>
స్తాన్‌కు</w>
స్తాన్తో</w>
స్తామన
స్తామని</w>
స్తాన్,</w>
స్తృతంగా</w>
స్తులు</w>
స్తారు,</w>
స్టలు</w>
స్సా
స్సామీ
స్సామీ;</w>
స్వే
స్వేచ్
స్వేచ్ఛ
స్వేచ్ఛాయుత</w>
స్వర్
స్వర్ణ</w>
స్వర
స్వరూపం,</w>
స్వ
స్వతం,</w>
స్లో</w>
స్లే
స్లేచ
స్లేచర్,</w>
స్యత
స్యత,</w>
స్య</w>
స్తూ
స్తూ,</w>
స్టే
స్టేట
స్టేటాయిడ్స్</w>
స్,
స్,మహ
స్,మహేష్</w>
సౌకర్యము.</w>
సౌకర్
సౌకర్యవ
సౌకర్యవంత
సౌకర్యవంతంగా,</w>
సైనా</w>
సైతం</w>
సైట్లు</w>
సేవ</w>
సెర్
సెర్టి
సెర్టియ
సెర్టియోరారి</w>
సూచన
సూచనలు,</w>
సుమార
సుమారు</w>
సుదీ
సుదీర్
సుదీర్ఘ</w>
సుకో
సుకోవడ
సుకోవడంతో</w>
సినిమాలు,</w>
సిక్కులు</w>
సిక్కు</w>
సింధూనదికి</w>
సింధూనది</w>
సింధుాలోయ</w>
సింధులోయ</w>
సింహపు</w>
సింధ్
సింధ్;</w>
సింధ
సింధు</w>
సివ
సివస్తుందని</w>
సిన</w>
సిద్ధం</w>
సిద్ధ
సిద్ధించింది.</w>
సిగ
సిగ్నలు:</w>
సింద
సింది.ఢాకా-ఢిల్లీ-లాహోర్‌ల</w>
సాహిత్యం</w>
సాహంగా,</w>
సార్క్</w>
సారిగా</w>
సారాల</w>
సారస్వతం</w>
సారస్వతం,</w>
సారవ
సారవంత
సారవంతమైన</w>
సామ్రాజ్యాలు</w>
సామ్రాజ్యం</w>
సామ్రాజ్యం,</w>
సామ్రాజ్య</w>
సాధించగా,</w>
సాధించగ
సాధించగలి
సాధించగలిగ
సాధించగలిగినది.</w>
సాధించిపెట్టారు.ప్రస్తుతము</w>
సాధించింది.</w>
సాధించాము.</w>
సాధారణంగా</w>
సాంప్రదాయికమైన</w>
సాంప్రదాయ</w>
సాఫ
సాఫ్ట్‌వేర్,</w>
సాని
సానియ
సానియా</w>
సాగు
సాగుతో
సాగుతోంది.</w>
సాక
సాకర్‌
సాకర్‌)</w>
సాంఘ
సాంఘిక,</w>
సహస్రాబ్ది</w>
సహస్రాబ్ది
సహస్రాబ్దిలో</w>
సహాయకారిగా</w>
సలహా</w>
సర్వీసును</w>
సర్వస
సర్వసత్తా
సర్వసత్తాక
సర్వసత్తాక,</w>
సరిహద్దులు</w>
సరిహద్దులలో</w>
సరిహద్దులను</w>
సరిహద్దు</w>
సరిహద్దు
సరిహద్దున</w>
సరిస్తూ,</w>
సరమై
సరమైత
సరమైతే</w>
సరఫర
సరఫరా</w>
సముద్రతీరమ
సముద్రతీరము</w>
సముద్రతీరం</w>
సముద్రం</w>
సముచి
సముచిత</w>
సమాఖ్యలు</w>
సమాజమ
సమాజము</w>
సమాజం
సమాజం.</w>
సమాచార
సమాచారం</w>
సమష్ట
సమష్టి</w>
సమశీ
సమశీతో
సమశీతోష్ణ</w>
సమరం</w>
సమరం
సమరం)</w>
సమయం
సమయంలో,</w>
సభ్యులను</w>
సభ్యురాలు.</w>
సభా</w>
సభలో</w>
సత్యజిత్</w>
సంస్కృతులతో</w>
సంస్కృతీ
సంస్కృతీ,</w>
సంస్కృతి
సంస్కృతిలో</w>
సంస్కృతం,</w>
సంస్కరణలు</w>
సంస్కరణలత
సంస్కరణలతో</w>
సంవత్సరాలలో</w>
సంవత్సరాల</w>
సంవత్సరం</w>
సంవత్సారాల</w>
సంబంధించిన</w>
సంబంధాలు</w>
సంబంధ</w>
సంప్రదాయాలను</w>
సంఘర్షణ
సంఘర్షణలను</w>
సంఘము.</w>
సంఘం</w>
సంగీతము</w>
సంగీతంలో</w>
సంగీతం
సంగీతం.</w>
సంగీత</w>
సంగమ</w>
సంఖ్యాక</w>
సంఖ్యా</w>
సంఖ్యలో</w>
సంకీర్ణం</w>
సంకీర్ణ</w>
సంకీర్ణ
సంకీర్ణాలేకాగా</w>
సంస్థలు</w>
సంధి</w>
సంఘ</w>
సంక్ర
సంక్రాంతి,</w>
సం.</w>
సే</w>
సూరత్</w>
సుల్తానులు,</w>
సీ</w>
సీ,</w>
సాలు</w>
సవా
సవాళ్లను</w>
సల్
సల్వార
సల్వార్</w>
సగా</w>
సంద
సందర్
సందర్శ
సందర్శించే</w>
సం</w>
ష్ట్యా</w>
ష్టు</w>
ష్టమైన
ష్టమైన,</w>
ష్టం
ష్టంకాగా</w>
ష్ట</w>
ష్పం
ష్పం:</w>
షి:</w>
షా,</w>
షలు</w>
షణాలు</w>
షం:</w>
షం.</w>
షం",</w>
షేధం,</w>
షియనులు,</w>
షాలు</w>
షకాహార</w>
శ్వనాథ
శ్వనాథన్</w>
శ్వత</w>
శ్రీశైల
శ్రీశైలస్య</w>
శ్రీలంక
శ్రీలంక,</w>
శ్రీరా
శ్రీరామన
శ్రీరామనవ
శ్రీరామనవమి
శ్రీరామనవమి,</w>
శ్రద్ధ
శ్రద్ధలతో,</w>
శ్వా
శ్వామ
శ్వామిత్ర,</w>
శ్లో
శ్లోకాల
శ్లోకాలతో</w>
శ్,</w>
శోకు
శోకుడు</w>
శైలీ</w>
శేషం.</w>
శెలవ
శెలవు</w>
శిష్ట</w>
శిల్
శిల్పక
శిల్పకళ</w>
శాస్త్రం</w>
శాఖపట
శాఖపట్నం</w>
శాఖకు</w>
శాశ్వత</w>
శాకాహార</w>
శరద్
శరద్</w>
శతాబ్దం
శతాబ్దం,</w>
శక్తులు
శక్తులు;</w>
శక్తిగా</w>
శకుడైన</w>
శకుంత
శకుంతల</w>
శంలోని</w>
శోధనా</w>
శీతల</w>
శిలాగృహాలు,</w>
శాల్యంలో</w>
శాతం</w>
శక</w>
వ్యాపారవే
వ్యాపారవేత్
వ్యాపారవేత్త
వ్యాపారవేత్తల</w>
వ్యాపారం</w>
వ్యాపార</w>
వ్యవస్థీకరణ</w>
వ్యవస్థలోని</w>
వ్యవస్థల</w>
వ్యవస్థగా</w>
వ్యవస్థకు</w>
వ్యవస్థకు,</w>
వ్యవస్థ,</w>
వ్యవస్థ)</w>
వ్య‌వ‌స్థ‌</w>
వ్యవహ
వ్యవహారాల</w>
వ్యవస
వ్యవసాయం</w>
వ్యయ
వ్యయంతో</w>
వైవిధ్యమైనది.</w>
వైవిధ్యమైన
వైవిధ్యమైనవి.</w>
వైవిధ్యం</w>
వైశాల్యంలో</w>
వైపో
వైపోతు
వైపోతున్న
వైపోతున్నప్పటికీ,</w>
వైపా
వైపాక్ష
వైపాక్షిక</w>
వైప
వైపులా</w>
వైన</w>
వేదాలు,</w>
వేదాలలో</w>
వేరత
వేరతాయని</w>
వెల్లూరు</w>
వెల్లడ
వెల్లడించింది.</w>
వెబ్</w>
వెలు
వెలుపల
వెలుపలి</w>
వెబ్
వెబ్సైట్లు</w>
వృక్
వృక్షం:</w>
వూపి
వూపింది.</w>
వున్
వున్నా,</w>
వుంట
వుంటుంది.</w>
వీంద్ర
వీంద్రనాథ
వీంద్రనాథ్</w>
విస్తీర్ణం</w>
విస్తీర్ణ
విస్తీర్ణంతో</w>
విస్తర
విస్తరించిన</w>
విలువైన</w>
విలువల
విలువలను</w>
విధించిన</w>
విధి</w>
విధానాలతో</w>
విధంగా</w>
విద్యను</w>
విస్తృతంగా</w>
విసభా</w>
విశ్వామిత్ర,</w>
విశ్వనాథన్</w>
విశేషం.</w>
విశిష్ట</w>
విశాఖపట్నం</w>
వివాదం</w>
వివరాలు</w>
విల్ల
విల్లాయి.</w>
విర్
విర్భవ
విర్భవించింది.</w>
విమాన</w>
విమాన
విమానాశ్రయాలు</w>
విభజ
విభజితమై</w>
విఫ
విఫల</w>
వినాయ
వినాయక</w>
వితంలో</w>
విడి
విడిపోయింది.</w>
విజ్
విజ్ఞా
విజ్ఞాన</w>
విజ
విజన్</w>
వింద్</w>
వి).</w>
వాహనం
వాహనంలో</w>
వాహక</w>
వారసత్వానికి</w>
వారసత్వంగా</w>
వారసత్వ</w>
వారసత్
వారసత్వా
వారసత్వాన్ని
వారసత్వాన్ని,</w>
వారు</w>
వారిస్తారు.</w>
వారిగా</w>
వారి</w>
వారంట
వారంటో,</w>
వాణిజ్యపరంగా</w>
వాహనాలు</w>
వాసాలు</w>
వాన</w>
వాద</w>
వాద
వాదన</w>
వాటిలో</w>
వాటి
వాటిల్ల
వాటిల్లింది.</w>
వహించే</w>
వహించింది.</w>
వహించి</w>
వహర్
వహర్‌లాల్</w>
వలెనే</w>
వలి</w>
వర్గాలు</w>
వర్గాలలోను</w>
వర్షాలు</w>
వర్షం",</w>
వర్ధ
వర్ధిల్లిన</w>
వర్తి</w>
వర్తి
వర్తిత్వ
వర్తిత్వం</w>
వర్ణ
వర్ణించబడింది.</w>
వర్గీ
వర్గీకరణ
వర్గీకరణలో</w>
వరోధాల</w>
వరలోనే</w>
వరకూ</w>
వన్యప్రాణుల</w>
వత్‌</w>
వతాలతో</w>
వజ్రాలు,</w>
వచ్చినవ
వచ్చినవారి</w>
వచ్చిన
వచ్చినది
వచ్చినది,</w>
వచ్చి,</w>
వచ్చు.</w>
వంటలు</w>
వంటలకు</w>
వంటక
వంటకాలు</w>
వంట</w>
వంశంలోని</w>
వం,</w>
వైనది.</w>
వుని</w>
వహిస్తాయి.</w>
వల</w>
వరు
వరుసగా</w>
వరి.</w>
వద్
వద్ద</w>
వదిన
వదినాలు,</w>
వంద
వందేమాతరం....</w>
వ.</w>
ళ్ళు</w>
ళ్ళపాటు</w>
ళవింపబడి</w>
ళ్ల</w>
ళుక్యులు,</w>
ళికలు</w>
ళనా
ళనాడుకు</w>
ల్లయి
ల్లయిన</w>
ల్పం</w>
ల్ప</w>
ల్లు.</w>
లౌకిక</w>
లౌకిక,</w>
లోక్‌సభలో</w>
లోక్‌సభ</w>
లోప
లోపం</w>
లోన్
లోన్ల
లోన్లీ</w>
లోను
లోను,</w>
లోచ
లోచన</w>
లోక
లోకి</w>
లో)</w>
లేని
లేనివి.</w>
లేదు</w>
లెజి
లెజిస్లేచర్,</w>
లెక్
లెక్కల
లెక్కలు</w>
లెంద
లెందర
లెందరో</w>
లుగుత
లుగుతాయి.</w>
లుపుతూ</w>
లిసింది.</w>
లివిజన్</w>
లియా
లియాండ
లియాండర్</w>
లిపావ
లిపావో</w>
లిన</w>
లిథ
లిథిక్</w>
లితంగా</w>
లిచిన</w>
లిచింది.</w>
లిచ
లిచారు.</w>
లి;</w>
లాభ
లాభదాయ
లాభదాయక
లాభదాయకమే
లాభదాయకమేన
లాభదాయకమేననీ
లాభదాయకమేననీ,</w>
లాంట
లాంటి</w>
లమానం:</w>
లభ్యమైన</w>
లపై</w>
లఘు</w>
లక్షల</w>
లక్షణా
లక్షణాన్ని</w>
లక్ష.</w>
లకత్తా
లకత్తా),</w>
లంకెలు</w>
లంపు
లంపుతో</w>
లంకార
లంకార</w>
లం:</w>
లికేననీ</w>
లాలు</w>
లబె
లబెట్ట
లబెట్టుకున్నాయి.</w>
లక్
లక్షణాలు</w>
ల,</w>
ర‌వాణా</w>
ర్షణను</w>
ర్తా</w>
ర్శకుడైన</w>
ర్వ్యవస్థీకరణ</w>
ర్యమ
ర్యము</w>
ర్దూ
ర్దూ;</w>
ర్ణా
ర్ణాటక</w>
ర్జె
ర్జెన్
ర్జెన్సీ</w>
ర్జాలు</w>
ర్చు
ర్చుతో</w>
ర్చిన</w>
ర్చ
ర్చుగల్,</w>
ర్కొ
ర్కొంటు
ర్కొంటున్నది.</w>
ర్).</w>
రోడ్డుకు</w>
రోడ
రోడ్ల</w>
రోః</w>
రొట్ట
రొట్టెల</w>
రైల్వేశాఖకు</w>
రైల్వేశాఖ</w>
రైళ్ల</w>
రైలు.</w>
రేబ
రేబియా</w>
రెండువైపులా</w>
రెండోది.</w>
రెండో</w>
రెన్న
రెన్నో</w>
రూపాంతరం</w>
రూపాంతర
రూపాంతరమే.</w>
రూపొంద
రూపొందింది.</w>
రూపం
రూపంలో)</w>
రుష్కుల</w>
రునా
రునామ
రునామాలు</w>
రుదుగా</w>
రుచు
రుచులు,</w>
రుగా</w>
రు,</w>
రీ;</w>
రిస్తారు</w>
రియా
రియా;</w>
రిట్లు</w>
రిట్ల
రిట్లలో</w>
రిగా</w>
రిగ
రిగే</w>
రాష్ట్రపతులు</w>
రాష్ట్రపతి,</w>
రాష్ట్రపతి
రాష్ట్రపతిచే</w>
రాష్ట్రాలుగా,</w>
రాష్ట్రాలు:</w>
రాష్ట్రానికి</w>
రాష్ట్రపు</w>
రాజ్యాంగ</w>
రాజ్యాలను</w>
రాజకీయాల్లో</w>
రాజకీయాలు</w>
రాజు.</w>
రాజయ
రాజయం</w>
రాజధాన
రాజధానులు,</w>
రాసిన</w>
రాయల
రాయల్</w>
రామ
రామాయణం</w>
రాతి
రాతియుగ
రాతియుగపు</w>
రాణ
రాణించలేదు.</w>
రాఠ
రాఠీ;</w>
రాటం</w>
రాచీ
రాచీ,</w>
రా.</w>
రహదారులు</w>
రహదారులను</w>
రబద్ధం</w>
రతవర్షం",</w>
రతనా
రతనాట
రతనాట్యం,</w>
రచయితలెందరో</w>
రచయిత.</w>
రకాలుగా</w>
రకాలు.</w>
రంగాల్లో</w>
రంగాల</w>
రంగానికి</w>
రంగంలో</w>
రంగం</w>
రే</w>
రూ</w>
రీతులు</w>
రీ</w>
రవేరతాయని</w>
రవీంద్రనాథ్</w>
రతు
రతుడు
రతుడు".</w>
రక్షరా
రక్షరాస్యత,</w>
రక్ష
రక్షణ</w>
రకు,</w>
ర,</w>
యోలిథిక్</w>
యోచన
యోచనలో</w>
యూదు
యూదులు,</w>
యుగం</w>
యుద్ధం</w>
యుద్ధ
యుద్ధాలు</w>
యుడైన</w>
యుక్
యుక్త</w>
యు.
యు.ఏ.
యు.ఏ.ఇ
యు.ఏ.ఇ,</w>
యిస్తారు.</w>
యింది</w>
యాత్రికులు</w>
యాత్రలతో,</w>
యావత్‌</w>
యాణ
యాణికుల</w>
యాటక</w>
యథాతథ</w>
యం:</w>
యునైటెడ్</w>
యము
యమున
యమున,</w>
మౌఖ
మౌఖికమైనది.</w>
మోన్న
మోన్నత</w>
మొదలైనవి</w>
మొదలైనవి.</w>
మొదలైనటు
మొదలైనటువంటి</w>
మొదలగువారు</w>
మొదలగున
మొదలగునవి).</w>
మొదలవుతుంది.</w>
మొదటిసారిగా</w>
మొదటిది</w>
మొగలు
మొగలులు</w>
మొగల
మొగలు</w>
మైద
మైదానంతో</w>
మైథి
మైథిలి;</w>
మైత్ర
మైత్రి</w>
మైంది.</w>
మేళవింపబడి</w>
మేరోః</w>
మేరకు,</w>
మేనక
మేనకల</w>
మెహర్గర్,</w>
మూడే.</w>
మూడవ</w>
మూలాలు</w>
మూల</w>
ముఖ్యతను</w>
ముంబైలో</w>
ముంబాయి</w>
ములు,</w>
మురు,</w>
ముద్ర
ముద్ర:</w>
ముత్య
ముత్యం.</w>
ముడ్
ముడ్చుకు
ముడ్చుకుంది.</w>
ముంద
ముందుగా</w>
మీర్జాలు</w>
మీదుగా</w>
మీజ
మీజ్</w>
మిస్తున్నాయి.</w>
మిస్తున్న</w>
మితో</w>
మితికి</w>
మించే
మించేది</w>
మించుకు
మించుకున్నారు.</w>
మిడి</w>
మిగి
మిగిలిన</w>
మాలిక</w>
మార్గాలే.</w>
మార్గాలలో</w>
మార్గాలను</w>
మార్గము</w>
మార్గంలో</w>
మార్గం</w>
మారుమూల</w>
మారుడు
మారుడు.</w>
మార్తె</w>
మార్కెట్</w>
మార్,</w>
మారింది.</w>
మానవుని</w>
మానం:</w>
మాన,</w>
మాట్లాడే</w>
మాట్లాడే:</w>
మామిడి</w>
మాది
మాదిరిగా</w>
మాణ</w>
మాండ
మాండమ
మాండమస్,</w>
మహిళా</w>
మహిళల</w>
మహాసముద్రం</w>
మహాసముద్రం,</w>
మహాభారతం,</w>
మసాలాలు,</w>
మలయాళం;</w>
మలయాళం,</w>
మలవుతుంది.</w>
మలము</w>
మర్రిచెట్టు.</w>
మర)</w>
మయన్
మయన్మార్,</w>
మనోరమ</w>
మనమే</w>
మనదేశంలో</w>
మన.</w>
మధ్యవర్తిత్వం</w>
మధ్యల,</w>
మధ్యకాలంలో</w>
మధ్య,</w>
మద్రాసు),</w>
మతాలు</w>
మతాలు:</w>
మతాలు,</w>
మతాలతో</w>
మతాలకు</w>
మతాల</w>
మతస్తులు</w>
మతములు,</w>
మతమ
మతములకు</w>
మణద
మణదారులు,</w>
మంత్రులచే</w>
మంత్రివర్గం</w>
మంత్రిత్వ</w>
మంజ
మంజూరు</w>
మ్మదాబాదు</w>
మెట్రోపాలిటన్</w>
మూ</w>
మీ</w>
మినహాయించి,</w>
మికి</w>
మించినందువల్ల</w>
మించిన</w>
మాల్దీవులు,</w>
మాతృ</w>
మలు,</w>
మలిపావో</w>
మరెన్నో</w>
మరాఠీ;</w>
మన</w>
మతిని</w>
మతం,</w>
మణి
మణిపు
మణిపురి.</w>
మంత
మంతట
మంతటా</w>
మంచి</w>
మ.</w>
భౌత
భౌతిక,</w>
భూటాన్</w>
భూటాన్,</w>
భూప
భూపతి,</w>
భిన్న
భిన్నత్వ
భిన్నత్వాలు</w>
భాషలలోను,</w>
భాషలతో,</w>
భాషలు.</w>
భాష,</w>
భావిస్తున్నది.</w>
భావిస్తారు.</w>
భావిస్తారు,</w>
భారతీయులు</w>
భారతీయుల</w>
భారతీయుడైన</w>
భారతదేశం,</w>
భారతదేశం"</w>
భారతదేశమే.</w>
భారతదేశము</w>
భారత,</w>
భార‌తంలో</w>
భార్తదేశపు</w>
భారతం
భారతంలో,</w>
భాగం.</w>
భాగం,</w>
భాగస్వాములు.</w>
భాగమేనని</w>
భాషా,</w>
భాజ
భాజపా</w>
భాగే
భాగే,</w>
భవించినవే.</w>
భక్తి,</w>
భక్తి
భక్తిశ్రద్ధలతో,</w>
భింబెట్కా</w>
భరతనాట్యం,</w>
భంగ
భంగం</w>
బ్రిటీష్</w>
బ్రిటీషు</w>
బ్రెడ్,</w>
బ్రాడ్‌గేజి</w>
బ్రహ్మపుత్ర,</w>
బ్డ
బ్డే</w>
బౌద్ధులు</w>
బౌద్ధ,</w>
బెంగాల్</w>
బెంగాలీ;</w>
బెంగాలీ.</w>
బెంగుళూరు</w>
బుని
బునిస్తున్నారు.</w>
బుక్</w>
బిన్న
బిన్నత్
బిన్నత్వంలో</w>
బిజ
బిజినెస్</w>
బాబ్డే</w>
బాగా</w>
బాంబ
బాంబే),</w>
బహుమతి</w>
బహుభాషా,</w>
బహు</w>
బహాయీలు</w>
బడతాయి.</w>
బంగ్లాదేశ్‌లలో</w>
బంగ్లాదేశ్‌ల</w>
బంగ్లాదే
బంగ్లాదేశ్,</w>
బంగాళాఖాతం</w>
బ్యాడ్మింటన్‌</w>
బొమ్మ.</w>
బెల్</w>
బహిరంగంగా</w>
బడ్
బడ్జ
బడ్జెట్</w>
బడింది.</w>
బండ
బండ్లను</w>
ఫ్రాన్స్,</w>
ఫుట్‌బాల్‌</w>
ఫలితంగా</w>
ఫలం:</w>
ప్లానెట్</w>
ప్లగ
ప్లగ్గులు:</w>
ప్రారంభించాలనే</w>
ప్రారంభించాలని</w>
ప్రారంభమైన</w>
ప్రార్థనలలో</w>
ప్రాయమైనది.</w>
ప్రాయపడు
ప్రాయపడుతు
ప్రాయపడుతున్నారు.</w>
ప్రాచ్య</w>
ప్రాంతాలు.</w>
ప్రాంతాలతో</w>
ప్రాంతాలకు</w>
ప్రాంతాల</w>
ప్రాముఖ్యతను</w>
ప్రాదేశ
ప్రాదేశిక</w>
ప్రాజా
ప్రాజాస్వామ్య</w>
ప్రాచు
ప్రాచుర్యము</w>
ప్రస్తుత</w>
ప్రయోజనాలు</w>
ప్రయోజనకర
ప్రయోజనకరమేనని</w>
ప్రముఖమైనదే
ప్రముఖమైనదే.</w>
ప్రముఖమైనది</w>
ప్రభుత్వాలన్నీ</w>
ప్రభుత్వంచ
ప్రభుత్వంచే</w>
ప్రభుత్వంలో</w>
ప్రభుత్వం,</w>
ప్రపంచంలోనే</w>
ప్రపంచదేశాలలో</w>
ప్రధానమంత్రిని</w>
ప్రధానమంత్రికి</w>
ప్రదేశ్‌</w>
ప్రదేశే,</w>
ప్రత్యేకమైన</w>
ప్రత్యక్ష
ప్రత్యక్షంగా</w>
ప్రతిపాదనల్లో</w>
ప్రతిపక్షమైంది.</w>
ప్రతిపక్షం</w>
ప్రతిని
ప్రతినిధి
ప్రతినిధిచే</w>
ప్రజాస్వామ్య,</w>
ప్రజలచే</w>
ప్రకారం,</w>
ప్రాసెస్</w>
ప్రాబల్యం</w>
ప్రయాణికుల</w>
ప్రమాణ</w>
ప్రదేశాల</w>
ప్రథ
ప్రథమ</w>
ప్రతి</w>
ప్రణా
ప్రణాళికలు</w>
ప్రజ
ప్రజలకు</w>
ప్రగ
ప్రగతిని</w>
ప్రఖ్య
ప్రఖ్యాతి</w>
ప్పటికీ</w>
ప్పటి</w>
ప్పిలేట్</w>
ప్పించుకోవడానికి,</w>
ప్త
ప్తులకాలం</w>
పౌర</w>
పోస్టలు</w>
పోషకాహార</w>
పోలో,</w>
పోర్చుగల్,</w>
పోరాటం</w>
పోతూ</w>
పోటీ
పోటీలలో</w>
పొందినది.</w>
పొడి
పొడిగ
పొడిగించుకోవచ్చని</w>
పేర్కొన్నాయి.</w>
పేర్కొనవ
పేర్కొనవచ్చు.</w>
పేర్కొంటు
పేర్కొంటున్నారు.</w>
పేరుమీదుగా</w>
పేరుతో</w>
పేస్,మహేష్</w>
పేదర
పేదరికం,</w>
పే,</w>
పెద్దప
పెద్దపులి</w>
పెద్దగా</w>
పెట
పెట్రోలియం,</w>
పూర్వపు</w>
పూర్వం</w>
పూణ
పూణే</w>
పూడి
పూడి,</w>
పురుషులు</w>
పురుషులకు</w>
పురుషుల</w>
పుట్టిల్లు.</w>
పుట్టిని
పుట్టినిల్లయిన</w>
పుట్టుపూర్వోత్తరాలు</w>
పుట్టాయి.</w>
పుష్పం:</w>
పున</w>
పున
పునర్వ్యవస్థీకరణ</w>
పుగా</w>
పీఠభూమితో</w>
పీఠభూమికి</w>
పీఠిక</w>
పిస్తామని</w>
పిలిచారు.</w>
పిన</w>
పావళి,</w>
పాలించ</w>
పాలనలోకి</w>
పాలనలో</w>
పాలయింది</w>
పాలకుల
పాలకులనుండి</w>
పాలక
పాలకులు</w>
పార్లమెంటు</w>
పార్లమెంటరీ</w>
పార్టీల</w>
పార్టీగా</w>
పార్టీలు</w>
పార్టీలతో</w>
పార్టీకి</w>
పార్సీలు,</w>
పారిశ్రామిక</w>
పాకిస్థాన్</w>
పాకిస్థాన్
పాకిస్థాన్కు</w>
పాకిస్తాన్తో</w>
పాకిస్తాన్,</w>
పాండ్యులు</w>
పాధి</w>
పాద</w>
పాక్,</w>
పస్రిద్ధి</w>
పశ్చిమాన</w>
పశ్చిమాన,</w>
పవిత్రంగా</w>
పవిత్ర</w>
పల్లెల్లోని</w>
పల్లవులు,</w>
పర్షియనులు,</w>
పర్వదినాలు,</w>
పర్వతాలతో</w>
పర్యాటక</w>
పరీక్ష
పరీక్షను</w>
పరీక్
పరీక్షలు</w>
పరిశ్రమ.</w>
పరిస్థితి</w>
పరిశోధనా</w>
పరిమితికి</w>
పరిపాలించ</w>
పరిధి
పరిధిలో</w>
పరిఢ
పరిఢవిల్లాయి.</w>
పరోక్ష</w>
పరి</w>
పరమోన్నత</w>
పరమైన</w>
పరచింది.</w>
పద్ధతిలో</w>
పద్ధతి:</w>
పద్ధతులతో</w>
పద్ధతి</w>
పద్ధతులు
పద్ధతులున్నాయి.</w>
పదార్థాలు,</w>
పదవి</w>
పదవి.</w>
పతాకం
పతాకం:</w>
పతాక
పతాకము.</w>
పతకం</w>
పత్యం</w>
పడుతుంది.</w>
పడే</w>
పట్టణాలు</w>
పట్టణాలను</w>
పట్టణాల</w>
పట్టును</w>
పట్టాలెక్కనుంది.</w>
పట్టాలు</w>
పట్టణ</w>
పటంలో</w>
పటం</w>
పక్షం</w>
పకల్పం</w>
పండుగలు,</w>
పండ్లు</w>
పంచె,</w>
పంచుకుంటోంది.</w>
పంచాయతి</w>
పంపిన</w>
పంజాబ
పంజాబీ;</w>
పం.</w>
ప-దేశ
ప-దేశాలు.</w>
పించింది.</w>
పవనాలు</w>
పరాజయం</w>
పది
పదిశాతం</w>
పచ్
పచ్చ
పచ్చజె
పచ్చజెండా</w>
పక్
పక్షి:</w>
న్యాయస్థానమైన</w>
న్యాయవ్యవస్థలో</w>
న్యాయవ్యవస్థ,</w>
న్యాయ</w>
న్నిస్లో</w>
న్నిటిక
న్నిటికంటే</w>
న్ని:</w>
న్‌ఫర్మేషన్</w>
న్లుగా</w>
న్నె
న్నె</w>
న్నవ
న్నవార్లలో</w>
న్నం
న్నం,</w>
నోబెల్</w>
నేరేడు</w>
నేరేడు
నేరేడు"</w>
నేపాలీ;</w>
నేరుగా</w>
నెహ్వాల్</w>
నెహ్రూ—ISBN</w>
నెలకొన్న</w>
నెలకొని</w>
నెరవేరతాయని</w>
నెమలిపావో</w>
నుండి,</w>
నుము,</w>
నున్న</w>
నీపై</w>
నీతి,</w>
నిర్వహణ
నిర్వహణలో</w>
నిర్వాహక</w>
నిర్మిస్తున్న</w>
నిర్మించేది</w>
నిర్మించినందువల్ల</w>
నియమించబడ్
నియమించబడ్డ</w>
నియమించబడిన</w>
నిడివిలో</w>
నిడివిని</w>
నిస్తాన్‌కు</w>
నిషేధం,</w>
నివాసాలు</w>
నివారిస్తారు.</w>
నివల్ల</w>
నిలిచింది.</w>
నిలబెట్టుకున్నాయి.</w>
నిరక్షరాస్యత,</w>
నియోలిథిక్</w>
నిపించింది.</w>
నినప్పటికినీ</w>
నిచ్
నిచ్చింది.</w>
ని,</w>
నాలజీ
నాలజీ,</w>
నాయకత్వాన</w>
నాయకత్వంలో</w>
నాయకుల</w>
నాగరికతకు</w>
నాగరికత.</w>
నాగరికత</w>
నాది</w>
నాటి</w>
నబడిన</w>
నదులు</w>
నది</w>
నడిపించటమూ</w>
