{
  "version": "1.0",
  "truncation": null,
  "padding": null,
  "added_tokens": [
    {
      "id": 0,
      "content": "<unk>",
      "single_word": false,
      "lstrip": false,
      "rstrip": false,
      "normalized": false,
      "special": true
    }
  ],
  "normalizer": {
    "type": "NFKC"
  },
  "pre_tokenizer": {
    "type": "Metaspace",
    "replacement": "▁",
    "prepend_scheme": "never",
    "split": true
  },
  "post_processor": null,
  "decoder": {
    "type": "Metaspace",
    "replacement": "▁",
    "prepend_scheme": "never",
    "split": true
  },
  "model": {
    "type": "BPE",
    "dropout": null,
    "unk_token": "<unk>",
    "continuing_subword_prefix": null,
    "end_of_word_suffix": null,
    "fuse_unk": false,
    "byte_fallback": false,
    "ignore_merges": false,
    "vocab": {
      "<unk>": 0,
      "\n": 1,
      "!": 2,
      "\"": 3,
      "#": 4,
      "$": 5,
      "%": 6,
      "&": 7,
      "'": 8,
      "(": 9,
      ")": 10,
      "*": 11,
      "+": 12,
      ",": 13,
      "-": 14,
      ".": 15,
      "/": 16,
      "0": 17,
      "1": 18,
      "2": 19,
      "3": 20,
      "4": 21,
      "5": 22,
      "6": 23,
      "7": 24,
      "8": 25,
      "9": 26,
      ":": 27,
      ";": 28,
      "<": 29,
      "=": 30,
      ">": 31,
      "?": 32,
      "A": 33,
      "B": 34,
      "C": 35,
      "D": 36,
      "E": 37,
      "F": 38,
      "G": 39,
      "H": 40,
      "I": 41,
      "J": 42,
      "K": 43,
      "L": 44,
      "M": 45,
      "N": 46,
      "O": 47,
      "P": 48,
      "Q": 49,
      "R": 50,
      "S": 51,
      "T": 52,
      "U": 53,
      "V": 54,
      "W": 55,
      "X": 56,
      "Y": 57,
      "Z": 58,
      "[": 59,
      "\\": 60,
      "]": 61,
      "^": 62,
      "_": 63,
      "`": 64,
      "a": 65,
      "b": 66,
      "c": 67,
      "d": 68,
      "e": 69,
      "f": 70,
      "g": 71,
      "h": 72,
      "i": 73,
      "j": 74,
      "k": 75,
      "l": 76,
      "m": 77,
      "n": 78,
      "o": 79,
      "p": 80,
      "q": 81,
      "r": 82,
      "s": 83,
      "t": 84,
      "u": 85,
      "v": 86,
      "w": 87,
      "x": 88,
      "y": 89,
      "z": 90,
      "{": 91,
      "|": 92,
      "}": 93,
      "~": 94,
      "°": 95,
      "·": 96,
      "Ö": 97,
      "ß": 98,
      "á": 99,
      "â": 100,
      "æ": 101,
      "ç": 102,
      "è": 103,
      "é": 104,
      "í": 105,
      "ñ": 106,
      "ö": 107,
      "ü": 108,
      "ā": 109,
      "ī": 110,
      "İ": 111,
      "Ś": 112,
      "ś": 113,
      "ţ": 114,
      "ū": 115,
      "ș": 116,
      "ə": 117,
      "ɦ": 118,
      "ɪ": 119,
      "ɾ": 120,
      "ʊ": 121,
      "ʼ": 122,
      "ˈ": 123,
      "ː": 124,
      "́": 125,
      "ί": 126,
      "α": 127,
      "δ": 128,
      "θ": 129,
      "ν": 130,
      "ο": 131,
      "π": 132,
      "ς": 133,
      "ό": 134,
      "ँ": 135,
      "ं": 136,
      "ः": 137,
      "अ": 138,
      "आ": 139,
      "इ": 140,
      "ई": 141,
      "उ": 142,
      "ऊ": 143,
      "ऋ": 144,
      "ऍ": 145,
      "ए": 146,
      "ऐ": 147,
      "ऑ": 148,
      "ओ": 149,
      "औ": 150,
      "क": 151,
      "ख": 152,
      "ग": 153,
      "घ": 154,
      "ङ": 155,
      "च": 156,
      "छ": 157,
      "ज": 158,
      "झ": 159,
      "ञ": 160,
      "ट": 161,
      "ठ": 162,
      "ड": 163,
      "ढ": 164,
      "ण": 165,
      "त": 166,
      "थ": 167,
      "द": 168,
      "ध": 169,
      "न": 170,
      "प": 171,
      "फ": 172,
      "ब": 173,
      "भ": 174,
      "म": 175,
      "य": 176,
      "र": 177,
      "ल": 178,
      "ळ": 179,
      "व": 180,
      "श": 181,
      "ष": 182,
      "स": 183,
      "ह": 184,
      "़": 185,
      "ा": 186,
      "ि": 187,
      "ी": 188,
      "ु": 189,
      "ू": 190,
      "ृ": 191,
      "े": 192,
      "ै": 193,
      "ॉ": 194,
      "ॊ": 195,
      "ो": 196,
      "ौ": 197,
      "्": 198,
      "।": 199,
      "०": 200,
      "१": 201,
      "२": 202,
      "३": 203,
      "४": 204,
      "५": 205,
      "६": 206,
      "७": 207,
      "८": 208,
      "९": 209,
      "॰": 210,
      "ঁ": 211,
      "ং": 212,
      "ঃ": 213,
      "অ": 214,
      "আ": 215,
      "ই": 216,
      "ঈ": 217,
      "উ": 218,
      "ঊ": 219,
      "ঋ": 220,
      "এ": 221,
      "ঐ": 222,
      "ও": 223,
      "ঔ": 224,
      "ক": 225,
      "খ": 226,
      "গ": 227,
      "ঘ": 228,
      "ঙ": 229,
      "চ": 230,
      "ছ": 231,
      "জ": 232,
      "ঝ": 233,
      "ঞ": 234,
      "ট": 235,
      "ঠ": 236,
      "ড": 237,
      "ঢ": 238,
      "ণ": 239,
      "ত": 240,
      "থ": 241,
      "দ": 242,
      "ধ": 243,
      "ন": 244,
      "প": 245,
      "ফ": 246,
      "ব": 247,
      "ভ": 248,
      "ম": 249,
      "য": 250,
      "র": 251,
      "ল": 252,
      "শ": 253,
      "ষ": 254,
      "স": 255,
      "হ": 256,
      "়": 257,
      "া": 258,
      "ি": 259,
      "ী": 260,
      "ু": 261,
      "ূ": 262,
      "ৃ": 263,
      "ে": 264,
      "ৈ": 265,
      "ো": 266,
      "ৌ": 267,
      "্": 268,
      "ৎ": 269,
      "০": 270,
      "১": 271,
      "২": 272,
      "৩": 273,
      "৪": 274,
      "৫": 275,
      "৬": 276,
      "৭": 277,
      "৮": 278,
      "৯": 279,
      "ం": 280,
      "ః": 281,
      "అ": 282,
      "ఆ": 283,
      "ఇ": 284,
      "ఈ": 285,
      "ఉ": 286,
      "ఋ": 287,
      "ఎ": 288,
      "ఏ": 289,
      "ఐ": 290,
      "ఒ": 291,
      "ఓ": 292,
      "ఔ": 293,
      "క": 294,
      "ఖ": 295,
      "గ": 296,
      "ఘ": 297,
      "చ": 298,
      "ఛ": 299,
      "జ": 300,
      "ఞ": 301,
      "ట": 302,
      "ఠ": 303,
      "డ": 304,
      "ఢ": 305,
      "ణ": 306,
      "త": 307,
      "థ": 308,
      "ద": 309,
      "ధ": 310,
      "న": 311,
      "ప": 312,
      "ఫ": 313,
      "బ": 314,
      "భ": 315,
      "మ": 316,
      "య": 317,
      "ర": 318,
      "ల": 319,
      "ళ": 320,
      "వ": 321,
      "శ": 322,
      "ష": 323,
      "స": 324,
      "హ": 325,
      "ా": 326,
      "ి": 327,
      "ీ": 328,
      "ు": 329,
      "ూ": 330,
      "ృ": 331,
      "ె": 332,
      "ే": 333,
      "ై": 334,
      "ొ": 335,
      "ో": 336,
      "ౌ": 337,
      "్": 338,
      "ṅ": 339,
      "ṇ": 340,
      "Ṛ": 341,
      "ṣ": 342,
      "ṭ": 343,
      "Ἰ": 344,
      "‌": 345,
      "‍": 346,
      "‎": 347,
      "–": 348,
      "—": 349,
      "‘": 350,
      "’": 351,
      "“": 352,
      "”": 353,
      "†": 354,
      "•": 355,
      "′": 356,
      "‹": 357,
      "›": 358,
      "⁡": 359,
      "₹": 360,
      "↑": 361,
      "−": 362,
      "▁": 363,
      "﻿": 364,
      "](": 365,
      "./": 366,
      "](./": 367,
      "▁[": 368,
      "nd": 369,
      "▁\"": 370,
      "ia": 371,
      "\")": 372,
      "te": 373,
      "in": 374,
      "on": 375,
      "ndia": 376,
      "th": 377,
      "re": 378,
      "ti": 379,
      "India": 380,
      "er": 381,
      "or": 382,
      "20": 383,
      "ar": 384,
      "an": 385,
      "al": 386,
      "en": 387,
      "ार": 388,
      "of": 389,
      "es": 390,
      "ed": 391,
      "▁*": 392,
      "▁क": 393,
      "is": 394,
      "ci": 395,
      "्र": 396,
      "tion": 397,
      "the": 398,
      "om": 399,
      "▁a": 400,
      "te_": 401,
      "#ci": 402,
      "#cite_": 403,
      "it": 404,
      "भार": 405,
      "भारत": 406,
      "ার": 407,
      "▁of": 408,
      "//": 409,
      "\")\n": 410,
      "▁the": 411,
      "ht": 412,
      "ou": 413,
      "▁स": 414,
      "ic": 415,
      "as": 416,
      "tp": 417,
      "201": 418,
      "http": 419,
      "://": 420,
      "](./India": 421,
      "▁(": 422,
      "id": 423,
      "le": 424,
      "▁India": 425,
      "19": 426,
      "la": 427,
      "ch": 428,
      "oo": 429,
      "no": 430,
      "OT": 431,
      "▁म": 432,
      "g/": 433,
      "्य": 434,
      "ra": 435,
      "్ర": 436,
      "▁p": 437,
      "▁in": 438,
      "্র": 439,
      "200": 440,
      "](http": 441,
      "-0": 442,
      "▁s": 443,
      "ভার": 444,
      "য়": 445,
      "ভারত": 446,
      "iv": 447,
      "▁and": 448,
      "ent": 449,
      "रा": 450,
      "-1": 451,
      "](./India#cite_": 452,
      "s://": 453,
      "▁प": 454,
      "ing": 455,
      "ref": 456,
      "et": 457,
      "\\(": 458,
      "\\)": 459,
      "wi": 460,
      "com": 461,
      "lo": 462,
      "note": 463,
      "us": 464,
      "am": 465,
      "ార": 466,
      "[[": 467,
      ".or": 468,
      "▁A": 469,
      "ri": 470,
      "](https://": 471,
      "▁\n": 472,
      "at": 473,
      ".org/": 474,
      "ें": 475,
      "um": 476,
      "▁1": 477,
      "ान": 478,
      "ec": 479,
      "▁S": 480,
      "ook": 481,
      "we": 482,
      "ad": 483,
      "ref-": 484,
      "note-": 485,
      "ist": 486,
      "▁के": 487,
      "ww": 488,
      "र्": 489,
      "ation": 490,
      "](./भारत": 491,
      "ge": 492,
      "▁C": 493,
      "ki": 494,
      ").": 495,
      "▁f": 496,
      "▁ह": 497,
      "ের": 498,
      "্য": 499,
      "of_": 500,
      "_of_": 501,
      "्त": 502,
      "78": 503,
      "li": 504,
      "▁c": 505,
      "▁t": 506,
      "▁b": 507,
      "edia": 508,
      "▁P": 509,
      "ac": 510,
      "wiki": 511,
      "ur": 512,
      "ons": 513,
      "IS": 514,
      "he": 515,
      "ang": 516,
      "▁[↑": 517,
      "\"),": 518,
      "fi": 519,
      "b/": 520,
      "ter": 521,
      "▁m": 522,
      "BN": 523,
      "ov": 524,
      "ISBN": 525,
      "ాల": 526,
      "िक": 527,
      "या": 528,
      "FO": 529,
      "NOT": 530,
      "OTNOT": 531,
      "FOOTNOT": 532,
      "FOOTNOTE": 533,
      "▁में": 534,
      "978": 535,
      "red": 536,
      "res": 537,
      "and": 538,
      "ीय": 539,
      "్య": 540,
      "il": 541,
      "enti": 542,
      "ial": 543,
      "lin": 544,
      "▁अ": 545,
      "**": 546,
      ".\n": 547,
      "ce": 548,
      "21": 549,
      "identi": 550,
      "er\\)": 551,
      "identifi": 552,
      "\\(identifi": 553,
      "\\(identifier\\)": 554,
      "▁স": 555,
      "00": 556,
      "em": 557,
      "భార": 558,
      "భారత": 559,
      ")\n": 560,
      "ol": 561,
      "స్": 562,
      "▁201": 563,
      "దే": 564,
      "▁M": 565,
      "▁d": 566,
      "ों": 567,
      "our": 568,
      "up": 569,
      "▁T": 570,
      "তি": 571,
      "దేశ": 572,
      "]](./India#cite_": 573,
      "▁R": 574,
      "ro": 575,
      "](./India#cite_ref-": 576,
      "]](./India#cite_note-": 577,
      "वि": 578,
      "](./ভারত": 579,
      "ना": 580,
      "-0)": 581,
      "ers": 582,
      "ন্": 583,
      "▁w": 584,
      "▁ప": 585,
      "),": 586,
      "book": 587,
      "ul": 588,
      "▁2": 589,
      "ate": 590,
      "▁ज": 591,
      "র্": 592,
      "्ष": 593,
      "tic": 594,
      "jp": 595,
      "సా": 596,
      "=1": 597,
      "বি": 598,
      "edit": 599,
      "_क": 600,
      "ig": 601,
      "ाल": 602,
      "link": 603,
      "▁B": 604,
      "▁है": 605,
      ".jp": 606,
      "arch": 607,
      "▁to": 608,
      "ind": 609,
      ".com": 610,
      "▁द": 611,
      "action": 612,
      "](./भारत#cite_": 613,
      "books": 614,
      "es/": 615,
      "action=": 616,
      "action=edit": 617,
      "त्र": 618,
      "&red": 619,
      "?action=edit": 620,
      "link=1": 621,
      "&redlink=1": 622,
      "?action=edit&redlink=1": 623,
      "న్": 624,
      "▁প": 625,
      "राज": 626,
      ".g": 627,
      ".com/": 628,
      "▁**": 629,
      "10": 630,
      "न्": 631,
      "ment": 632,
      "ेश": 633,
      "▁D": 634,
      "▁_": 635,
      "ir": 636,
      "ion": 637,
      "िया": 638,
      "ర్": 639,
      "50": 640,
      "-2": 641,
      "www": 642,
      "IT": 643,
      "india": 644,
      "In": 645,
      "op": 646,
      "और": 647,
      "ান": 648,
      "st": 649,
      "g)": 650,
      "ity": 651,
      "age": 652,
      "www.": 653,
      "ive": 654,
      "▁ब": 655,
      "ER": 656,
      "pec": 657,
      "▁की": 658,
      "▁भारत": 659,
      "ंग": 660,
      "EF": 661,
      "un": 662,
      "ITER": 663,
      "ly": 664,
      "▁प्र": 665,
      "ला": 666,
      "ITEREF": 667,
      "▁h": 668,
      "sia": 669,
      "▁\"S": 670,
      "▁त": 671,
      "40": 672,
      "्व": 673,
      "ak": 674,
      "](./S": 675,
      "ev": 676,
      "भा": 677,
      "▁न": 678,
      "▁से": 679,
      "ক্": 680,
      "_India": 681,
      "angu": 682,
      "sh": 683,
      "▁E": 684,
      "pedia": 685,
      "ay": 686,
      "▁19": 687,
      "▁और": 688,
      "Un": 689,
      "tu": 690,
      "pecial": 691,
      "▁[↑](./India#cite_ref-": 692,
      "లు": 693,
      "comm": 694,
      ".org/wiki": 695,
      "▁का": 696,
      "రా": 697,
      "_स": 698,
      "\").": 699,
      "sv": 700,
      "px": 701,
      "ld": 702,
      "al_": 703,
      "30": 704,
      "▁H": 705,
      ".wiki": 706,
      "media": 707,
      "pecial:": 708,
      "·**": 709,
      "▁**·**": 710,
      "_A": 711,
      "ता": 712,
      "#C": 713,
      ".sv": 714,
      "ew": 715,
      "्ट": 716,
      "ourc": 717,
      "#CITEREF": 718,
      "202": 719,
      "▁N": 720,
      "web": 721,
      "load": 722,
      "upload": 723,
      "archive": 724,
      "▁G": 725,
      ".wikimedia": 726,
      ".wikimedia.org/wiki": 727,
      "ag": 728,
      "11": 729,
      "](//": 730,
      "_S": 731,
      "el": 732,
      "outh": 733,
      "pedia/": 734,
      "upload.wikimedia.org/wiki": 735,
      "](//upload.wikimedia.org/wiki": 736,
      "](//upload.wikimedia.org/wikipedia/": 737,
      "ory": 738,
      "![": 739,
      "%2": 740,
      "স্": 741,
      "భారతదేశ": 742,
      "thum": 743,
      "ep": 744,
      "978-0": 745,
      "▁l": 746,
      ".శ": 747,
      ".శ.": 748,
      "/thum": 749,
      "ীয়": 750,
      "/thumb/": 751,
      "లో": 752,
      "px-": 753,
      "ources/": 754,
      "--": 755,
      "ub": 756,
      "సా.శ.": 757,
      "commons": 758,
      "ress": 759,
      "Book": 760,
      ".p": 761,
      "](//upload.wikimedia.org/wikipedia/commons": 762,
      "tr": 763,
      "ap": 764,
      "im": 765,
      "rom": 766,
      "-3": 767,
      "Sources/": 768,
      "pecial:Book": 769,
      "pecial:BookSources/": 770,
      "-8": 771,
      "archive.org/": 772,
      "](//upload.wikimedia.org/wikipedia/commons/thumb/": 773,
      "▁\"भारत": 774,
      "▁200": 775,
      "cal": 776,
      "12": 777,
      "త్ర": 778,
      "▁e": 779,
      "_in": 780,
      "াল": 781,
      "स्त": 782,
      "িক": 783,
      "राज्य": 784,
      "The": 785,
      ".in": 786,
      "▁•": 787,
      "▁క": 788,
      "▁[\"": 789,
      "▁व": 790,
      "ern": 791,
      "क्ष": 792,
      "ित": 793,
      "web.": 794,
      "▁on": 795,
      "](https://web.": 796,
      "न्द": 797,
      "দ্": 798,
      "/http": 799,
      "web/": 800,
      "archive.org/web/": 801,
      "](https://web.archive.org/web/": 802,
      "_of_India": 803,
      "_\\(identifier\\)": 804,
      "▁\\(identifier\\)": 805,
      "ary": 806,
      "▁\\(identifier\\)\")": 807,
      "calf": 808,
      "od": 809,
      "▁re": 810,
      "ాలు": 811,
      "-4": 812,
      "ber": 813,
      "రి": 814,
      "রা": 815,
      "▁অ": 816,
      "etcalf": 817,
      "క్": 818,
      "▁आ": 819,
      "ted": 820,
      "ত্র": 821,
      "ంద": 822,
      "av": 823,
      "rit": 824,
      "पु": 825,
      "षा": 826,
      "ish": 827,
      "বা": 828,
      "mp": 829,
      "▁g": 830,
      "ts": 831,
      "ति": 832,
      "ని": 833,
      "▁వ": 834,
      "199": 835,
      "ab": 836,
      "for": 837,
      "-5": 838,
      "ास": 839,
      "ivers": 840,
      "](./India#CITEREF": 841,
      "](./ভারত#cite_": 842,
      "n_": 843,
      "hi": 844,
      "orld": 845,
      ".[[": 846,
      "▁n": 847,
      "▁ম": 848,
      "▁th": 849,
      "anguage": 850,
      "\")|": 851,
      "oun": 852,
      "▁J": 853,
      "स्": 854,
      "26": 855,
      "▁F": 856,
      "▁২": 857,
      "▁India\")\n": 858,
      "ల్": 859,
      "18": 860,
      "▁ক": 861,
      "्रे": 862,
      "▁or": 863,
      "con": 864,
      "▁3": 865,
      "os": 866,
      "id=": 867,
      "▁from": 868,
      "భారతదేశం": 869,
      "▁L": 870,
      "gle": 871,
      "]](./India#cite_note-FOOTNOTE": 872,
      "a_": 873,
      "ast": 874,
      "भाषा": 875,
      "টি": 876,
      "▁[S": 877,
      "Metcalf": 878,
      "ంగ": 879,
      "▁को": 880,
      "সা": 881,
      "मा": 882,
      "iversity": 883,
      "]](./भारत#cite_": 884,
      "था": 885,
      "▁by": 886,
      "▁উ": 887,
      "ud": 888,
      "▁p.": 889,
      "হা": 890,
      "](./ISBN": 891,
      "▁\"ISBN": 892,
      "](./ISBN_\\(identifier\\)": 893,
      "▁([": 894,
      "oogle": 895,
      "AA": 896,
      "▁ग": 897,
      "s_": 898,
      "ची": 899,
      "री": 900,
      ".jpg)": 901,
      "▁స": 902,
      "▁\"ভারত": 903,
      "দ্ধ": 904,
      "17": 905,
      "e_": 906,
      "?id=": 907,
      "books.g": 908,
      ".com/books": 909,
      "oogle.com/books": 910,
      "books.google.com/books": 911,
      "▁మ": 912,
      "books.google.com/books?id=": 913,
      "oc": 914,
      "देश": 915,
      "▁उ": 916,
      "్రా": 917,
      "▁पर": 918,
      "ain": 919,
      "uc": 920,
      "▁W": 921,
      "▁K": 922,
      "▁Indian": 923,
      "▁O": 924,
      "▁ए": 925,
      "har": 926,
      ".gov": 927,
      "13": 928,
      "ष्ट": 929,
      "ाद": 930,
      "▁is": 931,
      "▁है।": 932,
      "15": 933,
      "16": 934,
      "▁ত": 935,
      "▁\"C": 936,
      "List": 937,
      "est": 938,
      "-9": 939,
      "978-1": 940,
      "ক্ষ": 941,
      "##": 942,
      "ड़": 943,
      "ీయ": 944,
      "-7": 945,
      "▁I": 946,
      "_के": 947,
      ".in/": 948,
      "28": 949,
      "ut": 950,
      "](./C": 951,
      "▁श": 952,
      "▁for": 953,
      "s/": 954,
      "▁এ": 955,
      "ational": 956,
      "ండ": 957,
      "▁[A": 958,
      "24": 959,
      "err": 960,
      "ens": 961,
      "'s": 962,
      "_म": 963,
      "ष्ट्र": 964,
      "23": 965,
      "ৃতি": 966,
      "▁[ISBN": 967,
      "▁सं": 968,
      "](http://": 969,
      "विश": 970,
      "▁Asia": 971,
      "ারি": 972,
      "](https://books.google.com/books?id=": 973,
      "ের_": 974,
      "▁[ISBN](./ISBN_\\(identifier\\)": 975,
      "late": 976,
      "14": 977,
      "ore": 978,
      "ने": 979,
      "జ్య": 980,
      "▁[म": 981,
      "log": 982,
      "_\\(": 983,
      "University": 984,
      "_and": 985,
      "िल": 986,
      "ভা": 987,
      "](./भारत#cite_ref-": 988,
      "]](./भारत#cite_note-": 989,
      "p.": 990,
      "का": 991,
      "▁చ": 992,
      "▁প্র": 993,
      "_in_India": 994,
      "o-": 995,
      "25": 996,
      "ेत्र": 997,
      "কা": 998,
      "ha": 999,
      "og": 1000,
      "▁\\(": 1001,
      "प्र": 1002,
      "_P": 1003,
      "istory": 1004,
      "తా": 1005,
      "েশ": 1006,
      "art": 1007,
      "lation": 1008,
      "land": 1009,
      "![](//upload.wikimedia.org/wikipedia/commons/thumb/": 1010,
      "70": 1011,
      "ff": 1012,
      "ము": 1013,
      "lag": 1014,
      "सा": 1015,
      "నా": 1016,
      "▁ल": 1017,
      "▁[C": 1018,
      "PA": 1019,
      "తి": 1020,
      "్ట": 1021,
      "▁ও": 1022,
      "_के_": 1023,
      "▁The": 1024,
      "▁ব": 1025,
      "▁২০": 1026,
      "म्": 1027,
      "▁ন": 1028,
      "▁इ": 1029,
      "्या": 1030,
      "90": 1031,
      "with": 1032,
      "&p": 1033,
      "ort": 1034,
      "Har": 1035,
      "aj": 1036,
      "▁\"M": 1037,
      "ct": 1038,
      "हि": 1039,
      "ी](./": 1040,
      "▁ভারত": 1041,
      "ot": 1042,
      "िय": 1043,
      "-6": 1044,
      "inal": 1045,
      ")[[": 1046,
      "ys": 1047,
      "তা": 1048,
      "error": 1049,
      "br": 1050,
      "త్": 1051,
      "pecial:BookSources/978-0": 1052,
      "ik": 1053,
      "▁be": 1054,
      "సి": 1055,
      "▁4": 1056,
      "ma": 1057,
      "ism": 1058,
      "und": 1059,
      "▁pp.": 1060,
      "60": 1061,
      "सं": 1062,
      "▁জ": 1063,
      "▁In": 1064,
      "](https://web.archive.org/web/201": 1065,
      "g=": 1066,
      "umm": 1067,
      "ong": 1068,
      "ance": 1069,
      "▁[↑](./India#cite_ref-FOOTNOTE": 1070,
      "ow": 1071,
      "त्त": 1072,
      "▁र": 1073,
      "&pg=": 1074,
      "rad": 1075,
      ")।": 1076,
      "ज़": 1077,
      ".svg": 1078,
      "য়ে": 1079,
      "▁আ": 1080,
      "▁হ": 1081,
      "htm": 1082,
      "দ্ধৃতি": 1083,
      "_.": 1084,
      "](./M": 1085,
      "tern": 1086,
      "cy": 1087,
      "ন্দ": 1088,
      ".pn": 1089,
      "0%": 1090,
      "lig": 1091,
      "্ব": 1092,
      "কে": 1093,
      "tein": 1094,
      "Flag": 1095,
      "▁|": 1096,
      "hic": 1097,
      "---": 1098,
      "▁[M": 1099,
      "र्व": 1100,
      "](https://www.": 1101,
      "35": 1102,
      "ंड": 1103,
      "ులు": 1104,
      "▁202": 1105,
      "ture": 1106,
      ".png)": 1107,
      "1.": 1108,
      "▁as": 1109,
      "tim": 1110,
      "all": 1111,
      "&pg=PA": 1112,
      "-19": 1113,
      "_C": 1114,
      "nic": 1115,
      "াত": 1116,
      "िस": 1117,
      "యా": 1118,
      "ి.": 1119,
      "–సా.శ.": 1120,
      "▁రా": 1121,
      "tate": 1122,
      "राष्ट्र": 1123,
      ".svg/": 1124,
      "tri": 1125,
      "47": 1126,
      ".svg.png)": 1127,
      "_D": 1128,
      "चि": 1129,
      "▁(సా.శ.": 1130,
      "▁Press": 1131,
      "overn": 1132,
      ".jpg)](./": 1133,
      "Ind": 1134,
      "/http://": 1135,
      "ans": 1136,
      ".jpg/": 1137,
      "temp": 1138,
      "ी_": 1139,
      "esh": 1140,
      "▁\"B": 1141,
      "▁orig": 1142,
      "_M": 1143,
      "▁[B": 1144,
      "ass": 1145,
      "rch": 1146,
      "▁అ": 1147,
      "▁सा": 1148,
      "्षेत्र": 1149,
      "▁\"P": 1150,
      "38": 1151,
      "ian": 1152,
      "ther": 1153,
      "িয়": 1154,
      "্চ": 1155,
      "ిక": 1156,
      "ence": 1157,
      "-10": 1158,
      "ubl": 1159,
      "▁\"A": 1160,
      "emp": 1161,
      "▁राज्य": 1162,
      "▁ప్ర": 1163,
      "titu": 1164,
      "ারিখ": 1165,
      "](./B": 1166,
      "27": 1167,
      "मन": 1168,
      "తం": 1169,
      "▁বি": 1170,
      "ana": 1171,
      "ank": 1172,
      "istan": 1173,
      "ear": 1174,
      "ले": 1175,
      "▁_[": 1176,
      "▁original": 1177,
      "ry": 1178,
      "ug": 1179,
      "](./P": 1180,
      "▁সং": 1181,
      "ile": 1182,
      "ensus": 1183,
      "जा": 1184,
      "पा": 1185,
      "▁भाषा": 1186,
      "2018": 1187,
      "2006": 1188,
      "▁তারিখ": 1189,
      "ulation": 1190,
      "▁University": 1191,
      "2.": 1192,
      "ex": 1193,
      "▁\"म": 1194,
      "eved": 1195,
      "48": 1196,
      "▁with": 1197,
      "▁Ret": 1198,
      "ిన": 1199,
      "▁हैं": 1200,
      "జ్యం": 1201,
      "ard": 1202,
      "ss": 1203,
      "▁শ": 1204,
      "rieved": 1205,
      "▁Retrieved": 1206,
      "oi": 1207,
      "▁भ": 1208,
      "▁य": 1209,
      "tiv": 1210,
      "ke": 1211,
      "।[[": 1212,
      "িত": 1213,
      "Indian": 1214,
      "প্র": 1215,
      "ষ্": 1216,
      "overnment": 1217,
      "_p": 1218,
      "opulation": 1219,
      "ef": 1220,
      "ived": 1221,
      "conom": 1222,
      "36": 1223,
      "णी": 1224,
      "కు": 1225,
      "జా": 1226,
      "্যা": 1227,
      "s,": 1228,
      "ूची": 1229,
      "▁वि": 1230,
      "/https://": 1231,
      "2011": 1232,
      "লে": 1233,
      "\"))\n": 1234,
      "ies": 1235,
      "ire": 1236,
      "गर": 1237,
      "লা": 1238,
      "ంచ": 1239,
      "ummit": 1240,
      "7.": 1241,
      "▁r": 1242,
      "E0%": 1243,
      "▁দ": 1244,
      "]](./ভারত#cite_": 1245,
      "েম": 1246,
      "try": 1247,
      "](./భారతదేశం": 1248,
      "▁[↑](./भारत#cite_ref-": 1249,
      "9.": 1250,
      "ite": 1251,
      "arg": 1252,
      "▁no": 1253,
      "ust": 1254,
      "ages": 1255,
      "ेला": 1256,
      "ను": 1257,
      "పూ": 1258,
      "▁&": 1259,
      "हा": 1260,
      "eral": 1261,
      "▁20": 1262,
      "df": 1263,
      "ప్ర": 1264,
      "భా": 1265,
      "▁\"T": 1266,
      "54": 1267,
      "कार": 1268,
      "क्त": 1269,
      "पर": 1270,
      "িল": 1271,
      "▁[P": 1272,
      "▁कर": 1273,
      "▁\"ভারতের": 1274,
      "_T": 1275,
      "_s": 1276,
      "%2C": 1277,
      "िर": 1278,
      "ोल": 1279,
      "ঙ্": 1280,
      "](./ভারতের_": 1281,
      "hm": 1282,
      "rchived": 1283,
      "%E0%": 1284,
      "artic": 1285,
      ".htm": 1286,
      "कि": 1287,
      "मी": 1288,
      "ద్": 1289,
      "](./T": 1290,
      "-p": 1291,
      "▁was": 1292,
      "_B": 1293,
      "ింద": 1294,
      "ll": 1295,
      "য্য": 1296,
      "হায্য": 1297,
      "ric": 1298,
      "সাহায্য": 1299,
      "हिन्द": 1300,
      "▁V": 1301,
      "▁\"E": 1302,
      "Hind": 1303,
      "Stein": 1304,
      "▁ex": 1305,
      "onstitu": 1306,
      "5.": 1307,
      "ंध": 1308,
      "ेष": 1309,
      "](./म": 1310,
      "33": 1311,
      "Harv": 1312,
      "▁ఉ": 1313,
      "ord": 1314,
      "ाना": 1315,
      "sher": 1316,
      "ine": 1317,
      "orth": 1318,
      "80": 1319,
      "_N": 1320,
      "द्": 1321,
      "ৃত": 1322,
      "▁ఆ": 1323,
      "▁क्षेत्र": 1324,
      "ंग्रे": 1325,
      "ford": 1326,
      "▁language": 1327,
      "ট্র": 1328,
      "▁an": 1329,
      "anguages": 1330,
      "iss": 1331,
      "56": 1332,
      "QB": 1333,
      "end": 1334,
      "वा": 1335,
      "र्म": 1336,
      "AJ": 1337,
      "se": 1338,
      "ভাষ": 1339,
      "errors": 1340,
      "Flag_of_": 1341,
      "%E0%A": 1342,
      "/0": 1343,
      "▁v": 1344,
      "reas": 1345,
      "ess": 1346,
      "ical": 1347,
      "_](https://books.google.com/books?id=": 1348,
      "ai": 1349,
      "धान": 1350,
      "ोत": 1351,
      "▁अन": 1352,
      "QBAJ": 1353,
      "250": 1354,
      "hin": 1355,
      "](./A": 1356,
      "গ্র": 1357,
      "▁\"D": 1358,
      "4.": 1359,
      "ach": 1360,
      "per": 1361,
      "भि": 1362,
      "श्": 1363,
      "से": 1364,
      "▁[আ": 1365,
      "्रेणी": 1366,
      "eg": 1367,
      "](./D": 1368,
      "xford": 1369,
      "_b": 1370,
      "](./E": 1371,
      "మా": 1372,
      "\").\n": 1373,
      "▁ने": 1374,
      "ountri": 1375,
      "ition": 1376,
      "rou": 1377,
      "श्रेणी": 1378,
      "থা": 1379,
      "প্": 1380,
      "বই": 1381,
      "రు": 1382,
      "▁it": 1383,
      "▁సా": 1384,
      "्रा": 1385,
      "omm": 1386,
      "భారతీయ": 1387,
      "22": 1388,
      "ingh": 1389,
      ":Harv": 1390,
      "2010": 1391,
      "धार": 1392,
      "মা": 1393,
      "వా": 1394,
      "विशेष": 1395,
      "erv": 1396,
      "46": 1397,
      "\\.": 1398,
      "_R": 1399,
      "।\n": 1400,
      "রি": 1401,
      "AAQBAJ": 1402,
      "fn": 1403,
      "▁ర": 1404,
      "▁Hind": 1405,
      "_Asia": 1406,
      "29": 1407,
      "উদ্ধৃতি": 1408,
      "ata": 1409,
      "ভাষা": 1410,
      "ib": 1411,
      "ी\")": 1412,
      "ृत": 1413,
      "লি": 1414,
      "వి": 1415,
      "lop": 1416,
      ".pdf": 1417,
      ".pdf)": 1418,
      "au": 1419,
      "ited": 1420,
      "▁[978-0": 1421,
      "als": 1422,
      "39": 1423,
      "77": 1424,
      "ction": 1425,
      "ష్ట": 1426,
      "▁১": 1427,
      "ark": 1428,
      "ార్": 1429,
      "ीय_": 1430,
      "పూ.": 1431,
      "ue": 1432,
      "▁[2": 1433,
      "▁[↑](./ভারত#cite_": 1434,
      "3.": 1435,
      "59": 1436,
      "ँच": 1437,
      "ंद": 1438,
      "ंत्र": 1439,
      "ूल": 1440,
      "ेल": 1441,
      "রে": 1442,
      "](./List": 1443,
      "▁\"G": 1444,
      "▁\"अ": 1445,
      "▁\"List": 1446,
      "eng": 1447,
      "▁ति": 1448,
      "udd": 1449,
      "▁एक": 1450,
      "থে": 1451,
      "ublic": 1452,
      "के": 1453,
      "▁पु": 1454,
      "స్థ": 1455,
      "రిత్ర": 1456,
      "క్ష": 1457,
      "विशेष:": 1458,
      "IC": 1459,
      "new": 1460,
      "tem": 1461,
      "onom": 1462,
      "oli": 1463,
      "ange": 1464,
      "MetcalfMetcalf": 1465,
      "ame": 1466,
      "..": 1467,
      "_G": 1468,
      "মি": 1469,
      "ani": 1470,
      ".gov.in/": 1471,
      "▁are": 1472,
      "स्तान": 1473,
      "](./G": 1474,
      "/c": 1475,
      ":বই": 1476,
      "िण": 1477,
      "ोग": 1478,
      "▁[अ": 1479,
      "న్న": 1480,
      "ah": 1481,
      "-1)": 1482,
      "ty": 1483,
      "ূল": 1484,
      "▁থে": 1485,
      "বিশ": 1486,
      "রাজ": 1487,
      "▁থেকে": 1488,
      "74": 1489,
      "8.": 1490,
      "▁2011": 1491,
      "লী": 1492,
      "▁\"N": 1493,
      "](./List_of_": 1494,
      "সং": 1495,
      "▁[1": 1496,
      "other": 1497,
      "6.": 1498,
      "ath": 1499,
      "না": 1500,
      "▁[D": 1501,
      "ountries": 1502,
      "PD": 1503,
      "cl": 1504,
      "2004": 1505,
      ",_": 1506,
      "34": 1507,
      "ीप": 1508,
      "েষ": 1509,
      "2009": 1510,
      "▁प्रदेश": 1511,
      "pecial:BookSources/978-1": 1512,
      "श्रेणी:Harv": 1513,
      "language": 1514,
      "ions": 1515,
      "tin": 1516,
      ").\n": 1517,
      "ta": 1518,
      "गमन": 1519,
      "थि": 1520,
      "](./N": 1521,
      "▁\"स": 1522,
      "out": 1523,
      "क्षिण": 1524,
      "]](./ভারত#cite_note-": 1525,
      "1)": 1526,
      "rap": 1527,
      "▁২০০": 1528,
      "hich": 1529,
      "द्य": 1530,
      "नी": 1531,
      "यु": 1532,
      "ी_स": 1533,
      "যু": 1534,
      "](./భారతదేశం#cite_": 1535,
      "▁तिथि": 1536,
      "▁\"R": 1537,
      "▁[N": 1538,
      "icial": 1539,
      "gen": 1540,
      "ून": 1541,
      "గా": 1542,
      "\"))": 1543,
      "▁we": 1544,
      "](./R": 1545,
      "▁[![": 1546,
      "\")_": 1547,
      "▁which": 1548,
      "eve": 1549,
      "/p": 1550,
      "s.": 1551,
      "ంట": 1552,
      "కి": 1553,
      "▁ख": 1554,
      "▁१": 1555,
      "▁तिथि:": 1556,
      "_E": 1557,
      "gl": 1558,
      "ese": 1559,
      "ties": 1560,
      "▁con": 1561,
      "ঙ্গ": 1562,
      "PDF": 1563,
      "ম্": 1564,
      "িন": 1565,
      "మ్రా": 1566,
      "▁भारतीय": 1567,
      "250px-": 1568,
      "ష్ట్ర": 1569,
      "United": 1570,
      "AAQBAJ&pg=PA": 1571,
      "ৈলী": 1572,
      "▁at": 1573,
      "▁(PDF": 1574,
      "onstitution": 1575,
      "3)": 1576,
      "37": 1577,
      "जन": 1578,
      "ढ़": 1579,
      "धिक": 1580,
      "কার": 1581,
      "কৃত": 1582,
      "ంత": 1583,
      "▁[भारत": 1584,
      "▁India's": 1585,
      "▁अभि": 1586,
      "▁देश": 1587,
      "tive": 1588,
      "▁अभिगमन": 1589,
      "▁7": 1590,
      "me": 1591,
      "ত্": 1592,
      "row": 1593,
      "bot": 1594,
      "fe": 1595,
      "albot": 1596,
      "ood": 1597,
      "▁South": 1598,
      "to": 1599,
      "धर्म": 1600,
      "ুটি": 1601,
      "ৎস": 1602,
      "ren": 1603,
      "्री": 1604,
      "्रोत": 1605,
      "riti": 1606,
      "▁जन": 1607,
      "▁तथा": 1608,
      "▁\"भारतीय": 1609,
      "▁199": 1610,
      "-d": 1611,
      "RIC": 1612,
      "▁\"Special:BookSources/978-0": 1613,
      "](./Special:BookSources/978-0": 1614,
      "creas": 1615,
      "▁[G": 1616,
      "▁has": 1617,
      "ni": 1618,
      "world": 1619,
      "ती": 1620,
      "त्": 1621,
      "बर": 1622,
      "పు": 1623,
      "▁च": 1624,
      "▁\"क": 1625,
      "](http://www.": 1626,
      "times": 1627,
      ".nic": 1628,
      "▁that": 1629,
      "-s": 1630,
      "amil": 1631,
      "ন্ত্র": 1632,
      "▁[T": 1633,
      "tics": 1634,
      "57": 1635,
      "Asher": 1636,
      "हर": 1637,
      "ूर्व": 1638,
      "्ल": 1639,
      "▁న": 1640,
      "2)": 1641,
      "▁8": 1642,
      "akistan": 1643,
      "▁18": 1644,
      "40px-": 1645,
      "elhi": 1646,
      "idge": 1647,
      "evelop": 1648,
      "49": 1649,
      ":উদ্ধৃতি": 1650,
      "ost": 1651,
      "मान": 1652,
      "वं": 1653,
      "మి": 1654,
      "ాన": 1655,
      "िका": 1656,
      "स्तक": 1657,
      "पुस्तक": 1658,
      "विशेष:पुस्तक": 1659,
      "्रोत/": 1660,
      "ile:": 1661,
      "_m": 1662,
      "ob": 1663,
      "ond": 1664,
      "টেম": 1665,
      "▁[R": 1666,
      "000": 1667,
      "▁En": 1668,
      "logy": 1669,
      ".svg/40px-": 1670,
      "▁5": 1671,
      "▁India\")": 1672,
      "పా": 1673,
      "▁[स": 1674,
      "ult": 1675,
      "▁जा": 1676,
      "▁[Archived": 1677,
      "राष्ट्रीय": 1678,
      "భాష": 1679,
      "द्ध": 1680,
      "ँचा": 1681,
      "ten": 1682,
      "inist": 1683,
      "20px-": 1684,
      "▁ch": 1685,
      "territ": 1686,
      "বিশেষ": 1687,
      "%20": 1688,
      "rav": 1689,
      "sland": 1690,
      "दी": 1691,
      "रकार": 1692,
      "हार": 1693,
      "ড়": 1694,
      "▁,": 1695,
      "](./स": 1696,
      "पुर": 1697,
      "duc": 1698,
      "10.": 1699,
      "-b": 1700,
      "RICS": 1701,
      "hy": 1702,
      "qu": 1703,
      "పాల": 1704,
      "▁త": 1705,
      "](./क": 1706,
      "▁[क": 1707,
      "▁\"ब": 1708,
      "▁10": 1709,
      "స్త్ర": 1710,
      "विश्व": 1711,
      "▁इस": 1712,
      "लेख": 1713,
      "ষ্ট্র": 1714,
      ":বইয়": 1715,
      "বিশেষ:বইয়": 1716,
      "ember": 1717,
      "8/": 1718,
      "File:": 1719,
      "ডি": 1720,
      "হের": 1721,
      "ational_": 1722,
      "ীয়_": 1723,
      ".jpg": 1724,
      ".nic.in/": 1725,
      "oh": 1726,
      "▁मेला": 1727,
      "స్తా": 1728,
      "▁History": 1729,
      "ত্রুটি": 1730,
      "tates": 1731,
      "चित्र": 1732,
      "সাহায্য:উদ্ধৃতি": 1733,
      "anc": 1734,
      "IN": 1735,
      "▁[K": 1736,
      "\"](https://web.archive.org/web/201": 1737,
      "aste": 1738,
      "_d": 1739,
      "गु": 1740,
      "এস": 1741,
      "ం:": 1742,
      "లీ": 1743,
      "ాయ": 1744,
      "▁ఇ": 1745,
      "▁దేశ": 1746,
      "▁राज": 1747,
      "रालेख": 1748,
      "bridge": 1749,
      ".html": 1750,
      "1998": 1751,
      "ograp": 1752,
      "hand": 1753,
      "▁\"The": 1754,
      "▁li": 1755,
      "outh_Asia": 1756,
      "rov": 1757,
      "िव": 1758,
      "গু": 1759,
      "▁`": 1760,
      "▁\"प": 1761,
      "▁हु": 1762,
      "_की_स": 1763,
      "▁वर्": 1764,
      "_में": 1765,
      "साँचा": 1766,
      "-m": 1767,
      "gh": 1768,
      "na": 1769,
      "ome": 1770,
      "ambridge": 1771,
      "econom": 1772,
      "pe": 1773,
      "দেশ": 1774,
      "▁[_": 1775,
      "িয়া": 1776,
      "▁তারিখে": 1777,
      "\"\n": 1778,
      "▁6": 1779,
      "any": 1780,
      "2007": 1781,
      "MetcalfMetcalf2006": 1782,
      "ritish": 1783,
      "ध्य": 1784,
      "्च": 1785,
      "ইভ": 1786,
      "](./अ": 1787,
      "ous": 1788,
      "▁स्": 1789,
      "ref-1": 1790,
      "note-1": 1791,
      "र्थ": 1792,
      "over": 1793,
      "র্কা": 1794,
      "mpire": 1795,
      "स्क": 1796,
      "ন্দ্র": 1797,
      "▁भी": 1798,
      "మ్రాజ్యం": 1799,
      "रालेखित": 1800,
      "র্কাইভ": 1801,
      "arl": 1802,
      "ali": 1803,
      "ury": 1804,
      "/https://www.": 1805,
      "পি": 1806,
      "র্কাইভকৃত": 1807,
      "▁2014": 1808,
      "yson": 1809,
      "-l": 1810,
      "ज्": 1811,
      "मु": 1812,
      "దేశ్": 1813,
      "62": 1814,
      "ঞ্চ": 1815,
      "\\)\")": 1816,
      "%28": 1817,
      "▁[E": 1818,
      "_भारत": 1819,
      "थान": 1820,
      "हास": 1821,
      "ం](./": 1822,
      "late_": 1823,
      "রাষ্ট্র": 1824,
      "5)": 1825,
      "pp": 1826,
      "ashm": 1827,
      "lection": 1828,
      "usic": 1829,
      "###": 1830,
      "1/": 1831,
      "ho": 1832,
      "সি": 1833,
      "](./India#cite_ref-FOOTNOTE": 1834,
      "6%": 1835,
      "▁\"K": 1836,
      "umb": 1837,
      "World": 1838,
      "द्र": 1839,
      "िट": 1840,
      "िश": 1841,
      "ంబ": 1842,
      "టి": 1843,
      "](./ब": 1844,
      "▁[ब": 1845,
      "isation": 1846,
      "লেট": 1847,
      "প্লেট": 1848,
      "টেমপ্লেট": 1849,
      "2008": 1850,
      "▁reg": 1851,
      "/http://www.": 1852,
      "evelopment": 1853,
      "led": 1854,
      "এন": 1855,
      "ছে": 1856,
      "▁temp": 1857,
      "▁[ম": 1858,
      "%29": 1859,
      "▁its": 1860,
      "2014": 1861,
      "▁cent": 1862,
      "Dw": 1863,
      "Oxford": 1864,
      "a/": 1865,
      "ধান": 1866,
      "ంలో": 1867,
      "](./भारत_में": 1868,
      "odern": 1869,
      "స్తాన్": 1870,
      "dit": 1871,
      "les": 1872,
      "▁9": 1873,
      ".jpg/250px-": 1874,
      "\"](https://www.": 1875,
      "alth": 1876,
      "ram": 1877,
      "rig": 1878,
      "58": 1879,
      "por": 1880,
      "▁te": 1881,
      "epend": 1882,
      "conomy": 1883,
      "67": 1884,
      "फ़": 1885,
      "ीन": 1886,
      "గు": 1887,
      "డు": 1888,
      "నే": 1889,
      "్చ": 1890,
      "▁ই": 1891,
      "▁un": 1892,
      "_का": 1893,
      "ign": 1894,
      "त्तर": 1895,
      "▁हैं।": 1896,
      "RC": 1897,
      "▁\"Indian": 1898,
      "ligion": 1899,
      "4)": 1900,
      "census": 1901,
      "▁U": 1902,
      "ার্": 1903,
      "hel": 1904,
      "ulture": 1905,
      "▁সংগ্র": 1906,
      "_%28": 1907,
      "hr": 1908,
      "▁–": 1909,
      "ave": 1910,
      "ansk": 1911,
      "roup": 1912,
      "मिल": 1913,
      "शिया": 1914,
      "ुस": 1915,
      "మూ": 1916,
      "▁[978-1": 1917,
      "▁सूची": 1918,
      "్రీ": 1919,
      "urop": 1920,
      "జాత": 1921,
      "▁[↑](./ভারত#cite_ref-": 1922,
      "tinent": 1923,
      "er,": 1924,
      "emb": 1925,
      "পা": 1926,
      "ide": 1927,
      "▁हि": 1928,
      "lion": 1929,
      "ountry": 1930,
      "▁সংগ্রহের": 1931,
      "alay": 1932,
      "emplate": 1933,
      "43": 1934,
      "_the": 1935,
      "uk": 1936,
      "रु": 1937,
      "ूर": 1938,
      "కా": 1939,
      "లా": 1940,
      "▁सरकार": 1941,
      "▁sub": 1942,
      "\").[[": 1943,
      "ంగా": 1944,
      "ंग्रेज़": 1945,
      "51": 1946,
      "65": 1947,
      "▁[![](//upload.wikimedia.org/wikipedia/commons/thumb/": 1948,
      "anskrit": 1949,
      "port": 1950,
      "ইএস": 1951,
      "জাত": 1952,
      "িকা": 1953,
      "DP": 1954,
      "](./K": 1955,
      "ant": 1956,
      "low": 1957,
      "uring": 1958,
      "कर": 1959,
      "ते": 1960,
      "पाल": 1961,
      "ूच": 1962,
      "ীন": 1963,
      "డ్": 1964,
      "ిల్": 1965,
      "▁सम": 1966,
      "ulke": 1967,
      "-521": 1968,
      "▁template": 1969,
      "mund": 1970,
      "▁pro": 1971,
      "usin": 1972,
      "continent": 1973,
      "ail": 1974,
      "doi": 1975,
      "ork": 1976,
      "▁ad": 1977,
      "▁languages": 1978,
      "▁2007": 1979,
      "othermund": 1980,
      "-india": 1981,
      "हु": 1982,
      "ैद": 1983,
      "ोक": 1984,
      "সম": 1985,
      "లి": 1986,
      "▁घ": 1987,
      "▁జ": 1988,
      "▁ভাষা": 1989,
      "▁[प": 1990,
      "▁तक": 1991,
      "किस्तान": 1992,
      "Singh": 1993,
      "|---": 1994,
      "radesh": 1995,
      "বে": 1996,
      "▁st": 1997,
      "ations": 1998,
      "▁সা": 1999,
      "স্ত": 2000,
      "History": 2001,
      "2003": 2002,
      "2005": 2003,
      "▁mil": 2004,
      ".;": 2005,
      "iew": 2006,
      "सम": 2007,
      "्ड": 2008,
      "ణా": 2009,
      "ధిక": 2010,
      "ise": 2011,
      "](./भारतीय_": 2012,
      "▁২০১": 2013,
      "ত্ত": 2014,
      "జాతీయ": 2015,
      "_F": 2016,
      "mb": 2017,
      "▁17": 2018,
      "article": 2019,
      "ati": 2020,
      "ms": 2021,
      "irst": 2022,
      "age/": 2023,
      "AARC": 2024,
      "ission": 2025,
      "year": 2026,
      "ree": 2027,
      "rate": 2028,
      "india.gov.in/": 2029,
      "▁were": 2030,
      "help": 2031,
      "_c": 2032,
      "_प्र": 2033,
      "eop": 2034,
      "pu": 2035,
      "దక్ష": 2036,
      "వం": 2037,
      "ों_की_स": 2038,
      "ন্ত": 2039,
      "▁ప్రా": 2040,
      "▁వి": 2041,
      "▁సం": 2042,
      "▁చరిత్ర": 2043,
      "श्चि": 2044,
      "6)": 2045,
      "_L": 2046,
      "old": 2047,
      "▁An": 2048,
      "র্থ": 2049,
      "igh": 2050,
      "Indo-": 2051,
      "Stein2010": 2052,
      "▁[L": 2053,
      "hina": 2054,
      "lass": 2055,
      "ओं": 2056,
      "ीं": 2057,
      "ूप": 2058,
      "డి": 2059,
      "](./प": 2060,
      "▁[the": 2061,
      "▁[ভারত": 2062,
      "ames": 2063,
      "▁Comm": 2064,
      "তিক": 2065,
      "tical": 2066,
      "]](./भारत#cite_note-FOOTNOTE": 2067,
      "conomic": 2068,
      "▁Hindu": 2069,
      "▁le": 2070,
      "omp": 2071,
      "ওয়ে": 2072,
      "ভূ": 2073,
      "ুর": 2074,
      "▁বা": 2075,
      "ril": 2076,
      "ated": 2077,
      "4/": 2078,
      "Edit": 2079,
      "▁this": 2080,
      ":C": 2081,
      "गण": 2082,
      "रब": 2083,
      "वन": 2084,
      "्स": 2085,
      "ంధ": 2086,
      "ined": 2087,
      "▁किया": 2088,
      "స్త": 2089,
      "नाम": 2090,
      "_के_राज्य": 2091,
      "సియా": 2092,
      "▁రాజ్యం": 2093,
      ".jpg)](./File:": 2094,
      "Stein1998": 2095,
      "▁సామ్రాజ్యం": 2096,
      "ंदिर": 2097,
      "Singh2009": 2098,
      "-in": 2099,
      "hind": 2100,
      "87": 2101,
      "_1": 2102,
      "_language": 2103,
      "ral": 2104,
      "▁k": 2105,
      "inis": 2106,
      "্রা": 2107,
      "iver": 2108,
      "র্ব": 2109,
      "ক্ত": 2110,
      "▁New": 2111,
      "ঞ্চল": 2112,
      "mer": 2113,
      "ari": 2114,
      "Increas": 2115,
      "_and_S": 2116,
      "▁2021": 2117,
      "जी": 2118,
      "ष्": 2119,
      "জা": 2120,
      "ধ্য": 2121,
      "దీ": 2122,
      "▁బ": 2123,
      "▁\"L": 2124,
      "omb": 2125,
      "ন্ড": 2126,
      "ండి": 2127,
      "▁Asian": 2128,
      "inistry": 2129,
      "चित्र:": 2130,
      "ographic": 2131,
      "ज्ञ": 2132,
      "దక్షి": 2133,
      "Talbot": 2134,
      "▁errors": 2135,
      "ice": 2136,
      "▁([help": 2137,
      "_by": 2138,
      "AsherTalbot": 2139,
      "ashmir": 2140,
      "ey": 2141,
      "gan": 2142,
      "তে": 2143,
      "▁![](//upload.wikimedia.org/wikipedia/commons/thumb/": 2144,
      "▁ভারতের": 2145,
      "%E0%A6%": 2146,
      "ইএসবি": 2147,
      "C&pg=PA": 2148,
      "▁la": 2149,
      "▁16": 2150,
      "ystem": 2151,
      "jec": 2152,
      "les/": 2153,
      "ंजा": 2154,
      "ख्या": 2155,
      "दक्षिण": 2156,
      "ेख": 2157,
      "తర": 2158,
      "ది": 2159,
      "](./Indian_": 2160,
      "▁2010": 2161,
      "न्न": 2162,
      "्वीप": 2163,
      "▁উপ": 2164,
      "चीन": 2165,
      "▁खाना": 2166,
      "ों_की_सूची": 2167,
      "ंजाब": 2168,
      "air": 2169,
      "uch": 2170,
      "=`": 2171,
      "_শ": 2172,
      "নি": 2173,
      "▁গ": 2174,
      "](./L": 2175,
      "on-": 2176,
      "comp": 2177,
      "▁উদ্ধৃতি": 2178,
      "gy": 2179,
      ")|": 2180,
      "_చ": 2181,
      "बसे": 2182,
      "ुल": 2183,
      "ట్": 2184,
      "ిత": 2185,
      "ेंद्र": 2186,
      "▁26": 2187,
      "▁गया": 2188,
      "▁World": 2189,
      "▁राज्यों": 2190,
      ".svg/40px-Flag_of_": 2191,
      "slands": 2192,
      "ওয়েব": 2193,
      "fn_": 2194,
      "uary": 2195,
      "▁error": 2196,
      "et:": 2197,
      "▁Sfn": 2198,
      "▁targ": 2199,
      "une": 2200,
      "template_": 2201,
      "urope": 2202,
      "_and_Sfn_": 2203,
      "▁errors\"))\n": 2204,
      "▁error:": 2205,
      "▁target:": 2206,
      "template_errors": 2207,
      "_and_Sfn_template_errors": 2208,
      "PP": 2209,
      "aman": 2210,
      "স্থা": 2211,
      "thor": 2212,
      "aint": 2213,
      "330": 2214,
      "yn": 2215,
      "चल": 2216,
      "बंध": 2217,
      "ैन": 2218,
      "▁\"మ": 2219,
      "▁15": 2220,
      "▁हो": 2221,
      "▁Th": 2222,
      "uly": 2223,
      "র্ম": 2224,
      "▁নি": 2225,
      "ింది.": 2226,
      "রাজ্য": 2227,
      "DwAAQBAJ&pg=PA": 2228,
      "▁([help](./": 2229,
      "69": 2230,
      "ck": 2231,
      "ores": 2232,
      "tor": 2233,
      "▁per": 2234,
      "▁CITEREF": 2235,
      "indus": 2236,
      ".gov.in": 2237,
      "▁Ind": 2238,
      "121": 2239,
      "68": 2240,
      "hal": 2241,
      "▁21": 2242,
      "iament": 2243,
      "▁(201": 2244,
      "arliament": 2245,
      "ইএসবিএন": 2246,
      "100": 2247,
      "2/": 2248,
      "mar": 2249,
      "ase": 2250,
      "ats": 2251,
      "Union": 2252,
      "ब्": 2253,
      "२०": 2254,
      "దస్త్ర": 2255,
      "▁ఎ": 2256,
      "ley": 2257,
      "ालय": 2258,
      "▁नि": 2259,
      "न्द्र": 2260,
      "ক্ষা": 2261,
      "▁[मूल": 2262,
      "▁(సా.శ.పూ.": 2263,
      "▁पुरालेखित": 2264,
      "దస్త్రం:": 2265,
      "▁पुरालेखित।": 2266,
      "ure": 2267,
      "lad": 2268,
      "▁sfn": 2269,
      "Page/": 2270,
      "fter": 2271,
      "িল্": 2272,
      "EditPage/": 2273,
      "1_": 2274,
      "4%": 2275,
      "f/": 2276,
      "fr": 2277,
      "▁territ": 2278,
      ".\"\n": 2279,
      "जरा": 2280,
      "ेव": 2281,
      "দী": 2282,
      "ధ్య": 2283,
      "▁सबसे": 2284,
      "rab": 2285,
      "ంద్ర": 2286,
      "स्था": 2287,
      "स्थान": 2288,
      "ियों": 2289,
      "্বর": 2290,
      "क्ति": 2291,
      "[![](//upload.wikimedia.org/wikipedia/commons/thumb/": 2292,
      "cies": 2293,
      "are": 2294,
      "pril": 2295,
      "১৯": 2296,
      "▁India,": 2297,
      "ritan": 2298,
      "-c": 2299,
      "a\")\n": 2300,
      "▁25": 2301,
      "-t": 2302,
      "dom": 2303,
      "man": 2304,
      "uj": 2305,
      "टन": 2306,
      "प्त": 2307,
      "िन": 2308,
      "ोर": 2309,
      "ైన": 2310,
      "](./మ": 2311,
      "▁[F": 2312,
      "▁\"F": 2313,
      "\")**": 2314,
      "▁పే": 2315,
      "▁जिस": 2316,
      "▁[আর্কাইভকৃত": 2317,
      "ुसार": 2318,
      "eople": 2319,
      "aw": 2320,
      "eneral": 2321,
      "_Indian_": 2322,
      "শা": 2323,
      "হি": 2324,
      "off": 2325,
      "▁cons": 2326,
      "ritannic": 2327,
      "-g": 2328,
      "tar": 2329,
      "lear": 2330,
      "Increase": 2331,
      "Rothermund": 2332,
      "pt": 2333,
      "च्च": 2334,
      "ण्ड": 2335,
      "ట్ట": 2336,
      "శా": 2337,
      "▁[మ": 2338,
      "India\\)": 2339,
      "](./भारत#CITEREF": 2340,
      "▁সর": 2341,
      "Intern": 2342,
      "▁प्रा": 2343,
      "_सं": 2344,
      "▁মূল": 2345,
      "ongress": 2346,
      "▁साथ": 2347,
      "ద్ధ": 2348,
      "news/": 2349,
      "ledge": 2350,
      "](./भारत_में_": 2351,
      "Dyson": 2352,
      "Kulke": 2353,
      "ee": 2354,
      "\")_.": 2355,
      "uman": 2356,
      "lim": 2357,
      "ild": 2358,
      "brary": 2359,
      "right": 2360,
      "31": 2361,
      "_K": 2362,
      "০০": 2363,
      "ed.": 2364,
      "ural": 2365,
      "ক্তি": 2366,
      "fficial": 2367,
      "য়েছে": 2368,
      "44": 2369,
      "ack": 2370,
      "uclear": 2371,
      "1,": 2372,
      "आई": 2373,
      "ख्य": 2374,
      "णा": 2375,
      "दा": 2376,
      "িত্র": 2377,
      "హింద": 2378,
      "ించ": 2379,
      "▁ఒ": 2380,
      "▁గ": 2381,
      "▁था": 2382,
      "▁భాష": 2383,
      "▁year": 2384,
      "▁\"श्रेणी:Harv": 2385,
      "ound": 2386,
      "ాల్": 2387,
      "याल": 2388,
      "▁\"Special:BookSources/978-1": 2389,
      "्वर": 2390,
      "](./Special:BookSources/978-1": 2391,
      "▁आधार": 2392,
      "▁\"ভারতীয়": 2393,
      "▁संघ": 2394,
      "पाकिस्तान": 2395,
      "श्रेणी:Harv_and_Sfn_template_errors": 2396,
      "inister": 2397,
      "▁([help](./श्रेणी:Harv_and_Sfn_template_errors": 2398,
      "▁([help](./श्रेणी:Harv_and_Sfn_template_errors?action=edit&redlink=1": 2399,
      "](./F": 2400,
      "▁[W": 2401,
      "210": 2402,
      "isher": 2403,
      "ower": 2404,
      "ারা": 2405,
      "▁Empire": 2406,
      "2-0)": 2407,
      "eration": 2408,
      "ement": 2409,
      "ishing": 2410,
      "]](./భారతదేశం#cite_": 2411,
      "तंत्र": 2412,
      "तमिल": 2413,
      "वरी": 2414,
      "ेर": 2415,
      "्ला": 2416,
      "কি": 2417,
      "বং": 2418,
      "ভি": 2419,
      "కో": 2420,
      "చ్చ": 2421,
      "జీ": 2422,
      "ేంద్ర": 2423,
      "▁భారతదేశం": 2424,
      "▁धर्म": 2425,
      "▁विश्व": 2426,
      "](./उ": 2427,
      "▁\"उ": 2428,
      "▁सि": 2429,
      "](./ভারতীয়_": 2430,
      "ाली": 2431,
      "▁have": 2432,
      "ంగ్": 2433,
      "radition": 2434,
      "श्मी": 2435,
      "युक्त": 2436,
      "ya": 2437,
      "▁ar": 2438,
      "▁April": 2439,
      "iron": 2440,
      "Hindi": 2441,
      "glish": 2442,
      "KulkeRothermund": 2443,
      "iod": 2444,
      "ote": 2445,
      "ober": 2446,
      "rin": 2447,
      "ution": 2448,
      "বী": 2449,
      "ুন": 2450,
      "▁India:": 2451,
      "anges": 2452,
      "aper": 2453,
      "▁এক": 2454,
      "Dyson2018": 2455,
      "/A": 2456,
      "53": 2457,
      "6_": 2458,
      "bn": 2459,
      "ories": 2460,
      "▁July": 2461,
      "argest": 2462,
      "71": 2463,
      ":S": 2464,
      "rd": 2465,
      "ंब": 2466,
      "की": 2467,
      "गढ़": 2468,
      "ज्य": 2469,
      "म्रा": 2470,
      "ांग": 2471,
      "নে": 2472,
      "కృ": 2473,
      "త్య": 2474,
      "బ్": 2475,
      "మీ": 2476,
      "▁ফ": 2477,
      "▁[उ": 2478,
      "▁अधिक": 2479,
      "india/": 2480,
      "రాష్ట్ర": 2481,
      "तिहास": 2482,
      "▁north": 2483,
      "▁উৎস": 2484,
      "▁है।\n": 2485,
      "Hindu": 2486,
      "स्कृत": 2487,
      "▁region": 2488,
      "ban": 2489,
      "iff": 2490,
      "ustr": 2491,
      "▁class": 2492,
      "▁\"South": 2493,
      "▁government": 2494,
      "\"](https://": 2495,
      "88": 2496,
      "Comb": 2497,
      "▁র": 2498,
      "▁\"J": 2499,
      "-17": 2500,
      "eptem": 2501,
      "▁জন": 2502,
      "▁not": 2503,
      "also": 2504,
      "engal": 2505,
      "▁हिन्द": 2506,
      "Combined": 2507,
      "eptember": 2508,
      "viron": 2509,
      "cient": 2510,
      "rog": 2511,
      "vironment": 2512,
      "-re": 2513,
      "মান": 2514,
      "ంక": 2515,
      "ప్": 2516,
      "యు": 2517,
      "▁Y": 2518,
      "्रिट": 2519,
      "▁off": 2520,
      "▁मु": 2521,
      "▁13": 2522,
      "▁Pradesh": 2523,
      "act": 2524,
      "్యా": 2525,
      "ন্ধ": 2526,
      "▁बाद": 2527,
      "्वार": 2528,
      "epublic": 2529,
      "ड़ा": 2530,
      "िल्ल": 2531,
      "-107": 2532,
      "తంత్ర": 2533,
      "▁শৈলী": 2534,
      "](./భారతదేశం#cite_ref-": 2535,
      "▁१९": 2536,
      "▁[Archived](https://web.archive.org/web/": 2537,
      "]](./భారతదేశం#cite_note-": 2538,
      "म्राज्य": 2539,
      "9)": 2540,
      "ology": 2541,
      "](./J": 2542,
      "▁[J": 2543,
      "cience": 2544,
      "▁Sh": 2545,
      "▁Tim": 2546,
      "ayan": 2547,
      "_Press": 2548,
      "outledge": 2549,
      "7/": 2550,
      "hp": 2551,
      "national": 2552,
      "oth": 2553,
      "rof": 2554,
      "▁us": 2555,
      "now": 2556,
      "entre": 2557,
      "▁সাল": 2558,
      "▁de": 2559,
      "▁করে": 2560,
      "ocial": 2561,
      ".svg/20px-": 2562,
      "▁(PDF)": 2563,
      "▁`|": 2564,
      "সমূ": 2565,
      ",000": 2566,
      "2_": 2567,
      "5/": 2568,
      "tal": 2569,
      "▁ag": 2570,
      "▁into": 2571,
      "▁system": 2572,
      "line": 2573,
      "ummit\")\n": 2574,
      "uropean": 2575,
      "5_": 2576,
      "82": 2577,
      "_స": 2578,
      "_और": 2579,
      "_पर": 2580,
      "ran": 2581,
      "एं": 2582,
      "वर्": 2583,
      "सी": 2584,
      "ে_": 2585,
      "తము": 2586,
      "ాన్": 2587,
      "▁कार": 2588,
      "▁मान": 2589,
      "्यटन": 2590,
      "স্ট": 2591,
      "ালিকা": 2592,
      "माण": 2593,
      "▁शास": 2594,
      "▁यह": 2595,
      "ిల్లీ": 2596,
      "ज्ञान": 2597,
      "దక్షిణ": 2598,
      "cri": 2599,
      "uis": 2600,
      "ics": 2601,
      "▁part": 2602,
      "industry": 2603,
      "ritannica": 2604,
      "_at": 2605,
      "ater": 2606,
      "gory": 2607,
      "▁comp": 2608,
      "resid": 2609,
      "▁during": 2610,
      "ategory": 2611,
      "▁পৃ": 2612,
      "▁Oct": 2613,
      "_summit": 2614,
      "ম্প": 2615,
      "র্থন": 2616,
      "_re": 2617,
      "bal": 2618,
      "eth": 2619,
      "▁econom": 2620,
      "▁also": 2621,
      "ision": 2622,
      "▁14": 2623,
      "▁Ch": 2624,
      "▁first": 2625,
      "oll": 2626,
      "▁dis": 2627,
      "shit": 2628,
      "ikshit": 2629,
      "...": 2630,
      "_भाषा": 2631,
      "तर": 2632,
      "भी": 2633,
      "शास": 2634,
      "ाट": 2635,
      "ధాన": 2636,
      "బె": 2637,
      "వే": 2638,
      "శ్": 2639,
      "▁थ": 2640,
      "](./विशेष:पुस्तक": 2641,
      "▁\"विशेष:पुस्तक": 2642,
      "▁their": 2643,
      "▁स्रोत/": 2644,
      "chno": 2645,
      "entral": 2646,
      "▁पा": 2647,
      "ారు": 2648,
      "](./भारत_के_": 2649,
      "▁countries": 2650,
      "ियाँ": 2651,
      "लाई": 2652,
      "_स्रोत/": 2653,
      "ంది.": 2654,
      "1994": 2655,
      "▁लि": 2656,
      "_के_आ": 2657,
      ".jpg)](./దస్త్రం:": 2658,
      "ৈলী_": 2659,
      "साँचा:": 2660,
      "usiness": 2661,
      "श्चिम": 2662,
      "_শৈলী_": 2663,
      "ांग्ला": 2664,
      "▁October": 2665,
      "](./विशेष:पुस्तक_स्रोत/": 2666,
      "-40": 2667,
      "athe": 2668,
      "eu": 2669,
      "jab": 2670,
      "oor": 2671,
      "idd": 2672,
      "lam": 2673,
      "racy": 2674,
      "▁Archived": 2675,
      "harat": 2676,
      "▁Press\").": 2677,
      "tain": 2678,
      "asia": 2679,
      "▁pla": 2680,
      "্রি": 2681,
      "▁স্": 2682,
      "▁Metcalf": 2683,
      "▁world": 2684,
      "বাহ": 2685,
      "ffair": 2686,
      "স্তান": 2687,
      "330px-": 2688,
      "ities": 2689,
      "▁Commission": 2690,
      "ंप": 2691,
      "ধর্ম": 2692,
      "ীতি": 2693,
      "োল": 2694,
      "జి": 2695,
      "దు": 2696,
      "మ్": 2697,
      "ష్": 2698,
      "▁[_A": 2699,
      "▁\"O": 2700,
      "etwe": 2701,
      "▁[↑](./भारत#cite_": 2702,
      "్యవ": 2703,
      "▁जु": 2704,
      "▁है,": 2705,
      "ेश्वर": 2706,
      "ंगा": 2707,
      "▁2006": 2708,
      "সাম": 2709,
      "▁उप": 2710,
      "म्ब": 2711,
      "Flag_of_India": 2712,
      "▁రాజ": 2713,
      "▁यु": 2714,
      "েম্বর": 2715,
      "uddh": 2716,
      "त्प": 2717,
      "गुजरा": 2718,
      "▁subcontinent": 2719,
      "ूचना": 2720,
      "_प्रदेश": 2721,
      "_చరిత్ర": 2722,
      "etween": 2723,
      "ton": 2724,
      "estern": 2725,
      "%2F": 2726,
      "ortal": 2727,
      "---|---": 2728,
      "32": 2729,
      "98": 2730,
      "}}": 2731,
      "উৎস": 2732,
      "▁য": 2733,
      "](./বিশেষ:বইয়": 2734,
      "▁\"বিশেষ:বইয়": 2735,
      "ove": 2736,
      "▁**[": 2737,
      "-80": 2738,
      "ের_উৎস": 2739,
      "ikh": 2740,
      "▁[আইএসবিএন": 2741,
      "udden": 2742,
      "](./বিশেষ:বইয়ের_উৎস": 2743,
      "▁\"বিশেষ:বইয়ের": 2744,
      "/d": 2745,
      "9/": 2746,
      "oin": 2747,
      "ule": 2748,
      "{{": 2749,
      "ool": 2750,
      "andhi": 2751,
      "berg": 2752,
      "5-0)": 2753,
      "lan": 2754,
      "pib": 2755,
      "काल": 2756,
      "बाद": 2757,
      "में": 2758,
      "रे": 2759,
      "रक्ष": 2760,
      "वाद": 2761,
      "ाष्ट्र": 2762,
      "ागर": 2763,
      "ोर्": 2764,
      "ఢిల్లీ": 2765,
      "పంచ": 2766,
      "శం": 2767,
      "▁চ": 2768,
      "▁ত্রুটি": 2769,
      "](./ম": 2770,
      "](./সাহায্য:উদ্ধৃতি": 2771,
      "▁\"ম": 2772,
      "▁\"সাহায্য:উদ্ধৃতি": 2773,
      "ారి": 2774,
      "िक्ष": 2775,
      "▁2018": 2776,
      "_की_": 2777,
      "क्षेत्र": 2778,
      "▁([সাহায্য": 2779,
      "harma": 2780,
      "▁এবং": 2781,
      "_मेला": 2782,
      "नेमा": 2783,
      "▁বিশ": 2784,
      "धार_पर": 2785,
      "द्योग": 2786,
      "हाराष्ट्र": 2787,
      "ত্রুটি#": 2788,
      "మూస": 2789,
      "▁రాజ్యం|": 2790,
      "्रिटिश": 2791,
      "_के_आधार_पर": 2792,
      "_শৈলী_ত্রুটি#": 2793,
      "](./সাহায্য:উদ্ধৃতি_শৈলী_ত্রুটি#": 2794,
      "▁([সাহায্য](./সাহায্য:উদ্ধৃতি_শৈলী_ত্রুটি#": 2795,
      "_के_आधार_पर_भारत": 2796,
      "`:": 2797,
      "\")[[": 2798,
      "\")}}": 2799,
      "▁sec": 2800,
      "▁Act": 2801,
      "▁Aug": 2802,
      "▁September": 2803,
      "▁(PDF).": 2804,
      "10.10": 2805,
      "{{[": 2806,
      "\")}}`:": 2807,
      "▁August": 2808,
      "3-0)": 2809,
      ":[": 2810,
      "CO": 2811,
      "JP": 2812,
      "fric": 2813,
      "জি": 2814,
      "জ্য": 2815,
      "ofindia": 2816,
      "▁Ass": 2817,
      "▁Cambridge": 2818,
      "anglad": 2819,
      "unjab": 2820,
      "pecial:BookSources/978": 2821,
      "▁অন": 2822,
      "হাস": 2823,
      "▁১৯": 2824,
      "doi.org/": 2825,
      "Increase2": 2826,
      "সমূহ": 2827,
      "angladesh": 2828,
      "120px-": 2829,
      "5–": 2830,
      "64": 2831,
      "_W": 2832,
      "ual": 2833,
      "▁30": 2834,
      "▁[3": 2835,
      "▁\"W": 2836,
      "amb": 2837,
      "ument": 2838,
      "▁2019": 2839,
      "▁form": 2840,
      "_ভাষা": 2841,
      "ली": 2842,
      "व्य": 2843,
      "জন": 2844,
      "ঞ্": 2845,
      "ৈতিক": 2846,
      "వు": 2847,
      "▁-": 2848,
      "▁राष्ट्रीय": 2849,
      "▁\"క": 2850,
      "▁\"భారతీయ": 2851,
      "edic": 2852,
      "▁स्व": 2853,
      "▁मंदिर": 2854,
      "amp": 2855,
      "adu": 2856,
      "▁दक्षिण": 2857,
      "▁Dec": 2858,
      "ird": 2859,
      ".php": 2860,
      "▁కా": 2861,
      "▁Oxford": 2862,
      "▁been": 2863,
      ".svg.png)](./": 2864,
      "▁[Archived](https://web.archive.org/web/201": 2865,
      "গুলি": 2866,
      "▁पुरालेखित।.": 2867,
      "▁जुलाई": 2868,
      "_के_आधार_पर_भारत_के_राज्य": 2869,
      "91": 2870,
      "hat": 2871,
      "wart": 2872,
      "zberg": 2873,
      "ash": 2874,
      "chwart": 2875,
      "▁Population": 2876,
      "University_Press": 2877,
      "matics": 2878,
      "-19-8": 2879,
      "gency": 2880,
      "umbai": 2881,
      "chwartzberg": 2882,
      "-f": 2883,
      "En": 2884,
      "IA": 2885,
      "ID": 2886,
      "_অ": 2887,
      "_স": 2888,
      "fic": 2889,
      "ron": 2890,
      "বস্থা": 2891,
      "োগ": 2892,
      "term": 2893,
      "স্থ": 2894,
      "▁\"ভারতে": 2895,
      "time": 2896,
      "▁২০০৭": 2897,
      "embly": 2898,
      "▁পৃ.": 2899,
      "rish": 2900,
      "▁[[": 2901,
      "▁24": 2902,
      "india.gov.in": 2903,
      "▁Press.": 2904,
      "author": 2905,
      "AsherTalbot2008": 2906,
      "CE": 2907,
      "NG": 2908,
      "s-": 2909,
      "तेल": 2910,
      "न\")": 2911,
      "జన": 2912,
      "టు": 2913,
      "టె": 2914,
      "▁al": 2915,
      "▁नाम": 2916,
      "▁[క": 2917,
      "omen": 2918,
      "icy": 2919,
      "ingdom": 2920,
      "▁Constitution": 2921,
      "▁between": 2922,
      "▁अप": 2923,
      "তিহাস": 2924,
      "नाग": 2925,
      "▁विक": 2926,
      "▁చె": 2927,
      "నాయ": 2928,
      "▁रूप": 2929,
      "▁হয়": 2930,
      "–సా.శ.పూ.": 2931,
      ".jpg)](./चित्र:": 2932,
      "▁[↑](./भारत#cite_ref-FOOTNOTE": 2933,
      "▁ఆర్": 2934,
      "▁[भारतीय": 2935,
      "▁देशों": 2936,
      "raven": 2937,
      "పాలిత": 2938,
      "_का_": 2939,
      "ేంద్రపాలిత": 2940,
      "3/": 2941,
      "](./H": 2942,
      "](./W": 2943,
      "▁\"H": 2944,
      "on_": 2945,
      "2012": 2946,
      "etail": 2947,
      "▁but": 2948,
      "cyc": 2949,
      "times.com/": 2950,
      "a,": 2951,
      "▁all": 2952,
      "▁[t": 2953,
      "▁India\"),": 2954,
      "▁population": 2955,
      "▁more": 2956,
      "rojec": 2957,
      "▁National": 2958,
      "▁\\(identifier\\)\"):[": 2959,
      "▁June": 2960,
      ".jpg/330px-": 2961,
      "।[[১": 2962,
      "](./List_of_c": 2963,
      "rent": 2964,
      "chnology": 2965,
      "3_": 2966,
      "ces": 2967,
      "pur": 2968,
      "▁im": 2969,
      "▁state": 2970,
      ".gov/": 2971,
      "ligi": 2972,
      "iddle": 2973,
      "\".": 2974,
      ".|": 2975,
      "86": 2976,
      "TR": 2977,
      "ft": 2978,
      "ibrary": 2979,
      "lang": 2980,
      "ok": 2981,
      "ंक": 2982,
      "एशिया": 2983,
      "धी": 2984,
      "वस्था": 2985,
      "ोन": 2986,
      "রণ": 2987,
      "ায়": 2988,
      "ఖ్య": 2989,
      "గో": 2990,
      "తో": 2991,
      "దా": 2992,
      "బి": 2993,
      "హి": 2994,
      "ार्": 2995,
      "▁कि": 2996,
      "▁पूर्व": 2997,
      "▁সম": 2998,
      "స్కృ": 2999,
      "](./ভারতে_": 3000,
      "ंगाल": 3001,
      "▁तट": 3002,
      "▁न्या": 3003,
      "form": 3004,
      "▁एवं": 3005,
      "%2C_": 3006,
      "हिन्दी": 3007,
      "▁ప్రాంత": 3008,
      "श्मीर": 3009,
      "/S": 3010,
      "az": 3011,
      "son": 3012,
      "ince": 3013,
      "here": 3014,
      "avid": 3015,
      "904": 3016,
      "irect": 3017,
      "▁2014.\n": 3018,
      "▁century": 3019,
      "](./List_of_countries": 3020,
      ".as": 3021,
      "_University_Press": 3022,
      "oci": 3023,
      "সে": 3024,
      "▁![": 3025,
      "](./টেমপ্লেট": 3026,
      "▁[I": 3027,
      "▁\"টেমপ্লেট": 3028,
      "ones": 3029,
      "ering": 3030,
      "arh": 3031,
      "▁ab": 3032,
      "▁2016": 3033,
      "▁_The": 3034,
      "▁Islands": 3035,
      "Harle": 3036,
      "resident": 3037,
      "/artic": 3038,
      "4-0)": 3039,
      "div": 3040,
      "mu": 3041,
      "ne": 3042,
      "rans": 3043,
      "alley": 3044,
      "1947": 3045,
      "▁bec": 3046,
      "▁music": 3047,
      "ular": 3048,
      "-2)": 3049,
      "matic": 3050,
      "&s": 3051,
      "9-0)": 3052,
      "_ब": 3053,
      "_ప": 3054,
      "अन": 3055,
      "एस": 3056,
      "चे": 3057,
      "टक": 3058,
      "सद": 3059,
      "ीस": 3060,
      "ेस": 3061,
      "ইন": 3062,
      "টার": 3063,
      "িম": 3064,
      "హా": 3065,
      "▁খ": 3066,
      "▁ను": 3067,
      "▁[सं": 3068,
      "▁\"द": 3069,
      "▁केंद्र": 3070,
      "ration": 3071,
      "्तर": 3072,
      "विधान": 3073,
      "ाला": 3074,
      "भाग": 3075,
      "2023": 3076,
      "▁অঞ্চল": 3077,
      "able": 3078,
      "संख्या": 3079,
      "▁भू": 3080,
      "%E0%A4%": 3081,
      "▁अनुसार": 3082,
      "িনী": 3083,
      "▁स्थ": 3084,
      "ত্তর": 3085,
      "▁చరిత్ర\")\n": 3086,
      "్యవస్థ": 3087,
      ".n": 3088,
      "_I": 3089,
      "▁res": 3090,
      "kim": 3091,
      "olicy": 3092,
      "emple": 3093,
      "ports": 3094,
      "ganisation": 3095,
      "par": 3096,
      "▁যু": 3097,
      "iation": 3098,
      "2000": 3099,
      "umber": 3100,
      "ের](./": 3101,
      "b/b": 3102,
      "▁dance": 3103,
      "▁2009": 3104,
      "logo": 3105,
      "905": 3106,
      "▁দেশ": 3107,
      "]](./ভারত#cite_note-1": 3108,
      "rick": 3109,
      "▁[↑](./ভারত#cite_ref-1": 3110,
      ".india": 3111,
      "120": 3112,
      "i,": 3113,
      "i-": 3114,
      "tig": 3115,
      "▁1.": 3116,
      "ourt": 3117,
      "state": 3118,
      "tent": 3119,
      "-le": 3120,
      "cat": 3121,
      "एँ": 3122,
      "गो": 3123,
      "लि": 3124,
      "ील": 3125,
      "ोड़": 3126,
      "గం": 3127,
      "డా": 3128,
      "బడ": 3129,
      "మే": 3130,
      "రణ": 3131,
      "▁।": 3132,
      "▁జాతీయ": 3133,
      "▁[न": 3134,
      "▁[Indian": 3135,
      "\"):": 3136,
      "\")।": 3137,
      "ara": 3138,
      "ार्ट": 3139,
      "▁after": 3140,
      "nolog": 3141,
      "▁मूल": 3142,
      "](https://doi.org/": 3143,
      "_of_the": 3144,
      "▁tw": 3145,
      "files/": 3146,
      "ovement": 3147,
      "▁जो": 3148,
      "▁बहु": 3149,
      "▁सेना": 3150,
      "-81": 3151,
      "▁కూ": 3152,
      "ాలు,": 3153,
      "ాలు](./": 3154,
      "ক্ষি": 3155,
      "ड़ी": 3156,
      "म्बर": 3157,
      "▁জাত": 3158,
      "▁రాష్ట్ర": 3159,
      "కిస్తాన్": 3160,
      "धिकार": 3161,
      "ompany": 3162,
      "ujar": 3163,
      "▁[আইএসবিএন](./ISBN_\\(identifier\\)": 3164,
      "ttar": 3165,
      "\");": 3166,
      "ann": 3167,
      "196": 3168,
      "andard": 3169,
      "rop": 3170,
      "▁22": 3171,
      "▁East": 3172,
      "▁years": 3173,
      "7%": 3174,
      "97": 3175,
      "ven": 3176,
      "জ্": 3177,
      "197": 3178,
      "্যান": 3179,
      "▁1950": 3180,
      "দ্বী": 3181,
      "](https://web.archive.org/web/200": 3182,
      "▁Jan": 3183,
      "▁[Stein": 3184,
      "▁गण": 3185,
      "clud": 3186,
      "▁English": 3187,
      "শাস": 3188,
      "দ্বীপ": 3189,
      "6-2": 3190,
      "Oj": 3191,
      "fl": 3192,
      "hen": 3193,
      "▁$": 3194,
      "▁es": 3195,
      "ert": 3196,
      "lobal": 3197,
      "ussia": 3198,
      "▁29": 3199,
      "peration": 3200,
      "KulkeRothermund2004": 3201,
      "तिक": 3202,
      "दू": 3203,
      "श्री": 3204,
      "ीत": 3205,
      "ेट": 3206,
      "চ্চ": 3207,
      "চীন": 3208,
      "వర్": 3209,
      "ి.\n": 3210,
      "▁ఈ": 3211,
      "▁భారత": 3212,
      "▁comm": 3213,
      "▁లో": 3214,
      "▁\"আ": 3215,
      "▁मा": 3216,
      "্যবস্থা": 3217,
      "नाथ": 3218,
      "_क्षेत्र": 3219,
      "▁পরি": 3220,
      "india-": 3221,
      "ানা": 3222,
      "త్రి": 3223,
      "ালয়": 3224,
      "▁মধ্য": 3225,
      "▁एशिया": 3226,
      "ajor": 3227,
      "▁भाषा\")\n": 3228,
      "▁2011.\n": 3229,
      "▁২০০৮": 3230,
      "▁`{{[": 3231,
      "-to-": 3232,
      "गुजरात": 3233,
      "▁বিশ্ব": 3234,
      "ক্ষিণ": 3235,
      "▁জাতীয়": 3236,
      "-21": 3237,
      "52": 3238,
      "Asia": 3239,
      "Fisher": 3240,
      "ges": 3241,
      "han": 3242,
      "ins": 3243,
      "tis": 3244,
      "▁states": 3245,
      "▁Census": 3246,
      "▁Congress": 3247,
      "ight": 3248,
      "▁Development": 3249,
      "str": 3250,
      "▁2020": 3251,
      ".indiatimes.com/": 3252,
      "Fisher2018": 3253,
      "%7": 3254,
      "7)": 3255,
      "_3": 3256,
      "cc": 3257,
      "has": 3258,
      "ned": 3259,
      "বর্": 3260,
      "মে": 3261,
      "▁[Metcalf": 3262,
      "▁\"I": 3263,
      "rac": 3264,
      "rahm": 3265,
      "▁most": 3266,
      "▁না": 3267,
      "▁2023": 3268,
      "Indus": 3269,
      ".html)": 3270,
      "censusindia.gov.in/": 3271,
      "▁সরকার": 3272,
      "জ্ঞ": 3273,
      ")](./": 3274,
      "1-0)": 3275,
      "pr": 3276,
      "2001": 3277,
      "▁28": 3278,
      "obb": 3279,
      "_క": 3280,
      "tation": 3281,
      "जय": 3282,
      "डी": 3283,
      "पी": 3284,
      "पति": 3285,
      "भू": 3286,
      "मह": 3287,
      "मंत्र": 3288,
      "रो": 3289,
      "ल\")": 3290,
      "কৃতি": 3291,
      "গণ": 3292,
      "দি": 3293,
      "পূ": 3294,
      "తు": 3295,
      "పతి": 3296,
      "▁फ": 3297,
      "▁ని": 3298,
      "▁ডি": 3299,
      "▁[H": 3300,
      "▁[v": 3301,
      "▁\"భారతదేశం": 3302,
      "India_": 3303,
      "▁(২": 3304,
      "్రి": 3305,
      "-14": 3306,
      "olk": 3307,
      "▁2012": 3308,
      "▁May": 3309,
      "র্ক": 3310,
      "న్ని": 3311,
      "▁পর": 3312,
      "िया\")": 3313,
      "ర్వ": 3314,
      "118": 3315,
      "apit": 3316,
      "imalay": 3317,
      "ক্ষণ": 3318,
      "म्म": 3319,
      "ులు](./": 3320,
      "▁साम्राज्य": 3321,
      "oi_\\(identifier\\)": 3322,
      "▁\"Doi": 3323,
      "](./Doi_\\(identifier\\)": 3324,
      "olitical": 3325,
      "वंश": 3326,
      "మిళ": 3327,
      "▁जाता": 3328,
      "▁वर्ष": 3329,
      "ैदान": 3330,
      "িল্প": 3331,
      "तंत्रता": 3332,
      "द्योगिक": 3333,
      "nologue": 3334,
      "rm": 3335,
      "theast": 3336,
      "iction": 3337,
      "rime": 3338,
      "istor": 3339,
      "emoc": 3340,
      "olper": 3341,
      "roduc": 3342,
      "▁27": 3343,
      "aksh": 3344,
      "eport": 3345,
      "▁election": 3346,
      "-19-5": 3347,
      "▁[2](./India#cite_ref-FOOTNOTE": 3348,
      "▁[1](./India#cite_ref-FOOTNOTE": 3349,
      "8/8": 3350,
      "ustral": 3351,
      "olpert": 3352,
      "55": 3353,
      "6-0)": 3354,
      "_4": 3355,
      "e/": 3356,
      "if": 3357,
      "iz": 3358,
      "চিত্র": 3359,
      "লো": 3360,
      "▁India.": 3361,
      "▁Talbot": 3362,
      "ন্ন": 3363,
      "▁K.": 3364,
      "▁এই": 3365,
      "eshow": 3366,
      "olitics": 3367,
      "মিটার": 3368,
      "6/": 3369,
      "_n": 3370,
      "ymb": 3371,
      "](./The": 3372,
      "▁[e": 3373,
      "▁[_India": 3374,
      "arn": 3375,
      "2017": 3376,
      "2019": 3377,
      "union": 3378,
      "ake": 3379,
      "2024": 3380,
      "key": 3381,
      "0.": 3382,
      "8)": 3383,
      "CN": 3384,
      "IM": 3385,
      "_మ": 3386,
      "_భాష": 3387,
      "be": 3388,
      "oy": 3389,
      "ria": 3390,
      "ura": 3391,
      "yan": 3392,
      "पे": 3393,
      "वे": 3394,
      "िज़": 3395,
      "ংশ": 3396,
      "ংলা": 3397,
      "ীল": 3398,
      "ం\")": 3399,
      "ద్ర": 3400,
      "ఫ్": 3401,
      "▁'": 3402,
      "▁ड": 3403,
      "▁৩": 3404,
      "▁he": 3405,
      "▁స్": 3406,
      "▁స్థ": 3407,
      "▁[s": 3408,
      "▁[স": 3409,
      "▁[స": 3410,
      "▁[हिन्द": 3411,
      "ndaman": 3412,
      "▁\"इ": 3413,
      "▁\"అ": 3414,
      "oram": 3415,
      "orce": 3416,
      "ough": 3417,
      "1950": 3418,
      "change": 3419,
      "life": 3420,
      "onso": 3421,
      "विज्ञान": 3422,
      "న్నాయ": 3423,
      "]](./भारत#cite_note-1": 3424,
      "▁उत्तर": 3425,
      "ड़े": 3426,
      "▁Asia\")\n": 3427,
      "_and_": 3428,
      "ी_भाषा": 3429,
      "ublishing": 3430,
      "্যান্ড": 3431,
      "মাণ": 3432,
      "▁రై": 3433,
      "द्यान": 3434,
      "र्थिक": 3435,
      "ंग्रेज़ी": 3436,
      "వంశం": 3437,
      "4/4": 3438,
      "హిందూ": 3439,
      "यालय": 3440,
      "▁[↑](./भारत#cite_ref-1": 3441,
      "▁2006](./India#CITEREF": 3442,
      "▁two": 3443,
      "censusindia.gov.in/2011": 3444,
      ",[[": 3445,
      "National_": 3446,
      "]:": 3447,
      "_O": 3448,
      "_12": 3449,
      "cess": 3450,
      "ip": 3451,
      "▁ev": 3452,
      "inor": 3453,
      "one": 3454,
      "▁sup": 3455,
      "▁tradition": 3456,
      "▁[_The": 3457,
      "▁Times": 3458,
      "-C": 3459,
      "1–": 3460,
      "Template": 3461,
      "UN": 3462,
      "_H": 3463,
      "_territ": 3464,
      "leshow": 3465,
      "ris": 3466,
      "ক্র": 3467,
      "গর": 3468,
      "টা": 3469,
      "পু": 3470,
      "▁রাষ্ট্র": 3471,
      "ised": 3472,
      "-00": 3473,
      "loc": 3474,
      "ourn": 3475,
      "▁had": 3476,
      "akh": 3477,
      "ক্স": 3478,
      "odi": 3479,
      "abad": 3480,
      "html": 3481,
      "ughal": 3482,
      "ohn": 3483,
      "ed.).": 3484,
      "▁একটি": 3485,
      "▁official": 3486,
      "langoff": 3487,
      "▁January": 3488,
      "জ্ঞান": 3489,
      "leshow/": 3490,
      "500": 3491,
      "99": 3492,
      "Pakistan": 3493,
      "_f": 3494,
      "cent": 3495,
      "c/c": 3496,
      "ehr": 3497,
      "mong": 3498,
      "site": 3499,
      "▁en": 3500,
      "▁over": 3501,
      "▁[O": 3502,
      "▁[m": 3503,
      "ched": 3504,
      "rain": 3505,
      "▁spe": 3506,
      "come": 3507,
      "▁1,": 3508,
      "▁Re": 3509,
      "▁BCE": 3510,
      "index": 3511,
      "▁end": 3512,
      "lations": 3513,
      "▁language\")\n": 3514,
      "▁[2](./India#cite_ref-": 3515,
      "▁[1](./India#cite_ref-": 3516,
      "▁2010](./India#CITEREF": 3517,
      "JPG": 3518,
      "▁became": 3519,
      ".fr": 3520,
      "72": 3521,
      "79": 3522,
      "Uttar": 3523,
      "_V": 3524,
      "bi": 3525,
      "mi": 3526,
      "tan": 3527,
      "डु": 3528,
      "णि": 3529,
      "त्य": 3530,
      "धु": 3531,
      "लोक": 3532,
      "োর্": 3533,
      "০-": 3534,
      "బా": 3535,
      "భూ": 3536,
      "య్య": 3537,
      "ర్య": 3538,
      "▁छ": 3539,
      "▁ల": 3540,
      "▁up": 3541,
      "](./క": 3542,
      "▁[पु": 3543,
      "▁\"न": 3544,
      "▁\"ప": 3545,
      "▁\"స": 3546,
      "▁\"सं": 3547,
      "rim": 3548,
      "atar": 3549,
      "▁12": 3550,
      "▁co": 3551,
      "▁[↑](./భారతదేశం#cite_ref-": 3552,
      "▁Reg": 3553,
      "नाव": 3554,
      "▁द्वार": 3555,
      "माज": 3556,
      "▁It": 3557,
      "ी](./अ": 3558,
      "▁ভারতীয়": 3559,
      "త్త": 3560,
      "rade": 3561,
      "▁ప్రదేశ్": 3562,
      "ప్రదేశ్": 3563,
      "▁अन्य": 3564,
      "सेना": 3565,
      "▁चु": 3566,
      "▁हुई": 3567,
      "▁समय": 3568,
      "▁territories": 3569,
      "র্থনৈতিক": 3570,
      "त्पाद": 3571,
      "▁ত্রুটি\"))\n": 3572,
      "▁నుండి": 3573,
      "6).": 3574,
      "c=": 3575,
      "cms": 3576,
      "nam": 3577,
      "tel": 3578,
      "ar,": 3579,
      "arb": 3580,
      "eds.": 3581,
      "▁par": 3582,
      "\\)\")\n": 3583,
      "ata_": 3584,
      "ade": 3585,
      "▁dec": 3586,
      "124": 3587,
      "rits": 3588,
      "▁national": 3589,
      "orest": 3590,
      "▁December": 3591,
      "-w": 3592,
      "-78": 3593,
      "110": 3594,
      "co": 3595,
      "press": 3596,
      "s.[[": 3597,
      "yy": 3598,
      "▁j": 3599,
      "](./V": 3600,
      "▁\"V": 3601,
      "_Sh": 3602,
      "▁[\"India": 3603,
      "▁অব": 3604,
      "▁কে": 3605,
      "▁[South": 3606,
      "▁ভাষা\")\n": 3607,
      "▁classical": 3608,
      ".aspx": 3609,
      "0/": 3610,
      "85": 3611,
      "8-0)": 3612,
      "BC": 3613,
      "Qu": 3614,
      "_0": 3615,
      "de": 3616,
      "detail": 3617,
      "ealth": 3618,
      "▁Union": 3619,
      "onwe": 3620,
      "ical_": 3621,
      "▁includ": 3622,
      "illion": 3623,
      "cean": 3624,
      "▁2017": 3625,
      "▁March": 3626,
      "](//upload.wikimedia.org/wikipedia/commons/thumb/b/b": 3627,
      "▁[\"C": 3628,
      "1997": 3629,
      "under": 3630,
      "onwealth": 3631,
      "-B": 3632,
      "_न": 3633,
      "cod": 3634,
      "ईसा": 3635,
      "कल": 3636,
      "खाना": 3637,
      "टे": 3638,
      "तु": 3639,
      "रवरी": 3640,
      "ल्": 3641,
      "ाम": 3642,
      "ैक": 3643,
      "ोम": 3644,
      "তম": 3645,
      "সেম্বর": 3646,
      "ణి": 3647,
      "తమిళ": 3648,
      "మె": 3649,
      "మైన": 3650,
      "హార": 3651,
      "▁ऊ": 3652,
      "](./O": 3653,
      "](./আ": 3654,
      "▁[द": 3655,
      "▁[প": 3656,
      "▁[అ": 3657,
      "▁[ప": 3658,
      "▁\"ఇ": 3659,
      "▁\"బ": 3660,
      "▁\"భారత": 3661,
      "ारी": 3662,
      "itation": 3663,
      "▁सु": 3664,
      "inguis": 3665,
      "▁Sanskrit": 3666,
      "र्दू": 3667,
      "ters": 3668,
      "▁अग": 3669,
      "▁दिया": 3670,
      "▁बढ़": 3671,
      "రాజ": 3672,
      "▁కాల": 3673,
      "▁व्य": 3674,
      "বাংলা": 3675,
      "](./ভারত#cite_ref-": 3676,
      "▁మొ": 3677,
      "నాగ": 3678,
      "▁ভারতে": 3679,
      "త్తర": 3680,
      "▁হয়েছে": 3681,
      "राष्ट्रपति": 3682,
      "▁అధిక": 3683,
      "्रां": 3684,
      "▁Hindi": 3685,
      "esearch": 3686,
      "▁हुआ": 3687,
      "मुख": 3688,
      "हासागर": 3689,
      "হিন্দ": 3690,
      "ंबई": 3691,
      "ম্পর্ক": 3692,
      "शासित": 3693,
      "శ్మీ": 3694,
      "▁लिए": 3695,
      "िक्षा": 3696,
      "మూస:": 3697,
      "▁विकास": 3698,
      "▁ডিসেম্বর": 3699,
      "ymbol": 3700,
      "▁কেন্দ্র": 3701,
      "iri": 3702,
      "pa": 3703,
      "▁emp": 3704,
      "read": 3705,
      "omin": 3706,
      "ivil": 3707,
      "loy": 3708,
      "▁caste": 3709,
      "▁Plate": 3710,
      "_in_S": 3711,
      "▁one": 3712,
      "▁group": 3713,
      "▁general": 3714,
      "ose": 3715,
      "s_and": 3716,
      "▁\"Economy": 3717,
      "](./Economy": 3718,
      "frica": 3719,
      "rojection": 3720,
      "onesia": 3721,
      "-India": 3722,
      "_ম": 3723,
      "ph": 3724,
      "টে": 3725,
      "পতি": 3726,
      "eral_": 3727,
      "encies": 3728,
      "chool": 3729,
      "▁Con": 3730,
      "▁grow": 3731,
      "s_C": 3732,
      "্যাক": 3733,
      "▁সালে": 3734,
      "-20": 3735,
      "119": 3736,
      "84": 3737,
      "EO": 3738,
      "WEO": 3739,
      "_v": 3740,
      "earch": 3741,
      "len": 3742,
      "▁time": 3743,
      "olle": 3744,
      "▁War": 3745,
      "▁northern": 3746,
      "\"](http://": 3747,
      "1]](./India#cite_note-FOOTNOTE": 3748,
      "73": 3749,
      "New": 3750,
      "olog": 3751,
      "rganisation": 3752,
      "क्स": 3753,
      "न](./": 3754,
      "नगर": 3755,
      "ल](./": 3756,
      "वै": 3757,
      "ूर्": 3758,
      "ृति": 3759,
      "বর": 3760,
      "শ্র": 3761,
      "ীক": 3762,
      "ীত": 3763,
      "చే": 3764,
      "ైనా": 3765,
      "▁శ": 3766,
      "▁ind": 3767,
      "▁फ़": 3768,
      "](./ఇ": 3769,
      "](./బ": 3770,
      "](./స": 3771,
      "▁[आ": 3772,
      "▁[इ": 3773,
      "▁[ఇ": 3774,
      "▁[doi": 3775,
      "▁\"आ": 3776,
      "▁\"జ": 3777,
      "tes": 3778,
      "teen": 3779,
      "ार्च": 3780,
      "es,": 3781,
      "city": 3782,
      "▁app": 3783,
      "itary": 3784,
      "lem": 3785,
      "▁summit\")\n": 3786,
      "-111": 3787,
      "_of_C": 3788,
      "िक्": 3789,
      "భారత_": 3790,
      "▁2.": 3791,
      "ates": 3792,
      "▁जून": 3793,
      "▁BRICS": 3794,
      "▁दिस": 3795,
      "राजस्थान": 3796,
      "లో](./": 3797,
      "imf": 3798,
      "▁2004": 3799,
      "▁2008": 3800,
      "రిజ": 3801,
      "క్కు": 3802,
      "বাধ": 3803,
      "ండ్": 3804,
      "नेपाल": 3805,
      "েশিন": 3806,
      "त्तरा": 3807,
      "কেন্দ্র": 3808,
      "Indonesia": 3809,
      "जाति": 3810,
      "पर्यटन": 3811,
      "धानमंत्र": 3812,
      "्रीका": 3813,
      "▁सूची\")": 3814,
      "rates": 3815,
      "गणना": 3816,
      "্রাজ্য": 3817,
      "ष्ण": 3818,
      "ওয়েব্যাক": 3819,
      "▁निर्": 3820,
      "\")**|": 3821,
      "माणु": 3822,
      "స్కృతి": 3823,
      "म्मू": 3824,
      "IMF": 3825,
      "ehru": 3826,
      "▁[doi](./Doi_\\(identifier\\)": 3827,
      "▁दिसम्बर": 3828,
      "-of": 3829,
      "bu": 3830,
      "mil": 3831,
      "pear": 3832,
      "–12": 3833,
      "▁ref": 3834,
      "than": 3835,
      "chin": 3836,
      "▁sh": 3837,
      "atak": 3838,
      "adi": 3839,
      "▁Pakistan": 3840,
      "▁than": 3841,
      "▁Fe": 3842,
      "hai": 3843,
      "▁2024": 3844,
      ".jpg/120px-": 3845,
      "▁Commissioner": 3846,
      "\"](http://www.": 3847,
      ".bn": 3848,
      "Main": 3849,
      "_J": 3850,
      "britannica": 3851,
      "ণী": 3852,
      "যোগ": 3853,
      "শ্চ": 3854,
      "▁[V": 3855,
      "edi": 3856,
      "omas": 3857,
      "ouse": 3858,
      "astern": 3859,
      "idata": 3860,
      "▁such": 3861,
      "ety": 3862,
      "্যারা": 3863,
      "_of_S": 3864,
      "▁প্যারা": 3865,
      "ung": 3866,
      "avy": 3867,
      "বাদ": 3868,
      "bruary": 3869,
      "Hindust": 3870,
      "কারী": 3871,
      "জাতীয়": 3872,
      "meric": 3873,
      "▁period": 3874,
      "rofile": 3875,
      "inguistic": 3876,
      "britannica.com/": 3877,
      "▁প্যারামিটার": 3878,
      "Craven": 3879,
      "cture": 3880,
      "her": 3881,
      "pla": 3882,
      "slam": 3883,
      "yayan": 3884,
      "arge": 3885,
      "isions": 3886,
      "itz": 3887,
      "ooperation": 3888,
      "▁modern": 3889,
      "ilg": 3890,
      "ross": 3891,
      "▁war": 3892,
      "▁23": 3893,
      "▁1947": 3894,
      "al_P": 3895,
      "ocument": 3896,
      "-19-9": 3897,
      "_Delhi": 3898,
      "▁Press](./": 3899,
      "_projection": 3900,
      "itecture": 3901,
      "orthographic": 3902,
      "ultan": 3903,
      "-521-80": 3904,
      "ainting": 3905,
      "atsyayan": 3906,
      "Hinduism": 3907,
      "904-7": 3908,
      "](./List_of_countries_by": 3909,
      "Harle1994": 3910,
      "ricket": 3911,
      "ujarat": 3912,
      "Craven1997": 3913,
      "orthographic_projection": 3914,
      "-521-80904-7": 3915,
      "_द": 3916,
      "_प": 3917,
      "_व": 3918,
      "ahar": 3919,
      "history": 3920,
      "wal": 3921,
      "टी": 3922,
      "वी": 3923,
      "हीं": 3924,
      "िज": 3925,
      "िन्": 3926,
      "ैल": 3927,
      "ैंड": 3928,
      "শন": 3929,
      "শি": 3930,
      "সভা": 3931,
      "ఆసియా": 3932,
      "▁२": 3933,
      "▁other": 3934,
      "▁রাজ্য": 3935,
      "▁२०": 3936,
      "](./सं": 3937,
      "▁[ज": 3938,
      "▁[ক": 3939,
      "▁[జ": 3940,
      "▁[బ": 3941,
      "▁[19": 3942,
      "ale": 3943,
      "▁(eds.": 3944,
      "▁मार्च": 3945,
      "्यता": 3946,
      "▁increas": 3947,
      "▁पह": 3948,
      "▁पार्ट": 3949,
      "र्स": 3950,
      "र्जा": 3951,
      "](./भारतीय": 3952,
      "](./भारत_की_": 3953,
      "ace": 3954,
      "▁Modern": 3955,
      "▁పా": 3956,
      "त्रि": 3957,
      "ানি": 3958,
      "▁बना": 3959,
      "_सा": 3960,
      "িকে": 3961,
      "▁వా": 3962,
      "ండు": 3963,
      "▁संविधान": 3964,
      "▁చూ": 3965,
      "▁প্রধান": 3966,
      "త్వ": 3967,
      "र्वत": 3968,
      "ंडिया": 3969,
      "पात": 3970,
      "ప్రధాన": 3971,
      "ंग्रेस": 3972,
      "ervation": 3973,
      "সংখ": 3974,
      "athak": 3975,
      "स्कृति": 3976,
      "▁produc": 3977,
      "▁million": 3978,
      "ভূমি": 3979,
      "%E0%A6%B": 3980,
      "▁later": 3981,
      "▁खाना\")": 3982,
      "International": 3983,
      "िल्ली": 3984,
      "▁शासन": 3985,
      "▁थी": 3986,
      "व्यवस्था": 3987,
      "▁द्वारा": 3988,
      "▁फ़रवरी": 3989,
      "শ্চিম": 3990,
      "c.": 3991,
      "ls": 3992,
      "lor": 3993,
      "minist": 3994,
      "rar": 3995,
      "▁0.": 3996,
      "ery": 3997,
      "▁*[": 3998,
      "2016": 3999,
      "rature": 4000,
      "▁south": 4001,
      "istrar": 4002,
      "ource": 4003,
      "1990": 4004,
      "▁Language": 4005,
      "inistry_of_": 4006,
      "/P": 4007,
      "3]](./India#cite_note-FOOTNOTE": 4008,
      "66": 4009,
      "_ও": 4010,
      "_en": 4011,
      "_উদ্ধৃতি": 4012,
      "a\")": 4013,
      "m.nic.in/": 4014,
      "ncl": 4015,
      "vatsyayan": 4016,
      "উত্তর": 4017,
      "ণি": 4018,
      "ুট": 4019,
      "▁[অ": 4020,
      "▁[India": 4021,
      "religion": 4022,
      "citation": 4023,
      "ারণ": 4024,
      "▁sp": 4025,
      "uslim": 4026,
      "ammu": 4027,
      "atus": 4028,
      "ovember": 4029,
      "▁সে": 4030,
      "▁2013": 4031,
      "▁British": 4032,
      "](./South_Asia": 4033,
      "▁[\"The": 4034,
      "▁করা": 4035,
      "otal": 4036,
      "▁আর্কাইভকৃত": 4037,
      "▁হি": 4038,
      "-108": 4039,
      "▁\"Template": 4040,
      "_BRICS": 4041,
      "-lord": 4042,
      "▁উদ্ধৃতি\")}}`:": 4043,
      "▁উদ্ধৃতি](./টেমপ্লেট": 4044,
      "ligious": 4045,
      "nclm.nic.in/": 4046,
      "vatsyayan-lord": 4047,
      "7-0)": 4048,
      "iki": 4049,
      "t-": 4050,
      "ures": 4051,
      "reat": 4052,
      "resent": 4053,
      "rote": 4054,
      "▁who": 4055,
      "2025": 4056,
      "epal": 4057,
      "ankar": 4058,
      "81": 4059,
      "LA": 4060,
      "UI": 4061,
      "Wik": 4062,
      "_আ": 4063,
      "_ব": 4064,
      "_సా": 4065,
      "election": 4066,
      "ंट": 4067,
      "खंड": 4068,
      "खण्ड": 4069,
      "गोल": 4070,
      "धि": 4071,
      "योग": 4072,
      "रू": 4073,
      "रेल": 4074,
      "शीन": 4075,
      "ाप": 4076,
      "ुरु": 4077,
      "ौर": 4078,
      "ौद्ध": 4079,
      "ौद्योगिक": 4080,
      "্ম": 4081,
      "గణ": 4082,
      "దిన": 4083,
      "నై": 4084,
      "రీ": 4085,
      "ోర్": 4086,
      "▁या": 4087,
      "▁\"చ": 4088,
      "्रम": 4089,
      "ould": 4090,
      "▁संग": 4091,
      "▁मैदान": 4092,
      ".org": 4093,
      "▁Affair": 4094,
      "url": 4095,
      "▁अरब": 4096,
      "नाडु": 4097,
      "▁जल": 4098,
      "▁Bank": 4099,
      "▁दर": 4100,
      "▁प्रति": 4101,
      "ताब्": 4102,
      "▁ear": 4103,
      "स्त्र": 4104,
      "▁క్రీ": 4105,
      "క్‌": 4106,
      "पुरी": 4107,
      "నికి": 4108,
      "ల్ల": 4109,
      "osed": 4110,
      "ంగీ": 4111,
      "_\\(India\\)": 4112,
      "](./भारत#cite_ref-FOOTNOTE": 4113,
      "నాభా": 4114,
      "▁আগ": 4115,
      "▁हैं,": 4116,
      "జాబి": 4117,
      "किम": 4118,
      "onstituent": 4119,
      "▁Environment": 4120,
      "दीव": 4121,
      "▁తే": 4122,
      "▁इसके": 4123,
      ".jpg)\n": 4124,
      "▁[মূল": 4125,
      "पालिका": 4126,
      "▁घाट": 4127,
      "▁সাম": 4128,
      "శాస్త్ర": 4129,
      "▁భాష\")\n": 4130,
      "▁सिनेमा": 4131,
      "బెంగ": 4132,
      "/articleshow/": 4133,
      "िक्किम": 4134,
      "▁February": 4135,
      "జాబితా": 4136,
      "94": 4137,
      "C).": 4138,
      "jan": 4139,
      "lm": 4140,
      "va": 4141,
      "▁art": 4142,
      "▁right": 4143,
      "](./I": 4144,
      "▁[p": 4145,
      "ergy": 4146,
      "alore": 4147,
      "▁(2018": 4148,
      "etra": 4149,
      "los": 4150,
      "angalore": 4151,
      "▁mathe": 4152,
      "▁2019.": 4153,
      "trol": 4154,
      "archive.org/detail": 4155,
      "owland": 4156,
      "MetcalfMetcalf2006),": 4157,
      "ependent": 4158,
      "usines": 4159,
      "limate": 4160,
      "▁York": 4161,
      "nown": 4162,
      "uddhism": 4163,
      "▁2018](./India#CITEREF": 4164,
      "▁Act,": 4165,
      "ournal": 4166,
      "archive.org/details/": 4167,
      ".IN": 4168,
      "ij": 4169,
      "ks": 4170,
      "mon": 4171,
      "ning": 4172,
      "জানা": 4173,
      "োট": 4174,
      "▁ro": 4175,
      "▁রাজ": 4176,
      "▁[ব": 4177,
      "ndra": 4178,
      "ini": 4179,
      "aran": 4180,
      "ally": 4181,
      "▁India_": 4182,
      "chi": 4183,
      "য়া": 4184,
      "▁2015": 4185,
      "▁Delhi": 4186,
      ".svg)": 4187,
      "agar": 4188,
      "▁long": 4189,
      "-317": 4190,
      "266": 4191,
      "▁Kashmir": 4192,
      "oreign": 4193,
      "▁বৃ": 4194,
      "ultural": 4195,
      "▁2021.\n": 4196,
      "▁Indus": 4197,
      "▁উৎস/0": 4198,
      "](./বিশেষ:বইয়ের_উৎস/0": 4199,
      "শাসিত": 4200,
      "ustralia": 4201,
      "yanmar": 4202,
      "censusindia.gov.in/2011census": 4203,
      "WEO.IN": 4204,
      "IMFWEO.IN": 4205,
      "\"](https://books.google.com/books?id=": 4206,
      "/s": 4207,
      "93": 4208,
      "Ludden": 4209,
      "aus": 4210,
      "bank": 4211,
      "can": 4212,
      "▁...": 4213,
      "errit": 4214,
      "208": 4215,
      "2015": 4216,
      "▁R.": 4217,
      "254": 4218,
      "own": 4219,
      "ugh": 4220,
      "ependence": 4221,
      "rogress": 4222,
      "ociety": 4223,
      "-S": 4224,
      "2]](./India#cite_note-FOOTNOTE": 4225,
      "Dikshit": 4226,
      "European": 4227,
      "Sharma": 4228,
      "Schwartzberg": 4229,
      "_अ": 4230,
      "data": 4231,
      "s\")\n": 4232,
      "tre": 4233,
      "tle": 4234,
      "गंगा": 4235,
      "मेर": 4236,
      "रण": 4237,
      "लिस": 4238,
      "वीं": 4239,
      "शक": 4240,
      "स](./": 4241,
      "सभा": 4242,
      "स्ट": 4243,
      "ा:": 4244,
      "ां": 4245,
      "ांध": 4246,
      "ोष": 4247,
      "পাল": 4248,
      "রিক": 4249,
      "ীর": 4250,
      "చల్": 4251,
      "యన్": 4252,
      "వులు": 4253,
      "షు": 4254,
      "ూర్": 4255,
      "▁ध": 4256,
      "▁industry": 4257,
      "](./జ": 4258,
      "](./ప": 4259,
      "](./భారతీయ": 4260,
      "▁[ই": 4261,
      "▁[భారతీయ": 4262,
      "▁\"ব": 4263,
      "▁\"हिन्द": 4264,
      "ार्त": 4265,
      "▁among": 4266,
      "▁people": 4267,
      "iving": 4268,
      "राठ": 4269,
      "ారం": 4270,
      "ార్ట": 4271,
      "▁China": 4272,
      "▁many": 4273,
      "ాలయ": 4274,
      "ers,": 4275,
      "▁दृ": 4276,
      "▁दो": 4277,
      "Ins": 4278,
      "▁प्रमुख": 4279,
      "▁large": 4280,
      "▁2003": 4281,
      "▁वा": 4282,
      "▁অজানা": 4283,
      "క్క": 4284,
      "▁వ్యవస్థ": 4285,
      "▁কো": 4286,
      "ast_Asia": 4287,
      "▁సి": 4288,
      "▁ము": 4289,
      "▁তালিকা": 4290,
      "utra": 4291,
      "ండో": 4292,
      "ముంబ": 4293,
      "▁लग": 4294,
      "▁इतिहास": 4295,
      "हिमा": 4296,
      "िये": 4297,
      "సిన": 4298,
      "▁रह": 4299,
      "▁2022": 4300,
      "িয়ান": 4301,
      "▁भाषाओं": 4302,
      "ినల్": 4303,
      "▁rule": 4304,
      "erala": 4305,
      "ద్ద": 4306,
      "▁ఉన్న": 4307,
      "▁ఉన్నాయ": 4308,
      "ृत्य": 4309,
      "ूनिव": 4310,
      "పాకిస్తాన్": 4311,
      "▁सूची\")\n": 4312,
      "ूरो": 4313,
      "জাতন্ত্র": 4314,
      "ంధీ": 4315,
      "_संघ": 4316,
      "▁ఒక": 4317,
      "▁ఒరిజ": 4318,
      "▁हिन्दी": 4319,
      "ategory:": 4320,
      "▁युद्ध": 4321,
      "pecial:BookSources/978-81": 4322,
      "ঞ্জ": 4323,
      "तेलु": 4324,
      "▁न्यायालय": 4325,
      "धिकारिक": 4326,
      "▁[पुरालेखित": 4327,
      "▁अगस्त": 4328,
      "](./Economy_of_": 4329,
      "धानमंत्री": 4330,
      "▁(eds.).": 4331,
      "DikshitSchwartzberg": 4332,
      "ार्ता:": 4333,
      "ార్టీ": 4334,
      "▁ఒరిజినల్": 4335,
      "/121": 4336,
      "UCN": 4337,
      "dr": 4338,
      "ix": 4339,
      "rg": 4340,
      "▁land": 4341,
      "▁[978": 4342,
      "▁\"India": 4343,
      "iam": 4344,
      "tition": 4345,
      "aldiv": 4346,
      "▁since": 4347,
      "-16": 4348,
      "▁me": 4349,
      "▁Economic": 4350,
      "tud": 4351,
      "▁Government": 4352,
      "asty": 4353,
      "160": 4354,
      "-90": 4355,
      "_New": 4356,
      "\"](https://web.archive.org/web/20160": 4357,
      "▁union": 4358,
      "ynasty": 4359,
      "f/f": 4360,
      "▁territory": 4361,
      "▁[Archived](https://web.archive.org/web/20": 4362,
      "4/41/": 4363,
      "aldives": 4364,
      ".world": 4365,
      "7,": 4366,
      "Re": 4367,
      "fgh": 4368,
      "wood": 4369,
      "দের": 4370,
      "ল্": 4371,
      "▁ci": 4372,
      "▁40": 4373,
      "▁under": 4374,
      "](./ব": 4375,
      "▁\"ক": 4376,
      "alog": 4377,
      "etary": 4378,
      "▁Ar": 4379,
      "▁All": 4380,
      "▁States": 4381,
      "urv": 4382,
      "▁সঙ্গ": 4383,
      "▁def": 4384,
      ".com/news/": 4385,
      "▁২১": 4386,
      "▁_[The": 4387,
      "▁original](https://www.": 4388,
      "প্রা": 4389,
      "ances": 4390,
      "hrist": 4391,
      "▁[ভারতের": 4392,
      "▁[ভারতীয়": 4393,
      "▁2021.": 4394,
      "কিস্তান": 4395,
      "▁([সাহায্য](./সাহায্য:উদ্ধৃতি_শৈলী_ত্রুটি#par": 4396,
      "▁Assembly": 4397,
      "▁गणराज्य": 4398,
      "▁(২০০": 4399,
      "_ও_": 4400,
      "fghan": 4401,
      "9).": 4402,
      "Ag": 4403,
      "Empire": 4404,
      "Spear": 4405,
      "ared": 4406,
      "ling": 4407,
      "languages": 4408,
      "ting": 4409,
      "ua": 4410,
      "war": 4411,
      "yer": 4412,
      "–10": 4413,
      "▁ra": 4414,
      "▁50": 4415,
      "▁\"Indo-": 4416,
      "alli": 4417,
      "its": 4418,
      "1970": 4419,
      "▁some": 4420,
      "wik": 4421,
      "▁Arab": 4422,
      "ada": 4423,
      "▁Chin": 4424,
      "_Summit": 4425,
      "occ": 4426,
      "ock": 4427,
      "▁\\(India\\)": 4428,
      "ineering": 4429,
      "arket": 4430,
      "62-2": 4431,
      "hola": 4432,
      "rdu": 4433,
      "-107-111": 4434,
      "82905": 4435,
      "▁economic": 4436,
      ".php?": 4437,
      "-19-882905": 4438,
      "formation": 4439,
      "ictionary": 4440,
      "-780": 4441,
      ".aspx?": 4442,
      "_in_South_Asia": 4443,
      "erritory": 4444,
      "ast_Asia_Summit": 4445,
      "-107-11162-2": 4446,
      "-19-882905-8": 4447,
      "-प": 4448,
      "2).": 4449,
      "EX": 4450,
      "_ए": 4451,
      "ंका": 4452,
      "कट": 4453,
      "भो": 4454,
      "लंका": 4455,
      "हैद": 4456,
      "िला": 4457,
      "ूह": 4458,
      "्म": 4459,
      "ত্য": 4460,
      "তালিকা": 4461,
      "দা": 4462,
      "েল": 4463,
      "েস": 4464,
      "ంప": 4465,
      "ం?action=edit&redlink=1": 4466,
      "జ్": 4467,
      "వరి": 4468,
      "శ్చ": 4469,
      "ిన్న": 4470,
      "ెల": 4471,
      "▁/": 4472,
      "▁ट": 4473,
      "](./आ": 4474,
      "](./इ": 4475,
      "▁[ओ": 4476,
      "▁[భారత": 4477,
      "▁\"ओ": 4478,
      "▁\"భారతదేశ": 4479,
      "tice": 4480,
      "▁they": 4481,
      "్రె": 4482,
      "राबाद": 4483,
      "rib": 4484,
      "ाने": 4485,
      "र्ना": 4486,
      "▁Public": 4487,
      "urton": 4488,
      "▁major": 4489,
      "▁अप्र": 4490,
      "▁Minor": 4491,
      "Infor": 4492,
      "▁नी": 4493,
      "నిస్తాన్": 4494,
      "▁number": 4495,
      "udi": 4496,
      "▁మధ్య": 4497,
      "▁[Asher": 4498,
      "23)": 4499,
      "▁संबंध": 4500,
      "কাশ": 4501,
      "प्रा": 4502,
      "त्तीस": 4503,
      "ternal": 4504,
      "र्वो": 4505,
      "▁original](https://": 4506,
      "লেখ": 4507,
      "](./భారతదేశంలో": 4508,
      "▁करने": 4509,
      "िरपे": 4510,
      "वायु": 4511,
      "స్థాన్": 4512,
      "ीपी": 4513,
      "▁मेला\")": 4514,
      "▁हुए": 4515,
      "ependencies": 4516,
      "దీ:": 4517,
      "▁పేజీ": 4518,
      "▁कार्य": 4519,
      "भीम": 4520,
      "మ్మూ": 4521,
      "matics_C": 4522,
      "▁भूम": 4523,
      "▁\"భారతదేశంలో": 4524,
      "arnatak": 4525,
      "▁[हिन्दी](./": 4526,
      "▁చూసిన": 4527,
      "▁తేదీ:": 4528,
      "हैदराबाद": 4529,
      "శ్చి": 4530,
      "र्नाटक": 4531,
      "Informatics_C": 4532,
      "िरपेक्ष": 4533,
      "▁పేజీని": 4534,
      "Informatics_Centre": 4535,
      "_ic": 4536,
      "_for": 4537,
      "ie": 4538,
      "▁ed": 4539,
      "lated": 4540,
      "▁CE": 4541,
      "▁Cons": 4542,
      "upta": 4543,
      "▁Tamil": 4544,
      "▁GDP": 4545,
      "▁General": 4546,
      "ubcontinent": 4547,
      "ext": 4548,
      "ingham": 4549,
      "arliamentary": 4550,
      "rogram": 4551,
      "rogressive": 4552,
      "fghanistan": 4553,
      "3TR": 4554,
      "6]](./India#cite_note-": 4555,
      "II": 4556,
      "_19": 4557,
      "_11": 4558,
      "back": 4559,
      "উপ": 4560,
      "পরি": 4561,
      "ফোর্": 4562,
      "▁৪": 4563,
      "▁৫": 4564,
      "▁article": 4565,
      "▁term": 4566,
      "](./Indo-": 4567,
      "▁\"Oxford": 4568,
      "inance": 4569,
      "thnologue": 4570,
      "▁ac": 4571,
      "্রু": 4572,
      "-07": 4573,
      "▁social": 4574,
      "▁Sec": 4575,
      "▁Pers": 4576,
      "▁minister": 4577,
      "ility": 4578,
      "olution": 4579,
      "▁high": 4580,
      "pecial:EditPage/": 4581,
      "▁Nations": 4582,
      "▁Nadu": 4583,
      "apan": 4584,
      "osp": 4585,
      "ainism": 4586,
      "▁২০২": 4587,
      "ligence": 4588,
      "▁সংস্": 4589,
      "round": 4590,
      "যুক্ত": 4591,
      "ার্ক": 4592,
      "overe": 4593,
      "telligence": 4594,
      "teenth": 4595,
      "ministra": 4596,
      "▁আর্কাইভকৃত।": 4597,
      "Spear1990": 4598,
      "3TRt": 4599,
      "pecial:EditPage/Template": 4600,
      "6–": 4601,
      "iol": 4602,
      "owe": 4603,
      "▁rate": 4604,
      "▁occ": 4605,
      "▁[United": 4606,
      "oral": 4607,
      "anoram": 4608,
      "▁(1,": 4609,
      "▁found": 4610,
      "▁Publishing": 4611,
      "tical_": 4612,
      "▁3,": 4613,
      "▁Official": 4614,
      "60px-": 4615,
      "ssam": 4616,
      "riculture": 4617,
      "▁status": 4618,
      "▁used": 4619,
      "rishn": 4620,
      "onsoon": 4621,
      ".ni": 4622,
      ".uk": 4623,
      "Ary": 4624,
      "Taj": 4625,
      "Wolpert": 4626,
      "_g": 4627,
      "_ই": 4628,
      "ao": 4629,
      "hang": 4630,
      "ili": 4631,
      "ihar": 4632,
      "kar": 4633,
      "ple": 4634,
      "ंह": 4635,
      "उप": 4636,
      "गल": 4637,
      "झार": 4638,
      "डिया": 4639,
      "तट": 4640,
      "निक": 4641,
      "पान": 4642,
      "मालय": 4643,
      "हन": 4644,
      "हरी": 4645,
      "िख": 4646,
      "िस्तान": 4647,
      "िहार": 4648,
      "এফ": 4649,
      "দক্ষিণ": 4650,
      "েক্ষা": 4651,
      "కై": 4652,
      "మం": 4653,
      "శ్రీ": 4654,
      "షన్": 4655,
      "హ్": 4656,
      "ెలు": 4657,
      "▁ऑ": 4658,
      "▁राष्ट्र": 4659,
      "](./అ": 4660,
      "▁[च": 4661,
      "▁[Oxford": 4662,
      "▁\"স": 4663,
      "▁कुल": 4664,
      "भारतीय": 4665,
      "▁सी": 4666,
      "lect": 4667,
      "▁India_](https://books.google.com/books?id=": 4668,
      "▁केन्द्र": 4669,
      "र्ष": 4670,
      "▁ही": 4671,
      "▁होत": 4672,
      "▁Raj": 4673,
      "▁పరి": 4674,
      "▁देख": 4675,
      "ियां": 4676,
      "▁बन": 4677,
      "▁बा": 4678,
      "▁history": 4679,
      "▁नद": 4680,
      "▁नहीं": 4681,
      "▁से](http://": 4682,
      "ক্ট": 4683,
      "308": 4684,
      "ాలు\n": 4685,
      "రియా": 4686,
      "पुरा": 4687,
      "स्ला": 4688,
      "▁কা": 4689,
      "▁మార్": 4690,
      "▁उद्यान": 4691,
      "▁है।[[": 4692,
      "ক্ষম": 4693,
      "▁शताब्": 4694,
      "▁लेख": 4695,
      "▁বৈ": 4696,
      "▁रहा": 4697,
      "anka": 4698,
      "▁শিল্প": 4699,
      "ప్రపంచ": 4700,
      "विशेष:EditPage/": 4701,
      "যুক্তি": 4702,
      "▁मेला](./": 4703,
      "▁సంస్కృతి": 4704,
      "श्चिमी": 4705,
      ":Citation": 4706,
      "▁[আর্কাইভকৃত](https://web.archive.org/web/201": 4707,
      "▁प्राप्त": 4708,
      "▁स्रोत/978-0": 4709,
      "▁स्रोत/978-1": 4710,
      "](./विशेष:पुस्तक_स्रोत/978-0": 4711,
      "](./विशेष:पुस्तक_स्रोत/978-1": 4712,
      "▁రాజవంశం": 4713,
      "रक्षा": 4714,
      "▁মধ্যে": 4715,
      "পূর্ব": 4716,
      "union_territ": 4717,
      "▁चुनाव": 4718,
      "रेलू": 4719,
      "▁[पुरालेखित](https://web.archive.org/web/201": 4720,
      "र्वोच्च": 4721,
      "विशेष:EditPage/साँचा:": 4722,
      "/article": 4723,
      "South": 4724,
      "rup": 4725,
      "tb": 4726,
      "ved": 4727,
      "view": 4728,
      "west": 4729,
      "yle": 4730,
      "zation": 4731,
      "▁6.": 4732,
      "▁\"United": 4733,
      "▁\"History": 4734,
      "arna": 4735,
      "▁there": 4736,
      "inger": 4737,
      "lopedia": 4738,
      "ature": 4739,
      "▁SAARC": 4740,
      "▁Science": 4741,
      "▁trans": 4742,
      "▁both": 4743,
      "urban": 4744,
      "▁Mon": 4745,
      "ulti": 4746,
      "](./South": 4747,
      ".org/wiki/": 4748,
      "▁largest": 4749,
      ".[[4": 4750,
      "▁From": 4751,
      "28)": 4752,
      "ffice": 4753,
      "▁Press,": 4754,
      "_Temple": 4755,
      "▁1998": 4756,
      "ography": 4757,
      "rovision": 4758,
      "gypt": 4759,
      ".svg/20px-Increase2": 4760,
      "▁world's": 4761,
      "Increase2.svg/20px-Increase2": 4762,
      "cyclopedia": 4763,
      "emocracy": 4764,
      "▁2006](./India#CITEREFMetcalfMetcalf2006),": 4765,
      "0/Increase2.svg/20px-Increase2": 4766,
      "](//upload.wikimedia.org/wikipedia/commons/thumb/b/b0/Increase2.svg/20px-Increase2": 4767,
      "▁article:": 4768,
      "](//upload.wikimedia.org/wikipedia/commons/thumb/b/b0/Increase2.svg/20px-Increase2.svg.png)": 4769,
      "/ark": 4770,
      ":/121": 4771,
      "Bharat": 4772,
      "Report": 4773,
      "_[": 4774,
      "eal": 4775,
      "f.fr": 4776,
      "go": 4777,
      "ras": 4778,
      "top": 4779,
      "uri": 4780,
      "আই": 4781,
      "চে": 4782,
      "োবর": 4783,
      "▁:": 4784,
      "](./ক": 4785,
      "▁\"ই": 4786,
      "eserv": 4787,
      "য়ু": 4788,
      "-15": 4789,
      "ams": 4790,
      "▁C.": 4791,
      "▁Centre": 4792,
      "ISO": 4793,
      "▁des": 4794,
      "road": 4795,
      "▁Bengal": 4796,
      "ages/": 4797,
      "48/c": 4798,
      "ষ্ট": 4799,
      "ঙ্ক": 4800,
      "রেজি": 4801,
      "glance": 4802,
      "ondon": 4803,
      "a/a": 4804,
      "▁ইতিহাস": 4805,
      "-india-": 4806,
      "▁২০১১": 4807,
      "▁রয়েছে": 4808,
      "actbook": 4809,
      "বাহিনী": 4810,
      "-lead": 4811,
      "india-glance": 4812,
      "বাধীন": 4813,
      ".bnf.fr": 4814,
      "▁আগস্ট": 4815,
      "rgani": 4816,
      "/ark:/121": 4817,
      "48/cb": 4818,
      ".bnf.fr/ark:/121": 4819,
      ".bnf.fr/ark:/12148/cb": 4820,
      "\"[[": 4821,
      "-logo": 4822,
      "2–": 4823,
      "=http": 4824,
      "NC": 4825,
      "a-": 4826,
      "cise": 4827,
      "ii": 4828,
      "ots": 4829,
      "tandard": 4830,
      "ick": 4831,
      "▁India\").": 4832,
      "▁11": 4833,
      "▁S.": 4834,
      "ter_": 4835,
      "217": 4836,
      "▁Republic": 4837,
      "107": 4838,
      "ly,": 4839,
      "epart": 4840,
      "122": 4841,
      "▁[\"A": 4842,
      "e_M": 4843,
      "▁Valley": 4844,
      "MetcalfMetcalf2012": 4845,
      "▁add": 4846,
      "olden": 4847,
      "▁left": 4848,
      "Aryan": 4849,
      "epartment": 4850,
      "-विज्ञान": 4851,
      "05": 4852,
      "3),": 4853,
      "5]](./India#cite_note-FOOTNOTE": 4854,
      ":ওয়েব": 4855,
      "AS": 4856,
      "Robb": 4857,
      "_आ": 4858,
      "_देश": 4859,
      "ae": 4860,
      "aut": 4861,
      "cul": 4862,
      "min": 4863,
      "p?": 4864,
      "t,": 4865,
      "way": 4866,
      "ंच": 4867,
      "ईरा": 4868,
      "छत्तीस": 4869,
      "जम्मू": 4870,
      "त्व": 4871,
      "द्वीप": 4872,
      "फल": 4873,
      "फ्रीका": 4874,
      "बैक": 4875,
      "लग": 4876,
      "लयाल": 4877,
      "स\")": 4878,
      "सून": 4879,
      "ाय": 4880,
      "िंध": 4881,
      "ीच": 4882,
      "१९": 4883,
      "র্য": 4884,
      "শনা": 4885,
      "ం\"),": 4886,
      "ఆఫ్": 4887,
      "కత": 4888,
      "క్య": 4889,
      "దాయ": 4890,
      "రే": 4891,
      "లంక": 4892,
      "వీ": 4893,
      "షి": 4894,
      "సు": 4895,
      "▁ఏ": 4896,
      "▁em": 4897,
      "](./ओ": 4898,
      "](./च": 4899,
      "](./చ": 4900,
      "](./United": 4901,
      "▁[জ": 4902,
      "▁[చ": 4903,
      "▁\"च": 4904,
      "▁\"ल": 4905,
      "20)": 4906,
      "▁कई": 4907,
      "▁कश्मीर": 4908,
      "▁सद": 4909,
      "▁सैन": 4910,
      "lack": 4911,
      "raz": 4912,
      "](./भारत_का_": 4913,
      "▁Company": 4914,
      "▁mar": 4915,
      "olly": 4916,
      "స్సా": 4917,
      "वित": 4918,
      "](./ভারত#CITEREF": 4919,
      "▁పార్టీ": 4920,
      "বিজ্ঞান": 4921,
      "న్‌": 4922,
      "▁बीच": 4923,
      "407": 4924,
      "even": 4925,
      "▁से](http://www.": 4926,
      "ताज": 4927,
      "▁Gandhi": 4928,
      "truc": 4929,
      "क्षा": 4930,
      "न्दिर": 4931,
      "ాలు\")\n": 4932,
      "▁आधिकारिक": 4933,
      "▁వచ్చ": 4934,
      "▁name": 4935,
      "स्थ": 4936,
      "▁কর": 4937,
      "▁गु": 4938,
      "▁उत्पाद": 4939,
      "ाद्वीप": 4940,
      "ক্ষে": 4941,
      "erry": 4942,
      "_मंदिर": 4943,
      "▁संस्कृति": 4944,
      "ভাগ": 4945,
      "▁প্রা": 4946,
      "▁প্রতি": 4947,
      "েশন": 4948,
      "ముద్ర": 4949,
      "▁इन": 4950,
      "▁began": 4951,
      "▁জুন": 4952,
      "िस्ट": 4953,
      "▁करोड़": 4954,
      ".htm)": 4955,
      "▁अनु": 4956,
      "ibet": 4957,
      "केर": 4958,
      "▁[अंग्रेज़": 4959,
      "74-108": 4960,
      "▁\"National": 4961,
      "](./National_": 4962,
      "గాంధీ": 4963,
      "▁जनगणना": 4964,
      "ducation": 4965,
      "▁राजनी": 4966,
      ".html).": 4967,
      "▁\"पंजाब": 4968,
      "र्थव्यवस्था": 4969,
      "मुख्य": 4970,
      "Oxford_University_Press": 4971,
      "నేపాల": 4972,
      "পাকিস্তান": 4973,
      "करण": 4974,
      "▁[पंजाब": 4975,
      "Stein2010),": 4976,
      "गणराज्य": 4977,
      "ক্তকারী": 4978,
      "▁होता": 4979,
      "orests": 4980,
      "ब्ब": 4981,
      "▁పేరు": 4982,
      "▁जिसमें": 4983,
      "▁कारण": 4984,
      "ोर्ड": 4985,
      "_मेला?action=edit&redlink=1": 4986,
      "গুলির": 4987,
      "▁చెయ్య": 4988,
      "गोआ": 4989,
      "▁కూడా": 4990,
      "▁estim": 4991,
      "श्रीलंका": 4992,
      "वेबैक": 4993,
      "▁2010](./India#CITEREFStein2010),": 4994,
      "বাংলাদেশ": 4995,
      "▁Press](./Oxford_University_Press": 4996,
      "ultanate": 4997,
      "र्सिट": 4998,
      "ంగీతం": 4999,
      "usiness/": 5000,
      "ముంబై": 5001,
      "हिमाचल": 5002,
      "ूनिवर्सिट": 5003,
      "-78074-108": 5004,
      "శ్చిమ": 5005,
      "Spear199024": 5006,
      "3TRtDwAAQBAJ&pg=PA": 5007,
      "শনাক্তকারী": 5008,
      "ollywood": 5009,
      "▁[अंग्रेज़ी](./अ": 5010,
      "▁చెయ్యబడ": 5011,
      "-78074-108-6": 5012,
      "2,": 5013,
      "89": 5014,
      "K:": 5015,
      "day": 5016,
      "equ": 5017,
      "yam": 5018,
      "▁out": 5019,
      "▁[4": 5020,
      "eries": 5021,
      "▁ins": 5022,
      "ament": 5023,
      "umar": 5024,
      "▁country": 5025,
      "003": 5026,
      "▁David": 5027,
      "akhand": 5028,
      "al_in": 5029,
      "127": 5030,
      "avi": 5031,
      "undament": 5032,
      "olitical_": 5033,
      "▁area": 5034,
      "-largest": 5035,
      "](https://doi.org/10.10": 5036,
      "National_Informatics_Centre": 5037,
      "National_Informatics_Centre2005": 5038,
      "-এ": 5039,
      ".JPG": 5040,
      "/D": 5041,
      "3-": 5042,
      "300": 5043,
      "75": 5044,
      "GDP": 5045,
      "OOj": 5046,
      "af": 5047,
      "ইল": 5048,
      "তন্ত্র": 5049,
      "দ্য": 5050,
      "নীতি": 5051,
      "বল": 5052,
      "সদ": 5053,
      "▁ভ": 5054,
      "▁[০-": 5055,
      "▁\"অ": 5056,
      "tex": 5057,
      "tered": 5058,
      "an,": 5059,
      "leg": 5060,
      "law": 5061,
      "▁power": 5062,
      "য়ন": 5063,
      "adhy": 5064,
      "urn": 5065,
      "▁made": 5066,
      "▁2011.": 5067,
      "বিধান": 5068,
      "edit-l": 5069,
      "▁total": 5070,
      "eval": 5071,
      "elang": 5072,
      "tr-p": 5073,
      "-3)": 5074,
      "ালা": 5075,
      "abha": 5076,
      "▁মে": 5077,
      "▁J.": 5078,
      "s_UI": 5079,
      "▁Wik": 5080,
      "▁ব্যবস্থা": 5081,
      "▁হল": 5082,
      "_Development": 5083,
      "ষ্ঠ": 5084,
      "timesofindia": 5085,
      ".html)।": 5086,
      "ন্তর্": 5087,
      "International_": 5088,
      "fication": 5089,
      "on_edit-l": 5090,
      "▁নাম": 5091,
      "roduction": 5092,
      "চিত্র:": 5093,
      "ymbols": 5094,
      "edieval": 5095,
      "_icon_edit-l": 5096,
      "OOjs_UI": 5097,
      "tr-progressive": 5098,
      "timesofindia.indiatimes.com/": 5099,
      "_icon_edit-ltr-progressive": 5100,
      "OOjs_UI_icon_edit-ltr-progressive": 5101,
      "MID": 5102,
      "NA": 5103,
      "QAAQBAJ&pg=PA": 5104,
      "Th": 5105,
      "_13": 5106,
      "ba": 5107,
      "ez": 5108,
      "ele": 5109,
      "public": 5110,
      "rid": 5111,
      "ue_": 5112,
      "vel": 5113,
      "](./History": 5114,
      "reed": 5115,
      "aries": 5116,
      "cip": 5117,
      "icha": 5118,
      "▁(2006": 5119,
      "▁prime": 5120,
      "▁Summit\")\n": 5121,
      "0000": 5122,
      "arch_": 5123,
      "stan": 5124,
      "▁Ex": 5125,
      "aputra": 5126,
      "▁relations": 5127,
      "▁non-": 5128,
      "ounci": 5129,
      "ountain": 5130,
      "s_P": 5131,
      "ucation": 5132,
      "ikkim": 5133,
      "_East_Asia_Summit": 5134,
      "economic": 5135,
      "lowing": 5136,
      "AARC_summit": 5137,
      "▁lead": 5138,
      "-in-": 5139,
      "▁[Archived](https://web.archive.org/web/202": 5140,
      "_at_the": 5141,
      "▁dispu": 5142,
      "uddhist": 5143,
      "9/9": 5144,
      "flu": 5145,
      "rahmaputra": 5146,
      "rogramme": 5147,
      "rganization": 5148,
      "ichael": 5149,
      "320": 5150,
      "8–": 5151,
      "ES": 5152,
      "IJ": 5153,
      "[![": 5154,
      "_వ": 5155,
      "_ভারত": 5156,
      "aury": 5157,
      "ced": 5158,
      "country": 5159,
      "पि": 5160,
      "भ्यता": 5161,
      "मर": 5162,
      "मो": 5163,
      "यर": 5164,
      "लों": 5165,
      "शा": 5166,
      "िम": 5167,
      "ीगढ़": 5168,
      "ुंबई": 5169,
      "ॉक": 5170,
      "्ले": 5171,
      "কারি": 5172,
      "বন": 5173,
      "মন": 5174,
      "লচ্চ": 5175,
      "হু": 5176,
      "েলা": 5177,
      "১৭": 5178,
      "గర": 5179,
      "టక": 5180,
      "టా": 5181,
      "దార": 5182,
      "నీ": 5183,
      "రో": 5184,
      "సభ": 5185,
      "ెద్ద": 5186,
      "▁ओ": 5187,
      "▁ড": 5188,
      "▁—": 5189,
      "▁Qu": 5190,
      "](./द": 5191,
      "](./ल": 5192,
      "](./স": 5193,
      "](./साँचा": 5194,
      "](./భారత_": 5195,
      "▁[सा": 5196,
      "▁[సి": 5197,
      "▁\"ग": 5198,
      "▁\"প": 5199,
      "▁\"సి": 5200,
      "▁\"साँचा": 5201,
      "thnic": 5202,
      "▁कु": 5203,
      "ার্চ": 5204,
      "▁सूचना": 5205,
      "as,": 5206,
      "nored": 5207,
      "▁महासागर": 5208,
      "▁summit": 5209,
      "▁पर्वत": 5210,
      "ानव": 5211,
      "ece": 5212,
      "र्ज": 5213,
      "▁movement": 5214,
      "▁diff": 5215,
      "▁పు": 5216,
      "▁जी": 5217,
      "বিত": 5218,
      "ignored": 5219,
      "ालदीव": 5220,
      "▁दशक": 5221,
      "ेशन": 5222,
      "ेशिया": 5223,
      "▁D.": 5224,
      "▁his": 5225,
      "aylor": 5226,
      "రాజ్య": 5227,
      "_Ass": 5228,
      "129": 5229,
      "▁కేంద్రపాలిత": 5230,
      "क्षर": 5231,
      "षाण": 5232,
      "▁new": 5233,
      "▁মেশিন": 5234,
      "asting": 5235,
      "▁पर्यटन": 5236,
      "harm": 5237,
      "▁शक्ति": 5238,
      "▁शिक्षा": 5239,
      "काश": 5240,
      "త్స": 5241,
      "ंडीगढ़": 5242,
      "▁రాజ్య": 5243,
      "tive_": 5244,
      "▁क्षेत्रीय": 5245,
      "వాతంత్ర": 5246,
      "engali": 5247,
      "▁पुरा": 5248,
      "ameter_": 5249,
      "glia": 5250,
      "जनसंख्या": 5251,
      "▁जनसंख्या": 5252,
      "▁దేశాల": 5253,
      "▁वर्ग": 5254,
      "overty": 5255,
      "లాదేశ్": 5256,
      "]](./भारत#cite_note-FOOTNOTEStein1998": 5257,
      "]](./भारत#cite_note-FOOTNOTESingh2009": 5258,
      "స్తు": 5259,
      "▁సామ్రాజ్యం](./": 5260,
      "దీవులు": 5261,
      "%E0%A6%A": 5262,
      "▁উপেক্ষা": 5263,
      "PPP": 5264,
      "▁নির্": 5265,
      "ildlife": 5266,
      "హిందీ": 5267,
      "▁భాషలు": 5268,
      "तमिलनाडु": 5269,
      "ంగ్లాదేశ్": 5270,
      "▁উৎস/": 5271,
      "▁economy": 5272,
      "ారు.": 5273,
      "](./বিশেষ:বইয়ের_উৎস/": 5274,
      "cyclop": 5275,
      "_ప్రా": 5276,
      "%E0%A4%B": 5277,
      "▁स्थित": 5278,
      "hasha": 5279,
      "్రిటి": 5280,
      "त्तराखण्ड": 5281,
      "etraglia": 5282,
      "ూర్పు": 5283,
      "4/41/Flag_of_India": 5284,
      "▁([সাহায্য](./সাহায্য:উদ্ধৃতি_শৈলী_ত্রুটি#parameter_": 5285,
      "▁अप्रैल": 5286,
      "కైవు": 5287,
      "▁మార్గ": 5288,
      "▁शताब्दी": 5289,
      "▁लेख:": 5290,
      "লচ্চিত্র": 5291,
      "▁([সাহায্য](./সাহায্য:উদ্ধৃতি_শৈলী_ত্রুটি#parameter_ignored": 5292,
      "0/0": 5293,
      "6)\n": 5294,
      "9,": 5295,
      "bb": 5296,
      "garh": 5297,
      "map": 5298,
      "nc": 5299,
      "ze": 5300,
      "▁ed.).": 5301,
      "▁[c": 5302,
      "araj": 5303,
      "▁India](./G": 5304,
      "ama": 5305,
      "▁bas": 5306,
      "▁Research": 5307,
      "▁1960": 5308,
      "▁Himalay": 5309,
      "imach": 5310,
      "170": 5311,
      "class": 5312,
      "▁[National": 5313,
      "ravid": 5314,
      "▁lite": 5315,
      "umbers": 5316,
      "iodiversity": 5317,
      "▁2019.\n": 5318,
      "catalog": 5319,
      "apita": 5320,
      "earch/": 5321,
      "Hindustan": 5322,
      "/lin": 5323,
      "230": 5324,
      "5).": 5325,
      "6]](./India#cite_note-FOOTNOTE": 5326,
      "Library": 5327,
      "RL": 5328,
      "Rowland": 5329,
      "had": 5330,
      "ns": 5331,
      "oa": 5332,
      "ংরেজি": 5333,
      "ণা": 5334,
      "দিল্": 5335,
      "ধিক": 5336,
      "পে": 5337,
      "মিল": 5338,
      "রু": 5339,
      "হিত": 5340,
      "ুম": 5341,
      "৯৭": 5342,
      "](./ই": 5343,
      "ia\")\n": 5344,
      "ines": 5345,
      "ortheast": 5346,
      "anag": 5347,
      "ality": 5348,
      "estiv": 5349,
      "isc": 5350,
      "them": 5351,
      "-135": 5352,
      "▁সম্পর্ক": 5353,
      "emic": 5354,
      "▁River": 5355,
      "Inf": 5356,
      "operation": 5357,
      "pectan": 5358,
      "shared": 5359,
      "▁rec": 5360,
      "force": 5361,
      "](./India#CITEREFB": 5362,
      "content": 5363,
      "টিশ": 5364,
      ".jpg)[": 5365,
      "ockey": 5366,
      "▁এর": 5367,
      "ummer": 5368,
      "ন্দোল": 5369,
      "▁2026": 5370,
      "▁শতা": 5371,
      "লাই": 5372,
      "▁exp": 5373,
      "▁life": 5374,
      "▁tex": 5375,
      "▁ইউ": 5376,
      "_%28orthographic_projection": 5377,
      "ront": 5378,
      "_Islands": 5379,
      "kimages/": 5380,
      "mirates": 5381,
      "nclm.nic.in/shared": 5382,
      "DikshitSchwartzberg2023": 5383,
      "/linkimages/": 5384,
      "Rowland1970": 5385,
      "হিত্য": 5386,
      "pectancy": 5387,
      "ন্দোলন": 5388,
      "_%28orthographic_projection%29": 5389,
      "nclm.nic.in/shared/linkimages/": 5390,
      "/g": 5391,
      "1)\n": 5392,
      "2nd": 5393,
      "MC": 5394,
      "S1": 5395,
      "a.": 5396,
      "cted": 5397,
      "dia": 5398,
      "ham": 5399,
      "uthor": 5400,
      "2021": 5401,
      "arath": 5402,
      "ominal": 5403,
      "▁them": 5404,
      "▁set": 5405,
      "ing_": 5406,
      "lock": 5407,
      "▁14.": 5408,
      "lief": 5409,
      "urch": 5410,
      "urrent": 5411,
      "21)": 5412,
      "▁M.": 5413,
      "upre": 5414,
      "▁western": 5415,
      "▁Des": 5416,
      "▁Ge": 5417,
      "hief": 5418,
      "26)": 5419,
      "▁Linguistic": 5420,
      "▁control": 5421,
      "arendra": 5422,
      "-with": 5423,
      "/author": 5424,
      "/files/": 5425,
      "313": 5426,
      "DD": 5427,
      "Republic": 5428,
      "Vu": 5429,
      "View": 5430,
      "ZVu": 5431,
      "_उ": 5432,
      "_राज": 5433,
      "_24": 5434,
      "kZVu": 5435,
      "ues": 5436,
      "ward": 5437,
      "गत": 5438,
      "गू": 5439,
      "तृत": 5440,
      "पूर्": 5441,
      "बी": 5442,
      "वल": 5443,
      "श्य": 5444,
      "षय": 5445,
      "हरा": 5446,
      "हित": 5447,
      "िनेमा": 5448,
      "ृद्ध": 5449,
      "ेघ": 5450,
      "१८": 5451,
      "এশ": 5452,
      "গত": 5453,
      "চার": 5454,
      "ంజా": 5455,
      "క్ర": 5456,
      "కేంద్రపాలిత": 5457,
      "గి": 5458,
      "టీ": 5459,
      "టాన్": 5460,
      "లను": 5461,
      "వె": 5462,
      "వరణ": 5463,
      "హదార": 5464,
      "ూచ": 5465,
      "▁lo": 5466,
      "▁web": 5467,
      "▁భారతదేశ": 5468,
      "▁ভূ": 5469,
      "](./প": 5470,
      "in-": 5471,
      "thehind": 5472,
      "भारत\\)": 5473,
      "▁सक": 5474,
      "्यों": 5475,
      "▁Society": 5476,
      "▁Chand": 5477,
      "▁P.": 5478,
      "్యం": 5479,
      "▁अव": 5480,
      "00)": 5481,
      "বিক": 5482,
      "ign_": 5483,
      "▁top": 5484,
      "▁दि": 5485,
      "▁পা": 5486,
      "ানু": 5487,
      "▁प्रेस": 5488,
      "▁प्रौद्योगिक": 5489,
      "्वतंत्रता": 5490,
      "భారతదేశ_": 5491,
      "▁కు": 5492,
      "▁కొ": 5493,
      "ాలు\")": 5494,
      "▁వ్యా": 5495,
      "▁মা": 5496,
      "e_P": 5497,
      "▁మత": 5498,
      "▁మా": 5499,
      "▁మతము": 5500,
      "▁उन": 5501,
      "▁शु": 5502,
      "▁संसद": 5503,
      "▁చే": 5504,
      "తావరణ": 5505,
      "నాడు": 5506,
      "▁लोग": 5507,
      "▁लोक": 5508,
      "▁বর্": 5509,
      "ियार": 5510,
      "▁राज्य\")\n": 5511,
      "हाय": 5512,
      "परमाणु": 5513,
      "ोलन": 5514,
      "▁ఉంది.": 5515,
      "%E0%A7%": 5516,
      "ेली": 5517,
      "▁प्रदेश\")": 5518,
      "▁जाती": 5519,
      "ాయి": 5520,
      "▁राजवंश": 5521,
      "ध्यम": 5522,
      "▁स्था": 5523,
      "ज्ज": 5524,
      "জাতীয়_": 5525,
      "ణాసియా": 5526,
      "▁[আর্কাইভকৃত](https://web.archive.org/web/": 5527,
      "▁प्राचीन": 5528,
      "▁था।": 5529,
      "national-": 5530,
      "cript": 5531,
      "ांग्लादेश": 5532,
      "্রিটিশ": 5533,
      "▁second": 5534,
      "టెడ్": 5535,
      "▁ఆర్కైవు": 5536,
      "irector": 5537,
      "pringer": 5538,
      "महाद्वीप": 5539,
      "▁[v](./": 5540,
      "istorical": 5541,
      "▁[e](./": 5542,
      "▁రైలు": 5543,
      "భూటాన్": 5544,
      "▁అధికార": 5545,
      "▁पहले": 5546,
      "ুটবল": 5547,
      "_సామ్రాజ్యం": 5548,
      "▁Affairs": 5549,
      "▁[हिन्दी](./हिन्दी": 5550,
      "Wolpert2003": 5551,
      "మంత్రి": 5552,
      "శ్రీలంక": 5553,
      "▁चुनावों": 5554,
      "▁सैन्य": 5555,
      "2),": 5556,
      "Con": 5557,
      "Gua": 5558,
      "JIJ": 5559,
      "Zva": 5560,
      "hut": 5561,
      "lof": 5562,
      "lurton": 5563,
      "s_of_India": 5564,
      "uard": 5565,
      "work": 5566,
      "ym": 5567,
      "▁7.": 5568,
      "▁urban": 5569,
      "▁[Indo-": 5570,
      "estic": 5571,
      "edu": 5572,
      "icob": 5573,
      "▁India\")|": 5574,
      "▁pre": 5575,
      "▁pop": 5576,
      "▁painting": 5577,
      "▁influ": 5578,
      "entr": 5579,
      "▁billion": 5580,
      "ango": 5581,
      "olon": 5582,
      "▁div": 5583,
      "▁Rev": 5584,
      "▁2,": 5585,
      "india.com/": 5586,
      "▁H.": 5587,
      "▁eastern": 5588,
      "▁rem": 5589,
      "hib": 5590,
      "▁Fr": 5591,
      "▁For": 5592,
      "uduch": 5593,
      "▁Kingdom": 5594,
      "](https://books.google.com/books?id=Zva": 5595,
      "arty": 5596,
      "▁[↑](./India#cite_ref-FOOTNOTEMetcalfMetcalf2006": 5597,
      "1.html": 5598,
      "_Comm": 5599,
      "overnment_of_India": 5600,
      "_Nadu": 5601,
      "rough": 5602,
      "general_": 5603,
      "▁contri": 5604,
      "▁1994": 5605,
      "nium": 5606,
      "amil_Nadu": 5607,
      "_Indian_general_": 5608,
      "▁Pradesh\")\n": 5609,
      "▁\\(identifier\\)\"):[10.10": 5610,
      "▁Islands\")\n": 5611,
      ".nlm": 5612,
      "%7C": 5613,
      "%7c": 5614,
      "bi.nlm": 5615,
      "▁employ": 5616,
      "▁groups": 5617,
      "lennium": 5618,
      ".nih": 5619,
      "ncbi.nlm": 5620,
      "GuaJIJ": 5621,
      "uducherry": 5622,
      "](https://books.google.com/books?id=ZvaGuaJIJ": 5623,
      "_Indian_general_election": 5624,
      "ncbi.nlm.nih": 5625,
      "](https://books.google.com/books?id=ZvaGuaJIJgo": 5626,
      "-n": 5627,
      "-and": 5628,
      "/m": 5629,
      "1-4": 5630,
      "2-2": 5631,
      "5%": 5632,
      "_2": 5633,
      "_7": 5634,
      "_h": 5635,
      "dd": 5636,
      "i.": 5637,
      "serv": 5638,
      "ধারণ": 5639,
      "পাত": 5640,
      "মন্ত্র": 5641,
      "রক্ষণ": 5642,
      "হিনী": 5643,
      "▁·": 5644,
      "▁\"[": 5645,
      "▁\"19": 5646,
      "an-": 5647,
      "▁(১৯": 5648,
      "ootb": 5649,
      "raj": 5650,
      "▁serv": 5651,
      "য়ারি": 5652,
      "uss": 5653,
      "ists": 5654,
      "▁far": 5655,
      "▁mon": 5656,
      "▁Man": 5657,
      "-230": 5658,
      "akrishn": 5659,
      "tures": 5660,
      "_Affair": 5661,
      "](//upload.wikimedia.org/wikipedia/commons/thumb/8/8": 5662,
      "▁অর্থনৈতিক": 5663,
      "▁ক্র": 5664,
      "25)": 5665,
      "▁[Ministry": 5666,
      "anipur": 5667,
      "ancis": 5668,
      "india.gov.in/india-glance": 5669,
      "pura": 5670,
      "জাতিক": 5671,
      "ote:": 5672,
      "vention": 5673,
      "Uttarakhand": 5674,
      "aranth": 5675,
      "▁Minorities": 5676,
      "ক্ষেত্র": 5677,
      "▁Quote:": 5678,
      "ootball": 5679,
      "-D": 5680,
      "-on-": 5681,
      "3,": 5682,
      "3-8": 5683,
      "528": 5684,
      "95": 5685,
      "Ministry_of_": 5686,
      "Raj": 5687,
      "_10": 5688,
      "a)": 5689,
      "ek": 5690,
      "io": 5691,
      "iti": 5692,
      "most": 5693,
      "▁prov": 5694,
      "entury": 5695,
      "wild": 5696,
      "▁At": 5697,
      "▁culture": 5698,
      "▁Pe": 5699,
      "ill": 5700,
      "ema": 5701,
      "▁Minister": 5702,
      "▁Ear": 5703,
      "▁Ocean": 5704,
      "▁4.": 5705,
      "llchin": 5706,
      "▁[Dyson": 5707,
      "|---|---": 5708,
      "▁\\(identifier\\)\"):[10.": 5709,
      "](https://doi.org/10.": 5710,
      "ollege": 5711,
      "urvey": 5712,
      "219": 5713,
      "3-7": 5714,
      "9]](./India#cite_note-": 5715,
      "Emb": 5716,
      "IUCN": 5717,
      "SN": 5718,
      "SAARC_summit": 5719,
      "_घ": 5720,
      "_17": 5721,
      "d/d": 5722,
      "ker": 5723,
      "lood": 5724,
      "mrits": 5725,
      "oard": 5726,
      "ption": 5727,
      "tw": 5728,
      "ंत": 5729,
      "अभि": 5730,
      "इतिहास": 5731,
      "एन": 5732,
      "को": 5733,
      "क्": 5734,
      "खन": 5735,
      "खा": 5736,
      "गान": 5737,
      "ग्व": 5738,
      "च्": 5739,
      "जं": 5740,
      "टान": 5741,
      "तन": 5742,
      "थिल": 5743,
      "फोर्ड": 5744,
      "ब्ल": 5745,
      "बेट": 5746,
      "भु": 5747,
      "यत": 5748,
      "रत": 5749,
      "वास": 5750,
      "ेड": 5751,
      "ैंक": 5752,
      "ैथिल": 5753,
      "ॉल": 5754,
      "ॉंग्रेस": 5755,
      "ोस": 5756,
      "ौसेना": 5757,
      "००": 5758,
      "গা": 5759,
      "তার": 5760,
      "দ্র": 5761,
      "বেশ": 5762,
      "ఆర్": 5763,
      "ఉత్తర": 5764,
      "ఒడి": 5765,
      "కీయ": 5766,
      "గలు": 5767,
      "చు": 5768,
      "జరా": 5769,
      "తూర్పు": 5770,
      "భు": 5771,
      "మన్": 5772,
      "యి": 5773,
      "లస": 5774,
      "ీన": 5775,
      "ేక": 5776,
      "–24": 5777,
      "▁హ": 5778,
      "▁జాబితా": 5779,
      "](./न": 5780,
      "](./অ": 5781,
      "](./पाकिस्तान": 5782,
      "▁[d": 5783,
      "▁[f": 5784,
      "▁[ल": 5785,
      "▁[वि": 5786,
      "▁[প্র": 5787,
      "▁[पाकिस्तान": 5788,
      "▁\"दक्षिण": 5789,
      "▁\"पाकिस्तान": 5790,
      "era": 5791,
      "en,": 5792,
      "ederal": 5793,
      "ison": 5794,
      "▁साल": 5795,
      "▁सम्": 5796,
      "▁मो": 5797,
      "▁मौ": 5798,
      "ভারত\\)": 5799,
      "राम": 5800,
      "▁Africa": 5801,
      "eck": 5802,
      "▁State": 5803,
      "weep": 5804,
      "adweep": 5805,
      "](./भारत_के": 5806,
      "urk": 5807,
      "hell": 5808,
      "\"),[[": 5809,
      "214": 5810,
      "emale": 5811,
      "▁work": 5812,
      "▁women": 5813,
      "▁పట్ట": 5814,
      "uled": 5815,
      "▁B.": 5816,
      "architecture": 5817,
      "ंगाना": 5818,
      "▁नव": 5819,
      "▁1965": 5820,
      "▁[↑](./India#cite_ref-4": 5821,
      "_Arab": 5822,
      "▁Nehru": 5823,
      "▁November": 5824,
      "স্তা": 5825,
      "imal": 5826,
      "▁2005": 5827,
      "▁आर्थिक": 5828,
      "aves": 5829,
      "বাস": 5830,
      "▁gre": 5831,
      "నిక": 5832,
      "▁London": 5833,
      "ంగ్రె": 5834,
      "▁సభ": 5835,
      "s/d": 5836,
      "काता": 5837,
      "తాబ్": 5838,
      "▁इंडिया": 5839,
      "ी](./द": 5840,
      "তামিল": 5841,
      "ंडोन": 5842,
      "ులు\")|": 5843,
      "▁2025": 5844,
      "▁राज्यक्षेत्र": 5845,
      "▁ప్రపంచ": 5846,
      "iley": 5847,
      "▁विस्त": 5848,
      "▁विदेश": 5849,
      "ोलकाता": 5850,
      "hmed": 5851,
      "ंध्र": 5852,
      "order": 5853,
      "ording": 5854,
      "▁ఆసియా": 5855,
      "▁क्षेत्रों": 5856,
      "ंग्रेजी": 5857,
      "▁अन्त": 5858,
      "▁नेतृत": 5859,
      "ountries/": 5860,
      "▁\"अंग्रेज़ी": 5861,
      "](./List_of_SAARC_summit": 5862,
      "athura": 5863,
      "▁২০০৯": 5864,
      "▁[![A": 5865,
      "మ్రాజ్య": 5866,
      "▁जनवरी": 5867,
      "हरिया": 5868,
      "ूर्वी": 5869,
      "पुरम": 5870,
      "▁मेला\"),": 5871,
      "IND": 5872,
      "▁ఇతర": 5873,
      "▁स्थान": 5874,
      "রাষ্ট্রপতি": 5875,
      "ashmiri": 5876,
      "िशा": 5877,
      "▁technology": 5878,
      "గుజరా": 5879,
      "alayal": 5880,
      "ंग्रेज़ी_भाषा": 5881,
      "समिया": 5882,
      "reek": 5883,
      "▁Hinduism": 5884,
      "▁సామ్రాజ్యం|": 5885,
      "ज्ञाप": 5886,
      "न्नई": 5887,
      "बंधन": 5888,
      "२००": 5889,
      "▁पुरालेखित।,": 5890,
      "awahar": 5891,
      "নেপাল": 5892,
      "త్యేక": 5893,
      "రాష్ట్రపతి": 5894,
      "ప్ప": 5895,
      "▁मुख्य": 5896,
      "_और_संघ": 5897,
      "▁मानसून": 5898,
      "-4020": 5899,
      "▁युग": 5900,
      "वादी": 5901,
      "▁sector": 5902,
      "▁स्वतंत्रता": 5903,
      "▁కాశ్మీ": 5904,
      "_के_आधार_पर_भारत_के_राज्यों_की_सूची": 5905,
      "तेलंगाना": 5906,
      "▁చెంద": 5907,
      "▁ఆర్ధిక": 5908,
      "चेन्नई": 5909,
      "▁যুদ্ধ": 5910,
      "▁बहुत": 5911,
      "flic": 5912,
      "पीठ": 5913,
      "olkata": 5914,
      "akshadweep": 5915,
      "▁స్థాన": 5916,
      "ক্সফোর্": 5917,
      "_from": 5918,
      "తమిళనాడు": 5919,
      "▁Plateau": 5920,
      "क्सफोर्ड": 5921,
      "▁निर्माण": 5922,
      "▁२०१": 5923,
      "त्रिपुरा": 5924,
      "ప్రధానమంత్రి": 5925,
      "_BRICS_summit": 5926,
      "గణతంత్ర": 5927,
      "▁క్రీడ": 5928,
      "bank.org/": 5929,
      "▁ఉన్నాయి.": 5930,
      "तेलुगू": 5931,
      "भीमबेट": 5932,
      "▁Persian": 5933,
      "osphere": 5934,
      "ার্কিন": 5935,
      "overeign": 5936,
      "झारखंड": 5937,
      "ক্টোবর": 5938,
      "বাধীনতা": 5939,
      "छत्तीसगढ़": 5940,
      "िंधु": 5941,
      "ఆఫ్ఘ": 5942,
      "షియా": 5943,
      "razil": 5944,
      "న్‌ఫ": 5945,
      "నేపాల్": 5946,
      "ब्बत": 5947,
      "▁[अंग्रेज़ी](./अंग्रेज़ी_भाषा": 5948,
      "▁ओर": 5949,
      "▁कुछ": 5950,
      "▁summits\")\n": 5951,
      "icobar": 5952,
      "](https://books.google.com/books?id=ZvaGuaJIJgoC&pg=PA": 5953,
      "अभिज्ञाप": 5954,
      "च्छ": 5955,
      "తాబ్ద": 5956,
      "](./List_of_SAARC_summits": 5957,
      "awaharl": 5958,
      "ক্সফোর্ড": 5959,
      "भीमबेटका": 5960,
      "अभिज्ञापक": 5961,
      "\";": 5962,
      "-k": 5963,
      "-30": 5964,
      ".edu": 5965,
      "/Flag_of_": 5966,
      "63": 5967,
      "LO": 5968,
      "casting": 5969,
      "erent": 5970,
      "get": 5971,
      "iet": 5972,
      "nominal": 5973,
      "inanc": 5974,
      "ars": 5975,
      "rief": 5976,
      "](https://archive.org/details/": 5977,
      "lite": 5978,
      "▁mi": 5979,
      "anda": 5980,
      "▁Territory": 5981,
      "ros": 5982,
      "iger": 5983,
      "imes": 5984,
      "-415": 5985,
      "▁John": 5986,
      "▁2024.": 5987,
      "▁Press](./C": 5988,
      "_Mah": 5989,
      "▁\"En": 5990,
      "](./En": 5991,
      "1):": 5992,
      "rown": 5993,
      "embers": 5994,
      "rishna": 5995,
      "langoff-1": 5996,
      "s_and_": 5997,
      "hristian": 5998,
      "iolence": 5999,
      "roadcasting": 6000,
      "hutan": 6001,
      "61": 6002,
      "83": 6003,
      "?url": 6004,
      "AG": 6005,
      "_38": 6006,
      "_প্র": 6007,
      "oast": 6008,
      "ণ্": 6009,
      "দু": 6010,
      "ভর": 6011,
      "মু": 6012,
      "শীল": 6013,
      "েখ": 6014,
      "▁°": 6015,
      "▁9.": 6016,
      "▁5.": 6017,
      "▁ধর্ম": 6018,
      "erg": 6019,
      "2020": 6020,
      "▁(পি": 6021,
      "rior": 6022,
      "urity": 6023,
      "▁Rothermund": 6024,
      "ন্ট": 6025,
      "▁human": 6026,
      "▁Health": 6027,
      "webcitation": 6028,
      "117": 6029,
      "▁[\"P": 6030,
      "aryana": 6031,
      "▁religious": 6032,
      "▁অক্টোবর": 6033,
      "▁মহা": 6034,
      "▁3.": 6035,
      "AAJ": 6036,
      "ের_তালিকা": 6037,
      "▁প্রযুক্তি": 6038,
      ")[[3": 6039,
      "ternational": 6040,
      "▁\"British": 6041,
      "](./British": 6042,
      "▁দি": 6043,
      "▁language\")": 6044,
      "issing": 6045,
      "প্ত": 6046,
      "সংস্": 6047,
      "feb": 6048,
      "ড়া": 6049,
      "_Lanka": 6050,
      "Dyson2018),": 6051,
      "▁২০০৭।": 6052,
      "্যান্য": 6053,
      "বর্ত": 6054,
      "লোক": 6055,
      "ological": 6056,
      "▁বৃহ": 6057,
      "ক্ষমতা": 6058,
      "▁Wikidata": 6059,
      "kZVuDwAAQBAJ&pg=PA": 6060,
      "?url=http": 6061,
      "ণ্ড": 6062,
      "webcitation.org/": 6063,
      "\"](https://web.archive.org/web/200": 6064,
      "/C": 6065,
      "/hind": 6066,
      "2]](./India#cite_note-": 6067,
      "45": 6068,
      "Provision": 6069,
      "TO": 6070,
      "aul": 6071,
      "dish": 6072,
      "pture": 6073,
      "que": 6074,
      "rust": 6075,
      "ula": 6076,
      "val": 6077,
      "vers": 6078,
      "▁old": 6079,
      "▁[U": 6080,
      "ian_": 6081,
      "th_BRICS_summit": 6082,
      "arlo": 6083,
      "an_": 6084,
      "en/thumb/": 6085,
      "outheast": 6086,
      "ich": 6087,
      "▁(19": 6088,
      "-06": 6089,
      "▁se": 6090,
      "▁sim": 6091,
      "ref-10": 6092,
      "loth": 6093,
      "note-10": 6094,
      "](https://id": 6095,
      "▁Schwartzberg": 6096,
      "▁Central": 6097,
      "▁Civil": 6098,
      "_of_2011": 6099,
      "▁caus": 6100,
      "▁tree": 6101,
      "▁Punjab": 6102,
      "acred": 6103,
      "angam": 6104,
      "ilk": 6105,
      "emographic": 6106,
      "▁2014.": 6107,
      "▁development": 6108,
      "]](./India#cite_note-4": 6109,
      "▁wide": 6110,
      "▁when": 6111,
      "▁hum": 6112,
      "evanag": 6113,
      "ship": 6114,
      ".wikipedia": 6115,
      "](//upload.wikimedia.org/wikipedia/en/thumb/": 6116,
      "-85": 6117,
      "▁2001": 6118,
      "▁only": 6119,
      "▁report": 6120,
      ".[[3": 6121,
      "▁near": 6122,
      "▁these": 6123,
      "267": 6124,
      "▁[Singh": 6125,
      "o-operation": 6126,
      "ha2014": 6127,
      "-674": 6128,
      "▁[↑](./India#cite_ref-FOOTNOTEB": 6129,
      "ligions": 6130,
      "opulation_T": 6131,
      "](./Template": 6132,
      "▁language\"),": 6133,
      "ibcod": 6134,
      "uddha": 6135,
      "/profile": 6136,
      "▁[Government": 6137,
      "▁regions": 6138,
      "ighth": 6139,
      "_1_of_2011": 6140,
      "aint:": 6141,
      "▁This": 6142,
      "aper_1_of_2011": 6143,
      "ikhism": 6144,
      "oint": 6145,
      ".svg.png)](./File:": 6146,
      "▁along": 6147,
      "ccording": 6148,
      "rmy": 6149,
      "_of_Congress": 6150,
      "al_Population_T": 6151,
      "otals_P": 6152,
      "arnatic": 6153,
      "▁addition": 6154,
      "reedom": 6155,
      "entral_": 6156,
      "Provisional_Population_T": 6157,
      "evanagari": 6158,
      "ibcode": 6159,
      "aper_1_of_2011_India": 6160,
      "otals_Paper_1_of_2011_India": 6161,
      "Provisional_Population_Totals_Paper_1_of_2011_India": 6162,
      "\"](https://web.archive.org/web/": 6163,
      "-world": 6164,
      "Home": 6165,
      "Language": 6166,
      "Search/": 6167,
      "_श": 6168,
      "_ন": 6169,
      "_న": 6170,
      "_धर्म": 6171,
      "_43": 6172,
      "_ప్రదేశ్": 6173,
      "business": 6174,
      "bhasha": 6175,
      "ds": 6176,
      "gest": 6177,
      "hdr": 6178,
      "jo": 6179,
      "troduction": 6180,
      "ves": 6181,
      "ँची": 6182,
      "टना": 6183,
      "डम": 6184,
      "दार": 6185,
      "पार": 6186,
      "भग": 6187,
      "मरी": 6188,
      "रि": 6189,
      "स्व": 6190,
      "ेद": 6191,
      "ोला": 6192,
      "গোল": 6193,
      "ছিল": 6194,
      "জে": 6195,
      "জার্": 6196,
      "ডিয়া": 6197,
      "ভেম্বর": 6198,
      "লু": 6199,
      "১-": 6200,
      "১৪": 6201,
      "১৫": 6202,
      "ఉప": 6203,
      "జె": 6204,
      "ఢ్": 6205,
      "ది.": 6206,
      "నాల": 6207,
      "లే": 6208,
      "ళు": 6209,
      "ౌద్ధ": 6210,
      "▁డ": 6211,
      "▁भा": 6212,
      "▁భా": 6213,
      "▁গ্র": 6214,
      "▁भाग": 6215,
      "▁ईसा": 6216,
      "](./दक्षिण": 6217,
      "▁[ग": 6218,
      "▁[व": 6219,
      "▁[ह": 6220,
      "▁[दक्षिण": 6221,
      "▁\"य": 6222,
      "▁\"व": 6223,
      "iary": 6224,
      "ed,": 6225,
      "ediff": 6226,
      "▁काल": 6227,
      "▁कॉंग्रेस": 6228,
      "्रय": 6229,
      "▁सभा": 6230,
      "▁सित": 6231,
      "▁समाज": 6232,
      "icon": 6233,
      "▁India_.": 6234,
      "▁मई": 6235,
      "▁मन": 6236,
      "▁मह": 6237,
      "▁मिल": 6238,
      "▁मशीन": 6239,
      "▁Ag": 6240,
      "](https://en": 6241,
      "ेंगल": 6242,
      "र्ध": 6243,
      "](./भारत_के_राज्य": 6244,
      "्तु": 6245,
      "lif": 6246,
      "ాలీ": 6247,
      "▁में,": 6248,
      "▁अभ": 6249,
      "▁अमेर": 6250,
      "**జాతీయ": 6251,
      "▁2012.": 6252,
      "▁Routledge": 6253,
      "▁जब": 6254,
      "▁द्वीप": 6255,
      "ర్చ": 6256,
      "▁her": 6257,
      "akes": 6258,
      "_से": 6259,
      "pecial:Search/": 6260,
      "_Act": 6261,
      "▁व्या": 6262,
      "न्दा": 6263,
      "▁religion": 6264,
      "260": 6265,
      "▁Fund": 6266,
      "▁गई": 6267,
      "ociation": 6268,
      "-98": 6269,
      "ड़िया": 6270,
      "▁शहर": 6271,
      "▁এশ": 6272,
      "24)": 6273,
      "▁[मध्य": 6274,
      "_\\(भारत\\)": 6275,
      "]](./भारत#cite_note-pib": 6276,
      "o-d": 6277,
      "ogn": 6278,
      "ము\")": 6279,
      "▁ले": 6280,
      "▁लिये": 6281,
      "_के_अन": 6282,
      "म्भ": 6283,
      "▁নভেম্বর": 6284,
      "संधान": 6285,
      "त्तरी": 6286,
      "্বে": 6287,
      "▁ass": 6288,
      "–సా.శ.18": 6289,
      "▁అత్య": 6290,
      "িয়ন": 6291,
      "▁ప్రభు": 6292,
      "▁भाषा\")[[": 6293,
      "▁यूनिवर्सिट": 6294,
      "ప్రత్యేక": 6295,
      "549": 6296,
      "▁ఆధ": 6297,
      "▁क्षेत्र\")\n": 6298,
      "మాఖ్య": 6299,
      "22-9": 6300,
      "వాణా": 6301,
      "केन्द्र": 6302,
      "▁থেকে](http://www.": 6303,
      "ంటి": 6304,
      "▁जनजाति": 6305,
      "▁దేశం": 6306,
      "रुणा": 6307,
      "డ్డ": 6308,
      "ত্তম": 6309,
      "▁বাহিনী": 6310,
      "জাতি": 6311,
      "దక్షిణాసియా": 6312,
      "ynth": 6313,
      "ureau": 6314,
      "▁గల": 6315,
      "▁భారతదేశంలో": 6316,
      "యునై": 6317,
      "র্থনীতি": 6318,
      "ష్ణ": 6319,
      "_చరిత్ర?action=edit&redlink=1": 6320,
      "ोर्ट": 6321,
      ".svg.png)](./चित्र:": 6322,
      "▁২০০৭।\n": 6323,
      "▁হয়।": 6324,
      "▁రాష్ట్రాలు,": 6325,
      "వర్గం": 6326,
      "▁বিশ্বের": 6327,
      "▁साम्राज्य\")": 6328,
      "_మతము": 6329,
      "মাণু": 6330,
      "धुनिक": 6331,
      "▁మొద": 6332,
      "হিন্দু": 6333,
      "ীকরণ": 6334,
      "hailand": 6335,
      "_साम्राज्य": 6336,
      "▁সাম্রাজ্য": 6337,
      "▁(2018),": 6338,
      "स्लाम": 6339,
      "▁రాజవంశం|": 6340,
      "_देशों_की_सूची": 6341,
      "ताजमह": 6342,
      "▁చెయ్యబడింది.": 6343,
      "ন্তর্জাতিক": 6344,
      "क्षरता": 6345,
      "দিল্লি": 6346,
      "▁स्थाप": 6347,
      "মন্ত্রী": 6348,
      "▁[पाकिस्तान](./पाकिस्तान": 6349,
      "?url=http://": 6350,
      "business-": 6351,
      "ेंगलुरु": 6352,
      "_के_अनुसार": 6353,
      "▁यूनिवर्सिटी": 6354,
      "యునైటెడ్": 6355,
      "-T": 6356,
      "/india": 6357,
      "Census": 6358,
      "S.": 6359,
      "_18": 6360,
      "_languages": 6361,
      "lé": 6362,
      "s18": 6363,
      "via": 6364,
      "▁z": 6365,
      "▁8.": 6366,
      "▁United": 6367,
      "▁[World": 6368,
      "isla": 6369,
      "asht": 6370,
      "▁prom": 6371,
      "liest": 6372,
      "library": 6373,
      "access": 6374,
      "olas": 6375,
      "mentin-": 6376,
      "50)": 6377,
      "▁2007.": 6378,
      "-459": 6379,
      ".[[23": 6380,
      "709": 6381,
      "ligned": 6382,
      "▁[British": 6383,
      "▁\"Government": 6384,
      "onstitutional": 6385,
      "▁[Kulke": 6386,
      "▁[En": 6387,
      "▁Thomas": 6388,
      "▁use": 6389,
      "▁composed": 6390,
      "▁Registrar": 6391,
      "ritsch": 6392,
      "lémentin-": 6393,
      "lémentin-Oj": 6394,
      ".P": 6395,
      ".\")\n": 6396,
      "/F": 6397,
      "2-4": 6398,
      "4]](./India#cite_note-FOOTNOTE": 6399,
      "7C": 6400,
      "9]](./India#cite_note-FOOTNOTE": 6401,
      ":G": 6402,
      "Ex": 6403,
      "F)": 6404,
      "FT": 6405,
      "HA": 6406,
      "Mumbai": 6407,
      "Neu": 6408,
      "PK:": 6409,
      "_বি": 6410,
      "ax": 6411,
      "aos": 6412,
      "bour": 6413,
      "eat": 6414,
      "ead": 6415,
      "ght": 6416,
      "hu": 6417,
      "ira": 6418,
      "tap": 6419,
      "uin": 6420,
      "y-": 6421,
      "কো": 6422,
      "টান": 6423,
      "থ্য": 6424,
      "দে": 6425,
      "দার": 6426,
      "পুর": 6427,
      "ব্": 6428,
      "মার": 6429,
      "ে](./": 6430,
      "১২": 6431,
      "–4": 6432,
      "▁\\": 6433,
      "▁x": 6434,
      "▁ঘ": 6435,
      "▁ধ": 6436,
      "▁ge": 6437,
      "▁[ন": 6438,
      "\")1": 6439,
      "rel": 6440,
      "oro": 6441,
      "aro": 6442,
      "arrow": 6443,
      "anat": 6444,
      "alk": 6445,
      "▁areas": 6446,
      "asi": 6447,
      "▁(199": 6448,
      "▁(2014": 6449,
      "▁India](./C": 6450,
      "ভারতীয়": 6451,
      "attle": 6452,
      "▁12.": 6453,
      "ector": 6454,
      "adras": 6455,
      "▁Comp": 6456,
      "▁Cooperation": 6457,
      "▁fam": 6458,
      "▁Park": 6459,
      "acmil": 6460,
      "fir": 6461,
      "illa": 6462,
      "]](./India#cite_note-Combined": 6463,
      "ন্স": 6464,
      "igarh": 6465,
      "▁B.;": 6466,
      "▁Buddhist": 6467,
      "▁পর্ব": 6468,
      "▁_India": 6469,
      "irth": 6470,
      "ayback": 6471,
      "pecially": 6472,
      "▁Games": 6473,
      "স্ট্র": 6474,
      "tral": 6475,
      "-34": 6476,
      "_in_New": 6477,
      "িকী": 6478,
      ".[[40": 6479,
      "▁through": 6480,
      "দ্ধি": 6481,
      "▁Island": 6482,
      "_\\(ভারত\\)": 6483,
      "▁প্রস্তা": 6484,
      "▁নদী": 6485,
      "▁\"Mughal": 6486,
      "▁জু": 6487,
      "](./Mugh": 6488,
      ".svg/250px-": 6489,
      "▁within": 6490,
      "_per": 6491,
      "efore": 6492,
      "ঙ্কা": 6493,
      "achine": 6494,
      "সংঘ": 6495,
      "▁[Dikshit": 6496,
      "/pdf": 6497,
      "amily": 6498,
      "%20A": 6499,
      "ডিএফ": 6500,
      "handigarh": 6501,
      "সিন্ধ": 6502,
      "▁US": 6503,
      "পাদ": 6504,
      "▁milk": 6505,
      "ুরু": 6506,
      "AsherTalbot202": 6507,
      "▁গা": 6508,
      "ustrial": 6509,
      "5/5": 6510,
      "▁ago": 6511,
      "uisine": 6512,
      "▁\"Official": 6513,
      "ambod": 6514,
      "hattis": 6515,
      "Environment": 6516,
      "_অঞ্চল": 6517,
      "▁especially": 6518,
      "ীলঙ্কা": 6519,
      "হিন্দি": 6520,
      "▁growth": 6521,
      "শ্রীলঙ্কা": 6522,
      "lem_of_India": 6523,
      "ilgrim": 6524,
      "▁increased": 6525,
      "](./South_Asian_": 6526,
      "্মীর": 6527,
      "▁2018](./India#CITEREFDyson2018),": 6528,
      "▁Chinese": 6529,
      "Report.pdf)": 6530,
      "culpture": 6531,
      "](./History_of_": 6532,
      "ouncil": 6533,
      "uthority": 6534,
      "▁remain": 6535,
      "Emblem_of_India": 6536,
      "▁(পিডিএফ": 6537,
      "Neutral": 6538,
      "acmillan": 6539,
      "_in_New_Delhi": 6540,
      "](./Mughal_": 6541,
      "-r": 6542,
      "-v": 6543,
      "2%": 6544,
      "2)\n": 6545,
      "Aligned": 6546,
      "ea": 6547,
      "tary": 6548,
      "ver,": 6549,
      "org": 6550,
      "ica": 6551,
      "▁Policy": 6552,
      "▁dom": 6553,
      "50th": 6554,
      "1996": 6555,
      "iance": 6556,
      "emplate_": 6557,
      "_population": 6558,
      "efence": 6559,
      "▁[978-0-521": 6560,
      "rowth": 6561,
      "times.indiatimes.com/": 6562,
      "on-Aligned": 6563,
      "rotection": 6564,
      "owever,": 6565,
      "undamental": 6566,
      "akrishnan": 6567,
      "mritsar": 6568,
      ",NG": 6569,
      "2)[[": 6570,
      "4).": 6571,
      ":EditPage/": 6572,
      "=0": 6573,
      "National": 6574,
      "_राज्य": 6575,
      "_एशिया": 6576,
      "`|": 6577,
      "ate_": 6578,
      "atp": 6579,
      "fun": 6580,
      "hra": 6581,
      "kb": 6582,
      "men": 6583,
      "ंतर": 6584,
      "अरब": 6585,
      "इन": 6586,
      "ईल": 6587,
      "घर": 6588,
      "चें": 6589,
      "तम": 6590,
      "तुल": 6591,
      "थियार": 6592,
      "देव": 6593,
      "द्वार": 6594,
      "फा": 6595,
      "मार": 6596,
      "शन": 6597,
      "िबंध": 6598,
      "ृष": 6599,
      "ोट": 6600,
      "গো": 6601,
      "চি": 6602,
      "বস": 6603,
      "বার": 6604,
      "ভৌ": 6605,
      "ভ্য": 6606,
      "মহা": 6607,
      "১৬": 6608,
      "ం,": 6609,
      "ం\")\n": 6610,
      "కొ": 6611,
      "కాల": 6612,
      "కరణ": 6613,
      "ఖండ": 6614,
      "టిక": 6615,
      "డే": 6616,
      "ద్య": 6617,
      "ద్రా": 6618,
      "మార్": 6619,
      "మాలయ": 6620,
      "లలో": 6621,
      "లకు": 6622,
      "ళ్": 6623,
      "హు": 6624,
      "ానికి": 6625,
      "ాళు": 6626,
      "ీర్": 6627,
      "–18": 6628,
      "▁औ": 6629,
      "▁रा": 6630,
      "▁ला": 6631,
      "▁54": 6632,
      "▁యు": 6633,
      "▁টা": 6634,
      "▁శాస్త్ర": 6635,
      "▁[ड": 6636,
      "▁[य": 6637,
      "▁[భారతదేశ": 6638,
      "ndhra": 6639,
      "▁\"ह": 6640,
      "▁\"వి": 6641,
      "erage": 6642,
      "ारा": 6643,
      "ारो": 6644,
      "ारम्भ": 6645,
      "▁कम": 6646,
      "▁किन": 6647,
      "्रह": 6648,
      "▁सह": 6649,
      "▁स्तर": 6650,
      "▁सभ्यता": 6651,
      "lease": 6652,
      "ets": 6653,
      "etry": 6654,
      "▁Al": 6655,
      "ator": 6656,
      "ेंस": 6657,
      "eccan": 6658,
      "र्ट": 6659,
      "▁four": 6660,
      "्त्र": 6661,
      "acts": 6662,
      "ాలో": 6663,
      "▁अलग": 6664,
      "▁अर्थव्यवस्था": 6665,
      "స్వ": 6666,
      "స్లా": 6667,
      "▁Mar": 6668,
      "▁Muslim": 6669,
      "वियत": 6670,
      "▁పాల": 6671,
      "ults": 6672,
      "▁जिन": 6673,
      "ालैंड": 6674,
      "▁देव": 6675,
      "▁दोन": 6676,
      "▁পূ": 6677,
      "▁Dictionary": 6678,
      "ర్\")": 6679,
      "-29": 6680,
      "▁बंगाल": 6681,
      "▁बड़े": 6682,
      "▁प्रधानमंत्री": 6683,
      "भाजन": 6684,
      "▁सेवा": 6685,
      "▁काम": 6686,
      "agen": 6687,
      "ell": 6688,
      "ালত": 6689,
      "িকি": 6690,
      "▁కార": 6691,
      "▁కలి": 6692,
      "ode": 6693,
      "ాలు?action=edit&redlink=1": 6694,
      "రిహ": 6695,
      "రికత": 6696,
      "క్నాల": 6697,
      "▁आक": 6698,
      "▁आद": 6699,
      "বায়ু": 6700,
      "నిమా": 6701,
      "▁వం": 6702,
      "▁মার্চ": 6703,
      "osition": 6704,
      "▁Languages": 6705,
      "▁Law": 6706,
      "সাই": 6707,
      "▁సంగీతం": 6708,
      "▁परि": 6709,
      "-7mar": 6710,
      "▁शा": 6711,
      "▁संस्थान": 6712,
      "](https://books.google.com/books?id=3TRtDwAAQBAJ&pg=PA": 6713,
      "](./भारत#cite_ref-pib": 6714,
      "](./भारत#cite_ref-langoff": 6715,
      "]](./भारत#cite_note-langoff-1": 6716,
      "सां": 6717,
      "▁ব্যা": 6718,
      "ी](./म": 6719,
      "ियन": 6720,
      "संबर": 6721,
      "त्ति": 6722,
      "▁रक्षा": 6723,
      "▁হয়ে": 6724,
      "–సా.శ.13": 6725,
      "▁అయ": 6726,
      "িয়ার": 6727,
      "▁ప్రధాన": 6728,
      "जापान": 6729,
      "▁भाषा\")": 6730,
      "▁\"मध्य": 6731,
      "▁हैं।\n": 6732,
      "▁শা": 6733,
      "প্রদেশ": 6734,
      "हाँ": 6735,
      "ప్రదాయ": 6736,
      "ोली": 6737,
      ".htm)।": 6738,
      "ద్వీ": 6739,
      "](./मध्य": 6740,
      "▁ఉప": 6741,
      "ৃত্য": 6742,
      "issile": 6743,
      "aith": 6744,
      "्राम": 6745,
      "▁రె": 6746,
      "_GDP": 6747,
      "న్నడ": 6748,
      "▁प्रदेश\")|": 6749,
      "द्यालय": 6750,
      "ంటు": 6751,
      "Asher2006": 6752,
      "AsherAsher2006": 6753,
      "राष्ट्रीय_स": 6754,
      "गुप्त": 6755,
      "▁దేశంలో": 6756,
      "▁राजधान": 6757,
      "alaysia": 6758,
      "కాశ్మీ": 6759,
      "ैदिक": 6760,
      "▁జనాభా": 6761,
      "ন্তর": 6762,
      "](./पंजाब": 6763,
      "](./पश्चिम": 6764,
      "ంధు": 6765,
      "Stein1998),": 6766,
      "Singh2009),": 6767,
      "ন্ডিয়া": 6768,
      "ों_की_सूची?action=edit&redlink=1": 6769,
      "▁গণ": 6770,
      "▁CITEREFStein1998": 6771,
      "▁CITEREFSingh2009": 6772,
      "▁निभा": 6773,
      "official": 6774,
      "](./भारत#CITEREFStein1998),": 6775,
      "](./भारत#CITEREFSingh2009),": 6776,
      "ద్ధం": 6777,
      "ద్ధి": 6778,
      "ాల్దీవులు": 6779,
      "చ్చే": 6780,
      "రాష్ట్రాలు": 6781,
      "▁সালের": 6782,
      "దక్షిణ_": 6783,
      "▁थे": 6784,
      "▁पाकिस्तान": 6785,
      "▁[_An": 6786,
      "সাম্রাজ্য": 6787,
      "▁उपमहाद्वीप": 6788,
      "pib.nic.in/": 6789,
      "कालीन": 6790,
      "▁অনু": 6791,
      "▁मंदिर\")": 6792,
      "▁కాంగ్రె": 6793,
      "టెక్నాల": 6794,
      "नागालैंड": 6795,
      "धीरे": 6796,
      "హిమాలయ": 6797,
      "▁2009](./भारत#CITEREFSingh2009),": 6798,
      "120]](./भारत#cite_note-langoff-1": 6799,
      "रोहर": 6800,
      "▁वर्षों": 6801,
      "local_": 6802,
      "▁లే": 6803,
      "త్తరా": 6804,
      "నాగరికత": 6805,
      "క్కువ": 6806,
      "](./List_of_countries_by_GDP": 6807,
      "িকেট": 6808,
      "క్‌సభ": 6809,
      "▁सिनेमा\"),": 6810,
      "▁York:": 6811,
      "ांति": 6812,
      "ांधी": 6813,
      "▁दृश्य": 6814,
      "प्राचीन": 6815,
      "▁भूमिका": 6816,
      "ెలుగు": 6817,
      "▁होती": 6818,
      "▁1998](./भारत#CITEREFStein1998),": 6819,
      "लयालम": 6820,
      "▁వచ్చింది.": 6821,
      "्लेट": 6822,
      "వాతంత్ర్య": 6823,
      "_ప్రాంత": 6824,
      "ravidian": 6825,
      "▁শতাংশ": 6826,
      "हित्य": 6827,
      "ेघालय": 6828,
      "▁दिसंबर": 6829,
      "_Affairs_": 6830,
      "▁\"पाकिस्तान\")": 6831,
      "▁नेतृत्व": 6832,
      "nominal\\)": 6833,
      "▁বৃহত্তম": 6834,
      "Home_Affairs_": 6835,
      "ర్చ:": 6836,
      "ప్రత్యేక:EditPage/": 6837,
      "रुणाचल": 6838,
      "వర్గం:Harv": 6839,
      "चेंज": 6840,
      "िबंधीय": 6841,
      "ాళుక్య": 6842,
      "-7mar2011": 6843,
      "](./भारत#cite_ref-langoff_12": 6844,
      "టెక్నాలజీ": 6845,
      "](./List_of_countries_by_GDP_\\(": 6846,
      "ప్రత్యేక:EditPage/మూస:": 6847,
      "-ex": 6848,
      "338": 6849,
      "5]](./India#cite_note-": 6850,
      "53)": 6851,
      "677": 6852,
      "76": 6853,
      "8]](./India#cite_note-FOOTNOTE": 6854,
      "Allchin": 6855,
      "Ethnologue": 6856,
      "Petraglia": 6857,
      "_&": 6858,
      "_-": 6859,
      "_30": 6860,
      "_2024": 6861,
      "by": 6862,
      "fore": 6863,
      "khand": 6864,
      "lish": 6865,
      "ncient": 6866,
      "s_in_India": 6867,
      "subcontinent": 6868,
      "tt": 6869,
      "tou": 6870,
      "vil": 6871,
      "wana": 6872,
      "▁low": 6873,
      "](./World": 6874,
      "nder": 6875,
      "▁\"World": 6876,
      "orn": 6877,
      "orship": 6878,
      "artition": 6879,
      "alit": 6880,
      "enn": 6881,
      "ichell": 6882,
      "astr": 6883,
      "▁(ed.).": 6884,
      "▁(1):": 6885,
      "▁political": 6886,
      "▁sha": 6887,
      "amy": 6888,
      "atna": 6889,
      "umeration": 6890,
      "ecu": 6891,
      "▁bu": 6892,
      "aceu": 6893,
      "urry": 6894,
      "213": 6895,
      "oln": 6896,
      "▁Michael": 6897,
      "ourts": 6898,
      "▁wh": 6899,
      "▁By": 6900,
      "▁Book": 6901,
      "ments": 6902,
      "opal": 6903,
      "_Air": 6904,
      "115": 6905,
      "ubram": 6906,
      "▁gen": 6907,
      "ability": 6908,
      "formatics": 6909,
      "-5196": 6910,
      "▁numbers": 6911,
      "a_Empire": 6912,
      "harkhand": 6913,
      "▁\"Cambridge": 6914,
      "▁[Cambridge": 6915,
      "▁before": 6916,
      "▁Ins": 6917,
      "▁Informatics": 6918,
      "▁[↑](./India#cite_ref-FOOTNOTEStein2010": 6919,
      "384": 6920,
      "ugu": 6921,
      "arden": 6922,
      "▁range": 6923,
      "ommonwealth": 6924,
      "_En": 6925,
      "ambridge_University_Press": 6926,
      "▁2007](./India#CITEREF": 6927,
      "isease": 6928,
      "_Force": 6929,
      "▁known": 6930,
      "▁Empire\")": 6931,
      "ollingham": 6932,
      "Flag_of_India.svg.png)": 6933,
      "Pakistani": 6934,
      "cheduled": 6935,
      "▁including": 6936,
      "_of_South_Asia": 6937,
      "place": 6938,
      "vatsyayan-lord-4": 6939,
      "vatsyayan-lord_43": 6940,
      "ksai": 6941,
      "▁\\(India\\)\")\n": 6942,
      "6]](./India#cite_note-vatsyayan-lord-4": 6943,
      "ministrative": 6944,
      "baki": 6945,
      "harmaceu": 6946,
      "Library_of_Congress": 6947,
      "▁influen": 6948,
      "olonial": 6949,
      "hmedabad": 6950,
      "alayalam": 6951,
      "▁Press](./Cambridge_University_Press": 6952,
      "PetragliaAllchin": 6953,
      "touch": 6954,
      "Library_of_Congress2004": 6955,
      "-২": 6956,
      "/national": 6957,
      "534": 6958,
      "LM": 6959,
      "_9": 6960,
      "_15": 6961,
      "bel": 6962,
      "d/": 6963,
      "ere": 6964,
      "gion": 6965,
      "m2": 6966,
      "yd": 6967,
      "ংগ্র": 6968,
      "উই": 6969,
      "করণ": 6970,
      "তীক": 6971,
      "ধি": 6972,
      "নিক": 6973,
      "বহ": 6974,
      "বন্ধ": 6975,
      "লার": 6976,
      "৮-": 6977,
      "▁৬": 6978,
      "▁৭": 6979,
      "▁\"জ": 6980,
      "inema": 6981,
      "ont": 6982,
      "ices": 6983,
      "▁(`|": 6984,
      "idy": 6985,
      "rak": 6986,
      "raw": 6987,
      "▁sur": 6988,
      "ume": 6989,
      "▁11.": 6990,
      "▁Stud": 6991,
      "▁dynasty": 6992,
      "▁28.": 6993,
      ".jpe": 6994,
      "▁_A": 6995,
      "ources": 6996,
      "▁N.": 6997,
      "epic": 6998,
      "▁[\"G": 6999,
      "▁36": 7000,
      "সাগর": 7001,
      "ভাবে": 7002,
      "253": 7003,
      ".jpg)](./চিত্র:": 7004,
      "_March_": 7005,
      "27)": 7006,
      "▁বিচার": 7007,
      "uggest": 7008,
      "_suggest": 7009,
      "%2C_India": 7010,
      "▁Vol": 7011,
      "eget": 7012,
      "enguin": 7013,
      "rence": 7014,
      "-symbols": 7015,
      "ড়ি": 7016,
      ":CS1": 7017,
      "▁21.": 7018,
      "▁সরকারি": 7019,
      "ports/": 7020,
      "cat.org/": 7021,
      "riage": 7022,
      "merican": 7023,
      "সংখ্যা": 7024,
      ".worldbank.org/": 7025,
      "▁সঙ্গে": 7026,
      "arnataka": 7027,
      "Taj_Mah": 7028,
      "NCLM": 7029,
      "equality": 7030,
      "al_in_March_": 7031,
      "_Development_": 7032,
      "বিত)": 7033,
      "▁([সাহায্য](./সাহায্য:উদ্ধৃতি_শৈলী_ত্রুটি#parameter_ignored_suggest": 7034,
      "nclm.nic.in/shared/linkimages/NCLM": 7035,
      "▁(2014).": 7036,
      "▁প্রস্তাবিত)": 7037,
      "50thReport.pdf)": 7038,
      "/national-symbols": 7039,
      "Taj_Mahal_in_March_": 7040,
      "nclm.nic.in/shared/linkimages/NCLM50thReport.pdf)": 7041,
      "Taj_Mahal_in_March_2004": 7042,
      "-50": 7043,
      "/index": 7044,
      "223": 7045,
      "412": 7046,
      ";[[": 7047,
      "HD": 7048,
      "OV": 7049,
      "_2011": 7050,
      "_World": 7051,
      "b)": 7052,
      "eb": 7053,
      "pub": 7054,
      "▁[n": 7055,
      "▁\"U": 7056,
      "tification": 7057,
      "orpor": 7058,
      "orne": 7059,
      "ales": 7060,
      "ed/": 7061,
      "▁(a)": 7062,
      "id-": 7063,
      "1960": 7064,
      "1967": 7065,
      "-01": 7066,
      "-05": 7067,
      "-1\").\n": 7068,
      "ing,": 7069,
      "atab": 7070,
      "▁Programme": 7071,
      "line_": 7072,
      "▁Day": 7073,
      "▁Dance": 7074,
      "opland": 7075,
      "standard": 7076,
      "▁house": 7077,
      "▁1962": 7078,
      "-349": 7079,
      "ody": 7080,
      "▁Asia:": 7081,
      "articles": 7082,
      "▁contin": 7083,
      "onstitution_of_India": 7084,
      "/articles/": 7085,
      "tiger": 7086,
      "IMFWEO.IN-2": 7087,
      "▁estimate": 7088,
      "adhya": 7089,
      "▁different": 7090,
      "▁India](./Government_of_India": 7091,
      "ities/": 7092,
      "▁US$": 7093,
      "#P": 7094,
      ");": 7095,
      "-H": 7096,
      "-অ": 7097,
      ".0": 7098,
      ".పూ.": 7099,
      "270": 7100,
      "3.\n": 7101,
      "4)\n": 7102,
      "4]](./India#cite_note-": 7103,
      "415": 7104,
      "5.pdf)": 7105,
      "7).": 7106,
      "7]](./India#cite_note-": 7107,
      "7]](./India#cite_note-FOOTNOTE": 7108,
      "Ch": 7109,
      "Collingham": 7110,
      "IL": 7111,
      "IFT": 7112,
      "Tarlo": 7113,
      "[S": 7114,
      "[भारत": 7115,
      "_প": 7116,
      "_on": 7117,
      "_un": 7118,
      "_16": 7119,
      "_with": 7120,
      "ative": 7121,
      "ault": 7122,
      "business/": 7123,
      "dis": 7124,
      "each": 7125,
      "eligion": 7126,
      "gi": 7127,
      "gineering": 7128,
      "iosphere": 7129,
      "ji": 7130,
      "mit": 7131,
      "ola": 7132,
      "pen": 7133,
      "ru": 7134,
      "rune": 7135,
      "yth": 7136,
      "ying": 7137,
      "ईद": 7138,
      "ऍथ": 7139,
      "ऑक्सफोर्ड": 7140,
      "ख़": 7141,
      "गध": 7142,
      "जल": 7143,
      "जपा": 7144,
      "जपुरी": 7145,
      "जिस्ट": 7146,
      "ताल": 7147,
      "थम": 7148,
      "थल": 7149,
      "दल": 7150,
      "दान": 7151,
      "नोल": 7152,
      "न्तर": 7153,
      "फ्रां": 7154,
      "बा": 7155,
      "बू": 7156,
      "बार": 7157,
      "मत": 7158,
      "यपुर": 7159,
      "रस": 7160,
      "ल्ल": 7161,
      "वेश": 7162,
      "शत": 7163,
      "शोक": 7164,
      "हम": 7165,
      "हें": 7166,
      "ाक": 7167,
      "ुरा": 7168,
      "ुम्ब": 7169,
      "ूबर": 7170,
      "ृष्ण": 7171,
      "ेक": 7172,
      "ॉग": 7173,
      "५७": 7174,
      "কাল": 7175,
      "কূল": 7176,
      "টক": 7177,
      "দালত": 7178,
      "মূল": 7179,
      "রো": 7180,
      "ুদ্ধ": 7181,
      "েয়": 7182,
      "৬]](./ভারত#cite_note-": 7183,
      "ంతం": 7184,
      "ఆగ": 7185,
      "కళ": 7186,
      "ఖండ్": 7187,
      "గ్": 7188,
      "గిన": 7189,
      "గఢ్": 7190,
      "జో": 7191,
      "ట్ర": 7192,
      "తెలుగు": 7193,
      "పద": 7194,
      "భి": 7195,
      "మై": 7196,
      "మలు": 7197,
      "యో": 7198,
      "లక్ష": 7199,
      "వర": 7200,
      "శో": 7201,
      "షా": 7202,
      "హార్": 7203,
      "హాయ": 7204,
      "ాష్ట్ర": 7205,
      "ీహార్": 7206,
      "ుల": 7207,
      "ుల్": 7208,
      "ోత్స": 7209,
      "ౌర్య": 7210,
      "▁భ": 7211,
      "▁ना": 7212,
      "▁eng": 7213,
      "](./ग": 7214,
      "](./ন": 7215,
      "](./సి": 7216,
      "](./हिन्द": 7217,
      "▁[Y": 7218,
      "▁[వి": 7219,
      "▁[गुजरात": 7220,
      "▁\"ड": 7221,
      "▁\"ন": 7222,
      "▁\"హ": 7223,
      "▁\"বি": 7224,
      "▁\"In": 7225,
      "▁\"साँचा:": 7226,
      "▁\"ఢిల్లీ": 7227,
      "iated": 7228,
      "ino-": 7229,
      "tile": 7230,
      "er-": 7231,
      "erc": 7232,
      "eri": 7233,
      "ester": 7234,
      "ispu": 7235,
      "cid": 7236,
      "्रार": 7237,
      "omo": 7238,
      "▁सूच": 7239,
      "asthan": 7240,
      "asp?": 7241,
      "2016_": 7242,
      "▁(S": 7243,
      "▁India\"](https://web.archive.org/web/201": 7244,
      "▁मध्य": 7245,
      "▁मन्दिर": 7246,
      "्यूरो": 7247,
      "ratic": 7248,
      "్రూ": 7249,
      "▁inte": 7250,
      "-0)\n": 7251,
      "-0\").\n": 7252,
      "▁sty": 7253,
      "▁school": 7254,
      "য়িকী": 7255,
      "ivoy": 7256,
      "रात": 7257,
      "-138": 7258,
      "▁पड़": 7259,
      "▁प्लेट": 7260,
      "ingap": 7261,
      "\\)\"),": 7262,
      "[[10": 7263,
      "▁As": 7264,
      "▁Asher": 7265,
      "](https://catalog": 7266,
      "ानगर": 7267,
      "▁Sabha": 7268,
      "well": 7269,
      "](./भारत_का": 7270,
      "▁Ca": 7271,
      "▁fol": 7272,
      "▁हाला": 7273,
      "▁हथियार": 7274,
      "▁can": 7275,
      "▁cook": 7276,
      "uran": 7277,
      "ISSN": 7278,
      "▁man": 7279,
      "▁main": 7280,
      "ాలా": 7281,
      "ాలలో": 7282,
      "िकी": 7283,
      "याधी": 7284,
      "ilber": 7285,
      "emon": 7286,
      "ोंक": 7287,
      "▁Temple": 7288,
      "▁would": 7289,
      "ately": 7290,
      "▁ज़": 7291,
      "র্ত": 7292,
      "igration": 7293,
      "ालर": 7294,
      "▁Before": 7295,
      "indhi": 7296,
      "न्ध": 7297,
      "न्स": 7298,
      "▁Data": 7299,
      "ర్ణా": 7300,
      "ర్మే": 7301,
      "▁बार": 7302,
      "▁बने": 7303,
      "▁बड़ा": 7304,
      "▁प्रस": 7305,
      "▁प्रारम्भ": 7306,
      "▁\"Special:BookSources/978-81": 7307,
      "](./Special:BookSources/978-81": 7308,
      "▁नौसेना": 7309,
      "▁Economy": 7310,
      "రాన్": 7311,
      "_A7C": 7312,
      "्टॉक": 7313,
      "▁Nicobar": 7314,
      "▁led": 7315,
      "లోక్‌సభ": 7316,
      "ap_en": 7317,
      "-37": 7318,
      "▁वाल": 7319,
      "▁वार्ता:": 7320,
      "क्षण": 7321,
      "क्षद्वीप": 7322,
      "▁आन्द": 7323,
      "ంది.\n": 7324,
      "ishers": 7325,
      "तिब्बत": 7326,
      "▁వే": 7327,
      "▁third": 7328,
      "▁Force": 7329,
      "os/": 7330,
      "osa": 7331,
      "osi": 7332,
      "oss": 7333,
      "a_1": 7334,
      "थाईल": 7335,
      "▁উল্": 7336,
      "▁गठ": 7337,
      "174": 7338,
      "▁Organization": 7339,
      "▁\"Category:": 7340,
      "](./Category:": 7341,
      "ండర్": 7342,
      "238": 7343,
      "_and_T": 7344,
      "कांक": 7345,
      "▁చి": 7346,
      "কাপ": 7347,
      "ogri": 7348,
      "▁\\(भारत": 7349,
      "▁\\(ভারত": 7350,
      "▁लिया": 7351,
      "▁[Central": 7352,
      "▁ব্য": 7353,
      "हिमालय": 7354,
      "ियान": 7355,
      "-691": 7356,
      "త్మా": 7357,
      "▁আন্দোলন": 7358,
      "358": 7359,
      "ंडमान": 7360,
      "▁2025.": 7361,
      ".jpg/60px-": 7362,
      "▁सागर": 7363,
      "ికి": 7364,
      "ublishers": 7365,
      "▁\"महाराष्ट्र": 7366,
      "▁विज्ञान": 7367,
      "▁now": 7368,
      "हाब": 7369,
      "परेशन": 7370,
      "▁करना": 7371,
      "▁करता": 7372,
      "मीरात": 7373,
      "ద్దు": 7374,
      "-prov": 7375,
      "▁Ved": 7376,
      "](./महाराष्ट्र": 7377,
      "▁क्षेत्र\")": 7378,
      "ंग्रेज": 7379,
      "egistrar": 7380,
      "మాచల్": 7381,
      "থাইল": 7382,
      "প্টেম": 7383,
      "రువా": 7384,
      "రుణా": 7385,
      "▁సామ్రాజ్య": 7386,
      "মাজ": 7387,
      "_River": 7388,
      "রিজার্": 7389,
      "▁రహదార": 7390,
      "▁[2](./भारत#cite_ref-FOOTNOTE": 7391,
      "angered": 7392,
      "ameez": 7393,
      "_Gandhi": 7394,
      "న్నో": 7395,
      "বিশ্ব": 7396,
      "▁[1](./भारत#cite_ref-FOOTNOTE": 7397,
      "tatis": 7398,
      "▁[![The": 7399,
      "_Economic": 7400,
      "▁देश\")\n": 7401,
      "▁चार": 7402,
      "మిజో": 7403,
      "_map_en": 7404,
      "▁change": 7405,
      "हारजिस्ट": 7406,
      "▁ఇది": 7407,
      "▁like": 7408,
      "िवस": 7409,
      "▁वर्षा": 7410,
      "2007),": 7411,
      "_भारतीय_": 7412,
      "DwAAQBAJ": 7413,
      "▁Urdu": 7414,
      "ukesh": 7415,
      "▁2007\n": 7416,
      "▁घरेलू": 7417,
      "▁జరి": 7418,
      "समूह": 7419,
      "eoples": 7420,
      "](./पूर्व": 7421,
      "▁సామ్రాజ్యం\")|": 7422,
      "▁kingdom": 7423,
      "ष्ठ": 7424,
      "न्नड़": 7425,
      "নির্": 7426,
      "▁These": 7427,
      "ोरम": 7428,
      "ట్టు": 7429,
      "आईएस": 7430,
      "दाख": 7431,
      "▁था,": 7432,
      "ेर-": 7433,
      "కోవ": 7434,
      "▁धर्म\")": 7435,
      "ంగ్లీ": 7436,
      "श्मीरी": 7437,
      "▁agriculture": 7438,
      "▁शासित": 7439,
      "industry_in_India": 7440,
      "వేద": 7441,
      "▁স্থা": 7442,
      "ंपन": 7443,
      "ंपरा": 7444,
      "সাময়িকী": 7445,
      "▁రాజకీయ": 7446,
      "त्पत्ति": 7447,
      "▁ত্রুটি\"))": 7448,
      "हाराष्ट्र](./महाराष्ट्र": 7449,
      "▁অন্যান্য": 7450,
      "ually": 7451,
      "▁अपने": 7452,
      "▁imp": 7453,
      "హిమాచల్": 7454,
      "ार्कट": 7455,
      "▁तटीय": 7456,
      "హాత్మా": 7457,
      "लिंग": 7458,
      "जयपुर": 7459,
      "जयनगर": 7460,
      "भूटान": 7461,
      "emocratic": 7462,
      "िज़ोरम": 7463,
      "chedule": 7464,
      "▁species": 7465,
      "णिपुर": 7466,
      "णिपुरी": 7467,
      "लोकसभा": 7468,
      "ataraj": 7469,
      "_न्या": 7470,
      "ईसाई": 7471,
      "హారాష్ట్ర": 7472,
      "▁सुरक्षा": 7473,
      "రాజస్థాన్": 7474,
      "▁व्यवस्था": 7475,
      "्रांति": 7476,
      "शासित_प्रदेश": 7477,
      "ominion": 7478,
      "▁శతాబ్ద": 7479,
      "কেন্দ্রশাসিত": 7480,
      "britannica.com/place": 7481,
      "_वार्ता:": 7482,
      "▁पार्टी": 7483,
      "▁వాతావరణ": 7484,
      "पातकाल": 7485,
      "উত্তর-": 7486,
      "▁সেপ্টেম": 7487,
      "धिराज्य": 7488,
      "దినోత్స": 7489,
      "▁जलवायु": 7490,
      "▁घाटी": 7491,
      "బెంగాలీ": 7492,
      "▁rock": 7493,
      "యన్మార్": 7494,
      "▁\"हिन्दी\")": 7495,
      "Insur": 7496,
      "▁ముఖ్య": 7497,
      "▁लगभग": 7498,
      "িয়ানমার": 7499,
      "ूरोप": 7500,
      "▁[978-81": 7501,
      "▁[Archived](https://web.archive.org/web/20210": 7502,
      "wikidata": 7503,
      "EXT": 7504,
      "भोजपुरी": 7505,
      "▁majority": 7506,
      "▁সংস্কৃতি": 7507,
      "▁occup": 7508,
      "anorama": 7509,
      "▁सीमा": 7510,
      "▁సంస్కృతి|": 7511,
      "MetcalfMetcalf2012-2": 7512,
      "▁emerg": 7513,
      "▁सदस": 7514,
      "truction": 7515,
      "▁राजनीतिक": 7516,
      "▁[पंजाब](./पंजाब": 7517,
      "elangana": 7518,
      "](./साँचा_वार्ता:": 7519,
      "_राजवंश": 7520,
      "पूर्ण": 7521,
      "ृद्धि": 7522,
      "ంజాబ్": 7523,
      "▁వ్యాస": 7524,
      "▁शुरू": 7525,
      "lofker": 7526,
      "lurton199": 7527,
      "_Commission": 7528,
      "▁employed": 7529,
      "rajbhasha": 7530,
      "खनऊ": 7531,
      "हरियाणा": 7532,
      "గుజరాత్": 7533,
      "ఆఫ్ఘనిస్తాన్": 7534,
      "న్‌ఫర్మే": 7535,
      "lothing": 7536,
      "▁widely": 7537,
      "▁জুলাই": 7538,
      "সিন্ধু": 7539,
      "तुल्य": 7540,
      "फाएं": 7541,
      "ृषि": 7542,
      "▁दोनों": 7543,
      "రిహద్దు": 7544,
      "▁निभाई": 7545,
      "చ్చేరి": 7546,
      "120]](./भारत#cite_note-langoff-128)": 7547,
      "](./भारत#cite_ref-langoff_128": 7548,
      "olnar": 7549,
      "ংগ্রেস": 7550,
      "উইকি": 7551,
      "runei": 7552,
      "ऍथनोल": 7553,
      "ुम्बई": 7554,
      "ivoyage": 7555,
      "ingapore": 7556,
      "▁Asher,": 7557,
      "याधीश": 7558,
      "ర్ణాటక": 7559,
      "থাইল্যান্ড": 7560,
      "రుణాచల్": 7561,
      "রিজার্ভ": 7562,
      "हारजिस्ट्रार": 7563,
      "ार्कटिका": 7564,
      "▁সেপ্টেম্বর": 7565,
      "న్‌ఫర్మేషన్": 7566,
      "ऍथनोलॉग": 7567,
      "1-1": 7568,
      "140": 7569,
      "7-8": 7570,
      "Clémentin-Oj": 7571,
      "EB": 7572,
      "IB": 7573,
      "Iran": 7574,
      "St": 7575,
      "Wiki": 7576,
      "_14": 7577,
      "hl": 7578,
      "pi": 7579,
      "page": 7580,
      "rs": 7581,
      "▁78": 7582,
      "onk": 7583,
      "erlin": 7584,
      "es.": 7585,
      "ictor": 7586,
      "id=1": 7587,
      "19)": 7588,
      "▁sq": 7589,
      "▁Ad": 7590,
      "▁15.": 7591,
      "▁13.": 7592,
      "▁Pla": 7593,
      "▁People": 7594,
      "rest": 7595,
      "▁Mah": 7596,
      "ourism": 7597,
      "▁Bharat": 7598,
      "▁_C": 7599,
      "405": 7600,
      "akers": 7601,
      "1999": 7602,
      "▁On": 7603,
      ".gov.": 7604,
      "28.": 7605,
      "▁ancient": 7606,
      "ible": 7607,
      "angetic": 7608,
      ".svg/40px-Flag_of_India.svg.png)": 7609,
      "▁10.": 7610,
      "economy": 7611,
      "ukh": 7612,
      "▁km2": 7613,
      "▁Indo-": 7614,
      "▁[Fisher": 7615,
      "Increase](//upload.wikimedia.org/wikipedia/commons/thumb/b/b0/Increase2.svg/20px-Increase2.svg.png)": 7616,
      "▁Short": 7617,
      "...]": 7618,
      "▁![Increase](//upload.wikimedia.org/wikipedia/commons/thumb/b/b0/Increase2.svg/20px-Increase2.svg.png)": 7619,
      "▁commun": 7620,
      "▁2020.": 7621,
      "Fisher2018),": 7622,
      "itzel": 7623,
      "ield": 7624,
      "▁Conservation": 7625,
      "4/41/Flag_of_India.svg/40px-Flag_of_India.svg.png)": 7626,
      "▁Francis": 7627,
      "▁Minorities,": 7628,
      "Clémentin-Ojha2014": 7629,
      "%3": 7630,
      ".og": 7631,
      "/india/": 7632,
      "9–": 7633,
      "9-6": 7634,
      "MAAJ": 7635,
      "_26": 7636,
      "government": 7637,
      "minis": 7638,
      "uture": 7639,
      "vent": 7640,
      "চিত": 7641,
      "থম": 7642,
      "রব": 7643,
      "রকার": 7644,
      "লব": 7645,
      "শাল": 7646,
      "ষয়": 7647,
      "ুল": 7648,
      "৫]](./ভারত#cite_note-": 7649,
      "▁70": 7650,
      "▁লা": 7651,
      "](./U": 7652,
      "](./বি": 7653,
      "\")\"": 7654,
      "orig": 7655,
      "ising": 7656,
      "itage": 7657,
      "ার্ব": 7658,
      "leavy": 7659,
      "190": 7660,
      "▁Ac": 7661,
      "▁fig": 7662,
      "▁bot": 7663,
      "▁men": 7664,
      "illi": 7665,
      "▁সম্": 7666,
      "olia": 7667,
      "▁dependencies": 7668,
      "▁Ram": 7669,
      "unleavy": 7670,
      "▁Nuclear": 7671,
      "%27": 7672,
      "স্ত্র": 7673,
      "oung": 7674,
      "18)": 7675,
      "▁[SAARC": 7676,
      "AAMAAJ": 7677,
      "ক্ষর": 7678,
      "-76": 7679,
      "_and_d": 7680,
      "▁43": 7681,
      "▁International": 7682,
      "_Modi": 7683,
      "titution": 7684,
      "uggle": 7685,
      "2011religion": 7686,
      "iteracy": 7687,
      "▁\"Tamil": 7688,
      "িলি": 7689,
      "▁V.": 7690,
      "▁Hindus": 7691,
      "▁[2](./ভারত#cite_ref-": 7692,
      "▁[1](./ভারত#cite_ref-": 7693,
      "▁[New": 7694,
      "/population": 7695,
      ".jpg/250px-S": 7696,
      "_Fund": 7697,
      "-in-india": 7698,
      "▁নিবন্ধ": 7699,
      "ভিন্ন": 7700,
      "▁around": 7701,
      "ethnologue": 7702,
      "▁অন্য": 7703,
      "ঞ্জা": 7704,
      "স্থান": 7705,
      "](./List_of_countries_and_d": 7706,
      "▁যুগ": 7707,
      "_of_the_": 7708,
      "তমালা": 7709,
      "imf.org/": 7710,
      "▁Environmental": 7711,
      "▁তালিকা\")\n": 7712,
      "ependencies_by": 7713,
      ".uk/": 7714,
      "union_territories": 7715,
      "imachal": 7716,
      "s_and_union_territories": 7717,
      "AGE": 7718,
      "webcitation.org/6": 7719,
      "?url=http://www.": 7720,
      "Census2011religion": 7721,
      "hattisgarh": 7722,
      "▁উল্লেখ": 7723,
      "ministered": 7724,
      "ethnologue.com/": 7725,
      "](./List_of_countries_and_dependencies_by": 7726,
      "-asia": 7727,
      ".](//upload.wikimedia.org/wikipedia/commons/thumb/": 7728,
      "/K": 7729,
      "/).": 7730,
      "01": 7731,
      "3).": 7732,
      "5-3": 7733,
      "51)": 7734,
      "Front": 7735,
      "Mon": 7736,
      "Official": 7737,
      "US": 7738,
      "Wright": 7739,
      "aci": 7740,
      "ait": 7741,
      "audi": 7742,
      "ees": 7743,
      "eag": 7744,
      "ground": 7745,
      "known": 7746,
      "mal": 7747,
      "mall": 7748,
      "music": 7749,
      "nai": 7750,
      "oes": 7751,
      "present": 7752,
      "rban": 7753,
      "wat": 7754,
      "wait": 7755,
      "▁op": 7756,
      "](./Indus": 7757,
      "▁[_P": 7758,
      "▁[_M": 7759,
      "▁\"Indus": 7760,
      "on,": 7761,
      "reen": 7762,
      "orb": 7763,
      "orm": 7764,
      "ants": 7765,
      "anchi": 7766,
      "alc": 7767,
      "enj": 7768,
      "enter": 7769,
      "itar": 7770,
      "ashi": 7771,
      "▁(2007": 7772,
      "▁India.[[": 7773,
      "▁India\").[[": 7774,
      "▁plate": 7775,
      "▁poll": 7776,
      "▁prac": 7777,
      "▁inv": 7778,
      "-026": 7779,
      "▁so": 7780,
      "ivision": 7781,
      "ett": 7782,
      "us_": 7783,
      "[[14": 7784,
      "▁Agency": 7785,
      "rip": 7786,
      "ating": 7787,
      "atter": 7788,
      "▁16.": 7789,
      "▁forest": 7790,
      "lima": 7791,
      "▁cre": 7792,
      "▁census": 7793,
      "▁talk": 7794,
      "▁Pp.": 7795,
      "▁Prin": 7796,
      "▁President": 7797,
      "urkey": 7798,
      "▁[↑](./India#cite_": 7799,
      "▁member": 7800,
      "andy": 7801,
      "▁develop": 7802,
      "▁direct": 7803,
      "upee": 7804,
      "▁Trade": 7805,
      "ropp": 7806,
      "rocod": 7807,
      "](./India#cite_ref-vatsyayan-lord_43": 7808,
      "ull": 7809,
      "aten": 7810,
      "igen": 7811,
      "igni": 7812,
      "igved": 7813,
      "▁Buddha": 7814,
      "10)": 7815,
      "109": 7816,
      "▁Dyson": 7817,
      "▁_P": 7818,
      "-2\").\n": 7819,
      "Intelligence": 7820,
      "lymp": 7821,
      "▁\"Special:EditPage/Template": 7822,
      "aking": 7823,
      "](./Special:EditPage/Template": 7824,
      "▁Emer": 7825,
      "ayana": 7826,
      "▁[↑](./India#cite_ref-3": 7827,
      "▁Gu": 7828,
      "▁Ganges": 7829,
      "elugu": 7830,
      "▁last": 7831,
      "▁2000": 7832,
      "▁east": 7833,
      "▁republic": 7834,
      "-4\").\n": 7835,
      "beral": 7836,
      "](./India#CITEREFM": 7837,
      "hip": 7838,
      "▁though": 7839,
      "269,": 7840,
      "▁35": 7841,
      "▁38": 7842,
      "▁Lank": 7843,
      "a_M": 7844,
      "▁\"Ch": 7845,
      "▁\"China": 7846,
      "▁\"Central": 7847,
      "▁\"Climate": 7848,
      "-9](./Special:BookSources/978-0": 7849,
      "287,": 7850,
      "](./China": 7851,
      "orea": 7852,
      "_and_N": 7853,
      "251": 7854,
      "ffec": 7855,
      "▁\"Ministry": 7856,
      "▁become": 7857,
      "_Ch": 7858,
      "Industrial": 7859,
      "_Mar": 7860,
      "rchitecture": 7861,
      "2006),": 7862,
      "iterature": 7863,
      "54)": 7864,
      "](./Template_": 7865,
      "-population": 7866,
      "▁Vedic": 7867,
      "▁expectancy": 7868,
      "▁villa": 7869,
      "▁\"Delhi": 7870,
      "](./Delhi": 7871,
      "_Ram": 7872,
      "engal_": 7873,
      "▁2011](./India#CITEREF": 7874,
      "▁\"Routledge": 7875,
      "](./Routledge": 7876,
      "▁\"Special:BookSources/978-0-521": 7877,
      "▁[Tamil": 7878,
      "49-0": 7879,
      "▁[Routledge": 7880,
      "_dance": 7881,
      "▁2014](./India#CITEREF": 7882,
      "▁centuri": 7883,
      "▁tea": 7884,
      "▁subjec": 7885,
      "▁template\n": 7886,
      "▁military": 7887,
      "▁millennium": 7888,
      "▁leg": 7889,
      "▁(2017).": 7890,
      "-107-026": 7891,
      "7/7": 7892,
      "talk": 7893,
      "athematics": 7894,
      "▁[t](./Template_": 7895,
      "▁about": 7896,
      "hennai": 7897,
      "▁[v](./Template": 7898,
      "▁Talbot,": 7899,
      "▁[e](./Special:EditPage/Template": 7900,
      "loc.gov/": 7901,
      "▁upper": 7902,
      "▁coast": 7903,
      "cms)": 7904,
      "▁independence": 7905,
      "ocuments/": 7906,
      "▁[India](./India": 7907,
      "ikipedia": 7908,
      "▁mathematics": 7909,
      "▁2018](./India#CITEREFFisher2018),": 7910,
      "▁edition": 7911,
      "▁(1,269,": 7912,
      "▁3,287,": 7913,
      "topic": 7914,
      "ibetan": 7915,
      "▁(2006).": 7916,
      "economictimes.indiatimes.com/": 7917,
      "forcement": 7918,
      "▁1994](./India#CITEREF": 7919,
      "-230-34": 7920,
      "▁2025.\n": 7921,
      "disha": 7922,
      "](https://id.": 7923,
      "first": 7924,
      "▁Games\")\n": 7925,
      "ambodia": 7926,
      "▁engineering": 7927,
      "Wright2010": 7928,
      "▁(2007).": 7929,
      "limate_": 7930,
      "ignific": 7931,
      "▁Dyson,": 7932,
      "▁village": 7933,
      "▁\"Routledge\").": 7934,
      "▁[Routledge](./Routledge": 7935,
      "▁subject": 7936,
      "-107-02649-0": 7937,
      "▁[t](./Template_talk": 7938,
      "-230-34549": 7939,
      "-j": 7940,
      "-the": 7941,
      "-गंगा": 7942,
      "1200": 7943,
      "2%29": 7944,
      "3-1": 7945,
      "5)\n": 7946,
      ":India": 7947,
      ":IN": 7948,
      "B0%": 7949,
      "OL": 7950,
      "OLA": 7951,
      "_উ": 7952,
      "_এ": 7953,
      "_a_": 7954,
      "_সাম্রাজ্য": 7955,
      "a-b": 7956,
      "cia": 7957,
      "eas": 7958,
      "ier": 7959,
      "ila": 7960,
      "iop": 7961,
      "ner": 7962,
      "ँकि": 7963,
      "ंबर": 7964,
      "ईस्ट": 7965,
      "ऊर्जा": 7966,
      "ऋतु": 7967,
      "ऑपरेशन": 7968,
      "कु": 7969,
      "जवा": 7970,
      "तग": 7971,
      "त्या": 7972,
      "तमान": 7973,
      "थी": 7974,
      "दु": 7975,
      "नत": 7976,
      "मूल": 7977,
      "ल्त": 7978,
      "वत": 7979,
      "वली": 7980,
      "शील": 7981,
      "सत": 7982,
      "सैन": 7983,
      "ी.": 7984,
      "ुक": 7985,
      "ूस": 7986,
      "ेय": 7987,
      "५०": 7988,
      "জরা": 7989,
      "দ্রা": 7990,
      "নৈতিক": 7991,
      "বৈ": 7992,
      "রপে": 7993,
      "লিত": 7994,
      "১৩": 7995,
      "৪]](./ভারত#cite_note-": 7996,
      "৯৮": 7997,
      "ంతి": 7998,
      "కారం": 7999,
      "ఖ్": 8000,
      "గర్": 8001,
      "గంగా": 8002,
      "టో": 8003,
      "డిన": 8004,
      "తీ": 8005,
      "ధి": 8006,
      "ధించ": 8007,
      "నల్": 8008,
      "నులు": 8009,
      "మన": 8010,
      "మర": 8011,
      "ర్యా": 8012,
      "లం": 8013,
      "లతో": 8014,
      "లమె": 8015,
      "శ్ర": 8016,
      "ీస్": 8017,
      "ూప": 8018,
      "ూరు": 8019,
      "ెనీ": 8020,
      "ౌక": 8021,
      "▁ऐ": 8022,
      "▁५": 8023,
      "▁দ্": 8024,
      "▁శా": 8025,
      "▁హిందూ": 8026,
      "▁লেখ": 8027,
      "▁గాంధీ": 8028,
      "](./य": 8029,
      "](./तमिल": 8030,
      "▁[श": 8031,
      "▁[বি": 8032,
      "▁[राज्य": 8033,
      "▁[భారతదేశం": 8034,
      "▁[प्र": 8035,
      "▁[সং": 8036,
      "▁[ఢిల్లీ": 8037,
      "▁\"प्र": 8038,
      "▁\"राष्ट्रीय": 8039,
      "▁\"तमिल": 8040,
      "▁\"विशेष:EditPage/साँचा:": 8041,
      "thiop": 8042,
      "reater": 8043,
      "retary": 8044,
      "arm": 8045,
      "arak": 8046,
      "arayan": 8047,
      "▁कर्ज": 8048,
      "▁सूर": 8049,
      "https": 8050,
      "lex": 8051,
      "▁India\n": 8052,
      "19.": 8053,
      "▁मील": 8054,
      "-100": 8055,
      "▁पै": 8056,
      "▁पहु": 8057,
      "▁पश्चिम": 8058,
      "ారస": 8059,
      "▁After": 8060,
      "ri_Lanka": 8061,
      "▁St": 8062,
      "र्क": 8063,
      "र्तग": 8064,
      "geoh": 8065,
      "▁capita": 8066,
      "ాలను": 8067,
      "**[": 8068,
      "**জাতীয়": 8069,
      "216": 8070,
      "005": 8071,
      "00–సా.శ.పూ.": 8072,
      "స్](./": 8073,
      "विद्यालय": 8074,
      "▁పెద్ద": 8075,
      "=1&": 8076,
      "_केंद्र": 8077,
      "▁दी": 8078,
      "राजनी": 8079,
      "ర్లు": 8080,
      "▁बनी": 8081,
      "▁बड़ी": 8082,
      "▁प्रण": 8083,
      "▁प्रभा": 8084,
      "▁प्रकार": 8085,
      "लावा": 8086,
      "▁\"Sanskrit": 8087,
      "](./Sanskrit": 8088,
      "▁निय": 8089,
      "▁नृत्य": 8090,
      "_सिनेमा": 8091,
      "30)": 8092,
      "▁Home": 8093,
      "स्ता": 8094,
      "ित्व": 8095,
      "▁आय": 8096,
      "ంది": 8097,
      "180": 8098,
      "▁37": 8099,
      "]](./भारत#cite_note-10": 8100,
      "▁गए": 8101,
      "रीक्षण": 8102,
      "▁परमाणु": 8103,
      "▁परंपरा": 8104,
      "uccess": 8105,
      "135": 8106,
      "ादरा": 8107,
      "15/": 8108,
      "_महासागर": 8109,
      "23.": 8110,
      "▁संख्या": 8111,
      "नेट": 8112,
      "▁[महाराष्ट्र](./महाराष्ट्र": 8113,
      "lands": 8114,
      "_के_देश": 8115,
      "▁নে": 8116,
      "ी](./प": 8117,
      "ी](./स": 8118,
      "త్తం": 8119,
      "▁জয়": 8120,
      "ज़ा": 8121,
      "▁হার": 8122,
      "ন্দা": 8123,
      "राष्ट्रीय_": 8124,
      "_Data_": 8125,
      "▁అతి": 8126,
      "▁అనే": 8127,
      "▁ప్రజ": 8128,
      "▁সংস্থা": 8129,
      "▁भाषाएँ": 8130,
      "▁শক্তি": 8131,
      "tives": 8132,
      "▁विवाद": 8133,
      "▁विभाग": 8134,
      "ంచి": 8135,
      "▁ఆఫ్": 8136,
      "search": 8137,
      "भिन्न": 8138,
      "▁సాం": 8139,
      "ార్లమె": 8140,
      "newsite": 8141,
      ":বই_উদ্ধৃতি": 8142,
      "general": 8143,
      "కిస్థాన్": 8144,
      "▁जनता": 8145,
      "▁1997": 8146,
      "▁నే": 8147,
      "▁నగర": 8148,
      "▁जाते": 8149,
      "▁\"ब्रिटिश": 8150,
      "▁इसी": 8151,
      "ాయి.": 8152,
      "िवेश": 8153,
      "পিডিয়া": 8154,
      "టిబె": 8155,
      "్రీ.పూ.": 8156,
      "anskrit](./Sanskrit": 8157,
      "▁समूह": 8158,
      "▁घोष": 8159,
      "▁২০১৯": 8160,
      "▁విస్త": 8161,
      "▁చరిత్ర\n": 8162,
      "ండియా": 8163,
      "ographical": 8164,
      "ेखा": 8165,
      "▁ఎక్కువ": 8166,
      "▁ఎన్నో": 8167,
      "▁जिसके": 8168,
      "](./उत्तर": 8169,
      "▁\"उत्तर": 8170,
      "▁सिंह": 8171,
      ":South_Asia": 8172,
      "▁[उत्तर": 8173,
      "▁জন্য": 8174,
      "▁१९९": 8175,
      "▁করে।": 8176,
      "_సం": 8177,
      "वर्ष": 8178,
      "▁disc": 8179,
      "ారు.\n": 8180,
      "▁[↑](./भारत#cite_ref-10": 8181,
      "▁চলচ্চিত্র": 8182,
      "_সম্পর্ক": 8183,
      "టుంబ": 8184,
      "▁अपनी": 8185,
      "_का_खाना": 8186,
      "▁[t](./साँचा_वार्ता:": 8187,
      "▁\"টেমপ্লেট:বই": 8188,
      "%E0%A4%A": 8189,
      ".net": 8190,
      "श्रीनगर": 8191,
      "▁భారత్": 8192,
      "▁एशिया\")": 8193,
      "2001),": 8194,
      "ন্নয়ন": 8195,
      "▁डॉल": 8196,
      "▁उत्तर-प": 8197,
      "▁speakers": 8198,
      "धु-गंगा": 8199,
      "బాద్": 8200,
      "▁\"संस्कृत": 8201,
      "▁Region": 8202,
      "माजिक": 8203,
      "▁ऊर्जा": 8204,
      "▁మొత్తం": 8205,
      "▁हुआ।": 8206,
      "▁কেন্দ্রশাসিত": 8207,
      "-India.pdf)": 8208,
      "▁2004](./भारत#CITEREF": 8209,
      "](./संस्कृत": 8210,
      "ণিজ্য": 8211,
      "▁উদ্ধৃতি](./টেমপ্লেট:বই_উদ্ধৃতি": 8212,
      "▁प्रतिशत": 8213,
      "▁early": 8214,
      "राठी": 8215,
      "▁वायु": 8216,
      "▁रहे": 8217,
      ".worldcat.org/": 8218,
      "▁সঙ্গীত": 8219,
      ".aspx?rel": 8220,
      "ంపెనీ": 8221,
      "హ్మ": 8222,
      "▁उद्यान\")": 8223,
      "▁ఏర్": 8224,
      "_Assembly": 8225,
      "▁शक्तिपीठ": 8226,
      "్రిటిషు": 8227,
      "_उत्पाद": 8228,
      "१८५७": 8229,
      "కేంద్రపాలిత_ప్రాంత": 8230,
      "thehindu": 8231,
      "▁राजवंश\")": 8232,
      "▁[v](./साँचा:": 8233,
      "▁[e](./विशेष:EditPage/साँचा:": 8234,
      "ंडोनेशिया": 8235,
      "▁विदेशी": 8236,
      "_और_संघ_क्षेत्र": 8237,
      "▁oldest": 8238,
      "▁सितंबर": 8239,
      "▁अमेरिका": 8240,
      "▁जबकि": 8241,
      "▁व्यापार": 8242,
      "▁అత్యధిక": 8243,
      "_के_अनुसार_देशों_की_सूची": 8244,
      "দারীকরণ": 8245,
      "_राज्यक्षेत्र": 8246,
      "ভৌম": 8247,
      "ీర్ణ": 8248,
      "▁किन्तु": 8249,
      "▁सहयोग": 8250,
      "lease.aspx?rel": 8251,
      "राष्ट्रीय_सूचना": 8252,
      "దక్షిణ_ఆసియా": 8253,
      "pib.nic.in/newsite": 8254,
      "▁गठबंधन": 8255,
      "▁স্থাপ": 8256,
      "▁ত্রুটি\"));": 8257,
      "ूरोपीय": 8258,
      "ার্বভৌম": 8259,
      "ल्तनत": 8260,
      "सैनिक": 8261,
      "রপেক্ষ": 8262,
      "geohack": 8263,
      "▁डॉलर": 8264,
      "/?": 8265,
      "1st": 8266,
      "130": 8267,
      "4-0": 8268,
      "4-3": 8269,
      "623": 8270,
      "PT": 8271,
      "Tw": 8272,
      "_con": 8273,
      "_28": 8274,
      "e,": 8275,
      "eub": 8276,
      "hā": 8277,
      "run": 8278,
      "uf": 8279,
      "▁Z": 8280,
      "▁ob": 8281,
      "](./19": 8282,
      "](./International_": 8283,
      "▁\"International": 8284,
      "tev": 8285,
      "Indian_": 8286,
      "orary": 8287,
      "arv": 8288,
      "itor": 8289,
      "icator": 8290,
      "▁(2011": 8291,
      "▁India](./P": 8292,
      "198": 8293,
      "▁Singh": 8294,
      "▁Century": 8295,
      "▁bord": 8296,
      "ficient": 8297,
      "anding": 8298,
      "ily": 8299,
      "olid": 8300,
      "▁Movement": 8301,
      "▁Tw": 8302,
      "▁Report": 8303,
      "▁Bh": 8304,
      "indicator": 8305,
      "▁1980": 8306,
      "▁Gujarat": 8307,
      "▁[\"M": 8308,
      "ernet": 8309,
      "aving": 8310,
      "-59": 8311,
      "▁nation": 8312,
      "▁Library": 8313,
      "▁West": 8314,
      "7080": 8315,
      "ummary": 8316,
      "_Times": 8317,
      "ue.bnf.fr/ark:/12148/cb": 8318,
      "▁well": 8319,
      "▁77.": 8320,
      "51-9": 8321,
      "▁adop": 8322,
      "▁[Ludden": 8323,
      "▁News": 8324,
      "unjabi": 8325,
      "resident_of_India": 8326,
      "KulkeRothermund2004),": 8327,
      "cms).": 8328,
      "▁(2018).": 8329,
      "data.bnf.fr/ark:/12148/cb": 8330,
      "▁2022.\n": 8331,
      "PPP\\)": 8332,
      "▁based": 8333,
      "Ministry_of_Home_Affairs_": 8334,
      "wildlife": 8335,
      "▁zone": 8336,
      "▁domestic": 8337,
      "onkani": 8338,
      "euborne": 8339,
      "Ministry_of_Home_Affairs_1960": 8340,
      "-R": 8341,
      "-th": 8342,
      "-res": 8343,
      ".\"": 8344,
      "1]](./India#cite_note-": 8345,
      "220": 8346,
      "2-5196": 8347,
      "32)": 8348,
      "8+": 8349,
      "Al": 8350,
      "Court": 8351,
      "David": 8352,
      "PC": 8353,
      "See": 8354,
      "TH": 8355,
      "[M": 8356,
      "_8": 8357,
      "_যু": 8358,
      "_Union": 8359,
      "_state": 8360,
      "ajp": 8361,
      "kno": 8362,
      "mand": 8363,
      "n-": 8364,
      "oz": 8365,
      "tradition": 8366,
      "tances": 8367,
      "ulos": 8368,
      "xim": 8369,
      "ुस्तान": 8370,
      "ওয়": 8371,
      "খ্রি": 8372,
      "নো": 8373,
      "নিয়ন": 8374,
      "বঙ্গ": 8375,
      "লকা": 8376,
      "লবায়ু": 8377,
      "েণী": 8378,
      "১৮": 8379,
      "২]](./ভারত#cite_note-": 8380,
      "৫৬": 8381,
      "▁ou": 8382,
      "▁রা": 8383,
      "▁est": 8384,
      "](./জ": 8385,
      "▁[চ": 8386,
      "▁[সা": 8387,
      "▁[৯৭": 8388,
      "\")।\n": 8389,
      "ndia/": 8390,
      "rely": 8391,
      "report": 8392,
      "till": 8393,
      "erb": 8394,
      "erm": 8395,
      "erman": 8396,
      "20.": 8397,
      "aria": 8398,
      "anada": 8399,
      "ala": 8400,
      "alla": 8401,
      "en:": 8402,
      "ene": 8403,
      "enins": 8404,
      "isi": 8405,
      "isted": 8406,
      "cir": 8407,
      "▁air": 8408,
      "itch": 8409,
      "ারমাণ": 8410,
      "▁often": 8411,
      "ous_": 8412,
      "▁(b)": 8413,
      "idref": 8414,
      "cha": 8415,
      "▁pur": 8416,
      "windia/": 8417,
      "use": 8418,
      "uscript": 8419,
      "atch": 8420,
      "▁17.": 8421,
      "adakh": 8422,
      "ation,": 8423,
      "ations_": 8424,
      "▁festiv": 8425,
      "78)": 8426,
      "▁cul": 8427,
      "▁trade": 8428,
      "hek": 8429,
      "fied": 8430,
      "▁middle": 8431,
      "▁market": 8432,
      "▁maint:": 8433,
      "ilar": 8434,
      "emen": 8435,
      "olar": 8436,
      "▁Modi": 8437,
      "▁Te": 8438,
      "]](./India#cite_note-1": 8439,
      "▁Britannica": 8440,
      "108": 8441,
      "508": 8442,
      "style": 8443,
      "una": 8444,
      "akar": 8445,
      "evi": 8446,
      "▁Europ": 8447,
      "ays": 8448,
      "ayashi": 8449,
      "_Ag": 8450,
      "_Agency": 8451,
      "_Africa": 8452,
      "▁Gana": 8453,
      "▁Greek": 8454,
      "116": 8455,
      "els": 8456,
      "-39": 8457,
      "_in_the": 8458,
      "ালি": 8459,
      "▁religions": 8460,
      "1996-2": 8461,
      "abin": 8462,
      "ablish": 8463,
      ".[[10": 8464,
      "▁31": 8465,
      "▁39": 8466,
      "osys": 8467,
      "a_C": 8468,
      "a_d": 8469,
      "▁উত্তর": 8470,
      "▁Wiley": 8471,
      "▁Indians": 8472,
      "▁তার": 8473,
      "est_B": 8474,
      "utta": 8475,
      "](./Central_": 8476,
      "▁Asia\")": 8477,
      "_\\(শনাক্তকারী": 8478,
      "▁\\(শনাক্তকারী": 8479,
      "▁[China": 8480,
      "▁[Craven": 8481,
      "▁বছ": 8482,
      "ajasthan": 8483,
      "তান্ত্র": 8484,
      "▁আয়": 8485,
      "](./Ministry_of_": 8486,
      "ন্দো": 8487,
      "](https://www.idref": 8488,
      "ians": 8489,
      "therine": 8490,
      "প্রজাতন্ত্র": 8491,
      "▁rise": 8492,
      "▁river": 8493,
      "▁rural": 8494,
      "▁rupee": 8495,
      "▁দেখ": 8496,
      "▁[Pakistan": 8497,
      "_Tamil_Nadu": 8498,
      "%2C5": 8499,
      "issions": 8500,
      "/08/": 8501,
      "ommaraj": 8502,
      "মাই": 8503,
      "▁\"Ge": 8504,
      "neworld": 8505,
      "/countries/": 8506,
      "▁[Delhi": 8507,
      "34238": 8508,
      "_Emirates": 8509,
      "▁79.": 8510,
      "](./Special:BookSources/978-0-521": 8511,
      "ohan": 8512,
      "ohenj": 8513,
      "▁lim": 8514,
      "গুজরা": 8515,
      "arlung": 8516,
      "2014-p": 8517,
      "▁central": 8518,
      "পাঞ্জা": 8519,
      "▁languages\")|": 8520,
      "▁ভাষায়": 8521,
      "india.gov.in/kno": 8522,
      "KulkeRothermund2016": 8523,
      "Dyson2018-2": 8524,
      ":South": 8525,
      "▁ফে": 8526,
      "▁ফুটবল": 8527,
      "▁Shankar": 8528,
      "oorke": 8529,
      "▁plain": 8530,
      "সামরিক": 8531,
      "_War": 8532,
      "ায়ী": 8533,
      "son2014-p": 8534,
      "▁century,": 8535,
      "▁\"টেমপ্লেট:ওয়েব": 8536,
      "▁`{{[বই": 8537,
      "পূর্": 8538,
      "▁even": 8539,
      "ক্রয়": 8540,
      ".fr/0": 8541,
      "▁include": 8542,
      "11934238": 8543,
      "olleges": 8544,
      "▁appro": 8545,
      "▁2008](./India#CITEREF": 8546,
      "-of-india-": 8547,
      "athakali": 8548,
      "শ্চিমবঙ্গ": 8549,
      "ণিপুর": 8550,
      "▁উদ্ধৃতি](./টেমপ্লেট:ওয়েব": 8551,
      "▁সামরিক": 8552,
      "Ludden2014": 8553,
      "2542-5196": 8554,
      "▁cities": 8555,
      "▁education": 8556,
      "▁across": 8557,
      "lectri": 8558,
      "union_territory": 8559,
      "lackb": 8560,
      "▁name:": 8561,
      "▁dispute": 8562,
      "Infosys": 8563,
      "ানুয়ারি": 8564,
      "%E0%A7%87": 8565,
      "▁contribu": 8566,
      "▁served": 8567,
      "_Arab_Emirates": 8568,
      "awaharlal": 8569,
      "inancial": 8570,
      "সংস্কৃত": 8571,
      "লোকসভা": 8572,
      "▁similar": 8573,
      "▁caused": 8574,
      "emographics": 8575,
      "o-daro": 8576,
      "▁\\-": 8577,
      "](./Mughal_Empire": 8578,
      "মহাদেশ": 8579,
      "▁whose": 8580,
      "harmaceutical": 8581,
      "egetar": 8582,
      "Tarlo1996-2": 8583,
      "▁Catherine": 8584,
      "webcitation.org/6174": 8585,
      "▁[↑](./India#cite_ref-1": 8586,
      "ropped": 8587,
      "](./India#cite_ref-vatsyayan-lord_432": 8588,
      "igenous": 8589,
      "beralisation": 8590,
      "-230-34549-2": 8591,
      "Davidson2014-p": 8592,
      "ulosis": 8593,
      "▁[৯৭৮-": 8594,
      "ারমাণবিক": 8595,
      "▁Europe_": 8596,
      "_\\(শনাক্তকারী\\)": 8597,
      "▁[China](./China": 8598,
      "তান্ত্রিক": 8599,
      "](https://www.idref.fr/0": 8600,
      "ommaraju": 8601,
      "ohenjo-daro": 8602,
      "india.gov.in/knowindia/": 8603,
      "11934238p": 8604,
      "▁উদ্ধৃতি](./টেমপ্লেট:ওয়েব_উদ্ধৃতি": 8605,
      "7-1": 8606,
      "Dg": 8607,
      "E_": 8608,
      "Jha": 8609,
      "Pos": 8610,
      "Political_": 8611,
      "[G": 8612,
      "_36": 8613,
      "_term": 8614,
      "bate": 8615,
      "cur": 8616,
      "hav": 8617,
      "halay": 8618,
      "iu": 8619,
      "med.": 8620,
      "rang": 8621,
      "sra": 8622,
      "tool": 8623,
      "uff": 8624,
      "▁X": 8625,
      "▁com": 8626,
      "inated": 8627,
      "20210": 8628,
      "alys": 8629,
      "ouli": 8630,
      "asu": 8631,
      "2013": 8632,
      "▁(in": 8633,
      "▁India\"](https://": 8634,
      "▁prin": 8635,
      "ives": 8636,
      "etwork": 8637,
      "ustice": 8638,
      "▁Age": 8639,
      "](https://pub": 8640,
      "▁118": 8641,
      "urg": 8642,
      "find": 8643,
      "cely": 8644,
      "emi": 8645,
      "▁diversity": 8646,
      "▁writ": 8647,
      "▁1970": 8648,
      "Univers": 8649,
      "113": 8650,
      "eph": 8651,
      "ime": 8652,
      "▁equ": 8653,
      "▁[\"H": 8654,
      "hili": 8655,
      "▁List": 8656,
      "179": 8657,
      "▁Its": 8658,
      "](https://www.wikidata": 8659,
      "alled": 8660,
      "-19-2": 8661,
      ".svg.png)](https://www.wikidata": 8662,
      "eghalay": 8663,
      "39)": 8664,
      "a/OOjs_UI_icon_edit-ltr-progressive": 8665,
      "ramouli": 8666,
      "-report": 8667,
      ".svg/20px-OOjs_UI_icon_edit-ltr-progressive": 8668,
      "AsherTalbot2008),": 8669,
      "-level": 8670,
      "aharasht": 8671,
      "▁Monetary": 8672,
      ".org/wiki/Q": 8673,
      "▁literature": 8674,
      "▁popular": 8675,
      "ncbi.nlm.nih.gov/": 8676,
      "rakash": 8677,
      "thiopia": 8678,
      "med.ncbi.nlm.nih.gov/": 8679,
      "srael": 8680,
      "alysis": 8681,
      "](https://pubmed.ncbi.nlm.nih.gov/": 8682,
      ".svg.png)](https://www.wikidata.org/wiki/Q": 8683,
      "a/OOjs_UI_icon_edit-ltr-progressive.svg/20px-OOjs_UI_icon_edit-ltr-progressive": 8684,
      "aharashtra": 8685,
      "a/OOjs_UI_icon_edit-ltr-progressive.svg/20px-OOjs_UI_icon_edit-ltr-progressive.svg.png)](https://www.wikidata.org/wiki/Q": 8686,
      "&local_": 8687,
      "(సా.శ.": 8688,
      "-W": 8689,
      ".wik": 8690,
      "/we": 8691,
      "/au": 8692,
      "227": 8693,
      "350": 8694,
      "3-3": 8695,
      "430": 8696,
      "8D": 8697,
      ":भारत": 8698,
      "Dec": 8699,
      "E﻿": 8700,
      "KI": 8701,
      "Karanth": 8702,
      "PE": 8703,
      "RA": 8704,
      "[अ": 8705,
      "\\[": 8706,
      "\\]": 8707,
      "_k": 8708,
      "_r": 8709,
      "_त": 8710,
      "_res": 8711,
      "_यु": 8712,
      "_अन": 8713,
      "_జాబితా": 8714,
      "aedia": 8715,
      "bd": 8716,
      "base": 8717,
      "ful": 8718,
      "gration": 8719,
      "k-": 8720,
      "mj": 8721,
      "more": 8722,
      "ps": 8723,
      "pts": 8724,
      "r.": 8725,
      "tom": 8726,
      "yed": 8727,
      "ædia": 8728,
      "ंस": 8729,
      "ंजन": 8730,
      "इटे": 8731,
      "एम": 8732,
      "क\")": 8733,
      "केंद्र": 8734,
      "क्रम": 8735,
      "चार": 8736,
      "टा": 8737,
      "णार्": 8738,
      "धर्": 8739,
      "पन": 8740,
      "यपालिका": 8741,
      "र्य": 8742,
      "रिया": 8743,
      "ल्ड": 8744,
      "शक्ति": 8745,
      "हू": 8746,
      "ाँ": 8747,
      "ाग": 8748,
      "िरा": 8749,
      "िंह": 8750,
      "ीकरण": 8751,
      "ूना": 8752,
      "ेज": 8753,
      "ेरी": 8754,
      "ैली": 8755,
      "ोत्तर": 8756,
      "२६": 8757,
      "ঘল": 8758,
      "জয়": 8759,
      "ফ্র": 8760,
      "যায়ী": 8761,
      "ল\")": 8762,
      "শক্তি": 8763,
      "সূ": 8764,
      "সলা": 8765,
      "াক": 8766,
      "াড়া": 8767,
      "ুঘল": 8768,
      "েন": 8769,
      "ৈন": 8770,
      "০.": 8771,
      "১০": 8772,
      "ఆంధ": 8773,
      "కీ": 8774,
      "డో": 8775,
      "తే": 8776,
      "థి": 8777,
      "నె": 8778,
      "పించ": 8779,
      "ఫై": 8780,
      "బడ్డ": 8781,
      "భర": 8782,
      "మహ": 8783,
      "రంగ": 8784,
      "లయా": 8785,
      "శీ": 8786,
      "షనల్": 8787,
      "స్య": 8788,
      "హర్": 8789,
      "ాం": 8790,
      "ృద్ధి": 8791,
      "ెంగ": 8792,
      "ేర": 8793,
      "–120": 8794,
      "▁y": 8795,
      "▁60": 8796,
      "▁80": 8797,
      "▁থা": 8798,
      "▁దక్షిణ": 8799,
      "▁దా": 8800,
      "▁দ্বীপ": 8801,
      "▁धीरे": 8802,
      "▁నాగరికత": 8803,
      "▁టెక్నాలజీ": 8804,
      "](./व": 8805,
      "](./वि": 8806,
      "](./प्र": 8807,
      "](./ఢిల్లీ": 8808,
      "](./गुजरात": 8809,
      "](./राजस्थान": 8810,
      "▁[ए": 8811,
      "▁[ख": 8812,
      "▁[तमिल": 8813,
      "▁[नेपाल": 8814,
      "▁[ওয়েব্যাক": 8815,
      "▁[International": 8816,
      "▁\"श": 8817,
      "▁\"वि": 8818,
      "▁\"पु": 8819,
      "▁\"का": 8820,
      "▁\"सा": 8821,
      "▁\"विश्व": 8822,
      "▁\"गुजरात": 8823,
      "▁\"राजस्थान": 8824,
      "▁\"नेपाल": 8825,
      "▁\"ওয়েব্যাক": 8826,
      "ार्ष": 8827,
      "▁कह": 8828,
      "▁सश": 8829,
      "▁समा": 8830,
      "▁समान": 8831,
      "▁सल्तनत": 8832,
      "ided": 8833,
      "laim": 8834,
      "▁मंत्र": 8835,
      "्यपालिका": 8836,
      "్రప్రదేశ్": 8837,
      "▁policy": 8838,
      "▁siz": 8839,
      "राइ": 8840,
      "राक": 8841,
      "▁पहा": 8842,
      "ette": 8843,
      "\\),": 8844,
      "▁According": 8845,
      ".org/s": 8846,
      "▁100": 8847,
      "▁126": 8848,
      "ानक": 8849,
      "ानून": 8850,
      "र्भ": 8851,
      "ations/": 8852,
      "](./भारत)": 8853,
      "](./भारत_स": 8854,
      "▁Court": 8855,
      "▁हिल": 8856,
      "▁cultural": 8857,
      "uris": 8858,
      "▁members": 8859,
      "िको": 8860,
      "िकता": 8861,
      "िकेट": 8862,
      "FOOTNOTENational_Informatics_Centre2005": 8863,
      "▁अभी": 8864,
      "▁সহ": 8865,
      "▁সু": 8866,
      "ollin": 8867,
      "▁Machine": 8868,
      "దేశం": 8869,
      "దేశాల": 8870,
      "▁जय": 8871,
      "▁जै": 8872,
      "▁जिन्": 8873,
      "বিদ্য": 8874,
      "links": 8875,
      "linkid=": 8876,
      "▁Barb": 8877,
      "▁পাত": 8878,
      "ेशिया\")": 8879,
      "▁Division": 8880,
      "▁_M": 8881,
      "-23": 8882,
      "stre": 8883,
      "▁बल": 8884,
      "▁ब्रिटिश": 8885,
      "▁बैंक": 8886,
      "▁भारत\")": 8887,
      "ंगल": 8888,
      "ंगीत": 8889,
      "ंगडम": 8890,
      "▁प्रशास": 8891,
      "▁ती": 8892,
      "▁तो": 8893,
      "▁तुल": 8894,
      "▁तीस": 8895,
      "भाष": 8896,
      "▁नगर": 8897,
      "▁से](https://": 8898,
      "లు?action=edit&redlink=1": 8899,
      "రాఠ": 8900,
      "_सु": 8901,
      "_स्": 8902,
      "_सागर": 8903,
      "agore": 8904,
      "স্বাধীনতা": 8905,
      "▁కి": 8906,
      "▁కో": 8907,
      "▁वार्ष": 8908,
      "క్టో": 8909,
      "▁आंद": 8910,
      "▁आधुनिक": 8911,
      "నియా": 8912,
      "▁వర్": 8913,
      "▁వారస": 8914,
      "1991": 8915,
      "▁মান": 8916,
      "▁Journal": 8917,
      "स्लि": 8918,
      "स्चेंज": 8919,
      "▁Food": 8920,
      "ల్వే": 8921,
      "▁गति": 8922,
      "▁సరిహద్దు": 8923,
      "e_Neutral": 8924,
      "▁మన": 8925,
      "▁మూ": 8926,
      "▁మతం": 8927,
      "▁उस": 8928,
      "▁उद्योग": 8929,
      "▁Kum": 8930,
      "166": 8931,
      "ड़िशा": 8932,
      "▁Id": 8933,
      "289": 8934,
      "▁शांति": 8935,
      "ండమా": 8936,
      "_मु": 8937,
      "▁संस्कृत": 8938,
      "](http://books.google.com/books?id=": 8939,
      "]](./भारत#cite_note-Combined": 8940,
      "▁చిన్న": 8941,
      "▁প্রজাতন্ত্র": 8942,
      "▁প্রথম": 8943,
      "ముఖ": 8944,
      "म्प्र": 8945,
      "्याचल": 8946,
      "908": 8947,
      "ी](./न": 8948,
      ")[[13": 8949,
      "త్వం": 8950,
      "▁being": 8951,
      "त्ता": 8952,
      ")।\n": 8953,
      "য়েত": 8954,
      "35.": 8955,
      "ंडल": 8956,
      "–సా.శ.15": 8957,
      "▁(సా.శ.13": 8958,
      "▁(సా.శ.15": 8959,
      "temporary": 8960,
      "▁ప్రతి": 8961,
      "▁ప్రస్తు": 8962,
      "▁ప్రకారం": 8963,
      "▁ప్రముఖ": 8964,
      "▁সংবিধান": 8965,
      "पांड": 8966,
      "▁भाषाएं": 8967,
      "▁\"मुंबई": 8968,
      "▁শি": 8969,
      "efault": 8970,
      "efficient": 8971,
      "కుడు": 8972,
      "ంచిన": 8973,
      "▁দক্ষিণ": 8974,
      "▁[↑](./भारत#cite_ref-Combined": 8975,
      "పూర్": 8976,
      "कार्यपालिका": 8977,
      "%2C_M": 8978,
      "ింది.\n": 8979,
      "ords": 8980,
      "द्वित": 8981,
      "▁any": 8982,
      "566": 8983,
      "वाँ": 8984,
      "▁vers": 8985,
      "▁సాధించ": 8986,
      "▁రో": 8987,
      "▁రంగ": 8988,
      "▁రవాణా": 8989,
      "29)": 8990,
      "ష్టు": 8991,
      "ंदर": 8992,
      "ublications/": 8993,
      "▁पुलिस": 8994,
      "type": 8995,
      ",_కేంద్రపాలిత_ప్రాంత": 8996,
      "34)": 8997,
      "▁प्रदेश](./मध्य": 8998,
      "tate_": 8999,
      "ంతో": 9000,
      "त्न": 9001,
      "त्म": 9002,
      "▁\"कु": 9003,
      "576": 9004,
      "मान्य": 9005,
      "ড়ে": 9006,
      "పాలన": 9007,
      "▁తరువా": 9008,
      "](./कु": 9009,
      "▁[कु": 9010,
      "anced": 9011,
      "िवास": 9012,
      "▁वर्ण": 9013,
      "▁वर्तमान": 9014,
      "ం](./భారతీయ": 9015,
      "সিটি": 9016,
      "](./ब्रिटिश": 9017,
      "గుర్": 9018,
      "నేషనల్": 9019,
      "▁हिमालय": 9020,
      "▁সাহিত্য": 9021,
      "వందే": 9022,
      "▁ప్రాంతం": 9023,
      "गणतंत्र": 9024,
      "▁किया।": 9025,
      "▁రాజ్యం](./": 9026,
      "Increase_Neutral": 9027,
      "▁బహు": 9028,
      "▁బెంగ": 9029,
      "▁গঠ": 9030,
      "▁गया।[[": 9031,
      "▁CITEREFKulkeRothermund2004": 9032,
      "121–12": 9033,
      "▁[আর্কাইভকৃত](https://www.": 9034,
      "आई.": 9035,
      "ాల్లో": 9036,
      "](./उर्दू": 9037,
      "▁\"उर्दू": 9038,
      "▁ফলে": 9039,
      "▁[उर्दू": 9040,
      "▁अधिकार": 9041,
      "तिहासिक": 9042,
      "स्कृत](./संस्कृत": 9043,
      "▁notation": 9044,
      "ন্ধী": 9045,
      "िल्ली](./द": 9046,
      "▁१९८": 9047,
      "वर्ल्ड": 9048,
      "▁मानव": 9049,
      "ম্পানি": 9050,
      "శ్వా": 9051,
      "गुजराती": 9052,
      "रेन्द्र": 9053,
      "ారిటీ": 9054,
      "AsherTalbot200853": 9055,
      "▁अपना": 9056,
      "▁[↑](./भारत#cite_ref-FOOTNOTEStein1998": 9057,
      "గోళ": 9058,
      "▁पूर्वी": 9059,
      "▁সময়": 9060,
      "▁ప్రాంతాలు": 9061,
      "▁2016.\n": 9062,
      "चेरी": 9063,
      "▁[संयुक्त": 9064,
      "▁দেশের": 9065,
      "బడిన": 9066,
      "▁बहुमत": 9067,
      "ड़ीसा": 9068,
      "▁माध्यम": 9069,
      "తున్న": 9070,
      "న్నిక": 9071,
      "চিত্র্য": 9072,
      "onsoon_": 9073,
      "sites/d": 9074,
      "co.uk/": 9075,
      "कल_घ": 9076,
      "మెరి": 9077,
      "▁सुधार": 9078,
      "▁కాలంలో": 9079,
      "राष्ट्रपति\")": 9080,
      "_মেশিন": 9081,
      "শ্রেণী": 9082,
      "राजस्थान](./राजस्थान": 9083,
      "ष्णकट": 9084,
      "ওয়েব্যাক_মেশিন": 9085,
      "िन्धु-गंगा": 9086,
      "সংখ্যান": 9087,
      "▁थी।": 9088,
      "▁হিন্দ": 9089,
      "▁संगीत": 9090,
      "▁संग्राम": 9091,
      "బెంగాల్": 9092,
      "data.worldbank.org/": 9093,
      "▁धरोहर": 9094,
      "▁दृष्ट": 9095,
      "▁Art": 9096,
      "_एवं": 9097,
      "ంపి": 9098,
      "ెలవు": 9099,
      "▁नीति": 9100,
      "](./భారతదేశంలో_": 9101,
      "▁ऑफ": 9102,
      "रेलू_उत्पाद": 9103,
      "amsar": 9104,
      "▁अनुसंधान": 9105,
      "केरल": 9106,
      "▁सूचना-विज्ञान": 9107,
      "▁जीवन": 9108,
      "▁মেশিন\")": 9109,
      "▁মেশিনে](./": 9110,
      "cyclopaedia": 9111,
      "cyclopædia": 9112,
      "bbc.": 9113,
      "▁সম্পর্ক\")\n": 9114,
      "▁local": 9115,
      "हायक": 9116,
      "irectorate": 9117,
      "▁అధికారిక": 9118,
      "ఆర్ధిక": 9119,
      "▁मौसम": 9120,
      "▁పట్టణ": 9121,
      "▁London:": 9122,
      "▁विस्तृत": 9123,
      "▁కాశ్మీరు": 9124,
      "▁క్రీడలు": 9125,
      "▁अभियान": 9126,
      "_सेना": 9127,
      "▁लेकर": 9128,
      "PK:14": 9129,
      "func=": 9130,
      "▁लाख": 9131,
      "▁అయిన": 9132,
      "▁రెండు": 9133,
      "రాష్ట్రాలు,_కేంద్రపాలిత_ప్రాంత": 9134,
      "▁Institu": 9135,
      "orporation": 9136,
      "ట్రో": 9137,
      "ుల్తా": 9138,
      "▁हालाँकि": 9139,
      "▁\\(भारत\\)\")": 9140,
      "ంగ్లీషు": 9141,
      "దినోత్సవం": 9142,
      "▁వ్యాసం:": 9143,
      "s_and_union_territories_of_India": 9144,
      "मूल्य": 9145,
      "▁पहुँच": 9146,
      "ార్లమెంట": 9147,
      "▁2004](./भारत#CITEREFKulkeRothermund2004),": 9148,
      "▁ఏర్ప": 9149,
      "राष्ट्रीय_सूचना-विज्ञान": 9150,
      "hāra": 9151,
      "ernet.in/": 9152,
      "ক্রয়ক্ষমতা": 9153,
      "&local_base": 9154,
      "/auth": 9155,
      "इटेड": 9156,
      "णार्क": 9157,
      "ूनाइटेड": 9158,
      "সলাম": 9159,
      "ఆంధ్రప్రదేశ్": 9160,
      "లయాళ": 9161,
      "▁हिल्स": 9162,
      "▁तुलना": 9163,
      "▁वार्षिक": 9164,
      "स्लिम": 9165,
      "efault/files/": 9166,
      "▁प्रदेश](./मध्य_प्रदेश": 9167,
      "▁[उर्दू](./उर्दू": 9168,
      "िल्ली](./दिल्ली": 9169,
      "sites/default/files/": 9170,
      "कल_घरेलू_उत्पाद": 9171,
      "ष्णकटिबंधीय": 9172,
      "data.worldbank.org/indicator": 9173,
      "▁মেশিনে](./ওয়েব্যাক_মেশিন": 9174,
      "&local_base=": 9175,
      ",_India": 9176,
      "-h": 9177,
      "/)": 9178,
      "09": 9179,
      "178": 9180,
      "324": 9181,
      "6,": 9182,
      "6-": 9183,
      "8%": 9184,
      "9-5": 9185,
      "BRICS": 9186,
      "Bangalore": 9187,
      "Gangetic": 9188,
      "John": 9189,
      "Ku": 9190,
      "Nehru": 9191,
      "Navy": 9192,
      "Park": 9193,
      "Zoro": 9194,
      "_a": 9195,
      "_india": 9196,
      "_2008": 9197,
      "bird": 9198,
      "caste": 9199,
      "eak": 9200,
      "ee_": 9201,
      "gions": 9202,
      "good": 9203,
      "hry": 9204,
      "hats": 9205,
      "ite_": 9206,
      "las": 9207,
      "lue": 9208,
      "mas": 9209,
      "ocal": 9210,
      "po": 9211,
      "ses": 9212,
      "vert": 9213,
      "ypr": 9214,
      "yria": 9215,
      "–19": 9216,
      "–Pakistan": 9217,
      "▁<": 9218,
      "▁times": 9219,
      "▁qu": 9220,
      "▁oth": 9221,
      "▁[History": 9222,
      "▁[Harle": 9223,
      "▁[Indus": 9224,
      "terior": 9225,
      "ina": 9226,
      "ine_": 9227,
      "though": 9228,
      "erce": 9229,
      "ora": 9230,
      "ori": 9231,
      "ara_": 9232,
      "anch": 9233,
      "anies": 9234,
      "isa": 9235,
      "istic": 9236,
      "isak": 9237,
      "ito": 9238,
      "ought": 9239,
      "asar": 9240,
      "asian": 9241,
      "](./Indian": 9242,
      "▁(N": 9243,
      "lec": 9244,
      "1980": 9245,
      "laci": 9246,
      "raq": 9247,
      "▁stud": 9248,
      "▁sultanate": 9249,
      "▁small": 9250,
      "lobe": 9251,
      "riya": 9252,
      "](https://data.bnf.fr/ark:/12148/cb": 9253,
      ".org/w": 9254,
      "▁121": 9255,
      "▁See": 9256,
      "▁Social": 9257,
      "▁Schedule": 9258,
      "istric": 9259,
      "gether": 9260,
      "▁Cynth": 9261,
      "▁Council": 9262,
      "▁family": 9263,
      "_of_N": 9264,
      "▁cap": 9265,
      "▁cond": 9266,
      "▁colleges": 9267,
      "▁tri": 9268,
      "urd": 9269,
      "urasia": 9270,
      "urasian": 9271,
      "▁mark": 9272,
      "▁mountain": 9273,
      "ilt": 9274,
      "lines": 9275,
      "ems": 9276,
      "emor": 9277,
      "▁2016.": 9278,
      "ourbaki": 9279,
      "▁27.": 9280,
      "▁25.": 9281,
      "10-2": 9282,
      "▁historical": 9283,
      "▁\"Special:BookSources/978": 9284,
      "](./Special:BookSources/978": 9285,
      "▁E.": 9286,
      "▁1971": 9287,
      "▁[↑](./India#cite_ref-Combined": 9288,
      "epali": 9289,
      "ubs": 9290,
      "appa": 9291,
      "▁eaten": 9292,
      "▁[\"B": 9293,
      "▁[\"In": 9294,
      "ishes": 9295,
      "▁grad": 9296,
      "iverse": 9297,
      "](./India#CITEREFCraven1997": 9298,
      ".[[28": 9299,
      ".[[35": 9300,
      "▁three": 9301,
      "188": 9302,
      "1857": 9303,
      "▁L.": 9304,
      "▁Organisation": 9305,
      "▁Olymp": 9306,
[...]
