{
  "version": "1.0",
  "truncation": null,
  "padding": null,
  "added_tokens": [
    {
      "id": 0,
      "content": "<unk>",
      "single_word": false,
      "lstrip": false,
      "rstrip": false,
      "normalized": false,
      "special": true
    },
    {
      "id": 1,
      "content": "<pad>",
      "single_word": false,
      "lstrip": false,
      "rstrip": false,
      "normalized": false,
      "special": true
    }
  ],
  "normalizer": {
    "type": "Sequence",
    "normalizers": [
      {
        "type": "NFKC"
      },
      {
        "type": "Replace",
        "pattern": {
          "Regex": "[^\\p{L}\\p{M}\\p{N}]+"
        },
        "content": " "
      }
    ]
  },
  "pre_tokenizer": {
    "type": "Whitespace"
  },
  "post_processor": null,
  "decoder": null,
  "model": {
    "type": "BPE",
    "dropout": null,
    "unk_token": "<unk>",
    "continuing_subword_prefix": null,
    "end_of_word_suffix": null,
    "fuse_unk": false,
    "byte_fallback": false,
    "ignore_merges": false,
    "vocab": {
      "<unk>": 0,
      "<pad>": 1,
      "0": 2,
      "1": 3,
      "2": 4,
      "3": 5,
      "4": 6,
      "5": 7,
      "6": 8,
      "7": 9,
      "8": 10,
      "9": 11,
      "A": 12,
      "B": 13,
      "C": 14,
      "D": 15,
      "E": 16,
      "F": 17,
      "G": 18,
      "H": 19,
      "I": 20,
      "J": 21,
      "K": 22,
      "L": 23,
      "M": 24,
      "N": 25,
      "O": 26,
      "P": 27,
      "Q": 28,
      "R": 29,
      "S": 30,
      "T": 31,
      "U": 32,
      "V": 33,
      "W": 34,
      "X": 35,
      "Y": 36,
      "Z": 37,
      "a": 38,
      "b": 39,
      "c": 40,
      "d": 41,
      "e": 42,
      "f": 43,
      "g": 44,
      "h": 45,
      "i": 46,
      "j": 47,
      "k": 48,
      "l": 49,
      "m": 50,
      "n": 51,
      "o": 52,
      "p": 53,
      "q": 54,
      "r": 55,
      "s": 56,
      "t": 57,
      "u": 58,
      "v": 59,
      "w": 60,
      "x": 61,
      "y": 62,
      "z": 63,
      "Ö": 64,
      "ß": 65,
      "á": 66,
      "â": 67,
      "æ": 68,
      "ç": 69,
      "è": 70,
      "é": 71,
      "í": 72,
      "ñ": 73,
      "ö": 74,
      "ü": 75,
      "ā": 76,
      "ī": 77,
      "İ": 78,
      "Ś": 79,
      "ś": 80,
      "ţ": 81,
      "ū": 82,
      "ș": 83,
      "ə": 84,
      "ɦ": 85,
      "ɪ": 86,
      "ɾ": 87,
      "ʊ": 88,
      "ʼ": 89,
      "ˈ": 90,
      "ː": 91,
      "́": 92,
      "ί": 93,
      "α": 94,
      "δ": 95,
      "θ": 96,
      "ν": 97,
      "ο": 98,
      "π": 99,
      "ς": 100,
      "ό": 101,
      "ँ": 102,
      "ं": 103,
      "ः": 104,
      "अ": 105,
      "आ": 106,
      "इ": 107,
      "ई": 108,
      "उ": 109,
      "ऊ": 110,
      "ऋ": 111,
      "ऍ": 112,
      "ए": 113,
      "ऐ": 114,
      "ऑ": 115,
      "ओ": 116,
      "औ": 117,
      "क": 118,
      "ख": 119,
      "ग": 120,
      "घ": 121,
      "ङ": 122,
      "च": 123,
      "छ": 124,
      "ज": 125,
      "झ": 126,
      "ञ": 127,
      "ट": 128,
      "ठ": 129,
      "ड": 130,
      "ढ": 131,
      "ण": 132,
      "त": 133,
      "थ": 134,
      "द": 135,
      "ध": 136,
      "न": 137,
      "प": 138,
      "फ": 139,
      "ब": 140,
      "भ": 141,
      "म": 142,
      "य": 143,
      "र": 144,
      "ल": 145,
      "ळ": 146,
      "व": 147,
      "श": 148,
      "ष": 149,
      "स": 150,
      "ह": 151,
      "़": 152,
      "ा": 153,
      "ि": 154,
      "ी": 155,
      "ु": 156,
      "ू": 157,
      "ृ": 158,
      "े": 159,
      "ै": 160,
      "ॉ": 161,
      "ॊ": 162,
      "ो": 163,
      "ौ": 164,
      "्": 165,
      "०": 166,
      "१": 167,
      "२": 168,
      "३": 169,
      "४": 170,
      "५": 171,
      "६": 172,
      "७": 173,
      "८": 174,
      "९": 175,
      "ঁ": 176,
      "ং": 177,
      "ঃ": 178,
      "অ": 179,
      "আ": 180,
      "ই": 181,
      "ঈ": 182,
      "উ": 183,
      "ঊ": 184,
      "ঋ": 185,
      "এ": 186,
      "ঐ": 187,
      "ও": 188,
      "ঔ": 189,
      "ক": 190,
      "খ": 191,
      "গ": 192,
      "ঘ": 193,
      "ঙ": 194,
      "চ": 195,
      "ছ": 196,
      "জ": 197,
      "ঝ": 198,
      "ঞ": 199,
      "ট": 200,
      "ঠ": 201,
      "ড": 202,
      "ঢ": 203,
      "ণ": 204,
      "ত": 205,
      "থ": 206,
      "দ": 207,
      "ধ": 208,
      "ন": 209,
      "প": 210,
      "ফ": 211,
      "ব": 212,
      "ভ": 213,
      "ম": 214,
      "য": 215,
      "র": 216,
      "ল": 217,
      "শ": 218,
      "ষ": 219,
      "স": 220,
      "হ": 221,
      "়": 222,
      "া": 223,
      "ি": 224,
      "ী": 225,
      "ু": 226,
      "ূ": 227,
      "ৃ": 228,
      "ে": 229,
      "ৈ": 230,
      "ো": 231,
      "ৌ": 232,
      "্": 233,
      "ৎ": 234,
      "০": 235,
      "১": 236,
      "২": 237,
      "৩": 238,
      "৪": 239,
      "৫": 240,
      "৬": 241,
      "৭": 242,
      "৮": 243,
      "৯": 244,
      "ం": 245,
      "ః": 246,
      "అ": 247,
      "ఆ": 248,
      "ఇ": 249,
      "ఈ": 250,
      "ఉ": 251,
      "ఋ": 252,
      "ఎ": 253,
      "ఏ": 254,
      "ఐ": 255,
      "ఒ": 256,
      "ఓ": 257,
      "ఔ": 258,
      "క": 259,
      "ఖ": 260,
      "గ": 261,
      "ఘ": 262,
      "చ": 263,
      "ఛ": 264,
      "జ": 265,
      "ఞ": 266,
      "ట": 267,
      "ఠ": 268,
      "డ": 269,
      "ఢ": 270,
      "ణ": 271,
      "త": 272,
      "థ": 273,
      "ద": 274,
      "ధ": 275,
      "న": 276,
      "ప": 277,
      "ఫ": 278,
      "బ": 279,
      "భ": 280,
      "మ": 281,
      "య": 282,
      "ర": 283,
      "ల": 284,
      "ళ": 285,
      "వ": 286,
      "శ": 287,
      "ష": 288,
      "స": 289,
      "హ": 290,
      "ా": 291,
      "ి": 292,
      "ీ": 293,
      "ు": 294,
      "ూ": 295,
      "ృ": 296,
      "ె": 297,
      "ే": 298,
      "ై": 299,
      "ొ": 300,
      "ో": 301,
      "ౌ": 302,
      "్": 303,
      "ṅ": 304,
      "ṇ": 305,
      "Ṛ": 306,
      "ṣ": 307,
      "ṭ": 308,
      "Ἰ": 309,
      "nd": 310,
      "ia": 311,
      "te": 312,
      "in": 313,
      "on": 314,
      "ndia": 315,
      "th": 316,
      "re": 317,
      "ti": 318,
      "India": 319,
      "er": 320,
      "or": 321,
      "20": 322,
      "ar": 323,
      "an": 324,
      "al": 325,
      "en": 326,
      "ार": 327,
      "of": 328,
      "es": 329,
      "ed": 330,
      "is": 331,
      "ci": 332,
      "्र": 333,
      "tion": 334,
      "the": 335,
      "om": 336,
      "cite": 337,
      "and": 338,
      "it": 339,
      "भार": 340,
      "भारत": 341,
      "ার": 342,
      "ht": 343,
      "as": 344,
      "ou": 345,
      "ic": 346,
      "tp": 347,
      "201": 348,
      "http": 349,
      "id": 350,
      "le": 351,
      "19": 352,
      "ch": 353,
      "oo": 354,
      "no": 355,
      "OT": 356,
      "के": 357,
      "्य": 358,
      "్ర": 359,
      "ra": 360,
      "্র": 361,
      "la": 362,
      "200": 363,
      "ভার": 364,
      "য়": 365,
      "ভারত": 366,
      "iv": 367,
      "ent": 368,
      "https": 369,
      "रा": 370,
      "ing": 371,
      "ref": 372,
      "at": 373,
      "et": 374,
      "am": 375,
      "org": 376,
      "wi": 377,
      "com": 378,
      "lo": 379,
      "note": 380,
      "मे": 381,
      "us": 382,
      "ార": 383,
      "ad": 384,
      "ri": 385,
      "um": 386,
      "ान": 387,
      "ec": 388,
      "ook": 389,
      "we": 390,
      "ist": 391,
      "ww": 392,
      "र्": 393,
      "ation": 394,
      "स्": 395,
      "10": 396,
      "ki": 397,
      "का": 398,
      "ge": 399,
      "ের": 400,
      "্য": 401,
      "78": 402,
      "ac": 403,
      "li": 404,
      "fi": 405,
      "में": 406,
      "edia": 407,
      "wiki": 408,
      "ur": 409,
      "ons": 410,
      "IS": 411,
      "he": 412,
      "to": 413,
      "क्": 414,
      "ang": 415,
      "ter": 416,
      "BN": 417,
      "ov": 418,
      "ISBN": 419,
      "ాల": 420,
      "या": 421,
      "pg": 422,
      "st": 423,
      "FO": 424,
      "की": 425,
      "NOT": 426,
      "OTNOT": 427,
      "FOOTNOT": 428,
      "FOOTNOTE": 429,
      "Sou": 430,
      "978": 431,
      "web": 432,
      "red": 433,
      "il": 434,
      "్య": 435,
      "enti": 436,
      "ीय": 437,
      "ial": 438,
      "lin": 439,
      "प्र": 440,
      "ce": 441,
      "As": 442,
      "वि": 443,
      "identi": 444,
      "fier": 445,
      "identifier": 446,
      "12": 447,
      "em": 448,
      "భార": 449,
      "భారత": 450,
      "స్": 451,
      "ro": 452,
      "దే": 453,
      "res": 454,
      "ों": 455,
      "up": 456,
      "ate": 457,
      "তি": 458,
      "దేశ": 459,
      "ति": 460,
      "से": 461,
      "ol": 462,
      "ना": 463,
      "ন্": 464,
      "book": 465,
      "ers": 466,
      "न्": 467,
      "ul": 468,
      "है": 469,
      "00": 470,
      "র্": 471,
      "त्र": 472,
      "Indian": 473,
      "tic": 474,
      "సా": 475,
      "বি": 476,
      "edit": 477,
      "क्ष": 478,
      "link": 479,
      "The": 480,
      "arch": 481,
      "ig": 482,
      "11": 483,
      "सं": 484,
      "action": 485,
      "for": 486,
      "ind": 487,
      "books": 488,
      "jpg": 489,
      "redlink": 490,
      "25": 491,
      "న్": 492,
      "राज": 493,
      "ला": 494,
      "ment": 495,
      "umb": 496,
      "ion": 497,
      "ces": 498,
      "सा": 499,
      "ర్": 500,
      "Sp": 501,
      "www": 502,
      "IT": 503,
      "india": 504,
      "In": 505,
      "age": 506,
      "ेश": 507,
      "और": 508,
      "ান": 509,
      "ity": 510,
      "ive": 511,
      "िया": 512,
      "ता": 513,
      "13": 514,
      "ER": 515,
      "23": 516,
      "CIT": 517,
      "EF": 518,
      "op": 519,
      "un": 520,
      "CITER": 521,
      "ly": 522,
      "14": 523,
      "ma": 524,
      "CITEREF": 525,
      "ir": 526,
      "भा": 527,
      "ev": 528,
      "ক্": 529,
      "पु": 530,
      "angu": 531,
      "17": 532,
      "স্": 533,
      "26": 534,
      "ha": 535,
      "pedia": 536,
      "16": 537,
      "15": 538,
      "Un": 539,
      "comm": 540,
      "ecial": 541,
      "18": 542,
      "లు": 543,
      "24": 544,
      "ंग": 545,
      "199": 546,
      "tu": 547,
      "पर": 548,
      "ay": 549,
      "రా": 550,
      "ప్ర": 551,
      "fr": 552,
      "Special": 553,
      "sv": 554,
      "px": 555,
      "ld": 556,
      "ak": 557,
      "media": 558,
      "সা": 559,
      "Asia": 560,
      "wikipedia": 561,
      "svg": 562,
      "ew": 563,
      "ाल": 564,
      "भारतीय": 565,
      "ভারতের": 566,
      "Ch": 567,
      "con": 568,
      "40": 569,
      "cal": 570,
      "load": 571,
      "ag": 572,
      "rces": 573,
      "wikimedia": 574,
      "28": 575,
      "upload": 576,
      "िक": 577,
      "archive": 578,
      "Book": 579,
      "el": 580,
      "ory": 581,
      "প্র": 582,
      "భారతదేశ": 583,
      "thumb": 584,
      "ep": 585,
      "ীয়": 586,
      "లో": 587,
      "commons": 588,
      "ub": 589,
      "ress": 590,
      "Sources": 591,
      "BookSources": 592,
      "nt": 593,
      "by": 594,
      "mp": 595,
      "ने": 596,
      "देश": 597,
      "త్ర": 598,
      "को": 599,
      "त्": 600,
      "িক": 601,
      "राज्य": 602,
      "langu": 603,
      "ry": 604,
      "gov": 605,
      "ern": 606,
      "South": 607,
      "ab": 608,
      "late": 609,
      "न्द": 610,
      "50": 611,
      "দ্": 612,
      "ary": 613,
      "ational": 614,
      "calf": 615,
      "ాలు": 616,
      "রা": 617,
      "రి": 618,
      "Met": 619,
      "క్": 620,
      "pp": 621,
      "rit": 622,
      "বা": 623,
      "od": 624,
      "Metcalf": 625,
      "ত্র": 626,
      "ంద": 627,
      "hi": 628,
      "30": 629,
      "मा": 630,
      "षा": 631,
      "स्त": 632,
      "ष्": 633,
      "ని": 634,
      "सि": 635,
      "हि": 636,
      "29": 637,
      "ivers": 638,
      "ast": 639,
      "orld": 640,
      "ex": 641,
      "21": 642,
      "from": 643,
      "2011": 644,
      "्व": 645,
      "ted": 646,
      "ish": 647,
      "os": 648,
      "ber": 649,
      "ల్": 650,
      "22": 651,
      "सू": 652,
      "ore": 653,
      "াল": 654,
      "goo": 655,
      "ng": 656,
      "ts": 657,
      "সং": 658,
      "భారతదేశం": 659,
      "वा": 660,
      "्रे": 661,
      "gle": 662,
      "ud": 663,
      "भाषा": 664,
      "টি": 665,
      "हा": 666,
      "ంగ": 667,
      "im": 668,
      "ve": 669,
      "ust": 670,
      "iversity": 671,
      "था": 672,
      "Ar": 673,
      "হা": 674,
      "जा": 675,
      "ap": 676,
      "AA": 677,
      "Hind": 678,
      "ची": 679,
      "पा": 680,
      "google": 681,
      "দ্ধ": 682,
      "২০": 683,
      "List": 684,
      "ut": 685,
      "ट्र": 686,
      "be": 687,
      "sh": 688,
      "सम": 689,
      "uc": 690,
      "har": 691,
      "दि": 692,
      "री": 693,
      "language": 694,
      "Com": 695,
      "est": 696,
      "ক্ষ": 697,
      "ड़": 698,
      "ీయ": 699,
      "ount": 700,
      "কা": 701,
      "ము": 702,
      "ens": 703,
      "Ind": 704,
      "ండ": 705,
      "Press": 706,
      "oc": 707,
      "ष्ट्र": 708,
      "27": 709,
      "ৃতি": 710,
      "our": 711,
      "विश": 712,
      "ারি": 713,
      "कर": 714,
      "సి": 715,
      "జ్య": 716,
      "2018": 717,
      "log": 718,
      "University": 719,
      "कि": 720,
      "ভা": 721,
      "क्षे": 722,
      "av": 723,
      "्या": 724,
      "Har": 725,
      "br": 726,
      "नि": 727,
      "og": 728,
      "2006": 729,
      "কে": 730,
      "क्षेत्र": 731,
      "ित": 732,
      "istory": 733,
      "తా": 734,
      "PA": 735,
      "েশ": 736,
      "art": 737,
      "lation": 738,
      "err": 739,
      "lag": 740,
      "ff": 741,
      "ले": 742,
      "నా": 743,
      "వి": 744,
      "me": 745,
      "inal": 746,
      "తి": 747,
      "్ట": 748,
      "with": 749,
      "ort": 750,
      "তা": 751,
      "ज़": 752,
      "33": 753,
      "जन": 754,
      "ली": 755,
      "ys": 756,
      "per": 757,
      "ain": 758,
      "ik": 759,
      "Ste": 760,
      "error": 761,
      "are": 762,
      "बा": 763,
      "త్": 764,
      "2014": 765,
      "ism": 766,
      "und": 767,
      "कार": 768,
      "मि": 769,
      "ong": 770,
      "2007": 771,
      "ती": 772,
      "umm": 773,
      "land": 774,
      "ot": 775,
      "St": 776,
      "ian": 777,
      "tern": 778,
      "2010": 779,
      "cy": 780,
      "ance": 781,
      "90": 782,
      "ear": 783,
      "les": 784,
      "ass": 785,
      "ow": 786,
      "rad": 787,
      "हिन्द": 788,
      "47": 789,
      "য়ে": 790,
      "43": 791,
      "জা": 792,
      "fn": 793,
      "উদ্ধ": 794,
      "కు": 795,
      "htm": 796,
      "উদ্ধৃতি": 797,
      "her": 798,
      "60": 799,
      "png": 800,
      "ical": 801,
      "ন্দ": 802,
      "lig": 803,
      "wh": 804,
      "লে": 805,
      "aj": 806,
      "ans": 807,
      "मु": 808,
      "orig": 809,
      "Flag": 810,
      "ভারতীয়": 811,
      "चि": 812,
      "80": 813,
      "ph": 814,
      "लि": 815,
      "ंड": 816,
      "मी": 817,
      "ture": 818,
      "Stein": 819,
      "ম্": 820,
      "యా": 821,
      "eral": 822,
      "र्व": 823,
      "count": 824,
      "nic": 825,
      "राष्ट्र": 826,
      "ana": 827,
      "Re": 828,
      "temp": 829,
      "ను": 830,
      "se": 831,
      "मन": 832,
      "मान": 833,
      "70": 834,
      "ke": 835,
      "original": 836,
      "45": 837,
      "ther": 838,
      "Arch": 839,
      "িয়": 840,
      "্চ": 841,
      "ence": 842,
      "ates": 843,
      "তারি": 844,
      "ubl": 845,
      "all": 846,
      "शा": 847,
      "titu": 848,
      "তারিখ": 849,
      "Ret": 850,
      "उत्": 851,
      "वर्": 852,
      "తం": 853,
      "ank": 854,
      "cl": 855,
      "istan": 856,
      "pe": 857,
      "ile": 858,
      "ంది": 859,
      "35": 860,
      "ug": 861,
      "ensus": 862,
      "दी": 863,
      "చి": 864,
      "ies": 865,
      "History": 866,
      "ulation": 867,
      "णी": 868,
      "eved": 869,
      "36": 870,
      "हु": 871,
      "ata": 872,
      "हैं": 873,
      "జ్యం": 874,
      "rieved": 875,
      "্যা": 876,
      "Retrieved": 877,
      "ite": 878,
      "emp": 879,
      "oi": 880,
      "सी": 881,
      "प्रदेश": 882,
      "িত": 883,
      "বিশ": 884,
      "46": 885,
      "Econ": 886,
      "National": 887,
      "यु": 888,
      "ষ্": 889,
      "ार्": 890,
      "ct": 891,
      "2009": 892,
      "ernment": 893,
      "Ma": 894,
      "ard": 895,
      "opulation": 896,
      "ived": 897,
      "Econom": 898,
      "तर": 899,
      "జా": 900,
      "పూ": 901,
      "వా": 902,
      "ిక": 903,
      "E0": 904,
      "ल्": 905,
      "ine": 906,
      "్రా": 907,
      "सूची": 908,
      "ll": 909,
      "লা": 910,
      "गर": 911,
      "ummit": 912,
      "ire": 913,
      "भि": 914,
      "ages": 915,
      "थि": 916,
      "नी": 917,
      "ries": 918,
      "New": 919,
      "pd": 920,
      "না": 921,
      "ef": 922,
      "arg": 923,
      "pro": 924,
      "मू": 925,
      "మా": 926,
      "was": 927,
      "cont": 928,
      "মা": 929,
      "अन": 930,
      "पू": 931,
      "মূ": 932,
      "als": 933,
      "par": 934,
      "world": 935,
      "ase": 936,
      "Ro": 937,
      "end": 938,
      "World": 939,
      "gen": 940,
      "आध": 941,
      "म्": 942,
      "భా": 943,
      "ులు": 944,
      "2C": 945,
      "Is": 946,
      "pdf": 947,
      "িল": 948,
      "ord": 949,
      "Cons": 950,
      "ঙ্": 951,
      "ue": 952,
      "Archived": 953,
      "ద్": 954,
      "iss": 955,
      "template": 956,
      "esh": 957,
      "Min": 958,
      "48": 959,
      "man": 960,
      "য্য": 961,
      "196": 962,
      "সাহা": 963,
      "সাহায্য": 964,
      "250": 965,
      "स्थ": 966,
      "Harv": 967,
      "38": 968,
      "ेष": 969,
      "mar": 970,
      "new": 971,
      "77": 972,
      "ंध": 973,
      "द्": 974,
      "বই": 975,
      "artic": 976,
      "मेला": 977,
      "ত্": 978,
      "orth": 979,
      "2004": 980,
      "ते": 981,
      "भी": 982,
      "Asher": 983,
      "ford": 984,
      "ंग्रे": 985,
      "২০০": 986,
      "tics": 987,
      "BA": 988,
      "ট্র": 989,
      "নি": 990,
      "has": 991,
      "ral": 992,
      "হি": 993,
      "49": 994,
      "rou": 995,
      "ভাষ": 996,
      "errors": 997,
      "QBA": 998,
      "अभि": 999,
      "धान": 1000,
      "श्": 1001,
      "श्रे": 1002,
      "पुरा": 1003,
      "QBAJ": 1004,
      "tim": 1005,
      "গ্র": 1006,
      "Temp": 1007,
      "pr": 1008,
      "श्रेणी": 1009,
      "xford": 1010,
      "পর": 1011,
      "En": 1012,
      "fe": 1013,
      "సం": 1014,
      "ition": 1015,
      "ash": 1016,
      "পা": 1017,
      "ৃত": 1018,
      "56": 1019,
      "An": 1020,
      "Sfn": 1021,
      "থা": 1022,
      "প্": 1023,
      "కా": 1024,
      "రు": 1025,
      "ाना": 1026,
      "భారతీయ": 1027,
      "ich": 1028,
      "ingh": 1029,
      "au": 1030,
      "জন": 1031,
      "ines": 1032,
      "টে": 1033,
      "দেশ": 1034,
      "ాం": 1035,
      "्रा": 1036,
      "विशेष": 1037,
      "ai": 1038,
      "AAQBAJ": 1039,
      "Cent": 1040,
      "2008": 1041,
      "Oxford": 1042,
      "सर": 1043,
      "र्म": 1044,
      "ভাষা": 1045,
      "cre": 1046,
      "lop": 1047,
      "जि": 1048,
      "লি": 1049,
      "ভারতে": 1050,
      "cent": 1051,
      "ited": 1052,
      "2019": 1053,
      "html": 1054,
      "39": 1055,
      "মি": 1056,
      "ష్ట": 1057,
      "tive": 1058,
      "ార్": 1059,
      "Hindu": 1060,
      "ib": 1061,
      "ँच": 1062,
      "ंत्र": 1063,
      "కి": 1064,
      "పా": 1065,
      "eng": 1066,
      "క్ష": 1067,
      "udd": 1068,
      "mil": 1069,
      "থে": 1070,
      "ublic": 1071,
      "ties": 1072,
      "कृ": 1073,
      "చరి": 1074,
      "పు": 1075,
      "స్థ": 1076,
      "చరిత్ర": 1077,
      "ction": 1078,
      "IC": 1079,
      "द्व": 1080,
      "డి": 1081,
      "हिन्दी": 1082,
      "tem": 1083,
      "onom": 1084,
      "Sh": 1085,
      "oli": 1086,
      "আই": 1087,
      "ange": 1088,
      "MetcalfMetcalf": 1089,
      "Comm": 1090,
      "ame": 1091,
      "एक": 1092,
      "సామ": 1093,
      "bot": 1094,
      "स्तान": 1095,
      "countries": 1096,
      "गु": 1097,
      "िण": 1098,
      "ोग": 1099,
      "১৯": 1100,
      "యి": 1101,
      "వం": 1102,
      "న్న": 1103,
      "लेख": 1104,
      "titution": 1105,
      "37": 1106,
      "ani": 1107,
      "জাত": 1108,
      "থেকে": 1109,
      "রে": 1110,
      "লী": 1111,
      "Ed": 1112,
      "120": 1113,
      "its": 1114,
      "1998": 1115,
      "जी": 1116,
      "PD": 1117,
      "2012": 1118,
      "min": 1119,
      "na": 1120,
      "কার": 1121,
      "ations": 1122,
      "दक्ष": 1123,
      "উৎ": 1124,
      "েষ": 1125,
      "హి": 1126,
      "मूल": 1127,
      "ta": 1128,
      "ions": 1129,
      "गमन": 1130,
      "टी": 1131,
      "दे": 1132,
      "धर्म": 1133,
      "জ্য": 1134,
      "्रो": 1135,
      "दक्षिण": 1136,
      "2003": 1137,
      "off": 1138,
      "which": 1139,
      "sub": 1140,
      "तथा": 1141,
      "द्य": 1142,
      "पी": 1143,
      "যু": 1144,
      "ది": 1145,
      "పాల": 1146,
      "तिथि": 1147,
      "reg": 1148,
      "out": 1149,
      "Cam": 1150,
      "icial": 1151,
      "Tal": 1152,
      "ंद": 1153,
      "अंग्रे": 1154,
      "टि": 1155,
      "हो": 1156,
      "eve": 1157,
      "Asian": 1158,
      "राष्ट्रीय": 1159,
      "BR": 1160,
      "Th": 1161,
      "गण": 1162,
      "dis": 1163,
      "ele": 1164,
      "रू": 1165,
      "वं": 1166,
      "form": 1167,
      "59": 1168,
      "Del": 1169,
      "erv": 1170,
      "শৈ": 1171,
      "ign": 1172,
      "ঙ্গ": 1173,
      "2016": 1174,
      "PDF": 1175,
      "Singh": 1176,
      "2023": 1177,
      "য়ের": 1178,
      "Ass": 1179,
      "250px": 1180,
      "ష్ట్ర": 1181,
      "సామ్రా": 1182,
      "07": 1183,
      "United": 1184,
      "বে": 1185,
      "শৈলী": 1186,
      "ढ़": 1187,
      "रे": 1188,
      "ोल": 1189,
      "কৃত": 1190,
      "সে": 1191,
      "अभिगमन": 1192,
      "row": 1193,
      "ult": 1194,
      "led": 1195,
      "Talbot": 1196,
      "ya": 1197,
      "स्रो": 1198,
      "ুটি": 1199,
      "టి": 1200,
      "నే": 1201,
      "riti": 1202,
      "पुर": 1203,
      "राज्यों": 1204,
      "বিশেষ": 1205,
      "आधार": 1206,
      "स्रोत": 1207,
      "languages": 1208,
      "Gu": 1209,
      "cons": 1210,
      "BRIC": 1211,
      "Pak": 1212,
      "మి": 1213,
      "अनु": 1214,
      "times": 1215,
      "that": 1216,
      "summit": 1217,
      "আর্": 1218,
      "2005": 1219,
      "amil": 1220,
      "ন্ত্র": 1221,
      "উৎস": 1222,
      "ous": 1223,
      "gh": 1224,
      "मह": 1225,
      "महा": 1226,
      "হের": 1227,
      "ంచ": 1228,
      "्री": 1229,
      "पूर्व": 1230,
      "evelop": 1231,
      "Pakistan": 1232,
      "ach": 1233,
      "ric": 1234,
      "40px": 1235,
      "মূল": 1236,
      "idge": 1237,
      "ost": 1238,
      "pri": 1239,
      "खाना": 1240,
      "पुस्त": 1241,
      "द्ध": 1242,
      "पुस्तक": 1243,
      "de": 1244,
      "85": 1245,
      "ond": 1246,
      "logy": 1247,
      "East": 1248,
      "ty": 1249,
      "oh": 1250,
      "बर": 1251,
      "2024": 1252,
      "aste": 1253,
      "భాష": 1254,
      "ँचा": 1255,
      "87": 1256,
      "Eur": 1257,
      "lia": 1258,
      "territ": 1259,
      "Delhi": 1260,
      "Emp": 1261,
      "कु": 1262,
      "ড়": 1263,
      "সি": 1264,
      "Island": 1265,
      "सरकार": 1266,
      "Gov": 1267,
      "Par": 1268,
      "53": 1269,
      "tical": 1270,
      "BRICS": 1271,
      "raph": 1272,
      "స్త్ర": 1273,
      "Chin": 1274,
      "विश्व": 1275,
      "ষ্ট্র": 1276,
      "বইয়ের": 1277,
      "IN": 1278,
      "ath": 1279,
      "census": 1280,
      "tr": 1281,
      "ember": 1282,
      "81": 1283,
      "File": 1284,
      "Sch": 1285,
      "ডি": 1286,
      "news": 1287,
      "Template": 1288,
      "national": 1289,
      "contin": 1290,
      "qu": 1291,
      "हर": 1292,
      "এস": 1293,
      "বর": 1294,
      "2021": 1295,
      "ার্": 1296,
      "స్తా": 1297,
      "संघ": 1298,
      "రాష్ట్ర": 1299,
      "ত্রুটি": 1300,
      "बाद": 1301,
      "चित्र": 1302,
      "Rep": 1303,
      "2017": 1304,
      "relig": 1305,
      "इस": 1306,
      "ज्": 1307,
      "वी": 1308,
      "లీ": 1309,
      "ारा": 1310,
      "bridge": 1311,
      "पुरालेख": 1312,
      "88": 1313,
      "Langu": 1314,
      "ograph": 1315,
      "ati": 1316,
      "197": 1317,
      "FOOTNOTEStein": 1318,
      "ree": 1319,
      "05": 1320,
      "গু": 1321,
      "পি": 1322,
      "మూ": 1323,
      "साँचा": 1324,
      "ni": 1325,
      "population": 1326,
      "ese": 1327,
      "ome": 1328,
      "econom": 1329,
      "Cambridge": 1330,
      "Hindi": 1331,
      "িয়া": 1332,
      "তারিখে": 1333,
      "GD": 1334,
      "rep": 1335,
      "MetcalfMetcalf2006": 1336,
      "ritish": 1337,
      "ध्य": 1338,
      "ইভ": 1339,
      "र्थ": 1340,
      "संस्": 1341,
      "ाली": 1342,
      "কাইভ": 1343,
      "मिल": 1344,
      "ন্দ্র": 1345,
      "సామ్రాజ్యం": 1346,
      "আর্কাইভ": 1347,
      "Empire": 1348,
      "पुरालेखित": 1349,
      "British": 1350,
      "dom": 1351,
      "ali": 1352,
      "Pro": 1353,
      "আর্কাইভকৃত": 1354,
      "Dys": 1355,
      "Dyson": 1356,
      "ాన": 1357,
      "rav": 1358,
      "దేశ్": 1359,
      "ज़ी": 1360,
      "hal": 1361,
      "ঞ্চ": 1362,
      "over": 1363,
      "জাতীয়": 1364,
      "Dw": 1365,
      "lim": 1366,
      "Indo": 1367,
      "प्": 1368,
      "सार": 1369,
      "সর": 1370,
      "జి": 1371,
      "తీయ": 1372,
      "রাষ্ট্র": 1373,
      "Fr": 1374,
      "100": 1375,
      "ashm": 1376,
      "co": 1377,
      "টেম": 1378,
      "ood": 1379,
      "एश": 1380,
      "बी": 1381,
      "ब्": 1382,
      "यों": 1383,
      "लो": 1384,
      "এন": 1385,
      "గా": 1386,
      "ics": 1387,
      "प्रा": 1388,
      "লেট": 1389,
      "প্লেট": 1390,
      "Government": 1391,
      "টেমপ্লেট": 1392,
      "evelopment": 1393,
      "Beng": 1394,
      "ছে": 1395,
      "ide": 1396,
      "ect": 1397,
      "41": 1398,
      "rig": 1399,
      "107": 1400,
      "तक": 1401,
      "ें": 1402,
      "ধান": 1403,
      "सेना": 1404,
      "odern": 1405,
      "స్తాన్": 1406,
      "Edit": 1407,
      "Raj": 1408,
      "উপ": 1409,
      "alth": 1410,
      "isation": 1411,
      "epend": 1412,
      "Economy": 1413,
      "Off": 1414,
      "दा": 1415,
      "फ़": 1416,
      "मो": 1417,
      "కే": 1418,
      "గు": 1419,
      "డు": 1420,
      "स्थान": 1421,
      "roup": 1422,
      "RC": 1423,
      "Tim": 1424,
      "usic": 1425,
      "67": 1426,
      "hel": 1427,
      "ulture": 1428,
      "সংগ্র": 1429,
      "Sans": 1430,
      "Sansk": 1431,
      "ck": 1432,
      "ब्र": 1433,
      "रु": 1434,
      "ুর": 1435,
      "ంట": 1436,
      "లి": 1437,
      "్రీ": 1438,
      "000": 1439,
      "రాజ": 1440,
      "मुख": 1441,
      "స్త్రం": 1442,
      "continent": 1443,
      "एशिया": 1444,
      "57": 1445,
      "Tamil": 1446,
      "pan": 1447,
      "emb": 1448,
      "pla": 1449,
      "one": 1450,
      "lion": 1451,
      "স্ত": 1452,
      "Constitution": 1453,
      "সংগ্রহের": 1454,
      "Kashm": 1455,
      "alay": 1456,
      "521": 1457,
      "ंदि": 1458,
      "তে": 1459,
      "নী": 1460,
      "ంలో": 1461,
      "డ్": 1462,
      "क्त": 1463,
      "ంగా": 1464,
      "अंग्रेज़ी": 1465,
      "government": 1466,
      "crease": 1467,
      "Sanskrit": 1468,
      "Se": 1469,
      "ury": 1470,
      "স্থা": 1471,
      "িকা": 1472,
      "আইএস": 1473,
      "Pr": 1474,
      "air": 1475,
      "rate": 1476,
      "low": 1477,
      "uring": 1478,
      "Kul": 1479,
      "pu": 1480,
      "पं": 1481,
      "भू": 1482,
      "व्य": 1483,
      "কি": 1484,
      "क्षा": 1485,
      "ope": 1486,
      "రాజ్యం": 1487,
      "భారతదేశంలో": 1488,
      "संस्कृ": 1489,
      "DwAAQBAJ": 1490,
      "Kulke": 1491,
      "mund": 1492,
      "usines": 1493,
      "usiness": 1494,
      "44": 1495,
      "58": 1496,
      "doi": 1497,
      "ork": 1498,
      "ated": 1499,
      "সাম": 1500,
      "thermund": 1501,
      "Rothermund": 1502,
      "Europe": 1503,
      "GDP": 1504,
      "A6": 1505,
      "vi": 1506,
      "अध": 1507,
      "च्": 1508,
      "रो": 1509,
      "वन": 1510,
      "ওয়ে": 1511,
      "తర": 1512,
      "1950": 1513,
      "स्व": 1514,
      "सूच": 1515,
      "किस्तान": 1516,
      "Am": 1517,
      "Prad": 1518,
      "2013": 1519,
      "Pradesh": 1520,
      "ীন": 1521,
      "iver": 1522,
      "class": 1523,
      "sys": 1524,
      "गया": 1525,
      "त्य": 1526,
      "१९": 1527,
      "కో": 1528,
      "ణా": 1529,
      "ధిక": 1530,
      "శ్": 1531,
      "ice": 1532,
      "were": 1533,
      "జాతీయ": 1534,
      "ins": 1535,
      "article": 1536,
      "Bi": 1537,
      "CE": 1538,
      "SAA": 1539,
      "lish": 1540,
      "মে": 1541,
      "শা": 1542,
      "States": 1543,
      "ission": 1544,
      "SAARC": 1545,
      "year": 1546,
      "help": 1547,
      "Doi": 1548,
      "तु": 1549,
      "पश्": 1550,
      "దక్ష": 1551,
      "వ్య": 1552,
      "fir": 1553,
      "matics": 1554,
      "ండి": 1555,
      "ज्ञ": 1556,
      "पश्चि": 1557,
      "Act": 1558,
      "Population": 1559,
      "af": 1560,
      "por": 1561,
      "this": 1562,
      "old": 1563,
      "Co": 1564,
      "ail": 1565,
      "ru": 1566,
      "tal": 1567,
      "নে": 1568,
      "int": 1569,
      "1947": 1570,
      "ন্ত": 1571,
      "China": 1572,
      "Li": 1573,
      "ओं": 1574,
      "किया": 1575,
      "चल": 1576,
      "मै": 1577,
      "रि": 1578,
      "ही": 1579,
      "ంబ": 1580,
      "లా": 1581,
      "2015": 1582,
      "ames": 1583,
      "स्था": 1584,
      "তিক": 1585,
      "ప్రాం": 1586,
      "पाकिस्तान": 1587,
      "ंद्र": 1588,
      "Fish": 1589,
      "ms": 1590,
      "ভূ": 1591,
      "Intern": 1592,
      "PP": 1593,
      "69": 1594,
      "उप": 1595,
      "मंदि": 1596,
      "यू": 1597,
      "ined": 1598,
      "not": 1599,
      "सित": 1600,
      "২০১": 1601,
      "సియా": 1602,
      "उत्तर": 1603,
      "Singh2009": 1604,
      "ওয়েব": 1605,
      "मंदिर": 1606,
      "Dec": 1607,
      "duc": 1608,
      "hind": 1609,
      "ne": 1610,
      "Census": 1611,
      "মান": 1612,
      "্রা": 1613,
      "ats": 1614,
      "র্ব": 1615,
      "ক্ত": 1616,
      "ঞ্চল": 1617,
      "uk": 1618,
      "thor": 1619,
      "Increase": 1620,
      "subcontinent": 1621,
      "42": 1622,
      "gra": 1623,
      "बे": 1624,
      "ीप": 1625,
      "దీ": 1626,
      "పే": 1627,
      "ిల్": 1628,
      "istry": 1629,
      "స్త": 1630,
      "नाम": 1631,
      "ন্ড": 1632,
      "Ministry": 1633,
      "దక్షి": 1634,
      "51": 1635,
      "Eng": 1636,
      "Mar": 1637,
      "AsherTalbot": 1638,
      "অর্": 1639,
      "igh": 1640,
      "region": 1641,
      "Islands": 1642,
      "আইএসবি": 1643,
      "55": 1644,
      "93": 1645,
      "system": 1646,
      "76": 1647,
      "Bang": 1648,
      "Ne": 1649,
      "ख्या": 1650,
      "न्या": 1651,
      "रब": 1652,
      "सब": 1653,
      "सु": 1654,
      "क्ति": 1655,
      "ప్రదేశ్": 1656,
      "द्वीप": 1657,
      "पंजा": 1658,
      "Con": 1659,
      "uch": 1660,
      "ister": 1661,
      "ah": 1662,
      "ধ্য": 1663,
      "ople": 1664,
      "Reg": 1665,
      "ত্ত": 1666,
      "Page": 1667,
      "gy": 1668,
      "89": 1669,
      "Budd": 1670,
      "ण्": 1671,
      "तट": 1672,
      "पाल": 1673,
      "मध्य": 1674,
      "सद": 1675,
      "చే": 1676,
      "ట్": 1677,
      "మత": 1678,
      "साम": 1679,
      "सबसे": 1680,
      "trad": 1681,
      "targ": 1682,
      "uary": 1683,
      "ural": 1684,
      "une": 1685,
      "Economic": 1686,
      "Bengal": 1687,
      "target": 1688,
      "Or": 1689,
      "now": 1690,
      "2001": 1691,
      "aman": 1692,
      "line": 1693,
      "articles": 1694,
      "পরি": 1695,
      "ket": 1696,
      "2022": 1697,
      "ant": 1698,
      "ise": 1699,
      "mb": 1700,
      "बंध": 1701,
      "माल": 1702,
      "वे": 1703,
      "ব্য": 1704,
      "చ్": 1705,
      "దా": 1706,
      "न्न": 1707,
      "uly": 1708,
      "देशों": 1709,
      "রাজ্য": 1710,
      "सम्": 1711,
      "election": 1712,
      "ories": 1713,
      "54": 1714,
      "during": 1715,
      "ss": 1716,
      "ustry": 1717,
      "Central": 1718,
      "liament": 1719,
      "আইএসবিএন": 1720,
      "cies": 1721,
      "life": 1722,
      "Union": 1723,
      "Commission": 1724,
      "Col": 1725,
      "Development": 1726,
      "fore": 1727,
      "शि": 1728,
      "२०": 1729,
      "దస్త్రం": 1730,
      "వే": 1731,
      "केंद्र": 1732,
      "स्ट": 1733,
      "न्द्र": 1734,
      "चीन": 1735,
      "ক্ষা": 1736,
      "কেন্দ্র": 1737,
      "International": 1738,
      "Dem": 1739,
      "bb": 1740,
      "sfn": 1741,
      "lad": 1742,
      "div": 1743,
      "pt": 1744,
      "র্ম": 1745,
      "general": 1746,
      "িল্": 1747,
      "EditPage": 1748,
      "first": 1749,
      "Pe": 1750,
      "Sik": 1751,
      "yn": 1752,
      "rib": 1753,
      "states": 1754,
      "Kashmir": 1755,
      "part": 1756,
      "ure": 1757,
      "war": 1758,
      "आई": 1759,
      "जरा": 1760,
      "तमिल": 1761,
      "यह": 1762,
      "দী": 1763,
      "সম": 1764,
      "ఆర్": 1765,
      "ధ్య": 1766,
      "2025": 1767,
      "ica": 1768,
      "rab": 1769,
      "सागर": 1770,
      "union": 1771,
      "ంద్ర": 1772,
      "ম্বর": 1773,
      "रूप": 1774,
      "ब्रि": 1775,
      "63": 1776,
      "Fore": 1777,
      "Ge": 1778,
      "ities": 1779,
      "music": 1780,
      "Apri": 1781,
      "med": 1782,
      "than": 1783,
      "lear": 1784,
      "state": 1785,
      "ritan": 1786,
      "April": 1787,
      "dance": 1788,
      "po": 1789,
      "2020": 1790,
      "anc": 1791,
      "330": 1792,
      "Bra": 1793,
      "खा": 1794,
      "ैन": 1795,
      "కాల": 1796,
      "త్య": 1797,
      "బె": 1798,
      "साथ": 1799,
      "युक्त": 1800,
      "অর্থ": 1801,
      "Eth": 1802,
      "July": 1803,
      "most": 1804,
      "north": 1805,
      "pos": 1806,
      "ley": 1807,
      "98": 1808,
      "Ex": 1809,
      "দি": 1810,
      "nica": 1811,
      "ritannica": 1812,
      "210": 1813,
      "Fisher": 1814,
      "Cong": 1815,
      "ere": 1816,
      "गा": 1817,
      "जु": 1818,
      "बंग": 1819,
      "অঞ্চল": 1820,
      "এক": 1821,
      "কর": 1822,
      "বী": 1823,
      "ట్ట": 1824,
      "శా": 1825,
      "ైన": 1826,
      "have": 1827,
      "ద్ధ": 1828,
      "ledge": 1829,
      "च्च": 1830,
      "ण्ड": 1831,
      "Congress": 1832,
      "68": 1833,
      "aw": 1834,
      "caste": 1835,
      "tw": 1836,
      "uman": 1837,
      "act": 1838,
      "ild": 1839,
      "brary": 1840,
      "olitical": 1841,
      "right": 1842,
      "108": 1843,
      "128": 1844,
      "118": 1845,
      "ক্তি": 1846,
      "য়েছে": 1847,
      "Official": 1848,
      "Summit": 1849,
      "numb": 1850,
      "ari": 1851,
      "ama": 1852,
      "1994": 1853,
      "uclear": 1854,
      "bi": 1855,
      "pur": 1856,
      "अरब": 1857,
      "णा": 1858,
      "दू": 1859,
      "पे": 1860,
      "বর্": 1861,
      "చె": 1862,
      "జీ": 1863,
      "ప్": 1864,
      "మీ": 1865,
      "మే": 1866,
      "యు": 1867,
      "హా": 1868,
      "anges": 1869,
      "संख्या": 1870,
      "বিশ্": 1871,
      "जिस": 1872,
      "హింద": 1873,
      "अनुसार": 1874,
      "Ag": 1875,
      "bined": 1876,
      "more": 1877,
      "tt": 1878,
      "uss": 1879,
      "ower": 1880,
      "34": 1881,
      "A4": 1882,
      "Mug": 1883,
      "mi": 1884,
      "তাল": 1885,
      "বং": 1886,
      "িত্র": 1887,
      "ারা": 1888,
      "FOOTNOTEMetcalfMetcalf2006": 1889,
      "স্ট": 1890,
      "71": 1891,
      "CO": 1892,
      "ement": 1893,
      "aper": 1894,
      "country": 1895,
      "sch": 1896,
      "कश्": 1897,
      "ज्य": 1898,
      "टन": 1899,
      "तंत्र": 1900,
      "बि": 1901,
      "बहु": 1902,
      "वरी": 1903,
      "ভি": 1904,
      "ంచి": 1905,
      "కూ": 1906,
      "तिहा": 1907,
      "संग": 1908,
      "ंग्": 1909,
      "पर्य": 1910,
      "िकार": 1911,
      "ంగ్": 1912,
      "शास": 1913,
      "పాలి": 1914,
      "Language": 1915,
      "प्त": 1916,
      "कश्मी": 1917,
      "And": 1918,
      "ls": 1919,
      "map": 1920,
      "iron": 1921,
      "KulkeRothermund": 1922,
      "English": 1923,
      "Pal": 1924,
      "bet": 1925,
      "ote": 1926,
      "ution": 1927,
      "ক্র": 1928,
      "জি": 1929,
      "ুন": 1930,
      "eration": 1931,
      "Dyson2018": 1932,
      "argest": 1933,
      "72": 1934,
      "Sep": 1935,
      "had": 1936,
      "एवं": 1937,
      "गो": 1938,
      "गढ़": 1939,
      "शी": 1940,
      "অন": 1941,
      "রি": 1942,
      "కృ": 1943,
      "తో": 1944,
      "బ్": 1945,
      "ann": 1946,
      "काल": 1947,
      "ack": 1948,
      "ాల్": 1949,
      "প্রা": 1950,
      "ortal": 1951,
      "ज्ञान": 1952,
      "तिहास": 1953,
      "01": 1954,
      "Al": 1955,
      "iff": 1956,
      "sha": 1957,
      "ince": 1958,
      "ound": 1959,
      "99": 1960,
      "For": 1961,
      "ho": 1962,
      "ual": 1963,
      "মু": 1964,
      "Chand": 1965,
      "Combined": 1966,
      "also": 1967,
      "tember": 1968,
      "96": 1969,
      "cat": 1970,
      "sc": 1971,
      "viron": 1972,
      "cient": 1973,
      "vironment": 1974,
      "Arab": 1975,
      "gan": 1976,
      "history": 1977,
      "टे": 1978,
      "नगर": 1979,
      "কো": 1980,
      "జన": 1981,
      "ten": 1982,
      "ন্ধ": 1983,
      "akh": 1984,
      "दिल्": 1985,
      "Compan": 1986,
      "ड़ा": 1987,
      "తంత్ర": 1988,
      "्राज्य": 1989,
      "territories": 1990,
      "Republic": 1991,
      "religion": 1992,
      "लोक": 1993,
      "साम्राज्य": 1994,
      "दिल्ली": 1995,
      "31": 1996,
      "Rout": 1997,
      "estern": 1998,
      "cience": 1999,
      "2000": 2000,
      "ace": 2001,
      "ayan": 2002,
      "Routledge": 2003,
      "করে": 2004,
      "পূ": 2005,
      "মাল": 2006,
      "সমূ": 2007,
      "20px": 2008,
      "ocial": 2009,
      "Times": 2010,
      "September": 2011,
      "into": 2012,
      "author": 2013,
      "European": 2014,
      "330px": 2015,
      "bn": 2016,
      "sou": 2017,
      "एं": 2018,
      "डी": 2019,
      "दान": 2020,
      "लु": 2021,
      "वै": 2022,
      "िका": 2023,
      "গণ": 2024,
      "পৃ": 2025,
      "মহা": 2026,
      "মধ্য": 2027,
      "పంచ": 2028,
      "బి": 2029,
      "మధ్య": 2030,
      "వు": 2031,
      "శం": 2032,
      "ాన్": 2033,
      "CITEREFStein": 2034,
      "माण": 2035,
      "ublish": 2036,
      "नीति": 2037,
      "गुजरा": 2038,
      "కేంద్ర": 2039,
      "ప్రాంత": 2040,
      "ిల్లీ": 2041,
      "దక్షిణ": 2042,
      "न्याया": 2043,
      "তালিকা": 2044,
      "पर्यटन": 2045,
      "Pres": 2046,
      "War": 2047,
      "largest": 2048,
      "oth": 2049,
      "uis": 2050,
      "their": 2051,
      "industry": 2052,
      "Centre": 2053,
      "75": 2054,
      "fl": 2055,
      "gory": 2056,
      "ting": 2057,
      "এবং": 2058,
      "সম্": 2059,
      "time": 2060,
      "ategory": 2061,
      "Indus": 2062,
      "FOOTNOTEStein2010": 2063,
      "ision": 2064,
      "shit": 2065,
      "ikshit": 2066,
      "Oc": 2067,
      "app": 2068,
      "hy": 2069,
      "val": 2070,
      "इंड": 2071,
      "क्र": 2072,
      "कर्": 2073,
      "घा": 2074,
      "मंत्र": 2075,
      "మొ": 2076,
      "ors": 2077,
      "chno": 2078,
      "ారి": 2079,
      "ారు": 2080,
      "tober": 2081,
      "लाई": 2082,
      "बांग्": 2083,
      "Environment": 2084,
      "সরকার": 2085,
      "Mughal": 2086,
      "शासन": 2087,
      "October": 2088,
      "बांग्ला": 2089,
      "Bh": 2090,
      "River": 2091,
      "Vi": 2092,
      "jab": 2093,
      "sp": 2094,
      "spe": 2095,
      "idd": 2096,
      "racy": 2097,
      "exp": 2098,
      "79": 2099,
      "97": 2100,
      "Wik": 2101,
      "imp": 2102,
      "men": 2103,
      "rd": 2104,
      "ran": 2105,
      "স্থ": 2106,
      "ffair": 2107,
      "official": 2108,
      "স্তান": 2109,
      "ffairs": 2110,
      "Aug": 2111,
      "Ram": 2112,
      "ges": 2113,
      "ob": 2114,
      "century": 2115,
      "He": 2116,
      "Publish": 2117,
      "ater": 2118,
      "ban": 2119,
      "pib": 2120,
      "धी": 2121,
      "सभा": 2122,
      "ধর্ম": 2123,
      "োল": 2124,
      "కొ": 2125,
      "దు": 2126,
      "ధాన": 2127,
      "మ్": 2128,
      "వర్": 2129,
      "ష్": 2130,
      "change": 2131,
      "केन्द्र": 2132,
      "ween": 2133,
      "विज्ञान": 2134,
      "ंगा": 2135,
      "्वर": 2136,
      "Relig": 2137,
      "वर्ष": 2138,
      "सूचना": 2139,
      "শাস": 2140,
      "Buddh": 2141,
      "2F": 2142,
      "All": 2143,
      "Bank": 2144,
      "Jan": 2145,
      "Kar": 2146,
      "Ludd": 2147,
      "March": 2148,
      "Plate": 2149,
      "here": 2150,
      "২০০৭": 2151,
      "गणराज्य": 2152,
      "Ludden": 2153,
      "94": 2154,
      "Man": 2155,
      "Mal": 2156,
      "if": 2157,
      "andhi": 2158,
      "ident": 2159,
      "berg": 2160,
      "Hinduism": 2161,
      "after": 2162,
      "group": 2163,
      "असम": 2164,
      "एस": 2165,
      "जय": 2166,
      "थी": 2167,
      "২১": 2168,
      "ంధ": 2169,
      "ఆసియా": 2170,
      "క్రీ": 2171,
      "ఖ్య": 2172,
      "ఢిల్లీ": 2173,
      "ర్య": 2174,
      "্রি": 2175,
      "नेमा": 2176,
      "सिनेमा": 2177,
      "harma": 2178,
      "cyc": 2179,
      "उत्त": 2180,
      "పాకి": 2181,
      "వంశం": 2182,
      "द्योग": 2183,
      "टिश": 2184,
      "महारा": 2185,
      "మూస": 2186,
      "వ్యవ": 2187,
      "ब्रिटिश": 2188,
      "जुलाई": 2189,
      "महाराष्ट्र": 2190,
      "52": 2191,
      "86": 2192,
      "Bhar": 2193,
      "Joh": 2194,
      "Pun": 2195,
      "oon": 2196,
      "ren": 2197,
      "amp": 2198,
      "August": 2199,
      "Af": 2200,
      "Affairs": 2201,
      "bal": 2202,
      "def": 2203,
      "jec": 2204,
      "ofindia": 2205,
      "1997": 2206,
      "Increase2": 2207,
      "ladesh": 2208,
      "বিশ্ব": 2209,
      "08": 2210,
      "500": 2211,
      "Sri": 2212,
      "mu": 2213,
      "son": 2214,
      "lead": 2215,
      "ument": 2216,
      "120px": 2217,
      "tradition": 2218,
      "Commissioner": 2219,
      "Ad": 2220,
      "Br": 2221,
      "cod": 2222,
      "rish": 2223,
      "चे": 2224,
      "जो": 2225,
      "बई": 2226,
      "बो": 2227,
      "मार्": 2228,
      "ঞ্": 2229,
      "বৈ": 2230,
      "ৈতিক": 2231,
      "తు": 2232,
      "మె": 2233,
      "ara": 2234,
      "adu": 2235,
      "त्व": 2236,
      "जाति": 2237,
      "been": 2238,
      "php": 2239,
      "शासित": 2240,
      "গুলি": 2241,
      "व्यव": 2242,
      "संस्कृत": 2243,
      "Aust": 2244,
      "Category": 2245,
      "Mon": 2246,
      "Modern": 2247,
      "sur": 2248,
      "wart": 2249,
      "zberg": 2250,
      "ones": 2251,
      "lite": 2252,
      "umbai": 2253,
      "Schwart": 2254,
      "Schwartzberg": 2255,
      "119": 2256,
      "84": 2257,
      "91": 2258,
      "IA": 2259,
      "ID": 2260,
      "Tr": 2261,
      "ology": 2262,
      "বস্থা": 2263,
      "োগ": 2264,
      "asia": 2265,
      "হাস": 2266,
      "censusindia": 2267,
      "embly": 2268,
      "74": 2269,
      "Gen": 2270,
      "June": 2271,
      "Sec": 2272,
      "data": 2273,
      "ver": 2274,
      "AsherTalbot2008": 2275,
      "83": 2276,
      "Afr": 2277,
      "JP": 2278,
      "grow": 2279,
      "ंप": 2280,
      "अप": 2281,
      "इतिहास": 2282,
      "बै": 2283,
      "श्री": 2284,
      "ून": 2285,
      "হয়": 2286,
      "ఉత్": 2287,
      "టు": 2288,
      "టె": 2289,
      "tent": 2290,
      "ering": 2291,
      "omen": 2292,
      "icy": 2293,
      "ingdom": 2294,
      "top": 2295,
      "प्रधान": 2296,
      "विका": 2297,
      "বিজ": 2298,
      "ప్రధాన": 2299,
      "समय": 2300,
      "ड़ी": 2301,
      "अन्य": 2302,
      "gency": 2303,
      "సంస్": 2304,
      "raven": 2305,
      "పాలిత": 2306,
      "between": 2307,
      "కేంద్రపాలిత": 2308,
      "06": 2309,
      "Dikshit": 2310,
      "but": 2311,
      "doc": 2312,
      "ks": 2313,
      "sup": 2314,
      "106": 2315,
      "logo": 2316,
      "904": 2317,
      "years": 2318,
      "03": 2319,
      "Mad": 2320,
      "PM": 2321,
      "ানা": 2322,
      "able": 2323,
      "chnology": 2324,
      "Punjab": 2325,
      "Craven": 2326,
      "Nadu": 2327,
      "Ved": 2328,
      "eser": 2329,
      "lam": 2330,
      "123": 2331,
      "ucation": 2332,
      "Harle": 2333,
      "Guj": 2334,
      "iddle": 2335,
      "Dav": 2336,
      "Fund": 2337,
      "TR": 2338,
      "bec": 2339,
      "can": 2340,
      "lang": 2341,
      "pol": 2342,
      "ंक": 2343,
      "अन्": 2344,
      "दिया": 2345,
      "पार्": 2346,
      "मल": 2347,
      "शक्ति": 2348,
      "िकी": 2349,
      "উত্ত": 2350,
      "గో": 2351,
      "డా": 2352,
      "బ్ర": 2353,
      "సు": 2354,
      "विधान": 2355,
      "তিহাস": 2356,
      "ular": 2357,
      "ext": 2358,
      "निर्": 2359,
      "people": 2360,
      "হিন্দ": 2361,
      "वंश": 2362,
      "territory": 2363,
      "मुख्य": 2364,
      "स्वतंत्र": 2365,
      "पश्चिम": 2366,
      "Library": 2367,
      "कश्मीर": 2368,
      "व्यवस्था": 2369,
      "day": 2370,
      "ters": 2371,
      "ird": 2372,
      "irect": 2373,
      "projec": 2374,
      "south": 2375,
      "Nat": 2376,
      "oci": 2377,
      "চীন": 2378,
      "শি": 2379,
      "arh": 2380,
      "economic": 2381,
      "ee": 2382,
      "know": 2383,
      "ess": 2384,
      "121": 2385,
      "Encyc": 2386,
      "David": 2387,
      "get": 2388,
      "mer": 2389,
      "कल": 2390,
      "दर": 2391,
      "दो": 2392,
      "लग": 2393,
      "िय": 2394,
      "টার": 2395,
      "గణ": 2396,
      "తే": 2397,
      "వర": 2398,
      "సభ": 2399,
      "tex": 2400,
      "FOOTNOTESingh2009": 2401,
      "भाग": 2402,
      "రాజ్య": 2403,
      "ప్రపంచ": 2404,
      "সংস্": 2405,
      "जनसंख्या": 2406,
      "तीस": 2407,
      "erala": 2408,
      "produc": 2409,
      "হিনী": 2410,
      "రాష్ట్రాలు": 2411,
      "FOOTNOTEStein1998": 2412,
      "report": 2413,
      "पंजाब": 2414,
      "మతము": 2415,
      "Sikh": 2416,
      "ప్రాంతాలు": 2417,
      "వ్యవస్థ": 2418,
      "विकास": 2419,
      "65": 2420,
      "Ganges": 2421,
      "Gandhi": 2422,
      "May": 2423,
      "ura": 2424,
      "icon": 2425,
      "ovement": 2426,
      "str": 2427,
      "logue": 2428,
      "Temple": 2429,
      "Assembly": 2430,
      "two": 2431,
      "It": 2432,
      "Lank": 2433,
      "Sharma": 2434,
      "det": 2435,
      "ft": 2436,
      "ইতিহাস": 2437,
      "ark": 2438,
      "সমূহ": 2439,
      "detail": 2440,
      "Data": 2441,
      "West": 2442,
      "ca": 2443,
      "tig": 2444,
      "arb": 2445,
      "ourt": 2446,
      "Bangladesh": 2447,
      "Jain": 2448,
      "Mus": 2449,
      "Mumbai": 2450,
      "Nations": 2451,
      "hat": 2452,
      "jan": 2453,
      "other": 2454,
      "yan": 2455,
      "इन": 2456,
      "एँ": 2457,
      "जल": 2458,
      "टक": 2459,
      "লো": 2460,
      "గం": 2461,
      "గి": 2462,
      "పె": 2463,
      "లం": 2464,
      "ारी": 2465,
      "ool": 2466,
      "nologue": 2467,
      "files": 2468,
      "stat": 2469,
      "प्रति": 2470,
      "115": 2471,
      "संयुक्त": 2472,
      "संविधान": 2473,
      "indiatimes": 2474,
      "ेश्वर": 2475,
      "ालय": 2476,
      "প্রধান": 2477,
      "త్రి": 2478,
      "ক্ষি": 2479,
      "News": 2480,
      "limate": 2481,
      "Brah": 2482,
      "बंगाल": 2483,
      "Company": 2484,
      "Africa": 2485,
      "Gujar": 2486,
      "উত্তর": 2487,
      "317": 2488,
      "Ac": 2489,
      "North": 2490,
      "Utt": 2491,
      "col": 2492,
      "lar": 2493,
      "ton": 2494,
      "iation": 2495,
      "oral": 2496,
      "them": 2497,
      "andard": 2498,
      "formatics": 2499,
      "Informatics": 2500,
      "classical": 2501,
      "Uttar": 2502,
      "Taj": 2503,
      "cap": 2504,
      "dr": 2505,
      "ইউ": 2506,
      "দা": 2507,
      "incl": 2508,
      "দ্বী": 2509,
      "বাহিনী": 2510,
      "Hindust": 2511,
      "peri": 2512,
      "২০০৮": 2513,
      "দ্বীপ": 2514,
      "32": 2515,
      "95": 2516,
      "BCE": 2517,
      "Oj": 2518,
      "Russ": 2519,
      "UN": 2520,
      "mon": 2521,
      "modern": 2522,
      "sec": 2523,
      "relation": 2524,
      "lobal": 2525,
      "122": 2526,
      "266": 2527,
      "peration": 2528,
      "Science": 2529,
      "Val": 2530,
      "business": 2531,
      "depend": 2532,
      "how": 2533,
      "ये": 2534,
      "रक्षा": 2535,
      "চ্চ": 2536,
      "నల్": 2537,
      "బడి": 2538,
      "మార్": 2539,
      "రై": 2540,
      "1960": 2541,
      "used": 2542,
      "্যান": 2543,
      "नाथ": 2544,
      "135": 2545,
      "148": 2546,
      "বাং": 2547,
      "সংখ": 2548,
      "देव": 2549,
      "ব্যবস্থা": 2550,
      "బెంగ": 2551,
      "సంస్కృ": 2552,
      "ক্ষিণ": 2553,
      "Count": 2554,
      "Mani": 2555,
      "eth": 2556,
      "ven": 2557,
      "ade": 2558,
      "term": 2559,
      "ight": 2560,
      "230": 2561,
      "area": 2562,
      "prov": 2563,
      "December": 2564,
      "Fisher2018": 2565,
      "John": 2566,
      "includ": 2567,
      "De": 2568,
      "Public": 2569,
      "ious": 2570,
      "ned": 2571,
      "serv": 2572,
      "work": 2573,
      "এই": 2574,
      "এশ": 2575,
      "পু": 2576,
      "সঙ্গ": 2577,
      "্ঞ": 2578,
      "2002": 2579,
      "1996": 2580,
      "olitics": 2581,
      "relations": 2582,
      "az": 2583,
      "dec": 2584,
      "ling": 2585,
      "Ele": 2586,
      "II": 2587,
      "चु": 2588,
      "दरा": 2589,
      "पति": 2590,
      "वार्": 2591,
      "सैन": 2592,
      "কৃতি": 2593,
      "গর": 2594,
      "শিল্": 2595,
      "తమి": 2596,
      "పం": 2597,
      "పతి": 2598,
      "rec": 2599,
      "oun": 2600,
      "olk": 2601,
      "র্ক": 2602,
      "116": 2603,
      "న్ని": 2604,
      "న్నా": 2605,
      "162": 2606,
      "odi": 2607,
      "वायु": 2608,
      "जाता": 2609,
      "ক্ষণ": 2610,
      "कार्य": 2611,
      "నుండి": 2612,
      "पूर्वी": 2613,
      "मैदान": 2614,
      "mbol": 2615,
      "Bharat": 2616,
      "स्वतंत्रता": 2617,
      "শিল্প": 2618,
      "తమిళ": 2619,
      "Dev": 2620,
      "Mic": 2621,
      "Wol": 2622,
      "va": 2623,
      "203": 2624,
      "theast": 2625,
      "253": 2626,
      "pert": 2627,
      "Report": 2628,
      "Languages": 2629,
      "ographic": 2630,
      "Austral": 2631,
      "Valley": 2632,
      "Wolpert": 2633,
      "Kerala": 2634,
      "Nep": 2635,
      "bas": 2636,
      "iz": 2637,
      "nat": 2638,
      "চিত্র": 2639,
      "টা": 2640,
      "বল": 2641,
      "encies": 2642,
      "1970": 2643,
      "FOOTNOTEB": 2644,
      "ross": 2645,
      "ন্ন": 2646,
      "cess": 2647,
      "1990": 2648,
      "Chr": 2649,
      "who": 2650,
      "Robb": 2651,
      "মিটার": 2652,
      "Ter": 2653,
      "eds": 2654,
      "come": 2655,
      "istor": 2656,
      "127": 2657,
      "State": 2658,
      "key": 2659,
      "January": 2660,
      "General": 2661,
      "02": 2662,
      "219": 2663,
      "64": 2664,
      "CN": 2665,
      "IM": 2666,
      "Me": 2667,
      "Nuclear": 2668,
      "Political": 2669,
      "Sa": 2670,
      "oor": 2671,
      "ola": 2672,
      "ple": 2673,
      "rup": 2674,
      "tri": 2675,
      "अग": 2676,
      "अम": 2677,
      "अर्थ": 2678,
      "आर्थ": 2679,
      "उद्य": 2680,
      "गंगा": 2681,
      "णि": 2682,
      "पो": 2683,
      "पर्व": 2684,
      "অক্": 2685,
      "খা": 2686,
      "అధిక": 2687,
      "ద్ర": 2688,
      "పి": 2689,
      "పార": 2690,
      "ఫ్": 2691,
      "మం": 2692,
      "ada": 2693,
      "संसद": 2694,
      "క్కు": 2695,
      "ड़े": 2696,
      "্যান্ড": 2697,
      "মাণ": 2698,
      "mill": 2699,
      "summits": 2700,
      "वीं": 2701,
      "अधिक": 2702,
      "একটি": 2703,
      "హిందూ": 2704,
      "Andaman": 2705,
      "न्यायाल": 2706,
      "मंत्री": 2707,
      "Publishing": 2708,
      "పాకిస్తాన్": 2709,
      "Russia": 2710,
      "বাংলা": 2711,
      "న్నాయి": 2712,
      "आर्थिक": 2713,
      "उद्यान": 2714,
      "page": 2715,
      "ofile": 2716,
      "asp": 2717,
      "sts": 2718,
      "124": 2719,
      "126": 2720,
      "under": 2721,
      "million": 2722,
      "Assam": 2723,
      "period": 2724,
      "britannica": 2725,
      "cur": 2726,
      "sar": 2727,
      "ংশ": 2728,
      "tes": 2729,
      "ised": 2730,
      "ove": 2731,
      "Inte": 2732,
      "কাশ": 2733,
      "articleshow": 2734,
      "langoff": 2735,
      "্ঞান": 2736,
      "110": 2737,
      "BC": 2738,
      "Cl": 2739,
      "Caste": 2740,
      "Tur": 2741,
      "Wi": 2742,
      "back": 2743,
      "read": 2744,
      "tionary": 2745,
      "thematics": 2746,
      "onsoon": 2747,
      "113": 2748,
      "index": 2749,
      "ose": 2750,
      "many": 2751,
      "number": 2752,
      "JPG": 2753,
      "became": 2754,
      "Jam": 2755,
      "bu": 2756,
      "cb": 2757,
      "cri": 2758,
      "pl": 2759,
      "wal": 2760,
      "ंति": 2761,
      "डु": 2762,
      "सो": 2763,
      "দক্ষিণ": 2764,
      "নৈতিক": 2765,
      "পশ": 2766,
      "পতি": 2767,
      "বৃ": 2768,
      "শ্র": 2769,
      "ఆఫ్": 2770,
      "కార": 2771,
      "క్య": 2772,
      "నాలు": 2773,
      "భూ": 2774,
      "య్య": 2775,
      "రే": 2776,
      "ale": 2777,
      "wealth": 2778,
      "దేశాల": 2779,
      "नाव": 2780,
      "राजस्थान": 2781,
      "राजनीति": 2782,
      "ियाँ": 2783,
      "माज": 2784,
      "पाद": 2785,
      "दिसम्": 2786,
      "ourn": 2787,
      "क्षेत्रों": 2788,
      "েশি": 2789,
      "उत्पाद": 2790,
      "दीव": 2791,
      "हुई": 2792,
      "নির্": 2793,
      "प्राचीन": 2794,
      "অর্থনৈতিক": 2795,
      "সম্প": 2796,
      "Lanka": 2797,
      "415": 2798,
      "bank": 2799,
      "cms": 2800,
      "go": 2801,
      "nam": 2802,
      "later": 2803,
      "132": 2804,
      "economy": 2805,
      "projection": 2806,
      "7C": 2807,
      "Rev": 2808,
      "yy": 2809,
      "গা": 2810,
      "যা": 2811,
      "ীল": 2812,
      "োর্": 2813,
      "edu": 2814,
      "aspx": 2815,
      "ough": 2816,
      "rac": 2817,
      "স্বা": 2818,
      "432": 2819,
      "ector": 2820,
      "Fe": 2821,
      "Iran": 2822,
      "Nov": 2823,
      "Pol": 2824,
      "Qu": 2825,
      "power": 2826,
      "ont": 2827,
      "onwealth": 2828,
      "adi": 2829,
      "cean": 2830,
      "aka": 2831,
      "logical": 2832,
      "Parliament": 2833,
      "play": 2834,
      "President": 2835,
      "Health": 2836,
      "92": 2837,
      "Rese": 2838,
      "Trad": 2839,
      "bil": 2840,
      "bod": 2841,
      "ymbol": 2842,
      "ंबई": 2843,
      "ईसा": 2844,
      "उर्": 2845,
      "बढ़": 2846,
      "योग": 2847,
      "रवरी": 2848,
      "सफ": 2849,
      "ोड़": 2850,
      "অব": 2851,
      "ইন": 2852,
      "এর": 2853,
      "চল": 2854,
      "দে": 2855,
      "ভে": 2856,
      "যোগ": 2857,
      "হয়েছে": 2858,
      "ఒరి": 2859,
      "చూ": 2860,
      "ణం": 2861,
      "ధీ": 2862,
      "మైన": 2863,
      "యం": 2864,
      "వీ": 2865,
      "వులు": 2866,
      "సంగ": 2867,
      "హార": 2868,
      "eric": 2869,
      "itation": 2870,
      "astern": 2871,
      "add": 2872,
      "admin": 2873,
      "ाने": 2874,
      "स्त्र": 2875,
      "नाग": 2876,
      "117": 2877,
      "राजवंश": 2878,
      "निर": 2879,
      "నాగ": 2880,
      "लिए": 2881,
      "राष्ट्रपति": 2882,
      "हुआ": 2883,
      "युद्ध": 2884,
      "स्थल": 2885,
      "కాశ్": 2886,
      "যুক্ত": 2887,
      "रेल": 2888,
      "সেম্বর": 2889,
      "महासागर": 2890,
      "ডিসেম্বর": 2891,
      "Prov": 2892,
      "भूमि": 2893,
      "संस्कृति": 2894,
      "शिक्षा": 2895,
      "द्योगिकी": 2896,
      "न्यायालय": 2897,
      "সম্পর্ক": 2898,
      "Research": 2899,
      "उर्दू": 2900,
      "కాశ్మీ": 2901,
      "300": 2902,
      "Civ": 2903,
      "Portal": 2904,
      "Row": 2905,
      "Sub": 2906,
      "iri": 2907,
      "ok": 2908,
      "ria": 2909,
      "tle": 2910,
      "202": 2911,
      "ances": 2912,
      "left": 2913,
      "rain": 2914,
      "loy": 2915,
      "231": 2916,
      "rates": 2917,
      "view": 2918,
      "rule": 2919,
      "gram": 2920,
      "known": 2921,
      "Civil": 2922,
      "Hi": 2923,
      "Pl": 2924,
      "yle": 2925,
      "পাল": 2926,
      "মার": 2927,
      "িম": 2928,
      "য়া": 2929,
      "FOOTNOTEKulkeRothermund": 2930,
      "সালে": 2931,
      "্যাক": 2932,
      "ports": 2933,
      "groups": 2934,
      "EO": 2935,
      "Home": 2936,
      "WEO": 2937,
      "han": 2938,
      "such": 2939,
      "ouse": 2940,
      "129": 2941,
      "ternal": 2942,
      "parliament": 2943,
      "northern": 2944,
      "Cur": 2945,
      "Climate": 2946,
      "Pers": 2947,
      "San": 2948,
      "hru": 2949,
      "since": 2950,
      "west": 2951,
      "ंस": 2952,
      "जम्": 2953,
      "जून": 2954,
      "पार": 2955,
      "बल": 2956,
      "भो": 2957,
      "लं": 2958,
      "शु": 2959,
      "हार": 2960,
      "বন": 2961,
      "মেশি": 2962,
      "ఉప": 2963,
      "క్ర": 2964,
      "ణి": 2965,
      "తె": 2966,
      "రో": 2967,
      "లే": 2968,
      "ైనా": 2969,
      "teen": 2970,
      "arna": 2971,
      "city": 2972,
      "omin": 2973,
      "itary": 2974,
      "ration": 2975,
      "use": 2976,
      "FOOTNOTEAsherTalbot2008": 2977,
      "प्रे": 2978,
      "संबंध": 2979,
      "Ins": 2980,
      "ेशिया": 2981,
      "पुरी": 2982,
      "परि": 2983,
      "परमाण": 2984,
      "ष्ण": 2985,
      "imf": 2986,
      "Indones": 2987,
      "ండ్": 2988,
      "जनगण": 2989,
      "జాబి": 2990,
      "पूर्": 2991,
      "Minister": 2992,
      "ंधी": 2993,
      "dispu": 2994,
      "ोलन": 2995,
      "्रीका": 2996,
      "trans": 2997,
      "নীতি": 2998,
      "সাম্রা": 2999,
      "पश्चिमी": 3000,
      "यूनि": 3001,
      "ওয়েব্যাক": 3002,
      "Nehru": 3003,
      "ganisation": 3004,
      "পূর্ব": 3005,
      "उत्तरा": 3006,
      "मार्च": 3007,
      "प्रधानमंत्री": 3008,
      "IMF": 3009,
      "दिसम्बर": 3010,
      "जम्मू": 3011,
      "परमाणु": 3012,
      "Indonesia": 3013,
      "जनगणना": 3014,
      "সাম্রাজ্য": 3015,
      "216": 3016,
      "Gold": 3017,
      "Human": 3018,
      "dyn": 3019,
      "jor": 3020,
      "site": 3021,
      "tation": 3022,
      "chin": 3023,
      "105": 3024,
      "Spear": 3025,
      "major": 3026,
      "CITEREFMetcalfMetcalf2006": 3027,
      "Him": 3028,
      "Main": 3029,
      "ণী": 3030,
      "প্য": 3031,
      "ব্রি": 3032,
      "মন": 3033,
      "মো": 3034,
      "মন্ত্র": 3035,
      "১১": 3036,
      "omas": 3037,
      "idata": 3038,
      "leg": 3039,
      "ety": 3040,
      "103": 3041,
      "বাদ": 3042,
      "avy": 3043,
      "bruary": 3044,
      "কারী": 3045,
      "করণ": 3046,
      "ারামিটার": 3047,
      "uistic": 3048,
      "বিজ্ঞান": 3049,
      "February": 3050,
      "Himalay": 3051,
      "প্যারামিটার": 3052,
      "York": 3053,
      "cture": 3054,
      "iev": 3055,
      "yayan": 3056,
      "ndra": 3057,
      "isions": 3058,
      "itz": 3059,
      "ooperation": 3060,
      "umar": 3061,
      "ilg": 3062,
      "138": 3063,
      "hip": 3064,
      "ainting": 3065,
      "80904": 3066,
      "itecture": 3067,
      "orthographic": 3068,
      "ultan": 3069,
      "ricket": 3070,
      "From": 3071,
      "atsyayan": 3072,
      "Organisation": 3073,
      "Craven1997": 3074,
      "details": 3075,
      "Gujarat": 3076,
      "213": 3077,
      "Fl": 3078,
      "des": 3079,
      "gl": 3080,
      "ii": 3081,
      "kar": 3082,
      "खंड": 3083,
      "टा": 3084,
      "दश": 3085,
      "दर्": 3086,
      "नव": 3087,
      "पह": 3088,
      "बन": 3089,
      "बौ": 3090,
      "बना": 3091,
      "मरा": 3092,
      "रल": 3093,
      "र्य": 3094,
      "सर्व": 3095,
      "िर": 3096,
      "ैंड": 3097,
      "অজ": 3098,
      "আর": 3099,
      "আন্দ": 3100,
      "করা": 3101,
      "ত্য": 3102,
      "সভা": 3103,
      "েস": 3104,
      "০০": 3105,
      "జనా": 3106,
      "పరి": 3107,
      "బా": 3108,
      "మహా": 3109,
      "వె": 3110,
      "వచ్": 3111,
      "्यता": 3112,
      "रान": 3113,
      "స్వా": 3114,
      "त्रि": 3115,
      "సాం": 3116,
      "ানি": 3117,
      "CITEREFSingh2009": 3118,
      "িকে": 3119,
      "भाषाओं": 3120,
      "पात": 3121,
      "ండు": 3122,
      "हिन्दू": 3123,
      "मुंबई": 3124,
      "मानव": 3125,
      "ंग्रेस": 3126,
      "द्वारा": 3127,
      "ultural": 3128,
      "భాషలు": 3129,
      "athak": 3130,
      "इसके": 3131,
      "फ़रवरी": 3132,
      "రాజవంశం": 3133,
      "हीं": 3134,
      "ভূমি": 3135,
      "CITEREFStein1998": 3136,
      "गुजरात": 3137,
      "पर्वत": 3138,
      "পশ্চ": 3139,
      "ournal": 3140,
      "बौद्ध": 3141,
      "At": 3142,
      "Med": 3143,
      "SCO": 3144,
      "rar": 3145,
      "ris": 3146,
      "ves": 3147,
      "rature": 3148,
      "law": 3149,
      "istrar": 3150,
      "upta": 3151,
      "140": 3152,
      "Constitu": 3153,
      "Registrar": 3154,
      "Religion": 3155,
      "Ear": 3156,
      "Go": 3157,
      "Te": 3158,
      "culture": 3159,
      "lord": 3160,
      "non": 3161,
      "ncl": 3162,
      "name": 3163,
      "painting": 3164,
      "social": 3165,
      "vil": 3166,
      "vatsyayan": 3167,
      "আগ": 3168,
      "ণি": 3169,
      "তার": 3170,
      "পুর": 3171,
      "ফোর্": 3172,
      "সদ": 3173,
      "ুট": 3174,
      "citation": 3175,
      "ita": 3176,
      "among": 3177,
      "265": 3178,
      "Chines": 3179,
      "নাম": 3180,
      "১৯৯": 3181,
      "1971": 3182,
      "Force": 3183,
      "শাসিত": 3184,
      "November": 3185,
      "nclm": 3186,
      "Chinese": 3187,
      "Nar": 3188,
      "diff": 3189,
      "my": 3190,
      "2026": 3191,
      "amb": 3192,
      "125": 3193,
      "ankar": 3194,
      "Minor": 3195,
      "ervation": 3196,
      "Wiki": 3197,
      "AC": 3198,
      "Ary": 3199,
      "Be": 3200,
      "Law": 3201,
      "Malay": 3202,
      "Modi": 3203,
      "UI": 3204,
      "gress": 3205,
      "lm": 3206,
      "long": 3207,
      "pres": 3208,
      "tro": 3209,
      "way": 3210,
      "अफ": 3211,
      "कटि": 3212,
      "खण्ड": 3213,
      "गोल": 3214,
      "डिया": 3215,
      "दृ": 3216,
      "मौ": 3217,
      "वेश": 3218,
      "शता": 3219,
      "ौद्योगिकी": 3220,
      "ধীন": 3221,
      "বহ": 3222,
      "হল": 3223,
      "১৭": 3224,
      "ఇండ": 3225,
      "ఉంది": 3226,
      "దం": 3227,
      "ధి": 3228,
      "నగ": 3229,
      "నై": 3230,
      "పో": 3231,
      "ini": 3232,
      "tis": 3233,
      "ould": 3234,
      "20160": 3235,
      "url": 3236,
      "क्कि": 3237,
      "प्रमुख": 3238,
      "प्रौद्योगिकी": 3239,
      "దేశం": 3240,
      "नाडु": 3241,
      "1999": 3242,
      "ప్రా": 3243,
      "నికి": 3244,
      "सिक्कि": 3245,
      "हिमाल": 3246,
      "సింధ": 3247,
      "যুদ্ধ": 3248,
      "अंग्रेजी": 3249,
      "ब्दी": 3250,
      "पालिका": 3251,
      "ఆర్ధిక": 3252,
      "status": 3253,
      "अगस्त": 3254,
      "సంగీ": 3255,
      "జాబితా": 3256,
      "జనాభా": 3257,
      "Constituent": 3258,
      "शताब्दी": 3259,
      "सिक्किम": 3260,
      "Business": 3261,
      "Court": 3262,
      "Cooperation": 3263,
      "Fin": 3264,
      "Games": 3265,
      "US": 3266,
      "fic": 3267,
      "gre": 3268,
      "ved": 3269,
      "ergy": 3270,
      "alore": 3271,
      "enn": 3272,
      "ict": 3273,
      "even": 3274,
      "181": 3275,
      "osp": 3276,
      "round": 3277,
      "Bangalore": 3278,
      "Buddhism": 3279,
      "Rowland": 3280,
      "61": 3281,
      "Dic": 3282,
      "Fir": 3283,
      "Gre": 3284,
      "Le": 3285,
      "Myan": 3286,
      "Ocean": 3287,
      "Pla": 3288,
      "his": 3289,
      "net": 3290,
      "ures": 3291,
      "ধিক": 3292,
      "নদী": 3293,
      "পে": 3294,
      "শন": 3295,
      "সু": 3296,
      "বিদ": 3297,
      "111": 3298,
      "160": 3299,
      "166": 3300,
      "2011census": 3301,
      "Commonwealth": 3302,
      "Foreign": 3303,
      "Ethnologue": 3304,
      "Jammu": 3305,
      "IMFWEO": 3306,
      "অজানা": 3307,
      "পশ্চিম": 3308,
      "Myanmar": 3309,
      "BBC": 3310,
      "set": 3311,
      "vers": 3312,
      "wood": 3313,
      "total": 3314,
      "ung": 3315,
      "141": 3316,
      "MetcalfMetcalf2012": 3317,
      "posed": 3318,
      "ociety": 3319,
      "Territ": 3320,
      "Bal": 3321,
      "Kingdom": 3322,
      "Lak": 3323,
      "Moh": 3324,
      "Tel": 3325,
      "Western": 3326,
      "fes": 3327,
      "jo": 3328,
      "ker": 3329,
      "some": 3330,
      "tree": 3331,
      "अव": 3332,
      "अप्र": 3333,
      "अल्": 3334,
      "कन्न": 3335,
      "धा": 3336,
      "बार": 3337,
      "मणि": 3338,
      "लों": 3339,
      "हन": 3340,
      "ृत्य": 3341,
      "ैल": 3342,
      "१८": 3343,
      "দু": 3344,
      "মী": 3345,
      "ীত": 3346,
      "ఉన్న": 3347,
      "ఉన్నాయి": 3348,
      "చు": 3349,
      "చల్": 3350,
      "చైనా": 3351,
      "నీ": 3352,
      "భి": 3353,
      "మతం": 3354,
      "యన్": 3355,
      "యాలు": 3356,
      "రీ": 3357,
      "శ్రీ": 3358,
      "షు": 3359,
      "ాయి": 3360,
      "reme": 3361,
      "anth": 3362,
      "estim": 3363,
      "iving": 3364,
      "etra": 3365,
      "र्ड": 3366,
      "109": 3367,
      "ర్వ": 3368,
      "143": 3369,
      "main": 3370,
      "প্রতি": 3371,
      "প্রজাত": 3372,
      "हिमा": 3373,
      "वादी": 3374,
      "utra": 3375,
      "ముంబ": 3376,
      "సిన": 3377,
      "్టీ": 3378,
      "িয়ান": 3379,
      "आधिकार": 3380,
      "तेलु": 3381,
      "পাত": 3382,
      "నేష": 3383,
      "రాష్ట్రపతి": 3384,
      "జినల్": 3385,
      "स्थाप": 3386,
      "पंजाबी": 3387,
      "२००": 3388,
      "२०१": 3389,
      "गांधी": 3390,
      "Schwartzberg2023": 3391,
      "ఉత్తర": 3392,
      "DikshitSchwartzberg2023": 3393,
      "पार्टी": 3394,
      "తేదీ": 3395,
      "large": 3396,
      "బడింది": 3397,
      "సంస్కృతి": 3398,
      "चुनाव": 3399,
      "वार्ता": 3400,
      "పార్టీ": 3401,
      "ఒరిజినల్": 3402,
      "मराठ": 3403,
      "প্রজাতন্ত্র": 3404,
      "आधिकारिक": 3405,
      "545": 3406,
      "AS": 3407,
      "Cor": 3408,
      "IU": 3409,
      "Pur": 3410,
      "dra": 3411,
      "movement": 3412,
      "sign": 3413,
      "western": 3414,
      "tition": 3415,
      "they": 3416,
      "anda": 3417,
      "147": 3418,
      "242": 3419,
      "asty": 3420,
      "udi": 3421,
      "1965": 3422,
      "constitution": 3423,
      "dives": 3424,
      "Maldives": 3425,
      "code": 3426,
      "Nepal": 3427,
      "dynasty": 3428,
      "IUCN": 3429,
      "Group": 3430,
      "Journal": 3431,
      "Lite": 3432,
      "ave": 3433,
      "pre": 3434,
      "ব্যা": 3435,
      "ret": 3436,
      "alli": 3437,
      "alog": 3438,
      "20140": 3439,
      "inger": 3440,
      "etary": 3441,
      "সাল": 3442,
      "প্রযু": 3443,
      "বাহ": 3444,
      "early": 3445,
      "ghan": 3446,
      "ependence": 3447,
      "কিস্তান": 3448,
      "Allchin": 3449,
      "Afghan": 3450,
      "ঞ্জ": 3451,
      "growth": 3452,
      "document": 3453,
      "Christ": 3454,
      "gressive": 3455,
      "2nd": 3456,
      "400": 3457,
      "By": 3458,
      "Ling": 3459,
      "Pan": 3460,
      "Red": 3461,
      "Tot": 3462,
      "Urd": 3463,
      "b0": 3464,
      "direct": 3465,
      "found": 3466,
      "high": 3467,
      "pa": 3468,
      "paper": 3469,
      "sector": 3470,
      "technology": 3471,
      "there": 3472,
      "wik": 3473,
      "11162": 3474,
      "force": 3475,
      "243": 3476,
      "2905": 3477,
      "ineering": 3478,
      "minister": 3479,
      "formation": 3480,
      "074": 3481,
      "882905": 3482,
      "traditional": 3483,
      "Muslim": 3484,
      "billion": 3485,
      "Goa": 3486,
      "Territory": 3487,
      "Urdu": 3488,
      "B0": 3489,
      "Britannica": 3490,
      "EX": 3491,
      "Krish": 3492,
      "Per": 3493,
      "ball": 3494,
      "river": 3495,
      "उच्च": 3496,
      "एन": 3497,
      "छत्": 3498,
      "निक": 3499,
      "पि": 3500,
      "रण": 3501,
      "हरी": 3502,
      "ूह": 3503,
      "জুন": 3504,
      "గాం": 3505,
      "జ్": 3506,
      "జమ్": 3507,
      "తూ": 3508,
      "నె": 3509,
      "పశ్": 3510,
      "వరి": 3511,
      "tice": 3512,
      "local": 3513,
      "र्ट": 3514,
      "urton": 3515,
      "road": 3516,
      "దేశాలు": 3517,
      "तिक": 3518,
      "नाटक": 3519,
      "न्ध": 3520,
      "हैदरा": 3521,
      "বিধান": 3522,
      "130": 3523,
      "রাজ": 3524,
      "রাজন": 3525,
      "বায়": 3526,
      "నిస్తాన్": 3527,
      "ల్ల": 3528,
      "समूह": 3529,
      "ource": 3530,
      "करने": 3531,
      "నులు": 3532,
      "वर्ग": 3533,
      "हुए": 3534,
      "सीमा": 3535,
      "युग": 3536,
      "ద్ద": 3537,
      "1962": 3538,
      "స్థాన్": 3539,
      "నేపాల": 3540,
      "तुल": 3541,
      "PPP": 3542,
      "పేజీ": 3543,
      "কেন্দ্রশাসিত": 3544,
      "पेक्ष": 3545,
      "इंडिया": 3546,
      "कर्नाटक": 3547,
      "View": 3548,
      "श्रीलं": 3549,
      "బ్రి": 3550,
      "dependencies": 3551,
      "Australia": 3552,
      "istorical": 3553,
      "అధికార": 3554,
      "বাংলাদেশ": 3555,
      "చూసిన": 3556,
      "निरपेक्ष": 3557,
      "छत्तीस": 3558,
      "జమ్మూ": 3559,
      "పశ్చి": 3560,
      "పేజీని": 3561,
      "श्रीलंका": 3562,
      "Culture": 3563,
      "NC": 3564,
      "Part": 3565,
      "Tw": 3566,
      "global": 3567,
      "well": 3568,
      "156": 3569,
      "lated": 3570,
      "own": 3571,
      "1967": 3572,
      "ingham": 3573,
      "catalog": 3574,
      "Afghanistan": 3575,
      "3TR": 3576,
      "Can": 3577,
      "Dal": 3578,
      "Middle": 3579,
      "NG": 3580,
      "Paper": 3581,
      "llig": 3582,
      "ser": 3583,
      "tDwAAQBAJ": 3584,
      "কাল": 3585,
      "দের": 3586,
      "নিক": 3587,
      "রিক": 3588,
      "রক্ষণ": 3589,
      "শক্তি": 3590,
      "aries": 3591,
      "্রু": 3592,
      "istra": 3593,
      "overe": 3594,
      "olution": 3595,
      "267": 3596,
      "ago": 3597,
      "els": 3598,
      "astr": 3599,
      "apan": 3600,
      "ains": 3601,
      "order": 3602,
      "creas": 3603,
      "রাষ্ট্রপতি": 3604,
      "Office": 3605,
      "talk": 3606,
      "২০১১": 3607,
      "Democ": 3608,
      "People": 3609,
      "মধ্যে": 3610,
      "Jainism": 3611,
      "teenth": 3612,
      "Spear1990": 3613,
      "Dictionary": 3614,
      "3TRtDwAAQBAJ": 3615,
      "lligence": 3616,
      "1200": 3617,
      "Day": 3618,
      "Dep": 3619,
      "Mac": 3620,
      "On": 3621,
      "PR": 3622,
      "via": 3623,
      "20210": 3624,
      "104": 3625,
      "CITEREFKulkeRothermund": 3626,
      "agar": 3627,
      "arendra": 3628,
      "60px": 3629,
      "riculture": 3630,
      "Country": 3631,
      "First": 3632,
      "Bib": 3633,
      "Citation": 3634,
      "Fed": 3635,
      "OL": 3636,
      "Social": 3637,
      "Wild": 3638,
      "cro": 3639,
      "kh": 3640,
      "miss": 3641,
      "ंट": 3642,
      "ंह": 3643,
      "इस्": 3644,
      "ऊर्": 3645,
      "ओड़": 3646,
      "कई": 3647,
      "गान": 3648,
      "घरेल": 3649,
      "झार": 3650,
      "तन": 3651,
      "नौ": 3652,
      "नहीं": 3653,
      "नृत्य": 3654,
      "पान": 3655,
      "मशी": 3656,
      "यार": 3657,
      "रक्ष": 3658,
      "रहा": 3659,
      "लोग": 3660,
      "शहर": 3661,
      "सकल": 3662,
      "हरा": 3663,
      "ीत": 3664,
      "ोच्च": 3665,
      "ইন্ড": 3666,
      "এফ": 3667,
      "কের": 3668,
      "নিয়": 3669,
      "মার্": 3670,
      "১৩": 3671,
      "ఒక": 3672,
      "కై": 3673,
      "కర్": 3674,
      "నో": 3675,
      "నది": 3676,
      "రె": 3677,
      "సము": 3678,
      "సమా": 3679,
      "హ్": 3680,
      "ుత్": 3681,
      "ারণ": 3682,
      "केरल": 3683,
      "254": 3684,
      "external": 3685,
      "दिव": 3686,
      "ক্ষম": 3687,
      "करण": 3688,
      "करोड़": 3689,
      "जनजाति": 3690,
      "worldbank": 3691,
      "পাকিস্তান": 3692,
      "द्वार": 3693,
      "যুগ": 3694,
      "कुल": 3695,
      "qual": 3696,
      "प्राप्त": 3697,
      "Bihar": 3698,
      "దీవులు": 3699,
      "పేరు": 3700,
      "तमिलनाडु": 3701,
      "కూడా": 3702,
      "অনু": 3703,
      "క్రీడ": 3704,
      "Hindustan": 3705,
      "second": 3706,
      "प्रेस": 3707,
      "सर्वोच्च": 3708,
      "আগস্ট": 3709,
      "ఇండో": 3710,
      "हिमालय": 3711,
      "প্রযুক্তি": 3712,
      "Wildlife": 3713,
      "इस्ला": 3714,
      "ऊर्जा": 3715,
      "घरेलू": 3716,
      "मशीन": 3717,
      "62": 3718,
      "Ak": 3719,
      "Agency": 3720,
      "Dance": 3721,
      "Egy": 3722,
      "Sind": 3723,
      "both": 3724,
      "dia": 3725,
      "fact": 3726,
      "garh": 3727,
      "hya": 3728,
      "house": 3729,
      "ning": 3730,
      "political": 3731,
      "wide": 3732,
      "women": 3733,
      "zation": 3734,
      "ancy": 3735,
      "lem": 3736,
      "chi": 3737,
      "lack": 3738,
      "los": 3739,
      "lopedia": 3740,
      "lies": 3741,
      "urban": 3742,
      "ulti": 3743,
      "179": 3744,
      "222": 3745,
      "Islam": 3746,
      "regions": 3747,
      "Park": 3748,
      "ography": 3749,
      "Americ": 3750,
      "flu": 3751,
      "Plateau": 3752,
      "Vedic": 3753,
      "Egypt": 3754,
      "73": 3755,
      "Lond": 3756,
      "Politics": 3757,
      "ae": 3758,
      "gani": 3759,
      "lid": 3760,
      "ইং": 3761,
      "কল": 3762,
      "চে": 3763,
      "চার": 3764,
      "তী": 3765,
      "পার": 3766,
      "রয়েছে": 3767,
      "োবর": 3768,
      "১২": 3769,
      "rent": 3770,
      "oot": 3771,
      "ists": 3772,
      "ISO": 3773,
      "12148": 3774,
      "003": 3775,
      "136": 3776,
      "139": 3777,
      "170": 3778,
      "কাপ": 3779,
      "ষ্ট": 3780,
      "রেজি": 3781,
      "Assoc": 3782,
      "Prote": 3783,
      "Organi": 3784,
      "bnf": 3785,
      "Karnat": 3786,
      "হিন্দু": 3787,
      "Publications": 3788,
      "glance": 3789,
      "Krishna": 3790,
      "London": 3791,
      "Karnataka": 3792,
      "CS": 3793,
      "Mang": 3794,
      "Mil": 3795,
      "Non": 3796,
      "Sab": 3797,
      "fun": 3798,
      "ie": 3799,
      "nuclear": 3800,
      "araj": 3801,
      "tions": 3802,
      "rim": 3803,
      "1991": 3804,
      "artment": 3805,
      "Standard": 3806,
      "search": 3807,
      "progressive": 3808,
      "forest": 3809,
      "capita": 3810,
      "Trade": 3811,
      "Aryan": 3812,
      "CS1": 3813,
      "82": 3814,
      "Japan": 3815,
      "Kathak": 3816,
      "NA": 3817,
      "Nic": 3818,
      "QAAQBAJ": 3819,
      "Res": 3820,
      "Tib": 3821,
      "Var": 3822,
      "ba": 3823,
      "bed": 3824,
      "ful": 3825,
      "hum": 3826,
      "ological": 3827,
      "press": 3828,
      "ईरान": 3829,
      "ओर": 3830,
      "कम": 3831,
      "कॉ": 3832,
      "कंप": 3833,
      "चार": 3834,
      "चंड": 3835,
      "जैन": 3836,
      "डि": 3837,
      "तीय": 3838,
      "दु": 3839,
      "मत": 3840,
      "मार": 3841,
      "मन्द": 3842,
      "यर": 3843,
      "समाज": 3844,
      "পর্ব": 3845,
      "ব্": 3846,
      "শনা": 3847,
      "১০": 3848,
      "కత": 3849,
      "కళ": 3850,
      "టక": 3851,
      "మన": 3852,
      "మై": 3853,
      "రం": 3854,
      "వార": 3855,
      "సై": 3856,
      "increas": 3857,
      "though": 3858,
      "erry": 3859,
      "ison": 3860,
      "स्वा": 3861,
      "78074": 3862,
      "FOOTNOTEHarle": 3863,
      "FOOTNOTESpear1990": 3864,
      "్యం": 3865,
      "్యా": 3866,
      "emale": 3867,
      "స్ట": 3868,
      "न्ह": 3869,
      "संस्थान": 3870,
      "सां": 3871,
      "साल": 3872,
      "lywood": 3873,
      "142": 3874,
      "163": 3875,
      "1992": 3876,
      "Chola": 3877,
      "राज्यक्षेत्र": 3878,
      "न्दा": 3879,
      "రియా": 3880,
      "स्तर": 3881,
      "सिटी": 3882,
      "सिंह": 3883,
      "सून": 3884,
      "वाद": 3885,
      "began": 3886,
      "ক্ষে": 3887,
      "ভাগ": 3888,
      "েশন": 3889,
      "कारण": 3890,
      "मानसून": 3891,
      "वर्सिटी": 3892,
      "contro": 3893,
      "ঙ্ক": 3894,
      "भीम": 3895,
      "Ancient": 3896,
      "milk": 3897,
      "Education": 3898,
      "होता": 3899,
      "महाद्वीप": 3900,
      "prime": 3901,
      "Program": 3902,
      "बीच": 3903,
      "সামরিক": 3904,
      "viol": 3905,
      "ক্তকারী": 3906,
      "वेबै": 3907,
      "చెయ్య": 3908,
      "जिसमें": 3909,
      "बिहार": 3910,
      "गोआ": 3911,
      "shared": 3912,
      "CITEREFStein2010": 3913,
      "गुजराती": 3914,
      "isional": 3915,
      "গুলির": 3916,
      "esert": 3917,
      "मलया": 3918,
      "గణతంత్ర": 3919,
      "లంక": 3920,
      "सैन्य": 3921,
      "rupee": 3922,
      "अर्थव्यवस्था": 3923,
      "మంత్రి": 3924,
      "Intelligence": 3925,
      "স্বাধীন": 3926,
      "यूनिवर्सिटी": 3927,
      "ultanate": 3928,
      "వచ్చి": 3929,
      "अफ्रीका": 3930,
      "సంగీతం": 3931,
      "हिमाचल": 3932,
      "ముంబై": 3933,
      "मराठी": 3934,
      "గాంధీ": 3935,
      "పశ్చిమ": 3936,
      "istrative": 3937,
      "Tibet": 3938,
      "मन्दिर": 3939,
      "পর্বত": 3940,
      "শনাক্তকারী": 3941,
      "वेबैक": 3942,
      "చెయ్యబడింది": 3943,
      "Emb": 3944,
      "Sal": 3945,
      "ced": 3946,
      "cast": 3947,
      "cover": 3948,
      "development": 3949,
      "yam": 3950,
      "ick": 3951,
      "ament": 3952,
      "hak": 3953,
      "187": 3954,
      "407": 3955,
      "4020": 3956,
      "akhand": 3957,
      "Centre2005": 3958,
      "Uttarakhand": 3959,
      "Linguistic": 3960,
      "CITEREFKulkeRothermund2004": 3961,
      "Monsoon": 3962,
      "OOj": 3963,
      "Society": 3964,
      "cise": 3965,
      "dd": 3966,
      "dem": 3967,
      "ject": 3968,
      "ltr": 3969,
      "made": 3970,
      "ইল": 3971,
      "খে": 3972,
      "জে": 3973,
      "তন্ত্র": 3974,
      "দিল্": 3975,
      "বু": 3976,
      "মিল": 3977,
      "১৪": 3978,
      "১৬": 3979,
      "tered": 3980,
      "1980": 3981,
      "chal": 3982,
      "rime": 3983,
      "urn": 3984,
      "বিত": 3985,
      "114": 3986,
      "146": 3987,
      "সাহ": 3988,
      "abad": 3989,
      "ষ্ঠ": 3990,
      "ত্ব": 3991,
      "Thomas": 3992,
      "timesofindia": 3993,
      "ন্তর্": 3994,
      "duction": 3995,
      "numbers": 3996,
      "Wolpert2003": 3997,
      "ymbols": 3998,
      "ieval": 3999,
      "বায়ু": 4000,
      "Sabha": 4001,
      "OOjs": 4002,
      "212": 4003,
      "Bl": 4004,
      "Bah": 4005,
      "Gree": 4006,
      "Rig": 4007,
      "Sup": 4008,
      "Summ": 4009,
      "Vol": 4010,
      "cul": 4011,
      "east": 4012,
      "pen": 4013,
      "rial": 4014,
      "range": 4015,
      "only": 4016,
      "era": 4017,
      "eri": 4018,
      "arl": 4019,
      "edition": 4020,
      "education": 4021,
      "cip": 4022,
      "lev": 4023,
      "kim": 4024,
      "stan": 4025,
      "ility": 4026,
      "ema": 4027,
      "0000": 4028,
      "238": 4029,
      "maint": 4030,
      "mathematics": 4031,
      "406": 4032,
      "Mach": 4033,
      "Conservation": 4034,
      "rough": 4035,
      "Shankar": 4036,
      "lowing": 4037,
      "Sikkim": 4038,
      "awa": 4039,
      "maputra": 4040,
      "PMID": 4041,
      "Encyclopedia": 4042,
      "Brahmaputra": 4043,
      "ounci": 4044,
      "olkata": 4045,
      "Micha": 4046,
      "Policy": 4047,
      "Provisional": 4048,
      "Golden": 4049,
      "Totals": 4050,
      "Organization": 4051,
      "09": 4052,
      "Her": 4053,
      "IJ": 4054,
      "Ku": 4055,
      "Kumar": 4056,
      "Music": 4057,
      "PC": 4058,
      "Petra": 4059,
      "Tay": 4060,
      "aut": 4061,
      "bhas": 4062,
      "glia": 4063,
      "ix": 4064,
      "lor": 4065,
      "nar": 4066,
      "nom": 4067,
      "ringer": 4068,
      "sm": 4069,
      "तृ": 4070,
      "तो": 4071,
      "पक": 4072,
      "पट": 4073,
      "पत्": 4074,
      "फा": 4075,
      "भग": 4076,
      "भ्यता": 4077,
      "रिया": 4078,
      "लिया": 4079,
      "सभ्यता": 4080,
      "ीगढ़": 4081,
      "ोन": 4082,
      "কারি": 4083,
      "জো": 4084,
      "ণা": 4085,
      "শতা": 4086,
      "সূ": 4087,
      "েক্ষা": 4088,
      "১৫": 4089,
      "కం": 4090,
      "కీ": 4091,
      "జో": 4092,
      "తల": 4093,
      "తీ": 4094,
      "దార": 4095,
      "బంగ్": 4096,
      "రహ": 4097,
      "రంగ": 4098,
      "సరి": 4099,
      "third": 4100,
      "rest": 4101,
      "nored": 4102,
      "्यू": 4103,
      "ram": 4104,
      "atar": 4105,
      "ece": 4106,
      "विजय": 4107,
      "तिब्": 4108,
      "ollywood": 4109,
      "न्स": 4110,
      "Indians": 4111,
      "क्षर": 4112,
      "ignored": 4113,
      "राजधान": 4114,
      "ర్పు": 4115,
      "Springer": 4116,
      "ेशन": 4117,
      "ताज": 4118,
      "269": 4119,
      "152": 4120,
      "287": 4121,
      "প্রদেশ": 4122,
      "లోక్": 4123,
      "క్క": 4124,
      "षाण": 4125,
      "सिंध": 4126,
      "সংসদ": 4127,
      "harm": 4128,
      "क्षेत्रीय": 4129,
      "ज़ा": 4130,
      "త్స": 4131,
      "ल्स": 4132,
      "parame": 4133,
      "స్థాన": 4134,
      "overty": 4135,
      "সরকারি": 4136,
      "উপেক্ষা": 4137,
      "వ్యా": 4138,
      "లాదేశ్": 4139,
      "స్తు": 4140,
      "सुरक्षा": 4141,
      "Region": 4142,
      "तटीय": 4143,
      "मालदीव": 4144,
      "ఆర్కై": 4145,
      "హిందీ": 4146,
      "ంచిన": 4147,
      "संगीत": 4148,
      "মালয়": 4149,
      "घाट": 4150,
      "మొద": 4151,
      "Trans": 4152,
      "अन्तर": 4153,
      "Encyclop": 4154,
      "जलवायु": 4155,
      "పెద్ద": 4156,
      "চ্চিত্র": 4157,
      "మార్గ": 4158,
      "সঙ্গীত": 4159,
      "राजनीतिक": 4160,
      "চলচ্চিত্র": 4161,
      "মেশিন": 4162,
      "उत्तराखण्ड": 4163,
      "दशक": 4164,
      "స్వాతంత్ర": 4165,
      "अप्रैल": 4166,
      "శ్రీలంక": 4167,
      "తూర్పు": 4168,
      "हैदराबाद": 4169,
      "బ్రిటి": 4170,
      "चंडीगढ़": 4171,
      "amental": 4172,
      "Petraglia": 4173,
      "Taylor": 4174,
      "bhasha": 4175,
      "దారులు": 4176,
      "బంగ్లాదేశ్": 4177,
      "तिब्ब": 4178,
      "सिंधु": 4179,
      "parameter": 4180,
      "ఆర్కైవు": 4181,
      "66": 4182,
      "DS": 4183,
      "Drav": 4184,
      "Nor": 4185,
      "date": 4186,
      "eastern": 4187,
      "nc": 4188,
      "ze": 4189,
      "ora": 4190,
      "idian": 4191,
      "102": 4192,
      "1017": 4193,
      "Information": 4194,
      "machal": 4195,
      "261": 4196,
      "odiversity": 4197,
      "Mahal": 4198,
      "religious": 4199,
      "See": 4200,
      "bbc": 4201,
      "colle": 4202,
      "Himachal": 4203,
      "Dravidian": 4204,
      "A7": 4205,
      "Di": 4206,
      "Emi": 4207,
      "G8": 4208,
      "RL": 4209,
      "Sang": 4210,
      "Va": 4211,
      "Vu": 4212,
      "Vis": 4213,
      "Women": 4214,
      "band": 4215,
      "fam": 4216,
      "pop": 4217,
      "port": 4218,
      "ras": 4219,
      "tap": 4220,
      "্মী": 4221,
      "influ": 4222,
      "reed": 4223,
      "208": 4224,
      "ancient": 4225,
      "য়ী": 4226,
      "ating": 4227,
      "loc": 4228,
      "kima": 4229,
      "FOOTNOTECraven1997": 4230,
      "linkima": 4231,
      "emic": 4232,
      "independence": 4233,
      "Inf": 4234,
      "operation": 4235,
      "28orthographic": 4236,
      "টিশ": 4237,
      "shad": 4238,
      "occ": 4239,
      "ockey": 4240,
      "areas": 4241,
      "জাতি": 4242,
      "িত্য": 4243,
      "লাই": 4244,
      "market": 4245,
      "Energy": 4246,
      "rown": 4247,
      "Front": 4248,
      "ectancy": 4249,
      "Ethnic": 4250,
      "Exchange": 4251,
      "expectancy": 4252,
      "োলন": 4253,
      "Buddhist": 4254,
      "policy": 4255,
      "সংখ্যা": 4256,
      "কাশ্মী": 4257,
      "Persian": 4258,
      "আন্দোলন": 4259,
      "Rowland1970": 4260,
      "ইংরেজি": 4261,
      "Programme": 4262,
      "সাহিত্য": 4263,
      "Emirates": 4264,
      "linkimages": 4265,
      "345": 4266,
      "Ah": 4267,
      "Narendra": 4268,
      "cted": 4269,
      "ds": 4270,
      "far": 4271,
      "ief": 4272,
      "rise": 4273,
      "tain": 4274,
      "ery": 4275,
      "lock": 4276,
      "lief": 4277,
      "133": 4278,
      "134": 4279,
      "hav": 4280,
      "186": 4281,
      "1993": 4282,
      "Chief": 4283,
      "50th": 4284,
      "bert": 4285,
      "imal": 4286,
      "Marath": 4287,
      "PMC": 4288,
      "sites": 4289,
      "Department": 4290,
      "nominal": 4291,
      "178": 4292,
      "EC": 4293,
      "Gupta": 4294,
      "Kal": 4295,
      "Pa": 4296,
      "Tha": 4297,
      "ZVu": 4298,
      "ey": 4299,
      "kZVu": 4300,
      "mod": 4301,
      "pi": 4302,
      "summ": 4303,
      "ward": 4304,
      "ंत": 4305,
      "अलग": 4306,
      "उन": 4307,
      "कला": 4308,
      "गू": 4309,
      "जं": 4310,
      "जब": 4311,
      "टान": 4312,
      "धार": 4313,
      "मिक": 4314,
      "रत": 4315,
      "रह": 4316,
      "लम": 4317,
      "लका": 4318,
      "वृ": 4319,
      "श्य": 4320,
      "सत": 4321,
      "सहा": 4322,
      "िस्तान": 4323,
      "ृत": 4324,
      "ौर": 4325,
      "উদ": 4326,
      "কর্": 4327,
      "গত": 4328,
      "ফুট": 4329,
      "বেশ": 4330,
      "বঙ্গ": 4331,
      "রু": 4332,
      "১৮": 4333,
      "ఇతర": 4334,
      "గల": 4335,
      "టీ": 4336,
      "టాన్": 4337,
      "పద": 4338,
      "పీ": 4339,
      "పట్ట": 4340,
      "బీ": 4341,
      "రణ": 4342,
      "వల": 4343,
      "thehind": 4344,
      "्यों": 4345,
      "్రె": 4346,
      "मेघ": 4347,
      "काली": 4348,
      "विक": 4349,
      "विष": 4350,
      "विदेश": 4351,
      "స్వ": 4352,
      "বিক": 4353,
      "साहि": 4354,
      "144": 4355,
      "पुलि": 4356,
      "153": 4357,
      "ప్రత్య": 4358,
      "content": 4359,
      "286": 4360,
      "বাস": 4361,
      "सिख": 4362,
      "जाती": 4363,
      "ड़ो": 4364,
      "ముఖ్య": 4365,
      "సిని": 4366,
      "తావర": 4367,
      "నాడు": 4368,
      "ज़ो": 4369,
      "जनवरी": 4370,
      "मिज़ो": 4371,
      "వాతావర": 4372,
      "तेल": 4373,
      "जीवन": 4374,
      "देख": 4375,
      "कुछ": 4376,
      "हरिया": 4377,
      "अधि": 4378,
      "ణాసియా": 4379,
      "ज्ञा": 4380,
      "उपमहाद्वीप": 4381,
      "కాలం": 4382,
      "প্রাচীন": 4383,
      "बांग्लादेश": 4384,
      "టెడ్": 4385,
      "ప్రధానమంత్రి": 4386,
      "সংস্কৃতি": 4387,
      "రైలు": 4388,
      "పంజా": 4389,
      "ఆఫ్ఘ": 4390,
      "భూటాన్": 4391,
      "Quote": 4392,
      "ব্রিটিশ": 4393,
      "মন্ত্রী": 4394,
      "पहले": 4395,
      "चुनावों": 4396,
      "నేపాల్": 4397,
      "छत्तीसगढ़": 4398,
      "రహదారులు": 4399,
      "kZVuDwAAQBAJ": 4400,
      "सहाय": 4401,
      "ফুটবল": 4402,
      "पुलिस": 4403,
      "వాతావరణం": 4404,
      "112": 4405,
      "7c": 4406,
      "Air": 4407,
      "Cal": 4408,
      "Clo": 4409,
      "Gil": 4410,
      "Jha": 4411,
      "JIJ": 4412,
      "Kolkata": 4413,
      "La": 4414,
      "Pud": 4415,
      "Thar": 4416,
      "Wright": 4417,
      "Zva": 4418,
      "aJIJ": 4419,
      "cord": 4420,
      "nlm": 4421,
      "inf": 4422,
      "inte": 4423,
      "orama": 4424,
      "enni": 4425,
      "esp": 4426,
      "estic": 4427,
      "ital": 4428,
      "20150": 4429,
      "20190": 4430,
      "405": 4431,
      "ritsch": 4432,
      "hib": 4433,
      "orea": 4434,
      "beach": 4435,
      "employ": 4436,
      "contrib": 4437,
      "profile": 4438,
      "This": 4439,
      "GuaJIJ": 4440,
      "atis": 4441,
      "nih": 4442,
      "place": 4443,
      "hindi": 4444,
      "ucherry": 4445,
      "Bhut": 4446,
      "obar": 4447,
      "Monetary": 4448,
      "millenni": 4449,
      "goC": 4450,
      "overeign": 4451,
      "quality": 4452,
      "Nicobar": 4453,
      "ncbi": 4454,
      "Puducherry": 4455,
      "ZvaGuaJIJ": 4456,
      "millennium": 4457,
      "ZvaGuaJIJgoC": 4458,
      "350": 4459,
      "ES": 4460,
      "Ra": 4461,
      "Sam": 4462,
      "bel": 4463,
      "dist": 4464,
      "nan": 4465,
      "ps": 4466,
      "জার্": 4467,
      "তম": 4468,
      "ধারণ": 4469,
      "ources": 4470,
      "raj": 4471,
      "য়ারি": 4472,
      "iger": 4473,
      "tures": 4474,
      "সাগর": 4475,
      "ables": 4476,
      "lands": 4477,
      "439": 4478,
      "জাতিক": 4479,
      "384": 4480,
      "ড়া": 4481,
      "IND": 4482,
      "republic": 4483,
      "Franc": 4484,
      "embers": 4485,
      "pura": 4486,
      "Amrit": 4487,
      "পূর্": 4488,
      "Karanth": 4489,
      "rishnan": 4490,
      "লোক": 4491,
      "Manipur": 4492,
      "বৃহ": 4493,
      "Minorities": 4494,
      "ootball": 4495,
      "ক্ষেত্র": 4496,
      "Francis": 4497,
      "Date": 4498,
      "PK": 4499,
      "Prime": 4500,
      "iew": 4501,
      "ka": 4502,
      "que": 4503,
      "sug": 4504,
      "enter": 4505,
      "wild": 4506,
      "1000": 4507,
      "137": 4508,
      "vey": 4509,
      "Art": 4510,
      "when": 4511,
      "feat": 4512,
      "Coast": 4513,
      "recog": 4514,
      "legis": 4515,
      "festi": 4516,
      "04": 4517,
      "Aks": 4518,
      "Bo": 4519,
      "Reser": 4520,
      "SN": 4521,
      "Sing": 4522,
      "Wile": 4523,
      "eb": 4524,
      "kingdom": 4525,
      "lal": 4526,
      "middle": 4527,
      "oy": 4528,
      "sa": 4529,
      "sing": 4530,
      "zil": 4531,
      "अमे": 4532,
      "आन्द": 4533,
      "आंध": 4534,
      "ऑक्": 4535,
      "कं": 4536,
      "क़": 4537,
      "कै": 4538,
      "कों": 4539,
      "खन": 4540,
      "ग्व": 4541,
      "टका": 4542,
      "डा": 4543,
      "णाली": 4544,
      "पै": 4545,
      "पाली": 4546,
      "पब्": 4547,
      "बड़े": 4548,
      "भु": 4549,
      "यत": 4550,
      "व्या": 4551,
      "श्र": 4552,
      "सर्": 4553,
      "ूर": 4554,
      "ेद": 4555,
      "ॉल": 4556,
      "ोर्ड": 4557,
      "००": 4558,
      "আদ": 4559,
      "জল": 4560,
      "জু": 4561,
      "টোবর": 4562,
      "বস": 4563,
      "ভর": 4564,
      "ল্": 4565,
      "সার্": 4566,
      "সফোর্": 4567,
      "ীতি": 4568,
      "ূল": 4569,
      "అతి": 4570,
      "అయి": 4571,
      "అత్య": 4572,
      "ఇన్": 4573,
      "ఇరా": 4574,
      "ఒడి": 4575,
      "కీయ": 4576,
      "గలు": 4577,
      "జె": 4578,
      "జరా": 4579,
      "నాల": 4580,
      "భుత్": 4581,
      "మాల": 4582,
      "మన్": 4583,
      "లలో": 4584,
      "లకు": 4585,
      "లక్ష": 4586,
      "వై": 4587,
      "శతా": 4588,
      "సె": 4589,
      "ియా": 4590,
      "ేక": 4591,
      "nder": 4592,
      "thura": 4593,
      "য়ন": 4594,
      "eck": 4595,
      "weep": 4596,
      "hell": 4597,
      "FOOTNOTEDikshitSchwartzberg2023": 4598,
      "प्रणाली": 4599,
      "विभा": 4600,
      "विस्त": 4601,
      "वियत": 4602,
      "దేశంలో": 4603,
      "uled": 4604,
      "বিচার": 4605,
      "architecture": 4606,
      "ments": 4607,
      "174": 4608,
      "স্তা": 4609,
      "157": 4610,
      "ंगाना": 4611,
      "परी": 4612,
      "ప్రభుత్": 4613,
      "ake": 4614,
      "agriculture": 4615,
      "नेतृ": 4616,
      "नेपाली": 4617,
      "कोलका": 4618,
      "abs": 4619,
      "నిక": 4620,
      "সংঘ": 4621,
      "ంగ్రె": 4622,
      "ustrial": 4623,
      "harlal": 4624,
      "avi": 4625,
      "aves": 4626,
      "তামিল": 4627,
      "త్వ": 4628,
      "353": 4629,
      "పూర్": 4630,
      "২০০৯": 4631,
      "अभिज्ञा": 4632,
      "కాంగ్రె": 4633,
      "দেশের": 4634,
      "गुप्त": 4635,
      "देवी": 4636,
      "पीठ": 4637,
      "पीपी": 4638,
      "పాలన": 4639,
      "रूस": 4640,
      "సామ్రాజ్య": 4641,
      "पुरम": 4642,
      "domestic": 4643,
      "प्ले": 4644,
      "Bengali": 4645,
      "উপক": 4646,
      "గుజరా": 4647,
      "రాజకీయ": 4648,
      "Kashmiri": 4649,
      "কিন": 4650,
      "च्छ": 4651,
      "নেপাল": 4652,
      "मैथि": 4653,
      "बेटका": 4654,
      "बंधन": 4655,
      "न्नई": 4656,
      "Forest": 4657,
      "Brazil": 4658,
      "శాస్త్రం": 4659,
      "बहुत": 4660,
      "ంచింది": 4661,
      "इंडोन": 4662,
      "क्रम": 4663,
      "घाटी": 4664,
      "వర్గం": 4665,
      "केन्द्रीय": 4666,
      "Ludden2014": 4667,
      "असमिया": 4668,
      "चेन्नई": 4669,
      "शक्तिपीठ": 4670,
      "निर्माण": 4671,
      "হিন্দি": 4672,
      "బెంగాల్": 4673,
      "తమిళనాడు": 4674,
      "অক্টোবর": 4675,
      "অক্সফোর্": 4676,
      "सफोर्ड": 4677,
      "addition": 4678,
      "majority": 4679,
      "त्रिपुरा": 4680,
      "osphere": 4681,
      "Lakshad": 4682,
      "तेलुगू": 4683,
      "সালের": 4684,
      "झारखंड": 4685,
      "नौसेना": 4686,
      "মার্কিন": 4687,
      "సముద్ర": 4688,
      "कॉंग्रेस": 4689,
      "control": 4690,
      "भीमबेटका": 4691,
      "স্বাধীনতা": 4692,
      "দিল্লি": 4693,
      "Greek": 4694,
      "awaharlal": 4695,
      "Ahmed": 4696,
      "ప్రత్యేక": 4697,
      "तेलंगाना": 4698,
      "Amritsar": 4699,
      "Reserve": 4700,
      "Wiley": 4701,
      "आन्दोलन": 4702,
      "आंध्र": 4703,
      "ऑक्सफोर्ड": 4704,
      "శతాబ్": 4705,
      "कोलकाता": 4706,
      "अभिज्ञापक": 4707,
      "इंडोनेशिया": 4708,
      "অক্সফোর্ড": 4709,
      "Lakshadweep": 4710,
      "Ber": 4711,
      "Gond": 4712,
      "Kon": 4713,
      "LC": 4714,
      "LO": 4715,
      "bur": 4716,
      "pub": 4717,
      "vol": 4718,
      "iam": 4719,
      "rief": 4720,
      "today": 4721,
      "iland": 4722,
      "255": 4723,
      "145": 4724,
      "149": 4725,
      "151": 4726,
      "about": 4727,
      "shall": 4728,
      "338": 4729,
      "Search": 4730,
      "party": 4731,
      "erent": 4732,
      "authority": 4733,
      "speak": 4734,
      "ific": 4735,
      "including": 4736,
      "Christian": 4737,
      "roadcast": 4738,
      "Emblem": 4739,
      "Bhutan": 4740,
      "roadcasting": 4741,
      "349": 4742,
      "428": 4743,
      "AG": 4744,
      "Barb": 4745,
      "Cite": 4746,
      "Don": 4747,
      "Dis": 4748,
      "High": 4749,
      "Id": 4750,
      "Lo": 4751,
      "da": 4752,
      "human": 4753,
      "pag": 4754,
      "pass": 4755,
      "pati": 4756,
      "sim": 4757,
      "ues": 4758,
      "খ্রি": 4759,
      "গো": 4760,
      "গোল": 4761,
      "ণ্": 4762,
      "নভে": 4763,
      "ভৌ": 4764,
      "মৌ": 4765,
      "শীল": 4766,
      "হার": 4767,
      "২৩": 4768,
      "omo": 4769,
      "lative": 4770,
      "101": 4771,
      "access": 4772,
      "standard": 4773,
      "FOOTNOTENational": 4774,
      "webcitation": 4775,
      "ন্ট": 4776,
      "CITEREFDyson2018": 4777,
      "ক্স": 4778,
      "248": 4779,
      "সাই": 4780,
      "ell": 4781,
      "প্রস্তা": 4782,
      "aryana": 4783,
      "AAJ": 4784,
      "mark": 4785,
      "feb": 4786,
      "প্ত": 4787,
      "তেল": 4788,
      "অন্যান": 4789,
      "Environmental": 4790,
      "Wikidata": 4791,
      "স্থান": 4792,
      "বিশ্বের": 4793,
      "literature": 4794,
      "Madhya": 4795,
      "month": 4796,
      "FOOTNOTEKulkeRothermund200": 4797,
      "ক্ষমতা": 4798,
      "ণ্ড": 4799,
      "অন্যান্য": 4800,
      "412": 4801,
      "BS": 4802,
      "Cin": 4803,
      "Carna": 4804,
      "Counci": 4805,
      "Domin": 4806,
      "Eigh": 4807,
      "Korea": 4808,
      "Odis": 4809,
      "TO": 4810,
      "Tar": 4811,
      "Way": 4812,
      "cricket": 4813,
      "ez": 4814,
      "ira": 4815,
      "ji": 4816,
      "jpe": 4817,
      "last": 4818,
      "mal": 4819,
      "member": 4820,
      "pture": 4821,
      "ula": 4822,
      "yer": 4823,
      "these": 4824,
      "oram": 4825,
      "anag": 4826,
      "aland": 4827,
      "along": 4828,
      "cities": 4829,
      "acred": 4830,
      "like": 4831,
      "tock": 4832,
      "stud": 4833,
      "style": 4834,
      "rock": 4835,
      "235": 4836,
      "oples": 4837,
      "247": 4838,
      "osa": 4839,
      "Army": 4840,
      "peoples": 4841,
      "358": 4842,
      "worldcat": 4843,
      "deb": 4844,
      "ographics": 4845,
      "Time": 4846,
      "674": 4847,
      "Buddha": 4848,
      "Demographics": 4849,
      "divisions": 4850,
      "uisine": 4851,
      "topics": 4852,
      "Sikhism": 4853,
      "Devanag": 4854,
      "Turk": 4855,
      "Finance": 4856,
      "Bibcode": 4857,
      "reedom": 4858,
      "cording": 4859,
      "Carnatic": 4860,
      "Odisha": 4861,
      "Tarlo": 4862,
      "jpeg": 4863,
      "Devanagari": 4864,
      "Ab": 4865,
      "BE": 4866,
      "Bure": 4867,
      "Dun": 4868,
      "Na": 4869,
      "Of": 4870,
      "Stu": 4871,
      "fa": 4872,
      "hdr": 4873,
      "pical": 4874,
      "ँची": 4875,
      "अरु": 4876,
      "आय": 4877,
      "गई": 4878,
      "गठ": 4879,
      "गार": 4880,
      "घर": 4881,
      "त्या": 4882,
      "थे": 4883,
      "दल": 4884,
      "दमन": 4885,
      "नै": 4886,
      "निया": 4887,
      "फल": 4888,
      "फ्रा": 4889,
      "मई": 4890,
      "रम": 4891,
      "लक्ष": 4892,
      "वल": 4893,
      "वार": 4894,
      "शन": 4895,
      "ुनिक": 4896,
      "আয়": 4897,
      "আন্তর্": 4898,
      "কং": 4899,
      "ছিল": 4900,
      "ডিয়া": 4901,
      "তু": 4902,
      "ীকরণ": 4903,
      "ুষ": 4904,
      "৯৭": 4905,
      "ఆగ": 4906,
      "ఇండి": 4907,
      "గఢ": 4908,
      "గంగా": 4909,
      "చర్": 4910,
      "పట": 4911,
      "పార్": 4912,
      "బహ": 4913,
      "బౌ": 4914,
      "మల": 4915,
      "మౌ": 4916,
      "లను": 4917,
      "ళు": 4918,
      "షన్": 4919,
      "సమ": 4920,
      "సూ": 4921,
      "iary": 4922,
      "205": 4923,
      "aria": 4924,
      "ान्": 4925,
      "र्ष": 4926,
      "1016": 4927,
      "ాలీ": 4928,
      "प्रार": 4929,
      "विद्य": 4930,
      "सेवा": 4931,
      "न्तु": 4932,
      "त्री": 4933,
      "संधान": 4934,
      "लाल": 4935,
      "साक्षर": 4936,
      "भाई": 4937,
      "260": 4938,
      "commun": 4939,
      "183": 4940,
      "185": 4941,
      "లుగు": 4942,
      "ंगलु": 4943,
      "282": 4944,
      "305": 4945,
      "সংস্থা": 4946,
      "সংবিধান": 4947,
      "पाषाण": 4948,
      "విస్త": 4949,
      "लिंग": 4950,
      "लिये": 4951,
      "వాణా": 4952,
      "ికి": 4953,
      "आधुनिक": 4954,
      "म्भ": 4955,
      "स्थित": 4956,
      "পরমাণ": 4957,
      "পাদ": 4958,
      "जिन": 4959,
      "Shiv": 4960,
      "আইন": 4961,
      "अनुसंधान": 4962,
      "महल": 4963,
      "সিন্ধ": 4964,
      "ডিএফ": 4965,
      "ographical": 4966,
      "স্থাপ": 4967,
      "Profile": 4968,
      "भूगोल": 4969,
      "बेंगलु": 4970,
      "దక్షిణాసియా": 4971,
      "ত্তম": 4972,
      "কেন্দ্রীয়": 4973,
      "ynth": 4974,
      "অর্থনীতি": 4975,
      "ద్ధం": 4976,
      "ద్ధి": 4977,
      "యునై": 4978,
      "लोकसभा": 4979,
      "ష్ణ": 4980,
      "Religious": 4981,
      "उत्तरी": 4982,
      "अन्त": 4983,
      "শিক্ষা": 4984,
      "लगभग": 4985,
      "బెంగాలీ": 4986,
      "based": 4987,
      "अमरी": 4988,
      "पोर्ट": 4989,
      "కాశ్మీరు": 4990,
      "पूर्ण": 4991,
      "दृश्य": 4992,
      "Rediff": 4993,
      "NCL": 4994,
      "సమాఖ్య": 4995,
      "Association": 4996,
      "ताजमहल": 4997,
      "Regional": 4998,
      "तिब्बत": 4999,
      "Thailand": 5000,
      "বৃহত্তম": 5001,
      "अमेरि": 5002,
      "पब्लि": 5003,
      "శతాబ్దం": 5004,
      "নভেম্বর": 5005,
      "Bureau": 5006,
      "Stud": 5007,
      "अरुणा": 5008,
      "আন্তর্জাতিক": 5009,
      "గఢ్": 5010,
      "బౌద్ధ": 5011,
      "साक्षरता": 5012,
      "পরমাণু": 5013,
      "बेंगलुरु": 5014,
      "యునైటెడ్": 5015,
      "220": 5016,
      "226": 5017,
      "Alig": 5018,
      "Ev": 5019,
      "Po": 5020,
      "Sin": 5021,
      "Tritsch": 5022,
      "Yak": 5023,
      "den": 5024,
      "wa": 5025,
      "yal": 5026,
      "ément": 5027,
      "htra": 5028,
      "ashtra": 5029,
      "composed": 5030,
      "789": 5031,
      "liest": 5032,
      "library": 5033,
      "urity": 5034,
      "olas": 5035,
      "184": 5036,
      "227": 5037,
      "good": 5038,
      "270": 5039,
      "438": 5040,
      "459": 5041,
      "scri": 5042,
      "Ojha": 5043,
      "Class": 5044,
      "Clément": 5045,
      "Himalayas": 5046,
      "catalogue": 5047,
      "Northeast": 5048,
      "Aligned": 5049,
      "Clémentin": 5050,
      "321": 5051,
      "BI": 5052,
      "Bef": 5053,
      "Emer": 5054,
      "FT": 5055,
      "Gh": 5056,
      "Hy": 5057,
      "Have": 5058,
      "Jawaharlal": 5059,
      "Mol": 5060,
      "Multi": 5061,
      "Nanda": 5062,
      "bit": 5063,
      "bir": 5064,
      "cook": 5065,
      "cour": 5066,
      "develop": 5067,
      "famil": 5068,
      "ght": 5069,
      "grad": 5070,
      "plate": 5071,
      "public": 5072,
      "pilg": 5073,
      "uin": 5074,
      "অধ": 5075,
      "আফ": 5076,
      "ইস": 5077,
      "গঠ": 5078,
      "চি": 5079,
      "জয়": 5080,
      "টান": 5081,
      "তথ": 5082,
      "পো": 5083,
      "ফে": 5084,
      "লার": 5085,
      "সহ": 5086,
      "সর্ব": 5087,
      "২২": 5088,
      "tea": 5089,
      "inter": 5090,
      "through": 5091,
      "oro": 5092,
      "aro": 5093,
      "arts": 5094,
      "ala": 5095,
      "ofker": 5096,
      "asi": 5097,
      "194": 5098,
      "195": 5099,
      "1988": 5100,
      "ives": 5101,
      "organ": 5102,
      "FOOTNOTESharma": 5103,
      "Southeast": 5104,
      "emer": 5105,
      "বিভাগ": 5106,
      "igarh": 5107,
      "স্ট্র": 5108,
      "168": 5109,
      "ecially": 5110,
      "180": 5111,
      "সাধারণ": 5112,
      "Chhat": 5113,
      "409": 5114,
      "িকী": 5115,
      "ability": 5116,
      "him": 5117,
      "exis": 5118,
      "সংরক্ষণ": 5119,
      "দ্ধি": 5120,
      "utral": 5121,
      "Industrial": 5122,
      "within": 5123,
      "333": 5124,
      "লেখ": 5125,
      "ম্প": 5126,
      "arden": 5127,
      "ঙ্কা": 5128,
      "1961": 5129,
      "ctions": 5130,
      "Cambod": 5131,
      "পিডিএফ": 5132,
      "ependent": 5133,
      "notation": 5134,
      "Deccan": 5135,
      "Neutral": 5136,
      "trade": 5137,
      "Coll": 5138,
      "ক্রিকে": 5139,
      "ually": 5140,
      "Chandigarh": 5141,
      "orship": 5142,
      "species": 5143,
      "poll": 5144,
      "Hindustani": 5145,
      "millan": 5146,
      "শ্রীল": 5147,
      "মার্চ": 5148,
      "veda": 5149,
      "Democracy": 5150,
      "Macmillan": 5151,
      "araja": 5152,
      "increased": 5153,
      "violence": 5154,
      "level": 5155,
      "Machine": 5156,
      "Michael": 5157,
      "influen": 5158,
      "কাশ্মীর": 5159,
      "Laos": 5160,
      "especially": 5161,
      "Wayback": 5162,
      "Before": 5163,
      "family": 5164,
      "pilgrim": 5165,
      "তথ্য": 5166,
      "Chhattis": 5167,
      "Cambodia": 5168,
      "শ্রীলঙ্কা": 5169,
      "1st": 5170,
      "577": 5171,
      "Broadcasting": 5172,
      "Mc": 5173,
      "Map": 5174,
      "Phi": 5175,
      "Sy": 5176,
      "UT": 5177,
      "bar": 5178,
      "car": 5179,
      "ham": 5180,
      "mas": 5181,
      "ner": 5182,
      "rs": 5183,
      "198": 5184,
      "wever": 5185,
      "indian": 5186,
      "172": 5187,
      "165": 5188,
      "1995": 5189,
      "iance": 5190,
      "Maha": 5191,
      "489": 5192,
      "School": 5193,
      "others": 5194,
      "After": 5195,
      "vention": 5196,
      "215": 5197,
      "325": 5198,
      "340": 5199,
      "7mar": 5200,
      "AD": 5201,
      "Miss": 5202,
      "Pos": 5203,
      "You": 5204,
      "cia": 5205,
      "cultural": 5206,
      "four": 5207,
      "hra": 5208,
      "nation": 5209,
      "pc": 5210,
      "politics": 5211,
      "rural": 5212,
      "sia": 5213,
      "ंतर": 5214,
      "आयुक्त": 5215,
      "इल": 5216,
      "ईल": 5217,
      "उष्ण": 5218,
      "एक्": 5219,
      "कान": 5220,
      "क्रा": 5221,
      "ख्य": 5222,
      "गत": 5223,
      "गि": 5224,
      "गति": 5225,
      "घो": 5226,
      "चा": 5227,
      "चें": 5228,
      "जवा": 5229,
      "जें": 5230,
      "डम": 5231,
      "तम": 5232,
      "द्र": 5233,
      "दिक": 5234,
      "धरो": 5235,
      "नदी": 5236,
      "पहा": 5237,
      "यो": 5238,
      "रत्": 5239,
      "वाल": 5240,
      "वली": 5241,
      "शो": 5242,
      "सह": 5243,
      "हम": 5244,
      "हथि": 5245,
      "ॉक": 5246,
      "ोत्": 5247,
      "१५": 5248,
      "ইন্দ": 5249,
      "কৃ": 5250,
      "বার": 5251,
      "বন্ধ": 5252,
      "ভ্য": 5253,
      "মহ": 5254,
      "হয়ে": 5255,
      "అస్": 5256,
      "అరు": 5257,
      "ఇస్": 5258,
      "ఇది": 5259,
      "ఇంగ్": 5260,
      "కన్న": 5261,
      "కలి": 5262,
      "కరణ": 5263,
      "ఖండ": 5264,
      "గ్ర": 5265,
      "చా": 5266,
      "డీ": 5267,
      "డే": 5268,
      "తరా": 5269,
      "తులు": 5270,
      "ద్య": 5271,
      "ద్రా": 5272,
      "పండు": 5273,
      "బాం": 5274,
      "బడ్": 5275,
      "మాల్": 5276,
      "రవాణా": 5277,
      "ళ్": 5278,
      "సార": 5279,
      "ానికి": 5280,
      "orate": 5281,
      "lease": 5282,
      "etry": 5283,
      "ams": 5284,
      "स्ट्र": 5285,
      "काम": 5286,
      "্যাল": 5287,
      "acts": 5288,
      "ాలో": 5289,
      "stre": 5290,
      "विभाग": 5291,
      "olia": 5292,
      "ults": 5293,
      "संबर": 5294,
      "న్స్": 5295,
      "mag": 5296,
      "159": 5297,
      "240": 5298,
      "ప్రదా": 5299,
      "ालैंड": 5300,
      "नेपाल": 5301,
      "িকি": 5302,
      "రికత": 5303,
      "క్నాల": 5304,
      "भाषाएँ": 5305,
      "हाँ": 5306,
      "हाला": 5307,
      "जापान": 5308,
      "पास": 5309,
      "दिसंबर": 5310,
      "ండర్": 5311,
      "సిక్కు": 5312,
      "निय": 5313,
      "ogg": 5314,
      "क्षेत्रफल": 5315,
      "విశ్": 5316,
      "8012": 5317,
      "িয়ার": 5318,
      "शांति": 5319,
      "शास्त्र": 5320,
      "titute": 5321,
      "वर्ण": 5322,
      "वर्षा": 5323,
      "ద్వీ": 5324,
      "Asher2006": 5325,
      "AsherAsher2006": 5326,
      "ৃত্য": 5327,
      "জন্য": 5328,
      "দেশে": 5329,
      "्राम": 5330,
      "कृष": 5331,
      "गुफा": 5332,
      "హిమాల": 5333,
      "होती": 5334,
      "द्धि": 5335,
      "फ़ि": 5336,
      "मोदी": 5337,
      "ంటు": 5338,
      "व्यक्ति": 5339,
      "భారతదేశంలోని": 5340,
      "१९९": 5341,
      "Biodiversity": 5342,
      "सदन": 5343,
      "बंधीय": 5344,
      "చ్చే": 5345,
      "వేద": 5346,
      "বর্ত": 5347,
      "Agni": 5348,
      "संग्राम": 5349,
      "Andhra": 5350,
      "authorities": 5351,
      "वैदिक": 5352,
      "धीरे": 5353,
      "वर्षों": 5354,
      "ర్యా": 5355,
      "अपने": 5356,
      "बैंक": 5357,
      "ఉత్తరా": 5358,
      "టెక్నాల": 5359,
      "Punjabi": 5360,
      "दोन": 5361,
      "सैनिक": 5362,
      "ईसाई": 5363,
      "नागालैंड": 5364,
      "నాగరికత": 5365,
      "যুক্তরাষ্ট্র": 5366,
      "भूमिका": 5367,
      "తెలుగు": 5368,
      "different": 5369,
      "कटिबंधीय": 5370,
      "నగర": 5371,
      "సింధు": 5372,
      "fication": 5373,
      "२०११": 5374,
      "missing": 5375,
      "ইন্ডিয়া": 5376,
      "दिवस": 5377,
      "క్రీడలు": 5378,
      "इस्लाम": 5379,
      "कंपनी": 5380,
      "मलयालम": 5381,
      "వచ్చింది": 5382,
      "पत्ति": 5383,
      "শতাংশ": 5384,
      "సరిహ": 5385,
      "స్వాతంత్ర్య": 5386,
      "मेघालय": 5387,
      "कालीन": 5388,
      "साहित्य": 5389,
      "సినిమా": 5390,
      "हरियाणा": 5391,
      "ఆఫ్ఘనిస్తాన్": 5392,
      "विभाजन": 5393,
      "नेतृत्व": 5394,
      "प्लेट": 5395,
      "गारो": 5396,
      "फ्रांस": 5397,
      "చర్చ": 5398,
      "ళుక్య": 5399,
      "प्रारम्भ": 5400,
      "विद्यालय": 5401,
      "अरुणाचल": 5402,
      "ক্রিকেট": 5403,
      "7mar2011": 5404,
      "क्रांति": 5405,
      "चेंज": 5406,
      "धरोहर": 5407,
      "हथियार": 5408,
      "కన్నడ": 5409,
      "చాళుక్య": 5410,
      "మాల్దీవులు": 5411,
      "టెక్నాలజీ": 5412,
      "026": 5413,
      "324": 5414,
      "329": 5415,
      "A5": 5416,
      "Ajan": 5417,
      "Black": 5418,
      "Ca": 5419,
      "Cup": 5420,
      "Caves": 5421,
      "Dut": 5422,
      "Direct": 5423,
      "G20": 5424,
      "Gop": 5425,
      "HA": 5426,
      "Jhar": 5427,
      "Out": 5428,
      "Sain": 5429,
      "Sund": 5430,
      "Sovereign": 5431,
      "Ur": 5432,
      "bour": 5433,
      "cut": 5434,
      "fish": 5435,
      "flow": 5436,
      "gi": 5437,
      "ground": 5438,
      "mand": 5439,
      "met": 5440,
      "ste": 5441,
      "science": 5442,
      "tre": 5443,
      "tou": 5444,
      "wana": 5445,
      "onial": 5446,
      "thing": 5447,
      "ants": 5448,
      "alam": 5449,
      "eduled": 5450,
      "asian": 5451,
      "rati": 5452,
      "refor": 5453,
      "atna": 5454,
      "amy": 5455,
      "umeration": 5456,
      "angra": 5457,
      "angha": 5458,
      "ately": 5459,
      "257": 5460,
      "Insur": 5461,
      "1857": 5462,
      "308": 5463,
      "before": 5464,
      "become": 5465,
      "uction": 5466,
      "aver": 5467,
      "337": 5468,
      "ians": 5469,
      "ugu": 5470,
      "parties": 5471,
      "486": 5472,
      "382": 5473,
      "military": 5474,
      "Shangha": 5475,
      "Pakistani": 5476,
      "Eurasian": 5477,
      "Partition": 5478,
      "coast": 5479,
      "Sea": 5480,
      "Forests": 5481,
      "Congress2004": 5482,
      "rights": 5483,
      "aceu": 5484,
      "Security": 5485,
      "Madras": 5486,
      "Davidson": 5487,
      "arbans": 5488,
      "Michell": 5489,
      "Current": 5490,
      "Flood": 5491,
      "Canada": 5492,
      "series": 5493,
      "khand": 5494,
      "widely": 5495,
      "Mango": 5496,
      "baki": 5497,
      "harmaceu": 5498,
      "PetragliaAllchin": 5499,
      "festival": 5500,
      "Aksai": 5501,
      "kingdoms": 5502,
      "Ahmedabad": 5503,
      "Council": 5504,
      "Eighth": 5505,
      "Molnar": 5506,
      "Collingham": 5507,
      "Gopal": 5508,
      "Jharkhand": 5509,
      "Saint": 5510,
      "Sundarbans": 5511,
      "touch": 5512,
      "Shanghai": 5513,
      "211": 5514,
      "600": 5515,
      "Age": 5516,
      "Bas": 5517,
      "Cha": 5518,
      "Dr": 5519,
      "Food": 5520,
      "Global": 5521,
      "Ho": 5522,
      "Historical": 5523,
      "Haryana": 5524,
      "Kann": 5525,
      "M50th": 5526,
      "NI": 5527,
      "Names": 5528,
      "Peng": 5529,
      "Site": 5530,
      "Seven": 5531,
      "bl": 5532,
      "brief": 5533,
      "dat": 5534,
      "gest": 5535,
      "km": 5536,
      "kash": 5537,
      "sq": 5538,
      "symbols": 5539,
      "vis": 5540,
      "উই": 5541,
      "জান": 5542,
      "জরা": 5543,
      "তৃ": 5544,
      "নৃত্য": 5545,
      "সমা": 5546,
      "ices": 5547,
      "icts": 5548,
      "20170": 5549,
      "idy": 5550,
      "orge": 5551,
      "ume": 5552,
      "held": 5553,
      "story": 5554,
      "বিষ": 5555,
      "Intro": 5556,
      "263": 5557,
      "285": 5558,
      "289": 5559,
      "প্রতী": 5560,
      "pper": 5561,
      "pped": 5562,
      "ভাবে": 5563,
      "Short": 5564,
      "These": 5565,
      "erves": 5566,
      "ড়ি": 5567,
      "1972": 5568,
      "Colle": 5569,
      "মালা": 5570,
      "literacy": 5571,
      "Countries": 5572,
      "সঙ্গে": 5573,
      "riage": 5574,
      "parliamentary": 5575,
      "বহু": 5576,
      "Protection": 5577,
      "Supreme": 5578,
      "জোট": 5579,
      "suggest": 5580,
      "প্রস্তাবিত": 5581,
      "কংগ্র": 5582,
      "সিন্ধু": 5583,
      "NCLM50th": 5584,
      "Penguin": 5585,
      "km2": 5586,
      "প্রতীক": 5587,
      "NCLM50thReport": 5588,
      "313": 5589,
      "424": 5590,
      "Aut": 5591,
      "Cop": 5592,
      "DA": 5593,
      "Gross": 5594,
      "HD": 5595,
      "Movement": 5596,
      "Pre": 5597,
      "Sur": 5598,
      "Water": 5599,
      "bhar": 5600,
      "der": 5601,
      "gana": 5602,
      "ption": 5603,
      "zone": 5604,
      "orts": 5605,
      "orne": 5606,
      "istered": 5607,
      "1956": 5608,
      "1951": 5609,
      "resources": 5610,
      "CITEREFAsherTalbot2008": 5611,
      "173": 5612,
      "169": 5613,
      "280": 5614,
      "exports": 5615,
      "show": 5616,
      "351": 5617,
      "ords": 5618,
      "Concise": 5619,
      "point": 5620,
      "Express": 5621,
      "Admin": 5622,
      "tiger": 5623,
      "served": 5624,
      "Medieval": 5625,
      "estimate": 5626,
      "Federal": 5627,
      "American": 5628,
      "average": 5629,
      "Copland": 5630,
      "Au": 5631,
      "Ali": 5632,
      "A7C": 5633,
      "Bar": 5634,
      "Cricket": 5635,
      "Dog": 5636,
      "Desert": 5637,
      "Garg": 5638,
      "If": 5639,
      "Land": 5640,
      "Line": 5641,
      "MD": 5642,
      "Miz": 5643,
      "No": 5644,
      "Sacred": 5645,
      "Tele": 5646,
      "Ze": 5647,
      "ative": 5648,
      "ault": 5649,
      "cu": 5650,
      "fol": 5651,
      "fall": 5652,
      "gu": 5653,
      "ged": 5654,
      "hockey": 5655,
      "mit": 5656,
      "mig": 5657,
      "mount": 5658,
      "ron": 5659,
      "ute": 5660,
      "var": 5661,
      "would": 5662,
      "अब": 5663,
      "अंड": 5664,
      "अमी": 5665,
      "अफ़": 5666,
      "अतुल": 5667,
      "अशो": 5668,
      "अहम": 5669,
      "आदि": 5670,
      "आंद": 5671,
      "आपात": 5672,
      "ईद": 5673,
      "उद": 5674,
      "ऍथ": 5675,
      "ऑपर": 5676,
      "कणी": 5677,
      "ख़": 5678,
      "गध": 5679,
      "चन": 5680,
      "चोल": 5681,
      "जपा": 5682,
      "जपुरी": 5683,
      "डे": 5684,
      "डाल": 5685,
      "थाली": 5686,
      "धन": 5687,
      "धि": 5688,
      "धिकार": 5689,
      "नई": 5690,
      "नान": 5691,
      "नरे": 5692,
      "नोल": 5693,
      "नन्दा": 5694,
      "पद": 5695,
      "पीय": 5696,
      "पहु": 5697,
      "बने": 5698,
      "बड़ा": 5699,
      "ब्यू": 5700,
      "मगध": 5701,
      "यन": 5702,
      "यान": 5703,
      "यपुर": 5704,
      "लखन": 5705,
      "शत": 5706,
      "शै": 5707,
      "षण": 5708,
      "सश": 5709,
      "ूबर": 5710,
      "ॉग": 5711,
      "ोला": 5712,
      "५७": 5713,
      "উল্": 5714,
      "চাল": 5715,
      "দল": 5716,
      "দ্র": 5717,
      "দ্রা": 5718,
      "মণি": 5719,
      "মিয়ান": 5720,
      "২৮": 5721,
      "৫০": 5722,
      "ఖండ్": 5723,
      "చీ": 5724,
      "జరి": 5725,
      "జార్": 5726,
      "ట్ర": 5727,
      "తై": 5728,
      "తరు": 5729,
      "పై": 5730,
      "ఫర్": 5731,
      "మహ": 5732,
      "మలు": 5733,
      "మహార": 5734,
      "మయన్": 5735,
      "యో": 5736,
      "రూ": 5737,
      "శో": 5738,
      "సౌ": 5739,
      "సార్": 5740,
      "హార్": 5741,
      "ాష్ట్ర": 5742,
      "ina": 5743,
      "relid": 5744,
      "tile": 5745,
      "any": 5746,
      "ारजि": 5747,
      "cid": 5748,
      "cir": 5749,
      "thema": 5750,
      "asthan": 5751,
      "ches": 5752,
      "changes": 5753,
      "केश": 5754,
      "ratic": 5755,
      "য়িকী": 5756,
      "ivoy": 5757,
      "रात": 5758,
      "राम": 5759,
      "स्क": 5760,
      "स्थि": 5761,
      "कांक": 5762,
      "liber": 5763,
      "ISSN": 5764,
      "hered": 5765,
      "angana": 5766,
      "ాలా": 5767,
      "FOOTNOTERobb": 5768,
      "FOOTNOTEWolpert2003": 5769,
      "FOOTNOTEProvisional": 5770,
      "FOOTNOTERowland1970": 5771,
      "प्रस": 5772,
      "భారత్": 5773,
      "roti": 5774,
      "ন্স": 5775,
      "क्षण": 5776,
      "links": 5777,
      "संथाली": 5778,
      "ताल": 5779,
      "237": 5780,
      "unknown": 5781,
      "mathema": 5782,
      "CITEREFAsherTalbot": 5783,
      "भाष": 5784,
      "भाजपा": 5785,
      "171": 5786,
      "hag": 5787,
      "परंप": 5788,
      "ప్రజ": 5789,
      "confl": 5790,
      "প্রথ": 5791,
      "లోయ": 5792,
      "कोरिया": 5793,
      "ष्ठ": 5794,
      "iverse": 5795,
      "सूर": 5796,
      "ালত": 5797,
      "वाला": 5798,
      "भाषाएं": 5799,
      "थाईल": 5800,
      "apore": 5801,
      "करना": 5802,
      "करता": 5803,
      "సిక్": 5804,
      "किला": 5805,
      "निभाई": 5806,
      "जनता": 5807,
      "త్మా": 5808,
      "मुम्": 5809,
      "लिपि": 5810,
      "मील": 5811,
      "वर्त": 5812,
      "ार्कटि": 5813,
      "Mathematics": 5814,
      "lled": 5815,
      "भिन्न": 5816,
      "మాచల్": 5817,
      "ద్దు": 5818,
      "द्वि": 5819,
      "নিবন্ধ": 5820,
      "Animal": 5821,
      "থাইল": 5822,
      "প্টে": 5823,
      "জনসংখ্যা": 5824,
      "centu": 5825,
      "angered": 5826,
      "ameez": 5827,
      "న్నో": 5828,
      "హిమాచల్": 5829,
      "దినో": 5830,
      "সেনা": 5831,
      "সেপ্টে": 5832,
      "మిజో": 5833,
      "महान": 5834,
      "महारजि": 5835,
      "religions": 5836,
      "लोर": 5837,
      "Rajasthan": 5838,
      "दाख": 5839,
      "रुप": 5840,
      "రాజస్థాన్": 5841,
      "भूटान": 5842,
      "সাময়িকী": 5843,
      "अधिकार": 5844,
      "తరం": 5845,
      "सूचकांक": 5846,
      "కోర్": 5847,
      "ణాచల్": 5848,
      "ణాటక": 5849,
      "ন্তর": 5850,
      "ప్రాంతం": 5851,
      "691": 5852,
      "उपराष्ट्रपति": 5853,
      "यूरो": 5854,
      "Engineering": 5855,
      "सुधार": 5856,
      "द्वीपसमूह": 5857,
      "सदस": 5858,
      "unei": 5859,
      "स्टॉक": 5860,
      "आईएस": 5861,
      "ట్టు": 5862,
      "మేషన్": 5863,
      "యుద్ధం": 5864,
      "कश्मीरी": 5865,
      "রিজার্": 5866,
      "न्यायाधी": 5867,
      "Publishers": 5868,
      "जयपुर": 5869,
      "Brunei": 5870,
      "Veda": 5871,
      "मलेशिया": 5872,
      "text": 5873,
      "texts": 5874,
      "product": 5875,
      "प्रतिशत": 5876,
      "ights": 5877,
      "include": 5878,
      "Elect": 5879,
      "कार्यपालिका": 5880,
      "Devi": 5881,
      "క్కువ": 5882,
      "বৃদ্ধি": 5883,
      "edule": 5884,
      "Civilisation": 5885,
      "भोजपुरी": 5886,
      "शुरू": 5887,
      "మహాత్మా": 5888,
      "Malaysia": 5889,
      "present": 5890,
      "Telangana": 5891,
      "कन्नड़": 5892,
      "मणिपुर": 5893,
      "मणिपुरी": 5894,
      "Puran": 5895,
      "wikidata": 5896,
      "EXT": 5897,
      "রাজনীতি": 5898,
      "ओड़िया": 5899,
      "కర్ణాటక": 5900,
      "Sindhi": 5901,
      "FOOTNOTEHarle199": 5902,
      "FOOTNOTESpear1990242": 5903,
      "స్టా": 5904,
      "न्हें": 5905,
      "খেলা": 5906,
      "বুদ্ধ": 5907,
      "विजयनगर": 5908,
      "త్సవం": 5909,
      "మార్గాలు": 5910,
      "occup": 5911,
      "वृद्धि": 5912,
      "బీహార్": 5913,
      "मिज़ोरम": 5914,
      "अधिराज्य": 5915,
      "పంజాబ్": 5916,
      "Gilbert": 5917,
      "employed": 5918,
      "rajbhasha": 5919,
      "Singapore": 5920,
      "कोंकणी": 5921,
      "व्यापार": 5922,
      "আদালত": 5923,
      "জুলাই": 5924,
      "ఇరాన్": 5925,
      "సామ్రాజ్యము": 5926,
      "উপকূল": 5927,
      "గుజరాత్": 5928,
      "मैथिली": 5929,
      "Dominion": 5930,
      "Tarlo1996": 5931,
      "लक्षद्वीप": 5932,
      "మౌర్య": 5933,
      "अमेरिका": 5934,
      "Sino": 5935,
      "అరుణాచల్": 5936,
      "ఇంగ్లీ": 5937,
      "स्ट्रार": 5938,
      "कृषि": 5939,
      "गुफाएं": 5940,
      "చ్చేరి": 5941,
      "दोनों": 5942,
      "సరిహద్దు": 5943,
      "Ajanta": 5944,
      "harmaceutical": 5945,
      "উইকি": 5946,
      "কংগ্রেস": 5947,
      "Dogri": 5948,
      "अंडमान": 5949,
      "अमीरात": 5950,
      "अतुल्य": 5951,
      "अशोक": 5952,
      "आंदोलन": 5953,
      "आपातकाल": 5954,
      "ऍथनोल": 5955,
      "ऑपरेशन": 5956,
      "डालर": 5957,
      "ब्यूरो": 5958,
      "लखनऊ": 5959,
      "মণিপুর": 5960,
      "মিয়ানমার": 5961,
      "తరువా": 5962,
      "ఫర్మేషన్": 5963,
      "మహారాష్ట్ర": 5964,
      "మయన్మార్": 5965,
      "ivoyage": 5966,
      "परंपरा": 5967,
      "मुम्बई": 5968,
      "ार्कटिका": 5969,
      "থাইল্যান্ড": 5970,
      "దినోత్సవం": 5971,
      "সেপ্টেম্বর": 5972,
      "महारजिस्ट्रार": 5973,
      "রিজার্ভ": 5974,
      "न्यायाधीश": 5975,
      "ऍथनोलॉग": 5976,
      "3166": 5977,
      "423": 5978,
      "613": 5979,
      "CIA": 5980,
      "Div": 5981,
      "Football": 5982,
      "Gange": 5983,
      "Jud": 5984,
      "Navy": 5985,
      "Trib": 5986,
      "Witz": 5987,
      "bo": 5988,
      "diversity": 5989,
      "gar": 5990,
      "jur": 5991,
      "monsoon": 5992,
      "ns": 5993,
      "pat": 5994,
      "inated": 5995,
      "anat": 5996,
      "1987": 5997,
      "ads": 5998,
      "emi": 5999,
      "CITEREFFisher2018": 6000,
      "161": 6001,
      "Child": 6002,
      "Industry": 6003,
      "ourism": 6004,
      "Maur": 6005,
      "ible": 6006,
      "374": 6007,
      "forms": 6008,
      "France": 6009,
      "alaya": 6010,
      "ukh": 6011,
      "Secret": 6012,
      "Fundamental": 6013,
      "Review": 6014,
      "Early": 6015,
      "Marathi": 6016,
      "Berlin": 6017,
      "Konk": 6018,
      "speakers": 6019,
      "Ojha2014": 6020,
      "Gangetic": 6021,
      "Witzel": 6022,
      "410": 6023,
      "Gini": 6024,
      "MAAJ": 6025,
      "Old": 6026,
      "Pat": 6027,
      "SI": 6028,
      "Sons": 6029,
      "do": 6030,
      "ek": 6031,
      "gAAQBAJ": 6032,
      "list": 6033,
      "mid": 6034,
      "members": 6035,
      "uture": 6036,
      "whi": 6037,
      "উদ্": 6038,
      "উন্ন": 6039,
      "চিত": 6040,
      "ডে": 6041,
      "নার": 6042,
      "রো": 6043,
      "শাল": 6044,
      "সার": 6045,
      "৫৬": 6046,
      "209": 6047,
      "around": 6048,
      "itage": 6049,
      "leavy": 6050,
      "cha": 6051,
      "ator": 6052,
      "fig": 6053,
      "results": 6054,
      "131": 6055,
      "স্ত্র": 6056,
      "akar": 6057,
      "302": 6058,
      "2011religion": 6059,
      "AAMAAJ": 6060,
      "Hindus": 6061,
      "২০১৯": 6062,
      "ক্ষর": 6063,
      "Index": 6064,
      "हिन्दु": 6065,
      "357": 6066,
      "uggle": 6067,
      "িলি": 6068,
      "orders": 6069,
      "পর্য": 6070,
      "ভাষায়": 6071,
      "central": 6072,
      "১৯৭": 6073,
      "1975": 6074,
      "Census2011religion": 6075,
      "position": 6076,
      "বর্ষ": 6077,
      "ভিন্ন": 6078,
      "অন্য": 6079,
      "ঞ্জা": 6080,
      "প্রধানমন্ত্রী": 6081,
      "ethnologue": 6082,
      "এশিয়া": 6083,
      "body": 6084,
      "administered": 6085,
      "Literacy": 6086,
      "পর্বতমালা": 6087,
      "wildlife": 6088,
      "features": 6089,
      "AGE": 6090,
      "Cinema": 6091,
      "Dunleavy": 6092,
      "Chhattisgarh": 6093,
      "উল্লেখ": 6094,
      "316": 6095,
      "8a": 6096,
      "960": 6097,
      "Az": 6098,
      "Cy": 6099,
      "Def": 6100,
      "EN": 6101,
      "Female": 6102,
      "Gate": 6103,
      "Gana": 6104,
      "Jana": 6105,
      "LA": 6106,
      "Mong": 6107,
      "Mana": 6108,
      "Member": 6109,
      "Oly": 6110,
      "Pp": 6111,
      "Power": 6112,
      "Ravi": 6113,
      "Tri": 6114,
      "Wood": 6115,
      "coral": 6116,
      "cuisine": 6117,
      "dic": 6118,
      "ees": 6119,
      "ease": 6120,
      "gr": 6121,
      "hl": 6122,
      "hā": 6123,
      "hor": 6124,
      "mus": 6125,
      "prac": 6126,
      "rid": 6127,
      "sultanate": 6128,
      "ua": 6129,
      "wat": 6130,
      "where": 6131,
      "iated": 6132,
      "inc": 6133,
      "real": 6134,
      "recent": 6135,
      "reach": 6136,
      "relief": 6137,
      "enous": 6138,
      "itar": 6139,
      "ashi": 6140,
      "1977": 6141,
      "raman": 6142,
      "lage": 6143,
      "ette": 6144,
      "uscri": 6145,
      "ecu": 6146,
      "upper": 6147,
      "006": 6148,
      "igenous": 6149,
      "una": 6150,
      "164": 6151,
      "158": 6152,
      "ayana": 6153,
      "akrishnan": 6154,
      "Chenn": 6155,
      "Books": 6156,
      "ablish": 6157,
      "274": 6158,
      "279": 6159,
      "Architecture": 6160,
      "ardian": 6161,
      "Harvard": 6162,
      "385": 6163,
      "engineering": 6164,
      "subject": 6165,
      "Thir": 6166,
      "truction": 6167,
      "Schedule": 6168,
      "thority": 6169,
      "wars": 6170,
      "Palace": 6171,
      "annual": 6172,
      "scul": 6173,
      "Arabia": 6174,
      "appro": 6175,
      "spread": 6176,
      "topic": 6177,
      "Nataraja": 6178,
      "economictimes": 6179,
      "dependent": 6180,
      "record": 6181,
      "Saudi": 6182,
      "Turkey": 6183,
      "Revolution": 6184,
      "Sanchi": 6185,
      "dispute": 6186,
      "village": 6187,
      "Wikipedia": 6188,
      "Green": 6189,
      "Balakrishnan": 6190,
      "Telugu": 6191,
      "draw": 6192,
      "Literature": 6193,
      "documents": 6194,
      "forcement": 6195,
      "Tibetan": 6196,
      "democ": 6197,
      "Rigveda": 6198,
      "small": 6199,
      "34549": 6200,
      "Paul": 6201,
      "Wright2010": 6202,
      "Emergency": 6203,
      "Ghats": 6204,
      "courts": 6205,
      "02649": 6206,
      "Urban": 6207,
      "Authority": 6208,
      "centuries": 6209,
      "Division": 6210,
      "Olymp": 6211,
      "Chennai": 6212,
      "312": 6213,
      "418": 6214,
      "429": 6215,
      "447": 6216,
      "Bur": 6217,
      "Hel": 6218,
      "Its": 6219,
      "Net": 6220,
      "NGDP": 6221,
      "Sun": 6222,
      "Tiger": 6223,
      "UK": 6224,
      "Vice": 6225,
      "bad": 6226,
      "base": 6227,
      "di": 6228,
      "fin": 6229,
      "gad": 6230,
      "iop": 6231,
      "jp": 6232,
      "kes": 6233,
      "mo": 6234,
      "p1": 6235,
      "pm": 6236,
      "rul": 6237,
      "ued": 6238,
      "ँकि": 6239,
      "ंबर": 6240,
      "अर्": 6241,
      "आइ": 6242,
      "इसी": 6243,
      "ईस्ट": 6244,
      "ऋतु": 6245,
      "एम": 6246,
      "ऑफ": 6247,
      "ओडि": 6248,
      "गए": 6249,
      "ग्र": 6250,
      "ग्री": 6251,
      "चाल": 6252,
      "जै": 6253,
      "जान": 6254,
      "डॉल": 6255,
      "तग": 6256,
      "थल": 6257,
      "दार": 6258,
      "पक्ष": 6259,
      "फि": 6260,
      "बू": 6261,
      "बहा": 6262,
      "बनी": 6263,
      "बड़ी": 6264,
      "मंड": 6265,
      "सक": 6266,
      "सल्": 6267,
      "हॉ": 6268,
      "हवे": 6269,
      "ुक": 6270,
      "२६": 6271,
      "অভি": 6272,
      "উচ্চ": 6273,
      "এল": 6274,
      "ধা": 6275,
      "বছ": 6276,
      "বভৌ": 6277,
      "রক্ষ": 6278,
      "রপে": 6279,
      "সী": 6280,
      "২৯": 6281,
      "ంక": 6282,
      "అనే": 6283,
      "ఎన్నో": 6284,
      "ఏర్": 6285,
      "కను": 6286,
      "ఖ్": 6287,
      "గీ": 6288,
      "గ్": 6289,
      "టో": 6290,
      "నం": 6291,
      "పర": 6292,
      "పొ": 6293,
      "మణి": 6294,
      "లతో": 6295,
      "లవు": 6296,
      "లమె": 6297,
      "ళం": 6298,
      "వృ": 6299,
      "శ్ర": 6300,
      "షా": 6301,
      "స్య": 6302,
      "హర్": 6303,
      "ూరు": 6304,
      "in2": 6305,
      "reat": 6306,
      "tives": 6307,
      "anthem": 6308,
      "ারীকরণ": 6309,
      "asing": 6310,
      "190": 6311,
      "केट": 6312,
      "ారం": 6313,
      "र्तग": 6314,
      "स्ता": 6315,
      "कांग्रेस": 6316,
      "geoh": 6317,
      "liz": 6318,
      "find": 6319,
      "प्रभा": 6320,
      "प्रकार": 6321,
      "प्रशासन": 6322,
      "प्रवेश": 6323,
      "वित": 6324,
      "linkid": 6325,
      "राजभाषा": 6326,
      "लावा": 6327,
      "साइ": 6328,
      "सामाज": 6329,
      "ర్లు": 6330,
      "ियां": 6331,
      "पुर्तग": 6332,
      "ప్రతి": 6333,
      "ప్రస్తు": 6334,
      "Chang": 6335,
      "প্রশাস": 6336,
      "नेट": 6337,
      "त्त": 6338,
      "বাণি": 6339,
      "माध्य": 6340,
      "सिन्ध": 6341,
      "সংবাদ": 6342,
      "जाते": 6343,
      "पांड": 6344,
      "uccess": 6345,
      "दियों": 6346,
      "किन्तु": 6347,
      "निवेश": 6348,
      "తిక": 6349,
      "త్తం": 6350,
      "కుటు": 6351,
      "Related": 6352,
      "मानक": 6353,
      "చిత్ర": 6354,
      "మాతరం": 6355,
      "নিরপে": 6356,
      "अभियान": 6357,
      "సంఘ": 6358,
      "गुट": 6359,
      "వందే": 6360,
      "गणतंत्र": 6361,
      "టిబె": 6362,
      "newsite": 6363,
      "రాష్ట్రాల": 6364,
      "পিডিয়া": 6365,
      "दादरा": 6366,
      "मोहन": 6367,
      "१९४": 6368,
      "కోబ": 6369,
      "oldest": 6370,
      "सितंबर": 6371,
      "न्याय": 6372,
      "পরিষ": 6373,
      "সময়": 6374,
      "కాలంలో": 6375,
      "Ethiop": 6376,
      "দিবস": 6377,
      "శాఖ": 6378,
      "जिसके": 6379,
      "शील": 6380,
      "జనవరి": 6381,
      "সমূহের": 6382,
      "क्रि": 6383,
      "कर्ज": 6384,
      "మొత్తం": 6385,
      "Vij": 6386,
      "పాకిస్థాన్": 6387,
      "rence": 6388,
      "growing": 6389,
      "अपनी": 6390,
      "श्रीनगर": 6391,
      "সংস্কৃত": 6392,
      "పెనీ": 6393,
      "এশিয়ার": 6394,
      "తమిళం": 6395,
      "শ্রে": 6396,
      "కారం": 6397,
      "নির্ভর": 6398,
      "ఉపఖండ": 6399,
      "imf2": 6400,
      "মনো": 6401,
      "బాద్": 6402,
      "Narayan": 6403,
      "मौसम": 6404,
      "Greater": 6405,
      "१८५७": 6406,
      "রাজনৈতিক": 6407,
      "तुलना": 6408,
      "అధికారిక": 6409,
      "రెండు": 6410,
      "హ్మ": 6411,
      "factbook": 6412,
      "వారస": 6413,
      "కంపెనీ": 6414,
      "राजधानी": 6415,
      "মালয়াল": 6416,
      "మొదటి": 6417,
      "బ్రిటిషు": 6418,
      "जबकि": 6419,
      "रहे": 6420,
      "উদারীকরণ": 6421,
      "పట్టణ": 6422,
      "thehindu": 6423,
      "विषय": 6424,
      "विदेशी": 6425,
      "সার্বভৌ": 6426,
      "అత్యధిక": 6427,
      "गठबंधन": 6428,
      "ఇండియా": 6429,
      "పార్లమె": 6430,
      "బహు": 6431,
      "घोष": 6432,
      "सहयोग": 6433,
      "ोत्तर": 6434,
      "हालाँकि": 6435,
      "హిమాలయాలు": 6436,
      "জানু": 6437,
      "বিষয়": 6438,
      "Introduction": 6439,
      "College": 6440,
      "पहुँच": 6441,
      "स्थिति": 6442,
      "वर्तमान": 6443,
      "यूरोपीय": 6444,
      "উন্নয়ন": 6445,
      "डॉलर": 6446,
      "मंडल": 6447,
      "सल्तन": 6448,
      "हॉकी": 6449,
      "हवेली": 6450,
      "geohack": 6451,
      "सामाजिक": 6452,
      "বাণিজ্য": 6453,
      "सिन्धु": 6454,
      "కుటుంబ": 6455,
      "নিরপেক্ষ": 6456,
      "Ethiopia": 6457,
      "সার্বভৌম": 6458,
      "050": 6459,
      "223": 6460,
      "314": 6461,
      "DNA": 6462,
      "Lok": 6463,
      "PT": 6464,
      "Rec": 6465,
      "Some": 6466,
      "Year": 6467,
      "bird": 6468,
      "fed": 6469,
      "income": 6470,
      "orary": 6471,
      "ising": 6472,
      "anding": 6473,
      "enty": 6474,
      "att": 6475,
      "adop": 6476,
      "ficient": 6477,
      "ily": 6478,
      "olar": 6479,
      "olid": 6480,
      "indic": 6481,
      "uborne": 6482,
      "ernet": 6483,
      "temporary": 6484,
      "359": 6485,
      "inequality": 6486,
      "566": 6487,
      "Century": 6488,
      "4217": 6489,
      "regional": 6490,
      "Neuborne": 6491,
      "According": 6492,
      "Australian": 6493,
      "Assamese": 6494,
      "Institute": 6495,
      "desc": 6496,
      "Malayalam": 6497,
      "Directorate": 6498,
      "Konkani": 6499,
      "214": 6500,
      "310": 6501,
      "318": 6502,
      "421": 6503,
      "5196": 6504,
      "6174": 6505,
      "App": 6506,
      "Bom": 6507,
      "Cap": 6508,
      "Du": 6509,
      "Dom": 6510,
      "Eight": 6511,
      "Eastern": 6512,
      "Fact": 6513,
      "Ira": 6514,
      "Kaz": 6515,
      "Lad": 6516,
      "Nass": 6517,
      "Nilg": 6518,
      "Onew": 6519,
      "Open": 6520,
      "Tod": 6521,
      "Wa": 6522,
      "Whe": 6523,
      "Wil": 6524,
      "Yarl": 6525,
      "bra": 6526,
      "cr": 6527,
      "cla": 6528,
      "clo": 6529,
      "daro": 6530,
      "eu": 6531,
      "eff": 6532,
      "equ": 6533,
      "gir": 6534,
      "historical": 6535,
      "ij": 6536,
      "itive": 6537,
      "ilies": 6538,
      "jh": 6539,
      "kno": 6540,
      "kameez": 6541,
      "las": 6542,
      "living": 6543,
      "mang": 6544,
      "nearly": 6545,
      "oz": 6546,
      "poli": 6547,
      "trib": 6548,
      "tances": 6549,
      "uters": 6550,
      "xim": 6551,
      "অ্যান্ড": 6552,
      "ক্রা": 6553,
      "খণ্ড": 6554,
      "চা": 6555,
      "চন্দ্র": 6556,
      "জৈ": 6557,
      "দশ": 6558,
      "পার্": 6559,
      "ফি": 6560,
      "বো": 6561,
      "র্য": 6562,
      "সিকি": 6563,
      "২৫": 6564,
      "৪৭": 6565,
      "rely": 6566,
      "related": 6567,
      "till": 6568,
      "orke": 6569,
      "alisation": 6570,
      "enjo": 6571,
      "often": 6572,
      "isa": 6573,
      "isi": 6574,
      "civil": 6575,
      "andy": 6576,
      "ito": 6577,
      "itch": 6578,
      "ought": 6579,
      "ids": 6580,
      "idref": 6581,
      "let": 6582,
      "1936": 6583,
      "1983": 6584,
      "windia": 6585,
      "lobe": 6586,
      "adas": 6587,
      "ects": 6588,
      "্যের": 6589,
      "across": 6590,
      "fied": 6591,
      "hek": 6592,
      "FOOTNOTEMinistry": 6593,
      "FOOTNOTEAsherTalbot": 6594,
      "FOOTNOTEClémentin": 6595,
      "ilar": 6596,
      "emen": 6597,
      "tices": 6598,
      "251": 6599,
      "2542": 6600,
      "indias": 6601,
      "may": 6602,
      "262": 6603,
      "150": 6604,
      "154": 6605,
      "1500": 6606,
      "288": 6607,
      "abin": 6608,
      "osys": 6609,
      "establish": 6610,
      "Indira": 6611,
      "276": 6612,
      "তান্ত্র": 6613,
      "whose": 6614,
      "aju": 6615,
      "therine": 6616,
      "361": 6617,
      "362": 6618,
      "মাই": 6619,
      "Roy": 6620,
      "Roorke": 6621,
      "endangered": 6622,
      "2C5": 6623,
      "1964": 6624,
      "387": 6625,
      "maraju": 6626,
      "২০০৬": 6627,
      "prof": 6628,
      "prom": 6629,
      "পরী": 6630,
      "পাঞ্জা": 6631,
      "disease": 6632,
      "nationalism": 6633,
      "গুজরা": 6634,
      "rigonom": 6635,
      "Rajiv": 6636,
      "ুরু": 6637,
      "plain": 6638,
      "lower": 6639,
      "মেন্ট": 6640,
      "ভূগোল": 6641,
      "Demon": 6642,
      "Peers": 6643,
      "Georg": 6644,
      "Geology": 6645,
      "Geography": 6646,
      "ancial": 6647,
      "34238": 6648,
      "school": 6649,
      "Palla": 6650,
      "ক্রয়": 6651,
      "প্রাণী": 6652,
      "ন্ধী": 6653,
      "imple": 6654,
      "Ramayana": 6655,
      "11934238": 6656,
      "getar": 6657,
      "caused": 6658,
      "ইউনিয়": 6659,
      "মাণবিক": 6660,
      "cb11934238": 6661,
      "নির্বা": 6662,
      "গান্ধী": 6663,
      "administrative": 6664,
      "Plofker": 6665,
      "Curry": 6666,
      "disputes": 6667,
      "longer": 6668,
      "Financial": 6669,
      "পশ্চিমবঙ্গ": 6670,
      "Mohenjo": 6671,
      "estimated": 6672,
      "highest": 6673,
      "Party": 6674,
      "Dalit": 6675,
      "astronom": 6676,
      "losis": 6677,
      "কলকা": 6678,
      "পারমাণবিক": 6679,
      "Kathakali": 6680,
      "colleges": 6681,
      "families": 6682,
      "Infosys": 6683,
      "summer": 6684,
      "Clothing": 6685,
      "লোকসভা": 6686,
      "Coastal": 6687,
      "জলবায়ু": 6688,
      "similar": 6689,
      "৯৭৮": 6690,
      "Shiva": 6691,
      "Classical": 6692,
      "emerged": 6693,
      "pollution": 6694,
      "ইন্দো": 6695,
      "্যালয়": 6696,
      "Catherine": 6697,
      "Davidson2014": 6698,
      "Administrative": 6699,
      "culosis": 6700,
      "প্রথম": 6701,
      "हिन्दुस्तान": 6702,
      "uscript": 6703,
      "ecutive": 6704,
      "শ্রেণী": 6705,
      "জানুয়ারি": 6706,
      "Factbook": 6707,
      "Ladakh": 6708,
      "Oneworld": 6709,
      "Yarlung": 6710,
      "knowindia": 6711,
      "তান্ত্রিক": 6712,
      "Roorkee": 6713,
      "ইউনিয়ন": 6714,
      "cb11934238p": 6715,
      "3rd": 6716,
      "478": 6717,
      "Dist": 6718,
      "Jus": 6719,
      "Ke": 6720,
      "Mur": 6721,
      "PS": 6722,
      "Poverty": 6723,
      "QC": 6724,
      "Sar": 6725,
      "Sim": 6726,
      "Serv": 6727,
      "Wh": 6728,
      "cuss": 6729,
      "histor": 6730,
      "ier": 6731,
      "mm": 6732,
      "mart": 6733,
      "num": 6734,
      "rin": 6735,
      "rang": 6736,
      "uri": 6737,
      "writ": 6738,
      "test": 6739,
      "alys": 6740,
      "oms": 6741,
      "itor": 6742,
      "ouli": 6743,
      "20110": 6744,
      "rael": 6745,
      "rakash": 6746,
      "20090": 6747,
      "wear": 6748,
      "result": 6749,
      "232": 6750,
      "uni": 6751,
      "Univers": 6752,
      "eph": 6753,
      "epic": 6754,
      "295": 6755,
      "api": 6756,
      "harashtra": 6757,
      "352": 6758,
      "Maharashtra": 6759,
      "Israel": 6760,
      "391": 6761,
      "394": 6762,
      "former": 6763,
      "ghalaya": 6764,
      "rick": 6765,
      "Constitutional": 6766,
      "Biosphere": 6767,
      "ilding": 6768,
      "incely": 6769,
      "Chandram": 6770,
      "value": 6771,
      "Meghalaya": 6772,
      "plex": 6773,
      "Parliamentary": 6774,
      "popular": 6775,
      "pubmed": 6776,
      "Phili": 6777,
      "Kannada": 6778,
      "Maurya": 6779,
      "Justice": 6780,
      "alysis": 6781,
      "Chandramouli": 6782,
      "225": 6783,
      "319": 6784,
      "360": 6785,
      "420": 6786,
      "422": 6787,
      "8D": 6788,
      "Are": 6789,
      "KI": 6790,
      "Khan": 6791,
      "MKI": 6792,
      "PE": 6793,
      "Su": 6794,
      "To": 6795,
      "a7": 6796,
      "aedia": 6797,
      "cor": 6798,
      "cgi": 6799,
      "del": 6800,
      "earch": 6801,
      "mj": 6802,
      "pts": 6803,
      "soci": 6804,
      "siz": 6805,
      "sports": 6806,
      "source": 6807,
      "ædia": 6808,
      "ंजन": 6809,
      "अभी": 6810,
      "आर्": 6811,
      "आकार": 6812,
      "आर्य": 6813,
      "इजरा": 6814,
      "इटे": 6815,
      "उस": 6816,
      "उद्योग": 6817,
      "उड़ी": 6818,
      "कह": 6819,
      "खि": 6820,
      "ग्": 6821,
      "चला": 6822,
      "णार्": 6823,
      "थम": 6824,
      "धिक": 6825,
      "नदिया": 6826,
      "फै": 6827,
      "मक": 6828,
      "म्य": 6829,
      "रख": 6830,
      "वर": 6831,
      "शे": 6832,
      "शेष": 6833,
      "शाली": 6834,
      "षिक": 6835,
      "सों": 6836,
      "समा": 6837,
      "िशा": 6838,
      "ूल": 6839,
      "ेरी": 6840,
      "५०": 6841,
      "অধিক": 6842,
      "কু": 6843,
      "ঘল": 6844,
      "চু": 6845,
      "জী": 6846,
      "তত্": 6847,
      "পৌ": 6848,
      "ফলে": 6849,
      "লব": 6850,
      "শ্": 6851,
      "২৪": 6852,
      "২৬": 6853,
      "৩০": 6854,
      "అను": 6855,
      "అమె": 6856,
      "ఆంధ": 6857,
      "ఎన్ని": 6858,
      "ఎక్కువ": 6859,
      "కథ": 6860,
      "కాలు": 6861,
      "కల్": 6862,
      "జన్": 6863,
      "జైన": 6864,
      "డో": 6865,
      "తము": 6866,
      "థి": 6867,
      "న్యా": 6868,
      "పల్ల": 6869,
      "ఫై": 6870,
      "భర": 6871,
      "మరా": 6872,
      "యక": 6873,
      "శీ": 6874,
      "సహా": 6875,
      "ుల": 6876,
      "ias": 6877,
      "ink": 6878,
      "online": 6879,
      "anti": 6880,
      "201107": 6881,
      "ided": 6882,
      "్రప్రదేశ్": 6883,
      "ets": 6884,
      "स्लि": 6885,
      "स्चेंज": 6886,
      "1093": 6887,
      "काश": 6888,
      "head": 6889,
      "क्स": 6890,
      "ాలలో": 6891,
      "lins": 6892,
      "प्रथम": 6893,
      "विवाद": 6894,
      "विभिन्न": 6895,
      "research": 6896,
      "దేశము": 6897,
      "नागर": 6898,
      "नाइटे": 6899,
      "సాధి": 6900,
      "বিভিন্ন": 6901,
      "संरक्ष": 6902,
      "लाख": 6903,
      "make": 6904,
      "245": 6905,
      "ंगडम": 6906,
      "ప్రము": 6907,
      "ప్రకారం": 6908,
      "408": 6909,
      "agore": 6910,
      "कोणार्": 6911,
      "त्ता": 6912,
      "govern": 6913,
      "క్టో": 6914,
      "ందు": 6915,
      "माता": 6916,
      "నియా": 6917,
      "हिल्स": 6918,
      "ల్తా": 6919,
      "ల్వే": 6920,
      "सूर्य": 6921,
      "वाँ": 6922,
      "being": 6923,
      "समान": 6924,
      "ండమా": 6925,
      "किंगडम": 6926,
      "्याचल": 6927,
      "Harper": 6928,
      "लेकर": 6929,
      "విధ": 6930,
      "విద్య": 6931,
      "तीर्थ": 6932,
      "য়েত": 6933,
      "కుడు": 6934,
      "मुस्लि": 6935,
      "मीडिया": 6936,
      "యాళం": 6937,
      "मान्य": 6938,
      "वर्ती": 6939,
      "वर्ल्": 6940,
      "वर्तन": 6941,
      "ందిన": 6942,
      "చిన్న": 6943,
      "వాహ": 6944,
      "লাম": 6945,
      "efficient": 6946,
      "भील": 6947,
      "पुराण": 6948,
      "సంస్థ": 6949,
      "సంఖ్య": 6950,
      "auth": 6951,
      "ভাষাসমূহ": 6952,
      "ష్టు": 6953,
      "ंत्रिक": 6954,
      "డిన": 6955,
      "मूल्य": 6956,
      "దినాలు": 6957,
      "ंदर": 6958,
      "टियों": 6959,
      "বেঙ্গ": 6960,
      "पूर्वोत्तर": 6961,
      "type": 6962,
      "ড়ে": 6963,
      "সিটি": 6964,
      "స్త్రీయ": 6965,
      "विश्वविद्यालय": 6966,
      "संघीय": 6967,
      "1974": 6968,
      "পিপি": 6969,
      "संस्था": 6970,
      "coefficient": 6971,
      "উপমহা": 6972,
      "मोर": 6973,
      "గుర్": 6974,
      "లిం": 6975,
      "१९७": 6976,
      "१९८": 6977,
      "కోల్": 6978,
      "poration": 6979,
      "यूनाइटे": 6980,
      "gration": 6981,
      "Coningham": 6982,
      "तटवर्ती": 6983,
      "পরিসংখ": 6984,
      "Collins": 6985,
      "সমভূমি": 6986,
      "anced": 6987,
      "खासी": 6988,
      "త్యం": 6989,
      "অঞ্চলের": 6990,
      "శాస్త్రీయ": 6991,
      "మేఘ": 6992,
      "बहुमत": 6993,
      "बहुमूल्य": 6994,
      "জিডি": 6995,
      "ాల్లో": 6996,
      "तिहासिक": 6997,
      "মুঘল": 6998,
      "কোম্প": 6999,
      "मंत्रि": 7000,
      "ారిటీ": 7001,
      "Ramsar": 7002,
      "default": 7003,
      "चेरी": 7004,
      "বৈচিত্র": 7005,
      "తున్న": 7006,
      "अपना": 7007,
      "docs": 7008,
      "సుల్తా": 7009,
      "రాజ్యాలు": 7010,
      "तीसरी": 7011,
      "arkar": 7012,
      "గిన": 7013,
      "ইউনি": 7014,
      "బడిన": 7015,
      "రైల్వే": 7016,
      "वार्षिक": 7017,
      "টাকা": 7018,
      "పిక్": 7019,
      "যায়ী": 7020,
      "যোগ্য": 7021,
      "కాశ్మీర్": 7022,
      "মেশিনে": 7023,
      "FOOTNOTEAsherTalbot200853": 7024,
      "परिष": 7025,
      "মোট": 7026,
      "दर्शन": 7027,
      "दृष्": 7028,
      "నేషనల్": 7029,
      "signific": 7030,
      "ओड़िशा": 7031,
      "কেরল": 7032,
      "অনুযায়ী": 7033,
      "func": 7034,
      "వ్యాసం": 7035,
      "Encyclopaedia": 7036,
      "Encyclopædia": 7037,
      "వలస": 7038,
      "స్వతంత్ర": 7039,
      "सहायक": 7040,
      "recogn": 7041,
      "అయిన": 7042,
      "विस्तृत": 7043,
      "परीक्षण": 7044,
      "ప్రభుత్వం": 7045,
      "కాంగ్రెసు": 7046,
      "సముద్రం": 7047,
      "Barbara": 7048,
      "ఆగష్టు": 7049,
      "మలయాళం": 7050,
      "ইসলাম": 7051,
      "Missile": 7052,
      "Young": 7053,
      "उष्णकटिबंधीय": 7054,
      "एक्स्चेंज": 7055,
      "कानून": 7056,
      "रत्न": 7057,
      "విశ్వా": 7058,
      "ంటుంది": 7059,
      "చాళుక్యులు": 7060,
      "नरेन्द्र": 7061,
      "ట్రో": 7062,
      "द्वितीय": 7063,
      "ఇంగ్లీషు": 7064,
      "বছর": 7065,
      "వృద్ధి": 7066,
      "न्यायपालिका": 7067,
      "పార్లమెంట": 7068,
      "सल्तनत": 7069,
      "indicator": 7070,
      "claim": 7071,
      "ক্রয়ক্ষমতা": 7072,
      "उड़ीसा": 7073,
      "అమెరి": 7074,
      "ఆంధ్రప్రదేశ్": 7075,
      "మరాఠ": 7076,
      "ప్రముఖ": 7077,
      "कोणार्क": 7078,
      "मुस्लिम": 7079,
      "वर्ल्ड": 7080,
      "यूनाइटेड": 7081,
      "পরিসংখ্যান": 7082,
      "কোম্পানি": 7083,
      "సుల్తానులు": 7084,
      "224": 7085,
      "323": 7086,
      "870": 7087,
      "Arav": 7088,
      "Aitch": 7089,
      "Bat": 7090,
      "Bri": 7091,
      "Bel": 7092,
      "Bour": 7093,
      "BJP": 7094,
      "Cynth": 7095,
      "Fall": 7096,
      "Fie": 7097,
      "Ger": 7098,
      "Hand": 7099,
      "Hay": 7100,
      "Ki": 7101,
      "Kad": 7102,
      "Mount": 7103,
      "Maj": 7104,
      "Nag": 7105,
      "Pyle": 7106,
      "Rail": 7107,
      "Rights": 7108,
      "Sultanate": 7109,
      "VID": 7110,
      "Zoro": 7111,
      "bread": 7112,
      "cond": 7113,
      "eate": 7114,
      "female": 7115,
      "gas": 7116,
      "garden": 7117,
      "hry": 7118,
      "ili": 7119,
      "just": 7120,
      "kC": 7121,
      "kesh": 7122,
      "mortal": 7123,
      "nations": 7124,
      "pages": 7125,
      "poverty": 7126,
      "run": 7127,
      "rove": 7128,
      "so": 7129,
      "san": 7130,
      "ses": 7131,
      "sil": 7132,
      "vara": 7133,
      "win": 7134,
      "ym": 7135,
      "init": 7136,
      "inces": 7137,
      "three": 7138,
      "remain": 7139,
      "erb": 7140,
      "orial": 7141,
      "arc": 7142,
      "anab": 7143,
      "ales": 7144,
      "ena": 7145,
      "ency": 7146,
      "istic": 7147,
      "asa": 7148,
      "asar": 7149,
      "20111": 7150,
      "20130": 7151,
      "1949": 7152,
      "chess": 7153,
      "check": 7154,
      "laci": 7155,
      "atch": 7156,
      "ature": 7157,
      "etnam": 7158,
      "adv": 7159,
      "gether": 7160,
      "health": 7161,
      "together": 7162,
      "lines": 7163,
      "rested": 7164,
      "reserves": 7165,
      "1300": 7166,
      "239": 7167,
      "uns": 7168,
      "CITEREFHarle": 7169,
      "CITEREFCraven1997": 7170,
      "176": 7171,
      "167": 7172,
      "402": 7173,
      "called": 7174,
      "agara": 7175,
      "281": 7176,
      "above": 7177,
      "ppines": 7178,
      "ods": 7179,
      "292": 7180,
      "ishes": 7181,
      "Armen": 7182,
      "ogamy": 7183,
      "452": 7184,
      "363": 7185,
      "461": 7186,
      "Maury": 7187,
      "parks": 7188,
      "7733": 7189,
      "prus": 7190,
      "Enforcement": 7191,
      "centre": 7192,
      "398": 7193,
      "Shri": 7194,
      "Thali": 7195,
      "Gukesh": 7196,
      "acher": 7197,
      "Rajya": 7198,
      "governments": 7199,
      "Fishing": 7200,
      "partly": 7201,
      "COVID": 7202,
      "Although": 7203,
      "Chandra": 7204,
      "967733": 7205,
      "tence": 7206,
      "ayanagara": 7207,
      "appa": 7208,
      "Vietnam": 7209,
      "express": 7210,
      "Wikivoyage": 7211,
      "impact": 7212,
      "Janata": 7213,
      "ample": 7214,
      "ampion": 7215,
      "Trust": 7216,
      "vert": 7217,
      "supp": 7218,
      "Nature": 7219,
      "Gujarati": 7220,
      "Dey": 7221,
      "Nepali": 7222,
      "crimin": 7223,
      "Police": 7224,
      "player": 7225,
      "Tradition": 7226,
      "Subraman": 7227,
      "Minority": 7228,
      "verse": 7229,
      "astrian": 7230,
      "crocod": 7231,
      "Akbar": 7232,
      "humans": 7233,
      "Blurton": 7234,
      "penins": 7235,
      "Calcut": 7236,
      "contribu": 7237,
      "Board": 7238,
      "Christianity": 7239,
      "Identi": 7240,
      "Studies": 7241,
      "FTY": 7242,
      "birth": 7243,
      "developed": 7244,
      "Syria": 7245,
      "Michell2000": 7246,
      "Molnar2015": 7247,
      "touchability": 7248,
      "NIFTY": 7249,
      "Mizoram": 7250,
      "Zealand": 7251,
      "following": 7252,
      "migration": 7253,
      "mountains": 7254,
      "liberalisation": 7255,
      "Cyprus": 7256,
      "sculpture": 7257,
      "approxim": 7258,
      "Vijayanagara": 7259,
      "Dommaraju": 7260,
      "Iraq": 7261,
      "getarian": 7262,
      "Philippines": 7263,
      "Aitchison": 7264,
      "Battle": 7265,
      "Bourbaki": 7266,
      "Cynthia": 7267,
      "Field": 7268,
      "Pylee": 7269,
      "Zoroastrian": 7270,
      "eaten": 7271,
      "mortality": 7272,
      "checked": 7273,
      "CITEREFHarle1994": 7274,
      "Calcutta": 7275,
      "1b": 7276,
      "228": 7277,
      "328": 7278,
      "520": 7279,
      "Bu": 7280,
      "Brown": 7281,
      "Des": 7282,
      "Droup": 7283,
      "Daman": 7284,
      "EB": 7285,
      "OF": 7286,
      "Rog": 7287,
      "Ser": 7288,
      "Sat": 7289,
      "Syn": 7290,
      "SAGE": 7291,
      "TS": 7292,
      "Tables": 7293,
      "Tourism": 7294,
      "WP": 7295,
      "Web": 7296,
      "ause": 7297,
      "c8": 7298,
      "court": 7299,
      "dna": 7300,
      "fer": 7301,
      "folk": 7302,
      "ium": 7303,
      "lc": 7304,
      "mem": 7305,
      "sex": 7306,
      "tter": 7307,
      "wan": 7308,
      "xx": 7309,
      "zon": 7310,
      "একা": 7311,
      "ঐতি": 7312,
      "কমি": 7313,
      "ডার": 7314,
      "ধ্রু": 7315,
      "ন্যা": 7316,
      "ব্রু": 7317,
      "ময়": 7318,
      "যদি": 7319,
      "হে": 7320,
      "ামান": 7321,
      "ীর": 7322,
      "ুগু": 7323,
      "্সিটি": 7324,
      "ndl": 7325,
      "increase": 7326,
      "til": 7327,
      "20A": 7328,
      "enumeration": 7329,
      "isni": 7330,
      "isource": 7331,
      "idence": 7332,
      "chang": 7333,
      "ভার্সিটি": 7334,
      "ently": 7335,
      "atter": 7336,
      "atab": 7337,
      "usion": 7338,
      "rition": 7339,
      "1007": 7340,
      "angam": 7341,
      "iles": 7342,
      "বিপ্": 7343,
      "252": 7344,
      "155": 7345,
      "505": 7346,
      "utrition": 7347,
      "27s": 7348,
      "undp": 7349,
      "909": 7350,
      "লেখা": 7351,
      "িত্": 7352,
      "463": 7353,
      "নায়": 7354,
      "487": 7355,
      "1968": 7356,
      "গ্রা": 7357,
      "দেশিক": 7358,
      "বেক্ষণ": 7359,
      "ডিও": 7360,
      "puri": 7361,
      "পরিবহ": 7362,
      "foreign": 7363,
      "however": 7364,
      "Present": 7365,
      "স্থিত": 7366,
      "uments": 7367,
      "traditions": 7368,
      "বৈদেশিক": 7369,
      "very": 7370,
      "শিখ": 7371,
      "struggle": 7372,
      "দ্বীপপু": 7373,
      "UNHD": 7374,
      "Manipuri": 7375,
      "Election": 7376,
      "yyyy": 7377,
      "parliamentofindia": 7378,
      "আরব": 7379,
      "আন্দামান": 7380,
      "constitutional": 7381,
      "Online": 7382,
      "viaf": 7383,
      "Volume": 7384,
      "PCA": 7385,
      "সূচ": 7386,
      "Diu": 7387,
      "tainment": 7388,
      "ক্ষেত্রে": 7389,
      "খ্রিস্ট": 7390,
      "তেলুগু": 7391,
      "স্থাপত্য": 7392,
      "বর্তমান": 7393,
      "idyana": 7394,
      "juris": 7395,
      "Tripura": 7396,
      "জৈন": 7397,
      "কলকাতা": 7398,
      "Murmu": 7399,
      "তত্ত্ব": 7400,
      "জিডিপি": 7401,
      "ইউনিভার্সিটি": 7402,
      "Droupadi": 7403,
      "dnaindia": 7404,
      "ঐতিহ": 7405,
      "ধ্রুপ": 7406,
      "বিপ্লব": 7407,
      "পরিবহন": 7408,
      "দ্বীপপুঞ্জ": 7409,
      "UNHDR": 7410,
      "4th": 7411,
      "430": 7412,
      "700": 7413,
      "Gaz": 7414,
      "IL": 7415,
      "Ken": 7416,
      "Rv": 7417,
      "Set": 7418,
      "Since": 7419,
      "dy": 7420,
      "words": 7421,
      "inindia": 7422,
      "thme": 7423,
      "reement": 7424,
      "thew": 7425,
      "icine": 7426,
      "1984": 7427,
      "child": 7428,
      "ective": 7429,
      "film": 7430,
      "ull": 7431,
      "There": 7432,
      "259": 7433,
      "CITEREFMetcalfMetcalf2012": 7434,
      "common": 7435,
      "188": 7436,
      "304": 7437,
      "309": 7438,
      "imals": 7439,
      "339": 7440,
      "435": 7441,
      "4593": 7442,
      "364": 7443,
      "383": 7444,
      "562": 7445,
      "row2003": 7446,
      "Peter": 7447,
      "AgAAQBAJ": 7448,
      "CON": 7449,
      "defence": 7450,
      "IAF": 7451,
      "Ministers": 7452,
      "laws": 7453,
      "Technology": 7454,
      "Defence": 7455,
      "adopted": 7456,
      "size": 7457,
      "thmetic": 7458,
      "341": 7459,
      "5th": 7460,
      "6th": 7461,
      "7th": 7462,
      "981": 7463,
      "Att": 7464,
      "Basp": 7465,
      "Border": 7466,
      "Bollywood": 7467,
      "Ci": 7468,
      "Che": 7469,
      "Cro": 7470,
      "Crested": 7471,
      "Dhy": 7472,
      "End": 7473,
      "Fa": 7474,
      "Four": 7475,
      "G4": 7476,
      "Gum": 7477,
      "HQ": 7478,
      "Hass": 7479,
      "Hote": 7480,
      "Iyer": 7481,
      "JS": 7482,
      "Jos": 7483,
      "Jim": 7484,
      "Ky": 7485,
      "Kha": 7486,
      "Kangra": 7487,
      "Lear": 7488,
      "Lord": 7489,
      "Mag": 7490,
      "Mall": 7491,
      "Make": 7492,
      "ND": 7493,
      "Nam": 7494,
      "Nav": 7495,
      "Operation": 7496,
      "PNG": 7497,
      "Qatar": 7498,
      "Range": 7499,
      "Raman": 7500,
      "Ratna": 7501,
      "Sach": 7502,
      "Sarkar": 7503,
      "Tung": 7504,
      "Uz": 7505,
      "URL": 7506,
      "What": 7507,
      "Yum": 7508,
      "bro": 7509,
      "border": 7510,
      "climate": 7511,
      "du": 7512,
      "dro": 7513,
      "dances": 7514,
      "desert": 7515,
      "eum": 7516,
      "eag": 7517,
      "elag": 7518,
      "fast": 7519,
      "fund": 7520,
      "gold": 7521,
      "hand": 7522,
      "kistan": 7523,
      "lurton": 7524,
      "mt": 7525,
      "marg": 7526,
      "nus": 7527,
      "oge": 7528,
      "ped": 7529,
      "pand": 7530,
      "pet": 7531,
      "pred": 7532,
      "qy": 7533,
      "rgy": 7534,
      "sk": 7535,
      "sun": 7536,
      "sister": 7537,
      "six": 7538,
      "tus": 7539,
      "uriti": 7540,
      "ujan": 7541,
      "vict": 7542,
      "wk": 7543,
      "won": 7544,
      "worth": 7545,
      "zed": 7546,
      "zstan": 7547,
      "ंटे": 7548,
      "ंमार": 7549,
      "अभ": 7550,
      "अंट": 7551,
      "अजं": 7552,
      "अलावा": 7553,
      "आग": 7554,
      "आया": 7555,
      "इरा": 7556,
      "इंदि": 7557,
      "इंट": 7558,
      "उल": 7559,
      "उज्": 7560,
      "ऋग्व": 7561,
      "एफ": 7562,
      "एयर": 7563,
      "एजें": 7564,
      "ऐतिहासिक": 7565,
      "ओस": 7566,
      "ओमान": 7567,
      "ओआई": 7568,
      "ओडिया": 7569,
      "औसत": 7570,
      "कप": 7571,
      "कर्म": 7572,
      "कमिल": 7573,
      "खर": 7574,
      "खान": 7575,
      "खगोल": 7576,
      "गल": 7577,
      "ग़": 7578,
      "घन": 7579,
      "चंप": 7580,
      "छा": 7581,
      "छो": 7582,
      "जग": 7583,
      "जॉ": 7584,
      "जाना": 7585,
      "जलो": 7586,
      "जहाँ": 7587,
      "झी": 7588,
      "ठन": 7589,
      "ठा": 7590,
      "ठार": 7591,
      "डोग": 7592,
      "णे": 7593,
      "तः": 7594,
      "थु": 7595,
      "दों": 7596,
      "द्रा": 7597,
      "दारी": 7598,
      "धता": 7599,
      "धोला": 7600,
      "नम": 7601,
      "नार": 7602,
      "पत्र": 7603,
      "पदी": 7604,
      "पड़ो": 7605,
      "पठार": 7606,
      "बु": 7607,
      "बलि": 7608,
      "बहरी": 7609,
      "बन्ध": 7610,
      "भर": 7611,
      "भरा": 7612,
      "भरत": 7613,
      "मना": 7614,
      "मपु": 7615,
      "मंग": 7616,
      "म्या": 7617,
      "मथु": 7618,
      "यण": 7619,
      "यल": 7620,
      "यमु": 7621,
      "यमन": 7622,
      "रिक": 7623,
      "रजवा": 7624,
      "लौ": 7625,
      "लद्": 7626,
      "वान": 7627,
      "वरण": 7628,
      "शल": 7629,
      "सौ": 7630,
      "ह्": 7631,
      "हम्": 7632,
      "िक्ष": 7633,
      "ुष": 7634,
      "ूदी": 7635,
      "ोबार": 7636,
      "ौपदी": 7637,
      "१०": 7638,
      "१३": 7639,
      "१६": 7640,
      "२४": 7641,
      "४०": 7642,
      "অতি": 7643,
      "উরি": 7644,
      "এছ": 7645,
      "এপ্র": 7646,
      "এটি": 7647,
      "কম": 7648,
      "খাল": 7649,
      "জম্": 7650,
      "ঠা": 7651,
      "থর": 7652,
      "দিক": 7653,
      "দারি": 7654,
      "নক": 7655,
      "নরে": 7656,
      "পতা": 7657,
      "পঞ্চ": 7658,
      "বৌ": 7659,
      "বরা": 7660,
      "ভুট": 7661,
      "মের": 7662,
      "মারা": 7663,
      "লিক": 7664,
      "ষি": 7665,
      "সর্": 7666,
      "াড়া": 7667,
      "াবেক্ষণ": 7668,
      "িতা": 7669,
      "েল": 7670,
      "েয়": 7671,
      "োষ": 7672,
      "৫৪": 7673,
      "అర": 7674,
      "అక్ష": 7675,
      "అరే": 7676,
      "అభి": 7677,
      "అశో": 7678,
      "అండమా": 7679,
      "ఆధ": 7680,
      "ఇంట": 7681,
      "ఉంట": 7682,
      "ఎక్": 7683,
      "ఏప్ర": 7684,
      "కల": 7685,
      "కలు": 7686,
      "కర్య": 7687,
      "కబడ్": 7688,
      "ఖో": 7689,
      "గే": 7690,
      "గర్": 7691,
      "చద": 7692,
      "చో": 7693,
      "చండ": 7694,
      "జం": 7695,
      "జయ": 7696,
      "టై": 7697,
      "టర్": 7698,
      "డమ్": 7699,
      "డయ్య": 7700,
      "డఖ్": 7701,
      "ణే": 7702,
      "ణంగా": 7703,
      "నంద": 7704,
      "నడి": 7705,
      "నంలో": 7706,
      "పత": 7707,
      "పచ్": 7708,
      "బో": 7709,
      "బర్": 7710,
      "బంధ": 7711,
      "మో": 7712,
      "మాలు": 7713,
      "మలే": 7714,
      "యె": 7715,
      "రళ": 7716,
      "లాం": 7717,
      "లంగా": 7718,
      "లడఖ్": 7719,
      "ళా": 7720,
      "ళి": 7721,
      "వారి": 7722,
      "వనాలు": 7723,
      "శి": 7724,
      "శు": 7725,
      "షియా": 7726,
      "సహ": 7727,
      "సే": 7728,
      "సత్య": 7729,
      "హొ": 7730,
      "హవే": 7731,
      "హర్యా": 7732,
      "ైస్త": 7733,
      "thang": 7734,
      "thomas": 7735,
      "erce": 7736,
      "orn": 7737,
      "anasi": 7738,
      "ally": 7739,
      "alwar": 7740,
      "ened": 7741,
      "enac": 7742,
      "eded": 7743,
      "edary": 7744,
      "omedary": 7745,
      "andoor": 7746,
      "tpura": 7747,
      "idget": 7748,
      "1948": 7749,
      "1901": 7750,
      "cher": 7751,
      "char": 7752,
      "nold": 7753,
      "केवल": 7754,
      "్రి": 7755,
      "rata": 7756,
      "रामा": 7757,
      "रात्रि": 7758,
      "राधा": 7759,
      "राइल": 7760,
      "compan": 7761,
      "मेर": 7762,
      "ush": 7763,
      "riya": 7764,
      "ानु": 7765,
      "र्न": 7766,
      "र्मू": 7767,
      "स्तिक": 7768,
      "10th": 7769,
      "कामा": 7770,
      "काशी": 7771,
      "েরি": 7772,
      "্যার": 7773,
      "acus": 7774,
      "acter": 7775,
      "fil": 7776,
      "urther": 7777,
      "क्ट": 7778,
      "ాలయ": 7779,
      "ాలె": 7780,
      "ాలను": 7781,
      "याँ": 7782,
      "यां": 7783,
      "यास": 7784,
      "FOOTNOTELudden2014": 7785,
      "FOOTNOTEWright2010": 7786,
      "ilt": 7787,
      "प्रत्य": 7788,
      "प्रभु": 7789,
      "प्रयास": 7790,
      "विरो": 7791,
      "roban": 7792,
      "atel": 7793,
      "তিতে": 7794,
      "तिरु": 7795,
      "तिमोर": 7796,
      "नास्तिक": 7797,
      "సామా": 7798,
      "বিস্ত": 7799,
      "क्षम": 7800,
      "indus": 7801,
      "indigenous": 7802,
      "लाओस": 7803,
      "साँची": 7804,
      "ర్ణం": 7805,
      "ర్చు": 7806,
      "Sport": 7807,
      "Inter": 7808,
      "Income": 7809,
      "ेशिय": 7810,
      "ताम": 7811,
      "1320": 7812,
      "CITEREFRobb": 7813,
      "CITEREFDikshitSchwartzberg2023": 7814,
      "CITEREFLudden2014": 7815,
      "iris": 7816,
      "everal": 7817,
      "पुदु": 7818,
      "17th": 7819,
      "17feb": 7820,
      "hawk": 7821,
      "1858": 7822,
      "aya": 7823,
      "రాం": 7824,
      "రాస్య": 7825,
      "ప్రజా": 7826,
      "svara": 7827,
      "সাবে": 7828,
      "Chur": 7829,
      "agog": 7830,
      "agran": 7831,
      "eling": 7832,
      "প্রেস": 7833,
      "భారతదేశపు": 7834,
      "భారతదేశానికి": 7835,
      "eping": 7836,
      "లోని": 7837,
      "कोष": 7838,
      "त्मा": 7839,
      "राज्यसभा": 7840,
      "राज्यक्षेत्रों": 7841,
      "Southern": 7842,
      "Southwest": 7843,
      "abhad": 7844,
      "मात्र": 7845,
      "నికోబ": 7846,
      "सिल": 7847,
      "सिस": 7848,
      "सियों": 7849,
      "हिस्": 7850,
      "293": 7851,
      "সংক্রা": 7852,
      "वासी": 7853,
      "वागढ़": 7854,
      "ంగో": 7855,
      "AAAAMAAJ": 7856,
      "चीनी": 7857,
      "पाँच": 7858,
      "पाइन": 7859,
      "पावागढ़": 7860,
      "bekistan": 7861,
      "shis": 7862,
      "समर्थ": 7863,
      "ండా": 7864,
      "ండ్య": 7865,
      "ष्ट्रीय": 7866,
      "271": 7867,
      "करते": 7868,
      "సింది": 7869,
      "avoor": 7870,
      "निम्": 7871,
      "नियों": 7872,
      "తాజ్": 7873,
      "నాథ": 7874,
      "వివిధ": 7875,
      "তাজ": 7876,
      "जनसां": 7877,
      "जनपद": 7878,
      "लीपी": 7879,
      "percent": 7880,
      "ained": 7881,
      "ikistan": 7882,
      "बाग": 7883,
      "త్తీ": 7884,
      "मिन": 7885,
      "मिला": 7886,
      "मित्व": 7887,
      "200709": 7888,
      "तीन": 7889,
      "905": 7890,
      "earliest": 7891,
      "assam": 7892,
      "476": 7893,
      "కుల": 7894,
      "కుంట": 7895,
      "ically": 7896,
      "मुद्रा": 7897,
      "मुर्मू": 7898,
      "phan": 7899,
      "मी2": 7900,
      "ম্বই": 7901,
      "Reuters": 7902,
      "temper": 7903,
      "sey": 7904,
      "माना": 7905,
      "मानचित्र": 7906,
      "Archae": 7907,
      "titutes": 7908,
      "366": 7909,
      "367": 7910,
      "प्रदेशों": 7911,
      "িতে": 7912,
      "Mathura": 7913,
      "పూర్వ": 7914,
      "వాదం": 7915,
      "ికీ": 7916,
      "్రామ": 7917,
      "irelease": 7918,
      "नीताल": 7919,
      "మాత్ర": 7920,
      "মাধ্য": 7921,
      "partition": 7922,
      "म्बर": 7923,
      "म्ब्रि": 7924,
      "భాగం": 7925,
      "manuscript": 7926,
      "ট্রফি": 7927,
      "নিজ": 7928,
      "হিসাবে": 7929,
      "సంప్రదా": 7930,
      "565": 7931,
      "Anand": 7932,
      "కాతా": 7933,
      "টেলি": 7934,
      "्राष्ट्रीय": 7935,
      "aijan": 7936,
      "লিং": 7937,
      "కిం": 7938,
      "కింగ్": 7939,
      "పాండి": 7940,
      "పాండ్య": 7941,
      "miling": 7942,
      "कृष्ण": 7943,
      "పుర": 7944,
      "స్థా": 7945,
      "Shrav": 7946,
      "১৯৮": 7947,
      "న్నై": 7948,
      "1208": 7949,
      "nathura": 7950,
      "देखा": 7951,
      "देहरा": 7952,
      "धर्मनिरपेक्ष": 7953,
      "द्यनाथ": 7954,
      "पीएम": 7955,
      "होली": 7956,
      "होते": 7957,
      "गणित": 7958,
      "display": 7959,
      "discrimin": 7960,
      "formed": 7961,
      "Delta": 7962,
      "रेखा": 7963,
      "consum": 7964,
      "ghat": 7965,
      "महाबलि": 7966,
      "महात्मा": 7967,
      "महाजनपद": 7968,
      "कुवै": 7969,
      "Chinnathura": 7970,
      "संघर्ष": 7971,
      "इसकी": 7972,
      "ज्जि": 7973,
      "वीरा": 7974,
      "economics": 7975,
      "domin": 7976,
      "Prosp": 7977,
      "జిల్": 7978,
      "तकनी": 7979,
      "दाबाद": 7980,
      "కేరళ": 7981,
      "గుప్": 7982,
      "स्थानीय": 7983,
      "ब्रह्": 7984,
      "ুরো": 7985,
      "లియా": 7986,
      "वनेश्वर": 7987,
      "वनवर्ल्ड": 7988,
      "स्वरूप": 7989,
      "सूचियाँ": 7990,
      "१९६": 7991,
      "१९५०": 7992,
      "institution": 7993,
      "तुर्": 7994,
      "intro": 7995,
      "चलचित्र": 7996,
      "मैकमिल": 7997,
      "hindirelease": 7998,
      "Regions": 7999,
      "तटरक्ष": 8000,
      "చేయ": 8001,
      "मालिया": 8002,
      "ব্যুরো": 8003,
      "దాద్రా": 8004,
      "elections": 8005,
      "Colonial": 8006,
      "వేగంగా": 8007,
      "आईडी": 8008,
      "यहूदी": 8009,
      "সমতা": 8010,
      "बंगलोर": 8011,
      "অঞ্চলসমূহ": 8012,
      "করতে": 8013,
      "च्चेरी": 8014,
      "twater": 8015,
      "दून": 8016,
      "చెన్నై": 8017,
      "జీరియా": 8018,
      "ప్పట": 8019,
      "మేన": 8020,
      "యుగం": 8021,
      "संगठन": 8022,
      "Palghat": 8023,
      "bett": 8024,
      "otechnology": 8025,
      "गोवा": 8026,
      "Alla": 8027,
      "hoti": 8028,
      "মুম্বই": 8029,
      "Arabian": 8030,
      "टेली": 8031,
      "কোটি": 8032,
      "జనతా": 8033,
      "జనగణ": 8034,
      "జనపద": 8035,
      "akhstan": 8036,
      "মালদ্বীপ": 8037,
      "डीओआई": 8038,
      "वैद्यनाथ": 8039,
      "মহাকাশ": 8040,
      "బియా": 8041,
      "Presid": 8042,
      "FOOTNOTEStein2010118": 8043,
      "क्रय": 8044,
      "మొగలు": 8045,
      "Bhute": 8046,
      "menistan": 8047,
      "Ramnam": 8048,
      "కొరియా": 8049,
      "एसएन": 8050,
      "rency": 8051,
      "defe": 8052,
      "leader": 8053,
      "Bridget": 8054,
      "बोडिया": 8055,
      "मार्शल": 8056,
      "support": 8057,
      "గోళ": 8058,
      "గోవా": 8059,
      "గోదా": 8060,
      "డామన్": 8061,
      "निर्धन": 8062,
      "వరాలు": 8063,
      "ప్రపంచము": 8064,
      "ప్రపంచంలో": 8065,
      "producer": 8066,
      "production": 8067,
      "FOOTNOTEStein1998119": 8068,
      "tigris": 8069,
      "Museum": 8070,
      "త్రిపుర": 8071,
      "Acad": 8072,
      "Tajikistan": 8073,
      "देवनाग": 8074,
      "देवघर": 8075,
      "సంస్కృతం": 8076,
      "वायुसेना": 8077,
      "টাই": 8078,
      "FOOTNOTEBlurton": 8079,
      "Satpura": 8080,
      "tripura": 8081,
      "अमर": 8082,
      "పించ": 8083,
      "संसदीय": 8084,
      "index1": 8085,
      "built": 8086,
      "सोम": 8087,
      "सोवियत": 8088,
      "सोमालिया": 8089,
      "सफल": 8090,
      "অবস্থিত": 8091,
      "ानेर": 8092,
      "నాగాలా": 8093,
      "महासागरीय": 8094,
      "FOOTNOTEKulkeRothermund2016": 8095,
      "पारसी": 8096,
      "भोपाल": 8097,
      "క్రైస్త": 8098,
      "తెలంగా": 8099,
      "संबंधी": 8100,
      "মোদী": 8101,
      "Himalaya": 8102,
      "दशहरा": 8103,
      "नवरात्रि": 8104,
      "बनाने": 8105,
      "వెను": 8106,
      "సాంకే": 8107,
      "Atlas": 8108,
      "Earth": 8109,
      "ফোর্স": 8110,
      "मौर्य": 8111,
      "jolad": 8112,
      "अल्प": 8113,
      "अल्पाइन": 8114,
      "कन्नड": 8115,
      "భిన్న": 8116,
      "तेलुगु": 8117,
      "నేషియా": 8118,
      "स्थापना": 8119,
      "२००४": 8120,
      "Corbett": 8121,
      "ব্যাঙ্ক": 8122,
      "directly": 8123,
      "Perform": 8124,
      "निकोबार": 8125,
      "রক্ষণাবেক্ষণ": 8126,
      "Democratic": 8127,
      "agarwal": 8128,
      "शहरों": 8129,
      "নিয়ন্ত্র": 8130,
      "ఒకటి": 8131,
      "दिवाली": 8132,
      "इस्लामी": 8133,
      "Sindoor": 8134,
      "Varanasi": 8135,
      "కళలు": 8136,
      "సైనిక": 8137,
      "स्वामित्व": 8138,
      "FOOTNOTEHarle1994": 8139,
      "FOOTNOTESpear1990243": 8140,
      "Saltwater": 8141,
      "Thomason": 8142,
      "Bahrain": 8143,
      "Summer": 8144,
      "cultures": 8145,
      "Kuwa": 8146,
      "पटना": 8147,
      "राजधानियाँ": 8148,
      "अन्तर्राष्ट्रीय": 8149,
      "బ్రిటిష్": 8150,
      "Sangla": 8151,
      "Vaidyana": 8152,
      "taphry": 8153,
      "taproban": 8154,
      "জাতিসংঘ": 8155,
      "FrontView": 8156,
      "having": 8157,
      "जंघा": 8158,
      "কর্তৃ": 8159,
      "స్వతం": 8160,
      "ముఖ్యమైన": 8161,
      "सहायता": 8162,
      "atistics": 8163,
      "Samaj": 8164,
      "bellion": 8165,
      "कंचन": 8166,
      "क़तर": 8167,
      "कैम्ब्रि": 8168,
      "भुवनेश्वर": 8169,
      "లక్షద్వీ": 8170,
      "वियतनाम": 8171,
      "దేశంలోని": 8172,
      "पीपीपी": 8173,
      "Turkmenistan": 8174,
      "नैनीताल": 8175,
      "సమరం": 8176,
      "సూచి": 8177,
      "ान्मार": 8178,
      "जिनमें": 8179,
      "अमरीका": 8180,
      "पब्लिकेश": 8181,
      "Yakshis": 8182,
      "Havelock": 8183,
      "publications": 8184,
      "অধি": 8185,
      "গঠন": 8186,
      "পোশা": 8187,
      "FOOTNOTESharma2007": 8188,
      "ख्यिकी": 8189,
      "द्रौपदी": 8190,
      "पहाड़ी": 8191,
      "అస్సాం": 8192,
      "సారస్వతం": 8193,
      "नियंत्र": 8194,
      "Blackwell": 8195,
      "Duttaphry": 8196,
      "Insurance": 8197,
      "Madrasah": 8198,
      "সমাজ": 8199,
      "Copland2001": 8200,
      "अफ़्रीका": 8201,
      "अहमदाबाद": 8202,
      "उदयपुर": 8203,
      "జార్ఖండ్": 8204,
      "మహల్": 8205,
      "సౌకర్య": 8206,
      "CITEREFAsherTalbot2006": 8207,
      "hagwat": 8208,
      "थाईलैंड": 8209,
      "సిక్కిం": 8210,
      "সেনাবাহিনী": 8211,
      "మిజోరాం": 8212,
      "महानगर": 8213,
      "रुपया": 8214,
      "आईएसएसएन": 8215,
      "FOOTNOTEHarle19943": 8216,
      "స్టాక్": 8217,
      "తరువాత": 8218,
      "does": 8219,
      "উল্লেখযোগ্য": 8220,
      "Azerb": 8221,
      "Gateway": 8222,
      "Mongolia": 8223,
      "diction": 8224,
      "practices": 8225,
      "ridangam": 8226,
      "Sanchi2": 8227,
      "Olympics": 8228,
      "gadiverse": 8229,
      "সীমা": 8230,
      "ఏర్ప": 8231,
      "కనుమలు": 8232,
      "మణిపూర్": 8233,
      "lizard": 8234,
      "प्रभाव": 8235,
      "प्रवेशद्वार": 8236,
      "साइप्रस": 8237,
      "టిబెట్": 8238,
      "নির্ভরশীল": 8239,
      "వారసత్వ": 8240,
      "Kazakhstan": 8241,
      "Nilgiris": 8242,
      "সিকিউরি": 8243,
      "FOOTNOTEAsherTalbot2022": 8244,
      "profiles": 8245,
      "InfosysHQ": 8246,
      "इजरायल": 8247,
      "नदियाँ": 8248,
      "म्यान्मार": 8249,
      "సహాయం": 8250,
      "संरक्षित": 8251,
      "HarperCollins": 8252,
      "ConinghamYoung": 8253,
      "మేఘాలయ": 8254,
      "दृष्टि": 8255,
      "అమెరికా": 8256,
      "Falls": 8257,
      "Kadavoor": 8258,
      "anabelag": 8259,
      "Armenia": 8260,
      "Subramaniam": 8261,
      "crocodile": 8262,
      "peninsular": 8263,
      "approximately": 8264,
      "EBchecked": 8265,
      "Synagog": 8266,
      "একাধিক": 8267,
      "যদিও": 8268,
      "Attacus": 8269,
      "Baspa": 8270,
      "Dhyan": 8271,
      "Gumpa": 8272,
      "Hassan": 8273,
      "Hotel": 8274,
      "Kyrgy": 8275,
      "Learning": 8276,
      "Magen": 8277,
      "Mallalli": 8278,
      "Ramanujan": 8279,
      "Sachin": 8280,
      "Tungabhad": 8281,
      "Uzbekistan": 8282,
      "Yumthang": 8283,
      "eagle": 8284,
      "pandemic": 8285,
      "sunbird": 8286,
      "अंटार्कटिका": 8287,
      "अजंता": 8288,
      "इराक़": 8289,
      "इंदिरा": 8290,
      "इंटर": 8291,
      "उज्जैन": 8292,
      "ऋग्वेद": 8293,
      "खानपान": 8294,
      "खगोलशास्त्र": 8295,
      "घनत्व": 8296,
      "चंपानेर": 8297,
      "छोटे": 8298,
      "जलोढ़": 8299,
      "डोगरी": 8300,
      "धोलावीरा": 8301,
      "पड़ोसी": 8302,
      "बहरीन": 8303,
      "मपुत्र": 8304,
      "मंगोल": 8305,
      "म्यांमार": 8306,
      "मथुरा": 8307,
      "रजवाड़े": 8308,
      "लद्दाख": 8309,
      "हम्पी": 8310,
      "এছাড়া": 8311,
      "এপ্রিল": 8312,
      "জম্মু": 8313,
      "নরেন্দ্র": 8314,
      "পতাকা": 8315,
      "বৌদ্ধ": 8316,
      "ভুটান": 8317,
      "সর্বা": 8318,
      "అరేబియా": 8319,
      "అండమాన్": 8320,
      "ఎక్స్": 8321,
      "ఏప్రిల్": 8322,
      "కబడ్డీ": 8323,
      "చదరంగ": 8324,
      "చోళ": 8325,
      "చండీ": 8326,
      "డయ్యూ": 8327,
      "పచ్చ": 8328,
      "మలేషియా": 8329,
      "హవేలీ": 8330,
      "హర్యానా": 8331,
      "thomason": 8332,
      "रामायण": 8333,
      "राधाकृष्ण": 8334,
      "कामाख्या": 8335,
      "तिरुवन": 8336,
      "नास्तिकता": 8337,
      "पुदुच्चेरी": 8338,
      "17feb14": 8339,
      "రాస్యత": 8340,
      "నికోబార్": 8341,
      "समर्थन": 8342,
      "जनसांख्यिकी": 8343,
      "త్తీస్": 8344,
      "పాండిచ్చేరి": 8345,
      "Shravanabelag": 8346,
      "देहरादून": 8347,
      "पीएमआईडी": 8348,
      "महाबलिपुरम": 8349,
      "कुवैत": 8350,
      "Chinnathurai": 8351,
      "Prospects": 8352,
      "ब्रह्मपुत्र": 8353,
      "मैकमिलन": 8354,
      "तटरक्षक": 8355,
      "జనపదాలు": 8356,
      "Bhutesvara": 8357,
      "Ramnami": 8358,
      "निर्धनता": 8359,
      "देवनागरी": 8360,
      "నాగాలాండ్": 8361,
      "తెలంగాణ": 8362,
      "Kuwait": 8363,
      "Vaidyanathan": 8364,
      "taprobanis": 8365,
      "कंचनजंघा": 8366,
      "कैम्ब्रिज": 8367,
      "లక్షద్వీప్": 8368,
      "पब्लिकेशन्स": 8369,
      "Duttaphrynus": 8370,
      "Azerbaijan": 8371,
      "সিকিউরিটি": 8372,
      "InfosysHQFrontView": 8373,
      "ConinghamYoung2015": 8374,
      "Synagogue": 8375,
      "Kyrgyzstan": 8376,
      "Tungabhadra": 8377,
      "राधाकृष्णन": 8378,
      "Shravanabelagola": 8379,
      "370": 8380,
      "426": 8381,
      "900": 8382,
      "Cos": 8383,
      "Dig": 8384,
      "Found": 8385,
      "Gan": 8386,
      "Ka": 8387,
      "LD": 8388,
      "Long": 8389,
      "Ph": 8390,
      "Pose": 8391,
      "Ver": 8392,
      "XV": 8393,
      "YC": 8394,
      "dens": 8395,
      "freedom": 8396,
      "forge": 8397,
      "give": 8398,
      "ip": 8399,
      "iis": 8400,
      "iper": 8401,
      "ny": 8402,
      "nutrition": 8403,
      "post": 8404,
      "portal": 8405,
      "sang": 8406,
      "ster": 8407,
      "tool": 8408,
      "wAAQBAJ": 8409,
      "team": 8410,
      "tect": 8411,
      "ints": 8412,
      "207": 8413,
      "omic": 8414,
      "itte": 8415,
      "itals": 8416,
      "che": 8417,
      "chasing": 8418,
      "Space": 8419,
      "makes": 8420,
      "268": 8421,
      "249": 8422,
      "udget": 8423,
      "harv": 8424,
      "ension": 8425,
      "ika": 8426,
      "ota": 8427,
      "470": 8428,
      "465": 8429,
      "parity": 8430,
      "marriage": 8431,
      "Anth": 8432,
      "37545": 8433,
      "regard": 8434,
      "elect": 8435,
      "quest": 8436,
      "Life": 8437,
      "Geographical": 8438,
      "Alan": 8439,
      "because": 8440,
      "southern": 8441,
      "13537545": 8442,
      "linguistic": 8443,
      "Flora": 8444,
      "Medora": 8445,
      "tropical": 8446,
      "Americana": 8447,
      "full": 8448,
      "Kuiper": 8449,
      "info": 8450,
      "Rao": 8451,
      "Discover": 8452,
      "Network": 8453,
      "Neuborne2003": 8454,
      "abinet": 8455,
      "written": 8456,
      "Area": 8457,
      "Handbook": 8458,
      "Roger": 8459,
      "Posey": 8460,
      "iisc": 8461,
      "toolforge": 8462,
      "135375457": 8463,
      "512": 8464,
      "9F": 8465,
      "DD": 8466,
      "Fif": 8467,
      "Freedom": 8468,
      "LS": 8469,
      "Media": 8470,
      "NGD": 8471,
      "Ros": 8472,
      "Sher": 8473,
      "Sukh": 8474,
      "W00": 8475,
      "XLS": 8476,
      "boo": 8477,
      "borders": 8478,
      "ging": 8479,
      "ius": 8480,
      "jana": 8481,
      "live": 8482,
      "llion": 8483,
      "mana": 8484,
      "olog": 8485,
      "tats": 8486,
      "vens": 8487,
      "আজ": 8488,
      "আসাম": 8489,
      "উড": 8490,
      "এম": 8491,
      "এক্স": 8492,
      "কিল": 8493,
      "কন্ন": 8494,
      "খন": 8495,
      "খর": 8496,
      "গানি": 8497,
      "ঘা": 8498,
      "ডলার": 8499,
      "দিকে": 8500,
      "ধর": 8501,
      "নৌ": 8502,
      "নয়": 8503,
      "ফ্রা": 8504,
      "ভিত্": 8505,
      "রণ": 8506,
      "সভ্য": 8507,
      "হর": 8508,
      "হকি": 8509,
      "৩৩": 8510,
      "৩৪": 8511,
      "৩৫": 8512,
      "৫৫": 8513,
      "৬৫": 8514,
      "tel": 8515,
      "those": 8516,
      "erated": 8517,
      "20MD": 8518,
      "ald": 8519,
      "্রো": 8520,
      "ents": 8521,
      "amang": 8522,
      "usel": 8523,
      "weo": 8524,
      "ন্ট্র": 8525,
      "র্থ": 8526,
      "234": 8527,
      "CITEREFWolpert2003": 8528,
      "ক্লো": 8529,
      "স্মাই": 8530,
      "246": 8531,
      "Char": 8532,
      "প্রিয়": 8533,
      "প্রথা": 8534,
      "প্রস্ত": 8535,
      "ably": 8536,
      "307": 8537,
      "২০২১": 8538,
      "ogo": 8539,
      "Stevens": 8540,
      "less": 8541,
      "মাথা": 8542,
      "২০০৪": 8543,
      "হিসে": 8544,
      "4985": 8545,
      "Anthem": 8546,
      "জনপরিসংখ্যান": 8547,
      "জনপ্রিয়": 8548,
      "aith": 8549,
      "উৎপাদ": 8550,
      "ঙ্গা": 8551,
      "873": 8552,
      "সিস": 8553,
      "INR": 8554,
      "news18": 8555,
      "Internet": 8556,
      "২০১৩": 8557,
      "২০১৮": 8558,
      "ribution": 8559,
      "684": 8560,
      "Companion": 8561,
      "করেছে": 8562,
      "গণতান্ত্রিক": 8563,
      "মহাসাগর": 8564,
      "বিশ্বকাপ": 8565,
      "IAEXT": 8566,
      "TRI": 8567,
      "trillion": 8568,
      "যাত্র": 8569,
      "যোগিতা": 8570,
      "যুক্তরাজ্য": 8571,
      "Twenty": 8572,
      "চেঞ্জ": 8573,
      "NAL": 8574,
      "Heritage": 8575,
      "20833": 8576,
      "পূর্ণ": 8577,
      "LCCN": 8578,
      "script": 8579,
      "আফগানি": 8580,
      "Sites": 8581,
      "Survey": 8582,
      "61389": 8583,
      "while": 8584,
      "figures": 8585,
      "pmc": 8586,
      "প্রশাসনিক": 8587,
      "পরিষদ": 8588,
      "federal": 8589,
      "পার্টি": 8590,
      "পরীক্ষা": 8591,
      "অধিকার": 8592,
      "jurisdiction": 8593,
      "ঐতিহ্য": 8594,
      "নিয়ন্ত্রণ": 8595,
      "DDW00": 8596,
      "NGDPD": 8597,
      "Sukhoi": 8598,
      "tatsama": 8599,
      "এক্সচেঞ্জ": 8600,
      "কন্নড়": 8601,
      "ঘাট": 8602,
      "20MDDS": 8603,
      "uselang": 8604,
      "স্মাইলিং": 8605,
      "498576": 8606,
      "উৎপাদন": 8607,
      "আফগানিস্তান": 8608,
      "DDW00C": 8609,
      "010": 8610,
      "0266": 8611,
      "217": 8612,
      "315": 8613,
      "327": 8614,
      "346": 8615,
      "414": 8616,
      "490": 8617,
      "5562": 8618,
      "7j": 8619,
      "953": 8620,
      "Acha": 8621,
      "BT": 8622,
      "Ban": 8623,
      "Bay": 8624,
      "Dra": 8625,
      "During": 8626,
      "EAS": 8627,
      "Far": 8628,
      "Gav": 8629,
      "Im": 8630,
      "Ir": 8631,
      "James": 8632,
      "Lal": 8633,
      "Lat": 8634,
      "Lower": 8635,
      "Mas": 8636,
      "PO": 8637,
      "Put": 8638,
      "Phy": 8639,
      "Rem": 8640,
      "SO": 8641,
      "Sha": 8642,
      "Smi": 8643,
      "Stock": 8644,
      "Tro": 8645,
      "Treat": 8646,
      "Ud": 8647,
      "Upper": 8648,
      "Vict": 8649,
      "YM": 8650,
      "Y7j": 8651,
      "buc": 8652,
      "black": 8653,
      "did": 8654,
      "dev": 8655,
      "due": 8656,
      "down": 8657,
      "eld": 8658,
      "each": 8659,
      "f5": 8660,
      "further": 8661,
      "ga": 8662,
      "ger": 8663,
      "globe": 8664,
      "hon": 8665,
      "home": 8666,
      "ming": 8667,
      "mone": 8668,
      "much": 8669,
      "multi": 8670,
      "near": 8671,
      "n8012": 8672,
      "pers": 8673,
      "pani": 8674,
      "q9": 8675,
      "rivers": 8676,
      "ski": 8677,
      "sour": 8678,
      "same": 8679,
      "stock": 8680,
      "success": 8681,
      "tak": 8682,
      "vo": 8683,
      "vest": 8684,
      "wl": 8685,
      "worship": 8686,
      "yles": 8687,
      "inage": 8688,
      "onze": 8689,
      "rev": 8690,
      "reate": 8691,
      "rease": 8692,
      "review": 8693,
      "tiles": 8694,
      "ticip": 8695,
      "erc": 8696,
      "oration": 8697,
      "204": 8698,
      "20250": 8699,
      "energy": 8700,
      "istent": 8701,
      "cide": 8702,
      "theory": 8703,
      "oman": 8704,
      "outs": 8705,
      "20120": 8706,
      "champion": 8707,
      "ools": 8708,
      "ings": 8709,
      "eton": 8710,
      "etric": 8711,
      "etah": 8712,
      "using": 8713,
      "ricity": 8714,
      "ge129": 8715,
      "lie": 8716,
      "lif": 8717,
      "urned": 8718,
      "ially": 8719,
      "cend": 8720,
      "Asho": 8721,
      "ems": 8722,
      "00254": 8723,
      "256": 8724,
      "Inves": 8725,
      "13th": 8726,
      "ophy": 8727,
      "unach": 8728,
      "ever": 8729,
      "177": 8730,
      "264": 8731,
      "1649": 8732,
      "Untouchability": 8733,
      "189": 8734,
      "18th": 8735,
      "1847": 8736,
      "tuber": 8737,
      "ays": 8738,
      "Change": 8739,
      "conquest": 8740,
      "404": 8741,
      "again": 8742,
      "erner": 8743,
      "Artic": 8744,
      "Arunach": 8745,
      "uting": 8746,
      "ucture": 8747,
      "272": 8748,
      "277": 8749,
      "2755": 8750,
      "Harmand": 8751,
      "PA76": 8752,
      "without": 8753,
      "ortant": 8754,
      "336": 8755,
      "ysical": 8756,
      "what": 8757,
      "pend": 8758,
      "empire": 8759,
      "Mahat": 8760,
      "Economist": 8761,
      "prob": 8762,
      "ender": 8763,
      "aipur": 8764,
      "397": 8765,
      "373": 8766,
      "375": 8767,
      "5948": 8768,
      "Guide": 8769,
      "liam": 8770,
      "Govern": 8771,
      "53203": 8772,
      "tically": 8773,
      "Scheduled": 8774,
      "domain": 8775,
      "limited": 8776,
      "coal": 8777,
      "Princ": 8778,
      "Among": 8779,
      "Ambed": 8780,
      "portion": 8781,
      "Liber": 8782,
      "grave": 8783,
      "Marshall": 8784,
      "antra": 8785,
      "forests": 8786,
      "Geological": 8787,
      "medieval": 8788,
      "lsC": 8789,
      "Palgrave": 8790,
      "share": 8791,
      "hots": 8792,
      "appear": 8793,
      "spee": 8794,
      "ify": 8795,
      "Sripati": 8796,
      "leading": 8797,
      "Monitor": 8798,
      "surround": 8799,
      "survey": 8800,
      "tigation": 8801,
      "News18": 8802,
      "basin": 8803,
      "Sahib": 8804,
      "12410": 8805,
      "background": 8806,
      "plant": 8807,
      "disputed": 8808,
      "risis": 8809,
      "grew": 8810,
      "Plain": 8811,
      "Lake": 8812,
      "losophy": 8813,
      "Islamic": 8814,
      "Protected": 8815,
      "humil": 8816,
      "Blue": 8817,
      "arlic": 8818,
      "wards": 8819,
      "integration": 8820,
      "recogni": 8821,
      "legislative": 8822,
      "Lowe": 8823,
      "Local": 8824,
      "cooking": 8825,
      "organisation": 8826,
      "existence": 8827,
      "influences": 8828,
      "influenced": 8829,
      "AliAitchison": 8830,
      "Ifqy": 8831,
      "conflicts": 8832,
      "board": 8833,
      "garment": 8834,
      "reliefs": 8835,
      "democracy": 8836,
      "finance": 8837,
      "moist": 8838,
      "Bomb": 8839,
      "Duff": 8840,
      "Toda": 8841,
      "William": 8842,
      "rigonometry": 8843,
      "Pallava": 8844,
      "astronomy": 8845,
      "martial": 8846,
      "Chandramouli2011": 8847,
      "mjIfqy": 8848,
      "significant": 8849,
      "Aravalli": 8850,
      "Major": 8851,
      "Mauryan": 8852,
      "Traditional": 8853,
      "45932": 8854,
      "Fauna": 8855,
      "fundamental": 8856,
      "sky": 8857,
      "atellite": 8858,
      "CITEREFRobb2011": 8859,
      "temperature": 8860,
      "Performance": 8861,
      "XVII": 8862,
      "026612410": 8863,
      "95342": 8864,
      "Achaemen": 8865,
      "Gavin": 8866,
      "Latin": 8867,
      "Putin": 8868,
      "Smith": 8869,
      "Treaty": 8870,
      "Udaipur": 8871,
      "Victor": 8872,
      "Y7jlsC": 8873,
      "buck": 8874,
      "money": 8875,
      "n80125948": 8876,
      "ge129384": 8877,
      "Ashoka": 8878,
      "Investigation": 8879,
      "tuberculosis": 8880,
      "Arunachal": 8881,
      "Harmandir": 8882,
      "Mahatma": 8883,
      "Princeton": 8884,
      "Ambedkar": 8885,
      "AliAitchison2005": 8886,
      "mjIfqyY7jlsC": 8887,
      "030": 8888,
      "320": 8889,
      "311": 8890,
      "377": 8891,
      "3000": 8892,
      "Bird": 8893,
      "CQ": 8894,
      "Cali": 8895,
      "Cabinet": 8896,
      "EM": 8897,
      "Eb": 8898,
      "FHA": 8899,
      "GQ": 8900,
      "Imp": 8901,
      "Mand": 8902,
      "Mat": 8903,
      "Numb": 8904,
      "Next": 8905,
      "Ped": 8906,
      "P13": 8907,
      "Pathak": 8908,
      "Rad": 8909,
      "Selection": 8910,
      "Symbols": 8911,
      "Srin": 8912,
      "WTO": 8913,
      "YS": 8914,
      "a9": 8915,
      "big": 8916,
      "etic": 8917,
      "five": 8918,
      "face": 8919,
      "hri": 8920,
      "kमी2": 8921,
      "moh": 8922,
      "nu": 8923,
      "nia": 8924,
      "nor": 8925,
      "names": 8926,
      "sy": 8927,
      "sav": 8928,
      "uj": 8929,
      "van": 8930,
      "wC": 8931,
      "za": 8932,
      "ंच": 8933,
      "ंपर": 8934,
      "अमान्य": 8935,
      "अक्ट": 8936,
      "आठ": 8937,
      "आत": 8938,
      "आप": 8939,
      "आम": 8940,
      "आर": 8941,
      "आगमन": 8942,
      "आकर्": 8943,
      "आश्र": 8944,
      "औप": 8945,
      "कव": 8946,
      "कम्": 8947,
      "खे": 8948,
      "गै": 8949,
      "गों": 8950,
      "चो": 8951,
      "चित": 8952,
      "छोड़": 8953,
      "जट": 8954,
      "जना": 8955,
      "ट्": 8956,
      "टना": 8957,
      "डो": 8958,
      "दौ": 8959,
      "ध्व": 8960,
      "नदियों": 8961,
      "पण": 8962,
      "पॉ": 8963,
      "पमान": 8964,
      "पिय": 8965,
      "फु": 8966,
      "बह": 8967,
      "बान": 8968,
      "बाल": 8969,
      "बजट": 8970,
      "मन्": 8971,
      "महि": 8972,
      "मरु": 8973,
      "यिका": 8974,
      "रही": 8975,
      "रंगा": 8976,
      "लै": 8977,
      "लब्": 8978,
      "लगा": 8979,
      "लड़ा": 8980,
      "वत": 8981,
      "वस्त": 8982,
      "वणी": 8983,
      "वाली": 8984,
      "सभी": 8985,
      "सत्य": 8986,
      "हरू": 8987,
      "हरे": 8988,
      "ियों": 8989,
      "ीकरण": 8990,
      "ुनि": 8991,
      "ेक": 8992,
      "्ट": 8993,
      "१२": 8994,
      "१७": 8995,
      "२२": 8996,
      "ঁচ": 8997,
      "ংহ": 8998,
      "আধ": 8999,
      "ওয়": 9000,
      "কয়": 9001,
      "ছু": 9002,
      "জিক": 9003,
      "ঝা": 9004,
      "ঠি": 9005,
      "দ্য": 9006,
      "ধু": 9007,
      "ফস": 9008,
      "বলি": 9009,
      "মরু": 9010,
      "রূ": 9011,
      "স্য": 9012,
      "হো": 9013,
      "ুল": 9014,
      "ంత": 9015,
      "ంతి": 9016,
      "ంటి": 9017,
      "అంట": 9018,
      "అహ్మ": 9019,
      "ఆకు": 9020,
      "ఆధీ": 9021,
      "ఆహార": 9022,
      "ఇవి": 9023,
      "ఎన్": 9024,
      "ఐరో": 9025,
      "ఒలిం": 9026,
      "కంట": 9027,
      "గతి": 9028,
      "జు": 9029,
      "ఞాన": 9030,
      "టం": 9031,
      "టా": 9032,
      "టన్": 9033,
      "టులు": 9034,
      "ట్యం": 9035,
      "ణులు": 9036,
      "తన": 9037,
      "నృ": 9038,
      "నలు": 9039,
      "పక్ష": 9040,
      "పద్ధ": 9041,
      "మ్య": 9042,
      "మతి": 9043,
      "యాలో": 9044,
      "లె": 9045,
      "వ్": 9046,
      "వహి": 9047,
      "వత్స": 9048,
      "సర": 9049,
      "సీ": 9050,
      "సర్": 9051,
      "స్రా": 9052,
      "హై": 9053,
      "హో": 9054,
      "ాంగ": 9055,
      "ెట్": 9056,
      "eros": 9057,
      "arrow2003": 9058,
      "esis": 9059,
      "cific": 9060,
      "ason": 9061,
      "192": 9062,
      "20080": 9063,
      "राई": 9064,
      "will": 9065,
      "र्स": 9066,
      "libr": 9067,
      "कीय": 9068,
      "FOOTNOTELibrary": 9069,
      "प्रचल": 9070,
      "प्रदान": 9071,
      "विंग": 9072,
      "विंध": 9073,
      "विधा": 9074,
      "స్సా": 9075,
      "roll": 9076,
      "सेपिय": 9077,
      "नागा": 9078,
      "বিমান": 9079,
      "fornia": 9080,
      "राजनै": 9081,
      "लाइ": 9082,
      "साह": 9083,
      "agement": 9084,
      "ताओं": 9085,
      "तांत्रिक": 9086,
      "तापमान": 9087,
      "until": 9088,
      "पुड़ा": 9089,
      "প্রকৃতি": 9090,
      "ubusiness": 9091,
      "नेहरू": 9092,
      "త్రిక": 9093,
      "कोई": 9094,
      "त्पत्ति": 9095,
      "50205": 9096,
      "క్తి": 9097,
      "ष्क": 9098,
      "ष्म": 9099,
      "నిర్": 9100,
      "నిర్వ": 9101,
      "290": 9102,
      "297": 9103,
      "ালুরু": 9104,
      "वास": 9105,
      "वास्त": 9106,
      "चीफ": 9107,
      "समझ": 9108,
      "रीबी": 9109,
      "ड़ियाँ": 9110,
      "oct": 9111,
      "किए": 9112,
      "किये": 9113,
      "्यादा": 9114,
      "నాయక": 9115,
      "నాట్యం": 9116,
      "విభ": 9117,
      "విజ్": 9118,
      "ज़र्व": 9119,
      "335": 9120,
      "बाहरी": 9121,
      "201412": 9122,
      "कारी": 9123,
      "मिलि": 9124,
      "కులు": 9125,
      "मुक्त": 9126,
      "origin": 9127,
      "मीणा": 9128,
      "sehl": 9129,
      "मनमोहन": 9130,
      "मान्यता": 9131,
      "उत्पत्ति": 9132,
      "368": 9133,
      "तरह": 9134,
      "జాతి": 9135,
      "লাক্ষা": 9136,
      "మాబాద్": 9137,
      "genf": 9138,
      "issn": 9139,
      "389": 9140,
      "ত্ম": 9141,
      "গ্রহ": 9142,
      "পরে": 9143,
      "సంకీ": 9144,
      "సంబంధ": 9145,
      "సంవత్స": 9146,
      "రుపు": 9147,
      "రుగు": 9148,
      "জনগণ": 9149,
      "টেক": 9150,
      "सरे": 9151,
      "লিশ": 9152,
      "పాత్ర": 9153,
      "कृत": 9154,
      "कृतिक": 9155,
      "స్థి": 9156,
      "డియా": 9157,
      "ोगा": 9158,
      "১৯৫০": 9159,
      "১৯৪৭": 9160,
      "వంట": 9161,
      "వంటి": 9162,
      "जीत": 9163,
      "जीडी": 9164,
      "होमो": 9165,
      "रेड": 9166,
      "మించ": 9167,
      "अनुसूची": 9168,
      "হেরু": 9169,
      "achiev": 9170,
      "সিংহ": 9171,
      "सरकारें": 9172,
      "हरि": 9173,
      "পিছু": 9174,
      "idered": 9175,
      "सेनाएँ": 9176,
      "Raju": 9177,
      "दाय": 9178,
      "मोड़ा": 9179,
      "గువ": 9180,
      "व्यंजन": 9181,
      "తరాలు": 9182,
      "కోట్": 9183,
      "নেহেরু": 9184,
      "रिज़र्व": 9185,
      "లామాబాద్": 9186,
      "ప్రాంతీయ": 9187,
      "उपलब्": 9188,
      "nekar": 9189,
      "పేర్లు": 9190,
      "స్తారు": 9191,
      "Contemporary": 9192,
      "मध्यम": 9193,
      "ట్లు": 9194,
      "మతాలు": 9195,
      "वेस्ट": 9196,
      "divor": 9197,
      "631": 9198,
      "632": 9199,
      "করুন": 9200,
      "पेन": 9201,
      "বর্ণ": 9202,
      "বর্তী": 9203,
      "जिसका": 9204,
      "కూడు": 9205,
      "కృష్": 9206,
      "लोकतांत्रिक": 9207,
      "మధ్యప్రదేశ్": 9208,
      "ప్రాంతాల": 9209,
      "সরকারের": 9210,
      "కొన్ని": 9211,
      "Manorama": 9212,
      "বিশ্ববিদ": 9213,
      "बोली": 9214,
      "प्रधानमन्": 9215,
      "पार्टियों": 9216,
      "भागवत": 9217,
      "రాజ్యాంగ": 9218,
      "সংস্করণ": 9219,
      "Northern": 9220,
      "laration": 9221,
      "provisions": 9222,
      "এশীয়": 9223,
      "পুলিশ": 9224,
      "কৃতিক": 9225,
      "कार्यालय": 9226,
      "FOOTNOTEBarrow2003": 9227,
      "খাত": 9228,
      "currs": 9229,
      "bueros": 9230,
      "కార్య": 9231,
      "కారణంగా": 9232,
      "క్యాలె": 9233,
      "దేశాలలో": 9234,
      "उत्पादन": 9235,
      "बढ़कर": 9236,
      "మైనది": 9237,
      "पारंपर": 9238,
      "शुरु": 9239,
      "शुष्क": 9240,
      "రోడ్": 9241,
      "बनाई": 9242,
      "పరిపాలన": 9243,
      "పరిశ్ర": 9244,
      "వెబ్": 9245,
      "Atomic": 9246,
      "పోర్చు": 9247,
      "ప్రాచీ": 9248,
      "Leg": 9249,
      "version": 9250,
      "अल्मोड़ा": 9251,
      "ఉన్నారు": 9252,
      "প্রতিযোগিতা": 9253,
      "నేషన్స్": 9254,
      "स्थापित": 9255,
      "२०१४": 9256,
      "Purchasing": 9257,
      "लोगों": 9258,
      "ব্দ": 9259,
      "मलयाली": 9260,
      "Salim": 9261,
      "জেলা": 9262,
      "స్థానం": 9263,
      "స్థానంలో": 9264,
      "వ్యాపార": 9265,
      "మొదల": 9266,
      "सतपुड़ा": 9267,
      "పీఠ": 9268,
      "thehindubusiness": 9269,
      "विकसित": 9270,
      "विषयों": 9271,
      "Jha2018": 9272,
      "विस्तार": 9273,
      "গোষ্ঠ": 9274,
      "standards": 9275,
      "সাইক্লো": 9276,
      "अमरीकी": 9277,
      "पोर्टल": 9278,
      "আফ্র": 9279,
      "ফেডার": 9280,
      "ফেব্রু": 9281,
      "সাধারণতন্ত্র": 9282,
      "সংরক্ষণের": 9283,
      "তথ্যবিজ্ঞান": 9284,
      "Possehl": 9285,
      "वाले": 9286,
      "ఇస్లాం": 9287,
      "ఇస్లామాబాద్": 9288,
      "కలిగి": 9289,
      "పండుగలు": 9290,
      "నగరాలు": 9291,
      "Basu": 9292,
      "bharat": 9293,
      "शैली": 9294,
      "सशस्": 9295,
      "జరిగిన": 9296,
      "పైగా": 9297,
      "ప్రజల": 9298,
      "కోర్టు": 9299,
      "উদ্ভি": 9300,
      "Help": 9301,
      "अर्ध": 9302,
      "ओडिशा": 9303,
      "ग्रीष्म": 9304,
      "जैसे": 9305,
      "बहाई": 9306,
      "রক্ষী": 9307,
      "అనేక": 9308,
      "పరంగా": 9309,
      "లవుదినాలు": 9310,
      "प्रशासनिक": 9311,
      "पुर्तगाल": 9312,
      "ప్రస్తుతం": 9313,
      "माध्यम": 9314,
      "निवेशिक": 9315,
      "సంఘం": 9316,
      "१९४७": 9317,
      "মনোর": 9318,
      "মালয়ালম": 9319,
      "పట్టణాలు": 9320,
      "घोषणा": 9321,
      "PSPE": 9322,
      "wearing": 9323,
      "उसके": 9324,
      "कहते": 9325,
      "समाप्त": 9326,
      "পৌর": 9327,
      "ఎక్కువగా": 9328,
      "పల్లవులు": 9329,
      "বেঙ্গালুরু": 9330,
      "বৈচিত্র্য": 9331,
      "परिषद": 9332,
      "Building": 9333,
      "Series": 9334,
      "কমিশন": 9335,
      "అభివృద్ధి": 9336,
      "అశోకుడు": 9337,
      "ఉంటాయి": 9338,
      "పతకాలు": 9339,
      "प्रत्येक": 9340,
      "సంప్రదాయాలు": 9341,
      "గుప్త": 9342,
      "గోదావరి": 9343,
      "नियंत्रण": 9344,
      "महानगरीय": 9345,
      "చండీగఢ్": 9346,
      "Foundation": 9347,
      "ittee": 9348,
      "Discovery": 9349,
      "ভিত্তিতে": 9350,
      "প্রস্তর": 9351,
      "মাথাপিছু": 9352,
      "California": 9353,
      "EbFHA": 9354,
      "Pednekar": 9355,
      "P1308": 9356,
      "अक्टूबर": 9357,
      "आठवीं": 9358,
      "आश्रय": 9359,
      "औपनिवेशिक": 9360,
      "गोंड": 9361,
      "फुट": 9362,
      "महिला": 9363,
      "मरुस्थल": 9364,
      "वस्तु": 9365,
      "ुनिस्ट": 9366,
      "মরুভূমি": 9367,
      "ఆకుపచ్చ": 9368,
      "ఎన్ను": 9369,
      "ఐరోపా": 9370,
      "ఒలింపిక్": 9371,
      "विधायिका": 9372,
      "राजनैतिक": 9373,
      "విజ్ఞాన": 9374,
      "मिलियन": 9375,
      "লাক্ষাদ্বীপ": 9376,
      "जीडीपी": 9377,
      "उपलब्धता": 9378,
      "కృష్ణా": 9379,
      "বিশ্ববিদ্যালয়": 9380,
      "प्रधानमन्त्री": 9381,
      "currsci": 9382,
      "క్యాలెండర్": 9383,
      "पारंपरिक": 9384,
      "ప్రాచీన": 9385,
      "thehindubusinessline": 9386,
      "ফেডারেশন": 9387,
      "ফেব্রুয়ারি": 9388,
      "EbFHAQAAQBAJ": 9389,
      "3D": 9390,
      "425": 9391,
      "413": 9392,
      "546": 9393,
      "Ame": 9394,
      "Agra": 9395,
      "Cultural": 9396,
      "Faith": 9397,
      "Jo": 9398,
      "Lanc": 9399,
      "Post": 9400,
      "Prakash": 9401,
      "Rā": 9402,
      "Rag": 9403,
      "Sw": 9404,
      "Tex": 9405,
      "Van": 9406,
      "Wall": 9407,
      "Y1": 9408,
      "cer": 9409,
      "dq": 9410,
      "dress": 9411,
      "hals": 9412,
      "nla": 9413,
      "rov": 9414,
      "sep": 9415,
      "inct": 9416,
      "anetary": 9417,
      "theref": 9418,
      "outp": 9419,
      "1900": 9420,
      "1989": 9421,
      "001": 9422,
      "umbia": 9423,
      "univers": 9424,
      "CITEREFMinistry": 9425,
      "CITEREFLibrary": 9426,
      "509": 9427,
      "ours": 9428,
      "PA78": 9429,
      "PA486": 9430,
      "Str": 9431,
      "earth": 9432,
      "431": 9433,
      "437": 9434,
      "709": 9435,
      "708012": 9436,
      "originally": 9437,
      "Commons": 9438,
      "Scholas": 9439,
      "continued": 9440,
      "ques": 9441,
      "nii": 9442,
      "444": 9443,
      "aily": 9444,
      "Columbia": 9445,
      "Wikiversity": 9446,
      "Wiktionary": 9447,
      "Wikisource": 9448,
      "500px": 9449,
      "Second": 9450,
      "lingual": 9451,
      "riages": 9452,
      "Planetary": 9453,
      "northernmost": 9454,
      "Earliest": 9455,
      "Wikibooks": 9456,
      "20160708012": 9457,
      "Bibli": 9458,
      "Sangam": 9459,
      "201908": 9460,
      "distribution": 9461,
      "stream": 9462,
      "PetragliaAllchin2007": 9463,
      "derabad": 9464,
      "Services": 9465,
      "claimed": 9466,
      "Amend": 9467,
      "Agrawal": 9468,
      "Lancet": 9469,
      "therefore": 9470,
      "Scholastic": 9471,
      "20160708012438": 9472,
      "0C": 9473,
      "018": 9474,
      "0149": 9475,
      "3B": 9476,
      "343": 9477,
      "446": 9478,
      "449": 9479,
      "441": 9480,
      "4DwAAQBAJ": 9481,
      "5261": 9482,
      "5183": 9483,
      "8th": 9484,
      "8122": 9485,
      "922": 9486,
      "936": 9487,
      "9357": 9488,
      "AE": 9489,
      "Ast": 9490,
      "Ant": 9491,
      "Ang": 9492,
      "AQBAJ": 9493,
      "Award": 9494,
      "Bre": 9495,
      "Bhim": 9496,
      "Bq9": 9497,
      "Coc": 9498,
      "Coral": 9499,
      "Dad": 9500,
      "Dependent": 9501,
      "Dhek": 9502,
      "Fic": 9503,
      "Gra": 9504,
      "Gli": 9505,
      "Gren": 9506,
      "Gamb": 9507,
      "Gender": 9508,
      "Hud": 9509,
      "HAS": 9510,
      "Hockey": 9511,
      "Homo": 9512,
      "Ital": 9513,
      "Ko": 9514,
      "Kur": 9515,
      "Kav": 9516,
      "Kach": 9517,
      "Lang": 9518,
      "Mz": 9519,
      "Mor": 9520,
      "Mex": 9521,
      "Mart": 9522,
      "Muk": 9523,
      "Ni": 9524,
      "Nagar": 9525,
      "Ow": 9526,
      "Pi": 9527,
      "Pā": 9528,
      "Pear": 9529,
      "Prac": 9530,
      "Pharmaceutical": 9531,
      "Qut": 9532,
      "Rul": 9533,
      "Rah": 9534,
      "Sci": 9535,
      "Siv": 9536,
      "Sex": 9537,
      "Sant": 9538,
      "Sarna": 9539,
      "Sitar": 9540,
      "S2542": 9541,
      "Satellite": 9542,
      "Tis": 9543,
      "Tito": 9544,
      "Ven": 9545,
      "acity": 9546,
      "bin": 9547,
      "bre": 9548,
      "bollywood": 9549,
      "cust": 9550,
      "care": 9551,
      "ctive": 9552,
      "could": 9553,
      "dikshit": 9554,
      "dishes": 9555,
      "elite": 9556,
      "free": 9557,
      "food": 9558,
      "gic": 9559,
      "gap": 9560,
      "gital": 9561,
      "hu": 9562,
      "hig": 9563,
      "hood": 9564,
      "ith": 9565,
      "itime": 9566,
      "iosa": 9567,
      "jee": 9568,
      "kma": 9569,
      "kashm": 9570,
      "katar": 9571,
      "lists": 9572,
      "lerner": 9573,
      "nas": 9574,
      "next": 9575,
      "pic": 9576,
      "pay": 9577,
      "phi": 9578,
      "pharmaceutical": 9579,
      "pBq9": 9580,
      "rub": 9581,
      "rich": 9582,
      "rhat": 9583,
      "sanc": 9584,
      "s412": 9585,
      "sapi": 9586,
      "tom": 9587,
      "tcy": 9588,
      "train": 9589,
      "turn": 9590,
      "ui": 9591,
      "uit": 9592,
      "vas": 9593,
      "vals": 9594,
      "vari": 9595,
      "vector": 9596,
      "water": 9597,
      "xal": 9598,
      "yth": 9599,
      "ying": 9600,
      "yani": 9601,
      "অন্ধ": 9602,
      "অবস্থা": 9603,
      "অস্ট্র": 9604,
      "অভ্য": 9605,
      "আন": 9606,
      "ইস্ট": 9607,
      "উট": 9608,
      "এলা": 9609,
      "ওয়া": 9610,
      "ওড়ি": 9611,
      "কলা": 9612,
      "কর্ম": 9613,
      "কগণ": 9614,
      "চ্": 9615,
      "ট্": 9616,
      "তফস": 9617,
      "দান": 9618,
      "ধি": 9619,
      "নের": 9620,
      "নয়া": 9621,
      "পদ": 9622,
      "মৈ": 9623,
      "মহল": 9624,
      "যার": 9625,
      "যান": 9626,
      "রিয়া": 9627,
      "রবী": 9628,
      "লু": 9629,
      "সফ": 9630,
      "সৌ": 9631,
      "হু": 9632,
      "হতে": 9633,
      "৩১": 9634,
      "ṇa": 9635,
      "tely": 9636,
      "tell": 9637,
      "inh": 9638,
      "incip": 9639,
      "ontent": 9640,
      "thought": 9641,
      "rew": 9642,
      "reet": 9643,
      "rece": 9644,
      "render": 9645,
      "remit": 9646,
      "reverse": 9647,
      "tium": 9648,
      "ori": 9649,
      "ortium": 9650,
      "arav": 9651,
      "arwal": 9652,
      "aning": 9653,
      "animals": 9654,
      "offe": 9655,
      "isaka": 9656,
      "isvara": 9657,
      "cimal": 9658,
      "ico": 9659,
      "ican": 9660,
      "ider": 9661,
      "idar": 9662,
      "193": 9663,
      "19th": 9664,
      "1935": 9665,
      "ched": 9666,
      "rat": 9667,
      "্রপ্রদেশ": 9668,
      "lama": 9669,
      "labour": 9670,
      "httpsbooks": 9671,
      "refer": 9672,
      "combooks": 9673,
      "ushan": 9674,
      "rior": 9675,
      "riors": 9676,
      "ected": 9677,
      "econtent": 9678,
      "weap": 9679,
      "1057": 9680,
      "geographical": 9681,
      "gebra": 9682,
      "field": 9683,
      "uru": 9684,
      "onset": 9685,
      "strati": 9686,
      "statistics": 9687,
      "styles": 9688,
      "FOOTNOTEDyson2018": 9689,
      "FOOTNOTEOrganisation": 9690,
      "FOOTNOTEKumar": 9691,
      "FOOTNOTEMichell2000": 9692,
      "FOOTNOTEMolnar2015": 9693,
      "FOOTNOTEAliAitchison2005": 9694,
      "cept": 9695,
      "emper": 9696,
      "emiss": 9697,
      "role": 9698,
      "resent": 9699,
      "upa": 9700,
      "তিন": 9701,
      "olom": 9702,
      "olven": 9703,
      "ন্তি": 9704,
      "009": 9705,
      "Indiana": 9706,
      "ticians": 9707,
      "বিজন": 9708,
      "বিদেশ": 9709,
      "archus": 9710,
      "11th": 9711,
      "1188": 9712,
      "fort": 9713,
      "258": 9714,
      "matic": 9715,
      "CITEREFSharma": 9716,
      "CITEREFRowland1970": 9717,
      "175": 9718,
      "স্টি": 9719,
      "স্কার": 9720,
      "2652": 9721,
      "182": 9722,
      "1881": 9723,
      "241": 9724,
      "244": 9725,
      "tuaries": 9726,
      "ayak": 9727,
      "mediately": 9728,
      "Asiatic": 9729,
      "Chess": 9730,
      "40r": 9731,
      "4051": 9732,
      "agencies": 9733,
      "28905": 9734,
      "elia": 9735,
      "প্রচল": 9736,
      "প্রবেশ": 9737,
      "mpses": 9738,
      "abadd": 9739,
      "ritual": 9740,
      "301": 9741,
      "30261": 9742,
      "30353": 9743,
      "296": 9744,
      "astri": 9745,
      "exte": 9746,
      "expor": 9747,
      "exchange": 9748,
      "uda": 9749,
      "হায়": 9750,
      "AAAQBAJ": 9751,
      "googlecombooks": 9752,
      "behind": 9753,
      "hard": 9754,
      "ensive": 9755,
      "ensorship": 9756,
      "েশিয়া": 9757,
      "meth": 9758,
      "ikh": 9759,
      "otta": 9760,
      "Street": 9761,
      "herjee": 9762,
      "sele": 9763,
      "451": 9764,
      "454": 9765,
      "thera": 9766,
      "Mao": 9767,
      "Mauriti": 9768,
      "Maith": 9769,
      "লাভ": 9770,
      "নাই": 9771,
      "নাড়": 9772,
      "partic": 9773,
      "particip": 9774,
      "generation": 9775,
[...]
