{
  "version": "1.0",
  "truncation": null,
  "padding": null,
  "added_tokens": [
    {
      "id": 0,
      "content": "<unk>",
      "single_word": false,
      "lstrip": false,
      "rstrip": false,
      "normalized": false,
      "special": true
    },
    {
      "id": 1,
      "content": "<pad>",
      "single_word": false,
      "lstrip": false,
      "rstrip": false,
      "normalized": false,
      "special": true
    }
  ],
  "normalizer": {
    "type": "Sequence",
    "normalizers": [
      {
        "type": "NFKC"
      },
      {
        "type": "Replace",
        "pattern": {
          "Regex": "[^\\p{L}\\p{M}\\p{N}]+"
        },
        "content": " "
      }
    ]
  },
  "pre_tokenizer": {
    "type": "Whitespace"
  },
  "post_processor": null,
  "decoder": null,
  "model": {
    "type": "BPE",
    "dropout": null,
    "unk_token": "<unk>",
    "continuing_subword_prefix": null,
    "end_of_word_suffix": null,
    "fuse_unk": false,
    "byte_fallback": false,
    "ignore_merges": false,
    "vocab": {
      "<unk>": 0,
      "<pad>": 1,
      "0": 2,
      "1": 3,
      "2": 4,
      "3": 5,
      "4": 6,
      "5": 7,
      "6": 8,
      "7": 9,
      "8": 10,
      "9": 11,
      "A": 12,
      "B": 13,
      "C": 14,
      "D": 15,
      "E": 16,
      "F": 17,
      "G": 18,
      "H": 19,
      "I": 20,
      "J": 21,
      "K": 22,
      "L": 23,
      "M": 24,
      "N": 25,
      "O": 26,
      "P": 27,
      "Q": 28,
      "R": 29,
      "S": 30,
      "T": 31,
      "U": 32,
      "V": 33,
      "W": 34,
      "X": 35,
      "Y": 36,
      "Z": 37,
      "a": 38,
      "b": 39,
      "c": 40,
      "d": 41,
      "e": 42,
      "f": 43,
      "g": 44,
      "h": 45,
      "i": 46,
      "j": 47,
      "k": 48,
      "l": 49,
      "m": 50,
      "n": 51,
      "o": 52,
      "p": 53,
      "q": 54,
      "r": 55,
      "s": 56,
      "t": 57,
      "u": 58,
      "v": 59,
      "w": 60,
      "x": 61,
      "y": 62,
      "z": 63,
      "Ö": 64,
      "ß": 65,
      "á": 66,
      "â": 67,
      "æ": 68,
      "ç": 69,
      "è": 70,
      "é": 71,
      "í": 72,
      "ñ": 73,
      "ö": 74,
      "ü": 75,
      "ā": 76,
      "ī": 77,
      "İ": 78,
      "Ś": 79,
      "ś": 80,
      "ţ": 81,
      "ū": 82,
      "ș": 83,
      "ə": 84,
      "ɦ": 85,
      "ɪ": 86,
      "ɾ": 87,
      "ʊ": 88,
      "ʼ": 89,
      "ˈ": 90,
      "ː": 91,
      "́": 92,
      "ί": 93,
      "α": 94,
      "δ": 95,
      "θ": 96,
      "ν": 97,
      "ο": 98,
      "π": 99,
      "ς": 100,
      "ό": 101,
      "ँ": 102,
      "ं": 103,
      "ः": 104,
      "अ": 105,
      "आ": 106,
      "इ": 107,
      "ई": 108,
      "उ": 109,
      "ऊ": 110,
      "ऋ": 111,
      "ऍ": 112,
      "ए": 113,
      "ऐ": 114,
      "ऑ": 115,
      "ओ": 116,
      "औ": 117,
      "क": 118,
      "ख": 119,
      "ग": 120,
      "घ": 121,
      "ङ": 122,
      "च": 123,
      "छ": 124,
      "ज": 125,
      "झ": 126,
      "ञ": 127,
      "ट": 128,
      "ठ": 129,
      "ड": 130,
      "ढ": 131,
      "ण": 132,
      "त": 133,
      "थ": 134,
      "द": 135,
      "ध": 136,
      "न": 137,
      "प": 138,
      "फ": 139,
      "ब": 140,
      "भ": 141,
      "म": 142,
      "य": 143,
      "र": 144,
      "ल": 145,
      "ळ": 146,
      "व": 147,
      "श": 148,
      "ष": 149,
      "स": 150,
      "ह": 151,
      "़": 152,
      "ा": 153,
      "ि": 154,
      "ी": 155,
      "ु": 156,
      "ू": 157,
      "ृ": 158,
      "े": 159,
      "ै": 160,
      "ॉ": 161,
      "ॊ": 162,
      "ो": 163,
      "ौ": 164,
      "्": 165,
      "०": 166,
      "१": 167,
      "२": 168,
      "३": 169,
      "४": 170,
      "५": 171,
      "६": 172,
      "७": 173,
      "८": 174,
      "९": 175,
      "ঁ": 176,
      "ং": 177,
      "ঃ": 178,
      "অ": 179,
      "আ": 180,
      "ই": 181,
      "ঈ": 182,
      "উ": 183,
      "ঊ": 184,
      "ঋ": 185,
      "এ": 186,
      "ঐ": 187,
      "ও": 188,
      "ঔ": 189,
      "ক": 190,
      "খ": 191,
      "গ": 192,
      "ঘ": 193,
      "ঙ": 194,
      "চ": 195,
      "ছ": 196,
      "জ": 197,
      "ঝ": 198,
      "ঞ": 199,
      "ট": 200,
      "ঠ": 201,
      "ড": 202,
      "ঢ": 203,
      "ণ": 204,
      "ত": 205,
      "থ": 206,
      "দ": 207,
      "ধ": 208,
      "ন": 209,
      "প": 210,
      "ফ": 211,
      "ব": 212,
      "ভ": 213,
      "ম": 214,
      "য": 215,
      "র": 216,
      "ল": 217,
      "শ": 218,
      "ষ": 219,
      "স": 220,
      "হ": 221,
      "়": 222,
      "া": 223,
      "ি": 224,
      "ী": 225,
      "ু": 226,
      "ূ": 227,
      "ৃ": 228,
      "ে": 229,
      "ৈ": 230,
      "ো": 231,
      "ৌ": 232,
      "্": 233,
      "ৎ": 234,
      "০": 235,
      "১": 236,
      "২": 237,
      "৩": 238,
      "৪": 239,
      "৫": 240,
      "৬": 241,
      "৭": 242,
      "৮": 243,
      "৯": 244,
      "ం": 245,
      "ః": 246,
      "అ": 247,
      "ఆ": 248,
      "ఇ": 249,
      "ఈ": 250,
      "ఉ": 251,
      "ఋ": 252,
      "ఎ": 253,
      "ఏ": 254,
      "ఐ": 255,
      "ఒ": 256,
      "ఓ": 257,
      "ఔ": 258,
      "క": 259,
      "ఖ": 260,
      "గ": 261,
      "ఘ": 262,
      "చ": 263,
      "ఛ": 264,
      "జ": 265,
      "ఞ": 266,
      "ట": 267,
      "ఠ": 268,
      "డ": 269,
      "ఢ": 270,
      "ణ": 271,
      "త": 272,
      "థ": 273,
      "ద": 274,
      "ధ": 275,
      "న": 276,
      "ప": 277,
      "ఫ": 278,
      "బ": 279,
      "భ": 280,
      "మ": 281,
      "య": 282,
      "ర": 283,
      "ల": 284,
      "ళ": 285,
      "వ": 286,
      "శ": 287,
      "ష": 288,
      "స": 289,
      "హ": 290,
      "ా": 291,
      "ి": 292,
      "ీ": 293,
      "ు": 294,
      "ూ": 295,
      "ృ": 296,
      "ె": 297,
      "ే": 298,
      "ై": 299,
      "ొ": 300,
      "ో": 301,
      "ౌ": 302,
      "్": 303,
      "ṅ": 304,
      "ṇ": 305,
      "Ṛ": 306,
      "ṣ": 307,
      "ṭ": 308,
      "Ἰ": 309,
      "nd": 310,
      "ia": 311,
      "te": 312,
      "on": 313,
      "in": 314,
      "ti": 315,
      "re": 316,
      "ার": 317,
      "th": 318,
      "ndia": 319,
      "or": 320,
      "er": 321,
      "20": 322,
      "ar": 323,
      "India": 324,
      "an": 325,
      "al": 326,
      "en": 327,
      "ed": 328,
      "্র": 329,
      "of": 330,
      "ভার": 331,
      "য়": 332,
      "ভারত": 333,
      "es": 334,
      "ci": 335,
      "ार": 336,
      "tion": 337,
      "is": 338,
      "ht": 339,
      "్ర": 340,
      "it": 341,
      "om": 342,
      "cite": 343,
      "्र": 344,
      "ের": 345,
      "্য": 346,
      "the": 347,
      "tp": 348,
      "http": 349,
      "and": 350,
      "भार": 351,
      "ార": 352,
      "भारत": 353,
      "as": 354,
      "ic": 355,
      "ou": 356,
      "19": 357,
      "no": 358,
      "id": 359,
      "ch": 360,
      "201": 361,
      "le": 362,
      "তি": 363,
      "oo": 364,
      "ন্": 365,
      "ac": 366,
      "https": 367,
      "org": 368,
      "র্": 369,
      "ాల": 370,
      "বি": 371,
      "200": 372,
      "ww": 373,
      "ad": 374,
      "ation": 375,
      "iv": 376,
      "ik": 377,
      "OT": 378,
      "के": 379,
      "tr": 380,
      "्य": 381,
      "్య": 382,
      "ref": 383,
      "am": 384,
      "com": 385,
      "at": 386,
      "note": 387,
      "lo": 388,
      "we": 389,
      "ag": 390,
      "భార": 391,
      "భారత": 392,
      "ান": 393,
      "స్": 394,
      "దే": 395,
      "ent": 396,
      "ing": 397,
      "रा": 398,
      "దేశ": 399,
      "um": 400,
      "ate": 401,
      "red": 402,
      "im": 403,
      "ক্": 404,
      "10": 405,
      "us": 406,
      "স্": 407,
      "wik": 408,
      "lin": 409,
      "సా": 410,
      "edia": 411,
      "मे": 412,
      "সা": 413,
      "ভারতের": 414,
      "il": 415,
      "న్": 416,
      "ook": 417,
      "ec": 418,
      "web": 419,
      "ान": 420,
      "প্র": 421,
      "ীয়": 422,
      "edit": 423,
      "link": 424,
      "ons": 425,
      "ర్": 426,
      "ang": 427,
      "र्": 428,
      "action": 429,
      "pg": 430,
      "et": 431,
      "स्": 432,
      "ur": 433,
      "redlink": 434,
      "fi": 435,
      "িক": 436,
      "का": 437,
      "IS": 438,
      "ol": 439,
      "78": 440,
      "ig": 441,
      "ov": 442,
      "দ্": 443,
      "he": 444,
      "ist": 445,
      "রা": 446,
      "বা": 447,
      "ter": 448,
      "में": 449,
      "ত্র": 450,
      "లు": 451,
      "BN": 452,
      "ul": 453,
      "ISBN": 454,
      "రా": 455,
      "ప్ర": 456,
      "enti": 457,
      "12": 458,
      "क्": 459,
      "to": 460,
      "00": 461,
      "identi": 462,
      "fier": 463,
      "identifier": 464,
      "up": 465,
      "భారతదేశ": 466,
      "াল": 467,
      "res": 468,
      "arch": 469,
      "లో": 470,
      "ip": 471,
      "www": 472,
      "या": 473,
      "সং": 474,
      "টি": 475,
      "की": 476,
      "em": 477,
      "jpg": 478,
      "FO": 479,
      "త్ర": 480,
      "NOT": 481,
      "OTNOT": 482,
      "FOOTNOT": 483,
      "FOOTNOTE": 484,
      "হা": 485,
      "978": 486,
      "ीय": 487,
      "দ্ধ": 488,
      "২০": 489,
      "india": 490,
      "प्र": 491,
      "ial": 492,
      "13": 493,
      "वि": 494,
      "ce": 495,
      "Sou": 496,
      "As": 497,
      "ాలు": 498,
      "ra": 499,
      "రి": 500,
      "book": 501,
      "ক্ষ": 502,
      "క్": 503,
      "umb": 504,
      "ive": 505,
      "কা": 506,
      "ంద": 507,
      "50": 508,
      "ion": 509,
      "14": 510,
      "ని": 511,
      "tic": 512,
      "ों": 513,
      "st": 514,
      "ৃতি": 515,
      "18": 516,
      "The": 517,
      "ति": 518,
      "ারি": 519,
      "ers": 520,
      "17": 521,
      "ind": 522,
      "से": 523,
      "el": 524,
      "ना": 525,
      "ভা": 526,
      "for": 527,
      "न्": 528,
      "15": 529,
      "है": 530,
      "কে": 531,
      "ro": 532,
      "ల్": 533,
      "Indian": 534,
      "त्र": 535,
      "েশ": 536,
      "books": 537,
      "16": 538,
      "क्ष": 539,
      "comm": 540,
      "భారతదేశం": 541,
      "In": 542,
      "age": 543,
      "তা": 544,
      "सं": 545,
      "ంగ": 546,
      "archive": 547,
      "ipedia": 548,
      "ment": 549,
      "23": 550,
      "px": 551,
      "ir": 552,
      "wikipedia": 553,
      "ay": 554,
      "op": 555,
      "imedia": 556,
      "राज": 557,
      "sv": 558,
      "wikimedia": 559,
      "load": 560,
      "upload": 561,
      "ity": 562,
      "ला": 563,
      "CI": 564,
      "40": 565,
      "য়ে": 566,
      "svg": 567,
      "জা": 568,
      "thumb": 569,
      "উদ্ধ": 570,
      "উদ্ধৃতি": 571,
      "26": 572,
      "commons": 573,
      "ন্দ": 574,
      "লে": 575,
      "ER": 576,
      "ভারতীয়": 577,
      "सा": 578,
      "un": 579,
      "ces": 580,
      "ak": 581,
      "ew": 582,
      "ీయ": 583,
      "ेश": 584,
      "TER": 585,
      "और": 586,
      "ম্": 587,
      "ము": 588,
      "ండ": 589,
      "EF": 590,
      "िया": 591,
      "CITER": 592,
      "ता": 593,
      "CITEREF": 594,
      "angu": 595,
      "ev": 596,
      "Sp": 597,
      "িয়": 598,
      "্চ": 599,
      "তারি": 600,
      "సి": 601,
      "ub": 602,
      "gov": 603,
      "జ్య": 604,
      "তারিখ": 605,
      "भा": 606,
      "28": 607,
      "Un": 608,
      "ly": 609,
      "ha": 610,
      "पु": 611,
      "199": 612,
      "25": 613,
      "্যা": 614,
      "తా": 615,
      "িত": 616,
      "বিশ": 617,
      "ld": 618,
      "ষ্": 619,
      "నా": 620,
      "వి": 621,
      "ंग": 622,
      "ep": 623,
      "తి": 624,
      "్ట": 625,
      "24": 626,
      "pl": 627,
      "fr": 628,
      "पर": 629,
      "লা": 630,
      "tu": 631,
      "ational": 632,
      "Ch": 633,
      "ory": 634,
      "না": 635,
      "tri": 636,
      "త్": 637,
      "মা": 638,
      "con": 639,
      "ecial": 640,
      "ap": 641,
      "মূ": 642,
      "ाल": 643,
      "भारतीय": 644,
      "cal": 645,
      "30": 646,
      "by": 647,
      "িল": 648,
      "िक": 649,
      "ঙ্": 650,
      "Asia": 651,
      "ress": 652,
      "Special": 653,
      "కు": 654,
      "য্য": 655,
      "সাহা": 656,
      "সাহায্য": 657,
      "29": 658,
      "ary": 659,
      "ab": 660,
      "বই": 661,
      "21": 662,
      "langu": 663,
      "ত্": 664,
      "orld": 665,
      "rces": 666,
      "ern": 667,
      "২০০": 668,
      "ট্র": 669,
      "নি": 670,
      "యా": 671,
      "ने": 672,
      "হি": 673,
      "देश": 674,
      "ভাষ": 675,
      "ex": 676,
      "को": 677,
      "त्": 678,
      "od": 679,
      "গ্র": 680,
      "Book": 681,
      "ను": 682,
      "राज्य": 683,
      "পর": 684,
      "li": 685,
      "rit": 686,
      "পা": 687,
      "ৃত": 688,
      "oun": 689,
      "ts": 690,
      "থা": 691,
      "প্": 692,
      "জন": 693,
      "টে": 694,
      "দেশ": 695,
      "ge": 696,
      "తం": 697,
      "न्द": 698,
      "ভাষা": 699,
      "ంది": 700,
      "2011": 701,
      "লি": 702,
      "చి": 703,
      "ভারতে": 704,
      "Sources": 705,
      "BookSources": 706,
      "মি": 707,
      "జ్యం": 708,
      "22": 709,
      "ivers": 710,
      "E0": 711,
      "থে": 712,
      "calf": 713,
      "htm": 714,
      "स्त": 715,
      "मा": 716,
      "षा": 717,
      "etcalf": 718,
      "జా": 719,
      "పూ": 720,
      "వా": 721,
      "ిక": 722,
      "tem": 723,
      "os": 724,
      "ng": 725,
      "ष्": 726,
      "हि": 727,
      "Metcalf": 728,
      "सि": 729,
      "আই": 730,
      "్రా": 731,
      "South": 732,
      "ite": 733,
      "ish": 734,
      "ma": 735,
      "১৯": 736,
      "জাত": 737,
      "থেকে": 738,
      "রে": 739,
      "লী": 740,
      "sh": 741,
      "మా": 742,
      "gle": 743,
      "কার": 744,
      "्व": 745,
      "উৎ": 746,
      "েষ": 747,
      "goo": 748,
      "భా": 749,
      "ులు": 750,
      "জ্য": 751,
      "Ar": 752,
      "ens": 753,
      "যু": 754,
      "सू": 755,
      "ber": 756,
      "ri": 757,
      "ద్": 758,
      "av": 759,
      "our": 760,
      "iversity": 761,
      "শৈ": 762,
      "from": 763,
      "ঙ্গ": 764,
      "वा": 765,
      "्रे": 766,
      "google": 767,
      "য়ের": 768,
      "भाषा": 769,
      "plate": 770,
      "বে": 771,
      "শৈলী": 772,
      "11": 773,
      "हा": 774,
      "try": 775,
      "hi": 776,
      "কৃত": 777,
      "সে": 778,
      "par": 779,
      "pr": 780,
      "Re": 781,
      "ুটি": 782,
      "বিশেষ": 783,
      "था": 784,
      "List": 785,
      "AA": 786,
      "Hind": 787,
      "जा": 788,
      "oc": 789,
      "আর্": 790,
      "ন্ত্র": 791,
      "উৎস": 792,
      "ची": 793,
      "पा": 794,
      "har": 795,
      "og": 796,
      "হের": 797,
      "est": 798,
      "language": 799,
      "err": 800,
      "মূল": 801,
      "pp": 802,
      "సం": 803,
      "60": 804,
      "log": 805,
      "br": 806,
      "ud": 807,
      "కా": 808,
      "రు": 809,
      "భారతీయ": 810,
      "uc": 811,
      "ff": 812,
      "70": 813,
      "ट्र": 814,
      "ాం": 815,
      "Com": 816,
      "ast": 817,
      "Fl": 818,
      "सम": 819,
      "ড়": 820,
      "সি": 821,
      "ve": 822,
      "ith": 823,
      "ষ্ট্র": 824,
      "বইয়ের": 825,
      "दि": 826,
      "री": 827,
      "be": 828,
      "ডি": 829,
      "ష్ట": 830,
      "ార్": 831,
      "Press": 832,
      "ड़": 833,
      "PA": 834,
      "এস": 835,
      "বর": 836,
      "ার্": 837,
      "ত্রুটি": 838,
      "కి": 839,
      "పా": 840,
      "క్ష": 841,
      "per": 842,
      "చరి": 843,
      "పు": 844,
      "స్థ": 845,
      "చరిత్ర": 846,
      "istory": 847,
      "se": 848,
      "png": 849,
      "80": 850,
      "47": 851,
      "డి": 852,
      "tim": 853,
      "Har": 854,
      "গু": 855,
      "পি": 856,
      "ore": 857,
      "Ind": 858,
      "సామ": 859,
      "িয়া": 860,
      "তারিখে": 861,
      "ain": 862,
      "ष्ट्र": 863,
      "coun": 864,
      "ইভ": 865,
      "কাইভ": 866,
      "ন্দ্র": 867,
      "আর্কাইভ": 868,
      "యి": 869,
      "వం": 870,
      "న్న": 871,
      "inal": 872,
      "আর্কাইভকৃত": 873,
      "33": 874,
      "विश": 875,
      "nic": 876,
      "कर": 877,
      "University": 878,
      "ঞ্চ": 879,
      "opul": 880,
      "জাতীয়": 881,
      "au": 882,
      "ph": 883,
      "St": 884,
      "সর": 885,
      "রাষ্ট্র": 886,
      "Flag": 887,
      "कि": 888,
      "2014": 889,
      "హి": 890,
      "क्षे": 891,
      "টেম": 892,
      "error": 893,
      "27": 894,
      "2018": 895,
      "्या": 896,
      "ubl": 897,
      "এন": 898,
      "লেট": 899,
      "প্লেট": 900,
      "টেমপ্লেট": 901,
      "नि": 902,
      "are": 903,
      "ছে": 904,
      "क्षेत्र": 905,
      "ित": 906,
      "ধান": 907,
      "ది": 908,
      "పాల": 909,
      "ort": 910,
      "ates": 911,
      "ensus": 912,
      "উপ": 913,
      "2006": 914,
      "ata": 915,
      "90": 916,
      "45": 917,
      "ले": 918,
      "html": 919,
      "ear": 920,
      "und": 921,
      "সংগ্র": 922,
      "titu": 923,
      "ow": 924,
      "pd": 925,
      "ুর": 926,
      "ష్ట్ర": 927,
      "సామ్రా": 928,
      "fn": 929,
      "স্ত": 930,
      "সংগ্রহের": 931,
      "tern": 932,
      "ys": 933,
      "opulation": 934,
      "ज़": 935,
      "তে": 936,
      "নী": 937,
      "जन": 938,
      "ली": 939,
      "land": 940,
      "ana": 941,
      "স্থা": 942,
      "িকা": 943,
      "আইএস": 944,
      "with": 945,
      "టి": 946,
      "నే": 947,
      "ong": 948,
      "aj": 949,
      "কি": 950,
      "बा": 951,
      "ance": 952,
      "56": 953,
      "National": 954,
      "Pr": 955,
      "ies": 956,
      "మి": 957,
      "all": 958,
      "সাম": 959,
      "pdf": 960,
      "ical": 961,
      "2007": 962,
      "कार": 963,
      "मि": 964,
      "43": 965,
      "ওয়ে": 966,
      "A6": 967,
      "cl": 968,
      "ती": 969,
      "ంచ": 970,
      "orig": 971,
      "ass": 972,
      "ase": 973,
      "ীন": 974,
      "ans": 975,
      "ages": 976,
      "ug": 977,
      "हिन्द": 978,
      "Ste": 979,
      "মে": 980,
      "শা": 981,
      "ot": 982,
      "భాష": 983,
      "esh": 984,
      "New": 985,
      "ile": 986,
      "নে": 987,
      "ন্ত": 988,
      "मु": 989,
      "2004": 990,
      "gr": 991,
      "2010": 992,
      "তিক": 993,
      "pro": 994,
      "ut": 995,
      "ism": 996,
      "36": 997,
      "चि": 998,
      "స్త్ర": 999,
      "ভূ": 1000,
      "History": 1001,
      "लि": 1002,
      "umm": 1003,
      "oi": 1004,
      "inis": 1005,
      "eral": 1006,
      "rel": 1007,
      "wh": 1008,
      "ंड": 1009,
      "मी": 1010,
      "స్తా": 1011,
      "రాష్ట్ర": 1012,
      "২০১": 1013,
      "ওয়েব": 1014,
      "ian": 1015,
      "world": 1016,
      "46": 1017,
      "মান": 1018,
      "্রা": 1019,
      "র্ব": 1020,
      "ক্ত": 1021,
      "ঞ্চল": 1022,
      "లీ": 1023,
      "र्व": 1024,
      "250": 1025,
      "ন্ড": 1026,
      "ill": 1027,
      "original": 1028,
      "ations": 1029,
      "राष्ट्र": 1030,
      "ank": 1031,
      "অর্": 1032,
      "మూ": 1033,
      "onstitu": 1034,
      "আইএসবি": 1035,
      "ame": 1036,
      "Ma": 1037,
      "ue": 1038,
      "ernment": 1039,
      "35": 1040,
      "मन": 1041,
      "मान": 1042,
      "సామ్రాజ్యం": 1043,
      "her": 1044,
      "ther": 1045,
      "ধ্য": 1046,
      "ত্ত": 1047,
      "lop": 1048,
      "Stein": 1049,
      "World": 1050,
      "48": 1051,
      "ాన": 1052,
      "దేశ్": 1053,
      "ef": 1054,
      "pe": 1055,
      "शा": 1056,
      "artic": 1057,
      "পরি": 1058,
      "उत्": 1059,
      "वर्": 1060,
      "జి": 1061,
      "తీయ": 1062,
      "ব্য": 1063,
      "ence": 1064,
      "রাজ্য": 1065,
      "120": 1066,
      "दी": 1067,
      "గా": 1068,
      "arg": 1069,
      "art": 1070,
      "iss": 1071,
      "tries": 1072,
      "আইএসবিএন": 1073,
      "77": 1074,
      "istan": 1075,
      "णी": 1076,
      "196": 1077,
      "2009": 1078,
      "ক্ষা": 1079,
      "কেন্দ্র": 1080,
      "template": 1081,
      "हु": 1082,
      "ard": 1083,
      "हैं": 1084,
      "స్తాన్": 1085,
      "ati": 1086,
      "pi": 1087,
      "ted": 1088,
      "র্ম": 1089,
      "িল্": 1090,
      "सी": 1091,
      "प्रदेश": 1092,
      "यु": 1093,
      "দী": 1094,
      "সম": 1095,
      "కే": 1096,
      "గు": 1097,
      "డు": 1098,
      "ार्": 1099,
      "ম্বর": 1100,
      "new": 1101,
      "तर": 1102,
      "orth": 1103,
      "its": 1104,
      "cre": 1105,
      "end": 1106,
      "Arch": 1107,
      "ition": 1108,
      "ल्": 1109,
      "ంట": 1110,
      "లి": 1111,
      "ine": 1112,
      "్రీ": 1113,
      "రాజ": 1114,
      "सूची": 1115,
      "ublic": 1116,
      "స్త్రం": 1117,
      "tics": 1118,
      "অর্থ": 1119,
      "Econ": 1120,
      "गर": 1121,
      "An": 1122,
      "भि": 1123,
      "দি": 1124,
      "ంలో": 1125,
      "డ్": 1126,
      "2019": 1127,
      "ంగా": 1128,
      "Econom": 1129,
      "38": 1130,
      "थि": 1131,
      "नी": 1132,
      "অঞ্চল": 1133,
      "এক": 1134,
      "কর": 1135,
      "বী": 1136,
      "Harv": 1137,
      "मू": 1138,
      "రాజ్యం": 1139,
      "భారతదేశంలో": 1140,
      "ct": 1141,
      "ক্তি": 1142,
      "য়েছে": 1143,
      "2C": 1144,
      "अन": 1145,
      "49": 1146,
      "Em": 1147,
      "पू": 1148,
      "বর্": 1149,
      "తర": 1150,
      "বিশ্": 1151,
      "ford": 1152,
      "Tem": 1153,
      "ust": 1154,
      "eved": 1155,
      "errors": 1156,
      "आध": 1157,
      "म्": 1158,
      "gen": 1159,
      "hm": 1160,
      "তাল": 1161,
      "বং": 1162,
      "িত্র": 1163,
      "ারা": 1164,
      "স্ট": 1165,
      "ture": 1166,
      "als": 1167,
      "59": 1168,
      "has": 1169,
      "కో": 1170,
      "ణా": 1171,
      "ధిక": 1172,
      "శ్": 1173,
      "trieved": 1174,
      "జాతీయ": 1175,
      "Retrieved": 1176,
      "ke": 1177,
      "ived": 1178,
      "Is": 1179,
      "ভি": 1180,
      "countries": 1181,
      "cy": 1182,
      "ai": 1183,
      "was": 1184,
      "Sfn": 1185,
      "ক্র": 1186,
      "জি": 1187,
      "ুন": 1188,
      "దక్ష": 1189,
      "వ్య": 1190,
      "ండి": 1191,
      "xford": 1192,
      "ll": 1193,
      "fe": 1194,
      "ited": 1195,
      "Ro": 1196,
      "mar": 1197,
      "অন": 1198,
      "রি": 1199,
      "2003": 1200,
      "প্রা": 1201,
      "QB": 1202,
      "ంబ": 1203,
      "లా": 1204,
      "ord": 1205,
      "2008": 1206,
      "स्थ": 1207,
      "ప్రాం": 1208,
      "En": 1209,
      "মু": 1210,
      "ेष": 1211,
      "Oxford": 1212,
      "37": 1213,
      "AJ": 1214,
      "ंध": 1215,
      "द्": 1216,
      "কো": 1217,
      "ন্ধ": 1218,
      "मेला": 1219,
      "సియా": 1220,
      "ess": 1221,
      "onstitution": 1222,
      "QBAJ": 1223,
      "ते": 1224,
      "भी": 1225,
      "ंग्रे": 1226,
      "করে": 1227,
      "পূ": 1228,
      "মাল": 1229,
      "সমূ": 1230,
      "దీ": 1231,
      "పే": 1232,
      "ిల్": 1233,
      "స్త": 1234,
      "దక్షి": 1235,
      "গণ": 1236,
      "পৃ": 1237,
      "মহা": 1238,
      "মধ্য": 1239,
      "times": 1240,
      "তালিকা": 1241,
      "अभि": 1242,
      "धान": 1243,
      "श्": 1244,
      "श्रे": 1245,
      "पुरा": 1246,
      "250px": 1247,
      "ingh": 1248,
      "Archived": 1249,
      "এবং": 1250,
      "সম্": 1251,
      "ప్రదేశ్": 1252,
      "श्रेणी": 1253,
      "39": 1254,
      "eng": 1255,
      "2012": 1256,
      "AAQBAJ": 1257,
      "Comm": 1258,
      "সরকার": 1259,
      "tral": 1260,
      "చే": 1261,
      "ట్": 1262,
      "మత": 1263,
      "ाना": 1264,
      "dis": 1265,
      "ty": 1266,
      "Dev": 1267,
      "PD": 1268,
      "স্থ": 1269,
      "স্তান": 1270,
      "87": 1271,
      "Del": 1272,
      "्रा": 1273,
      "विशेष": 1274,
      "1998": 1275,
      "Ed": 1276,
      "सर": 1277,
      "ধর্ম": 1278,
      "োল": 1279,
      "చ్": 1280,
      "దా": 1281,
      "ties": 1282,
      "र्म": 1283,
      "শাস": 1284,
      "2005": 1285,
      "ign": 1286,
      "icial": 1287,
      "Asher": 1288,
      "co": 1289,
      "जि": 1290,
      "man": 1291,
      "২০০৭": 1292,
      "census": 1293,
      "దస్త్రం": 1294,
      "వే": 1295,
      "amil": 1296,
      "100": 1297,
      "national": 1298,
      "২১": 1299,
      "্রি": 1300,
      "34": 1301,
      "me": 1302,
      "ँच": 1303,
      "ंत्र": 1304,
      "ach": 1305,
      "out": 1306,
      "oli": 1307,
      "Minis": 1308,
      "hal": 1309,
      "कृ": 1310,
      "ఆర్": 1311,
      "ధ్య": 1312,
      "ంద్ర": 1313,
      "বিশ্ব": 1314,
      "ich": 1315,
      "ult": 1316,
      "Hindu": 1317,
      "off": 1318,
      "adesh": 1319,
      "population": 1320,
      "द्व": 1321,
      "ome": 1322,
      "Chin": 1323,
      "हिन्दी": 1324,
      "ঞ্": 1325,
      "বৈ": 1326,
      "ৈতিক": 1327,
      "ese": 1328,
      "40px": 1329,
      "গুলি": 1330,
      "ood": 1331,
      "United": 1332,
      "स्तान": 1333,
      "57": 1334,
      "sub": 1335,
      "एक": 1336,
      "కాల": 1337,
      "త్య": 1338,
      "బె": 1339,
      "PDF": 1340,
      "erv": 1341,
      "row": 1342,
      "Delhi": 1343,
      "IN": 1344,
      "বস্থা": 1345,
      "োগ": 1346,
      "ated": 1347,
      "হাস": 1348,
      "ction": 1349,
      "elop": 1350,
      "गु": 1351,
      "िण": 1352,
      "ोग": 1353,
      "लेख": 1354,
      "ten": 1355,
      "MetcalfMetcalf": 1356,
      "IC": 1357,
      "হয়": 1358,
      "ట్ట": 1359,
      "శా": 1360,
      "ైన": 1361,
      "reg": 1362,
      "বিজ": 1363,
      "ange": 1364,
      "ద్ధ": 1365,
      "Rep": 1366,
      "जी": 1367,
      "Li": 1368,
      "oh": 1369,
      "ানা": 1370,
      "de": 1371,
      "GD": 1372,
      "दक्ष": 1373,
      "చె": 1374,
      "జీ": 1375,
      "ప్": 1376,
      "మీ": 1377,
      "మే": 1378,
      "యు": 1379,
      "హా": 1380,
      "హింద": 1381,
      "मूल": 1382,
      "07": 1383,
      "58": 1384,
      "na": 1385,
      "উত্ত": 1386,
      "তিহাস": 1387,
      "হিন্দ": 1388,
      "news": 1389,
      "qu": 1390,
      "गमन": 1391,
      "टी": 1392,
      "दे": 1393,
      "धर्म": 1394,
      "्रो": 1395,
      "दक्षिण": 1396,
      "Singh": 1397,
      "Ass": 1398,
      "udd": 1399,
      "led": 1400,
      "ni": 1401,
      "summ": 1402,
      "crease": 1403,
      "Gov": 1404,
      "तथा": 1405,
      "द्य": 1406,
      "पी": 1407,
      "চীন": 1408,
      "শি": 1409,
      "ంచి": 1410,
      "కూ": 1411,
      "2016": 1412,
      "तिथि": 1413,
      "ంగ్": 1414,
      "పాలి": 1415,
      "bot": 1416,
      "गण": 1417,
      "thor": 1418,
      "lia": 1419,
      "tin": 1420,
      "ंद": 1421,
      "अंग्रे": 1422,
      "टि": 1423,
      "हो": 1424,
      "form": 1425,
      "राष्ट्रीय": 1426,
      "Cam": 1427,
      "Par": 1428,
      "টার": 1429,
      "সংস্": 1430,
      "হিনী": 1431,
      "Pl": 1432,
      "ure": 1433,
      "रू": 1434,
      "वं": 1435,
      "కృ": 1436,
      "తో": 1437,
      "బ్": 1438,
      "2023": 1439,
      "ాల్": 1440,
      "ya": 1441,
      "2017": 1442,
      "relig": 1443,
      "41": 1444,
      "Sh": 1445,
      "les": 1446,
      "ইতিহাস": 1447,
      "197": 1448,
      "ight": 1449,
      "000": 1450,
      "সমূহ": 1451,
      "BR": 1452,
      "onom": 1453,
      "ढ़": 1454,
      "रे": 1455,
      "ोल": 1456,
      "লো": 1457,
      "జన": 1458,
      "প্রধান": 1459,
      "raph": 1460,
      "ক্ষি": 1461,
      "Asian": 1462,
      "తంత్ర": 1463,
      "अभिगमन": 1464,
      "উত্তর": 1465,
      "which": 1466,
      "languages": 1467,
      "por": 1468,
      "स्रो": 1469,
      "2021": 1470,
      "पुर": 1471,
      "राज्यों": 1472,
      "आधार": 1473,
      "elopment": 1474,
      "स्रोत": 1475,
      "iew": 1476,
      "ইউ": 1477,
      "দা": 1478,
      "দ্বী": 1479,
      "বাহিনী": 1480,
      "২০০৮": 1481,
      "দ্বীপ": 1482,
      "PP": 1483,
      "Langu": 1484,
      "Se": 1485,
      "cent": 1486,
      "పంచ": 1487,
      "బి": 1488,
      "మధ్య": 1489,
      "వు": 1490,
      "శం": 1491,
      "ాన్": 1492,
      "కేంద్ర": 1493,
      "अनु": 1494,
      "ప్రాంత": 1495,
      "ిల్లీ": 1496,
      "దక్షిణ": 1497,
      "Th": 1498,
      "Constitution": 1499,
      "Gu": 1500,
      "চ্চ": 1501,
      "্যান": 1502,
      "1950": 1503,
      "idge": 1504,
      "বাং": 1505,
      "সংখ": 1506,
      "Increase": 1507,
      "ব্যবস্থা": 1508,
      "ক্ষিণ": 1509,
      "Sch": 1510,
      "air": 1511,
      "ions": 1512,
      "मह": 1513,
      "महा": 1514,
      "्री": 1515,
      "nolog": 1516,
      "पूर्व": 1517,
      "Government": 1518,
      "05": 1519,
      "81": 1520,
      "Off": 1521,
      "Tal": 1522,
      "ple": 1523,
      "ograph": 1524,
      "Tim": 1525,
      "107": 1526,
      "Bri": 1527,
      "खाना": 1528,
      "এই": 1529,
      "এশ": 1530,
      "পু": 1531,
      "সঙ্গ": 1532,
      "্ঞ": 1533,
      "మొ": 1534,
      "ారి": 1535,
      "ారు": 1536,
      "पुस्त": 1537,
      "द्ध": 1538,
      "पुस्तक": 1539,
      "oup": 1540,
      "ous": 1541,
      "Template": 1542,
      "54": 1543,
      "Pak": 1544,
      "बर": 1545,
      "ren": 1546,
      "tical": 1547,
      "ँचा": 1548,
      "Bi": 1549,
      "কৃতি": 1550,
      "গর": 1551,
      "শিল্": 1552,
      "1947": 1553,
      "র্ক": 1554,
      "ক্ষণ": 1555,
      "শিল্প": 1556,
      "Man": 1557,
      "Tr": 1558,
      "bn": 1559,
      "कु": 1560,
      "కొ": 1561,
      "దు": 1562,
      "ధాన": 1563,
      "మ్": 1564,
      "వర్": 1565,
      "ష్": 1566,
      "Hindi": 1567,
      "सरकार": 1568,
      "BRIC": 1569,
      "ath": 1570,
      "ond": 1571,
      "Edit": 1572,
      "Pakistan": 1573,
      "aw": 1574,
      "চিত্র": 1575,
      "টা": 1576,
      "বল": 1577,
      "ন্ন": 1578,
      "ild": 1579,
      "মিটার": 1580,
      "GDP": 1581,
      "Talbot": 1582,
      "that": 1583,
      "contin": 1584,
      "विश्व": 1585,
      "Am": 1586,
      "Pro": 1587,
      "now": 1588,
      "bridge": 1589,
      "Island": 1590,
      "88": 1591,
      "yan": 1592,
      "territ": 1593,
      "ember": 1594,
      "ail": 1595,
      "हर": 1596,
      "অক্": 1597,
      "খা": 1598,
      "ంధ": 1599,
      "ఆసియా": 1600,
      "క్రీ": 1601,
      "ఖ్య": 1602,
      "ఢిల్లీ": 1603,
      "ర్య": 1604,
      "संघ": 1605,
      "্যান্ড": 1606,
      "মাণ": 1607,
      "పాకి": 1608,
      "వంశం": 1609,
      "बाद": 1610,
      "चित्र": 1611,
      "మూస": 1612,
      "একটি": 1613,
      "వ్యవ": 1614,
      "বাংলা": 1615,
      "emb": 1616,
      "Tamil": 1617,
      "ack": 1618,
      "over": 1619,
      "matics": 1620,
      "ost": 1621,
      "इस": 1622,
      "ज्": 1623,
      "वी": 1624,
      "ारा": 1625,
      "पुरालेख": 1626,
      "Fr": 1627,
      "dom": 1628,
      "ংশ": 1629,
      "কাশ": 1630,
      "Cambridge": 1631,
      "্ঞান": 1632,
      "53": 1633,
      "Dw": 1634,
      "ork": 1635,
      "hel": 1636,
      "Dys": 1637,
      "ta": 1638,
      "uk": 1639,
      "తు": 1640,
      "మె": 1641,
      "ashm": 1642,
      "साँचा": 1643,
      "Dyson": 1644,
      "ashmir": 1645,
      "Sans": 1646,
      "epend": 1647,
      "Sansk": 1648,
      "Population": 1649,
      "jec": 1650,
      "lim": 1651,
      "দক্ষিণ": 1652,
      "নৈতিক": 1653,
      "পশ": 1654,
      "পতি": 1655,
      "বৃ": 1656,
      "শ্র": 1657,
      "েশি": 1658,
      "নির্": 1659,
      "author": 1660,
      "article": 1661,
      "অর্থনৈতিক": 1662,
      "সম্প": 1663,
      "BRICS": 1664,
      "olog": 1665,
      "ध्य": 1666,
      "र्थ": 1667,
      "संस्": 1668,
      "ाली": 1669,
      "मिल": 1670,
      "पुरालेखित": 1671,
      "Eur": 1672,
      "Wik": 1673,
      "ele": 1674,
      "tation": 1675,
      "tish": 1676,
      "aste": 1677,
      "econom": 1678,
      "ission": 1679,
      "Census": 1680,
      "hind": 1681,
      "port": 1682,
      "ound": 1683,
      "Sanskrit": 1684,
      "99": 1685,
      "East": 1686,
      "গা": 1687,
      "যা": 1688,
      "ীল": 1689,
      "োর্": 1690,
      "ఉత్": 1691,
      "టు": 1692,
      "టె": 1693,
      "one": 1694,
      "স্বা": 1695,
      "ప్రధాన": 1696,
      "సంస్": 1697,
      "brary": 1698,
      "ज़ी": 1699,
      "engal": 1700,
      "పాలిత": 1701,
      "కేంద్రపాలిత": 1702,
      "Cent": 1703,
      "51": 1704,
      "gh": 1705,
      "sy": 1706,
      "alth": 1707,
      "British": 1708,
      "cr": 1709,
      "प्": 1710,
      "सार": 1711,
      "ree": 1712,
      "pire": 1713,
      "liament": 1714,
      "67": 1715,
      "Doi": 1716,
      "অব": 1717,
      "ইন": 1718,
      "এর": 1719,
      "চল": 1720,
      "দে": 1721,
      "ভে": 1722,
      "যোগ": 1723,
      "হয়েছে": 1724,
      "2013": 1725,
      "ater": 1726,
      "FOOTNOTEStein": 1727,
      "যুক্ত": 1728,
      "সেম্বর": 1729,
      "ডিসেম্বর": 1730,
      "সম্পর্ক": 1731,
      "ice": 1732,
      "Bengal": 1733,
      "एश": 1734,
      "बी": 1735,
      "ब्": 1736,
      "यों": 1737,
      "लो": 1738,
      "గో": 1739,
      "డా": 1740,
      "బ్ర": 1741,
      "సు": 1742,
      "प्रा": 1743,
      "Development": 1744,
      "help": 1745,
      "File": 1746,
      "পাল": 1747,
      "মার": 1748,
      "িম": 1749,
      "iness": 1750,
      "য়া": 1751,
      "usiness": 1752,
      "সালে": 1753,
      "্যাক": 1754,
      "44": 1755,
      "Pe": 1756,
      "Raj": 1757,
      "pan": 1758,
      "तक": 1759,
      "ें": 1760,
      "ama": 1761,
      "सेना": 1762,
      "31": 1763,
      "ace": 1764,
      "Ministry": 1765,
      "continent": 1766,
      "Mod": 1767,
      "Indo": 1768,
      "BC": 1769,
      "Kashmir": 1770,
      "ms": 1771,
      "दा": 1772,
      "फ़": 1773,
      "मो": 1774,
      "বন": 1775,
      "মেশি": 1776,
      "గణ": 1777,
      "తే": 1778,
      "వర": 1779,
      "సభ": 1780,
      "202": 1781,
      "ics": 1782,
      "రాజ్య": 1783,
      "ప్రపంచ": 1784,
      "নীতি": 1785,
      "সাম্রা": 1786,
      "రాష్ట్రాలు": 1787,
      "ওয়েব্যাক": 1788,
      "स्थान": 1789,
      "পূর্ব": 1790,
      "మతము": 1791,
      "ప్రాంతాలు": 1792,
      "వ్యవస్థ": 1793,
      "সাম্রাজ্য": 1794,
      "521": 1795,
      "Ne": 1796,
      "2024": 1797,
      "States": 1798,
      "MetcalfMetcalf2006": 1799,
      "55": 1800,
      "ब्र": 1801,
      "रु": 1802,
      "Intern": 1803,
      "मुख": 1804,
      "एशिया": 1805,
      "RC": 1806,
      "ণী": 1807,
      "প্য": 1808,
      "ব্রি": 1809,
      "মন": 1810,
      "মো": 1811,
      "মন্ত্র": 1812,
      "১১": 1813,
      "ade": 1814,
      "বাদ": 1815,
      "rav": 1816,
      "কারী": 1817,
      "করণ": 1818,
      "ারামিটার": 1819,
      "বিজ্ঞান": 1820,
      "DwAAQBAJ": 1821,
      "প্যারামিটার": 1822,
      "cons": 1823,
      "ss": 1824,
      "int": 1825,
      "Empire": 1826,
      "Co": 1827,
      "Con": 1828,
      "Page": 1829,
      "bal": 1830,
      "doi": 1831,
      "tal": 1832,
      "ंदि": 1833,
      "గం": 1834,
      "గి": 1835,
      "పె": 1836,
      "లం": 1837,
      "isation": 1838,
      "ural": 1839,
      "क्त": 1840,
      "ement": 1841,
      "త్రి": 1842,
      "अंग्रेज़ी": 1843,
      "Kul": 1844,
      "act": 1845,
      "Kulke": 1846,
      "76": 1847,
      "Dec": 1848,
      "fil": 1849,
      "po": 1850,
      "অজ": 1851,
      "আর": 1852,
      "আন্দ": 1853,
      "করা": 1854,
      "ত্য": 1855,
      "সভা": 1856,
      "েস": 1857,
      "০০": 1858,
      "ানি": 1859,
      "িকে": 1860,
      "government": 1861,
      "ভূমি": 1862,
      "120px": 1863,
      "region": 1864,
      "পশ্চ": 1865,
      "98": 1866,
      "पं": 1867,
      "भू": 1868,
      "व्य": 1869,
      "entral": 1870,
      "क्षा": 1871,
      "संस्कृ": 1872,
      "85": 1873,
      "Mal": 1874,
      "aman": 1875,
      "class": 1876,
      "illion": 1877,
      "72": 1878,
      "usic": 1879,
      "ulture": 1880,
      "php": 1881,
      "cat": 1882,
      "अध": 1883,
      "च्": 1884,
      "रो": 1885,
      "वन": 1886,
      "আগ": 1887,
      "ণি": 1888,
      "তার": 1889,
      "পুর": 1890,
      "ফোর্": 1891,
      "সদ": 1892,
      "ুট": 1893,
      "నల్": 1894,
      "బడి": 1895,
      "మార్": 1896,
      "రై": 1897,
      "स्व": 1898,
      "igh": 1899,
      "নাম": 1900,
      "ritan": 1901,
      "১৯৯": 1902,
      "सूच": 1903,
      "किस्तान": 1904,
      "শাসিত": 1905,
      "బెంగ": 1906,
      "సంస్కృ": 1907,
      "01": 1908,
      "bi": 1909,
      "mund": 1910,
      "ofindia": 1911,
      "Bang": 1912,
      "ities": 1913,
      "line": 1914,
      "93": 1915,
      "Summ": 1916,
      "गया": 1917,
      "त्य": 1918,
      "१९": 1919,
      "Economy": 1920,
      "Act": 1921,
      "ধীন": 1922,
      "বহ": 1923,
      "হল": 1924,
      "১৭": 1925,
      "iver": 1926,
      "যুদ্ধ": 1927,
      "Indus": 1928,
      "Commission": 1929,
      "EditPage": 1930,
      "Centre": 1931,
      "Bh": 1932,
      "di": 1933,
      "ide": 1934,
      "thermund": 1935,
      "Rothermund": 1936,
      "ne": 1937,
      "तु": 1938,
      "पश्": 1939,
      "తమి": 1940,
      "పం": 1941,
      "పతి": 1942,
      "this": 1943,
      "ames": 1944,
      "న్ని": 1945,
      "న్నా": 1946,
      "ters": 1947,
      "నుండి": 1948,
      "country": 1949,
      "ज्ञ": 1950,
      "पश्चि": 1951,
      "తమిళ": 1952,
      "lish": 1953,
      "targ": 1954,
      "ury": 1955,
      "target": 1956,
      "89": 1957,
      "bet": 1958,
      "know": 1959,
      "sys": 1960,
      "ধিক": 1961,
      "নদী": 1962,
      "পে": 1963,
      "শন": 1964,
      "সু": 1965,
      "ins": 1966,
      "বিদ": 1967,
      "2001": 1968,
      "low": 1969,
      "nica": 1970,
      "অজানা": 1971,
      "পশ্চিম": 1972,
      "ritannica": 1973,
      "71": 1974,
      "Col": 1975,
      "JP": 1976,
      "bol": 1977,
      "ओं": 1978,
      "किया": 1979,
      "चल": 1980,
      "मै": 1981,
      "रि": 1982,
      "ही": 1983,
      "स्था": 1984,
      "fir": 1985,
      "पाकिस्तान": 1986,
      "ंद्र": 1987,
      "International": 1988,
      "Rel": 1989,
      "ope": 1990,
      "Official": 1991,
      "330": 1992,
      "une": 1993,
      "Reg": 1994,
      "Apr": 1995,
      "CO": 1996,
      "Eng": 1997,
      "उप": 1998,
      "मंदि": 1999,
      "यू": 2000,
      "দু": 2001,
      "মী": 2002,
      "ীত": 2003,
      "అధిక": 2004,
      "ద్ర": 2005,
      "పి": 2006,
      "పార": 2007,
      "ఫ్": 2008,
      "మం": 2009,
      "প্রতি": 2010,
      "প্রজাত": 2011,
      "uring": 2012,
      "క్కు": 2013,
      "িয়ান": 2014,
      "পাত": 2015,
      "सित": 2016,
      "ffair": 2017,
      "उत्तर": 2018,
      "subcontinent": 2019,
      "హిందూ": 2020,
      "Singh2009": 2021,
      "పాకిస్తాన్": 2022,
      "Europe": 2023,
      "న్నాయి": 2024,
      "April": 2025,
      "मंदिर": 2026,
      "প্রজাতন্ত্র": 2027,
      "ffairs": 2028,
      "Al": 2029,
      "Fish": 2030,
      "20px": 2031,
      "118": 2032,
      "af": 2033,
      "cies": 2034,
      "iksh": 2035,
      "ature": 2036,
      "indus": 2037,
      "Pradesh": 2038,
      "religion": 2039,
      "Increase2": 2040,
      "ikshit": 2041,
      "Or": 2042,
      "pa": 2043,
      "बे": 2044,
      "ीप": 2045,
      "2015": 2046,
      "नाम": 2047,
      "Economic": 2048,
      "42": 2049,
      "75": 2050,
      "Eth": 2051,
      "dr": 2052,
      "gan": 2053,
      "ব্যা": 2054,
      "ories": 2055,
      "lear": 2056,
      "106": 2057,
      "সাল": 2058,
      "প্রযু": 2059,
      "বাহ": 2060,
      "life": 2061,
      "কিস্তান": 2062,
      "ঞ্জ": 2063,
      "Republic": 2064,
      "bb": 2065,
      "year": 2066,
      "were": 2067,
      "Mar": 2068,
      "SAA": 2069,
      "ru": 2070,
      "ख्या": 2071,
      "न्या": 2072,
      "रब": 2073,
      "सब": 2074,
      "सु": 2075,
      "ఆఫ్": 2076,
      "కార": 2077,
      "క్య": 2078,
      "నాలు": 2079,
      "భూ": 2080,
      "య్య": 2081,
      "రే": 2082,
      "ined": 2083,
      "దేశాల": 2084,
      "uman": 2085,
      "क्ति": 2086,
      "द्वीप": 2087,
      "पंजा": 2088,
      "SAARC": 2089,
      "79": 2090,
      "91": 2091,
      "pos": 2092,
      "sfn": 2093,
      "ofile": 2094,
      "China": 2095,
      "A4": 2096,
      "Affairs": 2097,
      "ah": 2098,
      "iz": 2099,
      "ores": 2100,
      "uary": 2101,
      "জুন": 2102,
      "বিধান": 2103,
      "old": 2104,
      "রাজ": 2105,
      "রাজন": 2106,
      "বায়": 2107,
      "have": 2108,
      "কেন্দ্রশাসিত": 2109,
      "Times": 2110,
      "বাংলাদেশ": 2111,
      "Coun": 2112,
      "ण्": 2113,
      "तट": 2114,
      "पाल": 2115,
      "मध्य": 2116,
      "सद": 2117,
      "ople": 2118,
      "साम": 2119,
      "सबसे": 2120,
      "Poli": 2121,
      "tar": 2122,
      "108": 2123,
      "68": 2124,
      "Dem": 2125,
      "minis": 2126,
      "numb": 2127,
      "citation": 2128,
      "uly": 2129,
      "system": 2130,
      "A7": 2131,
      "doc": 2132,
      "yn": 2133,
      "बंध": 2134,
      "माल": 2135,
      "वे": 2136,
      "কাল": 2137,
      "দের": 2138,
      "নিক": 2139,
      "রিক": 2140,
      "রক্ষণ": 2141,
      "শক্তি": 2142,
      "ఒరి": 2143,
      "చూ": 2144,
      "ణం": 2145,
      "ధీ": 2146,
      "మైన": 2147,
      "యం": 2148,
      "వీ": 2149,
      "వులు": 2150,
      "సంగ": 2151,
      "హార": 2152,
      "্রু": 2153,
      "ley": 2154,
      "न्न": 2155,
      "నాగ": 2156,
      "देशों": 2157,
      "కాశ్": 2158,
      "सम्": 2159,
      "রাষ্ট্রপতি": 2160,
      "২০১১": 2161,
      "মধ্যে": 2162,
      "కాశ్మీ": 2163,
      "ourt": 2164,
      "ublish": 2165,
      "32": 2166,
      "north": 2167,
      "uch": 2168,
      "tra": 2169,
      "52": 2170,
      "Central": 2171,
      "शि": 2172,
      "२०": 2173,
      "केंद्र": 2174,
      "स्ट": 2175,
      "न्द्र": 2176,
      "चीन": 2177,
      "JPG": 2178,
      "ote": 2179,
      "sec": 2180,
      "ইন্ড": 2181,
      "এফ": 2182,
      "কের": 2183,
      "নিয়": 2184,
      "মার্": 2185,
      "১৩": 2186,
      "ারণ": 2187,
      "itation": 2188,
      "ক্ষম": 2189,
      "formatics": 2190,
      "Informatics": 2191,
      "পাকিস্তান": 2192,
      "যুগ": 2193,
      "অনু": 2194,
      "AsherTalbot": 2195,
      "আগস্ট": 2196,
      "প্রযুক্তি": 2197,
      "tive": 2198,
      "2020": 2199,
      "asia": 2200,
      "Chand": 2201,
      "censusindia": 2202,
      "94": 2203,
      "tw": 2204,
      "wood": 2205,
      "आई": 2206,
      "जरा": 2207,
      "तमिल": 2208,
      "यह": 2209,
      "ఉప": 2210,
      "క్ర": 2211,
      "ణి": 2212,
      "తె": 2213,
      "రో": 2214,
      "లే": 2215,
      "ైనా": 2216,
      "2000": 2217,
      "सागर": 2218,
      "ండ్": 2219,
      "జాబి": 2220,
      "uclear": 2221,
      "projec": 2222,
      "रूप": 2223,
      "ब्रि": 2224,
      "Ag": 2225,
      "ck": 2226,
      "div": 2227,
      "mod": 2228,
      "2022": 2229,
      "cient": 2230,
      "ইং": 2231,
      "কল": 2232,
      "চে": 2233,
      "চার": 2234,
      "তী": 2235,
      "পার": 2236,
      "রয়েছে": 2237,
      "োবর": 2238,
      "১২": 2239,
      "ica": 2240,
      "etail": 2241,
      "কাপ": 2242,
      "state": 2243,
      "index": 2244,
      "Union": 2245,
      "ষ্ট": 2246,
      "রেজি": 2247,
      "হিন্দু": 2248,
      "summit": 2249,
      "Islands": 2250,
      "first": 2251,
      "Joh": 2252,
      "खा": 2253,
      "ैन": 2254,
      "ick": 2255,
      "साथ": 2256,
      "time": 2257,
      "ower": 2258,
      "युक्त": 2259,
      "330px": 2260,
      "08": 2261,
      "March": 2262,
      "Sik": 2263,
      "gy": 2264,
      "than": 2265,
      "2025": 2266,
      "lobal": 2267,
      "128": 2268,
      "states": 2269,
      "union": 2270,
      "Language": 2271,
      "Cong": 2272,
      "ove": 2273,
      "ipur": 2274,
      "ative": 2275,
      "Fisher": 2276,
      "Congress": 2277,
      "Budd": 2278,
      "UN": 2279,
      "la": 2280,
      "larg": 2281,
      "गा": 2282,
      "जु": 2283,
      "बंग": 2284,
      "পর্ব": 2285,
      "ব্": 2286,
      "শনা": 2287,
      "১০": 2288,
      "జనా": 2289,
      "పరి": 2290,
      "బా": 2291,
      "మహా": 2292,
      "వె": 2293,
      "వచ్": 2294,
      "స్వా": 2295,
      "wiki": 2296,
      "సాం": 2297,
      "ক্ষে": 2298,
      "ভাগ": 2299,
      "েশন": 2300,
      "ండు": 2301,
      "ঙ্ক": 2302,
      "সামরিক": 2303,
      "భాషలు": 2304,
      "ক্তকারী": 2305,
      "రాజవంశం": 2306,
      "গুলির": 2307,
      "Library": 2308,
      "স্বাধীন": 2309,
      "च्च": 2310,
      "English": 2311,
      "ण्ड": 2312,
      "পর্বত": 2313,
      "শনাক্তকারী": 2314,
      "Ex": 2315,
      "July": 2316,
      "fl": 2317,
      "ince": 2318,
      "eration": 2319,
      "aper": 2320,
      "day": 2321,
      "dance": 2322,
      "during": 2323,
      "detail": 2324,
      "ob": 2325,
      "resid": 2326,
      "logo": 2327,
      "Dyson2018": 2328,
      "500": 2329,
      "86": 2330,
      "96": 2331,
      "Bhar": 2332,
      "mon": 2333,
      "most": 2334,
      "music": 2335,
      "sou": 2336,
      "अरब": 2337,
      "णा": 2338,
      "दू": 2339,
      "पे": 2340,
      "uss": 2341,
      "संख्या": 2342,
      "ayan": 2343,
      "जिस": 2344,
      "अनुसार": 2345,
      "97": 2346,
      "ইল": 2347,
      "খে": 2348,
      "জে": 2349,
      "তন্ত্র": 2350,
      "দিল্": 2351,
      "বু": 2352,
      "মিল": 2353,
      "১৪": 2354,
      "১৬": 2355,
      "ann": 2356,
      "not": 2357,
      "বিত": 2358,
      "imf": 2359,
      "সাহ": 2360,
      "ষ্ঠ": 2361,
      "ত্ব": 2362,
      "ন্তর্": 2363,
      "ledge": 2364,
      "বায়ু": 2365,
      "Publish": 2366,
      "history": 2367,
      "agar": 2368,
      "nologue": 2369,
      "95": 2370,
      "Br": 2371,
      "Ge": 2372,
      "bu": 2373,
      "कश्": 2374,
      "ज्य": 2375,
      "टन": 2376,
      "तंत्र": 2377,
      "बि": 2378,
      "बहु": 2379,
      "वरी": 2380,
      "ఇండ": 2381,
      "ఉంది": 2382,
      "దం": 2383,
      "ధి": 2384,
      "నగ": 2385,
      "నై": 2386,
      "పో": 2387,
      "దేశం": 2388,
      "anges": 2389,
      "ప్రా": 2390,
      "నికి": 2391,
      "तिहा": 2392,
      "संग": 2393,
      "సింధ": 2394,
      "1994": 2395,
      "ंग्": 2396,
      "पर्य": 2397,
      "िकार": 2398,
      "शास": 2399,
      "general": 2400,
      "ఆర్ధిక": 2401,
      "प्त": 2402,
      "సంగీ": 2403,
      "జాబితా": 2404,
      "జనాభా": 2405,
      "कश्मी": 2406,
      "Data": 2407,
      "ble": 2408,
      "ual": 2409,
      "tent": 2410,
      "2F": 2411,
      "83": 2412,
      "Bra": 2413,
      "Citation": 2414,
      "Jan": 2415,
      "Wol": 2416,
      "duc": 2417,
      "hat": 2418,
      "ls": 2419,
      "sha": 2420,
      "war": 2421,
      "কারি": 2422,
      "জো": 2423,
      "ণা": 2424,
      "শতা": 2425,
      "সূ": 2426,
      "েক্ষা": 2427,
      "১৫": 2428,
      "cience": 2429,
      "ision": 2430,
      "nored": 2431,
      "প্রদেশ": 2432,
      "ignored": 2433,
      "সংসদ": 2434,
      "indiatimes": 2435,
      "umbai": 2436,
      "Ins": 2437,
      "eptem": 2438,
      "parame": 2439,
      "pert": 2440,
      "সরকারি": 2441,
      "উপেক্ষা": 2442,
      "মালয়": 2443,
      "চ্চিত্র": 2444,
      "সঙ্গীত": 2445,
      "চলচ্চিত্র": 2446,
      "মেশিন": 2447,
      "Wolpert": 2448,
      "eptember": 2449,
      "parameter": 2450,
      "63": 2451,
      "Kar": 2452,
      "Nations": 2453,
      "oth": 2454,
      "tor": 2455,
      "एवं": 2456,
      "गो": 2457,
      "गढ़": 2458,
      "शी": 2459,
      "काल": 2460,
      "ज्ञान": 2461,
      "तिहास": 2462,
      "All": 2463,
      "page": 2464,
      "berg": 2465,
      "ocial": 2466,
      "official": 2467,
      "KulkeRothermund": 2468,
      "119": 2469,
      "IA": 2470,
      "data": 2471,
      "had": 2472,
      "right": 2473,
      "ali": 2474,
      "ument": 2475,
      "cyc": 2476,
      "Relig": 2477,
      "He": 2478,
      "Mon": 2479,
      "Mug": 2480,
      "PM": 2481,
      "bined": 2482,
      "ladesh": 2483,
      "more": 2484,
      "टे": 2485,
      "नगर": 2486,
      "্মী": 2487,
      "ఉన్న": 2488,
      "ఉన్నాయి": 2489,
      "చు": 2490,
      "చల్": 2491,
      "చైనా": 2492,
      "నీ": 2493,
      "భి": 2494,
      "మతం": 2495,
      "యన్": 2496,
      "యాలు": 2497,
      "రీ": 2498,
      "శ్రీ": 2499,
      "షు": 2500,
      "ాయి": 2501,
      "য়ী": 2502,
      "acy": 2503,
      "adition": 2504,
      "ర్వ": 2505,
      "টিশ": 2506,
      "জাতি": 2507,
      "ముంబ": 2508,
      "సిన": 2509,
      "িত্য": 2510,
      "్టీ": 2511,
      "লাই": 2512,
      "दिल्": 2513,
      "ड़ा": 2514,
      "నేష": 2515,
      "group": 2516,
      "రాష్ట్రపతి": 2517,
      "జినల్": 2518,
      "्राज्य": 2519,
      "োলন": 2520,
      "সংখ্যা": 2521,
      "কাশ্মী": 2522,
      "ఉత్తర": 2523,
      "लोक": 2524,
      "తేదీ": 2525,
      "আন্দোলন": 2526,
      "బడింది": 2527,
      "సంస్కృతి": 2528,
      "Commissioner": 2529,
      "పార్టీ": 2530,
      "साम्राज्य": 2531,
      "ఒరిజినల్": 2532,
      "ইংরেজি": 2533,
      "সাহিত্য": 2534,
      "दिल्ली": 2535,
      "74": 2536,
      "embly": 2537,
      "John": 2538,
      "Dikshit": 2539,
      "ID": 2540,
      "Oj": 2541,
      "Ram": 2542,
      "Rout": 2543,
      "Shar": 2544,
      "caste": 2545,
      "ho": 2546,
      "if": 2547,
      "tain": 2548,
      "uis": 2549,
      "wart": 2550,
      "zberg": 2551,
      "ark": 2552,
      "imal": 2553,
      "148": 2554,
      "Compan": 2555,
      "Schwart": 2556,
      "territories": 2557,
      "files": 2558,
      "Routledge": 2559,
      "Schwartzberg": 2560,
      "115": 2561,
      "For": 2562,
      "एं": 2563,
      "डी": 2564,
      "दान": 2565,
      "लु": 2566,
      "वै": 2567,
      "िका": 2568,
      "माण": 2569,
      "नीति": 2570,
      "गुजरा": 2571,
      "न्याया": 2572,
      "पर्यटन": 2573,
      "cyclop": 2574,
      "And": 2575,
      "September": 2576,
      "cod": 2577,
      "def": 2578,
      "val": 2579,
      "উদ": 2580,
      "কর্": 2581,
      "গত": 2582,
      "ফুট": 2583,
      "বেশ": 2584,
      "বঙ্গ": 2585,
      "রু": 2586,
      "১৮": 2587,
      "বিক": 2588,
      "ateg": 2589,
      "বাস": 2590,
      "FOOTNOTEMetcalfMetcalf2006": 2591,
      "ake": 2592,
      "lywood": 2593,
      "pib": 2594,
      "প্রাচীন": 2595,
      "সংস্কৃতি": 2596,
      "election": 2597,
      "ব্রিটিশ": 2598,
      "মন্ত্রী": 2599,
      "largest": 2600,
      "ফুটবল": 2601,
      "65": 2602,
      "84": 2603,
      "men": 2604,
      "oci": 2605,
      "rd": 2606,
      "ash": 2607,
      "term": 2608,
      "122": 2609,
      "127": 2610,
      "part": 2611,
      "also": 2612,
      "ology": 2613,
      "69": 2614,
      "Aug": 2615,
      "Taj": 2616,
      "lang": 2617,
      "oon": 2618,
      "sch": 2619,
      "ting": 2620,
      "इंड": 2621,
      "क्र": 2622,
      "कर्": 2623,
      "घा": 2624,
      "मंत्र": 2625,
      "గాం": 2626,
      "జ్": 2627,
      "జమ్": 2628,
      "తూ": 2629,
      "నె": 2630,
      "పశ్": 2631,
      "వరి": 2632,
      "దేశాలు": 2633,
      "ime": 2634,
      "rab": 2635,
      "నిస్తాన్": 2636,
      "ల్ల": 2637,
      "iron": 2638,
      "लाई": 2639,
      "akh": 2640,
      "నులు": 2641,
      "ద్ద": 2642,
      "Combined": 2643,
      "స్థాన్": 2644,
      "నేపాల": 2645,
      "बांग्": 2646,
      "పేజీ": 2647,
      "ographic": 2648,
      "బ్రి": 2649,
      "అధికార": 2650,
      "చూసిన": 2651,
      "projection": 2652,
      "resident": 2653,
      "शासन": 2654,
      "జమ్మూ": 2655,
      "పశ్చి": 2656,
      "बांग्ला": 2657,
      "పేజీని": 2658,
      "216": 2659,
      "June": 2660,
      "War": 2661,
      "spe": 2662,
      "estern": 2663,
      "1960": 2664,
      "News": 2665,
      "Encyclop": 2666,
      "64": 2667,
      "Ad": 2668,
      "B0": 2669,
      "II": 2670,
      "Oc": 2671,
      "River": 2672,
      "mu": 2673,
      "জার্": 2674,
      "তম": 2675,
      "ধারণ": 2676,
      "tex": 2677,
      "eric": 2678,
      "য়ারি": 2679,
      "andard": 2680,
      "সাগর": 2681,
      "top": 2682,
      "tober": 2683,
      "জাতিক": 2684,
      "CITEREFStein": 2685,
      "ড়া": 2686,
      "eshow": 2687,
      "পূর্": 2688,
      "गणराज्य": 2689,
      "লোক": 2690,
      "বৃহ": 2691,
      "ক্ষেত্র": 2692,
      "October": 2693,
      "03": 2694,
      "धी": 2695,
      "सभा": 2696,
      "केन्द्र": 2697,
      "url": 2698,
      "विज्ञान": 2699,
      "cess": 2700,
      "ंगा": 2701,
      "liter": 2702,
      "्वर": 2703,
      "area": 2704,
      "वर्ष": 2705,
      "ublications": 2706,
      "Assembly": 2707,
      "सूचना": 2708,
      "Summit": 2709,
      "pu": 2710,
      "son": 2711,
      "str": 2712,
      "viron": 2713,
      "yy": 2714,
      "rev": 2715,
      "ough": 2716,
      "olk": 2717,
      "135": 2718,
      "230": 2719,
      "ortal": 2720,
      "industry": 2721,
      "Organ": 2722,
      "August": 2723,
      "vironment": 2724,
      "Ak": 2725,
      "Cl": 2726,
      "TR": 2727,
      "hy": 2728,
      "anc": 2729,
      "icy": 2730,
      "south": 2731,
      "Arab": 2732,
      "Gen": 2733,
      "depend": 2734,
      "eth": 2735,
      "sup": 2736,
      "ton": 2737,
      "असम": 2738,
      "एस": 2739,
      "जय": 2740,
      "थी": 2741,
      "আদ": 2742,
      "জল": 2743,
      "জু": 2744,
      "টোবর": 2745,
      "বস": 2746,
      "ভর": 2747,
      "ল্": 2748,
      "সার্": 2749,
      "সফোর্": 2750,
      "ীতি": 2751,
      "ূল": 2752,
      "ఒక": 2753,
      "కై": 2754,
      "కర్": 2755,
      "నో": 2756,
      "నది": 2757,
      "రె": 2758,
      "సము": 2759,
      "సమా": 2760,
      "హ్": 2761,
      "ుత్": 2762,
      "edition": 2763,
      "য়ন": 2764,
      "their": 2765,
      "change": 2766,
      "lead": 2767,
      "বিচার": 2768,
      "স্তা": 2769,
      "সংঘ": 2770,
      "তামিল": 2771,
      "২০০৯": 2772,
      "नेमा": 2773,
      "দেশের": 2774,
      "सिनेमा": 2775,
      "উপক": 2776,
      "কিন": 2777,
      "নেপাল": 2778,
      "उत्त": 2779,
      "Temple": 2780,
      "దీవులు": 2781,
      "పేరు": 2782,
      "হিন্দি": 2783,
      "द्योग": 2784,
      "కూడా": 2785,
      "टिश": 2786,
      "महारा": 2787,
      "অক্টোবর": 2788,
      "অক্সফোর্": 2789,
      "క్రీడ": 2790,
      "সালের": 2791,
      "মার্কিন": 2792,
      "ब्रिटिश": 2793,
      "जुलाई": 2794,
      "স্বাধীনতা": 2795,
      "দিল্লি": 2796,
      "ఇండో": 2797,
      "Mughal": 2798,
      "महाराष्ट्र": 2799,
      "অক্সফোর্ড": 2800,
      "Bank": 2801,
      "ee": 2802,
      "pec": 2803,
      "rish": 2804,
      "report": 2805,
      "andhi": 2806,
      "adu": 2807,
      "123": 2808,
      "266": 2809,
      "State": 2810,
      "Parliament": 2811,
      "Modern": 2812,
      "110": 2813,
      "113": 2814,
      "britannica": 2815,
      "can": 2816,
      "mil": 2817,
      "poli": 2818,
      "ran": 2819,
      "into": 2820,
      "them": 2821,
      "icon": 2822,
      "ween": 2823,
      "gram": 2824,
      "produc": 2825,
      "century": 2826,
      "European": 2827,
      "two": 2828,
      "cb": 2829,
      "ious": 2830,
      "name": 2831,
      "चे": 2832,
      "जो": 2833,
      "बई": 2834,
      "बो": 2835,
      "मार्": 2836,
      "edi": 2837,
      "124": 2838,
      "त्व": 2839,
      "जाति": 2840,
      "शासित": 2841,
      "व्यव": 2842,
      "संस्कृत": 2843,
      "details": 2844,
      "92": 2845,
      "Af": 2846,
      "Home": 2847,
      "Mumbai": 2848,
      "cap": 2849,
      "leshow": 2850,
      "ver": 2851,
      "খ্রি": 2852,
      "গো": 2853,
      "গোল": 2854,
      "ণ্": 2855,
      "নভে": 2856,
      "ভৌ": 2857,
      "মৌ": 2858,
      "শীল": 2859,
      "হার": 2860,
      "২৩": 2861,
      "encies": 2862,
      "chnolog": 2863,
      "ন্ট": 2864,
      "ক্স": 2865,
      "সাই": 2866,
      "প্রস্তা": 2867,
      "121": 2868,
      "1997": 2869,
      "প্ত": 2870,
      "been": 2871,
      "তেল": 2872,
      "articleshow": 2873,
      "অন্যান": 2874,
      "Environment": 2875,
      "স্থান": 2876,
      "বিশ্বের": 2877,
      "FOOTNOTEStein2010": 2878,
      "ক্ষমতা": 2879,
      "Sharma": 2880,
      "ategory": 2881,
      "ণ্ড": 2882,
      "অন্যান্য": 2883,
      "06": 2884,
      "Bar": 2885,
      "but": 2886,
      "jab": 2887,
      "mbol": 2888,
      "ry": 2889,
      "olicy": 2890,
      "stat": 2891,
      "ourn": 2892,
      "Report": 2893,
      "Bharat": 2894,
      "Fund": 2895,
      "Ludd": 2896,
      "North": 2897,
      "cms": 2898,
      "ंप": 2899,
      "अप": 2900,
      "इतिहास": 2901,
      "बै": 2902,
      "श्री": 2903,
      "ून": 2904,
      "కత": 2905,
      "కళ": 2906,
      "టక": 2907,
      "మన": 2908,
      "మై": 2909,
      "రం": 2910,
      "వార": 2911,
      "సై": 2912,
      "ouse": 2913,
      "idd": 2914,
      "tradition": 2915,
      "్యం": 2916,
      "్యా": 2917,
      "స్ట": 2918,
      "प्रधान": 2919,
      "विका": 2920,
      "రియా": 2921,
      "समय": 2922,
      "ड़ी": 2923,
      "orthographic": 2924,
      "अन्य": 2925,
      "చెయ్య": 2926,
      "Plate": 2927,
      "గణతంత్ర": 2928,
      "లంక": 2929,
      "classical": 2930,
      "మంత్రి": 2931,
      "వచ్చి": 2932,
      "సంగీతం": 2933,
      "ముంబై": 2934,
      "గాంధీ": 2935,
      "పశ్చిమ": 2936,
      "Ludden": 2937,
      "చెయ్యబడింది": 2938,
      "Ac": 2939,
      "Aus": 2940,
      "De": 2941,
      "May": 2942,
      "ering": 2943,
      "ise": 2944,
      "132": 2945,
      "140": 2946,
      "rent": 2947,
      "December": 2948,
      "Sec": 2949,
      "ban": 2950,
      "back": 2951,
      "ca": 2952,
      "grow": 2953,
      "ii": 2954,
      "jan": 2955,
      "site": 2956,
      "work": 2957,
      "আয়": 2958,
      "আন্তর্": 2959,
      "কং": 2960,
      "ছিল": 2961,
      "ডিয়া": 2962,
      "তু": 2963,
      "ীকরণ": 2964,
      "ুষ": 2965,
      "৯৭": 2966,
      "rect": 2967,
      "ool": 2968,
      "সংস্থা": 2969,
      "সংবিধান": 2970,
      "138": 2971,
      "পরমাণ": 2972,
      "পাদ": 2973,
      "আইন": 2974,
      "prov": 2975,
      "সিন্ধ": 2976,
      "ডিএফ": 2977,
      "স্থাপ": 2978,
      "ত্তম": 2979,
      "কেন্দ্রীয়": 2980,
      "অর্থনীতি": 2981,
      "শিক্ষা": 2982,
      "ports": 2983,
      "Languages": 2984,
      "Guj": 2985,
      "Buddh": 2986,
      "বৃহত্তম": 2987,
      "নভেম্বর": 2988,
      "আন্তর্জাতিক": 2989,
      "পরমাণু": 2990,
      "Di": 2991,
      "bank": 2992,
      "map": 2993,
      "ंक": 2994,
      "अन्": 2995,
      "दिया": 2996,
      "पार्": 2997,
      "मल": 2998,
      "शक्ति": 2999,
      "िकी": 3000,
      "alog": 3001,
      "103": 3002,
      "विधान": 3003,
      "ross": 3004,
      "60px": 3005,
      "निर्": 3006,
      "वंश": 3007,
      "ildlife": 3008,
      "मुख्य": 3009,
      "स्वतंत्र": 3010,
      "पश्चिम": 3011,
      "कश्मीर": 3012,
      "व्यवस्था": 3013,
      "02": 3014,
      "219": 3015,
      "At": 3016,
      "Min": 3017,
      "serv": 3018,
      "iation": 3019,
      "come": 3020,
      "umar": 3021,
      "162": 3022,
      "aksh": 3023,
      "ugg": 3024,
      "erala": 3025,
      "ustan": 3026,
      "Hinduism": 3027,
      "Bangladesh": 3028,
      "between": 3029,
      "after": 3030,
      "415": 3031,
      "Court": 3032,
      "Go": 3033,
      "Lank": 3034,
      "Me": 3035,
      "PR": 3036,
      "Pun": 3037,
      "Qu": 3038,
      "sar": 3039,
      "yle": 3040,
      "ini": 3041,
      "iction": 3042,
      "here": 3043,
      "ird": 3044,
      "able": 3045,
      "catalog": 3046,
      "Bl": 3047,
      "Gr": 3048,
      "Ganges": 3049,
      "bec": 3050,
      "business": 3051,
      "sugg": 3052,
      "कल": 3053,
      "दर": 3054,
      "दो": 3055,
      "लग": 3056,
      "िय": 3057,
      "অধ": 3058,
      "আফ": 3059,
      "ইস": 3060,
      "গঠ": 3061,
      "চি": 3062,
      "জয়": 3063,
      "টান": 3064,
      "তথ": 3065,
      "পো": 3066,
      "ফে": 3067,
      "লার": 3068,
      "সহ": 3069,
      "সর্ব": 3070,
      "২২": 3071,
      "కం": 3072,
      "కీ": 3073,
      "జో": 3074,
      "తల": 3075,
      "తీ": 3076,
      "దార": 3077,
      "బంగ్": 3078,
      "రహ": 3079,
      "రంగ": 3080,
      "సరి": 3081,
      "ant": 3082,
      "leg": 3083,
      "বিভাগ": 3084,
      "স্ট্র": 3085,
      "সাধারণ": 3086,
      "ర్పు": 3087,
      "িকী": 3088,
      "లోక్": 3089,
      "সংরক্ষণ": 3090,
      "FOOTNOTESingh2009": 3091,
      "দ্ধি": 3092,
      "క్క": 3093,
      "লেখ": 3094,
      "ম্প": 3095,
      "भाग": 3096,
      "త్స": 3097,
      "ঙ্কা": 3098,
      "ucation": 3099,
      "స్థాన": 3100,
      "পিডিএফ": 3101,
      "जनसंख्या": 3102,
      "तीस": 3103,
      "ক্রিকে": 3104,
      "వ్యా": 3105,
      "లాదేశ్": 3106,
      "స్తు": 3107,
      "ఆర్కై": 3108,
      "హిందీ": 3109,
      "ంచిన": 3110,
      "మొద": 3111,
      "শ্রীল": 3112,
      "FOOTNOTEStein1998": 3113,
      "মার্চ": 3114,
      "పెద్ద": 3115,
      "మార్గ": 3116,
      "known": 3117,
      "पंजाब": 3118,
      "AsherTalbot2008": 3119,
      "స్వాతంత్ర": 3120,
      "శ్రీలంక": 3121,
      "কাশ্মীর": 3122,
      "తూర్పు": 3123,
      "బ్రిటి": 3124,
      "विकास": 3125,
      "তথ্য": 3126,
      "దారులు": 3127,
      "బంగ్లాదేశ్": 3128,
      "ఆర్కైవు": 3129,
      "শ্রীলঙ্কা": 3130,
      "Gandhi": 3131,
      "San": 3132,
      "tle": 3133,
      "1996": 3134,
      "ource": 3135,
      "people": 3136,
      "territory": 3137,
      "Publishing": 3138,
      "ournal": 3139,
      "317": 3140,
      "Cons": 3141,
      "Category": 3142,
      "Mus": 3143,
      "President": 3144,
      "Rev": 3145,
      "des": 3146,
      "dev": 3147,
      "other": 3148,
      "ones": 3149,
      "170": 3150,
      "253": 3151,
      "2011census": 3152,
      "parliament": 3153,
      "mark": 3154,
      "years": 3155,
      "Political": 3156,
      "Gujar": 3157,
      "West": 3158,
      "ft": 3159,
      "go": 3160,
      "इन": 3161,
      "एँ": 3162,
      "जल": 3163,
      "टक": 3164,
      "ont": 3165,
      "edic": 3166,
      "ारी": 3167,
      "प्रति": 3168,
      "174": 3169,
      "संयुक्त": 3170,
      "संविधान": 3171,
      "ेश्वर": 3172,
      "ालय": 3173,
      "avid": 3174,
      "बंगाल": 3175,
      "Afr": 3176,
      "Mad": 3177,
      "Nuclear": 3178,
      "Pal": 3179,
      "Res": 3180,
      "Rese": 3181,
      "az": 3182,
      "cur": 3183,
      "get": 3184,
      "mill": 3185,
      "pre": 3186,
      "ইন্দ": 3187,
      "কৃ": 3188,
      "বার": 3189,
      "বন্ধ": 3190,
      "ভ্য": 3191,
      "মহ": 3192,
      "হয়ে": 3193,
      "incl": 3194,
      "istr": 3195,
      "omen": 3196,
      "্যাল": 3197,
      "ingdom": 3198,
      "িকি": 3199,
      "ely": 3200,
      "িয়ার": 3201,
      "ৃত্য": 3202,
      "জন্য": 3203,
      "দেশে": 3204,
      "Hindustan": 3205,
      "বর্ত": 3206,
      "gency": 3207,
      "economic": 3208,
      "crip": 3209,
      "যুক্তরাষ্ট্র": 3210,
      "ইন্ডিয়া": 3211,
      "শতাংশ": 3212,
      "General": 3213,
      "ক্রিকেট": 3214,
      "Research": 3215,
      "300": 3216,
      "EX": 3217,
      "Nadu": 3218,
      "View": 3219,
      "gl": 3220,
      "gar": 3221,
      "ps": 3222,
      "estim": 3223,
      "139": 3224,
      "231": 3225,
      "peri": 3226,
      "chnology": 3227,
      "Punjab": 3228,
      "82": 3229,
      "CN": 3230,
      "Crav": 3231,
      "NC": 3232,
      "Science": 3233,
      "York": 3234,
      "constitution": 3235,
      "ये": 3236,
      "रक्षा": 3237,
      "ఇతర": 3238,
      "గల": 3239,
      "టీ": 3240,
      "టాన్": 3241,
      "పద": 3242,
      "పీ": 3243,
      "పట్ట": 3244,
      "బీ": 3245,
      "రణ": 3246,
      "వల": 3247,
      "్రె": 3248,
      "స్వ": 3249,
      "ovement": 3250,
      "ప్రత్య": 3251,
      "नाथ": 3252,
      "ముఖ్య": 3253,
      "సిని": 3254,
      "తావర": 3255,
      "నాడు": 3256,
      "play": 3257,
      "వాతావర": 3258,
      "Harle": 3259,
      "articles": 3260,
      "ణాసియా": 3261,
      "key": 3262,
      "కాలం": 3263,
      "देव": 3264,
      "టెడ్": 3265,
      "ప్రధానమంత్రి": 3266,
      "రైలు": 3267,
      "పంజా": 3268,
      "Ethnologue": 3269,
      "ఆఫ్ఘ": 3270,
      "భూటాన్": 3271,
      "Fisher2018": 3272,
      "January": 3273,
      "నేపాల్": 3274,
      "iddle": 3275,
      "రహదారులు": 3276,
      "Craven": 3277,
      "వాతావరణం": 3278,
      "David": 3279,
      "Human": 3280,
      "col": 3281,
      "rate": 3282,
      "ution": 3283,
      "ndra": 3284,
      "enn": 3285,
      "edu": 3286,
      "webcitation": 3287,
      "Chr": 3288,
      "904": 3289,
      "under": 3290,
      "ternal": 3291,
      "number": 3292,
      "116": 3293,
      "It": 3294,
      "Nep": 3295,
      "Pa": 3296,
      "Val": 3297,
      "ling": 3298,
      "nat": 3299,
      "উই": 3300,
      "জান": 3301,
      "জরা": 3302,
      "তৃ": 3303,
      "নৃত্য": 3304,
      "সমা": 3305,
      "anth": 3306,
      "1970": 3307,
      "বিষ": 3308,
      "প্রতী": 3309,
      "126": 3310,
      "129": 3311,
      "ভাবে": 3312,
      "407": 3313,
      "profile": 3314,
      "ড়ি": 3315,
      "মালা": 3316,
      "সঙ্গে": 3317,
      "বহু": 3318,
      "Sikh": 3319,
      "জোট": 3320,
      "Health": 3321,
      "langoff": 3322,
      "প্রস্তাবিত": 3323,
      "কংগ্র": 3324,
      "সিন্ধু": 3325,
      "suggest": 3326,
      "প্রতীক": 3327,
      "Ele": 3328,
      "b0": 3329,
      "nam": 3330,
      "pt": 3331,
      "चु": 3332,
      "दरा": 3333,
      "पति": 3334,
      "वार्": 3335,
      "सैन": 3336,
      "rec": 3337,
      "105": 3338,
      "वायु": 3339,
      "जाता": 3340,
      "कार्य": 3341,
      "पूर्वी": 3342,
      "मैदान": 3343,
      "स्वतंत्रता": 3344,
      "Nat": 3345,
      "ures": 3346,
      "rep": 3347,
      "ara": 3348,
      "aspx": 3349,
      "istor": 3350,
      "abad": 3351,
      "dispu": 3352,
      "economy": 3353,
      "actbook": 3354,
      "Centre2005": 3355,
      "orest": 3356,
      "KulkeRothermund2004": 3357,
      "includ": 3358,
      "global": 3359,
      "tes": 3360,
      "ose": 3361,
      "Austral": 3362,
      "Lanka": 3363,
      "Be": 3364,
      "Jain": 3365,
      "Portal": 3366,
      "Ut": 3367,
      "ria": 3368,
      "sur": 3369,
      "अग": 3370,
      "अम": 3371,
      "अर्थ": 3372,
      "आर्थ": 3373,
      "उद्य": 3374,
      "गंगा": 3375,
      "णि": 3376,
      "पो": 3377,
      "पर्व": 3378,
      "উল্": 3379,
      "চাল": 3380,
      "দল": 3381,
      "দ্র": 3382,
      "দ্রা": 3383,
      "মণি": 3384,
      "মিয়ান": 3385,
      "২৮": 3386,
      "৫০": 3387,
      "అతి": 3388,
      "అయి": 3389,
      "అత్య": 3390,
      "ఇన్": 3391,
      "ఇరా": 3392,
      "ఒడి": 3393,
      "కీయ": 3394,
      "గలు": 3395,
      "జె": 3396,
      "జరా": 3397,
      "నాల": 3398,
      "భుత్": 3399,
      "మాల": 3400,
      "మన్": 3401,
      "లలో": 3402,
      "లకు": 3403,
      "లక్ష": 3404,
      "వై": 3405,
      "శతా": 3406,
      "సె": 3407,
      "ియా": 3408,
      "ేక": 3409,
      "oral": 3410,
      "য়িকী": 3411,
      "20140": 3412,
      "20160": 3413,
      "ন্স": 3414,
      "ada": 3415,
      "దేశంలో": 3416,
      "ece": 3417,
      "প্রথ": 3418,
      "ప్రభుత్": 3419,
      "ালত": 3420,
      "నిక": 3421,
      "संसद": 3422,
      "ంగ్రె": 3423,
      "aka": 3424,
      "త్వ": 3425,
      "নিবন্ধ": 3426,
      "থাইল": 3427,
      "প্টে": 3428,
      "জনসংখ্যা": 3429,
      "పూర్": 3430,
      "সেনা": 3431,
      "সেপ্টে": 3432,
      "కాంగ్రె": 3433,
      "ड़े": 3434,
      "oreign": 3435,
      "పాలన": 3436,
      "సామ్రాజ్య": 3437,
      "সাময়িকী": 3438,
      "ন্তর": 3439,
      "గుజరా": 3440,
      "రాజకీయ": 3441,
      "রিজার্": 3442,
      "ultural": 3443,
      "శాస్త్రం": 3444,
      "ంచింది": 3445,
      "వర్గం": 3446,
      "वीं": 3447,
      "বৃদ্ধি": 3448,
      "अधिक": 3449,
      "బెంగాల్": 3450,
      "తమిళనాడు": 3451,
      "রাজনীতি": 3452,
      "খেলা": 3453,
      "বুদ্ধ": 3454,
      "Company": 3455,
      "न्यायाल": 3456,
      "मंत्री": 3457,
      "dependencies": 3458,
      "আদালত": 3459,
      "জুলাই": 3460,
      "సముద్ర": 3461,
      "উপকূল": 3462,
      "Africa": 3463,
      "ప్రత్యేక": 3464,
      "উইকি": 3465,
      "কংগ্রেস": 3466,
      "Uttar": 3467,
      "आर्थिक": 3468,
      "उद्यान": 3469,
      "মণিপুর": 3470,
      "মিয়ানমার": 3471,
      "శతాబ్": 3472,
      "থাইল্যান্ড": 3473,
      "সেপ্টেম্বর": 3474,
      "রিজার্ভ": 3475,
      "1200": 3476,
      "61": 3477,
      "IM": 3478,
      "Pur": 3479,
      "Ter": 3480,
      "local": 3481,
      "ety": 3482,
      "cean": 3483,
      "147": 3484,
      "peration": 3485,
      "Assam": 3486,
      "BCE": 3487,
      "BBC": 3488,
      "Mac": 3489,
      "Russ": 3490,
      "Sri": 3491,
      "bas": 3492,
      "cul": 3493,
      "mi": 3494,
      "net": 3495,
      "inf": 3496,
      "ised": 3497,
      "asp": 3498,
      "2002": 3499,
      "104": 3500,
      "used": 3501,
      "141": 3502,
      "ell": 3503,
      "avy": 3504,
      "Country": 3505,
      "modern": 3506,
      "Valley": 3507,
      "AS": 3508,
      "Constitu": 3509,
      "Nar": 3510,
      "Soci": 3511,
      "lam": 3512,
      "press": 3513,
      "ंति": 3514,
      "डु": 3515,
      "सो": 3516,
      "eds": 3517,
      "adi": 3518,
      "नाव": 3519,
      "राजस्थान": 3520,
      "राजनीति": 3521,
      "ियाँ": 3522,
      "माज": 3523,
      "पाद": 3524,
      "दिसम्": 3525,
      "क्षेत्रों": 3526,
      "उत्पाद": 3527,
      "दीव": 3528,
      "हुई": 3529,
      "प्राचीन": 3530,
      "month": 3531,
      "period": 3532,
      "019": 3533,
      "545": 3534,
      "AC": 3535,
      "Kerala": 3536,
      "Lond": 3537,
      "Mic": 3538,
      "Var": 3539,
      "উদ্": 3540,
      "উন্ন": 3541,
      "চিত": 3542,
      "ডে": 3543,
      "নার": 3544,
      "রো": 3545,
      "শাল": 3546,
      "সার": 3547,
      "৫৬": 3548,
      "ors": 3549,
      "alore": 3550,
      "itz": 3551,
      "iving": 3552,
      "ats": 3553,
      "স্ত্র": 3554,
      "ollywood": 3555,
      "২০১৯": 3556,
      "130": 3557,
      "ক্ষর": 3558,
      "142": 3559,
      "143": 3560,
      "181": 3561,
      "িলি": 3562,
      "পর্য": 3563,
      "ভাষায়": 3564,
      "১৯৭": 3565,
      "relations": 3566,
      "who": 3567,
      "Mahal": 3568,
      "বর্ষ": 3569,
      "ভিন্ন": 3570,
      "অন্য": 3571,
      "ঞ্জা": 3572,
      "প্রধানমন্ত্রী": 3573,
      "এশিয়া": 3574,
      "Program": 3575,
      "Modi": 3576,
      "Bangalore": 3577,
      "Registr": 3578,
      "পর্বতমালা": 3579,
      "uistic": 3580,
      "উল্লেখ": 3581,
      "London": 3582,
      "Registrar": 3583,
      "Day": 3584,
      "dec": 3585,
      "tan": 3586,
      "203": 3587,
      "theast": 3588,
      "left": 3589,
      "109": 3590,
      "160": 3591,
      "166": 3592,
      "PPP": 3593,
      "Goa": 3594,
      "glance": 3595,
      "Constituent": 3596,
      "CE": 3597,
      "Sub": 3598,
      "UI": 3599,
      "US": 3600,
      "million": 3601,
      "ok": 3602,
      "oor": 3603,
      "power": 3604,
      "vi": 3605,
      "ंबई": 3606,
      "ईसा": 3607,
      "उर्": 3608,
      "बढ़": 3609,
      "योग": 3610,
      "रवरी": 3611,
      "सफ": 3612,
      "ोड़": 3613,
      "ఆగ": 3614,
      "ఇండి": 3615,
      "గఢ": 3616,
      "గంగా": 3617,
      "చర్": 3618,
      "పట": 3619,
      "పార్": 3620,
      "బహ": 3621,
      "బౌ": 3622,
      "మల": 3623,
      "మౌ": 3624,
      "లను": 3625,
      "ళు": 3626,
      "షన్": 3627,
      "సమ": 3628,
      "సూ": 3629,
      "tis": 3630,
      "chin": 3631,
      "ాలీ": 3632,
      "ाने": 3633,
      "onsoon": 3634,
      "स्त्र": 3635,
      "లుగు": 3636,
      "12148": 3637,
      "नाग": 3638,
      "राजवंश": 3639,
      "1990": 3640,
      "విస్త": 3641,
      "వాణా": 3642,
      "ికి": 3643,
      "निर": 3644,
      "लिए": 3645,
      "राष्ट्रपति": 3646,
      "हुआ": 3647,
      "युद्ध": 3648,
      "Robb": 3649,
      "स्थल": 3650,
      "దక్షిణాసియా": 3651,
      "timesofindia": 3652,
      "MetcalfMetcalf2012": 3653,
      "ద్ధం": 3654,
      "ద్ధి": 3655,
      "యునై": 3656,
      "रेल": 3657,
      "महासागर": 3658,
      "bnf": 3659,
      "ష్ణ": 3660,
      "भूमि": 3661,
      "संस्कृति": 3662,
      "బెంగాలీ": 3663,
      "document": 3664,
      "కాశ్మీరు": 3665,
      "शिक्षा": 3666,
      "Brahm": 3667,
      "సమాఖ్య": 3668,
      "द्योगिकी": 3669,
      "न्यायालय": 3670,
      "శతాబ్దం": 3671,
      "उर्दू": 3672,
      "గఢ్": 3673,
      "బౌద్ధ": 3674,
      "యునైటెడ్": 3675,
      "PK": 3676,
      "Sa": 3677,
      "since": 3678,
      "wal": 3679,
      "tig": 3680,
      "enth": 3681,
      "isions": 3682,
      "etary": 3683,
      "003": 3684,
      "265": 3685,
      "1999": 3686,
      "Prov": 3687,
      "ervation": 3688,
      "1971": 3689,
      "From": 3690,
      "northern": 3691,
      "Religion": 3692,
      "became": 3693,
      "Business": 3694,
      "Ear": 3695,
      "Iran": 3696,
      "Jam": 3697,
      "LO": 3698,
      "Law": 3699,
      "Pan": 3700,
      "Pers": 3701,
      "Sy": 3702,
      "SCO": 3703,
      "Te": 3704,
      "billion": 3705,
      "hru": 3706,
      "my": 3707,
      "ncl": 3708,
      "rup": 3709,
      "অভি": 3710,
      "উচ্চ": 3711,
      "এল": 3712,
      "ধা": 3713,
      "বছ": 3714,
      "বভৌ": 3715,
      "রক্ষ": 3716,
      "রপে": 3717,
      "সী": 3718,
      "২৯": 3719,
      "ারীকরণ": 3720,
      "thehind": 3721,
      "astern": 3722,
      "trans": 3723,
      "wealth": 3724,
      "প্রশাস": 3725,
      "ola": 3726,
      "বাণি": 3727,
      "0000": 3728,
      "সংবাদ": 3729,
      "CIA": 3730,
      "content": 3731,
      "নিরপে": 3732,
      "পিডিয়া": 3733,
      "পরিষ": 3734,
      "সময়": 3735,
      "দিবস": 3736,
      "সমূহের": 3737,
      "Liter": 3738,
      "summits": 3739,
      "সংস্কৃত": 3740,
      "এশিয়ার": 3741,
      "শ্রে": 3742,
      "নির্ভর": 3743,
      "Nehru": 3744,
      "মনো": 3745,
      "রাজনৈতিক": 3746,
      "মালয়াল": 3747,
      "Andaman": 3748,
      "উদারীকরণ": 3749,
      "olkata": 3750,
      "সার্বভৌ": 3751,
      "capit": 3752,
      "Gujarat": 3753,
      "জানু": 3754,
      "বিষয়": 3755,
      "Russia": 3756,
      "উন্নয়ন": 3757,
      "nclm": 3758,
      "বাণিজ্য": 3759,
      "নিরপেক্ষ": 3760,
      "সার্বভৌম": 3761,
      "EO": 3762,
      "Fe": 3763,
      "Journal": 3764,
      "Le": 3765,
      "Tw": 3766,
      "WEO": 3767,
      "date": 3768,
      "paper": 3769,
      "ंस": 3770,
      "जम्": 3771,
      "जून": 3772,
      "पार": 3773,
      "बल": 3774,
      "भो": 3775,
      "लं": 3776,
      "शु": 3777,
      "हार": 3778,
      "cise": 3779,
      "city": 3780,
      "idata": 3781,
      "प्रे": 3782,
      "संबंध": 3783,
      "ेशिया": 3784,
      "पुरी": 3785,
      "परि": 3786,
      "परमाण": 3787,
      "contr": 3788,
      "ext": 3789,
      "external": 3790,
      "ष्ण": 3791,
      "search": 3792,
      "arendra": 3793,
      "जनगण": 3794,
      "1962": 3795,
      "पूर्": 3796,
      "ंधी": 3797,
      "ोलन": 3798,
      "्रीका": 3799,
      "पश्चिमी": 3800,
      "यूनि": 3801,
      "उत्तरा": 3802,
      "मार्च": 3803,
      "mbols": 3804,
      "प्रधानमंत्री": 3805,
      "दिसम्बर": 3806,
      "जम्मू": 3807,
      "परमाणु": 3808,
      "जनगणना": 3809,
      "117": 3810,
      "2nd": 3811,
      "Caste": 3812,
      "Gold": 3813,
      "Nov": 3814,
      "Pp": 3815,
      "Publications": 3816,
      "SI": 3817,
      "Tur": 3818,
      "house": 3819,
      "such": 3820,
      "ves": 3821,
      "onwealth": 3822,
      "ale": 3823,
      "thematics": 3824,
      "adminis": 3825,
      "125": 3826,
      "total": 3827,
      "179": 3828,
      "1991": 3829,
      "222": 3830,
      "many": 3831,
      "hindi": 3832,
      "Minor": 3833,
      "IMF": 3834,
      "Part": 3835,
      "vat": 3836,
      "reme": 3837,
      "urn": 3838,
      "uction": 3839,
      "Profile": 3840,
      "1967": 3841,
      "Minister": 3842,
      "Cur": 3843,
      "Des": 3844,
      "Main": 3845,
      "Myan": 3846,
      "NG": 3847,
      "Ocean": 3848,
      "fes": 3849,
      "gress": 3850,
      "han": 3851,
      "खंड": 3852,
      "टा": 3853,
      "दश": 3854,
      "दर्": 3855,
      "नव": 3856,
      "पह": 3857,
      "बन": 3858,
      "बौ": 3859,
      "बना": 3860,
      "मरा": 3861,
      "रल": 3862,
      "र्य": 3863,
      "सर्व": 3864,
      "िर": 3865,
      "ैंड": 3866,
      "অ্যান্ড": 3867,
      "ক্রা": 3868,
      "খণ্ড": 3869,
      "চা": 3870,
      "চন্দ্র": 3871,
      "জৈ": 3872,
      "দশ": 3873,
      "পার্": 3874,
      "ফি": 3875,
      "বো": 3876,
      "র্য": 3877,
      "সিকি": 3878,
      "২৫": 3879,
      "৪৭": 3880,
      "అస్": 3881,
      "అరు": 3882,
      "ఇస్": 3883,
      "ఇది": 3884,
      "ఇంగ్": 3885,
      "కన్న": 3886,
      "కలి": 3887,
      "కరణ": 3888,
      "ఖండ": 3889,
      "గ్ర": 3890,
      "చా": 3891,
      "డీ": 3892,
      "డే": 3893,
      "తరా": 3894,
      "తులు": 3895,
      "ద్య": 3896,
      "ద్రా": 3897,
      "పండు": 3898,
      "బాం": 3899,
      "బడ్": 3900,
      "మాల్": 3901,
      "రవాణా": 3902,
      "ళ్": 3903,
      "సార": 3904,
      "ానికి": 3905,
      "্যের": 3906,
      "anda": 3907,
      "ాలో": 3908,
      "्यता": 3909,
      "रान": 3910,
      "use": 3911,
      "న్స్": 3912,
      "ప్రదా": 3913,
      "రికత": 3914,
      "క్నాల": 3915,
      "त्रि": 3916,
      "তান্ত্র": 3917,
      "ండర్": 3918,
      "CITEREFSingh2009": 3919,
      "సిక్కు": 3920,
      "28orthographic": 3921,
      "విశ్": 3922,
      "মাই": 3923,
      "২০০৬": 3924,
      "পরী": 3925,
      "library": 3926,
      "পাঞ্জা": 3927,
      "ద్వీ": 3928,
      "भाषाओं": 3929,
      "111": 3930,
      "पात": 3931,
      "80904": 3932,
      "গুজরা": 3933,
      "హిమాల": 3934,
      "ুরু": 3935,
      "432": 3936,
      "हिन्दू": 3937,
      "মেন্ট": 3938,
      "मुंबई": 3939,
      "ভূগোল": 3940,
      "मानव": 3941,
      "ంటు": 3942,
      "భారతదేశంలోని": 3943,
      "ক্রয়": 3944,
      "প্রাণী": 3945,
      "ন্ধী": 3946,
      "ंग्रेस": 3947,
      "చ్చే": 3948,
      "వేద": 3949,
      "द्वारा": 3950,
      "ইউনিয়": 3951,
      "Office": 3952,
      "ర్యా": 3953,
      "মাণবিক": 3954,
      "इसके": 3955,
      "নির্বা": 3956,
      "গান্ধী": 3957,
      "ఉత్తరా": 3958,
      "టెక్నాల": 3959,
      "फ़रवरी": 3960,
      "পশ্চিমবঙ্গ": 3961,
      "हीं": 3962,
      "నాగరికత": 3963,
      "తెలుగు": 3964,
      "কলকা": 3965,
      "পারমাণবিক": 3966,
      "నగర": 3967,
      "సింధు": 3968,
      "Wolpert2003": 3969,
      "groups": 3970,
      "गुजरात": 3971,
      "code": 3972,
      "CITEREFStein1998": 3973,
      "লোকসভা": 3974,
      "literature": 3975,
      "জলবায়ু": 3976,
      "క్రీడలు": 3977,
      "వచ్చింది": 3978,
      "৯৭৮": 3979,
      "సరిహ": 3980,
      "స్వాతంత్ర్య": 3981,
      "ইন্দো": 3982,
      "্যালয়": 3983,
      "సినిమా": 3984,
      "ఆఫ్ఘనిస్తాన్": 3985,
      "पर्वत": 3986,
      "প্রথম": 3987,
      "చర్చ": 3988,
      "ళుక్య": 3989,
      "শ্রেণী": 3990,
      "জানুয়ারি": 3991,
      "Myanmar": 3992,
      "बौद्ध": 3993,
      "కన్నడ": 3994,
      "చాళుక్య": 3995,
      "మాల్దీవులు": 3996,
      "তান্ত্রিক": 3997,
      "ইউনিয়ন": 3998,
      "టెక్నాలజీ": 3999,
      "Dr": 4000,
      "Her": 4001,
      "Wildlife": 4002,
      "bod": 4003,
      "da": 4004,
      "fic": 4005,
      "loy": 4006,
      "1000": 4007,
      "worldbank": 4008,
      "1965": 4009,
      "rown": 4010,
      "authority": 4011,
      "blem": 4012,
      "status": 4013,
      "Territ": 4014,
      "112": 4015,
      "114": 4016,
      "Civ": 4017,
      "Clim": 4018,
      "IU": 4019,
      "PC": 4020,
      "Row": 4021,
      "Social": 4022,
      "Ti": 4023,
      "cover": 4024,
      "dd": 4025,
      "dyn": 4026,
      "equ": 4027,
      "jor": 4028,
      "ker": 4029,
      "lar": 4030,
      "tree": 4031,
      "tell": 4032,
      "ergy": 4033,
      "ederal": 4034,
      "oll": 4035,
      "emp": 4036,
      "FOOTNOTEAsherTalbot2008": 4037,
      "aya": 4038,
      "ayas": 4039,
      "Spear": 4040,
      "about": 4041,
      "major": 4042,
      "bruary": 4043,
      "ankar": 4044,
      "Mach": 4045,
      "Chinese": 4046,
      "IND": 4047,
      "Search": 4048,
      "diff": 4049,
      "rule": 4050,
      "Nepal": 4051,
      "February": 4052,
      "Civil": 4053,
      "IUCN": 4054,
      "73": 4055,
      "Bal": 4056,
      "Dep": 4057,
      "west": 4058,
      "अफ": 4059,
      "कटि": 4060,
      "खण्ड": 4061,
      "गोल": 4062,
      "डिया": 4063,
      "दृ": 4064,
      "मौ": 4065,
      "वेश": 4066,
      "शता": 4067,
      "ौद्योगिकी": 4068,
      "क्कि": 4069,
      "प्रमुख": 4070,
      "प्रौद्योगिकी": 4071,
      "नाडु": 4072,
      "156": 4073,
      "CITEREFMetcalfMetcalf2006": 4074,
      "हिमाल": 4075,
      "सिक्कि": 4076,
      "अंग्रेजी": 4077,
      "formation": 4078,
      "ब्दी": 4079,
      "पालिका": 4080,
      "ictionary": 4081,
      "catalogue": 4082,
      "अगस्त": 4083,
      "शताब्दी": 4084,
      "सिक्किम": 4085,
      "210": 4086,
      "AD": 4087,
      "High": 4088,
      "Of": 4089,
      "SN": 4090,
      "Tel": 4091,
      "Tha": 4092,
      "bhas": 4093,
      "hdr": 4094,
      "ij": 4095,
      "ief": 4096,
      "long": 4097,
      "later": 4098,
      "nc": 4099,
      "nom": 4100,
      "অধিক": 4101,
      "কু": 4102,
      "ঘল": 4103,
      "চু": 4104,
      "জী": 4105,
      "তত্": 4106,
      "পৌ": 4107,
      "ফলে": 4108,
      "লব": 4109,
      "শ্": 4110,
      "২৪": 4111,
      "২৬": 4112,
      "৩০": 4113,
      "itary": 4114,
      "omas": 4115,
      "ources": 4116,
      "access": 4117,
      "বিভিন্ন": 4118,
      "FOOTNOTENational": 4119,
      "405": 4120,
      "য়েত": 4121,
      "লাম": 4122,
      "tribu": 4123,
      "ভাষাসমূহ": 4124,
      "বেঙ্গ": 4125,
      "ড়ে": 4126,
      "সিটি": 4127,
      "পিপি": 4128,
      "Indones": 4129,
      "উপমহা": 4130,
      "পরিসংখ": 4131,
      "সমভূমি": 4132,
      "অঞ্চলের": 4133,
      "জিডি": 4134,
      "মুঘল": 4135,
      "কোম্প": 4136,
      "বৈচিত্র": 4137,
      "ইউনি": 4138,
      "Bib": 4139,
      "athak": 4140,
      "টাকা": 4141,
      "Americ": 4142,
      "যায়ী": 4143,
      "যোগ্য": 4144,
      "মেশিনে": 4145,
      "মোট": 4146,
      "কেরল": 4147,
      "অনুযায়ী": 4148,
      "sites": 4149,
      "ইসলাম": 4150,
      "Programme": 4151,
      "বছর": 4152,
      "gressive": 4153,
      "ক্রয়ক্ষমতা": 4154,
      "Territory": 4155,
      "Climate": 4156,
      "bhasha": 4157,
      "Indonesia": 4158,
      "পরিসংখ্যান": 4159,
      "কোম্পানি": 4160,
      "62": 4161,
      "6174": 4162,
      "Dictionary": 4163,
      "Fir": 4164,
      "Himal": 4165,
      "Sup": 4166,
      "pag": 4167,
      "sim": 4168,
      "2026": 4169,
      "resent": 4170,
      "187": 4171,
      "267": 4172,
      "early": 4173,
      "own": 4174,
      "Karanth": 4175,
      "Encyclopedia": 4176,
      "Muslim": 4177,
      "Society": 4178,
      "Britannica": 4179,
      "cia": 4180,
      "cture": 4181,
      "fer": 4182,
      "found": 4183,
      "law": 4184,
      "sign": 4185,
      "some": 4186,
      "via": 4187,
      "ven": 4188,
      "अव": 4189,
      "अप्र": 4190,
      "अल्": 4191,
      "कन्न": 4192,
      "धा": 4193,
      "बार": 4194,
      "मणि": 4195,
      "लों": 4196,
      "हन": 4197,
      "ृत्य": 4198,
      "ैल": 4199,
      "१८": 4200,
      "ఖండ్": 4201,
      "చీ": 4202,
      "జరి": 4203,
      "జార్": 4204,
      "ట్ర": 4205,
      "తై": 4206,
      "తరు": 4207,
      "పై": 4208,
      "ఫర్": 4209,
      "మహ": 4210,
      "మలు": 4211,
      "మహార": 4212,
      "మయన్": 4213,
      "యో": 4214,
      "రూ": 4215,
      "శో": 4216,
      "సౌ": 4217,
      "సార్": 4218,
      "హార్": 4219,
      "ాష్ట్ర": 4220,
      "araj": 4221,
      "aries": 4222,
      "omin": 4223,
      "ooperation": 4224,
      "ాలా": 4225,
      "los": 4226,
      "భారత్": 4227,
      "र्ड": 4228,
      "ists": 4229,
      "ప్రజ": 4230,
      "లోయ": 4231,
      "238": 4232,
      "ays": 4233,
      "even": 4234,
      "సిక్": 4235,
      "ha2014": 4236,
      "త్మా": 4237,
      "हिमा": 4238,
      "itecture": 4239,
      "మాచల్": 4240,
      "ద్దు": 4241,
      "वादी": 4242,
      "ainting": 4243,
      "న్నో": 4244,
      "హిమాచల్": 4245,
      "దినో": 4246,
      "Prime": 4247,
      "మిజో": 4248,
      "artment": 4249,
      "రాజస్థాన్": 4250,
      "తరం": 4251,
      "आधिकार": 4252,
      "కోర్": 4253,
      "ణాచల్": 4254,
      "ణాటక": 4255,
      "Islam": 4256,
      "ప్రాంతం": 4257,
      "तेलु": 4258,
      "ultan": 4259,
      "ట్టు": 4260,
      "మేషన్": 4261,
      "యుద్ధం": 4262,
      "syayan": 4263,
      "स्थाप": 4264,
      "క్కువ": 4265,
      "पंजाबी": 4266,
      "२००": 4267,
      "२०१": 4268,
      "icket": 4269,
      "गांधी": 4270,
      "మహాత్మా": 4271,
      "PMID": 4272,
      "Force": 4273,
      "Organisation": 4274,
      "కర్ణాటక": 4275,
      "స్టా": 4276,
      "पार्टी": 4277,
      "త్సవం": 4278,
      "మార్గాలు": 4279,
      "బీహార్": 4280,
      "పంజాబ్": 4281,
      "Craven1997": 4282,
      "चुनाव": 4283,
      "वार्ता": 4284,
      "ఇరాన్": 4285,
      "సామ్రాజ్యము": 4286,
      "గుజరాత్": 4287,
      "మౌర్య": 4288,
      "capita": 4289,
      "मराठ": 4290,
      "అరుణాచల్": 4291,
      "ఇంగ్లీ": 4292,
      "చ్చేరి": 4293,
      "సరిహద్దు": 4294,
      "తరువా": 4295,
      "ఫర్మేషన్": 4296,
      "మహారాష్ట్ర": 4297,
      "మయన్మార్": 4298,
      "దినోత్సవం": 4299,
      "आधिकारिक": 4300,
      "BE": 4301,
      "Ling": 4302,
      "culture": 4303,
      "fun": 4304,
      "oy": 4305,
      "western": 4306,
      "tition": 4307,
      "eda": 4308,
      "tions": 4309,
      "they": 4310,
      "upta": 4311,
      "186": 4312,
      "hav": 4313,
      "Emblem": 4314,
      "Christ": 4315,
      "Ber": 4316,
      "Bas": 4317,
      "DS": 4318,
      "Foreign": 4319,
      "Gre": 4320,
      "Kolkata": 4321,
      "Policy": 4322,
      "ds": 4323,
      "dem": 4324,
      "his": 4325,
      "kar": 4326,
      "lord": 4327,
      "mal": 4328,
      "non": 4329,
      "painting": 4330,
      "sa": 4331,
      "set": 4332,
      "social": 4333,
      "একা": 4334,
      "ঐতি": 4335,
      "কমি": 4336,
      "ডার": 4337,
      "ধ্রু": 4338,
      "ন্যা": 4339,
      "ব্রু": 4340,
      "ময়": 4341,
      "যদি": 4342,
      "হে": 4343,
      "ামান": 4344,
      "ীর": 4345,
      "ুগু": 4346,
      "্সিটি": 4347,
      "reign": 4348,
      "ভার্সিটি": 4349,
      "cis": 4350,
      "বিপ্": 4351,
      "among": 4352,
      "raj": 4353,
      "144": 4354,
      "153": 4355,
      "157": 4356,
      "ayback": 4357,
      "লেখা": 4358,
      "িত্": 4359,
      "নায়": 4360,
      "গ্রা": 4361,
      "দেশিক": 4362,
      "osp": 4363,
      "বেক্ষণ": 4364,
      "ডিও": 4365,
      "Maur": 4366,
      "পরিবহ": 4367,
      "Commonwealth": 4368,
      "স্থিত": 4369,
      "বৈদেশিক": 4370,
      "শিখ": 4371,
      "দ্বীপপু": 4372,
      "Manipur": 4373,
      "ependence": 4374,
      "ological": 4375,
      "ghan": 4376,
      "People": 4377,
      "আরব": 4378,
      "আন্দামান": 4379,
      "bbc": 4380,
      "posed": 4381,
      "Politics": 4382,
      "Democ": 4383,
      "numbers": 4384,
      "সূচ": 4385,
      "ক্ষেত্রে": 4386,
      "Afghan": 4387,
      "খ্রিস্ট": 4388,
      "তেলুগু": 4389,
      "growth": 4390,
      "স্থাপত্য": 4391,
      "Group": 4392,
      "বর্তমান": 4393,
      "istorical": 4394,
      "Australia": 4395,
      "Jammu": 4396,
      "November": 4397,
      "IMFWEO": 4398,
      "vatsyayan": 4399,
      "জৈন": 4400,
      "কলকাতা": 4401,
      "nominal": 4402,
      "তত্ত্ব": 4403,
      "জিডিপি": 4404,
      "ইউনিভার্সিটি": 4405,
      "ঐতিহ": 4406,
      "ধ্রুপ": 4407,
      "বিপ্লব": 4408,
      "পরিবহন": 4409,
      "দ্বীপপুঞ্জ": 4410,
      "3TR": 4411,
      "Kal": 4412,
      "Mang": 4413,
      "Moh": 4414,
      "dia": 4415,
      "ful": 4416,
      "nu": 4417,
      "pur": 4418,
      "pub": 4419,
      "tDwAAQBAJ": 4420,
      "vers": 4421,
      "उच्च": 4422,
      "एन": 4423,
      "छत्": 4424,
      "निक": 4425,
      "पि": 4426,
      "रण": 4427,
      "हरी": 4428,
      "ूह": 4429,
      "teenth": 4430,
      "reed": 4431,
      "ould": 4432,
      "1980": 4433,
      "acts": 4434,
      "add": 4435,
      "loc": 4436,
      "र्ट": 4437,
      "136": 4438,
      "180": 4439,
      "तिक": 4440,
      "नाटक": 4441,
      "न्ध": 4442,
      "हैदरा": 4443,
      "287": 4444,
      "2905": 4445,
      "shall": 4446,
      "11162": 4447,
      "समूह": 4448,
      "करने": 4449,
      "वर्ग": 4450,
      "हुए": 4451,
      "सीमा": 4452,
      "युग": 4453,
      "achal": 4454,
      "074": 4455,
      "882905": 4456,
      "तुल": 4457,
      "पेक्ष": 4458,
      "इंडिया": 4459,
      "कर्नाटक": 4460,
      "श्रीलं": 4461,
      "निरपेक्ष": 4462,
      "3TRtDwAAQBAJ": 4463,
      "छत्तीस": 4464,
      "श्रीलंका": 4465,
      "329": 4466,
      "66": 4467,
      "Cor": 4468,
      "Car": 4469,
      "Culture": 4470,
      "Cooperation": 4471,
      "Dance": 4472,
      "Fin": 4473,
      "Games": 4474,
      "Id": 4475,
      "Laksh": 4476,
      "NA": 4477,
      "OL": 4478,
      "Ra": 4479,
      "Sr": 4480,
      "Sal": 4481,
      "bed": 4482,
      "gre": 4483,
      "ks": 4484,
      "miss": 4485,
      "movement": 4486,
      "ric": 4487,
      "racy": 4488,
      "uin": 4489,
      "var": 4490,
      "vel": 4491,
      "view": 4492,
      "ément": 4493,
      "orama": 4494,
      "estic": 4495,
      "adwe": 4496,
      "well": 4497,
      "inger": 4498,
      "1017": 4499,
      "iles": 4500,
      "ISO": 4501,
      "standard": 4502,
      "242": 4503,
      "odiversity": 4504,
      "asty": 4505,
      "Standard": 4506,
      "progressive": 4507,
      "ization": 4508,
      "shared": 4509,
      "Allchin": 4510,
      "Clément": 4511,
      "Buddhism": 4512,
      "control": 4513,
      "Rowland": 4514,
      "dynasty": 4515,
      "Afghanistan": 4516,
      "Lakshadwe": 4517,
      "Clémentin": 4518,
      "Lakshadweep": 4519,
      "04": 4520,
      "150": 4521,
      "220": 4522,
      "Global": 4523,
      "Narendra": 4524,
      "chi": 4525,
      "20070": 4526,
      "Inf": 4527,
      "269": 4528,
      "ung": 4529,
      "243": 4530,
      "See": 4531,
      "direct": 4532,
      "sector": 4533,
      "First": 4534,
      "178": 4535,
      "Ev": 4536,
      "Ku": 4537,
      "Krish": 4538,
      "Kumar": 4539,
      "Kingdom": 4540,
      "On": 4541,
      "OOj": 4542,
      "Per": 4543,
      "Vol": 4544,
      "Western": 4545,
      "Wayback": 4546,
      "ball": 4547,
      "dat": 4548,
      "fore": 4549,
      "famil": 4550,
      "lm": 4551,
      "ltr": 4552,
      "med": 4553,
      "nlm": 4554,
      "ram": 4555,
      "river": 4556,
      "utra": 4557,
      "ze": 4558,
      "ंट": 4559,
      "ंह": 4560,
      "इस्": 4561,
      "ऊर्": 4562,
      "ओड़": 4563,
      "कई": 4564,
      "गान": 4565,
      "घरेल": 4566,
      "झार": 4567,
      "तन": 4568,
      "नौ": 4569,
      "नहीं": 4570,
      "नृत्य": 4571,
      "पान": 4572,
      "मशी": 4573,
      "यार": 4574,
      "रक्ष": 4575,
      "रहा": 4576,
      "लोग": 4577,
      "शहर": 4578,
      "सकल": 4579,
      "हरा": 4580,
      "ीत": 4581,
      "ोच्च": 4582,
      "অতি": 4583,
      "উরি": 4584,
      "এছ": 4585,
      "এপ্র": 4586,
      "এটি": 4587,
      "কম": 4588,
      "খাল": 4589,
      "জম্": 4590,
      "ঠা": 4591,
      "থর": 4592,
      "দিক": 4593,
      "দারি": 4594,
      "নক": 4595,
      "নরে": 4596,
      "পতা": 4597,
      "পঞ্চ": 4598,
      "বৌ": 4599,
      "বরা": 4600,
      "ভুট": 4601,
      "মের": 4602,
      "মারা": 4603,
      "লিক": 4604,
      "ষি": 4605,
      "সর্": 4606,
      "াড়া": 4607,
      "াবেক্ষণ": 4608,
      "িতা": 4609,
      "েল": 4610,
      "েয়": 4611,
      "োষ": 4612,
      "৫৪": 4613,
      "ంక": 4614,
      "అనే": 4615,
      "ఎన్నో": 4616,
      "ఏర్": 4617,
      "కను": 4618,
      "ఖ్": 4619,
      "గీ": 4620,
      "గ్": 4621,
      "టో": 4622,
      "నం": 4623,
      "పర": 4624,
      "పొ": 4625,
      "మణి": 4626,
      "లతో": 4627,
      "లవు": 4628,
      "లమె": 4629,
      "ళం": 4630,
      "వృ": 4631,
      "శ్ర": 4632,
      "షా": 4633,
      "స్య": 4634,
      "హర్": 4635,
      "ూరు": 4636,
      "iam": 4637,
      "tered": 4638,
      "tice": 4639,
      "েরি": 4640,
      "্যার": 4641,
      "ారం": 4642,
      "তিতে": 4643,
      "বিস্ত": 4644,
      "केरल": 4645,
      "atan": 4646,
      "ago": 4647,
      "102": 4648,
      "সাবে": 4649,
      "প্রেস": 4650,
      "ర్లు": 4651,
      "urton": 4652,
      "ISSN": 4653,
      "ular": 4654,
      "ప్రతి": 4655,
      "ప్రస్తు": 4656,
      "সংক্রা": 4657,
      "50th": 4658,
      "146": 4659,
      "road": 4660,
      "163": 4661,
      "তাজ": 4662,
      "ম্বই": 4663,
      "িতে": 4664,
      "తిక": 4665,
      "త్తం": 4666,
      "মাধ্য": 4667,
      "కుటు": 4668,
      "ট্রফি": 4669,
      "নিজ": 4670,
      "হিসাবে": 4671,
      "টেলি": 4672,
      "লিং": 4673,
      "చిత్ర": 4674,
      "main": 4675,
      "১৯৮": 4676,
      "మాతరం": 4677,
      "ogg": 4678,
      "సంఘ": 4679,
      "दिव": 4680,
      "వందే": 4681,
      "करण": 4682,
      "करोड़": 4683,
      "aut": 4684,
      "ুরো": 4685,
      "जनजाति": 4686,
      "టిబె": 4687,
      "రాష్ట్రాల": 4688,
      "worldcat": 4689,
      "ব্যুরো": 4690,
      "সমতা": 4691,
      "অঞ্চলসমূহ": 4692,
      "করতে": 4693,
      "కోబ": 4694,
      "মুম্বই": 4695,
      "কোটি": 4696,
      "মালদ্বীপ": 4697,
      "মহাকাশ": 4698,
      "द्वार": 4699,
      "కాలంలో": 4700,
      "శాఖ": 4701,
      "nih": 4702,
      "జనవరి": 4703,
      "మొత్తం": 4704,
      "कुल": 4705,
      "টাই": 4706,
      "పాకిస్థాన్": 4707,
      "domestic": 4708,
      "অবস্থিত": 4709,
      "प्राप्त": 4710,
      "মোদী": 4711,
      "పెనీ": 4712,
      "Maldiv": 4713,
      "ফোর্স": 4714,
      "తమిళం": 4715,
      "ব্যাঙ্ক": 4716,
      "కారం": 4717,
      "রক্ষণাবেক্ষণ": 4718,
      "second": 4719,
      "নিয়ন্ত্র": 4720,
      "तमिलनाडु": 4721,
      "ఉపఖండ": 4722,
      "బాద్": 4723,
      "imf2": 4724,
      "জাতিসংঘ": 4725,
      "DikshitSchwartzberg": 4726,
      "কর্তৃ": 4727,
      "అధికారిక": 4728,
      "రెండు": 4729,
      "హ్మ": 4730,
      "వారస": 4731,
      "Quote": 4732,
      "অধি": 4733,
      "গঠন": 4734,
      "পোশা": 4735,
      "కంపెనీ": 4736,
      "మొదటి": 4737,
      "బ్రిటిషు": 4738,
      "పట్టణ": 4739,
      "সমাজ": 4740,
      "అత్యధిక": 4741,
      "সেনাবাহিনী": 4742,
      "উল্লেখযোগ্য": 4743,
      "ఇండియా": 4744,
      "పార్లమె": 4745,
      "బహు": 4746,
      "সীমা": 4747,
      "নির্ভরশীল": 4748,
      "प्रेस": 4749,
      "सर्वोच्च": 4750,
      "সিকিউরি": 4751,
      "హిమాలయాలు": 4752,
      "Machine": 4753,
      "Department": 4754,
      "हिमालय": 4755,
      "ncbi": 4756,
      "একাধিক": 4757,
      "যদিও": 4758,
      "OOjs": 4759,
      "इस्ला": 4760,
      "ऊर्जा": 4761,
      "घरेलू": 4762,
      "मशीन": 4763,
      "এছাড়া": 4764,
      "এপ্রিল": 4765,
      "জম্মু": 4766,
      "নরেন্দ্র": 4767,
      "পতাকা": 4768,
      "বৌদ্ধ": 4769,
      "ভুটান": 4770,
      "সর্বা": 4771,
      "కుటుంబ": 4772,
      "Maldives": 4773,
      "DikshitSchwartzberg2023": 4774,
      "সিকিউরিটি": 4775,
      "213": 4776,
      "AQ": 4777,
      "By": 4778,
      "Date": 4779,
      "TO": 4780,
      "UT": 4781,
      "Urd": 4782,
      "mer": 4783,
      "20150": 4784,
      "1016": 4785,
      "aver": 4786,
      "ingham": 4787,
      "Front": 4788,
      "Aks": 4789,
      "traditional": 4790,
      "Urdu": 4791,
      "212": 4792,
      "400": 4793,
      "8D": 4794,
      "Cr": 4795,
      "ES": 4796,
      "G8": 4797,
      "Ph": 4798,
      "Sab": 4799,
      "Tot": 4800,
      "ae": 4801,
      "bh": 4802,
      "band": 4803,
      "eb": 4804,
      "forest": 4805,
      "hya": 4806,
      "high": 4807,
      "ie": 4808,
      "kim": 4809,
      "nuclear": 4810,
      "va": 4811,
      "yam": 4812,
      "technology": 4813,
      "ert": 4814,
      "208": 4815,
      "arb": 4816,
      "ality": 4817,
      "enter": 4818,
      "there": 4819,
      "astr": 4820,
      "lege": 4821,
      "level": 4822,
      "amp": 4823,
      "atures": 4824,
      "images": 4825,
      "linkimages": 4826,
      "ema": 4827,
      "133": 4828,
      "149": 4829,
      "185": 4830,
      "152": 4831,
      "4020": 4832,
      "261": 4833,
      "place": 4834,
      "apan": 4835,
      "ables": 4836,
      "Aryan": 4837,
      "avi": 4838,
      "358": 4839,
      "ineering": 4840,
      "384": 4841,
      "Trade": 4842,
      "ject": 4843,
      "talk": 4844,
      "Sikkim": 4845,
      "PMC": 4846,
      "text": 4847,
      "Conservation": 4848,
      "Paul": 4849,
      "Linguistic": 4850,
      "412": 4851,
      "CS": 4852,
      "ईरान": 4853,
      "ओर": 4854,
      "कम": 4855,
      "कॉ": 4856,
      "कंप": 4857,
      "चार": 4858,
      "चंड": 4859,
      "जैन": 4860,
      "डि": 4861,
      "तीय": 4862,
      "दु": 4863,
      "मत": 4864,
      "मार": 4865,
      "मन्द": 4866,
      "यर": 4867,
      "समाज": 4868,
      "ery": 4869,
      "isl": 4870,
      "trod": 4871,
      "lock": 4872,
      "umeration": 4873,
      "स्वा": 4874,
      "78074": 4875,
      "134": 4876,
      "न्ह": 4877,
      "Information": 4878,
      "संस्थान": 4879,
      "सां": 4880,
      "साल": 4881,
      "राज्यक्षेत्र": 4882,
      "न्दा": 4883,
      "स्तर": 4884,
      "सिटी": 4885,
      "सिंह": 4886,
      "सून": 4887,
      "वाद": 4888,
      "param": 4889,
      "beach": 4890,
      "कारण": 4891,
      "मानसून": 4892,
      "वर्सिटी": 4893,
      "atis": 4894,
      "भीम": 4895,
      "होता": 4896,
      "महाद्वीप": 4897,
      "बीच": 4898,
      "Bhut": 4899,
      "वेबै": 4900,
      "जिसमें": 4901,
      "बिहार": 4902,
      "गोआ": 4903,
      "गुजराती": 4904,
      "Plateau": 4905,
      "मलया": 4906,
      "garh": 4907,
      "सैन्य": 4908,
      "अर्थव्यवस्था": 4909,
      "यूनिवर्सिटी": 4910,
      "अफ्रीका": 4911,
      "हिमाचल": 4912,
      "मराठी": 4913,
      "reedom": 4914,
      "CS1": 4915,
      "मन्दिर": 4916,
      "वेबैक": 4917,
      "350": 4918,
      "345": 4919,
      "9F": 4920,
      "Can": 4921,
      "Don": 4922,
      "Dal": 4923,
      "Middle": 4924,
      "Non": 4925,
      "Peng": 4926,
      "Paper": 4927,
      "Sind": 4928,
      "Site": 4929,
      "mp": 4930,
      "min": 4931,
      "ning": 4932,
      "sp": 4933,
      "আজ": 4934,
      "আসাম": 4935,
      "উড": 4936,
      "এম": 4937,
      "এক্স": 4938,
      "কিল": 4939,
      "কন্ন": 4940,
      "খন": 4941,
      "খর": 4942,
      "গানি": 4943,
      "ঘা": 4944,
      "ডলার": 4945,
      "দিকে": 4946,
      "ধর": 4947,
      "নৌ": 4948,
      "নয়": 4949,
      "ফ্রা": 4950,
      "ভিত্": 4951,
      "রণ": 4952,
      "সভ্য": 4953,
      "হর": 4954,
      "হকি": 4955,
      "৩৩": 4956,
      "৩৪": 4957,
      "৩৫": 4958,
      "৫৫": 4959,
      "৬৫": 4960,
      "ines": 4961,
      "rele": 4962,
      "eries": 4963,
      "205": 4964,
      "alli": 4965,
      "education": 4966,
      "্রো": 4967,
      "itage": 4968,
      "190": 4969,
      "oot": 4970,
      "ন্ট্র": 4971,
      "র্থ": 4972,
      "atter": 4973,
      "ক্লো": 4974,
      "101": 4975,
      "স্মাই": 4976,
      "ility": 4977,
      "প্রিয়": 4978,
      "প্রথা": 4979,
      "প্রস্ত": 4980,
      "olution": 4981,
      "igence": 4982,
      "২০২১": 4983,
      "183": 4984,
      "172": 4985,
      "CITEREFKulkeRothermund2004": 4986,
      "hap": 4987,
      "254": 4988,
      "মাথা": 4989,
      "২০০৪": 4990,
      "হিসে": 4991,
      "জনপরিসংখ্যান": 4992,
      "জনপ্রিয়": 4993,
      "উৎপাদ": 4994,
      "ঙ্গা": 4995,
      "occ": 4996,
      "ockey": 4997,
      "ogn": 4998,
      "সিস": 4999,
      "২০১৩": 5000,
      "২০১৮": 5001,
      "creas": 5002,
      "order": 5003,
      "করেছে": 5004,
      "গণতান্ত্রিক": 5005,
      "মহাসাগর": 5006,
      "বিশ্বকাপ": 5007,
      "Assoc": 5008,
      "Bihar": 5009,
      "Prote": 5010,
      "যাত্র": 5011,
      "যোগিতা": 5012,
      "যুক্তরাজ্য": 5013,
      "Petr": 5014,
      "চেঞ্জ": 5015,
      "overeign": 5016,
      "Exchange": 5017,
      "Karnat": 5018,
      "Monetary": 5019,
      "পূর্ণ": 5020,
      "আফগানি": 5021,
      "republic": 5022,
      "Jainism": 5023,
      "প্রশাসনিক": 5024,
      "পরিষদ": 5025,
      "পার্টি": 5026,
      "পরীক্ষা": 5027,
      "telligence": 5028,
      "Spear1990": 5029,
      "অধিকার": 5030,
      "Berlin": 5031,
      "ঐতিহ্য": 5032,
      "Krishna": 5033,
      "নিয়ন্ত্রণ": 5034,
      "Sabha": 5035,
      "Penguin": 5036,
      "এক্সচেঞ্জ": 5037,
      "কন্নড়": 5038,
      "ঘাট": 5039,
      "স্মাইলিং": 5040,
      "উৎপাদন": 5041,
      "Karnataka": 5042,
      "আফগানিস্তান": 5043,
      "Div": 5044,
      "Po": 5045,
      "Vu": 5046,
      "bl": 5047,
      "fa": 5048,
      "ix": 5049,
      "nan": 5050,
      "way": 5051,
      "ora": 5052,
      "ict": 5053,
      "ulti": 5054,
      "akrish": 5055,
      "PA48": 5056,
      "905": 5057,
      "Ancient": 5058,
      "religious": 5059,
      "Time": 5060,
      "Region": 5061,
      "akrishnan": 5062,
      "321": 5063,
      "600": 5064,
      "Agency": 5065,
      "Drav": 5066,
      "EC": 5067,
      "Egy": 5068,
      "FI": 5069,
      "IJ": 5070,
      "MD": 5071,
      "ND": 5072,
      "Sar": 5073,
      "Sang": 5074,
      "Tri": 5075,
      "Vedic": 5076,
      "both": 5077,
      "den": 5078,
      "eastern": 5079,
      "factbook": 5080,
      "hand": 5081,
      "jpe": 5082,
      "km": 5083,
      "sc": 5084,
      "sq": 5085,
      "women": 5086,
      "तृ": 5087,
      "तो": 5088,
      "पक": 5089,
      "पट": 5090,
      "पत्": 5091,
      "फा": 5092,
      "भग": 5093,
      "भ्यता": 5094,
      "रिया": 5095,
      "लिया": 5096,
      "सभ्यता": 5097,
      "ीगढ़": 5098,
      "ोन": 5099,
      "అను": 5100,
      "అమె": 5101,
      "ఆంధ": 5102,
      "ఎన్ని": 5103,
      "ఎక్కువ": 5104,
      "కథ": 5105,
      "కాలు": 5106,
      "కల్": 5107,
      "జన్": 5108,
      "జైన": 5109,
      "డో": 5110,
      "తము": 5111,
      "థి": 5112,
      "న్యా": 5113,
      "పల్ల": 5114,
      "ఫై": 5115,
      "భర": 5116,
      "మరా": 5117,
      "యక": 5118,
      "శీ": 5119,
      "సహా": 5120,
      "ుల": 5121,
      "tigr": 5122,
      "ances": 5123,
      "ofiles": 5124,
      "్రప్రదేశ్": 5125,
      "1977": 5126,
      "idian": 5127,
      "ాలలో": 5128,
      "ads": 5129,
      "tro": 5130,
      "्यू": 5131,
      "ament": 5132,
      "ating": 5133,
      "agric": 5134,
      "దేశము": 5135,
      "సాధి": 5136,
      "iland": 5137,
      "urban": 5138,
      "ficient": 5139,
      "ప్రము": 5140,
      "ప్రకారం": 5141,
      "today": 5142,
      "resources": 5143,
      "137": 5144,
      "विजय": 5145,
      "క్టో": 5146,
      "ందు": 5147,
      "నియా": 5148,
      "तिब्": 5149,
      "न्स": 5150,
      "ల్తా": 5151,
      "ల్వే": 5152,
      "169": 5153,
      "क्षर": 5154,
      "iri": 5155,
      "राजधान": 5156,
      "unknown": 5157,
      "ेशन": 5158,
      "ండమా": 5159,
      "ताज": 5160,
      "విధ": 5161,
      "విద్య": 5162,
      "Chenn": 5163,
      "కుడు": 5164,
      "ernet": 5165,
      "యాళం": 5166,
      "ందిన": 5167,
      "2011religion": 5168,
      "చిన్న": 5169,
      "षाण": 5170,
      "వాహ": 5171,
      "सिंध": 5172,
      "సంస్థ": 5173,
      "సంఖ్య": 5174,
      "udi": 5175,
      "ష్టు": 5176,
      "డిన": 5177,
      "क्षेत्रीय": 5178,
      "దినాలు": 5179,
      "ज़ा": 5180,
      "lands": 5181,
      "ugu": 5182,
      "స్త్రీయ": 5183,
      "గుర్": 5184,
      "ल्स": 5185,
      "లిం": 5186,
      "కోల్": 5187,
      "త్యం": 5188,
      "శాస్త్రీయ": 5189,
      "regions": 5190,
      "మేఘ": 5191,
      "Park": 5192,
      "ాల్లో": 5193,
      "ography": 5194,
      "ారిటీ": 5195,
      "embers": 5196,
      "తున్న": 5197,
      "Census2011religion": 5198,
      "సుల్తా": 5199,
      "రాజ్యాలు": 5200,
      "గిన": 5201,
      "point": 5202,
      "బడిన": 5203,
      "రైల్వే": 5204,
      "పిక్": 5205,
      "सुरक्षा": 5206,
      "तटीय": 5207,
      "मालदीव": 5208,
      "కాశ్మీర్": 5209,
      "flu": 5210,
      "संगीत": 5211,
      "నేషనల్": 5212,
      "Ojha2014": 5213,
      "ific": 5214,
      "घाट": 5215,
      "Class": 5216,
      "political": 5217,
      "अन्तर": 5218,
      "వ్యాసం": 5219,
      "जलवायु": 5220,
      "వలస": 5221,
      "స్వతంత్ర": 5222,
      "అయిన": 5223,
      "ప్రభుత్వం": 5224,
      "కాంగ్రెసు": 5225,
      "సముద్రం": 5226,
      "राजनीतिक": 5227,
      "ఆగష్టు": 5228,
      "మలయాళం": 5229,
      "उत्तराखण्ड": 5230,
      "Golden": 5231,
      "दशक": 5232,
      "విశ్వా": 5233,
      "ంటుంది": 5234,
      "చాళుక్యులు": 5235,
      "अप्रैल": 5236,
      "ట్రో": 5237,
      "ఇంగ్లీషు": 5238,
      "rajbhasha": 5239,
      "हैदराबाद": 5240,
      "వృద్ధి": 5241,
      "పార్లమెంట": 5242,
      "चंडीगढ़": 5243,
      "Bhutan": 5244,
      "Dravidian": 5245,
      "Egypt": 5246,
      "jpeg": 5247,
      "km2": 5248,
      "అమెరి": 5249,
      "ఆంధ్రప్రదేశ్": 5250,
      "మరాఠ": 5251,
      "tigris": 5252,
      "ప్రముఖ": 5253,
      "तिब्ब": 5254,
      "Chennai": 5255,
      "सिंधु": 5256,
      "సుల్తానులు": 5257,
      "Dis": 5258,
      "HD": 5259,
      "dy": 5260,
      "only": 5261,
      "anagar": 5262,
      "ison": 5263,
      "20090": 5264,
      "imp": 5265,
      "ets": 5266,
      "145": 5267,
      "expec": 5268,
      "maint": 5269,
      "bert": 5270,
      "8012": 5271,
      "Devanagar": 5272,
      "symbols": 5273,
      "Coast": 5274,
      "docs": 5275,
      "Devanagari": 5276,
      "Ahm": 5277,
      "Japan": 5278,
      "Kathak": 5279,
      "Music": 5280,
      "Monsoon": 5281,
      "Nic": 5282,
      "Nil": 5283,
      "PE": 5284,
      "Sur": 5285,
      "Tay": 5286,
      "ault": 5287,
      "bri": 5288,
      "cro": 5289,
      "cast": 5290,
      "cord": 5291,
      "hum": 5292,
      "lor": 5293,
      "source": 5294,
      "scrip": 5295,
      "wid": 5296,
      "ward": 5297,
      "ঁচ": 5298,
      "ংহ": 5299,
      "আধ": 5300,
      "ওয়": 5301,
      "কয়": 5302,
      "ছু": 5303,
      "জিক": 5304,
      "ঝা": 5305,
      "ঠি": 5306,
      "দ্য": 5307,
      "ধু": 5308,
      "ফস": 5309,
      "বলি": 5310,
      "মরু": 5311,
      "রূ": 5312,
      "স্য": 5313,
      "হো": 5314,
      "ুল": 5315,
      "inter": 5316,
      "increas": 5317,
      "though": 5318,
      "third": 5319,
      "ancient": 5320,
      "htra": 5321,
      "ashtra": 5322,
      "icts": 5323,
      "acred": 5324,
      "বিমান": 5325,
      "20080": 5326,
      "ives": 5327,
      "trop": 5328,
      "trative": 5329,
      "atar": 5330,
      "aglia": 5331,
      "eck": 5332,
      "প্রকৃতি": 5333,
      "ura": 5334,
      "ালুরু": 5335,
      "emale": 5336,
      "FOOTNOTEHarle": 5337,
      "FOOTNOTESpear1990": 5338,
      "184": 5339,
      "151": 5340,
      "Indians": 5341,
      "Intelligence": 5342,
      "406": 5343,
      "286": 5344,
      "hael": 5345,
      "লাক্ষা": 5346,
      "Chola": 5347,
      "ত্ম": 5348,
      "গ্রহ": 5349,
      "পরে": 5350,
      "জনগণ": 5351,
      "টেক": 5352,
      "লিশ": 5353,
      "১৯৫০": 5354,
      "১৯৪৭": 5355,
      "Army": 5356,
      "ave": 5357,
      "prime": 5358,
      "হেরু": 5359,
      "erry": 5360,
      "সিংহ": 5361,
      "began": 5362,
      "পিছু": 5363,
      "নেহেরু": 5364,
      "efficient": 5365,
      "করুন": 5366,
      "বর্ণ": 5367,
      "বর্তী": 5368,
      "features": 5369,
      "সরকারের": 5370,
      "Education": 5371,
      "coefficient": 5372,
      "বিশ্ববিদ": 5373,
      "সংস্করণ": 5374,
      "Thomas": 5375,
      "এশীয়": 5376,
      "পুলিশ": 5377,
      "Biodiversity": 5378,
      "কৃতিক": 5379,
      "খাত": 5380,
      "overty": 5381,
      "authorities": 5382,
      "20210": 5383,
      "knowindia": 5384,
      "প্রতিযোগিতা": 5385,
      "orests": 5386,
      "ব্দ": 5387,
      "জেলা": 5388,
      "isional": 5389,
      "akhand": 5390,
      "CITEREFStein2010": 5391,
      "milk": 5392,
      "product": 5393,
      "গোষ্ঠ": 5394,
      "সাইক্লো": 5395,
      "PRO": 5396,
      "আফ্র": 5397,
      "ফেডার": 5398,
      "ফেব্রু": 5399,
      "সাধারণতন্ত্র": 5400,
      "সংরক্ষণের": 5401,
      "তথ্যবিজ্ঞান": 5402,
      "development": 5403,
      "Uttarakhand": 5404,
      "Michael": 5405,
      "উদ্ভি": 5406,
      "viol": 5407,
      "rupee": 5408,
      "রক্ষী": 5409,
      "thehindu": 5410,
      "মনোর": 5411,
      "মালয়ালম": 5412,
      "Minorities": 5413,
      "Tibet": 5414,
      "Thailand": 5415,
      "পৌর": 5416,
      "বেঙ্গালুরু": 5417,
      "বৈচিত্র্য": 5418,
      "ultanate": 5419,
      "কমিশন": 5420,
      "osphere": 5421,
      "ভিত্তিতে": 5422,
      "release": 5423,
      "প্রস্তর": 5424,
      "মাথাপিছু": 5425,
      "Petraglia": 5426,
      "amental": 5427,
      "Taylor": 5428,
      "মরুভূমি": 5429,
      "লাক্ষাদ্বীপ": 5430,
      "বিশ্ববিদ্যালয়": 5431,
      "ফেডারেশন": 5432,
      "ফেব্রুয়ারি": 5433,
      "1b": 5434,
      "Gini": 5435,
      "NI": 5436,
      "NGDP": 5437,
      "Rig": 5438,
      "Wh": 5439,
      "ZVu": 5440,
      "bra": 5441,
      "base": 5442,
      "kash": 5443,
      "kZVu": 5444,
      "made": 5445,
      "policy": 5446,
      "sm": 5447,
      "sing": 5448,
      "utral": 5449,
      "ंत": 5450,
      "अलग": 5451,
      "उन": 5452,
      "कला": 5453,
      "गू": 5454,
      "जं": 5455,
      "जब": 5456,
      "टान": 5457,
      "धार": 5458,
      "मिक": 5459,
      "रत": 5460,
      "रह": 5461,
      "लम": 5462,
      "लका": 5463,
      "वृ": 5464,
      "श्य": 5465,
      "सत": 5466,
      "सहा": 5467,
      "िस्तान": 5468,
      "ृत": 5469,
      "ौर": 5470,
      "notation": 5471,
      "lection": 5472,
      "्यों": 5473,
      "aten": 5474,
      "मेघ": 5475,
      "काली": 5476,
      "विक": 5477,
      "विष": 5478,
      "विदेश": 5479,
      "1857": 5480,
      "173": 5481,
      "साहि": 5482,
      "eval": 5483,
      "पुलि": 5484,
      "248": 5485,
      "osys": 5486,
      "सिख": 5487,
      "जाती": 5488,
      "ड़ो": 5489,
      "ज़ो": 5490,
      "जनवरी": 5491,
      "मिज़ो": 5492,
      "तेल": 5493,
      "जीवन": 5494,
      "deb": 5495,
      "देख": 5496,
      "Constitutional": 5497,
      "कुछ": 5498,
      "हरिया": 5499,
      "Neutral": 5500,
      "Concise": 5501,
      "अधि": 5502,
      "ज्ञा": 5503,
      "उपमहाद्वीप": 5504,
      "Agni": 5505,
      "Institu": 5506,
      "बांग्लादेश": 5507,
      "edieval": 5508,
      "tancy": 5509,
      "पहले": 5510,
      "चुनावों": 5511,
      "छत्तीसगढ़": 5512,
      "Infosys": 5513,
      "Division": 5514,
      "expectancy": 5515,
      "kZVuDwAAQBAJ": 5516,
      "सहाय": 5517,
      "पुलिस": 5518,
      "050": 5519,
      "5196": 5520,
      "BI": 5521,
      "Bah": 5522,
      "Cin": 5523,
      "Federal": 5524,
      "Gree": 5525,
      "Gross": 5526,
      "Nanda": 5527,
      "RL": 5528,
      "Vis": 5529,
      "bel": 5530,
      "cg": 5531,
      "ced": 5532,
      "do": 5533,
      "erent": 5534,
      "far": 5535,
      "ji": 5536,
      "last": 5537,
      "nar": 5538,
      "pen": 5539,
      "pand": 5540,
      "que": 5541,
      "rs": 5542,
      "ringer": 5543,
      "orne": 5544,
      "erve": 5545,
      "idy": 5546,
      "agore": 5547,
      "ume": 5548,
      "ilk": 5549,
      "tock": 5550,
      "indian": 5551,
      "131": 5552,
      "1300": 5553,
      "stan": 5554,
      "165": 5555,
      "Inter": 5556,
      "235": 5557,
      "Springer": 5558,
      "1993": 5559,
      "aputra": 5560,
      "305": 5561,
      "ountain": 5562,
      "mathematics": 5563,
      "profiles": 5564,
      "harm": 5565,
      "vey": 5566,
      "when": 5567,
      "Maha": 5568,
      "353": 5569,
      "Shankar": 5570,
      "awa": 5571,
      "lowing": 5572,
      "minister": 5573,
      "Religious": 5574,
      "Organization": 5575,
      "Barrow": 5576,
      "estimated": 5577,
      "NCL": 5578,
      "Brahmaputra": 5579,
      "Provisional": 5580,
      "festi": 5581,
      "Aksai": 5582,
      "Totals": 5583,
      "Ahmed": 5584,
      "349": 5585,
      "447": 5586,
      "Air": 5587,
      "Gil": 5588,
      "Gop": 5589,
      "Him": 5590,
      "La": 5591,
      "Nor": 5592,
      "bhar": 5593,
      "dra": 5594,
      "publications": 5595,
      "ues": 5596,
      "vol": 5597,
      "ym": 5598,
      "zon": 5599,
      "cil": 5600,
      "olas": 5601,
      "006": 5602,
      "333": 5603,
      "459": 5604,
      "uggle": 5605,
      "Amrit": 5606,
      "ethnologue": 5607,
      "parliamentofindia": 5608,
      "Supreme": 5609,
      "Gopal": 5610,
      "Himachal": 5611,
      "7C": 5612,
      "Bom": 5613,
      "Food": 5614,
      "G20": 5615,
      "Iy": 5616,
      "JIJ": 5617,
      "LC": 5618,
      "Lo": 5619,
      "Sam": 5620,
      "Va": 5621,
      "Women": 5622,
      "Zva": 5623,
      "aJIJ": 5624,
      "c8": 5625,
      "cted": 5626,
      "dq": 5627,
      "dikshit": 5628,
      "east": 5629,
      "gir": 5630,
      "pass": 5631,
      "rise": 5632,
      "tus": 5633,
      "अमे": 5634,
      "आन्द": 5635,
      "आंध": 5636,
      "ऑक्": 5637,
      "कं": 5638,
      "क़": 5639,
      "कै": 5640,
      "कों": 5641,
      "खन": 5642,
      "ग्व": 5643,
      "टका": 5644,
      "डा": 5645,
      "णाली": 5646,
      "पै": 5647,
      "पाली": 5648,
      "पब्": 5649,
      "बड़े": 5650,
      "भु": 5651,
      "यत": 5652,
      "व्या": 5653,
      "श्र": 5654,
      "सर्": 5655,
      "ूर": 5656,
      "ेद": 5657,
      "ॉल": 5658,
      "ोर्ड": 5659,
      "००": 5660,
      "অন্ধ": 5661,
      "অবস্থা": 5662,
      "অস্ট্র": 5663,
      "অভ্য": 5664,
      "আন": 5665,
      "ইস্ট": 5666,
      "উট": 5667,
      "এলা": 5668,
      "ওয়া": 5669,
      "ওড়ি": 5670,
      "কলা": 5671,
      "কর্ম": 5672,
      "কগণ": 5673,
      "চ্": 5674,
      "ট্": 5675,
      "তফস": 5676,
      "দান": 5677,
      "ধি": 5678,
      "নের": 5679,
      "নয়া": 5680,
      "পদ": 5681,
      "মৈ": 5682,
      "মহল": 5683,
      "যার": 5684,
      "যান": 5685,
      "রিয়া": 5686,
      "রবী": 5687,
      "লু": 5688,
      "সফ": 5689,
      "সৌ": 5690,
      "হু": 5691,
      "হতে": 5692,
      "৩১": 5693,
      "అర": 5694,
      "అక్ష": 5695,
      "అరే": 5696,
      "అభి": 5697,
      "అశో": 5698,
      "అండమా": 5699,
      "ఆధ": 5700,
      "ఇంట": 5701,
      "ఉంట": 5702,
      "ఎక్": 5703,
      "ఏప్ర": 5704,
      "కల": 5705,
      "కలు": 5706,
      "కర్య": 5707,
      "కబడ్": 5708,
      "ఖో": 5709,
      "గే": 5710,
      "గర్": 5711,
      "చద": 5712,
      "చో": 5713,
      "చండ": 5714,
      "జం": 5715,
      "జయ": 5716,
      "టై": 5717,
      "టర్": 5718,
      "డమ్": 5719,
      "డయ్య": 5720,
      "డఖ్": 5721,
      "ణే": 5722,
      "ణంగా": 5723,
      "నంద": 5724,
      "నడి": 5725,
      "నంలో": 5726,
      "పత": 5727,
      "పచ్": 5728,
      "బో": 5729,
      "బర్": 5730,
      "బంధ": 5731,
      "మో": 5732,
      "మాలు": 5733,
      "మలే": 5734,
      "యె": 5735,
      "రళ": 5736,
      "లాం": 5737,
      "లంగా": 5738,
      "లడఖ్": 5739,
      "ళా": 5740,
      "ళి": 5741,
      "వారి": 5742,
      "వనాలు": 5743,
      "శి": 5744,
      "శు": 5745,
      "షియా": 5746,
      "సహ": 5747,
      "సే": 5748,
      "సత్య": 5749,
      "హొ": 5750,
      "హవే": 5751,
      "హర్యా": 5752,
      "ైస్త": 5753,
      "income": 5754,
      "influ": 5755,
      "ret": 5756,
      "arts": 5757,
      "ani": 5758,
      "ancis": 5759,
      "along": 5760,
      "্রপ্রদেশ": 5761,
      "cir": 5762,
      "్రి": 5763,
      "1956": 5764,
      "তিন": 5765,
      "ন্তি": 5766,
      "ాలయ": 5767,
      "ాలె": 5768,
      "ాలను": 5769,
      "বিজন": 5770,
      "বিদেশ": 5771,
      "wear": 5772,
      "স্টি": 5773,
      "স্কার": 5774,
      "సామా": 5775,
      "প্রচল": 5776,
      "প্রবেশ": 5777,
      "ర్ణం": 5778,
      "ర్చు": 5779,
      "iger": 5780,
      "రాం": 5781,
      "రాస్య": 5782,
      "ప్రజా": 5783,
      "భారతదేశపు": 5784,
      "భారతదేశానికి": 5785,
      "లోని": 5786,
      "emic": 5787,
      "FOOTNOTEWolpert2003": 5788,
      "FOOTNOTECraven1997": 5789,
      "FOOTNOTEClémentin": 5790,
      "হায়": 5791,
      "प्रणाली": 5792,
      "विभा": 5793,
      "विस्त": 5794,
      "वियत": 5795,
      "నికోబ": 5796,
      "story": 5797,
      "independence": 5798,
      "েশিয়া": 5799,
      "168": 5800,
      "ంగో": 5801,
      "irates": 5802,
      "operation": 5803,
      "263": 5804,
      "akar": 5805,
      "ండా": 5806,
      "ండ్య": 5807,
      "CITEREFDyson2018": 5808,
      "సింది": 5809,
      "282": 5810,
      "1992": 5811,
      "తాజ్": 5812,
      "నాథ": 5813,
      "వివిధ": 5814,
      "ंगाना": 5815,
      "247": 5816,
      "परी": 5817,
      "লাভ": 5818,
      "Chief": 5819,
      "নাই": 5820,
      "নাড়": 5821,
      "త్తీ": 5822,
      "కుల": 5823,
      "కుంట": 5824,
      "ত্থ": 5825,
      "नेतृ": 5826,
      "नेपाली": 5827,
      "হিম": 5828,
      "कोलका": 5829,
      "থাকে": 5830,
      "పూర్వ": 5831,
      "వాదం": 5832,
      "ికీ": 5833,
      "్రామ": 5834,
      "మాత్ర": 5835,
      "భాగం": 5836,
      "Art": 5837,
      "ঙ্গেয়": 5838,
      "AAJ": 5839,
      "సంప్రదా": 5840,
      "కాతా": 5841,
      "ড়ো": 5842,
      "সিপা": 5843,
      "కిం": 5844,
      "కింగ్": 5845,
      "పాండి": 5846,
      "పాండ్య": 5847,
      "పుర": 5848,
      "స్థా": 5849,
      "গুলো": 5850,
      "Index": 5851,
      "ains": 5852,
      "న్నై": 5853,
      "ঞ্চলে": 5854,
      "এনসাইক্লো": 5855,
      "areas": 5856,
      "উপরাষ্ট্রপতি": 5857,
      "ুরি": 5858,
      "ভূটান": 5859,
      "২০১৬": 5860,
      "జిల్": 5861,
      "রাজ্যসভা": 5862,
      "కేరళ": 5863,
      "గుప్": 5864,
      "లియా": 5865,
      "Emirates": 5866,
      "বিশ্বে": 5867,
      "ারাষ্ট্র": 5868,
      "প্রায়": 5869,
      "Energy": 5870,
      "মুখ": 5871,
      "কোন": 5872,
      "গণতন্ত্র": 5873,
      "अभिज्ञा": 5874,
      "সম্পাদ": 5875,
      "చేయ": 5876,
      "దాద్రా": 5877,
      "వేగంగా": 5878,
      "34238": 5879,
      "गुप्त": 5880,
      "చెన్నై": 5881,
      "జీరియా": 5882,
      "ప్పట": 5883,
      "మేన": 5884,
      "యుగం": 5885,
      "देवी": 5886,
      "पीठ": 5887,
      "पीपी": 5888,
      "रूस": 5889,
      "జనతా": 5890,
      "జనగణ": 5891,
      "జనపద": 5892,
      "पुरम": 5893,
      "ইউরো": 5894,
      "బియా": 5895,
      "GuaJIJ": 5896,
      "পুরা": 5897,
      "మొగలు": 5898,
      "Trans": 5899,
      "కొరియా": 5900,
      "Francis": 5901,
      "গাঙ্গেয়": 5902,
      "प्ले": 5903,
      "দেখা": 5904,
      "Bengali": 5905,
      "గోళ": 5906,
      "గోవా": 5907,
      "గోదా": 5908,
      "డామన్": 5909,
      "వరాలు": 5910,
      "ప్రపంచము": 5911,
      "ప్రపంచంలో": 5912,
      "ব্রিটান": 5913,
      "త్రిపుర": 5914,
      "film": 5915,
      "আর্য": 5916,
      "च्छ": 5917,
      "পুরস্কার": 5918,
      "১৯৯৮": 5919,
      "సంస్కృతం": 5920,
      "বিদ্রো": 5921,
      "bollywood": 5922,
      "मैथि": 5923,
      "দুই": 5924,
      "పించ": 5925,
      "প্রজাতন্ত্রী": 5926,
      "बेटका": 5927,
      "Ethnic": 5928,
      "বাহী": 5929,
      "Marath": 5930,
      "बंधन": 5931,
      "न्नई": 5932,
      "నాగాలా": 5933,
      "প্রযুক্তির": 5934,
      "క్రైస్త": 5935,
      "తెలంగా": 5936,
      "ipura": 5937,
      "వెను": 5938,
      "సాంకే": 5939,
      "बहुत": 5940,
      "ণাট": 5941,
      "11934238": 5942,
      "IAEX": 5943,
      "భిన్న": 5944,
      "నేషియా": 5945,
      "উদ্যান": 5946,
      "কর্ণাট": 5947,
      "इंडोन": 5948,
      "क्रम": 5949,
      "घाटी": 5950,
      "केन्द्रीय": 5951,
      "असमिया": 5952,
      "ఒకటి": 5953,
      "বিচারপতি": 5954,
      "তামিলনাড়": 5955,
      "cb11934238": 5956,
      "चेन्नई": 5957,
      "খ্রিষ্ট": 5958,
      "মৌর্য": 5959,
      "মৌলিক": 5960,
      "স্থানীয়": 5961,
      "కళలు": 5962,
      "సైనిక": 5963,
      "Secur": 5964,
      "Buddhist": 5965,
      "शक्तिपीठ": 5966,
      "निर्माण": 5967,
      "গঠিত": 5968,
      "সর্বো": 5969,
      "బ్రిటిష్": 5970,
      "goC": 5971,
      "millan": 5972,
      "কৃষ্": 5973,
      "কৃষি": 5974,
      "মহারাষ্ট্র": 5975,
      "స్వతం": 5976,
      "ముఖ్యమైన": 5977,
      "Election": 5978,
      "riage": 5979,
      "లక్షద్వీ": 5980,
      "దేశంలోని": 5981,
      "মণিপুরী": 5982,
      "Macmillan": 5983,
      "सफोर्ड": 5984,
      "సమరం": 5985,
      "సూచి": 5986,
      "Persian": 5987,
      "అస్సాం": 5988,
      "సారస్వతం": 5989,
      "त्रिपुरा": 5990,
      "পাঞ্জাব": 5991,
      "large": 5992,
      "চুক্তি": 5993,
      "జార్ఖండ్": 5994,
      "మహల్": 5995,
      "సౌకర్య": 5996,
      "సిక్కిం": 5997,
      "మిజోరాం": 5998,
      "तेलुगू": 5999,
      "స్టాక్": 6000,
      "తరువాత": 6001,
      "নায়ক": 6002,
      "Democracy": 6003,
      "সূচক": 6004,
      "Mango": 6005,
      "addition": 6006,
      "Rowland1970": 6007,
      "झारखंड": 6008,
      "नौसेना": 6009,
      "খালি": 6010,
      "পঞ্চা": 6011,
      "মারাঠি": 6012,
      "ఏర్ప": 6013,
      "కనుమలు": 6014,
      "మణిపూర్": 6015,
      "সংক্রান্ত": 6016,
      "టిబెట్": 6017,
      "వారసత్వ": 6018,
      "कॉंग्रेस": 6019,
      "भीमबेटका": 6020,
      "ootball": 6021,
      "হিসেবে": 6022,
      "సహాయం": 6023,
      "మేఘాలయ": 6024,
      "అమెరికా": 6025,
      "brief": 6026,
      "cording": 6027,
      "কয়লা": 6028,
      "গোষ্ঠী": 6029,
      "तेलंगाना": 6030,
      "ZvaGuaJIJ": 6031,
      "आन्दोलन": 6032,
      "आंध्र": 6033,
      "ऑक्सफोर्ड": 6034,
      "অন্ধ্রপ্রদেশ": 6035,
      "ট্ট": 6036,
      "নয়াদিল্লি": 6037,
      "রবীন্দ্র": 6038,
      "అరేబియా": 6039,
      "అండమాన్": 6040,
      "ఎక్స్": 6041,
      "ఏప్రిల్": 6042,
      "కబడ్డీ": 6043,
      "చదరంగ": 6044,
      "చోళ": 6045,
      "చండీ": 6046,
      "డయ్యూ": 6047,
      "పచ్చ": 6048,
      "మలేషియా": 6049,
      "హవేలీ": 6050,
      "హర్యానా": 6051,
      "বিজনেস": 6052,
      "రాస్యత": 6053,
      "నికోబార్": 6054,
      "త్తీస్": 6055,
      "कोलकाता": 6056,
      "పాండిచ్చేరి": 6057,
      "এনসাইক্লোপিডিয়া": 6058,
      "अभिज्ञापक": 6059,
      "జనపదాలు": 6060,
      "ইউরোপ": 6061,
      "ব্রিটানিকা": 6062,
      "বিদ্রোহ": 6063,
      "నాగాలాండ్": 6064,
      "తెలంగాణ": 6065,
      "IAEXT": 6066,
      "इंडोनेशिया": 6067,
      "cb11934238p": 6068,
      "లక్షద్వీప్": 6069,
      "ZvaGuaJIJgoC": 6070,
      "Bure": 6071,
      "Dun": 6072,
      "Gupta": 6073,
      "Land": 6074,
      "Out": 6075,
      "Public": 6076,
      "Stu": 6077,
      "bur": 6078,
      "hl": 6079,
      "pil": 6080,
      "201107": 6081,
      "trial": 6082,
      "171": 6083,
      "159": 6084,
      "ayal": 6085,
      "hib": 6086,
      "undp": 6087,
      "estimate": 6088,
      "info": 6089,
      "Christian": 6090,
      "troduction": 6091,
      "Bureau": 6092,
      "314": 6093,
      "424": 6094,
      "7c": 6095,
      "AG": 6096,
      "Au": 6097,
      "BS": 6098,
      "Cite": 6099,
      "Dut": 6100,
      "Gana": 6101,
      "Gond": 6102,
      "Jud": 6103,
      "Jana": 6104,
      "Mana": 6105,
      "M50th": 6106,
      "Na": 6107,
      "Pud": 6108,
      "Pyle": 6109,
      "QC": 6110,
      "Rat": 6111,
      "Sund": 6112,
      "Sacred": 6113,
      "Trit": 6114,
      "Thar": 6115,
      "Wright": 6116,
      "Year": 6117,
      "bad": 6118,
      "car": 6119,
      "eu": 6120,
      "ham": 6121,
      "jp": 6122,
      "jur": 6123,
      "ka": 6124,
      "mm": 6125,
      "mus": 6126,
      "pages": 6127,
      "san": 6128,
      "science": 6129,
      "soci": 6130,
      "tou": 6131,
      "tap": 6132,
      "in2": 6133,
      "rem": 6134,
      "arh": 6135,
      "any": 6136,
      "enni": 6137,
      "ising": 6138,
      "asa": 6139,
      "organ": 6140,
      "att": 6141,
      "linkid": 6142,
      "find": 6143,
      "789": 6144,
      "161": 6145,
      "akes": 6146,
      "uborne": 6147,
      "280": 6148,
      "Child": 6149,
      "geoh": 6150,
      "show": 6151,
      "party": 6152,
      "sey": 6153,
      "orea": 6154,
      "opular": 6155,
      "auth": 6156,
      "439": 6157,
      "489": 6158,
      "Anth": 6159,
      "feb": 6160,
      "Devi": 6161,
      "subject": 6162,
      "1975": 6163,
      "This": 6164,
      "Wikidata": 6165,
      "Neuborne": 6166,
      "ucherry": 6167,
      "Congress2004": 6168,
      "obar": 6169,
      "default": 6170,
      "speak": 6171,
      "review": 6172,
      "Sharma1950": 6173,
      "Blurton": 6174,
      "Review": 6175,
      "Madhya": 6176,
      "millenni": 6177,
      "including": 6178,
      "employ": 6179,
      "roadcast": 6180,
      "arbans": 6181,
      "Nicobar": 6182,
      "NCLM50th": 6183,
      "Puducherry": 6184,
      "Pylee": 6185,
      "Sundarbans": 6186,
      "Tritsch": 6187,
      "touch": 6188,
      "geohack": 6189,
      "millennium": 6190,
      "roadcasting": 6191,
      "NCLM50thReport": 6192,
      "Kon": 6193,
      "Suk": 6194,
      "Upp": 6195,
      "cuss": 6196,
      "jo": 6197,
      "ँची": 6198,
      "अरु": 6199,
      "आय": 6200,
      "गई": 6201,
      "गठ": 6202,
      "गार": 6203,
      "घर": 6204,
      "त्या": 6205,
      "थे": 6206,
      "दल": 6207,
      "दमन": 6208,
      "नै": 6209,
      "निया": 6210,
      "फल": 6211,
      "फ्रा": 6212,
      "मई": 6213,
      "रम": 6214,
      "लक्ष": 6215,
      "वल": 6216,
      "वार": 6217,
      "शन": 6218,
      "ुनिक": 6219,
      "nder": 6220,
      "ari": 6221,
      "1948": 6222,
      "20130": 6223,
      "20170": 6224,
      "ivoy": 6225,
      "ान्": 6226,
      "र्ष": 6227,
      "प्रार": 6228,
      "विद्य": 6229,
      "सेवा": 6230,
      "न्तु": 6231,
      "त्री": 6232,
      "commun": 6233,
      "संधान": 6234,
      "लाल": 6235,
      "साक्षर": 6236,
      "भाई": 6237,
      "255": 6238,
      "ंगलु": 6239,
      "पाषाण": 6240,
      "438": 6241,
      "लिंग": 6242,
      "लिये": 6243,
      "आधुनिक": 6244,
      "म्भ": 6245,
      "स्थित": 6246,
      "जिन": 6247,
      "अनुसंधान": 6248,
      "महल": 6249,
      "भूगोल": 6250,
      "बेंगलु": 6251,
      "position": 6252,
      "लोकसभा": 6253,
      "उत्तरी": 6254,
      "अन्त": 6255,
      "लगभग": 6256,
      "Sanchi": 6257,
      "अमरी": 6258,
      "पोर्ट": 6259,
      "based": 6260,
      "Narayan": 6261,
      "tiger": 6262,
      "Literature": 6263,
      "पूर्ण": 6264,
      "दृश्य": 6265,
      "ताजमहल": 6266,
      "तिब्बत": 6267,
      "Amritsar": 6268,
      "अमेरि": 6269,
      "पब्लि": 6270,
      "अरुणा": 6271,
      "ivoyage": 6272,
      "साक्षरता": 6273,
      "बेंगलुरु": 6274,
      "325": 6275,
      "Ali": 6276,
      "BF": 6277,
      "Bo": 6278,
      "Bollywood": 6279,
      "Cal": 6280,
      "Clo": 6281,
      "EN": 6282,
      "Factbook": 6283,
      "Gan": 6284,
      "Historical": 6285,
      "Its": 6286,
      "LE": 6287,
      "Mas": 6288,
      "No": 6289,
      "Names": 6290,
      "Raman": 6291,
      "Redi": 6292,
      "Sing": 6293,
      "Wile": 6294,
      "What": 6295,
      "court": 6296,
      "cultural": 6297,
      "dar": 6298,
      "earch": 6299,
      "four": 6300,
      "ges": 6301,
      "kingdom": 6302,
      "lal": 6303,
      "middle": 6304,
      "pm": 6305,
      "rural": 6306,
      "rough": 6307,
      "ujan": 6308,
      "zil": 6309,
      "অফ": 6310,
      "অভ": 6311,
      "অংশ": 6312,
      "আঞ্চল": 6313,
      "ইট": 6314,
      "উর্": 6315,
      "কত": 6316,
      "খ্যা": 6317,
      "গব": 6318,
      "ঘোষ": 6319,
      "টন": 6320,
      "ঠে": 6321,
      "ডা": 6322,
      "তৈ": 6323,
      "তো": 6324,
      "নগর": 6325,
      "পবি": 6326,
      "ব্র": 6327,
      "বলে": 6328,
      "বনা": 6329,
      "বার্": 6330,
      "মস": 6331,
      "যে": 6332,
      "লিতে": 6333,
      "শো": 6334,
      "সল": 6335,
      "সক্ষম": 6336,
      "সচি": 6337,
      "ীণ": 6338,
      "োজ": 6339,
      "োপ": 6340,
      "োমিটার": 6341,
      "্গ": 6342,
      "৩৭": 6343,
      "৩৮": 6344,
      "৪৪": 6345,
      "৪৬": 6346,
      "৫৯": 6347,
      "৯৮": 6348,
      "iary": 6349,
      "inated": 6350,
      "anthem": 6351,
      "isten": 6352,
      "্যু": 6353,
      "ন্ব": 6354,
      "orge": 6355,
      "composed": 6356,
      "imate": 6357,
      "ক্ট": 6358,
      "স্বী": 6359,
      "সাং": 6360,
      "িকার": 6361,
      "দ্বিত": 6362,
      "hell": 6363,
      "বাই": 6364,
      "বাদী": 6365,
      "uled": 6366,
      "rest": 6367,
      "research": 6368,
      "architecture": 6369,
      "FOOTNOTEMinistry": 6370,
      "FOOTNOTEKulkeRothermund": 6371,
      "FOOTNOTEDikshitSchwartzberg2023": 6372,
      "২০২০": 6373,
      "২০২২": 6374,
      "1858": 6375,
      "তাবাদ": 6376,
      "409": 6377,
      "260": 6378,
      "ম্ভ": 6379,
      "2542": 6380,
      "্যাস": 6381,
      "tures": 6382,
      "Chang": 6383,
      "aryana": 6384,
      "abs": 6385,
      "ability": 6386,
      "নিয়ে": 6387,
      "হিমালয়": 6388,
      "extra": 6389,
      "পাঁচ": 6390,
      "ship": 6391,
      "েষণা": 6392,
      "aves": 6393,
      "সেন": 6394,
      "harlal": 6395,
      "গুলিতে": 6396,
      "338": 6397,
      "রাষ্ট্রসমূহের": 6398,
      "উপগ্রহ": 6399,
      "নেট": 6400,
      "ground": 6401,
      "ভূম": 6402,
      "relid": 6403,
      "২০১২": 6404,
      "২০১৪": 6405,
      "মানুষ": 6406,
      "দিন": 6407,
      "স্টক": 6408,
      "ক্রো": 6409,
      "ক্রমে": 6410,
      "ুনিক": 6411,
      "রিক্ত": 6412,
      "374": 6413,
      "মধ্যযুগ": 6414,
      "সম্প্র": 6415,
      "igned": 6416,
      "coauthor": 6417,
      "thority": 6418,
      "Shiv": 6419,
      "ographical": 6420,
      "এশিয়ান": 6421,
      "Wiki": 6422,
      "যায়": 6423,
      "Kashmiri": 6424,
      "মন্ত্রক": 6425,
      "poin": 6426,
      "পশ্চিমঘাট": 6427,
      "College": 6428,
      "পাতের": 6429,
      "Aligned": 6430,
      "ব্যাপ": 6431,
      "বিধানসভা": 6432,
      "হিন্দুধর্ম": 6433,
      "ব্দী": 6434,
      "Publishers": 6435,
      "Brazil": 6436,
      "শতাব্দী": 6437,
      "arkar": 6438,
      "ভরত": 6439,
      "politics": 6440,
      "Environmental": 6441,
      "Ludden2014": 6442,
      "Meg": 6443,
      "পোখর": 6444,
      "Reserve": 6445,
      "ন্তরীণ": 6446,
      "culp": 6447,
      "পর্যটন": 6448,
      "অন্যতম": 6449,
      "LOC": 6450,
      "অভিধান": 6451,
      "বিষয়শ্রেণী": 6452,
      "administered": 6453,
      "নির্বাচ": 6454,
      "majority": 6455,
      "aysia": 6456,
      "ডিওআই": 6457,
      "বর্তমানে": 6458,
      "ধ্রুপদী": 6459,
      "Identi": 6460,
      "missing": 6461,
      "অতিরিক্ত": 6462,
      "বিস্তার": 6463,
      "অধিনায়ক": 6464,
      "পোশাক": 6465,
      "সীমান্ত": 6466,
      "কিলোমিটার": 6467,
      "ফ্রান্স": 6468,
      "সভ্যতা": 6469,
      "Association": 6470,
      "যাত্রা": 6471,
      "Regional": 6472,
      "FILE": 6473,
      "agriculture": 6474,
      "widely": 6475,
      "জনগণমন": 6476,
      "PROFILE": 6477,
      "আফ্রিকা": 6478,
      "উদ্ভিদ": 6479,
      "Greek": 6480,
      "awaharlal": 6481,
      "Ahmedabad": 6482,
      "অভ্যন্তরীণ": 6483,
      "এলাকা": 6484,
      "প্রচলিত": 6485,
      "সর্বোচ্চ": 6486,
      "Authority": 6487,
      "Ramanujan": 6488,
      "Rediff": 6489,
      "Wiley": 6490,
      "আঞ্চলিক": 6491,
      "গবেষণা": 6492,
      "পবিত্র": 6493,
      "দ্বিতীয়": 6494,
      "coauthors": 6495,
      "পোখরান": 6496,
      "312": 6497,
      "428": 6498,
      "613": 6499,
      "700": 6500,
      "AE": 6501,
      "Age": 6502,
      "DA": 6503,
      "Jha": 6504,
      "Seven": 6505,
      "bit": 6506,
      "ey": 6507,
      "human": 6508,
      "list": 6509,
      "poll": 6510,
      "sk": 6511,
      "uture": 6512,
      "yal": 6513,
      "around": 6514,
      "isi": 6515,
      "omo": 6516,
      "ices": 6517,
      "sts": 6518,
      "style": 6519,
      "37545": 6520,
      "ights": 6521,
      "ilding": 6522,
      "ependent": 6523,
      "Related": 6524,
      "others": 6525,
      "13537545": 6526,
      "Balakrishnan": 6527,
      "func": 6528,
      "average": 6529,
      "135375457": 6530,
      "1st": 6531,
      "340": 6532,
      "3rd": 6533,
      "7mar": 6534,
      "Bef": 6535,
      "Broadcasting": 6536,
      "Dg": 6537,
      "Domin": 6538,
      "Eigh": 6539,
      "Fa": 6540,
      "If": 6541,
      "KI": 6542,
      "Korea": 6543,
      "Map": 6544,
      "MKI": 6545,
      "Odis": 6546,
      "PS": 6547,
      "Rv": 6548,
      "Rec": 6549,
      "Ravi": 6550,
      "SO": 6551,
      "Sin": 6552,
      "Sovereign": 6553,
      "Tar": 6554,
      "Tables": 6555,
      "bre": 6556,
      "dp": 6557,
      "der": 6558,
      "ez": 6559,
      "fin": 6560,
      "gu": 6561,
      "ght": 6562,
      "lik": 6563,
      "mj": 6564,
      "member": 6565,
      "ner": 6566,
      "num": 6567,
      "pc": 6568,
      "ंतर": 6569,
      "आयुक्त": 6570,
      "इल": 6571,
      "ईल": 6572,
      "उष्ण": 6573,
      "एक्": 6574,
      "कान": 6575,
      "क्रा": 6576,
      "ख्य": 6577,
      "गत": 6578,
      "गि": 6579,
      "गति": 6580,
      "घो": 6581,
      "चा": 6582,
      "चें": 6583,
      "जवा": 6584,
      "जें": 6585,
      "डम": 6586,
      "तम": 6587,
      "द्र": 6588,
      "दिक": 6589,
      "धरो": 6590,
      "नदी": 6591,
      "पहा": 6592,
      "यो": 6593,
      "रत्": 6594,
      "वाल": 6595,
      "वली": 6596,
      "शो": 6597,
      "सह": 6598,
      "हम": 6599,
      "हथि": 6600,
      "ॉक": 6601,
      "ोत्": 6602,
      "१५": 6603,
      "ంత": 6604,
      "ంతి": 6605,
      "ంటి": 6606,
      "అంట": 6607,
      "అహ్మ": 6608,
      "ఆకు": 6609,
      "ఆధీ": 6610,
      "ఆహార": 6611,
      "ఇవి": 6612,
      "ఎన్": 6613,
      "ఐరో": 6614,
      "ఒలిం": 6615,
      "కంట": 6616,
      "గతి": 6617,
      "జు": 6618,
      "ఞాన": 6619,
      "టం": 6620,
      "టా": 6621,
      "టన్": 6622,
      "టులు": 6623,
      "ట్యం": 6624,
      "ణులు": 6625,
      "తన": 6626,
      "నృ": 6627,
      "నలు": 6628,
      "పక్ష": 6629,
      "పద్ధ": 6630,
      "మ్య": 6631,
      "మతి": 6632,
      "యాలో": 6633,
      "లె": 6634,
      "వ్": 6635,
      "వహి": 6636,
      "వత్స": 6637,
      "సర": 6638,
      "సీ": 6639,
      "సర్": 6640,
      "స్రా": 6641,
      "హై": 6642,
      "హో": 6643,
      "ాంగ": 6644,
      "ెట్": 6645,
      "ndl": 6646,
      "online": 6647,
      "these": 6648,
      "oram": 6649,
      "erc": 6650,
      "erg": 6651,
      "20A": 6652,
      "aland": 6653,
      "enumeration": 6654,
      "cities": 6655,
      "isni": 6656,
      "ital": 6657,
      "ouli": 6658,
      "194": 6659,
      "ids": 6660,
      "idref": 6661,
      "adem": 6662,
      "amap": 6663,
      "wever": 6664,
      "స్సా": 6665,
      "ents": 6666,
      "redi": 6667,
      "स्ट्र": 6668,
      "काम": 6669,
      "igr": 6670,
      "result": 6671,
      "ipp": 6672,
      "ems": 6673,
      "త్రిక": 6674,
      "FOOTNOTEKulkeRothermund2004": 6675,
      "विभाग": 6676,
      "rakash": 6677,
      "క్తి": 6678,
      "నిర్": 6679,
      "నిర్వ": 6680,
      "stud": 6681,
      "158": 6682,
      "rock": 6683,
      "164": 6684,
      "संबर": 6685,
      "ments": 6686,
      "oples": 6687,
      "1995": 6688,
      "నాయక": 6689,
      "నాట్యం": 6690,
      "విభ": 6691,
      "విజ్": 6692,
      "Chhat": 6693,
      "contribu": 6694,
      "ालैंड": 6695,
      "కులు": 6696,
      "295": 6697,
      "211": 6698,
      "नेपाल": 6699,
      "exports": 6700,
      "Books": 6701,
      "liest": 6702,
      "జాతి": 6703,
      "osa": 6704,
      "మాబాద్": 6705,
      "good": 6706,
      "भाषाएँ": 6707,
      "हाँ": 6708,
      "हाला": 6709,
      "जापान": 6710,
      "पास": 6711,
      "సంకీ": 6712,
      "సంబంధ": 6713,
      "సంవత్స": 6714,
      "రుపు": 6715,
      "రుగు": 6716,
      "दिसंबर": 6717,
      "పాత్ర": 6718,
      "స్థి": 6719,
      "డియా": 6720,
      "వంట": 6721,
      "వంటి": 6722,
      "निय": 6723,
      "क्षेत्रफल": 6724,
      "మించ": 6725,
      "351": 6726,
      "thera": 6727,
      "peoples": 6728,
      "शांति": 6729,
      "शास्त्र": 6730,
      "वर्ण": 6731,
      "वर्षा": 6732,
      "1961": 6733,
      "గువ": 6734,
      "తరాలు": 6735,
      "generic": 6736,
      "కోట్": 6737,
      "లామాబాద్": 6738,
      "ords": 6739,
      "ప్రాంతీయ": 6740,
      "పేర్లు": 6741,
      "స్తారు": 6742,
      "ట్లు": 6743,
      "మతాలు": 6744,
      "्राम": 6745,
      "कृष": 6746,
      "गुफा": 6747,
      "natic": 6748,
      "quality": 6749,
      "కూడు": 6750,
      "होती": 6751,
      "కృష్": 6752,
      "మధ్యప్రదేశ్": 6753,
      "ప్రాంతాల": 6754,
      "School": 6755,
      "ographics": 6756,
      "द्धि": 6757,
      "కొన్ని": 6758,
      "France": 6759,
      "cricket": 6760,
      "674": 6761,
      "फ़ि": 6762,
      "मोदी": 6763,
      "రాజ్యాంగ": 6764,
      "व्यक्ति": 6765,
      "१९९": 6766,
      "కార్య": 6767,
      "కారణంగా": 6768,
      "క్యాలె": 6769,
      "దేశాలలో": 6770,
      "सदन": 6771,
      "Demon": 6772,
      "Demographics": 6773,
      "बंधीय": 6774,
      "మైనది": 6775,
      "Chandram": 6776,
      "రోడ్": 6777,
      "divisions": 6778,
      "Buddha": 6779,
      "UNHD": 6780,
      "పరిపాలన": 6781,
      "పరిశ్ర": 6782,
      "వెబ్": 6783,
      "పోర్చు": 6784,
      "ప్రాచీ": 6785,
      "संग्राम": 6786,
      "ఉన్నారు": 6787,
      "నేషన్స్": 6788,
      "uisine": 6789,
      "वैदिक": 6790,
      "topic": 6791,
      "topics": 6792,
      "धीरे": 6793,
      "वर्षों": 6794,
      "yyyy": 6795,
      "After": 6796,
      "अपने": 6797,
      "बैंक": 6798,
      "दोन": 6799,
      "స్థానం": 6800,
      "స్థానంలో": 6801,
      "వ్యాపార": 6802,
      "మొదల": 6803,
      "పీఠ": 6804,
      "Sikhism": 6805,
      "सैनिक": 6806,
      "ईसाई": 6807,
      "नागालैंड": 6808,
      "भूमिका": 6809,
      "Panthera": 6810,
      "Turk": 6811,
      "ఇస్లాం": 6812,
      "ఇస్లామాబాద్": 6813,
      "కలిగి": 6814,
      "పండుగలు": 6815,
      "నగరాలు": 6816,
      "fication": 6817,
      "PCA": 6818,
      "different": 6819,
      "कटिबंधीय": 6820,
      "Telugu": 6821,
      "Bibcode": 6822,
      "American": 6823,
      "viaf": 6824,
      "జరిగిన": 6825,
      "పైగా": 6826,
      "ప్రజల": 6827,
      "కోర్టు": 6828,
      "२०११": 6829,
      "Carnatic": 6830,
      "Finance": 6831,
      "LakshadweepIsland": 6832,
      "Volume": 6833,
      "datamap": 6834,
      "అనేక": 6835,
      "పరంగా": 6836,
      "లవుదినాలు": 6837,
      "ప్రస్తుతం": 6838,
      "సంఘం": 6839,
      "दिवस": 6840,
      "పట్టణాలు": 6841,
      "इस्लाम": 6842,
      "कंपनी": 6843,
      "मलयालम": 6844,
      "पत्ति": 6845,
      "ఎక్కువగా": 6846,
      "పల్లవులు": 6847,
      "मेघालय": 6848,
      "कालीन": 6849,
      "साहित्य": 6850,
      "हरियाणा": 6851,
      "Barrow2003": 6852,
      "Bomb": 6853,
      "అభివృద్ధి": 6854,
      "అశోకుడు": 6855,
      "ఉంటాయి": 6856,
      "పతకాలు": 6857,
      "wearing": 6858,
      "विभाजन": 6859,
      "नेतृत्व": 6860,
      "సంప్రదాయాలు": 6861,
      "గుప్త": 6862,
      "प्लेट": 6863,
      "గోదావరి": 6864,
      "చండీగఢ్": 6865,
      "गारो": 6866,
      "फ्रांस": 6867,
      "प्रारम्भ": 6868,
      "विद्यालय": 6869,
      "अरुणाचल": 6870,
      "7mar2011": 6871,
      "Before": 6872,
      "Odisha": 6873,
      "Tarlo": 6874,
      "क्रांति": 6875,
      "चेंज": 6876,
      "धरोहर": 6877,
      "हथियार": 6878,
      "ఆకుపచ్చ": 6879,
      "ఎన్ను": 6880,
      "ఐరోపా": 6881,
      "ఒలింపిక్": 6882,
      "విజ్ఞాన": 6883,
      "Chhattis": 6884,
      "కృష్ణా": 6885,
      "క్యాలెండర్": 6886,
      "Chandramouli": 6887,
      "UNHDR": 6888,
      "ప్రాచీన": 6889,
      "datamapper": 6890,
      "421": 6891,
      "A5": 6892,
      "Bu": 6893,
      "Im": 6894,
      "Miss": 6895,
      "Multi": 6896,
      "Pos": 6897,
      "Rab": 6898,
      "Whe": 6899,
      "pri": 6900,
      "veda": 6901,
      "wa": 6902,
      "ator": 6903,
      "wikidata": 6904,
      "emor": 6905,
      "1320": 6906,
      "els": 6907,
      "154": 6908,
      "257": 6909,
      "308": 6910,
      "oung": 6911,
      "227": 6912,
      "grim": 6913,
      "352": 6914,
      "1208": 6915,
      "1974": 6916,
      "Industrial": 6917,
      "Council": 6918,
      "literacy": 6919,
      "Direct": 6920,
      "documents": 6921,
      "Current": 6922,
      "Himalayas": 6923,
      "islative": 6924,
      "Institute": 6925,
      "Northeast": 6926,
      "pilgrim": 6927,
      "026": 6928,
      "214": 6929,
      "328": 6930,
      "520": 6931,
      "546": 6932,
      "Brown": 6933,
      "Ca": 6934,
      "Dh": 6935,
      "EB": 6936,
      "Eight": 6937,
      "FT": 6938,
      "Forest": 6939,
      "Hi": 6940,
      "Ho": 6941,
      "HAS": 6942,
      "Jawaharlal": 6943,
      "Kann": 6944,
      "M1": 6945,
      "Mol": 6946,
      "Movement": 6947,
      "MAAJ": 6948,
      "Net": 6949,
      "NGD": 6950,
      "Navy": 6951,
      "Old": 6952,
      "Sons": 6953,
      "TI": 6954,
      "Tod": 6955,
      "Vi": 6956,
      "Water": 6957,
      "XV": 6958,
      "bar": 6959,
      "bes": 6960,
      "bir": 6961,
      "bak": 6962,
      "bara": 6963,
      "cook": 6964,
      "cour": 6965,
      "central": 6966,
      "las": 6967,
      "lid": 6968,
      "less": 6969,
      "mid": 6970,
      "may": 6971,
      "members": 6972,
      "pecial": 6973,
      "ras": 6974,
      "range": 6975,
      "sig": 6976,
      "vil": 6977,
      "wildlife": 6978,
      "xx": 6979,
      "zone": 6980,
      "অসম": 6981,
      "অন্তর্": 6982,
      "অরণ": 6983,
      "ক্য": 6984,
      "কথা": 6985,
      "গি": 6986,
      "গে": 6987,
      "গৎ": 6988,
      "গার": 6989,
      "গড়": 6990,
      "গঙ্গা": 6991,
      "জার": 6992,
      "জগৎ": 6993,
      "ঢ়": 6994,
      "ণত": 6995,
      "তর": 6996,
      "তৃত": 6997,
      "থি": 6998,
      "দর্": 6999,
      "নো": 7000,
      "বন্দ": 7001,
      "বম্": 7002,
      "বহি": 7003,
      "শু": 7004,
      "শব্দ": 7005,
      "সত্য": 7006,
      "হন": 7007,
      "ুমান": 7008,
      "ূর": 7009,
      "োতি": 7010,
      "্প": 7011,
      "০৫": 7012,
      "২৭": 7013,
      "৬২": 7014,
      "৭৪": 7015,
      "৭৬": 7016,
      "৭৯": 7017,
      "tea": 7018,
      "team": 7019,
      "inindia": 7020,
      "tici": 7021,
      "reat": 7022,
      "reach": 7023,
      "through": 7024,
      "oro": 7025,
      "orship": 7026,
      "209": 7027,
      "ofker": 7028,
      "য়ার": 7029,
      "especial": 7030,
      "civil": 7031,
      "isource": 7032,
      "andy": 7033,
      "asi": 7034,
      "asing": 7035,
      "ictor": 7036,
      "192": 7037,
      "198": 7038,
      "1936": 7039,
      "1988": 7040,
      "chang": 7041,
      "leavy": 7042,
      "acces": 7043,
      "বিটি": 7044,
      "বিবে": 7045,
      "বিড়": 7046,
      "বিংশ": 7047,
      "বিবাহ": 7048,
      "trade": 7049,
      "amb": 7050,
      "ানে": 7051,
      "স্ব": 7052,
      "সাক্ষর": 7053,
      "olia": 7054,
      "olar": 7055,
      "igarh": 7056,
      "রাম": 7057,
      "রায়ে": 7058,
      "বাল": 7059,
      "বাডি": 7060,
      "ত্রি": 7061,
      "টির": 7062,
      "Southeast": 7063,
      "কাবাডি": 7064,
      "িয়ন": 7065,
      "নাট": 7066,
      "মাত্র": 7067,
      "app": 7068,
      "ত্বে": 7069,
      "২০০৩": 7070,
      "নিম্": 7071,
      "গ্রিক": 7072,
      "জনতা": 7073,
      "দেশীয়": 7074,
      "geos": 7075,
      "tempor": 7076,
      "কারণ": 7077,
      "জ্যোতি": 7078,
      "বেত": 7079,
      "বেল": 7080,
      "prin": 7081,
      "AAMAAJ": 7082,
      "আর্ট": 7083,
      "উৎসব": 7084,
      "pped": 7085,
      "িয়াম": 7086,
      "সরবরা": 7087,
      "রাষ্ট্রসংঘ": 7088,
      "272": 7089,
      "anath": 7090,
      "িকাংশ": 7091,
      "আইএসও": 7092,
      "within": 7093,
      "हिन्दु": 7094,
      "নেতৃ": 7095,
      "iance": 7096,
      "মানব": 7097,
      "পরিবেশ": 7098,
      "পরিণত": 7099,
      "arden": 7100,
      "একত্র": 7101,
      "বীর": 7102,
      "498": 7103,
      "বর্ধ": 7104,
      "বংশ": 7105,
      "ক্রম": 7106,
      "রিসার": 7107,
      "মুদ্রা": 7108,
      "গণিত": 7109,
      "পৃথি": 7110,
      "398": 7111,
      "শাসন": 7112,
      "Asher2006": 7113,
      "AsherAsher2006": 7114,
      "ঞ্জি": 7115,
      "বৈদিক": 7116,
      "576": 7117,
      "erves": 7118,
      "বিজে": 7119,
      "Cambod": 7120,
      "1972": 7121,
      "দায়": 7122,
      "These": 7123,
      "rence": 7124,
      "শিল্পকলা": 7125,
      "Trust": 7126,
      "syear": 7127,
      "ভেল": 7128,
      "amazon": 7129,
      "প্যারামিটারে": 7130,
      "Deccan": 7131,
      "সদস্য": 7132,
      "শনাল": 7133,
      "Coll": 7134,
      "প্রতিষ্ঠ": 7135,
      "4217": 7136,
      "Countries": 7137,
      "নিকোবর": 7138,
      "শক্তিধর": 7139,
      "ইন্ডিয়ান": 7140,
      "Chandigarh": 7141,
      "১৬৬": 7142,
      "annual": 7143,
      "tainment": 7144,
      "বঙ্গোপ": 7145,
      "species": 7146,
      "vert": 7147,
      "গোলিক": 7148,
      "ভৌগোলিক": 7149,
      "সাইট": 7150,
      "served": 7151,
      "অধিকাংশ": 7152,
      "ইসরায়ে": 7153,
      "develop": 7154,
      "parliamentary": 7155,
      "মহান": 7156,
      "হয়েছিল": 7157,
      "Hindustani": 7158,
      "dispute": 7159,
      "খেলাধু": 7160,
      "রোধ": 7161,
      "বর্ষপ": 7162,
      "অন্যদিকে": 7163,
      "নির্বাচিত": 7164,
      "Heritage": 7165,
      "শ্বেত": 7166,
      "পিপিপি": 7167,
      "উপমহাদেশ": 7168,
      "araja": 7169,
      "ন্যাশনাল": 7170,
      "খ্রিস্টধর্ম": 7171,
      "pubmed": 7172,
      "family": 7173,
      "মাধ্যম": 7174,
      "এছাড়াও": 7175,
      "সর্বাধিক": 7176,
      "UTHAS": 7177,
      "Protection": 7178,
      "Classical": 7179,
      "আধুনিক": 7180,
      "increased": 7181,
      "violence": 7182,
      "মনোরমা": 7183,
      "পৌরসভা": 7184,
      "PetragliaAllchin": 7185,
      "Cinema": 7186,
      "Laos": 7187,
      "আনুমান": 7188,
      "তফসিলি": 7189,
      "সফট": 7190,
      "influen": 7191,
      "হিমবাহ": 7192,
      "গুলোর": 7193,
      "তামিলনাড়ু": 7194,
      "ইউরোপীয়": 7195,
      "Dunleavy": 7196,
      "juris": 7197,
      "্যুৎ": 7198,
      "culpture": 7199,
      "SOUTHAS": 7200,
      "Bombay": 7201,
      "তৃতীয়": 7202,
      "দর্শন": 7203,
      "নোবেল": 7204,
      "বম্বে": 7205,
      "especially": 7206,
      "accessyear": 7207,
      "সরবরাহ": 7208,
      "রিসার্চ": 7209,
      "পৃথিবীর": 7210,
      "Cambodia": 7211,
      "ইসরায়েল": 7212,
      "খেলাধুলা": 7213,
      "আনুমানিক": 7214,
      "SOUTHASIAEXT": 7215,
      "226": 7216,
      "8a": 7217,
      "Ab": 7218,
      "Bur": 7219,
      "Gum": 7220,
      "HQ": 7221,
      "Set": 7222,
      "Yum": 7223,
      "give": 7224,
      "hra": 7225,
      "mand": 7226,
      "nation": 7227,
      "p1": 7228,
      "ws": 7229,
      "अब": 7230,
      "अंड": 7231,
      "अमी": 7232,
      "अफ़": 7233,
      "अतुल": 7234,
      "अशो": 7235,
      "अहम": 7236,
      "आदि": 7237,
      "आंद": 7238,
      "आपात": 7239,
      "ईद": 7240,
      "उद": 7241,
      "ऍथ": 7242,
      "ऑपर": 7243,
      "कणी": 7244,
      "ख़": 7245,
      "गध": 7246,
      "चन": 7247,
      "चोल": 7248,
      "जपा": 7249,
      "जपुरी": 7250,
      "डे": 7251,
      "डाल": 7252,
      "थाली": 7253,
      "धन": 7254,
      "धि": 7255,
      "धिकार": 7256,
      "नई": 7257,
      "नान": 7258,
      "नरे": 7259,
      "नोल": 7260,
      "नन्दा": 7261,
      "पद": 7262,
      "पीय": 7263,
      "पहु": 7264,
      "बने": 7265,
      "बड़ा": 7266,
      "ब्यू": 7267,
      "मगध": 7268,
      "यन": 7269,
      "यान": 7270,
      "यपुर": 7271,
      "लखन": 7272,
      "शत": 7273,
      "शै": 7274,
      "षण": 7275,
      "सश": 7276,
      "ूबर": 7277,
      "ॉग": 7278,
      "ोला": 7279,
      "५७": 7280,
      "thang": 7281,
      "orate": 7282,
      "ारजि": 7283,
      "cher": 7284,
      "केश": 7285,
      "amy": 7286,
      "रात": 7287,
      "राम": 7288,
      "lins": 7289,
      "स्क": 7290,
      "स्थि": 7291,
      "कांक": 7292,
      "ults": 7293,
      "प्रस": 7294,
      "1356": 7295,
      "stre": 7296,
      "क्षण": 7297,
      "Introduction": 7298,
      "संथाली": 7299,
      "ताल": 7300,
      "भाष": 7301,
      "भाजपा": 7302,
      "परंप": 7303,
      "appa": 7304,
      "कोरिया": 7305,
      "ष्ठ": 7306,
      "सूर": 7307,
      "वाला": 7308,
      "भाषाएं": 7309,
      "थाईल": 7310,
      "uccess": 7311,
      "Harper": 7312,
      "करना": 7313,
      "करता": 7314,
      "किला": 7315,
      "निभाई": 7316,
      "जनता": 7317,
      "मुम्": 7318,
      "लिपि": 7319,
      "मील": 7320,
      "वर्त": 7321,
      "1964": 7322,
      "ार्कटि": 7323,
      "भिन्न": 7324,
      "द्वि": 7325,
      "Short": 7326,
      "महान": 7327,
      "महारजि": 7328,
      "लोर": 7329,
      "दाख": 7330,
      "रुप": 7331,
      "भूटान": 7332,
      "Malayal": 7333,
      "अधिकार": 7334,
      "सूचकांक": 7335,
      "Collins": 7336,
      "उपराष्ट्रपति": 7337,
      "यूरो": 7338,
      "सुधार": 7339,
      "द्वीपसमूह": 7340,
      "सदस": 7341,
      "स्टॉक": 7342,
      "आईएस": 7343,
      "कश्मीरी": 7344,
      "IAF": 7345,
      "न्यायाधी": 7346,
      "Andhra": 7347,
      "partly": 7348,
      "जयपुर": 7349,
      "Dey": 7350,
      "मलेशिया": 7351,
      "प्रतिशत": 7352,
      "Punjabi": 7353,
      "कार्यपालिका": 7354,
      "Puran": 7355,
      "Leg": 7356,
      "भोजपुरी": 7357,
      "शुरू": 7358,
      "कन्नड़": 7359,
      "मणिपुर": 7360,
      "मणिपुरी": 7361,
      "ओड़िया": 7362,
      "FrontView": 7363,
      "न्हें": 7364,
      "विजयनगर": 7365,
      "वृद्धि": 7366,
      "मिज़ोरम": 7367,
      "अधिराज्य": 7368,
      "InfosysHQ": 7369,
      "Gilbert": 7370,
      "कोंकणी": 7371,
      "व्यापार": 7372,
      "मैथिली": 7373,
      "लक्षद्वीप": 7374,
      "Sanchi2": 7375,
      "अमेरिका": 7376,
      "स्ट्रार": 7377,
      "कृषि": 7378,
      "गुफाएं": 7379,
      "दोनों": 7380,
      "Gumpa": 7381,
      "Yumthang": 7382,
      "अंडमान": 7383,
      "अमीरात": 7384,
      "अतुल्य": 7385,
      "अशोक": 7386,
      "आंदोलन": 7387,
      "आपातकाल": 7388,
      "ऍथनोल": 7389,
      "ऑपरेशन": 7390,
      "डालर": 7391,
      "ब्यूरो": 7392,
      "लखनऊ": 7393,
      "परंपरा": 7394,
      "मुम्बई": 7395,
      "ार्कटिका": 7396,
      "महारजिस्ट्रार": 7397,
      "न्यायाधीश": 7398,
      "InfosysHQFrontView": 7399,
      "ऍथनोलॉग": 7400,
      "224": 7401,
      "313": 7402,
      "423": 7403,
      "819": 7404,
      "800": 7405,
      "899": 7406,
      "960": 7407,
      "Ajan": 7408,
      "B6": 7409,
      "Ci": 7410,
      "Cup": 7411,
      "Cop": 7412,
      "Cultural": 7413,
      "Caves": 7414,
      "Def": 7415,
      "Forests": 7416,
      "Football": 7417,
      "G4": 7418,
      "Gange": 7419,
      "Haryana": 7420,
      "Jhar": 7421,
      "LA": 7422,
      "Log": 7423,
      "Lear": 7424,
      "Long": 7425,
      "Lok": 7426,
      "Med": 7427,
      "Maj": 7428,
      "Nav": 7429,
      "PT": 7430,
      "Pose": 7431,
      "Sm": 7432,
      "Sain": 7433,
      "Some": 7434,
      "Since": 7435,
      "Ur": 7436,
      "YC": 7437,
      "Yaksh": 7438,
      "a7": 7439,
      "bo": 7440,
      "cut": 7441,
      "diversity": 7442,
      "ere": 7443,
      "eff": 7444,
      "fish": 7445,
      "fact": 7446,
      "flow": 7447,
      "hr": 7448,
      "iis": 7449,
      "jh": 7450,
      "khand": 7451,
      "living": 7452,
      "monsoon": 7453,
      "memor": 7454,
      "ny": 7455,
      "names": 7456,
      "run": 7457,
      "series": 7458,
      "vill": 7459,
      "wana": 7460,
      "tel": 7461,
      "onial": 7462,
      "reli": 7463,
      "thing": 7464,
      "eri": 7465,
      "ales": 7466,
      "ally": 7467,
      "edr": 7468,
      "eduled": 7469,
      "asian": 7470,
      "1951": 7471,
      "check": 7472,
      "adv": 7473,
      "refor": 7474,
      "compan": 7475,
      "ily": 7476,
      "links": 7477,
      "angra": 7478,
      "angha": 7479,
      "fig": 7480,
      "olid": 7481,
      "held": 7482,
      "health": 7483,
      "toge": 7484,
      "0046": 7485,
      "iper": 7486,
      "176": 7487,
      "eld": 7488,
      "155": 7489,
      "167": 7490,
      "4019": 7491,
      "CITEREFAsherTalbot2008": 7492,
      "CITEREFFisher2018": 7493,
      "289": 7494,
      "Univers": 7495,
      "eph": 7496,
      "246": 7497,
      "confl": 7498,
      "ours": 7499,
      "ourism": 7500,
      "ourbak": 7501,
      "parties": 7502,
      "Flood": 7503,
      "become": 7504,
      "before": 7505,
      "337": 7506,
      "452": 7507,
      "566": 7508,
      "ians": 7509,
      "382": 7510,
      "orders": 7511,
      "forms": 7512,
      "Partition": 7513,
      "Shangha": 7514,
      "Sea": 7515,
      "Pakistani": 7516,
      "Eurasian": 7517,
      "aceu": 7518,
      "Industry": 7519,
      "CON": 7520,
      "ize": 7521,
      "Chandra": 7522,
      "Insur": 7523,
      "rights": 7524,
      "1154019": 7525,
      "struggle": 7526,
      "TRI": 7527,
      "military": 7528,
      "Fundamental": 7529,
      "Black": 7530,
      "market": 7531,
      "Madras": 7532,
      "economictimes": 7533,
      "Davidson": 7534,
      "disputes": 7535,
      "Michell": 7536,
      "Robb2011": 7537,
      "Early": 7538,
      "tribution": 7539,
      "Bibli": 7540,
      "NAL": 7541,
      "Kuiper": 7542,
      "Phil": 7543,
      "ampion": 7544,
      "Canada": 7545,
      "cgi": 7546,
      "does": 7547,
      "harmaceu": 7548,
      "festival": 7549,
      "Security": 7550,
      "AGE": 7551,
      "Neuborne2003": 7552,
      "speakers": 7553,
      "kingdoms": 7554,
      "Eighth": 7555,
      "Molnar": 7556,
      "temporary": 7557,
      "Collingham": 7558,
      "Copland": 7559,
      "Gangetic": 7560,
      "Jharkhand": 7561,
      "Learning": 7562,
      "Posey": 7563,
      "Saint": 7564,
      "iisc": 7565,
      "checked": 7566,
      "together": 7567,
      "ourbaki": 7568,
      "Shanghai": 7569,
      "3166": 7570,
      "418": 7571,
      "490": 7572,
      "Aut": 7573,
      "Ken": 7574,
      "Medieval": 7575,
      "Power": 7576,
      "Str": 7577,
      "Sun": 7578,
      "Serv": 7579,
      "TE": 7580,
      "Witz": 7581,
      "WTO": 7582,
      "a9": 7583,
      "ded": 7584,
      "ease": 7585,
      "ua": 7586,
      "writ": 7587,
      "za": 7588,
      "title": 7589,
      "tives": 7590,
      "20110": 7591,
      "408": 7592,
      "una": 7593,
      "Change": 7594,
      "ablish": 7595,
      "364": 7596,
      "359": 7597,
      "type": 7598,
      "Century": 7599,
      "Express": 7600,
      "Adminis": 7601,
      "AQAAQBAJ": 7602,
      "Building": 7603,
      "हिन्दुस्तान": 7604,
      "Witzel": 7605,
      "0266": 7606,
      "0140": 7607,
      "215": 7608,
      "323": 7609,
      "429": 7610,
      "550": 7611,
      "691": 7612,
      "Are": 7613,
      "Ban": 7614,
      "Bel": 7615,
      "CQ": 7616,
      "Chap": 7617,
      "Dog": 7618,
      "Garg": 7619,
      "Hel": 7620,
      "Line": 7621,
      "Lower": 7622,
      "Miz": 7623,
      "Pol": 7624,
      "SU": 7625,
      "Su": 7626,
      "Sw": 7627,
      "Sarkar": 7628,
      "TM": 7629,
      "Tir": 7630,
      "Tele": 7631,
      "Tagore": 7632,
      "Tiger": 7633,
      "UK": 7634,
      "Vij": 7635,
      "Veda": 7636,
      "Victor": 7637,
      "WP": 7638,
      "Y1": 7639,
      "YS": 7640,
      "Ze": 7641,
      "aim": 7642,
      "cor": 7643,
      "dna": 7644,
      "diction": 7645,
      "ech": 7646,
      "fol": 7647,
      "face": 7648,
      "freedom": 7649,
      "hor": 7650,
      "hoi": 7651,
      "hockey": 7652,
      "ira": 7653,
      "iop": 7654,
      "kC": 7655,
      "mo": 7656,
      "mountain": 7657,
      "migr": 7658,
      "n8012": 7659,
      "pres": 7660,
      "pati": 7661,
      "present": 7662,
      "p050": 7663,
      "sev": 7664,
      "sports": 7665,
      "tl": 7666,
      "wat": 7667,
      "would": 7668,
      "ædia": 7669,
      "ँकि": 7670,
      "ंबर": 7671,
      "अर्": 7672,
      "आइ": 7673,
      "इसी": 7674,
      "ईस्ट": 7675,
      "ऋतु": 7676,
      "एम": 7677,
      "ऑफ": 7678,
      "ओडि": 7679,
      "गए": 7680,
      "ग्र": 7681,
      "ग्री": 7682,
      "चाल": 7683,
      "जै": 7684,
      "जान": 7685,
      "डॉल": 7686,
      "तग": 7687,
      "थल": 7688,
      "दार": 7689,
      "पक्ष": 7690,
      "फि": 7691,
      "बू": 7692,
      "बहा": 7693,
      "बनी": 7694,
      "बड़ी": 7695,
      "मंड": 7696,
      "सक": 7697,
      "सल्": 7698,
      "हॉ": 7699,
      "हवे": 7700,
      "ुक": 7701,
      "२६": 7702,
      "অনে": 7703,
      "অধ্য": 7704,
      "অবৈ": 7705,
      "অক্ষর": 7706,
      "আম": 7707,
      "আদি": 7708,
      "ইর": 7709,
      "ইহু": 7710,
      "ঈদু": 7711,
      "উপর": 7712,
      "ওড়": 7713,
      "কক্ষ": 7714,
      "কম্": 7715,
      "ক্যা": 7716,
      "কবর": 7717,
      "কুর": 7718,
      "খুন": 7719,
      "খনিজ": 7720,
      "গম": 7721,
      "গাল": 7722,
      "গেশন": 7723,
      "গ্যাস": 7724,
      "চর": 7725,
      "চোল": 7726,
      "চেরি": 7727,
      "জর": 7728,
      "জর্": 7729,
      "জিয়া": 7730,
      "জ্ঞান": 7731,
      "টো": 7732,
      "ডোগ": 7733,
      "তথা": 7734,
      "দৈ": 7735,
      "দুটি": 7736,
      "দ্রু": 7737,
      "নদ": 7738,
      "নেশিয়া": 7739,
      "পণ": 7740,
      "পয়": 7741,
      "পত্র": 7742,
      "পুন": 7743,
      "ফৌ": 7744,
      "ফার্": 7745,
      "ফিল্": 7746,
      "ফিলি": 7747,
      "বট": 7748,
      "বোর্": 7749,
      "ভক্ত": 7750,
      "ভবন": 7751,
      "ভট্ট": 7752,
      "মব্রি": 7753,
      "রক্ষা": 7754,
      "রন্ধ": 7755,
      "রবন": 7756,
      "লৌ": 7757,
      "লক্ষ": 7758,
      "শত": 7759,
      "শর": 7760,
      "শে": 7761,
      "শিয়া": 7762,
      "সিয়া": 7763,
      "সবু": 7764,
      "সটেক": 7765,
      "হলে": 7766,
      "াযোগ": 7767,
      "াত্য": 7768,
      "ীড়া": 7769,
      "৩৯": 7770,
      "৫৮": 7771,
      "৮৬": 7772,
      "৮৭": 7773,
      "అణ": 7774,
      "అథ": 7775,
      "అని": 7776,
      "అల్": 7777,
      "ఆక్ర": 7778,
      "ఈస్": 7779,
      "ఉర్": 7780,
      "ఎడ": 7781,
      "ఎల": 7782,
      "ఐక్య": 7783,
      "గల్": 7784,
      "గ్రీ": 7785,
      "చవి": 7786,
      "జపా": 7787,
      "టిక": 7788,
      "డం": 7789,
      "డాల": 7790,
      "ఢా": 7791,
      "తాల": 7792,
      "తంగా": 7793,
      "థా": 7794,
      "థిక": 7795,
      "దూ": 7796,
      "దరా": 7797,
      "దంబ": 7798,
      "దక్క": 7799,
      "ధా": 7800,
      "ధు": 7801,
      "పర్": 7802,
      "పతా": 7803,
      "పది": 7804,
      "పరీ": 7805,
      "పర్యా": 7806,
      "ఫి": 7807,
      "బల": 7808,
      "బే": 7809,
      "బై": 7810,
      "బంగ": 7811,
      "భౌ": 7812,
      "మర": 7813,
      "మార": 7814,
      "మహి": 7815,
      "యూ": 7816,
      "రష": 7817,
      "రల్": 7818,
      "రకాల": 7819,
      "వో": 7820,
      "వార్": 7821,
      "వాల్": 7822,
      "వలం": 7823,
      "వత్రిక": 7824,
      "వడం": 7825,
      "శక": 7826,
      "శె": 7827,
      "శకు": 7828,
      "సల": 7829,
      "సో": 7830,
      "హర": 7831,
      "ీం": 7832,
      "ుకు": 7833,
      "ూపం": 7834,
      "ెలు": 7835,
      "ోత్": 7836,
      "ౌర": 7837,
      "ias": 7838,
      "iated": 7839,
      "ink": 7840,
      "tile": 7841,
      "era": 7842,
      "ergency": 7843,
      "207": 7844,
      "arl": 7845,
      "tionary": 7846,
      "isbn": 7847,
      "্যপ্রাণী": 7848,
      "thema": 7849,
      "asthan": 7850,
      "ought": 7851,
      "195": 7852,
      "changes": 7853,
      "তিব্": 7854,
      "র্মা": 7855,
      "বিম্": 7856,
      "বিহার": 7857,
      "বিভক্ত": 7858,
      "adop": 7859,
      "adhy": 7860,
      "केट": 7861,
      "tration": 7862,
      "truction": 7863,
      "atch": 7864,
      "atory": 7865,
      "భారతం": 7866,
      "దేశానికి": 7867,
      "ump": 7868,
      "1093": 7869,
      "স্ফ": 7870,
      "సాహి": 7871,
      "সাত": 7872,
      "সামা": 7873,
      "প্রয়": 7874,
      "প্রকল": 7875,
      "ীয়া": 7876,
      "editor": 7877,
      "ర్కొ": 7878,
      "ర్జె": 7879,
      "ర్నేషనల్": 7880,
      "angana": 7881,
      "र्तग": 7882,
      "ette": 7883,
      "स्ता": 7884,
      "कांग्रेस": 7885,
      "দ্বার": 7886,
      "hered": 7887,
      "রামন": 7888,
      "রাউট": 7889,
      "রাশিয়া": 7890,
      "বাঘ": 7891,
      "বাম": 7892,
      "ull": 7893,
      "రాయ": 7894,
      "రాతి": 7895,
      "ప్రారం": 7896,
      "ప్రీం": 7897,
      "లోన్": 7898,
      "లోమీ": 7899,
      "সংযুক্ত": 7900,
      "টিয়া": 7901,
      "emerg": 7902,
      "FOOTNOTEProvisional": 7903,
      "FOOTNOTERowland1970": 7904,
      "FOOTNOTEBarrow2003": 7905,
      "হাই": 7906,
      "978019": 7907,
      "प्रभा": 7908,
      "प्रकार": 7909,
      "प्रशासन": 7910,
      "प्रवेश": 7911,
      "वित": 7912,
      "rain": 7913,
      "ratic": 7914,
      "నిడ్": 7915,
      "నియన్": 7916,
      "ারিত": 7917,
      "ভাব": 7918,
      "ভাভা": 7919,
      "force": 7920,
      "1526": 7921,
      "কেমব্রি": 7922,
      "rop": 7923,
      "roti": 7924,
      "237": 7925,
      "राजभाषा": 7926,
      "लावा": 7927,
      "উদ্ধৃতিতে": 7928,
      "ন্দরবন": 7929,
      "লেজ": 7930,
      "লেঙ্গ": 7931,
      "साइ": 7932,
      "सामाज": 7933,
      "ముద్ర": 7934,
      "ियां": 7935,
      "CITEREFAsherTalbot": 7936,
      "CITEREFWolpert2003": 7937,
      "సింగ్": 7938,
      "ubusiness": 7939,
      "govern": 7940,
      "285": 7941,
      "पुर्तग": 7942,
      "ষ্টি": 7943,
      "విష్ణ": 7944,
      "వివరాలు": 7945,
      "తిరుగు": 7946,
      "245": 7947,
      "লাইন": 7948,
      "নাথ": 7949,
      "নামে": 7950,
      "త్త": 7951,
      "త్వా": 7952,
      "త్వం": 7953,
      "মাইল": 7954,
      "মাতর": 7955,
      "apore": 7956,
      "302": 7957,
      "িলী": 7958,
      "297": 7959,
      "abase": 7960,
      "ত্তি": 7961,
      "ত্মা": 7962,
      "নিবেশ": 7963,
      "नेट": 7964,
      "त्त": 7965,
      "liber": 7966,
      "জনপদ": 7967,
      "ge129": 7968,
      "చిరు": 7969,
      "చిహ్": 7970,
      "মিজো": 7971,
      "iverse": 7972,
      "माध्य": 7973,
      "జాతులు": 7974,
      "వాణి": 7975,
      "सिन्ध": 7976,
      "আইএ": 7977,
      "mathema": 7978,
      "রেট": 7979,
      "রেল": 7980,
      "রেক্ট": 7981,
      "మాన": 7982,
      "మాట్": 7983,
      "সেন্ট্র": 7984,
      "जाते": 7985,
      "oct": 7986,
      "আর্থ": 7987,
      "पांड": 7988,
      "6050": 7989,
      "కాక": 7990,
      "కాహార": 7991,
      "భారతీయులు": 7992,
      "ড়খণ্ড": 7993,
      "दियों": 7994,
      "ডিরেক্ট": 7995,
      "ার্ড": 7996,
      "కిలోమీ": 7997,
      "పాద": 7998,
      "పాక్": 7999,
      "పాటు": 8000,
      "పుట్టు": 8001,
      "গুপ্ত": 8002,
      "సామీ": 8003,
      "किन्तु": 8004,
      "27s": 8005,
      "এনফোর্স": 8006,
      "निवेश": 8007,
      "ধানী": 8008,
      "উপদ্বীপ": 8009,
      "নীত": 8010,
      "టిలో": 8011,
      "నేరే": 8012,
      "మితి": 8013,
      "alls": 8014,
      "মেন": 8015,
      "মেব": 8016,
      "భాషా": 8017,
      "366": 8018,
      "২০১৭": 8019,
      "ওয়েবসাইট": 8020,
      "మూర్": 8021,
      "మూడు": 8022,
      "আইএসবিন": 8023,
      "ameez": 8024,
      "Mathematics": 8025,
      "मानक": 8026,
      "পরিবর্ত": 8027,
      "కేవలం": 8028,
      "inequality": 8029,
      "రాజు": 8030,
      "Anand": 8031,
      "Animal": 8032,
      "Anthem": 8033,
      "দিয়ে": 8034,
      "2C5": 8035,
      "বিশ্বাস": 8036,
      "5948": 8037,
      "ভিশন": 8038,
      "ভিয়েত": 8039,
      "ক্রীড়া": 8040,
      "জিবিটি": 8041,
      "প্রাস": 8042,
      "లాడే": 8043,
      "లాహో": 8044,
      "কোঙ্ক": 8045,
      "কোরিয়া": 8046,
      "స్తులు": 8047,
      "গণমাধ্যম": 8048,
      "মহাত্মা": 8049,
      "মহাজনপদ": 8050,
      "মধ্যপ্রদেশ": 8051,
      "अभियान": 8052,
      "చేర": 8053,
      "স্থ্য": 8054,
      "ধর্মীয়": 8055,
      "ধর্মনিরপেক্ষ": 8056,
      "ఆర్థిక": 8057,
      "ultur": 8058,
      "বৈশি": 8059,
      "కాలే": 8060,
      "गुट": 8061,
      "বিজয়ন": 8062,
      "angered": 8063,
      "చెట్టు": 8064,
      "చెందు": 8065,
      "చెందిన": 8066,
      "ప్ల": 8067,
      "యుగ": 8068,
      "హాకీ": 8069,
      "newsite": 8070,
      "కూడిన": 8071,
      "పాలిటన్": 8072,
      "गणतंत्र": 8073,
      "religions": 8074,
      "Shri": 8075,
      "poration": 8076,
      "দাক্ষিণ": 8077,
      "దక్షిణాన": 8078,
      "Thir": 8079,
      "সংখ্যার": 8080,
      "পুদু": 8081,
      "Manorama": 8082,
      "కొంక": 8083,
      "కొత్త": 8084,
      "వర్ష": 8085,
      "টাকার": 8086,
      "domain": 8087,
      "తువు": 8088,
      "మెట్రో": 8089,
      "পশু": 8090,
      "নির্দেশ": 8091,
      "Wikivoyage": 8092,
      "গাঢ়": 8093,
      "স্বাস্থ্য": 8094,
      "సంస్కరణ": 8095,
      "ইনভে": 8096,
      "দেখুন": 8097,
      "যোগাযোগ": 8098,
      "బ్రె": 8099,
      "సుప్రీం": 8100,
      "Rajasthan": 8101,
      "दादरा": 8102,
      "मोहन": 8103,
      "বন্যপ্রাণী": 8104,
      "గణి": 8105,
      "సభ్య": 8106,
      "মোদ": 8107,
      "আরও": 8108,
      "Malaysia": 8109,
      "পুরুষ": 8110,
      "రైళ్": 8111,
      "১৯৯০": 8112,
      "१९४": 8113,
      "সুন্দরবন": 8114,
      "বিদ্যুৎ": 8115,
      "unei": 8116,
      "Engineering": 8117,
      "দুর্": 8118,
      "सितंबर": 8119,
      "Ethiop": 8120,
      "न्याय": 8121,
      "oldest": 8122,
      "রাজস্থান": 8123,
      "রাজবংশ": 8124,
      "রাজধানী": 8125,
      "A7C": 8126,
      "কালে": 8127,
      "অনুমোদ": 8128,
      "లేని": 8129,
      "divor": 8130,
      "চেন": 8131,
      "ষ্ট্য": 8132,
      "బాదు": 8133,
      "బాటు": 8134,
      "మహాసముద్రం": 8135,
      "వెల్ల": 8136,
      "స్వామ్య": 8137,
      "సాంప్రదా": 8138,
      "जिसके": 8139,
      "Brunei": 8140,
      "సింధ్": 8141,
      "ually": 8142,
      "সূচি": 8143,
      "সূর্য": 8144,
      "সংসদীয়": 8145,
      "शील": 8146,
      "কাশ্মীরি": 8147,
      "Johnson": 8148,
      "Ramsar": 8149,
      "গতভাবে": 8150,
      "রুপি": 8151,
      "বাসী": 8152,
      "क्रि": 8153,
      "कर्ज": 8154,
      "నేపాలీ": 8155,
      "News18": 8156,
      "Encyclopædia": 8157,
      "texts": 8158,
      "পূর্বা": 8159,
      "পূর্বে": 8160,
      "రెండ": 8161,
      "హ్వాల్": 8162,
      "উপকুল": 8163,
      "নেপালি": 8164,
      "క్రీడలలో": 8165,
      "12410": 8166,
      "গোয়া": 8167,
      "সাইপ্রাস": 8168,
      "Sharma2007": 8169,
      "अपनी": 8170,
      "श्रीनगर": 8171,
      "మైథి": 8172,
      "According": 8173,
      "growing": 8174,
      "আয়োজ": 8175,
      "সংবিধানের": 8176,
      "Atlas": 8177,
      "জয়তে": 8178,
      "currs": 8179,
      "যুক্তরাষ্ট্রীয়": 8180,
      "constitutional": 8181,
      "పంజాబీ": 8182,
      "edule": 8183,
      "recogn": 8184,
      "include": 8185,
      "দ্রাবাদ": 8186,
      "নিবন্ধসমূহ": 8187,
      "కాంగ్రెస్": 8188,
      "উপকূলরক্ষী": 8189,
      "উইকিপিডিয়া": 8190,
      "monthday": 8191,
      "পর্যন্ত": 8192,
      "విస్తరి": 8193,
      "Earth": 8194,
      "এলজিবিটি": 8195,
      "thehindubusiness": 8196,
      "সংবাদপত্র": 8197,
      "মনোনীত": 8198,
      "মালয়ালা": 8199,
      "Two": 8200,
      "Desert": 8201,
      "দশক": 8202,
      "বোড়ো": 8203,
      "అస్సామీ": 8204,
      "బాంబే": 8205,
      "ళ్ళ": 8206,
      "পাঞ্জাবি": 8207,
      "গুজরাতি": 8208,
      "ইন্দোনেশিয়া": 8209,
      "empty": 8210,
      "Civilisation": 8211,
      "मौसम": 8212,
      "Telangana": 8213,
      "জীব": 8214,
      "accessmonthday": 8215,
      "Americana": 8216,
      "signific": 8217,
      "vention": 8218,
      "१८५७": 8219,
      "రూప": 8220,
      "సార్వత్రిక": 8221,
      "Greater": 8222,
      "ময়ূর": 8223,
      "तुलना": 8224,
      "ঠাকুর": 8225,
      "দারিদ্র": 8226,
      "নকশাল": 8227,
      "তাজমহল": 8228,
      "টেলিভিশন": 8229,
      "వందేమాతరం": 8230,
      "কর্তৃক": 8231,
      "বৌদ্ধধর্ম": 8232,
      "Cricket": 8233,
      "34549": 8234,
      "Sindhi": 8235,
      "নৌবাহিনী": 8236,
      "occup": 8237,
      "PA486": 8238,
      "జన్మ": 8239,
      "న్యాయ": 8240,
      "ఫైల్": 8241,
      "భరత": 8242,
      "క్టోరల్": 8243,
      "राजधानी": 8244,
      "విద్యుత్": 8245,
      "గుర్తి": 8246,
      "పార్లమెంటరీ": 8247,
      "మరాఠీ": 8248,
      "ঝাড়খণ্ড": 8249,
      "বলিউড": 8250,
      "FOOTNOTEHarle199": 8251,
      "FOOTNOTESpear1990242": 8252,
      "जबकि": 8253,
      "रहे": 8254,
      "विषय": 8255,
      "विदेशी": 8256,
      "ilkumar": 8257,
      "অস্ট্রেল": 8258,
      "কর্মসূচি": 8259,
      "কগণের": 8260,
      "মৈতৈ": 8261,
      "అక్షరాస్యత": 8262,
      "ఇంటర్నేషనల్": 8263,
      "జంతువు": 8264,
      "నడిపించ": 8265,
      "సహకార": 8266,
      "বিদেশি": 8267,
      "স্টিগেশন": 8268,
      "సామాను": 8269,
      "প্রবেশদ্বার": 8270,
      "FOOTNOTEWolpert20031": 8271,
      "হায়দ্রাবাদ": 8272,
      "ত্থান": 8273,
      "పూర్వోత్": 8274,
      "మాత్రం": 8275,
      "కింగ్డమ్": 8276,
      "মুখ্য": 8277,
      "ప్పటికీ": 8278,
      "జనగణమన": 8279,
      "আর্যভট্ট": 8280,
      "Marathi": 8281,
      "సాంకేతిక": 8282,
      "কর্ণাটক": 8283,
      "কৃষ্ণ": 8284,
      "রবীন্দ্রনাথ": 8285,
      "muslim": 8286,
      "sanilkumar": 8287,
      "employed": 8288,
      "Konk": 8289,
      "Sukhoi": 8290,
      "Upper": 8291,
      "गठबंधन": 8292,
      "Singapore": 8293,
      "উর্দু": 8294,
      "বার্ষ": 8295,
      "সচিব": 8296,
      "মধ্যযুগীয়": 8297,
      "শতাব্দীর": 8298,
      "Dominion": 8299,
      "PSPE": 8300,
      "Sino": 8301,
      "घोष": 8302,
      "सहयोग": 8303,
      "ोत्तर": 8304,
      "ఆధీనంలో": 8305,
      "ఆహారం": 8306,
      "సర్వీ": 8307,
      "హైదరా": 8308,
      "విభజన": 8309,
      "हालाँकि": 8310,
      "స్థితి": 8311,
      "రాజ్యాంగం": 8312,
      "రోడ్డు": 8313,
      "పోర్చుగీ": 8314,
      "పీఠభూ": 8315,
      "Tarlo1996": 8316,
      "Chhattisgarh": 8317,
      "Rabind": 8318,
      "02649": 8319,
      "EBchecked": 8320,
      "XVII": 8321,
      "অসমীয়া": 8322,
      "অন্তর্গত": 8323,
      "বন্দে": 8324,
      "সত্যমেব": 8325,
      "সাক্ষরতার": 8326,
      "নিম্নক": 8327,
      "জ্যোতির্": 8328,
      "একত্রীকরণ": 8329,
      "বিজেপি": 8330,
      "पहुँच": 8331,
      "स्थिति": 8332,
      "वर्तमान": 8333,
      "यूरोपीय": 8334,
      "Ajanta": 8335,
      "harmaceutical": 8336,
      "026612410": 8337,
      "0140138": 8338,
      "Dogri": 8339,
      "dnaindia": 8340,
      "n80125948": 8341,
      "डॉलर": 8342,
      "मंडल": 8343,
      "सल्तन": 8344,
      "हॉकी": 8345,
      "हवेली": 8346,
      "অবৈধ": 8347,
      "ইহুদি": 8348,
      "ঈদুল": 8349,
      "ওড়িয়া": 8350,
      "জরুরি": 8351,
      "ডোগরি": 8352,
      "দ্রুত": 8353,
      "ফৌজ": 8354,
      "ফার্সি": 8355,
      "বোর্ড": 8356,
      "রন্ধন": 8357,
      "লৌহ": 8358,
      "সিয়াচেন": 8359,
      "সবুজ": 8360,
      "అథారిటీ": 8361,
      "ఈస్ట్": 8362,
      "ఉర్దూ": 8363,
      "ఎలక్టోరల్": 8364,
      "ఢాకా": 8365,
      "పరీక్ష": 8366,
      "তিব্ব": 8367,
      "సాహిత్యం": 8368,
      "সামাজিক": 8369,
      "রাউটলেজ": 8370,
      "কেমব্রিজ": 8371,
      "सामाजिक": 8372,
      "తిరుగుబాటు": 8373,
      "মাতরম্": 8374,
      "ge129384": 8375,
      "వాణిజ్య": 8376,
      "सिन्धु": 8377,
      "మాట్లాడే": 8378,
      "সেন্ট্রাল": 8379,
      "ডিরেক্টরেট": 8380,
      "పుట్టుపూర్వోత్": 8381,
      "এনফোর্সমেন্ট": 8382,
      "నేరేడు": 8383,
      "లాహోర్": 8384,
      "কোঙ্কণী": 8385,
      "বৈশিষ্ট্য": 8386,
      "বিজয়নগর": 8387,
      "చెందుతున్న": 8388,
      "দাক্ষিণাত্য": 8389,
      "পুদুচেরি": 8390,
      "కొంకణి": 8391,
      "మెట్రోపాలిటన్": 8392,
      "ইনভেস্টিগেশন": 8393,
      "Ethiopia": 8394,
      "సాంప్రదాయ": 8395,
      "উপকুলীয়": 8396,
      "currsci": 8397,
      "thehindubusinessline": 8398,
      "పుట్టుపూర్వోత్తరాలు": 8399,
      "319": 8400,
      "478": 8401,
      "430": 8402,
      "LI": 8403,
      "Sim": 8404,
      "Ver": 8405,
      "Wood": 8406,
      "boo": 8407,
      "ek": 8408,
      "lc": 8409,
      "nearly": 8410,
      "sex": 8411,
      "ala": 8412,
      "1901": 8413,
      "1983": 8414,
      "cha": 8415,
      "across": 8416,
      "adas": 8417,
      "uscrip": 8418,
      "ilar": 8419,
      "results": 8420,
      "rati": 8421,
      "ayana": 8422,
      "262": 8423,
      "trition": 8424,
      "Hindus": 8425,
      "establish": 8426,
      "339": 8427,
      "274": 8428,
      "276": 8429,
      "909": 8430,
      "4593": 8431,
      "357": 8432,
      "20190": 8433,
      "disease": 8434,
      "342": 8435,
      "desc": 8436,
      "Literacy": 8437,
      "body": 8438,
      "similar": 8439,
      "atistical": 8440,
      "Rigveda": 8441,
      "pollution": 8442,
      "0415": 8443,
      "225": 8444,
      "360": 8445,
      "4th": 8446,
      "420": 8447,
      "450": 8448,
      "422": 8449,
      "512": 8450,
      "Az": 8451,
      "B2": 8452,
      "Cy": 8453,
      "DD": 8454,
      "DNA": 8455,
      "Es": 8456,
      "ENC": 8457,
      "Female": 8458,
      "Gate": 8459,
      "Ghat": 8460,
      "House": 8461,
      "Jus": 8462,
      "Ke": 8463,
      "Khan": 8464,
      "LS": 8465,
      "Lal": 8466,
      "Lang": 8467,
      "Lake": 8468,
      "Mil": 8469,
      "Mong": 8470,
      "Member": 8471,
      "NIC": 8472,
      "Oly": 8473,
      "Poverty": 8474,
      "QAAQBAJ": 8475,
      "Red": 8476,
      "Syn": 8477,
      "Stock": 8478,
      "Vice": 8479,
      "W00": 8480,
      "XLS": 8481,
      "YM": 8482,
      "aedia": 8483,
      "bang": 8484,
      "cement": 8485,
      "coral": 8486,
      "cuisine": 8487,
      "del": 8488,
      "dens": 8489,
      "ees": 8490,
      "forge": 8491,
      "gana": 8492,
      "hon": 8493,
      "hip": 8494,
      "histor": 8495,
      "jana": 8496,
      "lists": 8497,
      "mana": 8498,
      "mone": 8499,
      "make": 8500,
      "nla": 8501,
      "popular": 8502,
      "rul": 8503,
      "round": 8504,
      "raman": 8505,
      "song": 8506,
      "spec": 8507,
      "spre": 8508,
      "sultanate": 8509,
      "tre": 8510,
      "tool": 8511,
      "tats": 8512,
      "ute": 8513,
      "ued": 8514,
      "uff": 8515,
      "wide": 8516,
      "ār": 8517,
      "iat": 8518,
      "test": 8519,
      "inc": 8520,
      "ination": 8521,
      "recent": 8522,
      "20MD": 8523,
      "alys": 8524,
      "enous": 8525,
      "energy": 8526,
      "itor": 8527,
      "itar": 8528,
      "oms": 8529,
      "thew": 8530,
      "outs": 8531,
      "child": 8532,
      "chasing": 8533,
      "champion": 8534,
      "trillion": 8535,
      "weo": 8536,
      "enty": 8537,
      "imals": 8538,
      "ecu": 8539,
      "uries": 8540,
      "igenous": 8541,
      "head": 8542,
      "1233": 8543,
      "005": 8544,
      "upper": 8545,
      "ipati": 8546,
      "rael": 8547,
      "stm": 8548,
      "188": 8549,
      "177": 8550,
      "fort": 8551,
      "forcement": 8552,
      "common": 8553,
      "Income": 8554,
      "232": 8555,
      "univers": 8556,
      "CITEREFMinistry": 8557,
      "CITEREFMetcalfMetcalf2012": 8558,
      "259": 8559,
      "epic": 8560,
      "eping": 8561,
      "plain": 8562,
      "front": 8563,
      "contain": 8564,
      "appro": 8565,
      "appoin": 8566,
      "304": 8567,
      "309": 8568,
      "parity": 8569,
      "prac": 8570,
      "harv": 8571,
      "harashtra": 8572,
      "languageinindia": 8573,
      "being": 8574,
      "476": 8575,
      "phan": 8576,
      "Stat": 8577,
      "279": 8578,
      "without": 8579,
      "568": 8580,
      "claim": 8581,
      "Maharashtra": 8582,
      "therine": 8583,
      "issn": 8584,
      "ardian": 8585,
      "Architecture": 8586,
      "385": 8587,
      "Harvard": 8588,
      "Emergency": 8589,
      "Israel": 8590,
      "391": 8591,
      "394": 8592,
      "engineering": 8593,
      "display": 8594,
      "discuss": 8595,
      "8731": 8596,
      "coast": 8597,
      "Ministers": 8598,
      "nath": 8599,
      "news18": 8600,
      "former": 8601,
      "centuries": 8602,
      "Guide": 8603,
      "Schedule": 8604,
      "Biosphere": 8605,
      "Wikipedia": 8606,
      "7619": 8607,
      "regional": 8608,
      "71106": 8609,
      "incely": 8610,
      "wars": 8611,
      "value": 8612,
      "speech": 8613,
      "Encyclopaedia": 8614,
      "Adv": 8615,
      "Arabia": 8616,
      "dependent": 8617,
      "Parliamentary": 8618,
      "Barbara": 8619,
      "Revolution": 8620,
      "Palace": 8621,
      "linguistic": 8622,
      "record": 8623,
      "Natural": 8624,
      "Nataraja": 8625,
      "Saudi": 8626,
      "Symbols": 8627,
      "Turkey": 8628,
      "Minority": 8629,
      "Green": 8630,
      "democ": 8631,
      "Maurya": 8632,
      "Sripati": 8633,
      "standards": 8634,
      "20833": 8635,
      "entertainment": 8636,
      "Tibetan": 8637,
      "small": 8638,
      "retary": 8639,
      "Wright2010": 8640,
      "61389": 8641,
      "Demonym": 8642,
      "Chandramouli2011": 8643,
      "Catherine": 8644,
      "Kannada": 8645,
      "Network": 8646,
      "NGDPD": 8647,
      "Toda": 8648,
      "courts": 8649,
      "498576": 8650,
      "Urban": 8651,
      "nytimes": 8652,
      "village": 8653,
      "relief": 8654,
      "DDW00": 8655,
      "Ghats": 8656,
      "Justice": 8657,
      "Langur": 8658,
      "Olymp": 8659,
      "bangladesh": 8660,
      "money": 8661,
      "toolforge": 8662,
      "tatsama": 8663,
      "20MDDS": 8664,
      "alysis": 8665,
      "appointed": 8666,
      "711062": 8667,
      "DDW00C": 8668,
      "228": 8669,
      "3000": 8670,
      "870": 8671,
      "Freedom": 8672,
      "Glim": 8673,
      "Hand": 8674,
      "Lanc": 8675,
      "Onew": 8676,
      "Rights": 8677,
      "Wa": 8678,
      "XX": 8679,
      "Young": 8680,
      "ause": 8681,
      "bird": 8682,
      "itive": 8683,
      "ns": 8684,
      "ंजन": 8685,
      "अभी": 8686,
      "आर्": 8687,
      "आकार": 8688,
      "आर्य": 8689,
      "इजरा": 8690,
      "इटे": 8691,
      "उस": 8692,
      "उद्योग": 8693,
      "उड़ी": 8694,
      "कह": 8695,
      "खि": 8696,
      "ग्": 8697,
      "चला": 8698,
      "णार्": 8699,
      "थम": 8700,
      "धिक": 8701,
      "नदिया": 8702,
      "फै": 8703,
      "मक": 8704,
      "म्य": 8705,
      "रख": 8706,
      "वर": 8707,
      "शे": 8708,
      "शेष": 8709,
      "शाली": 8710,
      "षिक": 8711,
      "सों": 8712,
      "समा": 8713,
      "िशा": 8714,
      "ूल": 8715,
      "ेरी": 8716,
      "५०": 8717,
      "tegr": 8718,
      "init": 8719,
      "increase": 8720,
      "anetary": 8721,
      "lobe": 8722,
      "स्लि": 8723,
      "स्चेंज": 8724,
      "काश": 8725,
      "क्स": 8726,
      "0056": 8727,
      "archives": 8728,
      "प्रथम": 8729,
      "विवाद": 8730,
      "विभिन्न": 8731,
      "indic": 8732,
      "नागर": 8733,
      "नाइटे": 8734,
      "1500": 8735,
      "संरक्ष": 8736,
      "लाख": 8737,
      "4071": 8738,
      "40267": 8739,
      "ंगडम": 8740,
      "called": 8741,
      "30MKI": 8742,
      "above": 8743,
      "कोणार्": 8744,
      "त्ता": 8745,
      "माता": 8746,
      "हिल्स": 8747,
      "सूर्य": 8748,
      "वाँ": 8749,
      "समान": 8750,
      "किंगडम": 8751,
      "्याचल": 8752,
      "451208": 8753,
      "लेकर": 8754,
      "तीर्थ": 8755,
      "मुस्लि": 8756,
      "मीडिया": 8757,
      "मान्य": 8758,
      "वर्ती": 8759,
      "वर्ल्": 8760,
      "वर्तन": 8761,
      "7776": 8762,
      "भील": 8763,
      "पुराण": 8764,
      "ंत्रिक": 8765,
      "INR": 8766,
      "मूल्य": 8767,
      "quest": 8768,
      "summer": 8769,
      "ंदर": 8770,
      "टियों": 8771,
      "Planetary": 8772,
      "PPC": 8773,
      "Scholas": 8774,
      "पूर्वोत्तर": 8775,
      "विश्वविद्यालय": 8776,
      "संघीय": 8777,
      "संस्था": 8778,
      "Rajiv": 8779,
      "मोर": 8780,
      "Coningham": 8781,
      "011356": 8782,
      "१९७": 8783,
      "१९८": 8784,
      "यूनाइटे": 8785,
      "Alan": 8786,
      "तटवर्ती": 8787,
      "खासी": 8788,
      "बहुमत": 8789,
      "बहुमूल्य": 8790,
      "तिहासिक": 8791,
      "Ramayana": 8792,
      "मंत्रि": 8793,
      "चेरी": 8794,
      "अपना": 8795,
      "तीसरी": 8796,
      "getar": 8797,
      "pses": 8798,
      "वार्षिक": 8799,
      "Australian": 8800,
      "Assamese": 8801,
      "adium": 8802,
      "003407": 8803,
      "northernmost": 8804,
      "परिष": 8805,
      "Curry": 8806,
      "दर्शन": 8807,
      "दृष्": 8808,
      "full": 8809,
      "nutrition": 8810,
      "Online": 8811,
      "ओड़िशा": 8812,
      "9057776": 8813,
      "impact": 8814,
      "सहायक": 8815,
      "विस्तृत": 8816,
      "परीक्षण": 8817,
      "DA011356": 8818,
      "उष्णकटिबंधीय": 8819,
      "एक्स्चेंज": 8820,
      "कानून": 8821,
      "रत्न": 8822,
      "Missile": 8823,
      "Directorate": 8824,
      "नरेन्द्र": 8825,
      "द्वितीय": 8826,
      "Malayalam": 8827,
      "written": 8828,
      "न्यायपालिका": 8829,
      "Konkani": 8830,
      "सल्तनत": 8831,
      "uscript": 8832,
      "Glimpses": 8833,
      "Lancet": 8834,
      "Oneworld": 8835,
      "XX451208": 8836,
      "उड़ीसा": 8837,
      "00564071": 8838,
      "4026722": 8839,
      "कोणार्क": 8840,
      "मुस्लिम": 8841,
      "वर्ल्ड": 8842,
      "Scholastic": 8843,
      "यूनाइटेड": 8844,
      "90577766": 8845,
      "DA01135694": 8846,
      "240": 8847,
      "270": 8848,
      "310": 8849,
      "318": 8850,
      "316": 8851,
      "377": 8852,
      "410": 8853,
      "4DwAAQBAJ": 8854,
      "7j": 8855,
      "7000": 8856,
      "858": 8857,
      "ARC": 8858,
      "BSI": 8859,
      "Cap": 8860,
      "Cyn": 8861,
      "Dom": 8862,
      "Eastern": 8863,
      "Fi": 8864,
      "Fif": 8865,
      "Hy": 8866,
      "Han": 8867,
      "Hockey": 8868,
      "HRv": 8869,
      "Ira": 8870,
      "Kaz": 8871,
      "Kultur": 8872,
      "Lad": 8873,
      "Mc": 8874,
      "Mur": 8875,
      "Mall": 8876,
      "Nass": 8877,
      "Nii": 8878,
      "Open": 8879,
      "Pall": 8880,
      "Rog": 8881,
      "Sat": 8882,
      "SAGE": 8883,
      "Tit": 8884,
      "Tourism": 8885,
      "Web": 8886,
      "WBSI": 8887,
      "Yarl": 8888,
      "Y7j": 8889,
      "atic": 8890,
      "bE0": 8891,
      "ctri": 8892,
      "dQC": 8893,
      "folk": 8894,
      "foreign": 8895,
      "federal": 8896,
      "facts": 8897,
      "historical": 8898,
      "ied": 8899,
      "journal": 8900,
      "kameez": 8901,
      "live": 8902,
      "media": 8903,
      "mang": 8904,
      "mart": 8905,
      "mumbai": 8906,
      "moon": 8907,
      "nIy": 8908,
      "oz": 8909,
      "qy": 8910,
      "rh": 8911,
      "rid": 8912,
      "rang": 8913,
      "ranath": 8914,
      "ste": 8915,
      "sang": 8916,
      "sav": 8917,
      "swearing": 8918,
      "size": 8919,
      "tamil": 8920,
      "uters": 8921,
      "ufer": 8922,
      "ulos": 8923,
      "vens": 8924,
      "vals": 8925,
      "wan": 8926,
      "words": 8927,
      "অগ্র": 8928,
      "অস্ত্র": 8929,
      "অঞ্চলে": 8930,
      "আস": 8931,
      "আজা": 8932,
      "আধা": 8933,
      "আত্ম": 8934,
      "উথ": 8935,
      "উপা": 8936,
      "খানে": 8937,
      "গড়ে": 8938,
      "চতু": 8939,
      "ছি": 8940,
      "জমি": 8941,
      "তানা": 8942,
      "দার": 8943,
      "নর": 8944,
      "ন্য": 8945,
      "নশীল": 8946,
      "পর্": 8947,
      "পান": 8948,
      "পমেন্ট": 8949,
      "ফ্র": 8950,
      "বজা": 8951,
      "বস্ত্র": 8952,
      "ভু": 8953,
      "মারি": 8954,
      "মতো": 8955,
      "মশু": 8956,
      "যথা": 8957,
      "রন": 8958,
      "রেশ": 8959,
      "ল্যান্ড": 8960,
      "শহ": 8961,
      "শুরু": 8962,
      "শহর": 8963,
      "সৃ": 8964,
      "সকল": 8965,
      "ীষ্": 8966,
      "েঞ্জ": 8967,
      "োজন": 8968,
      "৩২": 8969,
      "৩১৬৬": 8970,
      "৫১": 8971,
      "৫৭": 8972,
      "৬০": 8973,
      "৬৪": 8974,
      "৮৩": 8975,
      "৮৯": 8976,
      "tek": 8977,
      "onome": 8978,
      "ina": 8979,
      "til": 8980,
      "till": 8981,
      "real": 8982,
      "reement": 8983,
      "thia": 8984,
      "orke": 8985,
      "eros": 8986,
      "erated": 8987,
      "202012": 8988,
      "20two": 8989,
      "ants": 8990,
      "anley": 8991,
      "alisation": 8992,
      "ene": 8993,
      "enjo": 8994,
      "often": 8995,
      "য়নিক": 8996,
      "isa": 8997,
      "isted": 8998,
      "itch": 8999,
      "ittan": 9000,
      "theSite": 9001,
      "1987": 9002,
      "19220": 9003,
      "nopp": 9004,
      "iday": 9005,
      "idence": 9006,
      "idasa": 9007,
      "ches": 9008,
      "chand": 9009,
      "20120": 9010,
      "বিল": 9011,
      "বিভা": 9012,
      "বিচ্": 9013,
      "বিরোধ": 9014,
      "adh": 9015,
      "tric": 9016,
      "amas": 9017,
      "ently": 9018,
      "1080": 9019,
      "usion": 9020,
      "uscir": 9021,
      "স্প": 9022,
      "স্কৃতিক": 9023,
      "সাব": 9024,
      "সাম্": 9025,
      "সাউথ": 9026,
      "সায়নিক": 9027,
      "ila": 9028,
      "প্রতিক": 9029,
      "প্রত্য": 9030,
      "fied": 9031,
      "787": 9032,
      "igonome": 9033,
      "দ্ব": 9034,
      "hek": 9035,
      "রাণ": 9036,
      "রাজা": 9037,
      "রাসায়নিক": 9038,
      "entire": 9039,
      "ালিক": 9040,
      "eme": 9041,
      "emen": 9042,
      "FOOTNOTEAsherTalbot": 9043,
      "২০২৩": 9044,
      "indias": 9045,
      "50205": 9046,
      "tices": 9047,
      "182": 9048,
      "There": 9049,
      "175": 9050,
      "234": 9051,
      "জাপান": 9052,
      "ERS": 9053,
      "uni": 9054,
      "TERNAL": 9055,
      "CITEREFLibrary": 9056,
      "ever": 9057,
      "uberc": 9058,
      "288": 9059,
      "251": 9060,
      "252": 9061,
      "258": 9062,
      "ষ্টা": 9063,
      "ples": 9064,
      "friday": 9065,
      "api": 9066,
      "apos": 9067,
      "307": 9068,
      "30568": 9069,
      "abel": 9070,
      "২০০১": 9071,
      "ট্রা": 9072,
      "নিস্ট": 9073,
      "হিং": 9074,
      "ভাষার": 9075,
      "গ্রীষ্": 9076,
      "lies": 9077,
      "libr": 9078,
      "প্তি": 9079,
      "জনসংখ্যার": 9080,
      "মিন": 9081,
      "ishes": 9082,
      "থেকেই": 9083,
      "কার্যালয়": 9084,
      "কার্গ": 9085,
      "prom": 9086,
      "Hard": 9087,
      "গুরু": 9088,
      "Indira": 9089,
      "জাতীয়তা": 9090,
      "Stanley": 9091,
      "রাষ্ট্রের": 9092,
      "aju": 9093,
      "ically": 9094,
      "Stevens": 9095,
      "শান্তি": 9096,
      "361": 9097,
      "362": 9098,
      "ভূত": 9099,
      "ভূতত্ত্ব": 9100,
      "related": 9101,
      "whose": 9102,
      "২০১০": 9103,
      "২০১৫": 9104,
      "Mah": 9105,
      "পরিচাল": 9106,
      "ব্যবহ": 9107,
      "রাজ্যপাল": 9108,
      "1206": 9109,
      "issions": 9110,
      "200912": 9111,
      "কেন্দ্রিক": 9112,
      "ards": 9113,
      "piPK": 9114,
      "সমগ্র": 9115,
      "endangered": 9116,
      "387": 9117,
      "genf": 9118,
      "ভিস": 9119,
      "Roy": 9120,
      "Roorke": 9121,
      "maraju": 9122,
      "প্রাকৃতিক": 9123,
      "মুসল": 9124,
      "করেন": 9125,
      "2012ARC": 9126,
      "distribution": 9127,
      "স্থার": 9128,
      "ধর্মবিশ্বাস": 9129,
      "mann": 9130,
      "mantle": 9131,
      "nationalism": 9132,
      "halaya": 9133,
      "বৈজ্ঞান": 9134,
      "deci": 9135,
      "quote": 9136,
      "Plofker": 9137,
      "উত্তরপ্রদেশ": 9138,
      "ইউরেশ": 9139,
      "দাবা": 9140,
      "plex": 9141,
      "Prospec": 9142,
      "article30568": 9143,
      "ologies": 9144,
      "syn": 9145,
      "ইনফ": 9146,
      "পালন": 9147,
      "Peter": 9148,
      "Peers": 9149,
      "poe": 9150,
      "০০০": 9151,
      "১৯৯১": 9152,
      "১৯৯৬": 9153,
      "১৯৯৭": 9154,
      "১৯৯৯": 9155,
      "১৭০": 9156,
      "সুপার": 9157,
      "lower": 9158,
      "COUN": 9159,
      "driving": 9160,
      "সালতানা": 9161,
      "কালের": 9162,
      "পর্বতশ্রেণী": 9163,
      "Bharata": 9164,
      "দিল্লী": 9165,
      "anning": 9166,
      "Georg": 9167,
      "Geology": 9168,
      "Geography": 9169,
      "bueros": 9170,
      "lsC": 9171,
      "pagePK": 9172,
      "uments": 9173,
      "Montek": 9174,
      "however": 9175,
      "Companion": 9176,
      "প্রাচীনতম": 9177,
      "school": 9178,
      "anced": 9179,
      "ancial": 9180,
      "আদমশু": 9181,
      "বিচারে": 9182,
      "edium": 9183,
      "very": 9184,
      "ক্ষমতায়": 9185,
      "traditions": 9186,
      "Academ": 9187,
      "background": 9188,
      "caused": 9189,
      "iii": 9190,
      "আয়ত": 9191,
      "ুষিত": 9192,
      "provisions": 9193,
      "leges": 9194,
      "markup": 9195,
      "ইন্দি": 9196,
      "EXTERNAL": 9197,
      "colleges": 9198,
      "disputed": 9199,
      "Beach": 9200,
      "চালু": 9201,
      "বৃদ্ধির": 9202,
      "Purchasing": 9203,
      "MacDon": 9204,
      "ডেভেল": 9205,
      "নারেল": 9206,
      "সারে": 9207,
      "১৯৭১": 9208,
      "১৯৭৫": 9209,
      "transm": 9210,
      "contentMD": 9211,
      "পরিষে": 9212,
      "administrative": 9213,
      "Party": 9214,
      "গুজরাত": 9215,
      "Hermann": 9216,
      "FOOTNOTEAsherTalbot200853": 9217,
      "ayashi": 9218,
      "longer": 9219,
      "জীবন": 9220,
      "pager": 9221,
      "havan": 9222,
      "Basu": 9223,
      "খ্রিস্টান": 9224,
      "ধ্রুপদি": 9225,
      "Kalidasa": 9226,
      "Mohenjo": 9227,
      "Financial": 9228,
      "families": 9229,
      "মাধ্যমে": 9230,
      "টাইমস": 9231,
      "highest": 9232,
      "astronom": 9233,
      "Dalit": 9234,
      "Sites": 9235,
      "খনন": 9236,
      "hapters": 9237,
      "ঐতিহ্যবাহী": 9238,
      "Poems": 9239,
      "Coastal": 9240,
      "Kathakali": 9241,
      "Nilufer": 9242,
      "Survey": 9243,
      "বিমানবাহিনী": 9244,
      "trophe": 9245,
      "বিশ্ববিদ্যালয়সমূহ": 9246,
      "ওড়িশা": 9247,
      "সিপাহি": 9248,
      "কোনও": 9249,
      "পঞ্চায়েত": 9250,
      "organisation": 9251,
      "Clothing": 9252,
      "daro": 9253,
      "pmc": 9254,
      "ইটালিক": 9255,
      "ডাক": 9256,
      "istence": 9257,
      "সাংস্কৃতিক": 9258,
      "মানুষের": 9259,
      "সম্প্রদায়": 9260,
      "Shiva": 9261,
      "Meghalaya": 9262,
      "Identity": 9263,
      "Ifqy": 9264,
      "Recogn": 9265,
      "mjIfqy": 9266,
      "অরণ্য": 9267,
      "নেতৃত্বে": 9268,
      "বঙ্গোপসাগর": 9269,
      "jurisdiction": 9270,
      "CiNii": 9271,
      "memorial": 9272,
      "TRIES": 9273,
      "Davidson2014": 9274,
      "Administrative": 9275,
      "অনেক": 9276,
      "অধ্যুষিত": 9277,
      "adopted": 9278,
      "প্রকল্প": 9279,
      "emerged": 9280,
      "পুরুষদের": 9281,
      "অনুমোদিত": 9282,
      "দারিদ্র্য": 9283,
      "Rabindranath": 9284,
      "নিম্নকক্ষ": 9285,
      "রন্ধনশৈলী": 9286,
      "0415329": 9287,
      "YM4DwAAQBAJ": 9288,
      "ecutive": 9289,
      "discussion": 9290,
      "Cynthia": 9291,
      "HRvdQC": 9292,
      "KulturNav": 9293,
      "Ladakh": 9294,
      "Pallav": 9295,
      "WBSITE": 9296,
      "Yarlung": 9297,
      "Y7jlsC": 9298,
      "bE0HRvdQC": 9299,
      "nIybE0HRvdQC": 9300,
      "ulosis": 9301,
      "আজাদ": 9302,
      "ফ্রন্ট": 9303,
      "ittances": 9304,
      "theSitePK": 9305,
      "বিভাজন": 9306,
      "uscirf": 9307,
      "সাম্প্রতিক": 9308,
      "uberculosis": 9309,
      "apostrophe": 9310,
      "গ্রীষ্ম": 9311,
      "কার্গিল": 9312,
      "ব্যবহৃত": 9313,
      "Roorkee": 9314,
      "মুসলমান": 9315,
      "2012ARChapters": 9316,
      "বৈজ্ঞানিক": 9317,
      "ইউরেশীয়": 9318,
      "Prospects": 9319,
      "COUNTRIES": 9320,
      "সালতানাত": 9321,
      "আদমশুমারি": 9322,
      "MacDonell": 9323,
      "ডেভেলপমেন্ট": 9324,
      "contentMDK": 9325,
      "mjIfqyY7jlsC": 9326,
      "324": 9327,
      "8d": 9328,
      "AL": 9329,
      "AN": 9330,
      "App": 9331,
      "Bat": 9332,
      "Cres": 9333,
      "Mat": 9334,
      "Present": 9335,
      "Thal": 9336,
      "down": 9337,
      "fast": 9338,
      "gold": 9339,
      "nt": 9340,
      "worth": 9341,
      "cific": 9342,
      "ided": 9343,
      "ample": 9344,
      "usel": 9345,
      "lines": 9346,
      "partition": 9347,
      "Flora": 9348,
      "aug": 9349,
      "1968": 9350,
      "nii": 9351,
      "19734": 9352,
      "AgAAQBAJ": 9353,
      "catalogo": 9354,
      "because": 9355,
      "having": 9356,
      "20110721": 9357,
      "Seventeenth": 9358,
      "35219734": 9359,
      "HarperCollins": 9360,
      "tegration": 9361,
      "indicator": 9362,
      "getarian": 9363,
      "Battle": 9364,
      "Thali": 9365,
      "uselang": 9366,
      "018": 9367,
      "0149": 9368,
      "3C": 9369,
      "370": 9370,
      "4C": 9371,
      "517": 9372,
      "5166": 9373,
      "5261": 9374,
      "624": 9375,
      "6358": 9376,
      "749": 9377,
      "826": 9378,
      "Arav": 9379,
      "Aitch": 9380,
      "Bn": 9381,
      "Bre": 9382,
      "BJP": 9383,
      "Bourbaki": 9384,
      "Bhavan": 9385,
      "Cath": 9386,
      "DK": 9387,
      "Dam": 9388,
      "Dig": 9389,
      "Daman": 9390,
      "ENG": 9391,
      "Fre": 9392,
      "Fed": 9393,
      "Found": 9394,
      "Ger": 9395,
      "Gra": 9396,
      "Gaz": 9397,
      "Ir": 9398,
      "Ka": 9399,
      "Kad": 9400,
      "King": 9401,
      "Kip": 9402,
      "Khad": 9403,
      "Lot": 9404,
      "LNG": 9405,
      "Mz": 9406,
      "Nag": 9407,
      "Nel": 9408,
      "Nature": 9409,
      "OW": 9410,
      "Pav": 9411,
      "PIN": 9412,
      "PNG": 9413,
      "Prakash": 9414,
      "Rom": 9415,
      "Rail": 9416,
      "Rashtra": 9417,
      "SE": 9418,
      "Sultanate": 9419,
      "S2542": 9420,
      "TS": 9421,
      "To": 9422,
      "URL": 9423,
      "VID": 9424,
      "Vidy": 9425,
      "VIAF": 9426,
      "Wash": 9427,
      "Zoro": 9428,
      "aHard": 9429,
      "bs": 9430,
      "bin": 9431,
      "bul": 9432,
      "bound": 9433,
      "borders": 9434,
      "cf": 9435,
      "cz": 9436,
      "cer": 9437,
      "clo": 9438,
      "ccl": 9439,
      "cust": 9440,
      "dress": 9441,
      "dies": 9442,
      "eaten": 9443,
      "f5": 9444,
      "female": 9445,
      "gas": 9446,
      "gate": 9447,
      "gra": 9448,
      "garden": 9449,
      "hall": 9450,
      "hals": 9451,
      "ius": 9452,
      "iev": 9453,
      "just": 9454,
      "kp": 9455,
      "kal": 9456,
      "kesh": 9457,
      "kashmir": 9458,
      "kerala": 9459,
      "mas": 9460,
      "mortal": 9461,
      "nag": 9462,
      "nations": 9463,
      "nkp": 9464,
      "ots": 9465,
      "oids": 9466,
      "poverty": 9467,
      "rip": 9468,
      "so": 9469,
      "sis": 9470,
      "s412": 9471,
      "sculpture": 9472,
      "turn": 9473,
      "vara": 9474,
      "win": 9475,
      "wic": 9476,
      "whi": 9477,
      "wAAQBAJ": 9478,
      "where": 9479,
      "ंटे": 9480,
      "ंमार": 9481,
      "अभ": 9482,
      "अंट": 9483,
      "अजं": 9484,
      "अलावा": 9485,
      "आग": 9486,
      "आया": 9487,
      "इरा": 9488,
      "इंदि": 9489,
      "इंट": 9490,
      "उल": 9491,
      "उज्": 9492,
      "ऋग्व": 9493,
      "एफ": 9494,
      "एयर": 9495,
      "एजें": 9496,
      "ऐतिहासिक": 9497,
      "ओस": 9498,
      "ओमान": 9499,
      "ओआई": 9500,
      "ओडिया": 9501,
      "औसत": 9502,
      "कप": 9503,
      "कर्म": 9504,
      "कमिल": 9505,
      "खर": 9506,
      "खान": 9507,
      "खगोल": 9508,
      "गल": 9509,
      "ग़": 9510,
      "घन": 9511,
      "चंप": 9512,
      "छा": 9513,
      "छो": 9514,
      "जग": 9515,
      "जॉ": 9516,
      "जाना": 9517,
      "जलो": 9518,
      "जहाँ": 9519,
      "झी": 9520,
      "ठन": 9521,
      "ठा": 9522,
      "ठार": 9523,
      "डोग": 9524,
      "णे": 9525,
      "तः": 9526,
      "थु": 9527,
      "दों": 9528,
      "द्रा": 9529,
      "दारी": 9530,
      "धता": 9531,
      "धोला": 9532,
      "नम": 9533,
      "नार": 9534,
      "पत्र": 9535,
      "पदी": 9536,
      "पड़ो": 9537,
      "पठार": 9538,
      "बु": 9539,
      "बलि": 9540,
      "बहरी": 9541,
      "बन्ध": 9542,
      "भर": 9543,
      "भरा": 9544,
      "भरत": 9545,
      "मना": 9546,
      "मपु": 9547,
      "मंग": 9548,
      "म्या": 9549,
      "मथु": 9550,
      "यण": 9551,
      "यल": 9552,
      "यमु": 9553,
      "यमन": 9554,
      "रिक": 9555,
      "रजवा": 9556,
      "लौ": 9557,
      "लद्": 9558,
      "वान": 9559,
      "वरण": 9560,
      "शल": 9561,
      "सौ": 9562,
      "ह्": 9563,
      "हम्": 9564,
      "िक्ष": 9565,
      "ुष": 9566,
      "ूदी": 9567,
      "ोबार": 9568,
      "ौपदी": 9569,
      "१०": 9570,
      "१३": 9571,
      "१६": 9572,
      "२४": 9573,
      "४०": 9574,
      "ంకా": 9575,
      "ంజి": 9576,
      "ంజీ": 9577,
      "ంతల": 9578,
      "అవి": 9579,
      "అలీ": 9580,
      "అధ్య": 9581,
      "అజె": 9582,
      "అక్టో": 9583,
      "అసో": 9584,
      "అర్జె": 9585,
      "ఆచే": 9586,
      "ఆర్య": 9587,
      "ఆనంద": 9588,
      "ఇంది": 9589,
      "ఇక్క": 9590,
      "ఇంటి": 9591,
      "ఇస్రా": 9592,
      "ఈజి": 9593,
      "ఉండ": 9594,
      "ఉజ్": 9595,
      "ఉష్ణ": 9596,
      "ఉంటుంది": 9597,
      "ఋతు": 9598,
      "ఎమి": 9599,
      "ఒకే": 9600,
      "ఒమన్": 9601,
      "ఓం": 9602,
      "కజ": 9603,
      "కె": 9604,
      "క్రా": 9605,
      "కార్": 9606,
      "కటి": 9607,
      "కస్తాన్": 9608,
      "కంబ": 9609,
      "కమీ": 9610,
      "కరం": 9611,
      "కమల": 9612,
      "కదంబ": 9613,
      "ఖా": 9614,
      "ఖు": 9615,
      "ఖై": 9616,
      "ఖగోళ": 9617,
      "గజ": 9618,
      "గధ": 9619,
      "గమ": 9620,
      "గదీ": 9621,
      "గిల్లీ": 9622,
      "గనులు": 9623,
      "గంగో": 9624,
      "గ్రామ": 9625,
      "ఘల్": 9626,
      "ఘట్ట": 9627,
      "చ్య": 9628,
      "చట్ట": 9629,
      "చారి": 9630,
      "చాలా": 9631,
      "చత్తీస్": 9632,
      "ఛే": 9633,
      "ఛత్తీస్": 9634,
      "జర": 9635,
      "జల": 9636,
      "జవ": 9637,
      "జౌ": 9638,
      "జ్ర": 9639,
      "జాలు": 9640,
      "జంబ": 9641,
      "జయం": 9642,
      "జర్వ": 9643,
      "జమై": 9644,
      "జికి": 9645,
      "జరుపు": 9646,
      "జగదీ": 9647,
      "డండి": 9648,
      "డాన్": 9649,
      "తత్వ": 9650,
      "తవాహ": 9651,
      "తజికి": 9652,
      "థమ": 9653,
      "థార్": 9654,
      "థాయి": 9655,
      "దస": 9656,
      "దీయ": 9657,
      "దారి": 9658,
      "దరణ": 9659,
      "దండా": 9660,
      "ధం": 9661,
      "ధన్": 9662,
      "ధనా": 9663,
      "నూ": 9664,
      "నర్": 9665,
      "నరే": 9666,
      "నపద": 9667,
      "పస్": 9668,
      "ప్ట": 9669,
      "పద్": 9670,
      "పట్": 9671,
      "పారి": 9672,
      "పవర్": 9673,
      "పర్వ": 9674,
      "పకళ": 9675,
      "పారిటీ": 9676,
      "పవనాలు": 9677,
      "పౌర": 9678,
      "ఫో": 9679,
      "ఫ్రా": 9680,
      "బు": 9681,
      "బనా": 9682,
      "బంగా": 9683,
      "బహా": 9684,
      "బ్యా": 9685,
      "మస్": 9686,
      "మంది": 9687,
      "మలి": 9688,
      "మారు": 9689,
      "మంగో": 9690,
      "మగధ": 9691,
      "యస్": 9692,
      "యర్": 9693,
      "యము": 9694,
      "యతి": 9695,
      "యత్": 9696,
      "యంలో": 9697,
      "యనాలు": 9698,
      "యణం": 9699,
      "యసల": 9700,
      "రత్": 9701,
      "రద్": 9702,
      "రారి": 9703,
      "రవీ": 9704,
      "లాల్": 9705,
      "ళూరు": 9706,
      "వత": 9707,
      "వతి": 9708,
      "వమి": 9709,
      "వల్ల": 9710,
      "వళి": 9711,
      "వనాథ": 9712,
      "వసర": 9713,
      "వజ్ర": 9714,
      "శాల": 9715,
      "శిల్": 9716,
      "శ్రామ": 9717,
      "శరద్": 9718,
      "షే": 9719,
      "షకాహార": 9720,
      "సన": 9721,
      "సొ": 9722,
      "సల్": 9723,
      "సులు": 9724,
      "సైనా": 9725,
      "సమితి": 9726,
      "హణ": 9727,
      "హె": 9728,
      "హ్ర": 9729,
      "హస్త": 9730,
      "హర్య": 9731,
      "హక్కు": 9732,
      "ాబ్": 9733,
      "ాధి": 9734,
      "ానిస్తాన్": 9735,
      "ాయతి": 9736,
      "ిళ్ళ": 9737,
      "ీలు": 9738,
      "ీనా": 9739,
      "ీకరణ": 9740,
      "ీర్ణం": 9741,
      "ుళూరు": 9742,
      "ూచి": 9743,
      "ూప్": 9744,
      "ూనై": 9745,
      "ేష్": 9746,
      "ొనేషియా": 9747,
      "ోడియా": 9748,
      "ౌపది": 9749,
      "tect": 9750,
      "ontent": 9751,
      "inet": 9752,
      "remain": 9753,
      "thes": 9754,
      "three": 9755,
      "ero": 9756,
      "erpar": 9757,
      "erland": 9758,
      "arter": 9759,
      "India1950": 9760,
      "anti": 9761,
      "anat": 9762,
      "aleph": 9763,
      "ena": 9764,
      "enue": 9765,
      "ency": 9766,
      "cifer": 9767,
      "istic": 9768,
      "ischer": 9769,
      "్రయి": 9770,
      "itte": 9771,
      "omic": 9772,
      "theref": 9773,
      "ారమ్": 9774,
      "asar": 9775,
      "asagar": 9776,
      "outp": 9777,
      "1949": 9778,
      "idistan": 9779,
      "che": 9780,
      "chess": 9781,
      "acol": 9782,
      "ాలనే": 9783,
      "ika": 9784,
      "केवल": 9785,
      "tripura": 9786,
      "ambol": 9787,
      "lotus": 9788,
      "agran": 9789,
      "agwat": 9790,
      "స్కృ": 9791,
      "స్పీ": 9792,
      "స్సీ": 9793,
      "ington": 9794,
      "रामा": 9795,
      "रात्रि": 9796,
      "राधा": 9797,
      "राइल": 9798,
      "దేశీ": 9799,
      "దేశపు": 9800,
      "దేశంగా": 9801,
      "దేశాధి": 9802,
      "1057": 9803,
      "సాయం": 9804,
      "సానియా": 9805,
      "मेर": 9806,
      "ilt": 9807,
      "ille": 9808,
      "ilater": 9809,
      "econtent": 9810,
      "website": 9811,
      "ानु": 9812,
      "ర్ష": 9813,
      "ర్క్": 9814,
      "ర్ము": 9815,
[...]
